{"\u0120fseek": 80362, ":%": 7685, "\u0120SUMMARY": 96885, "\u0120Controlled": 82445, "ists": 1705, "\u0120mostrar": 44108, "\u0120imminent": 51551, "\u0120ymin": 60215, "_layers": 27183, "severity": 78119, "\u0120\u00d1\u012f\u00d0\u00ba": 81757, ".ERROR": 28958, "_col": 10422, "zz": 10616, "_mtx": 86516, "Texto": 96023, "maktan": 125728, "arl": 49358, ".propTypes": 30595, "\u0120lekker": 77647, "\u0109UObject": 87389, "hell": 57195, "Stack": 4434, "\u0120Spring": 12531, "_|": 36495, "ProducesResponseType": 91720, "\u0120sovere": 30097, "-dimensional": 33520, "_ARCHIVE": 99736, "FFF": 32303, "replacement": 84731, "Execution": 20912, "\u0120ava": 84764, "\u0120eles": 67541, "\u0120fries": 53031, "ovan\u00c3\u00a1": 113668, "_boot": 53162, "\u0120casi": 62353, "\u0120gasoline": 46595, "\u0120assures": 94087, "\u0120onRequest": 80108, "\u0120mv": 24039, "\u0120ultimate": 17139, "jej": 77910, "\u0120\u00d0\u00bf\u00d0\u00be\u00d0\u00b2\u00d0\u00b5\u00d1\u0122": 102968, "\u0120\u00d1\u0125\u00d0\u00b3\u00d0\u00be\u00d0\u00b4": 120906, "\u0120diabetic": 71975, "\u0120spole": 123156, "\u00e0\u00a5\u0129\u00e0\u00a4\u0138": 101739, "\u0120actress": 24577, "\u0120Mick": 60333, ".snp": 64009, ".club": 98746, "\u00d8\u00a7\u00d9\u0126\u00d8\u00a9": 107785, "mrt": 120857, "\u0120\u00d0\u00b4\u00d0\u00b5\u00d0\u00bb\u00d0\u00b0": 123936, "\u0120Voc": 87145, "\u00e5\u00b0\u0130": 106839, "\u0120Memor": 73766, "-fast": 74768, "fern": 79833, "adopt": 99338, "_once": 7785, "\u0109queue": 48093, "\u0120matplotlib": 17220, ".radians": 91744, "unicip": 13917, "\u0120PropertyInfo": 95523, "\u00d9\u012c\u00d8\u00b1\u00d9\u012c": 112758, "\u00e2\u0122\u012e\u00d9\u00be\u00d8\u00af\u00db\u012e\u00d8\u00a7": 115305, "\u0120apartments": 32729, "\u0120marching": 62198, "\u0120mennes": 96218, ")init": 68606, "thur": 22173, "odynamic": 61002, "\u00e0\u00b9\u0129\u00e0\u00b8\u0143\u00e0\u00b8\u0123": 119636, "abella": 72690, ".obtain": 73968, "\u0120Write": 9842, "\u00ce\u00af\u00ce\u00b5\u00cf\u0124": 103573, "-Za": 40379, "\u0120zona": 45112, "\u0120buna": 114315, "\u0120interpolated": 86764, "\u00e4\u00bf\u013f\u00e6\u012c\u00a4": 113543, "\u00e0\u00b8\u00b7\u00e0\u00b8\u0143": 84681, "\u0120intoler": 72729, "\u0120Sidney": 76996, "(sender": 19939, "_preference": 93818, ":init": 50052, "\u0120\u00c4\u0133\u00e1\u00ba\u00a3m": 104673, "_functions": 32808, "Sp": 6540, "\u0120Cricket": 59019, "lands": 8329, "\u0120tissue": 20438, "lopen": 42999, "\u0120b\u00c3\u00aan": 103381, "\u00e2\u0122\u012e\u00d8\u00af": 120033, "\u0120\u00ea\u00b0\u0122\u00ec\u00a7\u0122\u00ea\u00b3\u0142": 120693, "Vin": 73092, "qli": 7050, "\u0120hop": 7598, "\u0120RSVP": 82989, "INA": 33004, "\u0120Snapshot": 69797, "\u0120\u00da\u013a\u00d9\u012a\u00d8\u00a6": 116395, "\u0120Careers": 99455, "\u012bnh": 125799, ">\u010a\u010a": 1363, "(grammar": 79436, "fection": 13421, "\u0120calcul": 5935, "_GROUPS": 90289, "\u0120logistics": 43257, "\u0120pleaded": 40001, "\u0120\u00e4\u00b8\u0135": 126449, "i\u00c3\u00aa": 100826, "\u00d1\u0122\u00d1\u0130": 106233, "ipt": 11696, "?url": 95499, ".jetbrains": 36610, "grammar": 42194, "olith": 48218, "_QUEUE": 36392, "\u0120ei": 30529, "-access": 43256, "immers": 73683, "\u0120bure": 31861, "_nan": 75036, "\u00e6\u0130\u00a5": 30177, "verse": 4550, "pire": 23772, "\u00e5\u012d\u0129": 112442, "\u0120\u00d1\u0122\u00d0\u00b5\u00d0\u00ba\u00d0\u00be\u00d0\u00bc\u00d0\u00b5\u00d0\u00bd\u00d0\u00b4\u00d0\u00b0": 119692, "\u0120t\u00c3\u00b9y": 113346, "\u00e8\u012a\u0134": 120178, "\u00ec\u013f\u00b4\u00ed\u0123\u00ac": 120758, "\u0120visually": 43395, ".guild": 34409, "\u0120fascism": 81522, ".nodes": 22439, "ewriter": 73580, "Ctrl": 15351, "\u0120,\u010a": 13801, "\u0120twig": 52346, "\u0120STATS": 77082, "\u0120Legacy": 38987, "\u0120haste": 90539, "\u0120patron": 36380, "\u0120kaps": 125249, "\u00d0\u00a3": 41682, "\u0120Tatto": 61192, "\u0109padding": 41612, "\u0120cuales": 95849, "\u0120E\u00c4\u0141er": 113362, "\u0120\u00d8\u0143\u00d9\u012c\u00d9\u0128": 121146, "\u0120gall": 19754, "GeneratedValue": 37206, "\u0120collegiate": 95797, "translated": 54342, "\u0120\u00d8\u00a7\u00d9\u0126\u00d8\u00a3\u00d8\u00ae\u00d8\u00b1\u00d9\u012b": 124106, "Bron": 42059, "971": 25693, "xBA": 89583, "\u00e0\u00b8\u0126\u00e0\u00b8\u0143\u00e0\u00b8\u00a1": 124438, "inel": 30808, "())->": 33473, "\u0120Turks": 72857, "\u0120PCI": 28889, "\u0120Depends": 95111, "\u0120erw": 67486, "\u0120renovations": 78664, "\u0120unterschied": 81360, "\u00e4\u00bb\u00bd": 70542, "\u0120delivers": 28421, "\u0120strand": 42589, "\u0120encoding": 11418, "orical": 70848, "\u0120Mosque": 100031, "\u00e0\u00a4\u0124\u00e0\u00a4\u00aa": 108020, "\u0120corp": 37566, "/load": 72996, "\u00e0\u00a4\u00b9\u00e0\u00a4\u00a8": 124273, "categoryId": 62478, "\u00ec\u0142\u0137\u00eb\u00b3\u00b4": 105922, "\u0120reproduction": 39656, "\u0120y\u00c3\u00bcr\u00c3\u00bcy": 126922, "uably": 32764, "\u0120((!": 45924, ".chart": 31772, "asm": 10753, "_closed": 45797, "[DllImport": 97028, ".loggedIn": 93516, "antar": 90065, "contri": 13151, "\u00e0\u00b8\u00b1\u00e0\u00b8\u0132\u00e0\u00b8\u013c\u00e0\u00b8\u00b2\u00e0\u00b8\u00a5": 124583, "hind": 75038, "NAS": 35596, "ivial": 27756, "'));": 25433, "\u0120ph\u00e1\u00ba\u0143n": 114021, "sin": 16319, "ellaneous": 41242, ".addObject": 47023, ".Attributes": 32484, "(objects": 74799, "\u0120unseen": 64233, "\u00cf\u0126\u00ce\u00b1\u00cf\u0124": 103155, "GRES": 92991, "acman": 95214, "Prec": 69933, "\u0120blowjob": 38881, "\u0120\u00d1\u0131\u00d0\u00ba\u00d0\u00b0": 105016, "\u0120Bound": 38276, "\u0120ServletException": 31191, "-os": 83528, "\u00d8\u00b9\u00d9\u0127\u00d8\u00a7\u00d9\u0126": 112589, "\u0120awakeFromNib": 76049, "\u0120\u00d1\u0122\u00d0\u00b0\u00d1\u0123\u00d0\u00bf\u00d0\u00be\u00d0\u00bb\u00d0\u00be\u00d0\u00b6": 111750, "..\"": 38526, "\u0120Eugene": 51558, "=plt": 97033, "\u0120Bite": 89308, "\u0120horse": 15580, "\u0120living": 5496, "449": 21125, "\u0120destabil": 72257, "plib": 82782, "\u0120sar": 29147, "conversation": 62737, "\u00e0\u00b8": 3098, "\u0120Herb": 74956, "\u0120monopol": 75253, "HashTable": 82619, "\u00d9\u0134\u00d9\u0127": 109302, "\u0120assets": 12032, ".Back": 9040, "\u0120asia": 84599, "\u013a\u00ec\u013f\u00b4": 63718, "\u0120Adresse": 90570, "KEEP": 52901, "\u00e6\u012d\u0136": 119789, "\u0120\u00d0\u00bf\u00d1\u0122\u00d0\u00be\u00d1\u0129": 114455, "[this": 18782, "\u0120WAL": 74892, "\u0120realizar": 42658, "\u00e9\u0124": 45932, "/book": 53384, "\u0120bac": 80980, "\u0120\u00d0\u00b7\u00d0\u00b8\u00d0\u00bc": 114517, "(void": 4431, "/inet": 84181, "\u0109il": 55696, "\u0120break": 1464, "\u0120Prison": 42618, ".DialogInterface": 72101, "\u0120\u00e7\u012d": 112362, "\u0120vibrant": 34076, "upport": 2870, "\u0120jednoho": 116475, "\u0120wives": 39720, "_No": 38089, "\u0120VO": 44752, "\u00d0\u00b0\u00d1\u0122\u00d1\u0129": 119768, "(indices": 66400, "\u0120normalization": 49823, "\u00d9\u0126\u00d8\u00b3\u00d9\u0126": 117463, "\u00e8\u00af\u012b": 110309, "\u0120Taj": 67799, ".Scope": 79040, "\u0120escrit": 58544, "WIN": 24185, "\u0120ELF": 73668, "\u0120\"\"},\u010a": 78596, "_Tis": 48046, "firm": 8978, "\u00e5\u00b8\u0124": 23530, "\u00db\u00b1\u00db\u00b3\u00db\u00b8": 113123, "Contain": 47622, "\u0120surprising": 15206, "oriously": 70124, "Adapter": 6065, "\u0120Order": 7365, "_EXCEPTION": 28385, "wrapped": 76804, "\u0120UPLOAD": 84918, "icie": 77377, "ied": 1142, "OTS": 47313, "\u0120needed": 4460, "_SO": 46242, "\u0120Actors": 82461, "(nil": 29007, "AndPassword": 77340, "\u0120company": 2883, "_tabs": 59053, "\u00e7\u00bb\u0131\u00e8\u00bf\u0129": 124348, "_FOLLOW": 79969, "\u00d9\u00ab": 103189, "\u0120hom": 5105, "arsi": 61114, "\u0120investigating": 24834, "\u0120Mey": 84962, "_aff": 50014, ":CGRect": 27749, "\u0120chi\u00e1\u00ba\u00bf": 104681, "\u0120mohla": 121028, "GW": 63665, "\u00e5\u00ae\u00a1": 76323, "habit": 97802, "bay": 47364, "\u00e8\u00bb": 100818, "\u00d0\u00b3\u00d0\u00b0\u00d0\u00bd": 121863, "ItemClickListener": 38429, "_HEX": 87602, "\u0120attendee": 94665, "\u0120respir": 33515, "\u0120Sec": 4621, "(sub": 10849, "quee": 17548, "\u0120Claude": 75430, "886": 25399, "\u0120Vapor": 89754, "\"profile": 37205, "ConnectionFactory": 90421, "statt": 97446, "\u0120zost": 97026, "\u0120Pays": 94708, "\u0120citation": 45477, "\u0120n\u00c3\u00a1p": 112068, "estado": 22790, "\u0109draw": 40810, "\u0120icy": 67004, "\u0120Icelandic": 100248, "\u00e6\u012f\u00b7": 118742, "\u0120\u00ce\u00b4\u00ce\u00b9": 105160, "arDown": 60442, "\u00e0\u00b8\u0137": 40955, "amilies": 60004, "\u00e0\u00a4\u00be\u00e0\u00a4\u00a4": 100444, "\u00e5\u00af\u0128\u00e7\u0142\u0123": 33967, "...\u010a\u010a\u010a\u010a": 27676, "auty": 59051, "\u0120////": 31899, "\u0120contentValues": 82518, "uminium": 40951, "\u0120anim": 4039, "\u0120\u00ea\u00b7\u00b8\u00eb\u00a6\u00ac": 126962, "\u00ce\u0141": 100388, "\u00e6\u0123\u00b6": 113129, "\u0120\u00ec\u0137\u0126\u00ec\u013f\u00b4\u00ec\u00bd\u013a": 103408, "\u0120\u00d8\u00a7\u00d9\u0128\u00d9\u012a\u00d8\u00a7\u00d8\u00b9": 110664, "isp": 13391, "branch": 18424, "TXT": 63965, "\u00d0\u00bc\u00d0\u00be\u00d1\u0124\u00d1\u0122": 98397, "\u00e5\u0143\u00b8\u00e6\u0142\u00a1": 126684, "\u0120gam": 9192, "\u0120Bernie": 30324, "\u0120maxLength": 36607, "\u0120\u00d8\u00b4\u00d8\u00af\u00d9\u0128": 107553, "\u0120\"/\"\u010a": 81555, "itone": 85166, "BoundingClientRect": 64213, "\u00c7": 131, "\u00e3\u0125\u00bc": 11972, "\u0120Chennai": 64921, "_Begin": 94547, "helper": 19291, "\u0120imprimir": 93606, "/****************************************************************************": 23381, "\u00ce\u00b9\u00ce\u00ba\u00ce\u00b7": 116782, "uctions": 92563, "\u0120\u00ea\u00b8\u00b0\u00eb\u00b0\u013a": 126470, "\u0120Franc": 9893, "\u00eb\u00bb": 127771, "\u0120kostenlos": 27165, "\u0120literally": 16280, ".parents": 73861, "\u00d1\u0125\u00d0\u00b4\u00d0\u00b8": 112276, "uem": 70947, "\u00ed\u0136\u00bd": 113198, "\u0120\u00d9\u0126\u00d9\u0129\u00d8\u00a7": 114953, "(isset": 11580, "\u0120\u00e8\u00b2": 109517, "\u0120gains": 20192, "\u0120w": 289, "\u0120voucher": 49758, "\u00ce\u00b5\u00ce\u00af\u00ce\u00bf": 106105, "_RESET": 28126, "\u0109append": 83660, "emic": 8274, "grave": 77731, "iei": 77099, "\u0120\u00d8\u00a3\u00d9\u0125\u00d8\u00a8\u00d8\u00b1": 126309, "\u0120description": 4096, "ordinate": 8904, "\u0120Implements": 51060, "import": 475, "\u00e2\u012b": 60094, "\u0120hdr": 37715, "\u0120assigning": 61853, "\u0120\u00ec\u013f\u00b4\u00eb\u0141\u00ac\u00ed\u0137\u013e": 122016, "_provider": 30618, "alex": 56975, "\u0120\u00d1\u0129\u00d0\u00be\u00d0\u00bb\u00d0\u00be\u00d0\u00b2": 108043, "<|reserved_special_token_31|>": 128036, ".).\u010a\u010a": 75303, "\u00e3\u0122\u0123": 5486, "\u0120Gomez": 63398, "atically": 7167, "\u00e5\u00bc\u00ba": 103229, ")\u010d\u010a\u010d\u010a\u010d\u010a": 35016, "trajectory": 84887, "_MAN": 26201, "\u0120%=": 50232, "_todo": 88786, "(infile": 72213, "\u0120starch": 70181, "igits": 19184, "\u0120ruled": 21989, "zu": 26738, "\u0120\u0120\u0120\u0120\u0120\u0120": 996, "\u0120\u00cf\u0129\u00cf\u0123\u00cf\u012e": 111562, "_HELPER": 86431, "\u0120Rossi": 77169, "\u0120pe\u00c4\u012f": 119305, "\u0120\u00d0\u00b4\u00d0\u00b5\u00d1\u0122\u00d0\u00b6": 111361, "\u0120])": 42673, "\u0120eliminar": 49504, "\u0120\u00eb\u0132": 73444, "\u0120cart": 7558, "\u0120change": 2349, "\u0120SCC": 80399, "\u0120Instances": 90341, "\u0120Leipzig": 87647, "odings": 59435, "(CultureInfo": 78041, "\u0120p\u00c3\u00a1n": 124356, "\u0120Interval": 41684, "\u0134\u012a": 101363, "\u0120koup": 112099, "\u0120\u00e0\u00a4\u00b8\u00e0\u00a4\u013c": 114678, "\u0120theres": 92779, "Monitoring": 99162, "\u00ce\u00b8\u00ce\u00b7\u00ce\u00ba\u00ce\u00b5": 104843, "\u0120ng\u00c4\u0125n": 113602, "\u0120Pon": 66415, "\u00d8\u00a7\u00d8\u00a6\u00d9\u0127": 111803, "\u0120kitt": 67712, "\u0120t\u00c3\u00bcr": 103326, "_Label": 54657, "\u0120pageInfo": 98367, "\u0120mt": 12232, "\u00d8\u00a8": 22071, "\u00e0\u00a4\u0142": 101985, "\u00e7\u0141\u00a5\u00e8\u00af\u0128": 116658, "\u0120postseason": 56471, "\u0120methodologies": 81898, "\u00e0\u00b9\u0124\u00e0\u00b8\u00a3\u00e0\u00b8\u0129": 107342, "\u0120harus": 59597, "Hot": 20780, "\u0120\u00d0\u00b3\u00d1\u0122\u00d1\u0125\u00d0\u00bd": 116160, "jav": 62559, "\u0120converting": 34537, "\u00e5\u00b2\u00b8": 111418, "\u0120cause": 5353, "\u0120phoenix": 90815, "izabeth": 19049, "\u0120serves": 17482, "\u00e4\u00b8\u00ba\u00e4\u00bb\u0122\u00e4\u00b9\u012a": 113221, "\u0120nim": 46792, "acam": 96708, "\u00d1\u0123\u00d1\u012e\u00d0\u00ba\u00d0\u00be\u00d0\u00b3\u00d0\u00be": 101785, "[token": 88346, "_hover": 54545, "\u0120\u00ce\u0142\u00ce\u00b1\u00ce\u00bd": 114321, "\u0120accommod": 14252, "\u0120meanwhile": 37318, "/stream": 88534, "_five": 96358, "jamin": 26312, "\u0120useDispatch": 40994, "\u00e2\u0122\u00b3N": 115219, "\u0120\u00d0\u00b8\u00d0\u00b7\u00d1\u0125\u00d1\u0129": 123438, "\u00e8\u00b3\u00bd": 106806, "formance": 12057, "`),\u010a": 90846, ")\\\u010a": 63655, "equip": 69195, "Howard": 76768, "\u0120Lahore": 99189, ".website": 80188, "\u0120estrogen": 70180, "\u00d9\u0129\u00d8\u00a7\u00d9\u012c": 109379, "\u0120\u00d1\u0122\u00d0\u00b0\u00d1\u0123\u00d1\u0123\u00d1\u0129\u00d0\u00b8\u00d1\u0124": 124818, "\u0120Zhou": 67927, "\u0120colossal": 97937, "\u0120\u00d0\u00ba\u00d1\u0138\u00d0\u00bb\u00d1\u012e": 104544, "_travel": 92419, "\u0120Owners": 40566, "\u0120Marc": 19412, "ove": 1009, "\u0120economically": 47379, "-W": 13299, "RIPTION": 31698, "\u0120struct": 2080, "\u0120manufacturing": 15266, "Sending": 50382, "\u0120luz": 65566, "\u0120G\u00c3\u00bcn": 105705, "\u0120\u00eb\u00a3\u00a8": 107713, "\u00e0\u00b8\u00ba": 114918, "\u0120dvd": 51008, "\u0120*,\u010a": 75892, "(actor": 66551, "\u0120Redistributions": 20178, "302": 13121, "\u00e5\u00af\u00a6": 106340, "ixon": 29572, "_pv": 92239, "\u0120fid": 33204, "\u0120\u00d1\u0122\u00d1\u0125\u00d0\u00ba\u00d0\u00b0\u00d0\u00bc\u00d0\u00b8": 112811, "\\xff": 88077, "\u00d1\u0129\u00d0\u00b8\u00d0\u00b2\u00d0\u00b0\u00d0\u00b5\u00d1\u0124\u00d1\u0123\u00d1\u0131": 121802, "OCI": 65083, "\u0120prerequisites": 86358, "lightly": 80598, "beam": 54971, "\u00c3\u012e": 108578, "\u0120Cursor": 29167, "\u0120ner": 41283, "\u0120affordability": 79010, "\u0120\u00d0\u00ba\u00d1\u0125\u00d0\u00bb\u00d1\u012e\u00d1\u0124\u00d1\u0125\u00d1\u0122": 114750, "\u0120\u00d0\u0142\u00d0\u00b5\u00d1\u0123\u00d0\u00bf": 114522, "ot\u00c5\u013beb": 110430, "\u0120noci": 124822, "_CHOICES": 76095, "******/\u010a\u010a": 44601, "\u0120\u00d0\u0140\u00d0\u00b4": 103992, "ah": 1494, "\u00e0\u00b9\u0123\u00e0\u00b8\u00a5\u00e0\u00b8\u00b0\u00e0\u00b8\u00a1": 127401, "\u0120hun": 11794, "\u0120IndexError": 61303, "\u00c3\u00a9ment": 42625, "\u0120\u00e0\u00a4\u013a\u00e0\u00a4\u00b0": 106244, "\u0120cleaner": 32981, "\u0120GetString": 99021, "\u00d1\u0133\u00d1\u0122": 110211, "\u0120Dr": 2999, "Lee": 55088, "\u00e4\u00ba\u0143": 127476, ".middleware": 44984, "d\u00c3\u00bck": 116042, ".poster": 98194, ".TabIndex": 4990, "\u0120epile": 58652, "\u0120healing": 21730, "-less": 56009, "\\\"": 2153, "\u00e9\u0125\u00bd\u00e4\u00bc\u013c": 127579, "\u0120\u00eb\u012f\u00b0\u00ec\u013f\u00b4\u00ed\u0126\u00b0": 55348, "\u00d9\u0128\u00da\u00af": 100642, "\u0120Generally": 44493, "\"};\u010a\u010a": 79414, "\u0120revamped": 96596, "/File": 65168, "\u0120Folder": 36943, "\u0120tailor": 52056, "\u0120y\u00c4\u00b1k": 113111, "\u0120advertise": 51936, "fef": 98904, "Type": 941, "\u0120paintings": 36692, "\u0120Prince": 19912, "<|reserved_special_token_199|>": 128204, "\u0120\u00d9\u0124\u00d8\u00b3\u00d9\u0127\u00d8\u00aa": 112374, "\u0120folk": 29036, ".Temp": 66109, "\u0120Phoenix": 23503, "\u00d1\u0129\u00d0\u00ba\u00d0\u00b8": 120058, "\u0120metadata": 11408, "Without": 27131, "\u0120fitting": 27442, "\u0120aperture": 58101, "%.": 14697, "adem": 60472, "AES": 70268, "ILER": 46868, "Buzz": 60573, "opez": 42359, "asures": 24368, "\u0120krom\u00c4\u013d": 124163, "_sign": 11420, "quarters": 20246, "Um": 45767, "\u0120Olson": 75355, "\u00d1\u0127\u00d0\u00be\u00d0\u00b4\u00d0\u00b8\u00d0\u00bc": 75166, "\u0120mostly": 10213, "\u00ec\u0139": 13879, "filesystem": 42997, "/address": 91765, "\u0120drill": 31646, "\u0120banco": 53565, "\u0120'':\u010a": 49215, "\u0120maneuvers": 96891, "bond": 65339, "\u00e8\u00ab\u00be": 125310, "Desk": 70621, "\u00e0\u00a4\u0131": 100714, "\u0120\u00d8\u00ac\u00d8\u00b9": 123158, "Used": 23580, "\u00d0\u00bd\u00d0\u00b8\u00d1\u0128\u00d1\u0131": 115074, "\u0120oslo": 37362, "\u00e0\u00b9\u0123\u00e0\u00b8\u00aa\u00e0\u00b8\u0129": 124806, "\u0120relatively": 12309, "\u0120Burnett": 99994, "\u00d0\u00b1\u00d0\u00b0": 103128, "\u0120Timestamp": 33858, "r\u00c3\u00bd": 113873, "\u0120\u00d8\u00a2\u00d8\u00b2\u00d9\u0127\u00d8\u00a7\u00db\u012e\u00d8\u00b4": 120984, "straints": 7610, "\u0120zvl\u00c3\u00a1": 111994, "cky": 119409, "\u0120wykon": 99261, "\u0120fb": 26548, "King": 34655, "\u0120deportation": 59371, "FTA": 59512, "ymoon": 69960, "\u0120suffering": 16066, "\u0120millennials": 70433, "\u0120vegetable": 36581, "\u0120Hull": 58486, "\u0120Absolute": 49981, "Failed": 9595, "recipes": 50959, "\u0120incom": 53990, "\u0120commencement": 69544, "PECT": 7433, "abela": 38485, "\u0120\u00d0\u00a1\u00d0\u00be\u00d0\u00b2\u00d0\u00b5\u00d1\u0124": 126774, "aul": 5049, "\u00eb\u00ac\u00b8\u00ec\u013f\u0126": 123926, "\u0120impairment": 53317, "inite": 16235, "\u0120Fs": 85719, "\u0120proxy": 13594, "&P": 43945, "\u0120Pok": 23166, "umbled": 26902, "\u0120powder": 17138, "\u0120cancel": 9299, "\u00e0\u00b8\u00a3\u00e0\u00b8\u00a7": 108148, "128": 4386, "\u0120Styled": 58399, "oms": 7085, ")\"},\u010a": 97873, "\u0120dB": 44868, "\u0120blazing": 86350, "=======\u010a": 42505, "\u0120Rs": 19766, "\u0120division": 13096, "_hex": 33755, "\u0120impunity": 98770, "SETTINGS": 85458, "\u0120optionally": 46624, "\u0120Lazy": 45363, "\u0120simd": 93357, "dos": 41625, "\u0120xlim": 94769, "\u00e5\u0128\u00b7": 106142, "auss": 64151, "hints": 96448, "-learning": 71856, "\u0120alan\u00c4\u00b1": 119207, "/password": 60570, "\u00e0\u00b8\u0143\u00e0\u00b8\u0129\u00e0\u00b8\u0126": 107027, "\u0120\u00ec\u0137": 24814, "192": 5926, "\u0120irritated": 84971, "\u0120Rein": 47169, "_ATTRIBUTE": 33345, "ENUM": 69842, "\u0120principalColumn": 59901, "\u00e6\u013f\u00a8": 115971, "MouseEvent": 41487, "\u0120Circuit": 28317, "[args": 92738, "\u0120vapor": 38752, "milliseconds": 61872, ".netty": 39796, "@register": 83760, "\u0120spec": 1424, "-stock": 88211, "\u0120format": 3645, "\u00e0\u00a4\u0137\u00e0\u00a4\u00a8": 122224, "_cons": 33071, "\u0120greater": 7191, "\u0120suffer": 7831, "\u0120kinky": 67876, "\u0120WebDriverWait": 64746, "\u0120//--": 73649, "-Token": 90122, "Check": 4061, "\u0120closure": 22722, "!==": 50114, "\u0120\u00d0\u00a2\u00d0\u00be\u00d0\u00bb\u00d1\u012e\u00d0\u00ba\u00d0\u00be": 127599, "Gets": 50458, "\u0120Servers": 72897, "ENSE": 6501, "\u00e3\u0124\u00af\u00e3\u0125\u00a9\u00e3\u0125\u0138": 127134, "'])){": 81740, "warnings": 61547, "\u0120serializer": 22508, "\u00c3\u00b2i": 116092, "061": 23324, "_positions": 38319, "\u0120Executor": 57132, "\u0120Kl": 29041, "\u0120besides": 28858, "burse": 39082, "most": 3646, "\u0120\u00d8\u00b9\u00d9\u0127\u00d9\u0126\u00db\u012e\u00d8\u00a7\u00d8\u00aa": 127695, "\u0120tekst": 73678, "\u0120Names": 35975, "\u0120aloud": 71511, "\u0120\u00d0\u013b\u00d0\u00be\u00d0\u00b3\u00d0\u00be": 121742, "kit": 8390, ".fromJson": 32975, "\u0120weekend": 9178, "\u0120resend": 94988, "\u0120getProperty": 76596, "\u0109all": 52060, "\u00d8\u00b4\u00d9\u0128": 101825, "********************************": 1724, "DefaultCloseOperation": 56482, "bread": 48616, "\u0120Din": 45873, "um": 372, "\u0120great": 2294, ",:]": 76867, "\u0120\u00d1\u0123\u00d1\u0126\u00d0\u00b5\u00d1\u0122": 121641, "\u0109al": 70671, "\u0120dissoci": 91342, "_Params": 45756, "\u0120\u00e8\u00a7": 56055, "\u0120arts": 19071, "chlor": 72967, "\u0120bourgeoisie": 94886, "--*/\u010a": 96807, "\u00e5\u00a5\u00b3\u00e5\u0143\u0132": 114083, ",DB": 50665, "DataBase": 83887, "\u0120Dub": 17533, ".fixture": 51636, "\u0120\u00cf\u0125\u00ce\u00b1\u00cf\u0124": 109245, "UTH": 9331, "krv": 108811, "HEME": 40532, "matchCondition": 24926, ".collection": 18038, "\u0120\"'\";\u010a": 47973, "\u0120de\u00c4\u0141er": 103069, "(epoch": 62390, "\u0120Pin": 17929, "\u0120\u00ce\u00ac\u00ce\u00bb\u00ce\u00bb": 119216, "')));\u010a": 44384, "\u0120Ach": 46665, "\u0120intrigue": 81613, "\u0120{-": 30769, "\u0120\u00d8\u00a7\u00d9\u0126\u00d8\u00ae\u00d8\u00a7\u00d8\u00b1\u00d8\u00ac": 124024, "\u0120Hulk": 61946, "\u0120Medal": 17867, "ALES": 69230, "-counter": 64289, "ahn": 30660, "\u00a8\u00ec\u0138\u00b4": 112934, "_CC": 32431, "\u0120nurs": 17429, "\u0120tether": 80665, "/************************************************************************************************": 87644, "_avatar": 52204, "\u0120proyectos": 89843, "\u00e5\u00a4\u012f": 59464, "\u0120angels": 46968, ".putInt": 64251, "\u0120\u00d1\u0129\u00d1\u0125\u00d0\u00b2": 108842, "Cell": 3683, "\u0120neue": 39483, "\\Block": 93231, "\u00eb\u00b3\u00b4\u00eb\u012d\u00a4": 107988, "\u0120\u00ce\u013e\u00ce\u00b7": 118716, "k\u00c4\u00b1r": 121349, "===========": 36499, "\u0120interdisciplinary": 88419, "entarios": 82646, "_rewards": 79097, "\u00c3\u00a1le": 102011, ".Tick": 67958, "\u0120comps": 89373, "AP": 2599, "\u0120stage": 6566, "\u00e5\u0123": 49691, "\u0120l\u00c3\u0142n": 123095, "\u0120GT": 12177, "\u00e3\u0124\u00a4\u00e3\u0125\u012b": 114265, "\u0120Widget": 13277, "\u00e6\u00b0\u00a3": 107895, "\u00e9\u013b\u012f": 104989, "\u0120nei": 57097, "\u0120TB": 31180, "--;\u010a\u010a": 59972, "\u0120Shade": 80918, "\u0120\u00ec\u013a\u0128": 122620, "\u0120mini": 13726, "\u00e4\u00ba\u0130\u00e6\u013a\u00af": 123942, "(stat": 42885, "-backed": 46128, "\u0120\u00d0\u00a1\u00d0\u00ba": 117564, "\u0120POSIX": 73247, "\u0120PDT": 46557, "(preg": 74682, "\u0120sexist": 64882, "\u0120hepatitis": 73975, "\u0120Scheduler": 45859, "\u0120smells": 50737, ".\")]\u010a": 52607, "oq": 108268, "\u0120eines": 37208, "\u0120MPG": 91498, "lez": 41881, ".street": 74327, "\u0120\u00d0\u00b2\u00d0\u00be\u00d0\u00bb": 108092, "lamaktad\u00c4\u00b1r": 127577, "\u0120valign": 24799, "\u0120parlament": 123586, "\u00e0\u00a5\u0129,": 103608, "\u00e0\u00b9\u012e\u010a": 105054, "\u0120\u00e6\u0122\u00a7": 115539, "\u0120pound": 31123, "COOKIE": 45896, "\u0109ax": 71468, "Unc": 64818, "\u0120typeof": 7960, "\u0120noise": 12248, "neau": 83353, "\u0120pstmt": 50675, "(tbl": 85654, "\u0120CGFloat": 16310, "outu": 51132, "\u0120capacit": 99758, "\u0120\u00d8\u00aa\u00d8\u00a7\u00d8\u00ab\u00db\u012e\u00d8\u00b1": 120258, "\u0120Kohana": 83773, "\u00cf\u0126\u00ce\u00b9\u00ce\u00bd": 116723, "\u0120solic": 30844, "_encrypt": 67693, "\u0120sv\u00c5\u00afj": 111218, "\u00d8\u00b1\u00d9\u012a\u00d8\u00b9": 107426, "\u00d8\u00a7\u00db\u012e\u00d8\u00a7\u00d9\u0128": 124135, "962": 26366, "\u00e6\u0137\u00b0\u00e7\u00bb\u0126": 70924, "\u00e0\u00b8\u013d\u00e0\u00b8\u00a3\u00e0\u00b8\u00b0\u00e0\u00b8\u0123": 105538, "_fast": 36843, "\"You": 22336, "htags": 26352, "\u0120\u00d1\u0123\u00d1\u0124\u00d0\u00be": 104578, "\u0120FUNCTIONS": 53264, ".rd": 98308, "\u00e8\u00bb\u012f": 103472, "\u00ce\u00b3\u00ce\u00bd\u00cf\u012b": 117034, "\u0120\u00d9\u0125\u00d9\u0128\u00d8\u00aa": 119574, "\u0120Luckily": 48600, "\u0120racism": 27052, "\u0120exponentially": 75251, "dech": 114814, "\u00d0\u0136\u00d0\u00bb\u00d1\u0131": 106192, "\u0120restaur": 7696, "\u0120allele": 70510, "\u0120\u00d0\u00bc\u00d0\u00be\u00d1\u0124": 116575, "(meta": 46219, "\u0120puedes": 60045, "odd": 14898, "\u00d0\u00b8\u00d1\u0129\u00d0\u00b5\u00d1\u0123\u00d0\u00ba\u00d0\u00b8": 119473, "\u0120determine": 8417, "ojis": 84528, "\u0120\u00d0\u00ba\u00d1\u0125\u00d0\u00b4\u00d0\u00b0": 122469, "\u0120\u00ce\u00b4\u00ce\u00b5\u00ce\u00b4\u00ce\u00bf": 126399, "\u0120vard\u00c4\u00b1": 108497, "\u00d1\u012b\u00d0\u00b8\u00d0\u00b9": 113921, "\u0120Line": 7228, "\u0120TECH": 54528, "ORD": 4373, ".sender": 27828, "\u0120\u00c3\u00a7evres": 122064, "\u00e9\u0136\u013b": 29826, "\u0120sebep": 110454, "\u0120UserDefaults": 62892, "-sp": 23032, "\u00e9\u013c\u012c": 104542, "\u0120Namen": 85200, "TH": 3701, "\u0120usually": 6118, "Winner": 52055, "\u0120logic": 12496, "\u0120NSLog": 18827, "\u0120unve": 28847, "_more": 37764, ".setRequest": 44926, "\u0120\u00d0\u00b1\u00d0\u00bb\u00d0\u00b8": 112369, "\u0120evolves": 93054, ".tt": 90768, "_putchar": 59069, "-load": 50108, "Atlanta": 86234, "\u0120NA": 21317, "\u0120hash": 5286, "\u0120Inside": 28468, "indices": 15336, "\u0120\u00d1\u0123\u00d0\u00bd\u00d0\u00be\u00d0\u00b2\u00d0\u00b0": 116406, "\u0120daily": 7446, "wand": 80910, "Bush": 100175, "\u00e2\u0138": 10634, "\u0120,\u010a\u010a": 21863, "\u0120chv\u00c3\u0143li": 112926, "\u0120MMA": 43667, "\u0120connexion": 73876, "\"\u010d\u010a\u010d\u010a\u010d\u010a": 78867, "\u00d0\u00b5\u00d0\u00bd\u00d1\u0125": 120905, "\u0120\u00eb\u012e\u0122\u00eb\u012d\u00b5": 126958, "\u0120Whereas": 61695, "\u0120ratt": 57645, "\u00e6\u0141\u00b1": 118726, "compass": 31929, "\u0120designation": 43851, "\u00e4\u00b8\u0123": 104257, "NS": 2507, "\u0120\u00ea\u00b7\u013e": 111850, "\u00ed\u012e\u00a8": 108507, "\"'\u010a": 88728, "\u0120BP": 30167, "\u0120stitch": 33961, "\u0120grief": 38384, "\u0120iktidar": 125878, "\u0120Run": 6588, "\u0120milan": 94213, "RTOS": 91444, "innamon": 40435, "\u0120expenditure": 45426, "_unpack": 55989, "\u0120\u00d0\u00bf\u00d0\u00b5\u00d1\u0129": 107402, "\u0120que": 1744, "TN": 30271, "\u0120\u00cf\u0122\u00cf\u012b\u00cf\u0124": 118460, "\u00d0\u00b7\u00d0\u00b2": 120966, "tems": 91937, "ConverterFactory": 62847, "\u00d8\u00a7\u00d8\u00a8": 71704, "\u00eb\u00b2\u00a4": 108771, "\u0120accesses": 78748, "(val": 9276, "_tw": 55278, "\u0120reigning": 91056, "\u0120\u00ec\u0137\u012a\u00ec\u0142\u0126": 116281, "$data": 10970, ".ab": 22823, "\u0120Mel": 11220, "cr": 5192, "\u0120\u00ec\u00a4": 55089, "\u00c5\u013d": 7545, "ephy": 97353, "aur": 4202, "\u00e5\u00af": 15973, "_lower": 31525, "\u0120gridBagConstraints": 55359, "\u0120PHY": 58341, ">\").": 62132, "/n": 9809, "_SYNC": 40289, "}\u010a\u010a\u010a\u010a\u010a": 34962, "qrst": 62839, "\u0120histories": 53210, "piar": 57626, "\u0120NASCAR": 65690, "ancellationToken": 24878, "\u0120'[": 18814, "\u0120Instruments": 58513, "\u0120comfort": 6981, "\u0120blockbuster": 72097, "-extension": 81639, "\u0120outputPath": 96117, "\u0120\u00ec\u0137\u0140": 107758, "avec": 88423, ".Bitmap": 37281, "\u0120c\u00e1\u00bb\u00a5": 105688, "mlin": 42026, "\u0120At": 2468, "\u0120differs": 44642, ",string": 38158, "$message": 43921, "represent": 36369, "\u0120embracing": 56501, "\u0120barbecue": 62312, "\u0120entreprise": 93486, "\u0120sv\u00c3\u00a9m": 116052, "\u0120Za": 65808, "ahoma": 28940, "\u00e7\u00a6\u00bb\u00e5\u00bc\u0122": 120775, "\u0120withRouter": 55632, "\u0120\u00d0\u00b0\u00d0\u00b2\u00d0\u00b3\u00d1\u0125\u00d1\u0123\u00d1\u0124\u00d0\u00b0": 120084, "(BASE": 52846, "\u0120sm": 1554, "\u0120(*.": 58118, "+]": 57005, "\u0120esposa": 85990, "='<?": 57179, "\u0120\u00d0\u00b6\u00d0\u00b5": 101520, "\u00d0\u00b5\u00d0\u00bd\u00d0\u00b0": 51412, "\u00e2\u0122\u0136or": 51749, "\u0120gcd": 45958, "(obs": 53814, "\u0120Shotgun": 98207, "intros": 95828, "\u0120addTarget": 51027, "meeting": 62349, "presence": 74519, "\u0120\u00ec\u00a7\u0122\u00eb\u0131\u0126": 126237, "\u0120\u00d0\u00b4\u00d1\u0138\u00d0\u00bb\u00d1\u0131\u00d0\u00bd": 120041, "_Login": 80332, "fake": 31670, "(ar": 38644, "neapolis": 39576, "\u0120here": 1618, "\u0120Sexual": 39767, "expires": 49303, "\u0120BYTE": 36477, "(cat": 54700, "ras": 13075, "\u00c3\u00bcnd": 35371, ".getCell": 57176, "\u0120PCM": 76107, "\u0120Editing": 62153, ".ViewGroup": 25621, "\u0120hammered": 93124, "\u00e1\u00bb\u0139ng": 127329, "_SEQ": 51145, "gewater": 86130, "\u00e5\u00b7\u00a5\u00e5\u0127\u00b7": 114722, "CRE": 9614, "literal": 36885, "Configuration": 7843, "\u00c3\u0143tulo": 51361, "deriv": 83595, "\u0120Contact": 9359, "biology": 81162, "\u0120OUTER": 90775, "\u0120sore": 36366, "\u0120\u00d8\u00ac\u00d8\u00af": 101761, "\u0120comparing": 27393, "\u0120unload": 63814, "\u0120c\u00c3\u00b3": 29876, "\u0120professionals": 15749, "\u0109files": 75175, "Hardware": 67962, "\u00ef\u00bc\u012b\u00ef\u00bc\u012a": 116729, "property": 3784, "\u0120\u00d0\u0141\u00d0\u0140": 123498, "(idx": 20364, "()-": 16069, "(tableName": 62865, ".camera": 32297, "\u00ea\u00b8\u00b0\u00ec\u00a4\u0122": 118152, "itory": 10843, "IP": 3378, "\u0120Thrones": 47494, "\u00d0\u00b5\u00d1\u0123\u00d1\u0124\u00d0\u00be": 111746, "\u0120\u00d0\u00be\u00d0\u00b4\u00d0\u00bd\u00d0\u00b0\u00d0\u00ba\u00d0\u00be": 116745, "\u0120lez": 123148, "736": 23969, "\u0120Hi": 21694, "\u0120blocks": 10215, "\u0120WEIGHT": 96920, "saldo": 93612, "\u0120travelled": 46368, "<System": 31821, "\u0120equations": 39006, "Pix": 75791, "-two": 38502, "/ref": 56863, "\u0120\"**": 69061, "\u0120Bravo": 71823, "\u00e6\u00b3\u00a8\u00e5\u0128\u012e": 62789, "\u0120\u00d0\u00b2\u00d0\u00b8\u00d0\u00b4\u00d1\u012d": 125505, "\u0120pur": 4087, "short": 8846, "strained": 58827, "_gr": 16057, "[method": 94845, "\u0120expectedResult": 82541, "Commercial": 60816, "bastian": 37597, "\u0120\u00d1\u0124\u00d0\u00b5\u00d1\u0122\u00d1\u0122\u00d0\u00b8\u00d1\u0124\u00d0\u00be\u00d1\u0122": 113982, "\u0120predetermined": 87010, "\u00e0\u00a4\u00be\u00e0\u00a4\u00a8\u00e0\u00a4\u00b8\u00e0\u00a4\u0143": 123190, "bia": 14840, "\u0120bottoms": 93650, "inning": 20353, "\u00e6\u012c\u00a5": 43378, "\u0120ph\u00c3\u00b9": 105091, "brane": 88554, "\u0120Exploration": 76022, "udo": 7835, "zim": 118301, "\u0120rubber": 23506, "-instagram": 91497, "\u0120entsprech": 88588, "\u0120hydrogen": 35784, "\u0120Cialis": 33402, "auled": 75767, "usher": 52780, "ByKey": 68849, "\u0120kh\u00c3\u00a1ch": 102054, "\u0120decals": 98785, "\u0120Dob": 65351, "\u0120syslog": 75587, "uptools": 52381, "_document": 27326, "=_(\"": 92447, "enha": 63126, "\u0120slu\u00c5\u00be": 104483, "\u0120\u00e6\u00a5": 108341, "\u0120\u00d0\u00bf\u00d1\u0122\u00d0\u00b5\u00d0\u00b4\u00d0\u00bc\u00d0\u00b5\u00d1\u0124": 109480, "\u00d0\u00b2\u00d0\u00b5\u00d1\u0122\u00d0\u00b6\u00d0\u00b4": 115787, "aghan": 97269, "meno": 70191, "\u0120Civic": 55929, "-E": 13737, "\u0120broadcast": 13195, "adena": 45447, "\u0120arcane": 90453, "\u0120Ky": 23727, "\u00d8\u00a7\u00d8\u00ac\u00d9\u0129": 110935, "ivamente": 57258, ".rectangle": 55232, "\u0120RK": 68237, "\u00e0\u00b9\u0129\u00e0\u00b8\u013b\u00e0\u00b8\u0140": 127106, "_WIDGET": 50194, "\u0120de\u00c4\u0141erli": 126039, "ns": 4511, "\u0120ty": 13892, "\u00e5\u00b1\u0131": 114897, "\u0120widget": 9264, "\u00e0\u00b8\u0143\u00e0\u00b8\u00a5": 102177, "ELLOW": 35771, "Spirit": 87475, "\u0120olmu\u00c5\u0141tur": 115040, "\u00e5\u0131\u00b6": 109339, "\u00e2\u0122\u0136\u010a\u010a": 29472, "\u0120\u00eb\u00b0\u0122": 114528, "\u0120LAW": 67703, ".concatenate": 39859, "\u0120coloring": 35987, "Comfort": 95417, "_frequency": 41232, "}><": 72120, "\u00e5\u0137\u00a6": 110663, "ti\u00c4\u0141ini": 111998, ".gca": 96003, "(List": 10490, "/tinyos": 85469, "\u00d1\u0126\u00d1\u0126": 121704, "\u0120derece": 112023, "\u0120reserva": 99744, "\u0120AutoMapper": 69182, "\u00d0\u00b8\u00d0\u00bc": 16494, "gesch": 46161, "chal": 86667, "\u0120peanuts": 90177, "itty": 23660, "N\u00c4\u0125m": 126078, "Bridge": 33948, "\u00d9\u012a\u00d9\u0124\u00d9\u012c\u00d8\u00aa": 127380, "\u0120execute": 9203, "-python": 73029, "']]\u010a": 49671, "\u0120ak": 17774, "\u0120incorporate": 33435, "adalafil": 94186, "]\u010a\u010a": 2595, "_stmt": 22577, ".Imaging": 53962, "\u00cd": 137, "\u0120entertainment": 16924, "ionage": 64790, "\u0120misery": 58701, "\u0120Land": 11680, "\u0120Cheat": 99123, "working": 21837, "img": 1931, "phi": 17247, "\u0120\u00d0\u00b8\u00d1\u0123\u00d0\u00bf\u00d0\u00be\u00d0\u00bb\u00d1\u012e\u00d0\u00b7": 90795, "-edit": 22930, "\u00ef\u00bc\u012e\u00e5\u00b0\u0128": 115246, ":\"#": 80829, "\u0120\u00d0\u00b2\u00d0\u00b6\u00d0\u00b5": 104675, "\u0120rising": 16448, "\u0120meilleurs": 79713, "\u0120jpg": 72285, "\u0120pups": 90821, "\u0120RootState": 98412, "\u0120\u00e0\u00aa": 95591, "una": 8733, "urable": 18835, "\u0120gamm": 86942, "\u00e0\u00a4\u00be\u00e0\u00a4\u00b0\u00e0\u00a4\u00a4": 101753, ".Suppress": 53388, "\u0120colon": 15235, "\u0120'}';\u010a": 59056, "\u0120wonders": 40164, "\u0120EventBus": 90667, "\u0120moci": 123060, "\u0120\u00d9\u0127\u00d8\u00b1\u00d8\u00a8\u00d8\u00b9": 107270, "\u00e5\u0133\u012a": 125672, "\u00e7\u00a4\u00be": 61337, "stocks": 69127, "lew": 76064, ".XML": 49226, "\u00d0\u00b1": 10124, ".substr": 18497, "\u0120ipad": 81813, "\u0120\u00ce\u00bc\u00ce\u00bf\u00cf\u0127": 105946, "\u00ec\u00b0\u012e": 120867, "\u0120M\u00e1\u00ba\u00b7t": 126787, "\u0120**************************************************************************": 17994, "\u0120OF": 3083, "\u0120Gi\u00c3\u00a1": 122203, "APPER": 64538, "getError": 70781, "\u0120recebe": 97830, "Building": 31233, "iyat\u00c4\u00b1": 118126, "\u0120Equ": 11964, "/github": 72220, "\u0120Mint": 42410, "\u0120goose": 63237, "_^": 68380, ")frame": 73921, "umont": 90917, "Mount": 16683, ".Xtra": 10908, "\u0120procurement": 53678, "HeaderValue": 98821, "\u0120\u0120\u0120\u0120\u0120\u0120\u010a": 7071, "\u0120punct": 32455, "\u0120G\u00c3\u00bcney": 118603, "\u00ed\u012e\u012e\u00ec\u013f\u00bc": 107498, "UDA": 32391, "entieth": 52231, ".reddit": 56873, "\u0120river": 15140, "\u0120opc": 38127, "bro": 15222, "\u0120Norwegian": 45721, "ragon": 56250, "\u0120\"::": 71254, "\u0120Storm": 22620, "\u0120\u00d8\u00b1\u00d8\u00af": 111081, "\u00e0\u00a5\u0129-": 111492, "\u0120\u00d0\u00bf\u00d0\u00bd": 124379, "EXPECT": 35368, "Eye": 51158, "rin": 26355, "\u00ed\u0125": 61727, "by": 1729, "+\"\\": 37369, "\u0109V": 17904, "\u0120nationally": 40343, "567": 19282, "rightness": 37730, "Justice": 70786, ".Unique": 88543, "\u0120entreg": 94381, "\u0120overwritten": 60273, "\u0120online": 2930, "\u0120Chem": 19531, "\u00e0\u00b8\u00a1\u00e0\u00b8\u00b2\u00e0\u00b8\u0123\u00e0\u00b8\u0123\u00e0\u00b8\u00a7": 122136, "ifie": 57609, "\u0120stellt": 98196, "66": 2287, "\u0120kitty": 80921, "\u0120del": 1624, "\u00e5\u00ae\u013c\u00e7\u013c\u0126": 118078, "\u0120melan": 68012, ".\u010a\u010a\u010a\u010a\u010a\u010a\u010a\u010a\u010a\u010a": 40465, "\u0120strides": 37387, "\u0120overhead": 32115, "jerne": 76447, "akra": 52503, "\u0120lo\u00e1\u00ba\u00a1i": 101278, "\u00e3\u0125\u0132\u00e3\u0125\u00bc": 110590, "\u0120\u00ce\u0134\u00cf\u0123\u00ce\u00bf\u00cf\u0129\u00ce\u00ae": 124380, "diamond": 89676, "directory": 23905, "ESS": 10201, "\u0120Kub": 63649, "\u0120quy\u00e1\u00ba\u00bft": 102961, "\u0120prvn\u00c3\u0143m": 122268, "\u0120Stellar": 95642, "Assets": 27977, "\u00e2\u0139\u0131\u00e2\u0139\u0131\u00e2\u0139\u0131\u00e2\u0139\u0131\u00e2\u0139\u0131\u00e2\u0139\u0131\u00e2\u0139\u0131\u00e2\u0139\u0131\u00e2\u0139\u0131\u00e2\u0139\u0131\u00e2\u0139\u0131\u00e2\u0139\u0131\u00e2\u0139\u0131\u00e2\u0139\u0131\u00e2\u0139\u0131\u00e2\u0139\u0131": 123496, "\u0120FOLLOW": 58772, "IEnumerable": 74093, "<AudioSource": 84725, "Robin": 77771, "\u0120\"+\u010a": 64493, "\u0120invokingState": 88941, "?<": 76514, "\u0120permutation": 59541, "\u00ef\u00bc\u012e\u00e4\u00bd\u00bf": 119101, "\u0120atop": 47088, "\u0120Username": 30645, "\u0120bureaucr": 38070, "\u0120\u00e5\u0131\u012e": 111149, "MethodImpl": 60331, "\u0120afs": 67813, "_content": 7647, "\u0120IDM": 82555, "\u0120\u00d9\u012a\u00d9\u0124\u00d8\u00af": 112250, "<Sprite": 58830, "\u0120Fan": 25744, "\u0120bast": 33077, "_repr": 69635, "\u0120\u00d0\u00b4\u00d0\u00be\u00d0\u00bc\u00d0\u00b0": 109994, "\u0120evapor": 60150, "_CAN": 46700, "044": 20078, "\u0120problem": 3575, "\u00e4\u00b9\u00b0": 106191, "Teacher": 46165, "\u0120\u00d1\u0123\u00d1\u0124\u00d1\u0122\u00d0\u00be\u00d0\u00b8\u00d1\u0124\u00d0\u00b5\u00d0\u00bb\u00d1\u012e": 110981, "-\u00d0\u0141\u00d0\u00b5\u00d1\u0124\u00d0\u00b5\u00d1\u0122\u00d0\u00b1": 125947, "vos": 48719, "/self": 69339, "\u0120\u00d1\u0131\u00d0\u00ba": 100478, "\u0120d\u00c4\u013dl": 106597, "\u0120Use": 5560, "\u0120ten\u00c3\u0143a": 92665, "manship": 58832, "\u0120Caesar": 54753, "_Create": 35425, "fox": 15361, "\u0120;)": 74231, "\u0120Idle": 71400, "clone": 20579, "completed": 35835, ".lastIndexOf": 43714, "\u0120l\u00c6\u00b0\u00e1\u00bb\u00a3t": 122864, "_norm": 19731, "_candidates": 74653, "485": 19773, "(['": 6561, "ORY": 7668, "\u0120Amber": 47764, "\u0120overlapping": 50917, "credential": 67899, ".getResource": 45812, "(plane": 96214, "\u0120\u00e0\u00a4\u00ac\u00e0\u00a4\u00a2": 105345, "\u0120b\u00e1\u00bb\u0123": 118746, "\\Array": 77936, "\u0120bagi": 86750, "egie": 61157, "\u0120insanely": 90466, "\u0120bewild": 99774, "IGIN": 56629, "\u0120\u0120\u0120\u0120\u0109\u0109\u0109\u0109\u0109": 80139, "\u00e0\u00a4\u00a7": 100486, "\u0120vert": 5309, "atorium": 66844, "\u00e7\u00b8\u00a3": 107558, "\u0120hotline": 92975, "books": 12383, "Sab": 77478, "\u00c3\u00a1\u00c5\u00bee": 117079, "illian": 65821, "\u0109ctrl": 85481, "\u0120Acres": 83559, "\u0120\u00d0\u00bc\u00d0\u00b0\u00d1\u0123\u00d1\u0123": 124318, "\u0120\u00e3\u0125\u00af": 119806, ".nodeType": 61472, "\u0120checkBox": 53658, "problems": 96440, "CELER": 88484, "\u00e0\u00a4\u00be\u00e0\u00a4\u0129\u00e0\u00a4\u0141": 106770, "\u0120iParam": 43148, ".fin": 74464, "wishlist": 86889, "\u0120\u00d8\u00b2\u00d9\u012a\u00d8\u00ac": 122642, "rench": 6793, "\u0120u": 577, "\u0120discrim": 14572, "\u0120distint": 74478, "\u0120Copies": 80668, "\u0120frais": 91653, "(fragment": 61781, "\u0120kr\u00c3\u00a1l": 109975, "\u0120\u00e5\u00af\u00b9": 70262, "\u0120BUY": 52862, "\u0120Cutting": 63525, "<|reserved_special_token_101|>": 128106, "_middle": 63680, "_Settings": 72869, "\u0120Ch\u00c6\u00b0\u00c6\u00a1ng": 120892, "ruitment": 47233, "ampp": 46826, "\u0120doctr": 61990, "\u0120breve": 98519, "\u00e0\u00b8\u00a3\u00e0\u00b8\u0138": 108052, ".Price": 50263, "\u0120\u00d8\u00ba": 100686, "\u0120mechanical": 22936, "ngo": 71690, ".getUsername": 54452, "module": 4450, "\u0120\u00d8\u00a8\u00d8\u00b3\u00d8\u00aa\u00d9\u0129": 117166, "\u0120\u00d1\u0125\u00d0\u00bd\u00d0\u00b8\u00d0\u00b2\u00d0\u00b5\u00d1\u0122\u00d1\u0123\u00d0\u00b8\u00d1\u0124": 121552, "\u0120curb": 44962, "DCF": 78837, "DM": 8561, "\u00ea\u00b4\u0133": 104176, ".tk": 92027, "\u0120QPixmap": 81530, "\u0120fandom": 75425, "\u0120Constructors": 52868, "imet": 86366, "\u0120clang": 18761, "\u0120objectives": 26470, "_transaksi": 96761, "\u0120UNS": 47083, "_mount": 58693, "\u0120\u00d0\u00b0\u00d0\u00b2": 68828, "\u0120gi\u00e1\u00ba\u00a3m": 103775, "slope": 97612, "\u0120kepada": 77897, "\u0120Quick": 17697, "\u0120Orwell": 83853, "\u0120handleClick": 53540, "(vp": 92967, "\u0120msg": 3835, "\u0120AssertionError": 67326, "acas": 78283, "_SA": 82319, "\u0120A\u00c4\u0141": 107006, "pan\u00c4\u013dl": 121652, "\u0120Bin": 30444, "\u0120Wide": 33845, "\u00c3\u0122": 73053, "tick": 35255, "\u0120f\u00c3\u00a5r": 49616, "\u0120requestBody": 86726, ".getRequest": 39893, "ecom": 66274, "\u00e7\u00bf\u0136": 121633, "unicode": 25535, "\u0120\u00d0\u00ba\u00d0\u00be\u00d0\u00b6\u00d0\u00bd\u00d0\u00be\u00d0\u00b3\u00d0\u00be": 124847, "\u0120nas\u00c4\u00b1l": 104185, ".Graphics": 10627, "\u0120threadIdx": 74071, "\u0120Rome": 22463, "asic": 6099, "\u0120equal": 6273, "\u0120consolid": 28230, "_body": 14446, ".xhtml": 89466, "\u0120Morrison": 50054, "\u0120volunteer": 26202, "SEA": 93052, "\u0120stret": 27277, "\u0120STDMETHODCALLTYPE": 51225, "\u0120persisted": 54095, "\u0120Suggestions": 88715, "[\u00e2\u0122\u00a6]": 96332, "\u0120yapt\u00c4\u00b1k": 117592, ".platform": 25723, "\u0120Bach": 42258, "\u0120\u00ec\u013d\u00a8": 123945, "\u0120RuntimeObject": 54759, "\u0109num": 23239, "\u00d0\u00b0\u00d0\u00b4": 23680, "\u0120volunte": 13681, "_IOC": 98101, "(initial": 35431, "\u00e9\u013d\u0126": 105330, "\u0120renewables": 89085, "\u0120UPPER": 97412, "\u00e6\u0125\u0142": 109395, "[]>\u010a": 92927, "oric": 27456, "\u0120organis": 21874, "QualifiedName": 93351, "\u0120Serve": 54032, "TECTION": 76803, "\u0120ethn": 79180, ":eq": 63771, "\u0120quits": 70577, "scopy": 51856, "693": 25298, "Reddit": 61574, "\u0120Maj": 31779, "\u0120Premiere": 69924, "FLT": 80955, "\u0120regulates": 80412, "\u00e0\u00b9\u0125\u00e0\u00b8\u0126\u00e0\u00b8\u00a3": 119251, "\u0120colonial": 37683, "\u0143\u0132\u00ef\u00b8\u0131": 121390, "\u00e3\u0123\u00a7\u00e3\u0123\u0124\u00e3\u0123\u00a3\u00e3\u0123\u0141": 115287, "\u00d8\u0143\u00d8\u00af\u00d8\u00ab": 118280, "RYPTO": 60694, "\u0120Nurs": 33441, "violent": 90162, "\u0120crews": 43160, "\u0120utilizing": 35988, ".community": 91528, "\"\u010d\u010a": 5139, ".Drop": 22430, "\u0120unearth": 79675, "\u0120hesab": 121841, "\u00ce\u00bd\u00ce\u00bf\u00cf\u0127": 126182, "\u0109app": 29336, "\u0120crippling": 97106, "Science": 36500, "\u0120overt": 43661, "\u00d8\u00a8\u00d9\u012a\u00d8\u00a8": 119349, "\u0120incl": 18916, "ncoder": 68043, "\u0120mocks": 70009, "\u0120flick": 29447, "\u0120akadem": 119648, "ITOR": 45656, "\u0120Correspond": 52042, "\u0109if": 748, "\u0120Entries": 66293, "WebDriver": 45822, "\u0120incorporation": 88465, "\u0120GetMessage": 95329, "\u0120\u00eb\u00b2\u0142\u00ec\u012c\u00a4\u00ed\u012c\u00b8": 123181, "uju": 73401, "\u00d0\u00b1\u00d0\u00b5\u00d1\u0122": 111996, "licas": 53310, "(elements": 55746, "\u0120King": 6342, "\u0120compromising": 76100, "\u0120Abd": 30738, "\u0120Insp": 31016, ".tc": 79690, "peq": 83438, ")\")\u010a\u010a": 96477, "\u0120\u00d8\u00af\u00da\u00a9\u00d8\u00aa\u00d8\u00b1": 112287, "official": 33912, "\u0120lockdown": 51235, "-driven": 32505, "\u00e2\u0122\u013eOur": 66625, "_STMT": 99063, "teki": 126057, "\u0120\u00d0\u0134\u00d0\u00b0\u00d1\u012a": 127986, "\u0120unsuccessful": 46025, "\u0120refrain": 58608, "mars": 96026, "\u012c": 232, "\u0109\u0109": 298, "\u0120stere": 23473, "plies": 7350, ".GetComponent": 14279, "\u0120silence": 21847, ".category": 18898, "\u0120compelled": 48984, ".year": 25418, ".pic": 43196, "\u0120parch": 66302, "\u0120copyrights": 86918, "\u0109\u0109\u0120\u0120\u0120\u0120\u0120\u0120\u0120\u0120\u0120\u0120\u0120\u0120\u0120\u0120\u0120": 47356, "\u0120l\u00c3\u00a4sst": 74841, "controllers": 22339, "\u0120Gn": 96251, "\u0120voted": 16626, "\u00c2\u0142je": 123931, ".timestamp": 23327, "_slug": 32124, "\u0120overwrite": 33316, "-i": 18064, "\u0120cresc": 79088, "\u0120Investing": 93696, "aad": 87729, "\u0120konu\u00c5\u0141": 104059, "\u0120PLEASE": 54233, "\u0120Freddy": 96882, "chants": 99906, "\u0120---": 12730, ".Excel": 77442, "\u00e9\u00bc\u0142": 124142, "(\"/\");\u010a": 59523, "cient": 12575, "\u0120procedures": 16346, "ilton": 16695, "\u00e7\u0136\u0141\u00e6\u00b4\u00bb": 104654, "\u00e9\u00a3\u0130": 103125, "\u0120tienen": 47539, "\u00e5\u00ae": 8676, "\u0120[{\"": 62853, "SelectionMode": 98672, "')],\u010a": 71944, "\u0120Ingram": 95466, "\u0120\u00eb\u0137\u012e\u00eb\u00ac\u00b8\u00ec\u0139\u0132": 109644, "\u0120Tak\u00c4\u00b1m": 117149, "\u0120EX": 4154, "679": 25136, "\u0120unreachable": 70422, "\u00e0\u00b9\u0123\u00e0\u00b8\u013e": 109097, "scenario": 62522, "ystate": 44004, "_AUTO": 30113, "\u0120Dive": 89617, ".ping": 99347, "-AA": 64764, "\u0120UINT": 13975, "\u0120jenter": 38259, "\u00ef\u00bc\u012e\u00e7\u0130\u00b0\u00e5\u013e\u00a8": 126916, "atoon": 52775, "\u0120harmed": 69525, "\u0120panel": 7090, "\u0120\u00e8\u0132\u00ac": 127151, ".RelativeLayout": 97758, "989": 25350, "\u0120\u00d0\u00bf\u00d0\u00b5\u00d1\u0122\u00d0\u00b2\u00d1\u012d\u00d0\u00b9": 118282, "\u0120\u00d0\u00b0\u00d1\u0122\u00d1\u0124\u00d0\u00b8": 127188, "px": 1804, "\u0120involvement": 22315, "\u0120\u00d0\u00be\u00d0\u00b1\u00d1\u0131\u00d0\u00b7\u00d0\u00b0\u00d1\u0124\u00d0\u00b5\u00d0\u00bb\u00d1\u012e": 118776, "\u0120chromosome": 51815, "\u0120Ocean": 22302, "Imports": 32350, "\u0120\u00d8\u00a7\u00d8\u00a8\u00d8\u00aa": 116799, "\u0120\u00d8\u00b9\u00d8\u00a7\u00d9\u0126\u00d9\u012c\u00d8\u00a9": 124681, "\u0109continue": 11926, "\u0120Layers": 84922, "\u00e3\u0122\u0124\u00e3\u0123\u0139\u00e3\u0123\u012d\u00e3\u0123\u0139": 119520, "sweet": 95928, "i\u00e1\u00ba\u00bft": 100591, "\u0120fakt": 67892, "ownik": 73832, "\u0120jig": 95164, "\u0120\u00d8\u00a2\u00d8\u00ab\u00d8\u00a7\u00d8\u00b1": 114561, "couldn": 92062, ".identifier": 38277, "\u00e4\u00bb": 6271, "CN": 29768, "_ds": 36462, "\u00d1\u0128\u00d1\u0138\u00d1\u0130": 103781, "_indicator": 59170, "\u0120V\u00c3\u00ac": 110780, ".ContextCompat": 94664, "\u00d0\u00b5\u00d1\u0122\u00d0\u00b5\u00d1\u0129": 116827, "\u00e7\u00bb\u0129": 106818, "Greek": 95448, "\u00e2\u0122\u00b3E": 119418, "\u0120clown": 69568, "\u0120cried": 39169, "igrations": 18303, "\u0120PARTY": 64327, "\u0120Franklin": 19372, "\u0120jumper": 70084, "\u0120welcomed": 32069, "\u0120Io": 30755, "\u0120?>\u010d\u010a": 16240, "-pass": 48067, "\u0120swollen": 76193, "\u0120gives": 6835, "\u0120enabling": 28462, "ifold": 49385, "\u0120setzen": 98796, "953": 25326, "Designed": 78233, "\u0120Camera": 14669, "fv": 28990, "\u0120parasite": 85573, "[vi": 99279, "\u0120understands": 31869, "\u0120InterruptedException": 36720, "(remove": 68809, "\u0120d\u00c5\u00afvodu": 124666, "\u0120pig": 24623, "\u0120Planning": 28780, "\u0109va": 55011, "\u00e3\u0123\u00ab\u00e3\u0123\u00a4": 107294, "(gr": 37063, "\u0120ripped": 44092, "\u00d1\u0123\u00d0\u00ba\u00d0\u00be": 120134, "foundation": 73407, "\u0120Freeze": 79692, "conexion": 44753, "efore": 4746, "\u0120luck": 15369, "\u0120\u00d0\u00bf\u00d1\u012d": 116018, "\u00eb\u0132\u013a\u00ec\u0139\u012a\u00eb\u012d\u00a4": 107994, "quisitions": 53929, "emm": 73519, "\u0120slogans": 78101, "(I": 9149, "\u0120enough": 3403, ",user": 46061, "\u00d1\u0125\u00d0\u00b6\u00d0\u00b5": 123688, "\u0120\u00c4\u0133ang": 102250, "\u0120Cotton": 38796, "-success": 13403, "\u00e6\u00b1\u00a1": 116028, "\u0120\u00ce\u0141": 101137, "\u0120Event": 3749, "<Rigidbody": 54326, "\u0120Sony": 21533, "scopic": 58510, "\u0120volta": 55086, ".Quit": 96932, "mysqli": 16021, "\u0120accompany": 19780, ">Total": 64181, "upyter": 73952, "\u00e1\u00bb\u0143i": 110313, "\u0120rear": 14981, "=UTF": 38105, ".gameserver": 87006, "\u0120indexOf": 61723, "();}\u010a": 62455, "uos": 84808, "\u0120predefined": 64162, "\u0120nil": 2139, "\u0120Expect": 33185, "\u0120\u00d0\u013e\u00d0\u00b0\u00d1\u0122\u00d0\u00b8": 120024, "\u0120SX": 55868, "\u0120feud": 57810, "\u00d8\u00ba\u00d9\u012c\u00d8\u00b1\u00d8\u00a9": 118980, "\u0120battles": 25572, "\u0120carry": 6920, ".mesh": 44422, "\u0120Pivot": 98993, "\u0120alt\u00c4\u00b1nda": 107664, "\u0120\u00d8\u00a7\u00d9\u0126\u00d8\u00b9\u00d8\u00b8": 124989, "\u0120de\u00c4\u0141i\u00c5\u0141ik": 108564, "::\u010a": 50677, "<[": 67846, "\u0120Danielle": 72716, "(reinterpret": 66606, "permalink": 82204, "ouro": 50926, "(entry": 18739, "\u0120balls": 20953, "\u0120structural": 24693, "\u0120Attendance": 80057, "\u0120entre": 9465, "\u0120Arts": 17979, "\u0120TMZ": 100055, ".show": 5577, "\u0120\u00d8\u00aa\u00d8\u00b9\u00d8\u00af\u00d8\u00a7\u00d8\u00af": 108927, "[number": 73887, "Prompt": 55715, "\u0120MDB": 87452, "\u0120Dec": 3799, "(solution": 63010, "\u0120\u00c3\u013eN\u00c4\u00b0": 121961, "oppers": 32542, "\u00e0\u00b8\u00b8\u00e0\u00b8\u00a3\u00e0\u00b8\u0123": 112331, "\";}": 76191, "\u0120millennia": 96731, "\u0120\u00d9\u0129\u00d9\u0128": 104368, "\u0120Canton": 73466, "\u0120anom": 37782, "-placement": 52663, "\u0120narrowed": 74035, "\u0120budeme": 124099, "disk": 31596, "\u00d1\u0122\u00d0\u00be\u00d1\u0123\u00d1\u0124\u00d0\u00be": 125955, "iect": 92642, "\u0120mainland": 51115, ".MEDIA": 80525, "\u00c4\u00b1s\u00c4\u00b1r": 120802, "lett": 28163, "\u0120birlikte": 103611, "_met": 45617, "(arr": 11179, "\u0120Southampton": 62251, "\u0120\u00d0\u00b3\u00d0\u00be\u00d0\u00bb\u00d0\u00be\u00d0\u00b4": 127191, "\u0120GUI": 16840, "\u0120\u00ec\u0140\u0133\u00ec\u013f\u0122": 120461, "collectionView": 43540, "\u0120openings": 49649, "EFI": 57809, "------------------------------------------------------------------------------------------------": 99574, "\u00eb\u0131\u0126\u00ec\u013f\u013a": 120498, "\u0120locale": 19076, "\u0120Ser": 8409, "\u0120birik": 124716, "_WEIGHT": 61797, "etry": 15501, "opleft": 77352, "\u0120mythical": 84219, "\u0120free": 1949, "iversal": 35052, "\u0120Spencer": 36221, "\u0120Ukrainian": 34725, "secutive": 86880, "\u0120\u00d8\u00a7\u00d8\u00b9": 101883, "(resp": 20882, "ighth": 22635, "\u0120aliqu": 43391, "\u0120crest": 73024, "\u00e4\u00bc\u013c\u00e7\u00a4\u00be": 108695, "\u0120\u00d0\u00b7\u00d0\u00b0\u00d0\u00b2\u00d0\u00b6\u00d0\u00b4\u00d0\u00b8": 113447, "Comment": 10906, "\u00e6\u00be\u00b3": 113255, "\u0120supremacy": 65503, "\u00eb\u00a7\u00a4": 101518, "\u0120}\u010a\u010a\u010a\u010a\u010a\u010a": 80839, "\u0120\u00e3\u0123\u012c": 106369, "objectManager": 99147, "\u00e0\u00b9\u0129\u00e0\u00b8\u013b\u00e0\u00b8\u00aa": 111706, "\u0120technological": 30116, "\u0120\u00d0\u013c\u00d0\u00b0\u00d0\u00b7": 125270, "\u0120\u00d1\u0123\u00d1\u0124\u00d1\u0122\u00d0\u00b0\u00d0\u00bd\u00d1\u012d": 124147, "\u0109column": 52761, "\u0120flying": 16706, "\u00c3\u00b4": 9769, "\u0120\u00d0\u00b0\u00d1\u0122": 102462, "\u0120laminate": 85934, "\\\">\";\u010a": 68938, ".toBe": 84546, "egis": 91067, "Prefab": 73430, "\u0120inhibitors": 68642, "\u00c3\u00a1ln\u00c3\u0143m": 111507, "\u0120\u00d0\u00b2\u00d0\u00bb\u00d0\u00b0\u00d1\u0123": 105619, "lems": 40716, "\u0120rhyth": 29171, "-haired": 68479, "\u00ce\u00b3\u00ce\u00b1": 113993, ">manual": 27765, "\u0120Aviation": 50047, "\u0120\u00d0\u013c\u00d0\u00b0\u00d0\u00bb": 127462, "\u0120stab": 28062, "Attributes": 10738, "fst": 50594, "\u0120Midwest": 52257, ".BOTTOM": 84819, "ht": 427, "\u0120vess": 17899, "...'\u010a": 81430, "\u0120odm\u00c3\u0143t": 120203, ".lifecycle": 30967, "oded": 6879, "az\u00c4\u00b1": 102840, "\u0120plot": 7234, "\u0120quil": 75964, "\u0120\u00cf\u0122\u00cf\u0123\u00ce\u00b1": 114295, "\u00e3\u0125\u0125\u00e3\u0125\u0123": 108981, "ui": 2005, "\u0120delegate": 13685, "-,": 37619, "]\u010a": 933, "\u0120canned": 64114, "\u0120\u00d0\u00bb\u00d0\u00be\u00d0\u00ba": 118160, "\u00ec\u0139\u00ac": 58126, "\u0120replen": 70543, "\u00d8\u00a7\u00d8\u00a6\u00d9\u0124": 115265, "\u0120m\u00c3\u00a9g": 83791, "rounded": 45091, "\u0120EOS": 50001, "\u0120ion": 28772, "Poor": 85203, "ORK": 10874, "ENCIES": 96543, "\u00e0\u00b8\u00b8\u00e0\u00b8\u0126\u00e0\u00b8\u0126\u00e0\u00b8\u00a5": 116895, "\u0120\u00d8\u00a7\u00d9\u0126\u00d8\u00b1\u00d9\u0127\u00d8\u00b2\u00d9\u012c\u00d8\u00a9": 126417, "\u0120<>": 14729, "-svg": 59669, "\u0120\u00d8\u00a7\u00d9\u012a\u00d9\u0126": 104275, "\u0120env": 6233, "\u00e4\u00b9\u00b1": 108267, "\u0120\u00d0\u00ba\u00d0\u00be\u00d0\u00bd\u00d1\u0124": 78085, "\u0120ge": 3980, "\u0120upgraded": 33624, ".setModel": 56451, "\u0120vitamin": 28170, "Sessions": 60162, "\u0120c\u00e1\u00ba\u00a7n": 101621, "\u0120\u00e5\u0132\u012f": 62205, "/db": 30457, ".task": 15384, "=session": 84500, "Toyota": 97977, "\u0120med": 1812, "_Is": 32979, "\u0120di\u00c5\u0141": 118978, "\u00e3\u0125\u00b3\u00e3\u0124\u00b0": 94550, "catch": 7320, "\u0120prescribed": 32031, "_dp": 54972, "\u0120Al": 1708, "\u0120WikiLeaks": 59647, "\u0109idx": 63177, "\u00e5\u0143\u00a6\u00e4\u00b9\u0142": 111478, "++\u010a\u010a": 82552, "\u0120nouve": 77701, "\u0120panties": 56457, "(pthread": 95984, "\u0120\u00d0\u00bf\u00d0\u00be\u00d1\u0129\u00d0\u00b5\u00d0\u00bc\u00d1\u0125": 117624, "_ASYNC": 82009, "\u0120zak\u00c3\u00a1z": 121660, "Mc": 26353, "\u0120\\<^": 77989, "858": 23805, "\u0120viral": 29962, "\u00c5\u00a9ng": 100883, "=x": 26459, "\u00d0\u00be\u00d0\u00bb\u00d1\u012e\u00d0\u00b7\u00d0\u00be\u00d0\u00b2": 33295, "\u0120\u00d0\u00b2\u00d1\u012d\u00d1\u0122\u00d0\u00b0\u00d1\u012b\u00d0\u00b8": 127769, "u\u00c5\u00beel": 127747, ".strictEqual": 45301, "342": 17590, "\u0120airing": 71353, "belongsTo": 43967, "endtime": 91961, "raz": 8875, "\u00e0\u00b9\u012a\u00e0\u00b8\u00a1": 104139, "\u0120humour": 58469, "\u00d1\u0124\u00d1\u0125": 89348, "\u00ed\u0137\u00b4\u00ec\u0137\u00bc": 110513, "\u0120\u00d1\u0124\u00d0\u00b5\u00d0\u00bb\u00d0\u00b0": 118467, "\u0120b\u00c3\u00a1t": 126941, "iefs": 30921, "\u0120trx": 74121, "Loads": 79617, "elle": 6853, "requ": 11265, "_dis": 10135, "\u0120\u00d0\u00be\u00d1\u0123\u00d1\u0124\u00d0\u00b0\u00d0\u00b2": 107855, "\u00e8\u00ae\u00be\u00e5\u00a4\u0129": 109356, "\u00d0\u00b0\u00d1\u0124": 8131, "\u0120spokeswoman": 34241, "\u00ed\u0137\u0143": 103866, "ForObject": 95704, "_docs": 50792, "\u00d0\u00b7\u00d0\u00bd": 106771, "\u0120handleClose": 82667, "\u0120Estonia": 69462, "\u00e0\u00b8\u00b8\u00e0\u00b8\u0129\u00e0\u00b9\u0122\u00e0\u00b8\u0139\u00e0\u00b8\u0140": 111117, "asso": 29963, "\u0120samt": 76343, "acute": 32590, "\u0120pharmacist": 90394, "\u0120\u00e6\u0138\u0129\u00e4\u00bb\u00b6": 70694, "l\u00c4\u00b1\u00c4\u0141\u00c4\u00b1n\u00c4\u00b1": 113029, "\u0120overwhel": 17201, "Statistics": 39699, "(Json": 40441, "\u00c3\u00a5n": 39831, "-mode": 15331, "abilirsiniz": 106689, "\u0120\u00d1\u0123\u00d0\u00bf\u00d0\u00be\u00d0\u00b6": 119721, "\u0120jit": 85673, "<|reserved_special_token_156|>": 128161, "\u0120lawmakers": 26137, "zone": 8855, "?)\u010a": 51905, "(sim": 48860, "\u0120Furniture": 30339, "\u0120seated": 47413, "\u0120direccion": 69907, "\u0120Forg": 70675, "ILD": 31315, "\u0120condiciones": 78758, "\u0120Champagne": 88639, "\u0120\u00ce\u00b1\u00cf\u0125\u00cf\u0126": 126938, "\u0120pure": 10748, "ataloader": 71386, "\u00c4\u012eesk": 122664, "aced": 4535, "\u0120regression": 31649, "ARTH": 77454, "\u0120duplicate": 23329, "\u0120SN": 18407, "POSITION": 60092, "\u0120Fr": 2939, "\u0120Bros": 34321, "_Draw": 70254, "\u0120Y\u00c3\u00bck": 112148, "\u0120wrap": 15411, "\u0120k\u00c3\u00b8benhavn": 45180, "\u0120onUpdate": 81502, "\u0120\u00d9\u0128\u00d8\u00aa\u00d8\u00a7\u00db\u012e\u00d8\u00ac": 121583, ".Property": 16103, "\u0120ne\u00c5\u00be": 102242, "\u0120variation": 23851, "\u0120XB": 75760, "\u0120\u00d0\u00b7\u00d0\u00b0\u00d0\u00b7\u00d0\u00bd\u00d0\u00b0\u00d1\u0129": 117098, "\u0120\u00d9\u0126\u00d8\u00b1": 126468, "\u0120medical": 6593, "AllowAnonymous": 100209, "\u0120tamp": 76129, "redential": 31420, "\u0120degrees": 12628, "\u0120\u00d9\u0127\u00d8\u00a8\u00d8\u00a7\u00d8\u00b1": 111536, "elp": 1290, "unfold": 84804, "\u00eb\u0142\u00b4": 124775, "\u00e0\u00a4\u00be\u00e0\u00a4\u00b2\u00e0\u00a4\u0137": 125550, "-wrap": 25186, "utes": 2142, "\u0120URI": 16403, "\u0120Palestine": 42034, "\u0120condu": 76069, "\u0120rubbed": 67854, "\u0120LANGUAGE": 35900, "\u0120\":\"": 24320, "eddar": 78716, "\u0120\u0120\u0109\u010a": 99351, "\u00e3\u0123\u013a\u00e3\u0124\u0125": 104446, "erguson": 36008, "\u00d0\u00ba\u00d0\u00b0\u00d1\u0123": 127680, "\u0120skull": 35113, "\u00e4\u00b8\u0136": 103786, "\u0120affid": 50882, "periences": 69597, "\u0120r\u00c3\u00b3wn": 61474, "\u0120\u00ec\u0126\u0142\u00ea\u00b1\u00b0": 121229, "\u0120Rolling": 46048, "\u0120\u00ec\u013f\u00b4\u00eb\u00b2\u012a": 117717, "\u0120CHP": 126184, "Goal": 41092, "Wheel": 45307, "\u0120diaper": 76853, "$values": 97705, "\u0120Behaviour": 80354, "nic": 11851, "iger": 7420, ".act": 47675, "\u0120advantageous": 76824, "\u0120\u00d9\u0129\u00d8\u00a7\u00db\u012e": 100710, "\u0120convict": 91134, "\u0120\u00da\u013a": 104075, "\u00e6\u0138\u0129\u00e7\u012e\u00ae": 124055, "remember": 30380, "\u0120Tattoo": 76634, "\u0120\u00ec\u012c\u00ac": 112640, "\u0120Bright": 27508, "destruct": 61368, "\u0120Allison": 63508, "\u00e7\u00bf\u0134": 108710, "enarios": 61594, "\u0109\u0109\u0120\u0120\u0120": 6585, ".Pointer": 42375, "(\"(\"": 71440, "returnValue": 54115, "\u0120PROFILE": 72050, "\u0120competency": 93904, "]&": 63338, "syn": 20960, "\u0120Future": 12781, "\u0120learnt": 50350, "\u00e4\u00b8\u012f\u00e7\u0141\u00a5": 124375, "\u0120Graph": 12441, "\u00e7\u00b2\u00be\u00e7\u00a5\u0140": 113116, "\u0120controller": 6597, "cob": 86656, "\u0120EINVAL": 77369, "\u0120overclock": 81294, "tap": 31147, "\u00e5\u0132\u012f\u00e7\u0126\u00a1\u00e3\u0123\u0139": 121301, "\u0120qq": 56639, "\u0120Clo": 19197, "\u0120tuning": 42438, "\u0120FALL": 88592, "\u00e0\u00a4\u00bf\u00e0\u00a4\u00b0\u00e0\u00a4\u00ab": 126156, "\"If": 27806, "\u00d1\u0123\u00d0\u00b8\u00d0\u00b8": 104451, "\u0120konusu": 109654, ".token": 14754, "\u0120athletes": 23579, "vard": 22329, "UIApplication": 30082, "CENT": 37438, "Votes": 76635, "\u0120CultureInfo": 45567, "semblies": 46438, "-handler": 73212, "bohydr": 34658, ":',\u010a": 44455, "\u0120cuis": 31547, "cba": 94929, "lass": 448, "lanan": 104960, "\u0120tranh": 105931, "\u00ef\u00bc\u00bc:": 111444, "\u0120\u00d0\u00b4\u00d0\u00be\u00d0\u00bf\u00d0\u00be\u00d0\u00bc\u00d0\u00be\u00d0\u00b3\u00d0\u00be\u00d1\u0130": 114270, "\u0120Sek": 50341, "\u00e7\u0125": 101519, "\u0120ba\u00c4\u0141": 101371, "\u00d9\u0126\u00d9\u0126": 123536, "ILLS": 76184, "_calibration": 100186, "\u0120time": 892, "\u0120Chuck": 34349, "\u0120Manual": 14881, "closest": 37561, "\u0120regs": 45598, "jas": 30826, "\u0120caso": 23884, "\u0120Splash": 46542, "\u0120breakpoint": 53845, "\u0120opioid": 48825, "\u0120Classics": 73415, ".MATCH": 80458, "\u0120compartir": 82846, "&oacute": 84383, "\u0120itibar": 107851, "\u0120\u00d0\u00b4\u00d1\u0125\u00d1\u0127\u00d0\u00be\u00d0\u00b2": 112078, "\u0120sayesinde": 112850, "\u0120\u00c4\u0133o\u00c3\u00a1n": 119121, "\u0120obou": 123165, "\u0120Cool": 24882, "\u0120podp": 111466, "\u0120ta\u00c5\u0141\u00c4\u00b1m": 118165, ")%": 24835, "\u0120recipes": 19141, "\u0120Predicate": 50927, "<Product": 31522, "\u0120dire": 13510, "\u0120\u00d0\u00ba\u00d0\u00be\u00d1\u0124\u00d0\u00be\u00d1\u0122\u00d0\u00be\u00d0\u00bc": 116465, "\u0120carp": 39739, "\u0120\u00eb\u00b8\u012e": 108100, "Gov": 68001, "left": 2414, "\u0120zn": 30974, "ece\u00c4\u0141i": 113875, "\u0120turbulence": 95167, "otal": 2426, "\u00e7\u00bb\u0135\u00e6\u0140\u013e": 60251, "_complex": 42622, "ouce": 70879, "\u0120\u0120\u0120\u0120\u0120\u0120\u0120\u0120\u0120\u0120\u0120\u0120\u0120\u0120\u0120\u0120\u0120\u0120\u0120\u0120\u0120\u0120\u0120\u0120\u0120\u0120\u0120\u0120\u0120\u0120\u0120\u0120\u0120\u0120\u0120\u0120\u0120\u0120\u0120\u0120\u0120\u0120\u0120\u0120": 15791, "\u00ce\u00bd\u00ce\u00bf\u00cf\u0124": 104855, "\u0120guar": 9536, "ImageData": 91683, "Requested": 38730, "\u0120Removal": 57817, "\u0120hurricanes": 90127, "Certainly": 96556, "\u0120trophy": 38782, "\u0120setDescription": 69425, "\u0120bondage": 43594, "\u0120heb": 59241, "gain": 60246, "\u0120addressed": 20669, "\u00e2\u0122\u00a6\u010a": 90578, "\u0120ki\u00e1\u00bb\u0125m": 103909, "\u00e7\u012c\u00b6\u00e5\u0128\u00b5": 122793, "\u00e6\u0130\u0134": 61056, "\u0120\u00e6\u012d\u013d": 124308, "Mul": 60255, "isAdmin": 73758, "\u0120\u00e0\u00a4\u00a4\u00e0\u00a4\u00ae": 125706, "\u0120irgend": 88362, "\u00e0\u00a5\u012f\u00e0\u00a4\u00af\u00e0\u00a4\u00af\u00e0\u00a4\u00a8": 126584, "PostalCodes": 84845, "\u0120calf": 65643, "\u0120Nationwide": 90754, "abler": 93067, "\u00e5\u0131\u0133\u00e7\u0130\u00b0": 109836, "\u0120boosts": 67232, "\u00e4\u00ba": 6823, "]));": 84021, "ATED": 9182, "\u0120\u00e0\u00a4\u00a4\u00e0\u00a4\u00b0\u00e0\u00a4\u00ab": 118546, "'];?>": 52885, "\u0120impl": 11866, "\u0120Germans": 42037, "\u0120t\u00c3\u0143": 77507, "\u0120properly": 10489, "\u0120sortable": 57875, "PageRoute": 50591, "\u00e8\u00a6\u0123\u00e6\u00b1\u0124": 105318, "\u00ec\u0138\u00b4\u00ea\u00b0\u0122": 127625, "overrides": 84458, "\u0120defeating": 54216, ".Autowired": 19709, "\u0120\u00c4\u0133\u00c4\u0125ng": 106660, "_Not": 61916, "\u00e0\u00a5\u0122\u00e0\u00a4\u0137\u00e0\u00a4\u00b0\u00e0\u00a4\u00a3": 117804, "<Person": 51096, "Shows": 76175, "ch\u00c3\u00a1z\u00c3\u0143": 105725, "\u0120Follow": 11359, "\u0120Sac": 23916, "_CF": 73158, "\u0120biod": 56594, "FixedSize": 74274, "\u00e0\u00a5\u012a\u00e0\u00a4\u00a8": 104071, "\u00e4\u00b9\u013a": 115306, "\u0120d\u00c3\u00a1l": 109538, "\u0135\u00e5\u0132\u012f": 62717, ".permissions": 63684, "\u0120\u00d0\u00ba\u00d1\u0138\u00d0\u00bb\u00d1\u012e\u00d0\u00ba\u00d1\u0138\u00d1\u0123\u00d1\u0124\u00d1\u012e": 116140, "\u00c4\u00b1kl\u00c4\u00b1": 121799, "boards": 19826, "\u0120Appropri": 86822, "_RW": 61918, "Hillary": 65476, "\u00e7\u00a8": 24615, "\u0120Knowing": 58733, "\u0120cada": 19394, "/original": 99237, "\u0120alt": 4902, "mour": 84184, "\u0120duel": 66407, "$n": 72611, "\u0120\u00d8\u00a8\u00d8\u00a7\u00d9\u0128\u00da\u00a9": 115088, "\u0120capacities": 59539, "\u0120sandwiches": 57758, "_PLAYER": 37654, "\u0120Compensation": 70396, "\u0120angered": 87594, "\u0120astounding": 74154, "<|reserved_special_token_210|>": 128215, ".isHidden": 38976, "\u0120Rights": 10734, "Comm": 18461, "\u0120titles": 15671, "\u0120gameplay": 27120, "uci\u00c3\u00b3n": 36323, "herent": 38638, "\u0120==>": 33396, "jee": 68996, "\u0120atoi": 26293, ".subtract": 69752, ".Management": 71266, "\u0120Sie": 8663, "\u0120yourselves": 58996, "\u0120\u0120\u0109\u0109\u0109": 55933, ".opt": 29202, "\u0120gaps": 33251, "=z": 83670, "ocom": 12255, "ANN": 12272, "\u0120scrapped": 84347, "\u0120nearing": 83399, "\u0120\u00e7\u0124\u00b9\u00e5\u0129\u00bb": 122779, "\u0120\u00d9\u0129\u00d9\u0123\u00d8\u00aa": 126398, "istinguished": 80382, "_macros": 87004, "\u0120ripping": 78214, "Mana": 78835, "\u00d1\u012b\u00d0\u00b0": 102630, "IRROR": 88617, "Reach": 49468, "\u0120statuses": 60458, ".CREATED": 99739, "\u0120nonatomic": 18342, "\u00e6\u013b\u00a8": 126915, "\u0120blends": 58943, "\u0120order": 2015, "\u0120meeting": 6574, "Mean": 19312, ".project": 14844, "_primitive": 85187, "\u00e6\u00ac\u00a1": 33671, "ci\u00c3\u00b3": 88200, "\u0120\u00e9\u0127\u012f": 120590, "\u0120p\u00c3\u00a1s": 127728, "\u0120Certain": 35211, "\u0120zip": 10521, "_shape": 13911, "\u0120Think": 21834, "\u0120hassle": 47947, "\u0120\u00c4\u0133\u00e1\u00ba\u00bfn": 100725, "uitka": 59940, "\u0120\u00ed\u013d": 116231, "\u0120canActivate": 59568, "/activity": 98718, "z\u00c3\u00a1": 89643, "Network": 12600, "cout": 6232, "\u0120funciona": 87996, "\u0120\u00ea\u00b3\u00bc": 104219, "Suddenly": 98331, "SEL": 30465, "stat": 10079, "\u0120pcl": 52981, "ETIME": 45718, "\u0120Loren": 52290, "(ft": 64206, "\u0120Tok": 22164, "(IO": 71801, "\u0120__('": 14752, "\u0120fell": 11299, "\u0120permitted": 15480, "\u0120\u00e2\u0138\u012a\u00e2\u0138\u012a\u00e2\u0138\u012a\u00e2\u0138\u012a\u00e2\u0138\u012a": 93429, "\u0120productive": 27331, "\u00e8\u0124\u00a5": 117178, "\u0120lengthy": 35306, "\u0120\u00d0\u00be\u00d1\u0124\u00d0\u00ba\u00d1\u0122\u00d1\u012d\u00d1\u0124": 122239, "(UUID": 66764, "\u0120socialist": 41289, "\u0120\u00d0\u00b2\u00d0\u00b7\u00d0\u00b0": 107665, "\u0120paramet": 127988, "\u0120Dark": 12538, "Uber": 57396, "menus": 58727, "\u0120experiments": 21896, "\u0120relied": 41013, "\u0120VP": 37110, "\u00d0\u00b8\u00d0\u00bf": 48445, "\u0120(\"/": 89989, "\u0120edx": 64745, "\u0120\u00e0\u00a4\u0132": 102556, "\u0120varied": 28830, "\u00e2\u0122\u00bb": 64780, "_school": 63265, "uart": 28269, "herence": 52461, "getParameter": 63749, "(util": 68911, "\u0120Morrow": 87374, "arry": 11687, "entence": 18886, "\u0120\u00ce\u013d\u00ce\u00b1": 117858, "\u00e4\u00bf\u00a1\u00e7\u0136\u00a8": 122975, "\u0120ihre": 35849, "\u0120extreme": 14560, "Consumer": 31068, "liked": 44336, "\u00e0\u00a5\u0129\u00e0\u00a4\u0138\u00e0\u00a4\u00a8": 112457, "\u0120sits": 23874, "rias": 48931, "\u0120OCR": 81677, "\u0120setSupportActionBar": 84148, ".nlm": 89488, ":',": 17898, ".Pr": 18431, "\u0120Russ": 4608, "\u0120Akt": 50196, "TypeID": 93081, "\u00ea\u00b7\u00bc": 104152, "HostException": 97782, "\u0120reluctant": 44040, "\u0120proved": 19168, "vm": 7488, "cant": 66363, "\u0120Elephant": 79189, "/cupertino": 88055, "ards": 2402, "-ass": 35915, "\u00c5\u00a5": 75901, "!\";\u010d\u010a": 94497, "\u0120Pol": 3735, "\u00d8\u00b1\u00d9\u012c\u00d8\u00a7\u00d8\u00b6": 106071, "\u00d0\u00b2\u00d0\u00b0\u00d0\u00bb": 105928, "\u0120Wikip": 119234, "\u00c3\u0141er": 53762, "\u0120\u00e0\u00a4\u00a8\u00e0\u00a4\u013e\u00e0\u00a4\u00b0": 124034, "\u0120fulfill": 21054, "\u0120h\u00e1\u00bb": 100310, "mun": 26046, "\u0120Guerrero": 98836, "383": 19230, "\u0120\"\\\"\"": 68722, "\u0120Lines": 39333, "\u0120couleur": 76651, ".\");\u010d\u010a": 28105, "\u0120Sandbox": 97960, "\u0120indef": 37527, "\u0120\u00d0\u00b7\u00d0\u00b0\u00d0\u00b2\u00d0\u00b4\u00d0\u00b0\u00d0\u00bd\u00d0\u00bd\u00d1\u0131": 123605, "\u00c6\u00b0\u00c6\u00a1i": 110940, "_Context": 73094, "un": 359, "icol": 27561, "\u00e0\u00b8\u00b2\u00e0\u00b8\u0126\u00e0\u00b8\u00a1": 102344, "Tele": 22378, "fers": 50893, "_ctr": 70196, "\u00e5\u0131": 5877, "\u00cc\u0123t": 122095, "\u0120IPC": 46933, "\u00ce\u00bb\u00ce\u00ae\u00cf\u0124": 123673, "\u0120complete": 4686, "\u00e4\u00bb\u00a3": 31640, "Param": 2044, "\u0120Quality": 18410, ".sample": 24825, "\u00eb\u00a6\u00ac": 29102, "_pub": 35114, "\u0120```": 55375, ".HandleFunc": 64723, "EdgeInsets": 49027, "\u0120Making": 25274, "amental": 44186, "\u0120complains": 90058, "\u0120Hy": 10320, "hots": 35513, "fighters": 79161, "\u0120fsm": 84238, "\u0120\u00d0\u00be\u00d1\u0123\u00d1\u0124\u00d1\u0122\u00d0\u00be\u00d0\u00b2": 124168, "-nine": 86703, "\u0120Kb": 99186, "_para": 49180, "\u0120stavu": 116456, "Trans": 3246, "\u0120manufactured": 28648, "_execution": 62048, "\u0120Henri": 74310, "/find": 82221, "urga": 91876, "\u0120s\u00c3\u00a5": 21751, "\u0120[][]": 54031, "Aware": 59893, "+\"'": 48287, "\u0120errMsg": 61178, "\u0120\u00e0\u00b9\u0122": 95582, "\u0109UFUNCTION": 99840, "_OID": 97384, "inge": 18177, "OptionsResolver": 64335, "_share": 39372, "\u0120photographic": 70164, "\u0120condo": 44200, "/database": 42705, "steam": 47690, "ustr": 3497, "\u0120SOURCE": 54431, ".\u00ce\u0141": 119250, "\u0120p\u00c5\u013b\u00c3\u0143sp\u00c4\u013d": 120104, "yh": 74901, "\u0120[]),\u010a": 97133, "\u00e8\u00be\u0140": 121355, "\u0120outlines": 50729, "\u0120unit": 5089, "CoreApplication": 85579, "ANCE": 8606, "via": 20708, "\u0120\u00d0\u00bb\u00d0\u00be\u00d0\u00b2": 124882, "\u0120\u00ed": 10997, "\u0120\u00d1\u0125\u00d1\u0124\u00d0\u00be\u00d1\u0129": 126702, "\u0120selectable": 82151, "ByText": 94358, "_cou": 99863, "bud": 71027, "exus": 24590, ".Change": 40448, "\u0120oli": 60236, "\u010a\u0120\u0120\u0120\u0120\u0120\u010a": 87927, ".mixin": 94610, ".HashSet": 45986, "\u0120craw": 24877, "\u00d0\u00bd\u00d0\u00b5\u00d0\u00b7": 120049, "EMS": 80718, "\u0120EXCEPTION": 81552, "\u0120lanes": 34125, "\u0120delicate": 36301, "\u0120QName": 77481, "\u0120Bethlehem": 96058, "Hey": 19182, "\u00d8\u0143\u00d9\u012c": 104012, "\u0120],": 10881, "uisse": 92648, "\u0120\u00da\u0128\u00d8\u00b4\u00d9\u0127": 112491, "\u0120\u00d1\u0125\u00d0\u00ba\u00d1\u0122\u00d0\u00b0": 116586, "IRC": 52940, ",},\u010a": 61099, "\u0120\u00d8\u00a7\u00d9\u0126\u00d9\u0127\u00d8\u00b9": 105715, "\u0120wanting": 19762, "\u0120Eg": 39175, "\u0109editor": 79177, "\u0120Assistant": 22103, "tat": 68238, "Enumer": 6006, "Pixel": 18513, "\u0120BBC": 18588, ",\"%": 30887, "\u0120Evidence": 44796, "\u0120Locale": 35626, "\u0120SPELL": 48944, "cribe": 3191, "Workflow": 63868, "tram": 99040, "andro": 42824, "\u0120deepen": 92792, "\u0120JSON": 4823, "inem": 69513, "\u00c5\u00be\u00c3\u0143": 100921, "CTOR": 27371, "\u00ea\u00b1\u00b0\u00eb\u00a6\u00ac": 116009, "\u00d0\u00be\u00d0\u00b7\u00d0\u00b2\u00d1\u0122\u00d0\u00b0\u00d1\u012b\u00d0\u00b0\u00d0\u00b5\u00d1\u0124": 74715, "\u0120promotes": 39990, "uder": 33719, "\u0120Display": 10848, "\u00e5\u013d\u00b2": 116310, "\u00d0\u00b8\u00d1\u0124\u00d0\u00b5\u00d0\u00bb\u00d0\u00b8": 111512, "\u0120partial": 7276, "\u00d0\u00b8\u00d1\u0124\u00d0\u00b5\u00d0\u00bb\u00d1\u012e": 56008, "\u00d0\u00bd\u00d0\u00b0\u00d0\u00ba": 119553, "\u0120seni": 117708, "\u00e3\u0122\u0124\u00e2\u0122\u013f": 34045, "\u0120Moments": 83121, "(sqrt": 84173, "\u0120Toilet": 82994, "Apellido": 61042, "\u0120questo": 34560, "terraform": 62485, "_DIP": 42624, "\u0120kh\u00c3\u0143": 105256, "_correction": 83574, "\u0120\u00d0\u00ba\u00d0\u00be\u00d1\u0124\u00d0\u00be\u00d1\u0122\u00d1\u012d\u00d0\u00bc": 120919, "Parts": 30021, "\u0120engineers": 25175, ".desktop": 81528, "\u0120Xxx": 50128, ".flag": 42330, "ewitness": 71996, "\u00d0\u00bd\u00d0\u00b8\u00d0\u00bb": 119119, "\u0120presently": 50801, "\u0120colorWith": 42611, "$post": 43349, "\u00e4\u00b8\u012f\u00e5\u012a\u00b0": 116554, "venge": 53305, "\u00e6\u00b0\u0131": 105514, "\u0120vener": 91231, "950": 15862, "\u0120Cascade": 57870, "WER": 40451, "\u0120f": 282, "\u0120GOT": 81009, "\u0109glEnable": 73913, "\u0120returns": 4780, "\u00cf\u012e\u00ce\u00b3": 106094, "emey": 118231, "\u00d0\u00be\u00d0\u00b1\u00d0\u00b8": 119037, "dom": 5717, ".dy": 46005, "Cards": 29548, "clamp": 86553, "\u00e5\u00ae\u0140\u00e9\u00aa\u012e": 119797, "pageTitle": 86886, "%\"><": 77022, "\u0120\u00ef\u00bc\u00bc": 101326, "_extension": 32135, "\u0120Wine": 32926, "_batches": 58855, "sortable": 66698, "\u0120\u00e8\u00b6\u0127": 113617, "\u0120Audio": 12632, "DR": 7842, "\u0120rv": 18030, "\u0120\u00d8\u00a7\u00d9\u0126\u00d8\u00af\u00d9\u012a\u00d9\u0126": 108990, "\u0120righteous": 42805, ".\")\u010a\u010a": 32325, ".sg": 83412, "\u0120\u00eb\u0131\u0126\u00ec\u012d\u013e": 119656, "\u0120\u00ea\u00b0\u0122": 36609, "ks": 2857, "Levels": 48091, "\u0120ook": 28579, "\u0120komb": 85564, "\u0120aprend": 68446, "\u0120Activities": 44382, "\u0120IDEOGRAPH": 97702, "\u0120um": 4543, ">'+\u010a": 43009, "ioc": 74452, "\u00e3\u0124\u00b9\u00e3\u0124\u00bf": 105335, "ssue": 84990, "_white": 45531, "\u0120jedoch": 61737, "\u0120babies": 24869, "\u0120whisky": 81583, "sp\u00c4\u013d": 105152, ".child": 17990, "\u0120\u00d0\u00bd\u00d0\u00b0\u00d1\u0123\u00d0\u00b5\u00d0\u00bb\u00d0\u00b5\u00d0\u00bd\u00d0\u00b8\u00d1\u0131": 117213, "Wallet": 39359, ".newArrayList": 89031, "ustomed": 50786, ".handleChange": 36809, "\u0120:'": 54646, "licing": 90214, "\u0120\u0120\u0120\u0120\u0120\u0120\u0120\u0120\u0120\u0120\u0120\u0120\u0120\u0120\u0120\u0120": 338, "\u0120htmlFor": 33293, "\u0120userRepository": 50608, "\u00ef\u00bc\u012e\u00e5\u012f\u00b4": 118256, "\u00d1\u0123\u00d1\u0124\u00d0\u00b2\u00d0\u00b5\u00d0\u00bd\u00d0\u00bd\u00d0\u00be\u00d0\u00b5": 118427, "ES": 1600, "\u0120peny": 94033, "lahoma": 22863, "\u00e0\u00a5\u012a\u00e0\u00a4\u00b8\u00e0\u00a4\u00b2": 117595, "\u00e5\u00bd\u00a1": 107288, "LIK": 84437, "\u0120\u00eb\u00b0\u00a9\u00eb\u00b2\u0137": 107316, "uvwxyz": 65313, "\u0120\u00eb\u00a7\u0132\u00ec\u0136\u0122": 123660, "\u0120ora": 60425, "imachinery": 71455, "\u0120Rei": 84241, "\u0120flea": 96955, "\u0120queried": 79002, "\u00e7\u00a6\u0123\u00e6\u0143\u00a2": 124260, "\u0120\u00d0\u00bc\u00d1\u0125\u00d0\u00bd\u00d0\u00b8\u00d1\u0128\u00d0\u00b8\u00d0\u00bf": 116944, "\u00e0\u00b8\u0136": 38133, "\u0120\u00d0\u00b2\u00d1\u0123\u00d0\u00bf\u00d0\u00be\u00d0\u00bc": 127062, "\u0120like": 1093, "\u0120\u00ce\u00a4\u00ce\u00b6": 111546, "\u00e4\u00b8\u012f\u00e8\u00b6\u00b3": 127242, "\u0120vid": 18619, "\u00e5\u0125": 59999, "\u0120t\u00c4\u00b1k": 111960, "\u0120alternatives": 27548, ".id": 1801, "\u0120\u00ce\u00bc\u00ce\u00b5\u00cf\u0126\u00ce\u00ac": 111785, "\u00ec\u0125\u013f\u00eb\u012d\u013a": 118094, "\u0120supern": 39887, "(\"{}": 54530, "\u0120peacefully": 67879, "budget": 49506, ".Job": 46393, "ustainable": 42341, "\u0120\u00e3\u0125\u0122": 110557, "\u0120increases": 12992, "=\"[": 73498, "othy": 29671, "\u0120Initializes": 32982, "\u0120EMPTY": 42414, "\u0120\u00e0\u00a4\u0142": 107219, "\u00e5\u0130\u0141\u00e6\u013f\u00a5": 127314, "\u00c3\u00a7ok": 105431, "\u0120Relatives": 76577, "\u0120movie": 5818, "\u0120District": 11182, "\u00e8\u012a\u0140": 107875, ".Branch": 98349, "\u0120sebuah": 96566, ".out": 2594, "\u0109\u0120\u0120\u0120\u0120\u0120\u0120\u0120\u0120\u0109": 67928, "\u0120\u00e0\u00a4\u0127\u00e0\u00a4\u00ae": 105489, "ctime": 34700, "\u0120s\u00c3\u00b6ylem": 113065, "*>::": 52559, "moid": 46159, ".Messages": 55545, "\u0120Tunisia": 77935, "\u0120proactive": 59314, "\u0120\u00d0\u00bf\u00d0\u00be\u00d0\u00bb\u00d1\u012e\u00d0\u00b7\u00d0\u00be\u00d0\u00b2\u00d0\u00b0\u00d1\u0124\u00d0\u00b5\u00d0\u00bb\u00d1\u0131": 67249, "\u0120LY": 87105, "Facebook": 21124, "\u0120\"|": 26268, "\u0109\u0109\u0109\u0109": 465, "\u00ce\u013d": 100993, "\u00e7\u012d": 101462, "\u0120ayn": 102954, "\u0120racial": 19739, "\u0120Shine": 87255, "\u0120trabalho": 55739, "\u0120beb": 68146, "\u0120Starts": 48828, "])\u010a\u010a\u010a": 45751, "_concat": 58578, "\u0120base": 2385, "anzeigen": 89960, "chem": 2464, ".SOCK": 80022, "\u0120\u00d8\u00b1\u00d8\u00ac": 114726, "Intersection": 74027, "@Path": 89271, "\u0120interpretations": 58689, "\u0120\u00ce\u00a3\u00cf\u0126\u00ce\u00bf": 127940, "\u0109UN": 77243, "\u00e0\u00b8\u00b5\u00e0\u00b9\u0124": 111065, "\u0120\u00d0\u00ba\u00d0\u00be\u00d0\u00bd\u00d1\u0128\u00d0\u00b0": 127809, "_tra": 28341, "cedures": 54791, "\u0120Indo": 76985, "-var": 86515, "_TextChanged": 46636, ".removeItem": 45100, "IDENT": 20398, "ryption": 15970, "\u0120Buna": 121291, "\u0120konumu": 125361, "-inter": 45994, "\u0120Warwick": 78202, "ecs": 54817, "acles": 18709, "PACK": 17727, "pa": 6733, "839": 25465, "\u0120emergency": 13147, "ceed": 4739, "iloc": 27043, "\u0120Brow": 29477, "\u0120Eins": 61452, "\u00e5\u00b0\u012a": 108046, "<|reserved_special_token_232|>": 128237, "\u00e9\u00a8": 105522, "\u00d0\u00b0\u00d0\u00bb\u00d1\u012e\u00d0\u00bd\u00d0\u00b8\u00d0\u00b9": 107586, "\u00d9\u012a\u00d9\u0128\u00d9\u012c": 108705, "\u0120przypad": 98317, "\u0120Replies": 64439, "zia\u00c5\u0124": 70217, "\u0120Minh": 93255, "_search": 10947, ".listView": 67951, "\u0120t\u00c3\u00a4": 51890, "-Re": 69060, "ToPoint": 63451, "\u00c3\u00a1lu": 108374, "Anthony": 70098, "\u0120Kazakhstan": 73537, "\u0109dfs": 99214, "\u0120gastro": 59349, "\u0109mock": 78433, "\u0120\u00d8\u00a7\u00d8\u00ae\u00d8\u00aa\u00db\u012e\u00d8\u00a7\u00d8\u00b1": 127168, "ilde": 35376, "\u00e6\u00b8\u0127\u00e6\u00a5\u013c": 120516, "\u0120domingo": 90540, "\u0120Zend": 32217, "\u0120alimentos": 90591, "\u0120COLOR": 26493, "Dependency": 37487, "\u0120\u00d0\u00b2\u00d0\u00b8\u00d0\u00ba\u00d0\u00be\u00d1\u0122\u00d0\u00b8\u00d1\u0123\u00d1\u0124\u00d0\u00be\u00d0\u00b2\u00d1\u0125\u00d0\u00b2\u00d0\u00b0\u00d1\u0124\u00d0\u00b8": 124336, "\u0120Heater": 88528, "\u0120Hussein": 61628, "\u0120Visitors": 69940, "getUrl": 67370, "\u0120\u00ce\u00bc\u00ce\u00b5\u00ce\u00b3\u00ce\u00ac": 119192, "\u0120synonymous": 69593, "\u00e0\u00b8\u00b2\u00e0\u00b8\u00a3\u00e0\u00b8\u00b0": 121443, "nicas": 74446, "\u0120\u00e6\u012e\u0129": 116325, "\u0120quasi": 48844, ".MustCompile": 99726, "('='": 79386, "$\u010a": 26101, "normalized": 39560, "cooldown": 91496, "_PLATFORM": 44319, "oints": 14737, "(obj": 6922, "585": 21535, "\u0120namedtuple": 81636, "\u00d0\u00be\u00d0\u00ba\u00d1\u0123": 113656, ":[],\u010a": 91515, ".panel": 9924, "\u0120Constantin": 92287, "\u0120\u00d1\u0130\u00d1\u0122\u00d0\u00b8\u00d0\u00b4": 112358, "\u0120s\u00c3\u00bcr": 101235, "\u0120\u00d1\u0122\u00d0\u00be\u00d0\u00b7\u00d0\u00b2\u00d0\u00b8\u00d1\u0124\u00d0\u00ba\u00d1\u0125": 107695, "(fixture": 95986, "\u0120\u00ce\u00bf\u00cf\u0122\u00ce\u00bf\u00ce\u00af\u00ce\u00bf": 121348, "\u00e5\u00b0\u00bd\u00e7\u00ae\u00a1": 127322, "criptive": 41419, "_WHITE": 60931, "\u0120HTMLElement": 44999, "\u0120waived": 82582, "javax": 46248, "\u0120road": 5754, "(password": 23608, "PEED": 23623, "(region": 49159, "RN": 51295, "\u012b": 231, ".__": 4952, "\u00e2\u0122\u013bil": 44996, ".quick": 92074, "\u0120demi": 93128, "\u00e3\u0123\u0126\u00e3\u0123\u0126": 104712, "Locker": 88353, "_EOL": 37344, "\u0120Blessed": 77097, "\u0120th": 270, "433": 20153, "\u0120Martinez": 44027, "\u0120for": 369, "otros": 48145, "\u0120cartridge": 51962, "\u010a\u0109\u0109\u010a": 25536, "entity": 3069, ".modified": 82138, "\u0120trolls": 65685, "=count": 75016, "\u00e6\u013f\u00bf": 88631, "\u0120pneumonia": 69329, "\u0120Gas": 21523, "erne": 68495, "\u00d0\u00bf\u00d1\u0138\u00d0\u00b4": 127830, "\u0120z\u00c5\u00afst": 112888, "Bre": 51329, "\u0120dma": 51350, "\u00ec\u0139\u0128": 105660, "\u0109cc": 64617, ".viewport": 78260, "\u0120Teachers": 47802, "(ship": 92499, "(api": 25865, "\u0120ofrece": 89539, "IGH": 17186, "\u0120interval": 10074, "\u0120trackers": 92082, "\u0120Milky": 89819, "clair": 49272, ":String": 16194, "\u0120Andreas": 51162, "\u0120einen": 15826, "_STRUCTURE": 71006, "\u0120COMMENTS": 95842, "createFrom": 91195, "(rr": 81918, "\u0120The": 578, "-facebook": 54687, "seven": 81285, "_tD": 89841, "\u0120\u00ec\u00b2\u00a8\u00eb\u00b6\u0122": 108717, "ac\u00c3\u0143m": 119538, "Sharper": 49516, "\u0120ConsoleColor": 59934, "\u0109intent": 92273, "\u0120harmon": 18249, ";;;;": 23632, "\u0120cipher": 32188, "};\u010d\u010a\u010d\u010a": 17288, "*y": 34347, "_month": 19469, ".drawRect": 86959, "\u0120trainer": 29994, "Sin": 49368, "GameOver": 82574, "#plt": 72856, "\u00e6\u012c\u013a": 108881, "\u00d0\u00b4\u00d0\u00b0": 40590, "\u0120Robertson": 53596, "\\\">\u010a": 35921, "mel": 28226, "AUTO": 68360, "ceans": 43320, "abajo": 74368, "\u0120enthusiastically": 99325, "\u0120lui": 25400, "\u0120\u00c2\u00bb,": 65801, "905": 22393, "\u0120\u00d8\u00aa\u00d8\u00b1": 101097, "\u0120EXTRA": 66493, "\u0120Academ": 123600, "(ax": 43022, "\u00e0\u00a5\u0122,": 102067, "<|reserved_special_token_124|>": 128129, "ldata": 53781, ".grp": 95858, "908": 23629, "\u0120SelectListItem": 96983, "\u00d1\u0122\u00d0\u00b0\u00d0\u00b7": 89554, "PROFILE": 78329, "_velocity": 40766, "\u0120Amp": 54787, "\u0120HttpStatusCode": 50439, "\u0120covid": 84117, "\u0120Additional": 24086, ",:);\u010a": 68154, "\u0120UD": 79651, "(IConfiguration": 96526, "(dot": 65519, "\u00ec\u0139\u0132\u00eb\u012c\u0136": 102772, "\u00e0\u00b8\u0132\u00e0\u00b8\u00b2\u00e0\u00b8\u013b": 107433, "bam": 81667, "\u0120jewelry": 31817, "\u0120s\u00c4\u00b1n\u00c4\u00b1f": 108120, "\u0120ili\u00c5\u0141": 103563, ".json": 4421, "cakes": 63092, "MZ": 98088, "\u00e0\u00a4\u00be\u00e0\u00a4\u00ae": 100497, "\u0120\u00d0\u00bd\u00d0\u00b0\u00d0\u00b4\u00d0\u00b0\u00d0\u00bd\u00d0\u00bd\u00d1\u0131": 120956, "\u0120nj": 37185, "\u0120Sunshine": 62394, "(volume": 75806, "\u0120\u00d8\u00a7\u00d9\u0126\u00d8\u00ac\u00d8\u00af\u00d9\u012c\u00d8\u00af": 115266, ":i": 15007, "\u00c3\u00a9ration": 53301, "\u0120impatient": 74797, "\u00d9\u0123\u00d8\u00b4": 113062, "Lexer": 93947, "?\u010a\u010a\u010a\u010a": 15850, ".getInt": 17387, "Dating": 66230, "\u00d1\u0123": 2297, "[N": 23015, "offline": 64629, "\u0120\u00d8\u00ae\u00d8\u00a7\u00d8\u00b5\u00d8\u00a9": 127456, "\u00ef\u00b8": 30337, "\u00e5\u0127\u00a8": 37087, "\u00c4\u0133": 52096, "Prod": 42379, "__*/": 52093, "\u0120\u00d8\u00af": 45430, "\u0120directly": 6089, "\u0120pictured": 42666, "')}}\">": 65922, "\u00e5\u0129\u0142": 104194, "ijke": 51505, "rection": 31466, "\u0120\u00cf\u0122\u00ce\u00b5\u00cf\u0123": 106952, "\u00e0\u00b8\u00b8\u00e0\u00b8\u0139": 126506, "'re": 2351, "\u0120rotation": 12984, ".createSequentialGroup": 24308, ".JSONObject": 41655, "'];?>\u010a": 71003, "\u0120bloss": 50823, "\u0120Importance": 94100, "\u0120d\u00c3\u00bcnya": 111984, "]=>": 94796, "IsNull": 99693, "\u0120M\u00e1\u00bb\u00b9": 106035, "`.": 29687, "\\V": 76796, "\u0120\u00ef\u00bc\u0130": 118943, "\u00e6\u0136\u00bf": 75513, "\u00ef\u00bc\u0136": 46702, "\u0120attire": 69260, "Ensure": 65539, "\u00d1\u0124\u00d0\u00be\u00d0\u00b3\u00d0\u00be": 126864, "Thumb": 63799, "Ipv": 81756, "Council": 88934, "_Request": 45124, "ened": 6901, "\u00e5\u012b": 21403, "\u0120VERY": 48174, "\u0120eagerly": 63473, "\u0120tak\u00c4\u00b1m": 109651, "allel": 8116, "()});\u010a": 90560, "\u0120snowy": 90873, "\u00e6\u0136\u00b6\u00e5\u00bd\u0137": 105004, "\u0120waterfront": 70027, ".zh": 90488, "ThreadId": 92170, "gw": 55233, "ildren": 115634, "\u0120assh": 49652, "swire": 80825, "\u0120Snake": 40756, "Attachments": 76840, "\u00e2\u0122\u013b,": 20182, "\u00e0\u00b9\u0129\u00e0\u00b8\u013b\u00e0\u00b8\u0123\u00e0\u00b8\u00b2\u00e0\u00b8\u00a3": 120701, "editor": 9044, "\u0120restarting": 93624, "\u0120ng\u00c3\u0142y": 101120, "\u00e3\u0123\u00a7\u00e3\u0123\u012f\u00e3\u0124\u012d": 108608, "\u00e9\u00a7\u0127\u00e5\u00be\u0134\u00e6\u0143\u00a9": 125217, "_fu": 37567, "\u0120yapm\u00c4\u00b1\u00c5\u0141": 119753, "SPACE": 45741, "/topics": 58762, "\u0120liked": 15262, "\u0120\u00cf\u0122\u00cf\u0123\u00ce\u0143\u00cf\u0122\u00ce\u00b5\u00ce\u00b9": 120611, "\u0120%>": 80136, "\u0120POW": 70893, "IVING": 73246, "ores": 4692, "\u0120xxxx": 85076, "debug": 8514, "olk": 23427, "\u00e6\u0141\u00a5\u00e7\u013e\u012d": 109579, "forder": 88327, "\u0120\u00d1\u0123\u00d0\u00bb\u00d0\u00be\u00d0\u00b9": 127266, "\u0120\u00d8\u00a7\u00d9\u0127\u00d9\u0128\u00db\u012e\u00d8\u00aa": 127967, ".elasticsearch": 54178, "zas": 51455, "\u0120Burst": 78567, "\u00e7\u012b\u0129": 35818, "\u0120vm": 11238, "\u0120\u00c2\u00a7\u00c2\u00a7": 65431, "\u0120jd": 74476, "ivalence": 89890, "\u0120\u00d0\u00bf\u00d1\u0122\u00d0\u00be\u00d0\u00b4": 89715, "(inner": 69703, "QE": 99125, "\u0120spell": 13141, ";:": 101986, "\u0120invoices": 65152, "\u00e0\u00a5\u012f\u00e0\u00a4\u00af\u00e0\u00a4\u0137": 102107, "\u0120\u00d0\u00b4\u00d1\u0138\u00d1\u0124\u00d0\u00b5\u00d0\u00b9": 110914, "\u0120chancellor": 77275, "\u0120belg": 108340, "itchens": 49721, "\u0120`(": 49751, "\u0120FIRE": 61563, "\u0120SERVICE": 39186, "\u0120fence": 25675, "\u0120tablesp": 38190, "\u0120Amanda": 42859, "_PY": 79637, "\u0120MouseEventArgs": 83004, "\u0120\u00ed\u0123\u00b4\u00eb\u0140\u013a\u00ec\u012c\u00a4": 94282, "_cipher": 77792, "\u0120dit": 22011, "\u0120Lana": 95887, "\u0120Arch": 9683, "ADIUS": 45671, "\u0120\u00d9\u0128\u00d8\u00b3\u00d9\u0127\u00d8\u00a9": 120975, "iggers": 22099, "\u0120ymax": 57178, "leine": 92933, ".Tests": 38233, "CEED": 78117, "\u0120surrendered": 71044, "fifo": 75131, "ValueHandling": 81598, "\u0120setResult": 84006, "ckt": 69512, "\u0120\u00d1\u0123\u00d0\u00ba\u00d0\u00b0": 107885, "\u0120workflows": 88568, "\u00e0\u00a5\u0124\u00e0\u00a4\u00b8\u00e0\u00a4\u00b0": 105869, ".clientWidth": 77872, "HomeAs": 90737, "\u0120infections": 30020, ".parseColor": 72040, "kan\u00c4\u00b1": 104947, "\u00ec\u013f\u00b4": 13094, "\u0120formulated": 60394, "\u0120either": 3060, ".toJSONString": 83186, "-six": 55541, "\u00eb\u00a1\u013e": 17835, "\u0120Instant": 18549, "INavigationController": 52317, "_CMP": 84356, "\u0120sonra": 85226, "\u0120Kimberly": 86753, ".getIn": 77288, "_street": 79662, ".purchase": 86763, "<Client": 86999, "\u0120Presidency": 87748, "/apimachinery": 73744, "\u0120jak\u00c3\u00a9": 115574, "\u0120WAR": 59083, "\u0120EXEC": 63347, "\u00c3\u00bcndeki": 121277, "umper": 24988, "belt": 76948, "\u0120\u00d9\u012a\u00d9\u0125\u00d8\u00a7\u00d9\u0128": 111353, "\u0120snug": 86701, "physical": 47692, "290": 13754, "\u00e0\u00b8\u00b5\u00e0\u00b8\u00a2\u00e0\u00b8\u0136": 110961, "pcion": 16669, "bk": 41129, "\u0120Bolton": 62677, "\u0120enfer": 62097, "\u0120:]": 49618, "-)": 63096, "brace": 32337, "\u0120municipalities": 59589, "\u0120bulld": 79942, "chia": 90646, "\u0120subscription": 15493, "xcb": 50491, "\u0120Housing": 31433, "\u0120m\u00c3\u00b6glich": 51937, "\u00e6\u0129\u012b": 106877, "aning": 44159, "\u0120syll": 48704, "\u00e7\u00a7\u0123": 86127, "-depth": 31410, "_query": 5857, "\"nil": 81025, "Resp": 37655, "\u0120slew": 60132, "\u0120Enumeration": 78225, "levels": 43664, "Twenty": 76896, "inclusive": 99461, "\u00d8\u00b3": 20665, "\u0120WAV": 89430, "significant": 91645, "blink": 55416, "alink": 67923, "jet": 15769, "\u00e0\u00a5\u00a7": 105873, ".eq": 27760, ".cluster": 41601, "\u00e0\u00a4\u00b6\u00e0\u00a4\u0137": 123930, "\u0120poles": 51879, "\u0120proposals": 25243, "\u0120muestra": 71687, "\u00e2\u0122\u00a6)\u010a\u010a": 77158, "\u0120entail": 87092, "thesize": 27985, "Optimizer": 81737, "\u0120rapp": 61158, "\u00c3\u0138L": 123157, "\u0120\u00d0\u00bf\u00d0\u00b5\u00d1\u0122\u00d0\u00b5\u00d0\u00bb": 121278, "\u0120partnering": 70220, "teen": 15247, "\u0120fif": 11375, "\u0120primaryStage": 90850, "\u00d9\u0122\u00d9\u0122\u00d9\u0122": 116767, "\u0120Mev": 118266, "\u0120detal": 53252, "_ptrs": 80633, "_completion": 61264, "(Handle": 91932, "\u0120humanitarian": 38748, "\u00d1\u0127\u00d0\u00be\u00d0\u00b4": 31101, "\u0120paciente": 73512, "Arrange": 80335, "\u0120\u00e0\u00a4\u013a": 101632, "n\u00c3\u00a9": 52235, "016": 15794, "\u0120IOException": 9530, "808": 11770, "\u0120h\u00c3\u00b6": 43859, "\u0120diren": 127871, "\u0120nin": 20120, "\u00d0\u00b0\u00d1\u0130\u00d1\u0124\u00d1\u012e": 116682, "NN": 9944, "\u0120adjustments": 34074, "/un": 36317, "\u0120unlikely": 17821, "\u0120canopy": 64071, "\u0120TAR": 75674, "\u0120Tristan": 97690, "idir": 102051, "\u0120has": 706, ".compiler": 64890, "Selectable": 69807, "\u0120weakening": 83526, "\u0120news": 3754, "aves": 4798, "f\u00c3\u00bcg": 61509, "rok": 54661, "escription": 2081, "\u0120\u00d0\u00bd\u00d0\u00b8\u00d0\u00ba\u00d0\u00b0": 113250, "\u0120c\u00e1\u00bb\u0143": 111752, "\u0120\u00d0\u00bc\u00d0\u00b5\u00d0\u00b4\u00d0\u00b8\u00d1\u0128\u00d0\u00b8\u00d0\u00bd": 118851, "\u0120Fletcher": 69168, "\u0120\u00e0\u00a4\u012b\u00e0\u00a4\u00b2": 116947, "\u0120whereas": 20444, "\u0120FM": 24342, "\u00e8\u00b5\u00b5": 122028, "\u00db\u012e\u00d9\u0127\u00d8\u00aa": 104877, "\u0120donation": 25968, "\u0120Tips": 26788, "ades": 3536, "lik": 7792, "(Session": 36273, "\u0120follic": 82714, "},\u010a": 1613, "\u0120DEALINGS": 29570, ".way": 91988, ",\"\u010a": 43352, "finished": 12402, "cases": 24857, "\u0120matrices": 36295, "-league": 88363, "\u00e6\u0143\u012e": 104261, "\u00ef\u00bc\u0132\u00ef\u00bc\u0132": 125215, "\u00e0\u00b8\u00b2\u00e0\u00b8\u0123\u00e0\u00b8\u00a5": 116426, "luv\u00c3\u0143": 126664, "omnia": 50405, "\u0120onlar\u00c4\u00b1n": 116861, "\u00eb\u00b3\u00b4\u00ec\u0137\u013a\u00eb\u012d\u00a4": 121947, "lope": 36427, ",filename": 93935, "\u0120respons": 4294, "\u0120ACT": 21800, "\u0120zoek": 74900, "Cross": 29601, "'])\u010d\u010a": 40673, "\u0120ecx": 66329, "\u0120neob": 126396, "gb": 9701, "isNull": 67911, "\u00e3\u0124\u00a6\u00e3\u0125\u012a": 125916, ".band": 75339, "_REDIRECT": 91379, "__()": 95886, "YYY": 53409, ".Navigate": 74794, "\u0120\u00d9\u0126\u00d9\u012a": 105591, "\u00c2\u00af": 35085, "juven": 63231, "\u0120lance": 86345, ".djang": 64423, "(segment": 65237, "\u0120extinct": 69918, "\u00e5\u0129\u0128\u00e5\u00a4\u0129": 115996, "\u00e8\u00af\u00af": 30156, "Deque": 74991, "\u00e7\u013b\u00bd": 101828, "\u0120!(": 18708, "\u0120\"\"\u010a": 8555, "\u0120invisible": 30547, "\u0120Rapid": 48090, "\u0120Paz": 88982, "Ob": 4213, "\u0120\u00ed\u0138": 101571, "\u0120~~": 78877, "enido": 33558, "\u0120kiss": 21735, "\u0120bargain": 45663, ".nasa": 90740, "(long": 12916, "120": 4364, "/uploads": 30681, "_shutdown": 55904, "\u0120Wisdom": 57201, ".keywords": 88259, "(ps": 44136, "combat": 86743, "\u0120Hair": 26781, ".rpc": 56277, "\u00e5\u0131\u00b0\u00e7\u0123\u00a3": 117342, ".foo": 59532, "Link": 4026, "istick\u00c3\u00a9": 123640, "\u0120\u00d0\u00be\u00d0\u00b4\u00d0\u00bd\u00d1\u0125": 113984, "\u0120pane": 38422, ".general": 56890, "\u00d0\u00ba\u00d0\u00b0\u00d0\u00bc\u00d0\u00b8": 101650, "zano": 100098, "\u0120Seats": 75535, "\u0120sinister": 63667, "\u0109setup": 85671, "neighbors": 80588, "FileChooser": 73382, "\u0120Andrea": 41184, "\u0120ya": 13835, "Club": 54849, "\u00d0\u00be\u00d0\u00bb\u00d0\u00be\u00d0\u00b3\u00d1\u0138\u00d1\u0129": 106693, "\u0120ogr": 96361, "\u0120\u00d0\u00b6": 58317, "\u0109Delete": 97772, "\u0120foll": 52506, "\u0120collaborate": 51696, "longrightarrow": 56142, "\u0120trainers": 51191, "\u0120glGetUniformLocation": 93820, "\u0120k\u00c4\u00b1sm": 109792, "\u0120}}\"></": 41020, "CALLTYPE": 48102, "\u0120fourn": 81994, "Protect": 62647, "\u0120neoliberal": 81568, "\u0120Drake": 42865, "\u0120Advoc": 48359, "\u00e6\u0130\u013d": 115856, "\u0120\u00d2\u0132": 124473, "\u00c4\u012fel": 115551, "_twitter": 84438, "\u0101": 189, "\u0120osoby": 118863, "zburg": 79302, "\u00ea\u00bc": 115175, "AE": 13983, "\u0120Wilderness": 85192, ".rawQuery": 96856, "\u0120\u00e0\u00b8\u0126\u00e0\u00b8\u00a7\u00e0\u00b8\u00b2\u00e0\u00b8\u00a1": 108560, "\u0120abusing": 69579, "REV": 73587, "(foo": 72980, "v\u00c3\u00a1n\u00c3\u0143": 108913, "\u0120whitelist": 68827, "Manip": 93976, "(col": 20184, "\u0120.$": 46477, "_ele": 62465, "\u0120disarm": 87876, ")get": 63407, "parser": 9854, ".phoneNumber": 87144, ".FIELD": 63280, "\u0120mess": 9622, "\u0120rounds": 20101, ".gradle": 62583, "HandlerContext": 76326, "+=\"": 47231, "_checker": 63815, "\u0120ani": 53088, "\u0120clarity": 32373, "esine": 102548, ".digest": 76677, "\u0120mod\u00c3\u00a8le": 83597, "\u0120Begin": 19110, "-semibold": 83016, "\u00d0\u00b0\u00d0\u00ba": 16248, "\u0120\u00c3\u013er\u00c3\u00bcn": 120324, "\u0120fortunate": 40510, "(FALSE": 52300, "ebi": 113530, "127": 6804, "\u0120Eastern": 18516, "_CUSTOM": 37414, "\u0120hb": 46235, "\u0120RSA": 46741, "\u00e0\u00b8\u00b4\u00e0\u00b9\u0122\u00e0\u00b8\u00a7\u00e0\u00b8\u0135": 124353, "\u0120old": 2362, "[][": 64549, "\u0120wx": 9253, "]bool": 97536, "\u0120\u00d9\u0125\u00d8\u00a7\u00d9\u0127\u00d9\u0126": 126012, "\u0120herkes": 113789, "Already": 39470, "\u0120\u00e3\u0123\u0126": 113202, "\u0120JAVA": 86660, "\u00e5\u00b8\u012e\u00e6\u013e\u013d": 110526, "<Contact": 87596, "\u0120sextreffen": 97935, "Ti": 46451, "=True": 3702, "\u0120Marino": 89366, ".nz": 62082, "\u0120ordained": 86724, "<|reserved_special_token_3|>": 128005, "(strtolower": 74845, "\u0120Dual": 34759, "\u0120Sic": 56954, "\u0120over": 927, "\u0120Wise": 62101, "trained": 36822, "icia": 24985, "\u0120clarify": 38263, "\u0120scaff": 57250, "json": 2285, ".sep": 57478, "Throws": 45837, "','-": 68368, "responseObject": 87106, "[]\u010d\u010a": 96355, "\u0120Compile": 55567, "926": 26026, "\u0120\u00d0\u00ba\u00d0\u00be": 88515, "[keys": 93967, "\u0120Granite": 65594, "\u00d9\u0125\u00d8\u00a7\u00d8\u00aa": 106972, "\u0120Installed": 99177, "()\");\u010a": 47061, "ildi\u00c4\u0141i": 115323, "Penn": 82031, "vit": 55911, "(begin": 50171, "\u0120incarn": 97072, ".getCmp": 75271, "\u0120Ember": 49334, "\u00c3\u00ban": 25155, "\u00e0\u00b9\u0125\u00e0\u00b8\u0123\u00e0\u00b8\u00a5": 114074, "-west": 38702, "salary": 52710, "roup": 896, "\u0120strchr": 65135, "\u0120Haupt": 91031, "\u0120\u00c3\u0136ng": 115019, "\u0120\u00e0\u00b8\u012a": 100922, "ece\u00c4\u0141iz": 121917, "\u0120filt": 72954, "\u00d1\u012a\u00d0\u00ba\u00d1\u0125": 124549, "\u00e7\u00ab\u013b": 71890, "\u0120saat": 52465, "-Level": 93880, "htdocs": 40848, "-date": 18920, "WithType": 74816, "\u0120ragazza": 77295, "\u0120yaz\u00c4\u00b1l\u00c4\u00b1": 120782, "\u0120usado": 98443, "\u0120Config": 5649, "Univers": 65715, "\u0120shoreline": 99164, "\u0120spoof": 88990, "\u0120personnel": 17274, "\u0120tamb": 17834, "\u00e0\u00b8\u013c\u00e0\u00b8\u00a3": 101540, "\u0120hipp": 44656, "\u0120Nim": 47683, "Seek": 40450, "AMPLE": 19454, "\u0120Bukkit": 95772, "olit": 112261, "\u0120\u00d8\u00a7\u00d9\u0126\u00d9\u0126\u00d8\u00ba\u00d8\u00a9": 116905, "uing": 7623, "\u0120Attach": 49484, "qp": 33863, "Protocol": 21346, "\u0120progressing": 76722, "\u0120render": 3219, "\u0120athleticism": 93174, "(text": 7383, "\u00db\u00b1\u00db\u00b6": 110290, "=sub": 46499, "\u0120deton": 55774, "oodles": 98221, "\u0120grosse": 45371, "\u0120Qualcomm": 62502, "\u0120\u00cf\u0122\u00cf\u0123\u00ce\u00b9\u00ce\u00bd": 125686, "-Christian": 89141, "\u0120Paginator": 94164, "\u0120OCT": 67277, "anio": 93808, "etik": 112791, "POWER": 62436, "\u00e0\u00a5\u012f\u00e0\u00a4\u00a4\u00e0\u00a4\u0137": 119637, "\u0120artists": 13820, "iae": 73078, "\u0120tractor": 59785, "umin": 10318, "EventType": 49006, "\u0120heav": 13710, "\u0120attr": 6510, "\u0120Butter": 31457, "WebpackPlugin": 62286, "\u00c2\u0126": 120285, "\u0120\u00c4\u00b0talya": 123468, "\u0120\u00c3\u013elke": 118130, "\u0120adjunct": 90695, "\u0120capac": 23878, "\u0120dejtings": 72104, "gg": 14736, "\u0120recognition": 18324, "(strip": 73895, "\u0120stamina": 61784, "\u00e3\u0124\u00aa": 90962, "kud": 114371, "\u0120oprav": 107635, "\u00e0\u00b9\u012f": 114826, "\u0120decoration": 20841, "ADOR": 80902, "\u00d0\u00b5\u00d1\u0122\u00d0\u00b8": 101202, "\u00d1\u0128\u00d1\u0138\u00d0\u00b9\u00d0\u00bd\u00d1\u0138": 119981, "\u0120Hol": 16071, "\u0120\u00d0\u00bf\u00d0\u00b0\u00d0\u00ba": 120311, "impan": 90988, "\u0120Prel": 41188, "stdarg": 89368, "\u0120preference": 22698, "\u0120Playground": 89692, "))\u010d\u010a": 5904, "-sur": 68806, "pector": 19534, "\u00d9\u012c\u00d8\u00b1\u00d8\u00a7": 115322, "Vec": 10256, "\u0120halde": 114364, ".News": 96183, "\u0120b\u00c3\u0142y": 118112, "Built": 55400, "erce": 26724, "\u00d1\u0122\u00d0\u00b5\u00d1\u0123\u00d1\u0124": 112882, "ann": 1036, "gradable": 78130, "\u0120Enc": 10984, "\u0120TextField": 29535, "\u0120\u00d1\u0129\u00d0\u00b5\u00d1\u0122": 90211, "\u0120championships": 59284, "\u00d0\u013a\u00d0\u00a2": 126148, "\u00af\u00b8": 100554, "\u0120cumulative": 40944, "(delay": 61444, "at\u00c3\u00bcrk": 120743, "\u0120\u00d9\u0127\u00d9\u0126\u00d9\u012c": 116645, "COUNT": 39243, "\u0120Cisco": 43234, "\u0120\u00d1\u0124\u00d0\u00b5\u00d0\u00bb": 110871, "\u0120chce": 115794, "ertz": 59037, "sterreich": 69498, "\u0120paw": 77938, "STDOUT": 90596, "627": 23103, "Debugger": 68339, "\u0120\u00d0\u00a8\u00d0\u00b5\u00d0\u00b2": 122698, "igue": 22711, ".angular": 72841, "stdout": 37458, "filter": 5428, "-u": 46481, "\u0120exploiting": 71701, "(subject": 30228, "\u0120\u00d0\u00bf\u00d1\u0122\u00d0\u00be": 41291, "\u0120'{@": 55173, "\u00e3\u0123\u0131\u00e3\u0123\u00a8": 126145, "-object": 41532, "requestCode": 75635, "\u0120syndrome": 28439, "\u0120Besides": 31909, "();?>": 40655, "\u0120\u00d9\u0126\u00d9\u0129": 105137, "\u00e3\u0125\u0125\u00e3\u0125\u012b": 105404, "\u0120thu\u00e1\u00ba\u0143n": 109146, "OUCH": 94580, "\u0120onder": 38861, "elite": 71391, "\u0120\u00d8\u00b0": 101277, "\u0120;;^": 57261, "\u0120itemId": 47471, "umbs": 16152, "\u0120Sung": 60671, "ASET": 62373, "\u0120Serial": 11464, "\u0120isset": 10459, "-off": 12744, "\u0120UIScrollView": 74752, "\u0120step": 3094, "\u00e9\u0129": 13393, "DIG": 88029, "\u0120repro": 53823, "(MenuItem": 60583, "\u0120curry": 55178, ".True": 33543, "\u0120Agenda": 58662, "\u0120\u00d8\u00b1\u00d8\u00a6\u00db\u012e\u00d8\u00b3": 116800, "\u0120\u00e4\u00bb\u00bb": 123329, "\u0120\u00eb\u0124\u00b4\u00eb\u0142\u00a4": 118952, "\u00d0\u00b7": 9136, "_De": 25617, "\u0120councill": 61145, "(IOException": 84977, "_SELECTOR": 73496, "\u0120\u00e8\u0131": 107893, "_RESPONSE": 37001, "unication": 40295, "\u0120u\u00c5\u00bcytk": 89424, "\u0120foam": 32183, "\u0120stra": 114118, "\u0109\u010d\u010a\u0109\u010d\u010a": 27189, "\u0120siempre": 42698, "\u0120clinically": 70432, "\u0120\u00eb\u00b0\u00a9\u00ec\u0128\u00a1": 112938, "\\Has": 79262, "(::": 39832, "Beat": 44758, "\u0120role": 3560, "\u0120\u00d8\u00a8\u00d8\u00b9\u00d8\u00b6": 106406, "atab": 2143, "\u0120workout": 26308, "\u0120dishes": 26863, "ildo": 31045, "\u0120YE": 78048, "\u0120vrai": 83195, "_ori": 86625, "edik": 109586, "\u00e6\u00bb\u00bf": 120360, "\u0120\u00d1\u0123\u00d0\u00b0\u00d0\u00bc\u00d0\u00be": 110481, "\u0120achieving": 32145, "_minimum": 85955, "\u0120Classes": 34969, "\u0120\u00d0\u00b7\u00d0\u00b2\u00d0\u00b5\u00d1\u0122": 108471, "/\\": 35419, "\u00e7\u0136\u0141\u00e5\u0133\u00bd": 118958, "\u0120daemon": 40393, "\u00d0\u00bf\u00d1\u0122\u00d0\u00b8": 101245, "\u0120Pt": 52170, "\u0120///<": 21794, "found": 15456, "\u00e7\u012b\u013b": 109895, "soup": 90642, ".ST": 16009, "\u0120Salem": 60481, "okemon": 13823, "\u0120\u00d8\u00aa\u00d8\u0143\u00d8\u00aa": 105618, "elve": 21903, "Son": 46714, "\u0120\"==": 99751, "\u00e6\u00a2\u0123": 117392, "\u0120intim": 22713, "++){\u010d\u010a": 24484, "\u0120Honda": 29987, "hi": 6151, "Mapping": 6950, "_detalle": 96571, "\u0120findBy": 45559, "_goods": 46195, "_)\u010d\u010a": 77743, "phe": 81906, "\u0120-----------------------------------------------------------------------------\u010a": 52914, "\u0120REF": 39129, ".Unicode": 91649, "\u0120\u00d0\u013a\u00d0\u00b7": 108197, "\u0120elect": 4135, "\u0120debts": 45305, "\u0120\u00d0\u00be\u00d0\u00b1\u00d0\u00bb\u00d0\u00b0\u00d0\u00b4": 120272, "\u0120do\u00c4\u0141": 94382, "\u00e3\u0123\u00b8\u00e3\u0123\u00ae": 111363, "bul": 16501, "\u0120bland": 50531, "\u0120theorem": 58917, "\u0120ballet": 71310, ".querySelector": 8751, "\u0120IDS": 40297, "-item": 6538, "\u0120Block": 8527, "$msg": 57819, "\u0120pos": 1153, "\u0120sessuali": 95969, "\u0120tr\u00c3\u00aan": 100790, ".Asset": 89261, "_SUBJECT": 90287, "-focused": 52373, "\u00c4\u012fn\u00c3\u0143k": 114030, "\u0120rendition": 83965, "roken": 82809, "\u0109read": 38143, "\u0120grams": 34419, "\u0120\u00ec\u0126\u00b1": 102132, "\u0120transport": 7710, "\u0120CommandLine": 79318, "\u0120Dutch": 24113, "adian": 10272, ".release": 26642, "\u0120l\u00e1\u00bb\u012dch": 105283, "\u0120\u00c3\u00bapln\u00c4\u013d": 118500, "203": 9639, "\u0120\u00e0\u00a4\u00b9\u00e0\u00a4\u00b2": 120917, "\u0120Daddy": 54546, "\u0120inode": 35903, ".schema": 31992, "Shoot": 86295, "\u0120\u00d8\u00a7\u00d9\u0126\u00d9\u012a\u00d9\u0124\u00d8\u00aa": 117343, "orders": 8076, "flag": 10104, "\u0120domain": 8106, "\u0120\u00d0\u00bc\u00d0\u00b0\u00d1\u0123\u00d1\u0124": 122672, "\u0120Lol": 80237, "Double": 7530, "\u00e0\u00b8\u00b4\u00e0\u00b8\u0139": 108318, "---------\u010a": 29547, "\u00ce\u0133\u00ce\u013f": 104159, "\u0120\u00d1\u0138\u00d0\u00b4": 109592, "\u0120above": 3485, "\u0120gym": 19343, "\u0120whiteColor": 46381, "\u00eb\u012d\u00a8": 101353, "iOS": 63860, "\u00c3\u00a1vis": 125394, ".But": 53701, "\u0120tid": 13413, "Vehicle": 35702, "ay": 352, "\u0120otev": 107395, "\u0120TRY": 79581, "\u0120Gerald": 55357, "\u0120sulfur": 72591, "\u0120Disneyland": 75174, "\u0120Parent": 17457, ".rmtree": 82306, "\u0120\u00ec\u0137\u012e\u00eb\u0142\u00a4": 116023, "\u00c2\u0142F": 117899, "\u0120hydrated": 95831, "\u0120\u00ec\u00b4\u013f": 107152, "\u0120\u00d0\u00b7\u00d0\u00b2": 102098, "\u0120r\u00c3\u0142ng": 116275, "\u012c\u00ec\u013f\u0122": 123143, "\u00d1\u0123\u00d1\u012d\u00d0\u00bb": 66784, "OrderBy": 35705, "NDAR": 78741, "\u0120protein": 13128, "\u0120y\u00c3\u00bcr": 104890, "\\Security": 58492, "\u0120\u00d8\u00b1\u00d8\u00a3": 115547, "\u00e9\u013a\u00bf": 103478, "\u0120COMM": 52385, "ith": 411, "\u0120creeping": 88692, "\u0120integrate": 32172, "_gpio": 33101, "really": 54760, "vars": 15742, "_lookup": 28564, "ROOT": 24831, "\u0120insurers": 56374, "Program": 10920, "\u0120Saf": 12867, "\u0120arab": 52412, "\u0120sekt\u00c3\u00b6r": 108921, "Reducers": 48264, "ZA": 53436, "<|reserved_special_token_152|>": 128157, "\u0120bueno": 93641, "])*": 48783, "equality": 82738, "\u0120Skyl": 94111, "_CODES": 42788, "\u0120Beef": 64225, "START": 23380, "\u0120\u00d1\u0125\u00d1\u0122\u00d0\u00be\u00d0\u00b2": 106314, "\u00e7\u013d\u00b8\u00e5\u0127\u00b3": 79656, "\u0120mpfr": 83314, "[train": 89516, "siniz": 102383, "?\u010a": 5380, "\u00e5\u00b3\u00b0": 110677, "\u0120many": 1690, "\u00c3\u00bcl\u00c3\u00bc": 113613, "\u0120\u00d0\u0134\u00d0\u00b0\u00d1\u0123": 109631, "\u00e0\u00a4\u0124\u00e0\u00a4\u00a1\u00e0\u00a4\u00b2": 121260, "\u0120back": 1203, "Directions": 61424, "(Size": 82879, "Pitch": 48171, "(queue": 35110, "\u0120pasar": 67714, "\u0120Sale": 13618, ".hwp": 123500, "ulous": 13850, "\u0120firefight": 38703, "\u0120verdi\u00c4\u0141i": 116638, "\u00ce\u00bc\u00ce\u00b5\u00ce\u00af\u00ce\u00bf": 127110, "_draw": 23885, "\u00e4\u00b9\u00a6\u00e8\u00ae\u00b0": 124960, "\u0120AOL": 94251, "\u0120allerdings": 86825, "\u0120Automated": 95823, "\u0120cure": 27208, "\u0109await": 35536, "\u0120\u00d8\u00a7\u00d8\u00b1\u00d8\u00aa\u00d9\u0123": 118001, ".minLength": 97040, "\u0120\u00c3\u00baltima": 72128, "\u0120opponent": 15046, "Wild": 41703, "Yo": 65825, "Persona": 65457, "\u0120offs": 74317, "TypeError": 81176, "Square": 34371, "\u0120Spear": 78537, "tearDown": 83992, "Auth": 5197, "\u0120'}": 41174, "\u00c5\u0142": 104907, "\u0120\u00e6\u013a\u00af\u00e5\u0132\u00a6": 73051, "\u0120\u00c3\u00a4": 12999, "\u0120motor": 9048, "\u00e4\u00bb\u00a5\u00e5\u0131\u012c": 109717, "ae": 6043, "\u0120espa\u00c3\u00a7o": 99972, "\u0120destino": 69197, "Rp": 62830, ".rest": 22113, "\u0120giver": 95615, "\u0120\u00d9\u012a\u00d9\u0127\u00d8\u00b9": 125865, "ONLY": 32192, "\u0120\u00ce\u00b9\u00cf\u0125\u00cf\u0126\u00ce\u00bf": 115123, "Autoresizing": 48386, "Knife": 57505, "SCII": 57820, "\u00ce\u00bd\u00ce\u00b5\u00ce\u00b9": 125382, "\u0120Lu\u00e1\u00ba\u0143t": 109903, "_times": 23155, "leh": 74890, "\u00d8\u00a7\u00d8\u00b9\u00d8\u00a8": 113900, "(locale": 70116, "_MSB": 97489, "SQ": 65408, "_review": 39761, "ToOne": 29290, "mpl": 55110, "\u0120RTAL": 77260, "\u0120mostra": 93197, "\u00db\u012e\u00d8\u00aa": 100546, "\u00d0\u00bb\u00d0\u00b0\u00d1\u0124": 79563, "\u00e1\u00ba\u0143": 24355, "_insert": 18146, "\u0120aras\u00c4\u00b1ndaki": 111542, "\u0120\"\");": 94854, "\u0109\u0109\u0120\u0120\u0120\u0120\u0120\u0120\u0120\u0120\u0120": 69303, "\u0120appealing": 33352, "estre": 73875, "paused": 79393, "\u0120th\u00e1\u00bb\u0143": 110832, "\u0120eastern": 24024, "\u0120\u00d9\u0127\u00d8\u00b1\u00d8\u0143": 111895, ".getRow": 51293, "\u0120sharp": 17676, ".length": 1996, "\u0120gg": 53134, "\u0120Carly": 79191, "\u0120SYS": 33660, "\u0120conclusions": 31342, ".article": 52516, "\u0120\u00c3\u0138n": 111511, ",cljs": 96745, "DT": 10822, "\u0120genesis": 60466, "/*/": 92637, "\u0120dec": 1654, "821": 23282, "\u0120Jesse": 40271, "Sr": 80026, "\u00e0\u00b8\u00b2\u00e0\u00b8": 100258, "\u0120MUCH": 79433, "\u0120\u00f0\u0141\u013b\u0124\u010a\u010a": 40124, "\u0120Cycle": 42392, "trust": 57755, "\u0120riff": 81350, "etary": 16238, "\u0120\u00d0\u00bf\u00d0\u00be\u00d0\u00bb\u00d1\u0125\u00d1\u0129\u00d0\u00b8\u00d1\u0124\u00d1\u012e": 117640, "\u0120\u00ec\u0140\u0132\u00ea\u00b8\u00b0": 112025, "\u0120located": 7559, "\u0120cooked": 30205, "etten": 95201, "\u0120nicknamed": 90234, "\u0120delegates": 36159, "\"]').": 26575, "\u0120Canadian": 12152, "nia": 21557, "\u0120],\u010a\u010a": 40874, "-p": 2320, "Indicator": 20093, "\u0120Kasich": 76081, "ATIVE": 24093, "\u0120\u00e4\u00bb\u012c": 116564, ".ReadLine": 18860, "CD": 6620, "EndElement": 90416, "\u0120Roosevelt": 47042, "\u00e0\u00b9\u012b\u00e0\u00b8\u00b2\u00e0\u00b8\u0139": 107909, "\u00e4\u00b8\u00bb\u00e4\u00b9\u012b": 115657, "\u0120Yo": 44188, "\u0120usable": 41030, "\u0120AAC": 76448, "\u0120\u00e0\u00a4\u0129\u00e0\u00a4\u00b8": 100504, "\u0120MAY": 40330, ".Filters": 78814, "\u0120\u00d0\u00bf\u00d1\u0138\u00d0\u00b4\u00d0\u00bf\u00d1\u0122\u00d0\u00b8\u00d1\u0136\u00d0\u00bc\u00d1\u0123\u00d1\u0124\u00d0\u00b2": 126608, "\u0120TS": 23822, "\u00d8\u00a7\u00d8\u00af\u00d8\u00a7": 123633, "iya": 80574, "\u0120insisted": 29676, "\u0120Wayne": 28640, "ters": 5153, "\u00e7\u0139\u0127": 103429, "rear": 59508, "\u0120\u00ef\u00bc\u0140": 113270, "\u0120conceived": 50178, "\u0120Perez": 50465, "uke": 10647, "icial": 7235, ".interpolate": 82753, "\u0120CLOSED": 98413, "\u0120\u00da\u00af\u00d8\u00b1\u00d9\u0123": 103580, "_elems": 87317, "step": 9710, "\u0120._": 67390, "\u0120When": 3277, ".White": 21384, "\u00d9\u0128\u00d9\u012b": 119415, "\"';\u010a": 85676, "requent": 70791, "\u0120cholesterol": 39086, "\u0120hon": 5954, "interop": 32168, "_COUNTRY": 95105, "ounters": 93102, "\u0120\u00cf\u0126\u00ce\u00b7": 100587, "\u00e5\u00a6\u0138": 117566, "undaki": 120209, "\u00e0\u00a5\u012f\u00e0\u00a4\u00aa\u00e0\u00a4\u00b0": 122033, "\u0120utilizado": 99633, "\u0120\u00e7\u013e\u0123": 124996, "\u0120v\u00c3\u0143de": 38150, "\u00e2\u012b\u0142": 126582, "herit": 9447, "gin": 8326, "\u0120communicated": 59035, "811": 22588, "\u0120franchise": 19562, "\u0120\u00e5\u012f\u0125": 115728, "\u00da\u00a9\u00d9\u012a\u00d8\u00b1": 115808, "phthalm": 81937, "\u0120generics": 96645, "\u0120\u00d0\u00b2\u00d0\u00b2\u00d0\u00be\u00d0\u00b4": 123340, "\u0120expectancy": 66995, "\u00d8\u00a7\u00d9\u0124\u00d8\u00a9": 109751, "\u0120Uygu": 124454, "\u0120Composer": 79871, "\u0120uzav\u00c5\u013b": 125765, "\u0120\")": 12590, "_ENABLE": 14716, "')\u010a\u010a\u010a\u010a": 95241, "\u0120McDon": 72674, "-Fi": 27395, "\u0120\u00d8\u00a7\u00d8\u00b9\u00d8\u00aa\u00d9\u0127\u00d8\u00a7\u00d8\u00af": 126062, "(numbers": 48307, "expected": 7475, "\u00d8\u00a8\u00d8\u00a7\u00d8\u00b4": 104456, "_supp": 92580, "chg": 67040, "\u00d0\u00b8\u00d0\u00bd\u00d0\u00b5": 106159, "phy": 12989, "lder": 77969, "l\u00c3\u00a1\u00c5\u00a1": 114872, "\u0120Roman": 13041, "ick": 875, "break": 9137, ".minute": 67319, "\u0120saving": 14324, "\u0120universal": 20789, ")c": 48086, "ky": 8050, "\u00e9\u0123\u0136": 104067, "Si": 22771, ")L": 34542, "\u0120Iz": 48923, "\u0120ApiService": 79851, "ead": 3228, "difficulty": 72964, "SEX": 98610, "\u0120firearms": 32653, "\u0120\u00d8\u00a8\u00da\u00af": 106855, "<count": 56911, "Account": 7516, "\u0120Mahar": 53690, "(prom": 84432, "\u0120\u00e8\u00b7\u00af": 123845, "\u0120Mandatory": 71882, "//\u010a\u010a": 6454, "\u0120JButton": 28216, "\u0120invade": 75272, "\u00e0\u00b8\u0126\u00e0\u00b8\u00a3\u00e0\u00b8\u013c": 120887, "\u0120summaries": 70022, "\u0120memor": 16420, "\u0120jours": 49301, "\u0120YEAR": 52005, "Objects": 11804, "\u0120\u00d0\u00b7\u00d1\u0122\u00d0\u00be\u00d1\u0123\u00d1\u0124": 120187, "\u0120flotation": 68297, "\u00e4\u00b8\u012f\u00e5\u00ae\u012b": 127408, "\u0120email": 2613, "\u0120reuseIdentifier": 53760, "\u0120special": 3361, "\u0120aos": 43914, "\u00e5\u0140\u0124": 122347, ".Seek": 77565, ".Mar": 84791, "\u00e0\u00b9\u012a\u00e0\u00b8\u00b3": 111677, "\u0120crush": 5138, "rv\u00c3\u00a9": 118545, "Three": 20215, "poi": 83363, "\u0120buttons": 12706, "ested": 10185, "\u0120proudly": 45909, "\u0120Doc": 22452, "\u00da\u00a9\u00d8\u00b2": 126363, "atsu": 51843, "_detect": 57557, "ngle": 67330, "\u00d8\u00a7\u00d8\u00b3\u00d8\u00aa": 100706, "\u0120unge": 67896, "\u0120dependency": 24999, "bmp": 53796, "\u0120\u00c3\u00aent": 66674, "\u00e0\u00b8\u0124\u00e0\u00b8\u0143\u00e0\u00b8\u0129": 100618, "\u00e3\u0125\u00bd": 100541, "\u0120allure": 88503, "\u0120[$": 25249, "therapy": 46755, "\u00d0\u00be\u00d1\u0129\u00d0\u00ba\u00d0\u00b8": 108727, "\u0120\u00d8\u00aa\u00d8\u00b1\u00d8\u00aa\u00db\u012e\u00d8\u00a8": 126441, "\u0120Success": 13346, ".Embed": 58955, "'S": 13575, "\u0120'_'": 36402, "\u0120\u00c4\u0133\u00e1\u00bb\u012dnh": 100743, "_hot": 34533, ".bed": 91446, ".Println": 12701, "gmt": 47163, "_MOD": 21386, "\u0120Tk": 50260, "istles": 67043, "\u0120pedigree": 94054, "\u0120Spielberg": 94716, "_NC": 97042, "\u00d1\u0123\u00d1\u0124\u00d1\u0122\u00d0\u00be\u00d0\u00b9": 77911, "\u00ef\u00bc\u00bf\u00ef\u00bc\u00bf\u00ef\u00bc\u00bf\u00ef\u00bc\u00bf": 104056, "-ps": 69267, "\u00db\u00b1\u00db\u00b9\u00db\u00b5": 127336, "headers": 7869, "unken": 55029, "\u0120KeyEvent": 49375, "\u0120\u00d1\u0124\u00d0\u00b5\u00d0\u00bc\u00d0\u00bf\u00d0\u00b5\u00d1\u0122\u00d0\u00b0\u00d1\u0124\u00d1\u0125": 104922, "\u0120comprised": 40056, "\u00cf\u0130\u00cf\u0125\u00ce\u00b5\u00ce\u00b9\u00cf\u0124": 109246, "\u00e0\u00a4\u00aa": 87262, "Accuracy": 46922, "\u00ce\u00b2\u00ce\u00ac\u00ce\u00bb": 125285, "CESS": 5359, "\u0120BASE": 22984, "yeah": 76515, "\u0120grassroots": 57193, ".sb": 93559, "_PAUSE": 80638, "\u0120Lal": 84883, "\u00ec\u00a3\u00bc\u00eb\u012c\u0136": 119087, "gamma": 33314, ".ease": 63754, "\u0120BlueprintReadOnly": 94225, "\u00d9\u0128\u00d8\u00b2": 123841, "_take": 74361, "\u0120subdivision": 60922, "\u00e6\u0143\u00a6\u00e5\u013b\u00a8": 123655, "\u0120Analy": 38527, "composite": 90604, ".Help": 71982, "\u00ce\u00b5": 31243, "\u0120Jar": 31651, "\u0120\u00d8\u00a7\u00d9\u0126\u00d8\u00b1\u00d8\u00b3\u00d9\u0127": 115520, "\u0120\u00e0\u00b9\u0122\u00e0\u00b8\u0140": 103526, "\u00d1\u0128\u00d1\u0131": 101820, "_WORK": 35144, "\u0120\"),\u010a": 85219, "\u00d0\u00bc\u00d0\u00b0\u00d1\u0127": 114343, ".getBy": 52679, "\u0120\u00eb\u00b3\u0126": 110192, "_virtual": 59830, "\u0120tc": 17568, "ALI": 121862, "\u0120\u00d0\u00be\u00d1\u0124\u00d1\u0122\u00d0\u00b8\u00d0\u00bc\u00d0\u00b0\u00d0\u00bd\u00d0\u00bd\u00d1\u0131": 127207, "/options": 73202, "(numpy": 83948, "\u0120XHTML": 65952, "\u0120cdr": 89404, "\u0120podium": 59136, "aga": 12748, "ubs": 16115, "Asian": 68540, "\u0120Front": 15248, "\u0120amenities": 36483, "\u0120lately": 31445, "TabPage": 67227, "\u00d1\u0138\u00d0\u00b4\u00d0\u00bd\u00d0\u00be": 111137, "\u0109Class": 51989, "\u0132\u013e": 55592, "\u0120marginalized": 76820, "\u0120ERROR": 13170, ".coordinate": 70005, "\u00d1\u0125\u00d0\u00b2\u00d0\u00b0\u00d0\u00bb\u00d0\u00b0": 111601, "\u0120misdemeanor": 59092, "ContentView": 18566, "\u0120pottery": 83763, "udes": 29246, "\u0120Sections": 60137, "lickr": 32903, "\u0120\u00c4\u0133\u00c3\u00a1ng": 109130, "\u0120IPv": 32660, "($": 703, "\\\":": 11955, "lama": 81101, "uffles": 78553, "\u00c4\u00b1l\u00c4\u00b1yor": 111853, "\u00d0\u00bc\u00d0\u00b5\u00d1\u0124": 101501, "\u0120\u00eb\u0132\u013a\u00ec\u0139\u012a": 120789, "\u0120separator": 25829, "\u0120uninterrupted": 99250, "\u00d1\u0123\u00d0\u00b5\u00d0\u00b4": 122413, "vious": 2528, "\u0120ghost": 20457, "\u0120cabe": 58879, "YYYY": 29289, "\u0120hc": 51494, "\u00ce\u00b3\u00ce\u00ba": 102167, "\u00e8\u00b4\u00a2": 106929, "\u00e0\u00b9\u012a\u00e0\u00b8\u00b2\u00e0\u00b8\u0129\u00e0\u00b8\u013d\u00e0\u00b8\u00a3\u00e0\u00b8\u00b0\u00e0\u00b9\u0122\u00e0\u00b8\u0139\u00e0\u00b8\u00a8": 127783, "jedn": 113840, ":UIControlState": 32059, "\u0120fir": 35092, ".isActive": 57599, "rypto": 9631, "Authenticated": 27810, "\u0120plus": 5636, "\u0109Base": 67832, "\u0120cmake": 94096, "MSC": 32723, "CellStyle": 15524, "Index": 1581, "Shield": 85199, "-Speed": 95577, "/rules": 96589, "\u00c3\u00bcfus": 109066, "\u0120iron": 11245, "\u0120thanks": 9523, "jvu": 126263, "Detection": 55917, "_death": 79394, "\u0109control": 83886, "HX": 61945, "\u0120B\u00c3\u00b6ylece": 122725, "\u0120cw": 54191, "\u0120Translate": 38840, "\u0120Integration": 41169, "\u0120\u00d8\u00a8\u00d8\u00b1\u00da\u00af": 107406, "_bar": 14725, "ivan": 28422, "\u0120aktif": 122596, "\u0120B\u00c3\u0142i": 122780, "\u0120other": 1023, "doi": 48886, "\u0120aqui": 44676, "\u00ef\u00bc\u012e\u00e5\u00b0\u0131": 122414, "\u0120'))\u010a": 60609, "',)\u010a": 96910, "\u0120Agent": 21372, "\u0120leh": 113558, "/gr": 41436, "\u0120invalid": 8482, "\u0120demonstrate": 20461, "\u0120lips": 23726, "][:": 26147, "\u0120Surrey": 68064, "\u0120\u00ce\u00a3\u00ce\u00b1": 116538, "07": 2589, "\u0120akan": 33770, "\u0120midd": 65703, "Glyph": 83139, "idepress": 59933, "\u00ce\u0141\u00ce\u0142": 114393, "\u00e8\u012d\u00b1": 83947, "\u0120pitch": 9846, "])\u010a\u010a": 9801, "\u0120Guns": 60565, "NSIndexPath": 33206, "\u0120\u00c4\u0132\u00e1\u00ba\u00a3ng": 110109, "\u0120g\u00c3\u00a9n\u00c3\u00a9": 46680, "\u00ec\u0137\u0142": 105851, "/?": 18236, "\u0120\u00d1\u0128": 39233, "\u00c3\u00a1tel": 115524, "\u00e5\u013a\u013d": 122513, "(Random": 76556, "\u0120Agile": 83284, "Administrator": 63476, "inke": 96973, "\u00e7\u0136\u0141\u00e4\u00ba\u00a7": 109566, "\u00e0\u00b8\u00a7\u00e0\u00b8\u00a5": 119115, "\u0120UNIQUE": 73450, "itemName": 96820, "\u0120homeschool": 90919, "\u00c4\u0141\u00c4\u00b1na": 120341, "USART": 53074, "ainter": 74641, "\u0120Guaranteed": 81537, "\u0120payload": 7885, ".getList": 63685, "osl": 48558, "\u0120DatabaseReference": 81146, "(l": 2387, "\u0120fab": 9765, "\u0120Tape": 58586, "\u0120Unused": 87573, "-on": 10539, "\u0120\u00d0\u00ba\u00d0\u00be\u00d1\u012a": 107763, "'use": 19726, "(\"\"));\u010a": 90844, "\u0120\u00d0\u00bf\u00d1\u0138\u00d0\u00b4\u00d1\u0124": 108347, "\u00e5\u0122\u012d\u00e4\u00ba\u00ba": 121568, "Dados": 75501, "gether": 3522, "370": 14648, "\u0120\u00d9\u0127\u00d8\u00a7\u00d9\u0128\u00d8\u00af": 123921, "\u0120Hess": 99805, "\u0120serr": 63034, "Akt": 92040, "_include": 38978, "_des": 16145, "\u0120bust": 21444, "(flag": 34204, "=\"/\">\u010a": 78077, "rollable": 69855, "\u0109for": 2066, "\u0120\u00d0\u00bf\u00d0\u00be\u00d0\u00bb\u00d0\u00be\u00d0\u00b2": 114513, "_reverse": 44377, "\u0120\u00ec\u0139\u0128\u00ec\u0139\u012a\u00eb\u012d\u00a4": 113298, "\u0120cinematic": 65765, "\u0120Cosby": 93051, "\u0120repl": 5911, "parms": 78608, "\u0120\u00d0\u00b2\u00d0\u00b5\u00d0\u00bb\u00d0\u00b8": 105569, "\u0109then": 59733, "\u0120Sebast": 94813, ".Utils": 25071, "<Text": 39132, ".',\u010d\u010a": 98569, "incer": 70898, "\",\"\",": 82490, "\u0120\u00d0\u00bf\u00d1\u0122\u00d0\u00b0\u00d0\u00b2\u00d0\u00b8\u00d0\u00bb\u00d1\u012e": 106668, "fast": 9533, "\u0120pi\u00c3\u00a8": 70477, "_DS": 53001, "ebb": 86402, "\u0120\u00d1\u0124\u00d0\u00b0\u00d0\u00bd": 117239, "\u0120bi\u00e1\u00ba\u00bfn": 103436, "\u0120\u00e4\u00bd\u0132": 119361, "\u0120sucking": 44625, "\u00d8\u00a7\u00d9\u0128\u00db\u012e": 100819, "_ip": 10601, "_schema": 26443, "develop": 16219, "ucion": 43377, "(\"#{": 53002, "\u0120stolen": 23130, "\u0120curated": 58732, "\u0120\"_": 9177, "(Properties": 85975, "-mini": 68454, "\u0120Benedict": 62245, "ekyll": 97909, "\u0120domestically": 98890, "\u0120\u00d8\u00ae\u00d8\u00b1\u00d8\u00af": 111513, "\u0120\u00d8\u00b4\u00d8\u00a7\u00d8\u00b1": 112643, "yper": 40352, "ccoli": 60803, "\u0120\u00d0\u00bf\u00d0\u00be\u00d0\u00b7\u00d0\u00b2\u00d0\u00be\u00d0\u00bb\u00d1\u0131\u00d0\u00b5\u00d1\u0124": 115091, "-driving": 60811, "\u0120decrypted": 64061, "\u0120OPC": 87471, "\u0120dar": 15627, "\u0120nums": 10520, ",__": 68520, "\u0120iNdEx": 91543, "\u00e9\u0139\u00aa": 120840, "#region": 30157, "\u0120whoever": 39371, "\u0120annotated": 63951, "\u0120dbName": 76664, "\u0120Hao": 94809, "\u0120Borg": 65582, "\u0120monopoly": 54301, "\u0120posY": 58897, "\u0120party": 4717, "\u0120\u00d9\u012a\u00d8\u00b3\u00d9\u0126\u00d9\u0127": 123617, "avorite": 15995, "\u0120usage": 10648, "awa": 14406, "_idx": 7406, "aleigh": 55930, "JKLMNOP": 74227, "attering": 31436, ".examples": 71759, "_qos": 80060, "_conf": 16445, "_CONN": 61476, "Yesterday": 51377, "Shortcut": 64174, "Zend": 63514, "\u0120erste": 62317, "atsby": 36614, ":Object": 66392, "\u0120'::": 98852, "_sta": 81051, "Yahoo": 97427, "#from": 63625, "\u00c4\u013bd": 27629, "opo": 56809, "=open": 54065, "\u0120Widow": 89120, "mt": 2562, "\u0120cater": 29068, "\u0120prenatal": 97128, "utr": 80381, "\u0120kern": 83685, "userService": 73970, "\u0120clos": 4597, "\u0120Evangel": 55806, "\u0120ifs": 85173, "\u0120Peygamber": 127884, "Follow": 12763, "\u0120sid": 14414, "\u0120getString": 32007, "\u00ce\u00bc\u00ce\u00bf\u00cf\u0124": 109664, "\u0120hates": 55406, "\"),\"": 99534, "\u0120advoc": 12516, "\u0120drone": 27811, "\u0120(;;": 53589, "\u00e8\u00bf\u00b9": 120671, "\u00d0\u00b8\u00d1\u0122\u00d0\u00b0": 105953, "\u0109ex": 8285, "scala": 27920, "\u0120embroidery": 85927, "<|reserved_special_token_157|>": 128162, "\u0120traumat": 99136, "-cn": 64364, "\u0120il\u00c3\u00a7": 112477, "\u0120gf": 42988, "collapsed": 43128, "\u0120):\u010a\u010a": 59518, "\u0120Extra": 26041, "-\u010d\u010a": 70227, "\u0120glacier": 94867, "abile": 58209, "\u0120\u00d0\u00b6\u00d0\u00b8\u00d1\u0122": 122167, "rent": 8135, "_bins": 46012, "\u0120vape": 69270, "\u00e5\u00a4\u013e": 103309, "\u0120Lower": 28636, "feas": 90377, "Abr": 90528, "\u00e3\u0123\u00a7\u00e3\u0123\u013b\u00e3\u0123\u0143": 125651, "\u0120\u00d8\u00b2\u00d9\u0128": 108713, "\u00c3\u00a1nd": 48680, "({\"": 17289, "ulo": 8938, "ogan": 30636, "Day": 10369, "\u0120\u00d0\u00bf\u00d1\u0122\u00d0\u00b0\u00d0\u00b2\u00d0\u00b8\u00d0\u00bb\u00d0\u00be": 112515, "\u0120Wool": 47400, "\u0120SECURITY": 71710, "\u0120Announcement": 87930, "Requests": 36395, "-fr": 51478, "\u00d0\u00b0\u00d0\u00bb\u00d0\u00b5\u00d0\u00b6": 112777, "657": 23480, "\u0120detained": 37993, "\u0120\u00d0\u00b0\u00d0\u00bd\u00d1\u0124\u00d0\u00b8": 107619, "\u0120asym": 54395, "Scheduler": 39978, "istorical": 96798, "\u00d0\u0134\u00d1\u0124": 122209, "\u0120espan": 80655, "\u0120#%": 51694, "direct": 20384, ".roles": 48237, "FormData": 57066, "\u0120GR": 15116, "markdown": 61173, "\u0120dopad": 122391, "\u0120Servlet": 23999, "\u0120replica": 38054, "-env": 68562, "\u0120officers": 9808, "PF": 20280, "\u0120Specialist": 40420, ".actual": 69220, "\u0120__________________\u010a\u010a": 80464, "\u0120\u00d0\u00bc\u00d0\u00be\u00d0\u00bb": 104379, "\\u": 3855, "\u0120pink": 18718, "_master": 25601, "chet": 40213, "_throw": 73261, "\u0120yar": 101642, "\u0120\u00d8\u00a7\u00d9\u0128\u00d8\u00ac\u00d9\u0127\u00d9\u0128": 122597, "\u0120sa\u00c4\u0141lar": 116302, "\u0120seg": 4915, "INLINE": 56837, "\u0120pat": 3352, "\u0120reluct": 31344, "ToStr": 68657, "analyze": 94321, "\u0120mediante": 66673, "\u0120kidnapped": 55945, "_FILENAME": 46105, "\u0120Legislature": 47126, "\u0120osm": 125452, "phone": 4949, "\u0120gratuita": 96875, ".nl": 31607, "\u00e3\u0122\u0123\u00e4\u00b8\u012b": 124226, "Ag": 9219, "uct": 670, "\u0120revert": 42228, "\u00e1\u00ba\u00b1": 100718, "weights": 13630, "\u00e0\u00b8\u0141": 100793, "SJ": 98589, "\u0120Bean": 34823, "ieran": 82481, "\u0109UInt": 88290, "\u00e3\u0125\u013b\u00e3\u0125\u00ab": 115882, "bias": 61542, "\u0120AM": 6912, "\u0120\u00d0\u00b0\u00d1\u0122\u00d0\u00bc\u00d0\u00b8": 121386, "_adc": 65940, "\u00d1\u0122\u00d0\u00b5\u00d0\u00ba": 113023, "\u0120Its": 11699, ".getKey": 23206, "\u00e3\u0122\u0122\u00e3\u0122\u0122\u00e3\u0122\u0122": 100405, "\u0120battling": 47336, "\u00d0\u00b5\u00d0\u00bb\u00d0\u00b5\u00d0\u00bd\u00d0\u00bd\u00d1\u0131": 105057, "\u0120Global": 8121, "(SC": 60561, "\u0120\u00d1\u0125\u00d1\u0129\u00d0\u00b0\u00d1\u0123\u00d1\u0124": 105763, "\u0120Byron": 71984, "\u0120\u0120\u0120\u0120\u0120\u0120\u0120\u0120\u0120\u0120\u0120\u0120\u0120\u0120\u0120\u0120\u0120\u0120\u0120\u0120\u0120": 2611, "\u0120Marcel": 49971, "swagen": 44677, "\u0120S\u00e1\u00bb\u0133": 112553, "\u00e4\u00b8\u012f\u00e5\u0131\u00af": 109947, "ursos": 49022, "uploader": 87890, "\u0120\u00d0\u013e\u00d0\u00be\u00d1\u0123\u00d0\u00ba\u00d0\u00b2\u00d0\u00b0": 116050, "\u00d9\u012a\u00d8\u00a7\u00d8\u00b1\u00d9\u0129": 113126, "\u0120=================": 25855, "\u0120continues": 9731, ".setId": 30150, "\u0120Leicester": 58849, "\u0120}},\u010a": 65495, "_Syntax": 49529, "\u00e8\u013b\u0130": 112237, "\u0120effortless": 80192, "\u0120???": 52417, "\u0120mo\u00c5\u00bc": 39047, "Edge": 11918, "\u0120bylo": 102343, "\u0120\u00ec\u00bf\u0142": 117141, "lime": 40043, "\u00c4\u00b1ms\u00c4\u00b1z": 114185, "Sports": 42079, "Descending": 48356, "874": 25822, "\u0120f\u00c3\u00a9": 58482, "\u0120\u00d8\u00b3\u00d8\u00b1": 101351, "\u0120\u00d0\u00bf\u00d1\u0138\u00d0\u00b4\u00d1\u0123\u00d1\u0124\u00d0\u00b0\u00d0\u00b2": 119158, "\u00e3\u0123\u0139\u00e3\u0123\u00a6\u00e3\u0123\u0126\u00e3\u0124\u012d": 103792, "\u0120glasses": 29247, "anagan": 90263, "\u0120M\u00c3\u00b6": 49782, "\u00e8\u00a8": 29245, "\u0120canadian": 88698, "\u00d1\u0127\u00d1\u0138\u00d0\u00b4": 102689, "s\u00c4\u00b1n": 112684, "\u0120cout": 5142, "\u0120spinning": 38960, "\u0120vt": 40205, "<Element": 73465, "\u0120Oc": 83552, "ceptive": 59374, "\u0120\u00d0\u00be\u00d1\u0122\u00d0\u00b3": 101027, "\u0120Richmond": 35348, "_booking": 66265, "\u0120windowHeight": 89647, "\u0120seam": 27494, "ntity": 90358, "Art": 9470, "-Mart": 65256, "\u00d9\u0132\u00d9\u012c\u00d9\u0128": 124236, "icken": 9890, "_LICENSE": 58660, "postal": 34270, "\u0120slime": 78944, "\u0120\u00e0\u00a4\u0129\u00e0\u00a4\u0137": 123219, "\u0120kad": 69144, "\u0120Goddess": 61785, "Label": 2535, ".bn": 61962, "-collapse": 25495, "<KeyValuePair": 84058, "Credit": 34593, "heads": 36910, "\u0120Mystery": 49105, "\u0120kte\u00c5\u013b\u00c3\u0143": 105381, "\u0120Kew": 125050, "\u0120paste": 25982, "\u00e7\u00b1": 19630, "\u0120\u010a\u0120\u0120\u0120\u0120\u010a": 37945, "(Resources": 70366, "\u0120\u00d1\u0123\u00d0\u00b8\u00d0\u00bb\u00d0\u00b8": 122668, "\u0120toJson": 66357, "\u00d8\u00b5\u00d9\u0123": 106641, "\u0120haunted": 57775, "\u0120Feather": 79976, "ottenham": 50803, "\u0120southwestern": 99911, "\u0120poskyt": 107100, "iyet": 101149, "lar\u00c4\u00b1m": 124941, "\u0120signed": 8667, "\u0120\u00ea\u00b3\u00b3": 111003, "\u0120Magn": 20918, ".methods": 44013, "_disabled": 52501, "\u0120Vas": 53934, "itia": 88575, "\u0120ch\u00c3\u00a2u": 114121, "\u00e9\u0123\u00b8": 102647, "\u00e9\u0125\u0143": 124397, "\u00d0\u00b0\u00d0\u00bd\u00d0\u00ba\u00d0\u00b0": 126921, "\u0120tapping": 53728, "\u0120\u00d0\u00b2\u00d0\u00bd\u00d0\u00b8\u00d0\u00b7": 121076, "\u0120OSS": 84333, "\u00e0\u00a4\u00bf\u00e0\u00a4\u013e\u00e0\u00a4\u00a8": 122879, "sample": 13925, "\u0120thor": 73833, "(GTK": 42696, "(dom": 61956, "olog": 1640, "\u0120Johnson": 11605, "-dem": 77779, "(conn": 21214, "\u0120n\u00c3\u00aan": 101485, "sign": 7908, "_pol": 48423, "\u00cf\u0122\u00ce\u00bf\u00cf\u0124": 110931, "_fault": 71197, "\u0120Manson": 99233, "\u0120hum": 2854, "obile": 3454, "azo": 41284, "\u0120Designed": 48525, ".Fail": 58343, "\u0120probl\u00c3\u00a8me": 80259, "\u0120BY": 7866, "posted": 44182, "\u0120\u00e0\u00a4\u00af": 100393, ",text": 40110, "uffle": 13511, "_RUN": 25035, "\u0120THEY": 63593, "\u0120redesigned": 76572, "\u0120\u00ef\u00bc\u013c": 31472, "\u0120misleading": 38309, "/locale": 85139, "\u0120decid": 70493, "\u0120fos": 49490, ".\"\u010a\u010a\u010a\u010a": 28212, "\u0120yeah": 22371, ".\u010a\u010a\u010a\u010a\u010a": 75223, "Gradient": 30469, ".animate": 38795, ".grid": 10000, "_sender": 55456, "ascending": 73000, "\u00e0\u00b8\u00b1\u00e0\u00b8\u0123\u00e0\u00b8\u0139": 119309, "isiyle": 125704, ".blue": 28084, "\u0120output": 2612, "ednou": 123211, "\u0120tiles": 21130, "avatel": 115428, "\u0120Masters": 34722, "_PACKET": 41428, "_Edit": 67258, "_term": 17922, "\u0120distra": 58571, "\u0120protector": 63261, "\u0120L\u00e1\u00bb\u012dch": 123135, "\u00e0\u00a5\u0124\u00e0\u00a4\u013c\u00e0\u00a4\u00a8": 122524, "sects": 55529, "-gap": 89657, "\u0120cc": 12810, "\u00ce\u00b9\u00cf\u0129": 120408, "\u00d1\u0131\u00d0\u00b1": 121307, "\u0120Greece": 25431, "\u0120affiliation": 53891, ".tests": 42636, "hunter": 99372, "\u0120homeless": 23855, ".Toolbar": 65787, "i\u00d0\u00b2": 127872, "\u0120tvb": 87007, "_MOV": 49764, "<Token": 84516, "\u0120r\u00c3\u00bat": 118983, "\u0120\u00eb\u00b2\u0142": 105371, "Outside": 42465, "JsonObject": 44475, ">'\u010d\u010a": 96463, "Features": 22043, "uvw": 62910, "_Resource": 87446, "-router": 14601, "\u0109afx": 70714, "Beh": 10226, "(@(": 87536, "\u0120toaster": 90918, "\u0120\u00d1\u0122\u00d1\u0125\u00d0\u00b1\u00d0\u00bb\u00d0\u00b5\u00d0\u00b9": 115748, "\u0120grounding": 95841, "\u0120Nex": 88929, "\u00d9\u012a\u00d8\u00b1\u00d9\u012a\u00d8\u00a8": 118675, "\u0120paragraphs": 43743, "-flag": 79050, ".softmax": 76272, "\u0120hog": 47025, "\u0120Devon": 60434, "\u0120enter": 3810, "\u0109iNdEx": 96865, "DER": 11645, "\u0120enthusi": 21827, "[end": 58308, "ITIONAL": 89038, "\u0120allerg": 25405, "\"));\u010a\u010a": 15276, ".One": 38167, "\u0120\u00d1\u0123\u00d0\u00b2\u00d0\u00b8\u00d0\u00b4\u00d0\u00b5\u00d1\u0124\u00d0\u00b5\u00d0\u00bb\u00d1\u012e": 125101, "useum": 11768, "\u0120tensorflow": 29187, "\u0120~>": 85732, "hiro": 86238, "\u0120\u00d1\u012f\u00d0\u00ba\u00d0\u00be\u00d0\u00bd\u00d0\u00be\u00d0\u00bc": 111107, "\u00e6\u013b\u00ae\u00e9\u0122\u013c": 110219, "\u00e4\u00b8\u012c\u00e4\u00ba\u0128": 126271, ".setValue": 20042, "iating": 23747, "\u0120\u00d1\u0124\u00d0\u00b0\u00d0\u00ba\u00d0\u00b8\u00d1\u0127": 106067, "\u0120bonding": 64186, "\u0120pharmac": 36449, "\u0120accusation": 65506, "_handles": 69117, "\u00ce\u00af\u00ce\u00b6\u00ce\u00b5\u00ce\u00b9": 121371, "//================================================": 77607, "\u0120jurisdiction": 29101, "_VAL": 6224, "\u0120passe": 39904, "accounts": 27298, "Marvel": 83676, "\u0109Title": 93333, "\u00ea\u00b8\u012a": 101136, "\u0120motion": 11633, "\u0120spiritual": 18330, "\u0120apple": 24149, "(always": 39677, "\u00d1\u0125\u00d1\u0130": 34148, "\u0120stellar": 48317, "\u012f\u00bc": 104247, "\u00d0\u00b3\u00d0\u00b8": 101807, "andel": 38221, "\u0120Jury": 96371, "\u0120crop": 19641, "\u00e8\u00b4\u00b9\u00e7\u0136\u00a8": 127340, "\u0120peg": 31787, "=headers": 55185, "owell": 80599, "\u00e8\u00ac\u013f": 118835, "\u00e0\u00b9\u012a\u00e0\u00b8\u0143\u00e0\u00b8\u00a2": 108380, "UNDLE": 72589, "T\u00c3\u00aan": 90573, "\u0120\u00e0\u00b9\u0125\u00e0\u00b8\u00ab": 110830, ".getMethod": 67885, "\u0120dello": 82701, "\u0120Endpoint": 48369, "\u0120ag": 945, "\u00d1\u0125\u00d0\u00ba": 67187, "\u0120(@": 8165, "\u0120SHOP": 76895, "\u0120disappe": 21504, ".jsoup": 90498, "Food": 27844, "490": 18518, "\u0120Episcopal": 97054, "y": 88, "\u0120\u00e8\u00be\u0135\u00e5\u0129\u00ba": 71668, ".xtext": 80514, "subclass": 100217, "\u00ec\u00b6\u013e": 71023, "hetto": 77342, "\u0120\u00d9\u0127\u00d8\u00ac": 101451, ";)": 37274, "Detector": 32706, "issuer": 67917, "\u0120\u00d0\u00be\u00d0\u00b1\u00d0\u00bb\u00d0\u00b0": 101631, "antal": 60793, "\u0120allergic": 57596, "\u0120Bacon": 62484, "\u0120cata": 31179, "Tambah": 92151, "\u0120\u00d8\u00a7\u00d8\u00b8": 125807, "\u0120following": 2768, "\u0120Lite": 41965, ".tech": 64604, "\u0120communities": 10977, "\u0120Converts": 42829, "\u00cf\u0128\u00ce\u00bf": 109890, "ury": 3431, ".isVisible": 66166, "\u0120Thomson": 65332, "\u0120nginx": 71582, "rian": 7414, "(provider": 51986, "_logo": 31062, "\u00e7\u0126\u00a1\u00e6\u0138\u013b": 92693, "\u0120\u00c4\u00b1s": 113482, ".Constants": 40999, "(getApplicationContext": 32667, "\u0120UIStoryboardSegue": 70260, "\u0120torino": 71543, "\u0120rains": 62555, "\u0120Knoxville": 96002, "lesai": 98631, "\u0120transported": 40460, "\u00e8\u00a1\u012e\u00e4\u00b8\u00ba": 116405, "\u0120hlub": 124362, "\u00e6\u012e\u0123\u00e3\u0123\u00a1": 110794, "\u0120scout": 54594, ":Set": 15979, "\u0120Symfony": 16398, "\u00d9\u012c\u00d9\u0127": 100772, "\u0120GridLayout": 81179, "\u0120duk": 88577, "itler": 122157, "otionEvent": 64520, "-meter": 73601, "_budget": 69967, "SQLite": 82872, "\u0120amigo": 71311, "\u0120\u00d8\u00a8\u00d9\u0128\u00db\u012e": 126996, "\u0120valueForKey": 49688, "ordes": 81492, "\u0120cac": 83981, "\u0120spare": 24804, "aic": 62488, "\u0120rootView": 52986, "164": 10513, "\u0120numberOfRowsInSection": 51250, "\u00e6\u00bb": 73597, "\u00e7\u013d\u00b8\u00e9\u0139\u013e": 123111, "\u0120subscribing": 40885, "\u0120milf": 26471, "\u0120wurden": 48750, "\u0120metabolism": 39097, "(PATH": 73891, "\u00b0\u00eb\u012d\u00a4": 123375, "\u0120cuer": 57395, "\u0120technik": 126055, "atalog": 7906, "/storage": 54445, "\u0120especially": 5423, "\u0120Technology": 12053, "National": 31912, "owl": 9802, ".DataContext": 92294, "\u0120travelers": 40386, "\u0120impose": 33330, "\u0120\u0120\u0120\u0120\u0120\u0120\u0120\u0120\u0120\u0120\u0120\u0120\u0120\u0120\u0120\u0120\u0120\u0120\u0120\u0120\u0120\u0120\u0120\u0120\u0120": 3586, "Restaurant": 53097, "ijk": 19275, "_prediction": 52546, "\u0109Client": 72824, "\u0120\u00d1\u0122\u00d0\u00b0\u00d0\u00b7\u00d0\u00b2\u00d0\u00b8\u00d1\u0124\u00d0\u00b8": 106225, "\u0120kafka": 68952, "\u0120feminine": 46284, "-parser": 37720, "eselect": 52730, "Increase": 70656, "\u0109string": 11611, "\u0120mitochondrial": 72061, ".si": 92232, "\u0120DU": 48155, "\u0120Exhibition": 68033, "\u0120\u00e0\u00a4\u0138\u00e0\u00a4\u00a4\u00e0\u00a4\u00b0": 126200, "-ng": 84063, "_buf": 10579, "\u0120habitats": 71699, "(ofSize": 77995, "\u0120\"}": 81648, "path": 2398, ".arm": 86862, ".Resource": 21429, "uild": 1526, "\u00e2\u0128\u0134": 52118, "\u00ec\u00b9\u013b": 117035, ".nii": 79449, "\u0120Ner": 66904, "\u0120welcoming": 36387, "\u0120NRA": 53509, "\u0120Bible": 17377, "\u00b4\u0122": 71397, "ideas": 94784, "\u00c2\u0142D": 113661, "\u00e8\u0128\u013e": 115716, "_SELECT": 23930, "\u0120steer": 49715, "\u0120those": 1884, "Confirmation": 54640, "Claim": 46644, "\u0120TestData": 94300, "\u00d0\u00b0\u00d0\u00b2\u00d0\u00b0": 107452, "\u0120acquitted": 91533, "_dropdown": 52124, "powers": 78404, "\u0120QVBoxLayout": 76255, "-gallery": 52338, "\u00e5\u00af\u00a7": 121370, "(proto": 75063, "\u0120edi": 76192, "\u0120\u00ea\u00b0\u0126": 105131, "dragon": 56519, "-\u00d0\u00bf\u00d1\u0122\u00d0\u00b0\u00d0\u00b2": 126727, "\u0120need": 1205, "(min": 14478, "\u0120sized": 30387, "\u0120driver": 5696, "-------\u010a": 36308, "\u0120;;=": 57722, "IX": 5511, "\u0120Resolver": 82954, "\u0120prosecuted": 58559, "OV\u00c3\u0123": 121111, "\u0120emphasizing": 82003, "\u0120\u00c4\u012flov\u00c4\u013dka": 122220, "\u0120Bav": 78080, "\u0120b\u00c3\u00a4": 87653, "Republic": 39963, "\u0120bios": 49554, ".LAZY": 92338, "\u0120\u00e2\u0138": 14860, "ulg": 56099, "\u0120milli": 117825, "\u0120\u00d0\u00a1\u00d0\u00b5\u00d1\u0122": 117128, "\u0120browser": 7074, "_profit": 73142, "'an": 62595, "\u0120iddi": 122312, "\u0120TableRow": 81317, "jj": 39911, "\u00e9\u0138\u0135": 56965, "IF": 2843, "\u0120lasting": 29869, "\u0120Chr": 53307, "\u0120LATIN": 93344, "\u0120\u00d8\u00b5\u00d9\u0128\u00d8\u00a7\u00db\u012e\u00d8\u00b9": 123626, "\u0120s\u00c3\u00a9lection": 71132, "\u0120UIG": 50158, "\u0120emploi": 92800, "\u0120Ambassador": 45672, "igrams": 84209, "\u0120'',\u010d\u010a": 49744, "\u0120advocating": 59416, "\u0120ng\u00c3\u0142nh": 104710, "\u0120circumstance": 53237, "pletion": 14723, "consulta": 43268, ".loss": 47143, "\u0120Berkeley": 33108, "\u0120Mun": 28982, "\u0120kup": 81808, "\u0120\u00ea\u00b2\u00b0": 83719, "\u0120cn": 13979, "\u0120[\u00e2\u0122\u00a6]\u010a": 126459, "\u0120Tim": 9538, "sey": 8674, ".has": 7001, "\u0120authored": 67213, "\u0120nak": 41986, ".Dispatch": 59073, "\u0120\u00d0\u00bf\u00d0\u00b5\u00d1\u0122\u00d0\u00b5\u00d0\u00b6": 121176, "\u0120wait": 3868, "\u0120outweigh": 63074, "\u0120Debug": 11338, "\u0120redu": 3679, "\"=>$": 32782, "\u0120momentum": 24151, "BUR": 86194, "\u0120\u00d8\u00af\u00d8\u00a7\u00d8\u00ae": 105768, "\u00e3\u0125\u00bc\u00e3\u0124\u00bf": 108337, "\u00e0\u00a4\u00bc\u00e0\u00a5\u012d": 120612, ".lineWidth": 68615, "\u0120'');": 92615, "\u00e5\u012a\u00b6": 44416, "\u0120implying": 73967, "\u0120Machines": 45004, "\u0120ini": 17225, "\u0120corporation": 27767, "\u00e3\u0123\u0142\u00e3\u0123\u0137\u00e3\u0123\u0126": 70897, "<|reserved_special_token_212|>": 128217, "\u0120dissolved": 56767, "vanished": 88857, "\u0120Athletic": 51506, "iven": 2116, "forced": 25229, "\u0120surprises": 46540, "\u0120sane": 62200, "\u0120QtAws": 93905, "_drag": 73195, "abei": 40072, "REGISTER": 47402, "-has": 46998, "USH": 20088, "\u00e6\u013c\u0124": 123345, "\u0120\u00d8\u00a8\u00d8\u00b9\u00d8\u00b6\u00db\u012e": 126737, ".Frame": 37534, "\u0120zay\u00c4\u00b1f": 123710, "139": 10125, "\u0120Lub": 58751, "\u0120Radar": 68886, ".normalized": 88876, "\u0120search": 2778, "\u0120appBar": 43387, ",address": 92353, "Receipt": 68561, "_binary": 32861, ".Utc": 52574, "charging": 63459, "Pes": 91611, "(after": 95011, "{}\u010a": 16484, "_HAND": 30290, "\u00c3\u00bcyoruz": 125600, "\u0120plumber": 89686, "(compact": 92460, "\u00e8\u00a8\u00ba": 120761, "cargo": 67815, "\u0120RE": 3680, "\u0120joins": 29782, "=end": 62621, "\u0120\u00d0\u00a2\u00d1\u012d": 120076, "\u0120influencers": 87333, "star": 12134, "\u0120yay": 98659, "riot": 85150, "\u0120Indonesian": 59929, "\u0120'?": 32167, "\u0120enactment": 78652, "<|reserved_special_token_195|>": 128200, "\u0120Creat": 18134, "\u0120\u00d1\u0124\u00d0\u00b2\u00d0\u00b0": 119631, ".Vert": 37495, "\u0120Gow": 93571, "\u0120troublesome": 78518, "eko": 98764, "\u00d0\u00bd\u00d0\u00b8\u00d0\u00bc\u00d0\u00b8": 102157, "\u0120tt": 18334, "roller": 1496, "\u00ed\u0128": 100757, "onde": 17675, ",ll": 80218, "\u0120currentIndex": 51140, "apy": 9864, "_SCHED": 87308, "|": 91, "\u0120\u00e3\u0122\u013e": 127935, "\u0120'').": 41791, "\u0120submar": 43271, "Craig": 87376, "\u0120warning": 10163, "****************************************": 41172, "\u00eb\u012e\u0122\u00ec\u013f\u013a": 123094, "\u0120inex": 55981, "]!='": 71790, "\u00e0\u00a5\u0124\u00e0\u00a4\u0137": 113677, "\u0120evaluated": 26126, "ovac\u00c3\u0143": 108097, "\u0120escalation": 71389, "/memory": 80771, "/Delete": 64775, "\u0120polishing": 85563, "\u0120Furious": 93431, "classpath": 80914, "_viewer": 81444, "\u0120vl\u00c3\u00a1": 109262, "\u0120keer": 93024, "asant": 15969, "\u00c6\u00b0ng": 103533, "\u0120\u00d0\u00bc\u00d0\u00b8\u00d1\u0122\u00d0\u00b0": 118025, "/security": 72522, "\u0120Farmers": 63422, "(cols": 71277, "\u00ec\u0126\u00b1\u00ec\u013f\u00b4": 115602, "\u0120grandchildren": 50851, "\u0120patriot": 67617, ".cross": 53861, ".getEnd": 97214, "\u0120n\u00c3\u00a1sleduj\u00c3\u0143c\u00c3\u0143": 123205, "\u0120common": 4279, "\u0120youngest": 39637, "\u0120agenda": 18909, "\u0120astro": 47804, "\u0120Tud": 91251, "\u0120\u00ce\u0142\u00ce\u00bf\u00ce\u00bb\u00ce\u00b9": 121911, "xEC": 87699, "productId": 47266, "Inicial": 82865, "\u0120disb": 94544, "\u0120\u00eb\u012f\u0136": 102519, "\u0120\u00c5\u0141eklinde": 114410, "\u0120Prefer": 85568, ".embedding": 68714, "\u0120Walter": 33305, "\u0120\u00d0\u00bc": 11562, "itsu": 50657, "\u0120&\u010a": 28370, "\u0120\u00ec\u0128\u00a1": 112822, "\u0120Recall": 80640, "\">{": 18573, "427": 20465, "rief": 4462, "\u0120Gina": 77312, "(tokens": 35152, "\u0120unspecified": 55411, "\u0109W": 17749, "\u00d0\u00b8\u00d0\u00b7": 41873, "\u0120devote": 48772, "\u0120REQUIRE": 29072, "\u0120juego": 52995, "\u00c5\u013dnie": 79956, "\u0120uptake": 69575, "ervative": 54268, "Narrated": 82623, "\u0120mice": 24548, ".VisibleIndex": 92783, "&q": 63835, "\u00e5\u0132\u012e\u00e6\u013b\u0124": 115963, "ek": 1247, "\u00d0\u00be\u00d0\u00bb\u00d0\u00be\u00d0\u00b3\u00d1\u0138\u00d1\u0139": 117437, "_peer": 46259, "\u0120widgets": 32955, "Opcode": 45289, "\u00ec\u0124": 80690, "\u0120Mortgage": 48780, "\u00e7\u00a6\u00bb": 104787, "\u00e5\u0127\u00b6": 42246, "\u00e9\u0143\u0136\u00e6\u00b3\u0137": 112368, "\u0120kendisini": 120249, "\u0120PURE": 84588, "\u0120dansk": 50420, "\u0120Beitrag": 99652, "eygamber": 118163, "entication": 7311, "\u0120\u00d8\u00a7\u00d9\u0126\u00d8\u00b7\u00d8\u00a8\u00d9\u012c": 122816, "\u0120resposta": 75606, "lose": 1497, "\u0109seq": 79661, "\u0120Historic": 51887, "\u0120d\u00c3\u0142nh": 110587, "Marco": 86484, "iParam": 71008, "\u0120Traverse": 87833, "\u0120intermediary": 95170, "\u0120Skyrim": 66029, "\u0120improvement": 16048, "()==": 21368, "(pow": 73607, "\u0120doen": 55002, "\u00e7\u00ab\u012d\u00e5\u012a\u00bb": 127843, "_userid": 85668, "Dig": 38198, "\u0120re\u00c5\u00beim": 122458, "\u0120{/*": 17679, "\u0120featuring": 16850, "igh": 1108, "training": 31754, "(mouse": 53254, ".editor": 35993, "************": 103173, "\u00d0\u0124": 77496, "DV": 63071, "\u0120tantal": 95685, "\u0120');\u010d\u010a": 98409, "\u0120\u00d0\u00b1\u00d1\u0125\u00d0\u00b2": 103749, "\u0120propiedad": 88723, "Chunks": 90781, "Knight": 97643, "recision": 21759, "\u0120\u00d8\u00b7\u00d8\u00a8\u00d9\u0124": 121331, "-SA": 93314, "]\u010a\u010a\u010a\u010a": 47839, "\u0120\u00ec\u0126\u013f": 118859, "}'.": 24398, "\u00d9\u0127\u00d8\u00a8\u00d8\u00b1": 113544, "\u0120pl": 628, ".FILES": 96054, "\u0120possible": 3284, "follow": 19070, "\u0120Pom": 39412, "xED": 84323, "\u0120vacancy": 62562, "952": 24597, "\u00e1\u00ba\u0143t": 53985, "\u0120FTC": 79360, "\u0120trajectories": 86648, "\u00e0\u00b8\u00b7\u00e0\u00b8\u0143\u00e0\u00b8\u0129": 103413, "\u0120Khan": 25273, "\u0120//\u010d\u010a\u010d\u010a": 94727, "\u00e0\u00b8\u00b1\u00e0\u00b8\u0129\u00e0\u00b8\u00a1": 118286, ",T": 20594, "\u0120Layout": 14141, "\u0120ULONG": 31776, "Mitch": 98259, ".kind": 37732, "\u0120CARD": 42800, "\u0120m\u00c3\u00a1i": 113108, "\u0120AREA": 70732, "ivors": 86493, "\u0120decisions": 11429, "\u00ed\u013a\u0122": 113048, "\u0120battleground": 91666, "\u0120broad": 7353, "664": 23888, "\u0120Fuse": 74615, "\u00e8\u00a6\u00ba": 121871, "olicitud": 59499, "\u0120pretend": 35840, "\u00e0\u00b9\u012b\u010a": 120551, "\u0120leveling": 74085, "\u00e0\u00a5\u0122\u00e0\u00a4\u00a6\u00e0\u00a4\u00b5": 121622, "\u0120caregivers": 74740, "\u0120rady": 115846, "\u0120mpl": 64884, "olicy": 8177, "Watch": 14581, "Decoration": 19996, "\u00c3\u00a5l": 87604, "\u0120\"\\\\": 27566, "Dump": 52156, "\u0120abused": 36665, "hue": 94023, "Preferred": 23295, "]?.": 78941, "gee": 99494, "akhstan": 64847, "\u0120\u00d0\u00b4\u00d0\u00b5\u00d1\u0122": 103636, "getX": 52539, "itting": 15154, "\u0120Ros": 16870, "\u0120lung": 21271, "snap": 49954, "\u0120mashed": 96234, ".stroke": 31424, "\u0120Income": 33620, "\u0109command": 46666, "\u0120\u00d0\u00a7\u00d1\u0124\u00d0\u00be": 113740, "NEXT": 71550, "\u0120found": 1766, "\u0120MV": 43371, "\u0109Dim": 78730, "\u0120*/)": 90955, "\u00d0\u00bb\u00d1\u0131\u00d0\u00b5\u00d1\u0124\u00d1\u0123\u00d1\u0131": 102368, "\u0120Penn": 13813, "-duty": 55618, "embre": 23346, ":get": 25951, ".Images": 48288, ".mongo": 89584, "\u0120realiza": 92835, "adapter": 20311, "assy": 27801, "\u00e5\u00ae\u0123": 107953, "_shuffle": 74584, "HF": 50816, "\u0120Mish": 78576, "\u0120Cornwall": 77050, "\u0120opportunities": 10708, "71": 6028, ".UseText": 85275, "\u0120if": 422, "ningar": 93675, "\u00e0\u00b9\u0124\u00e0\u00b8\u0139": 116329, "\"]');\u010a": 96592, "';';": 119197, "..<": 56772, "_Con": 15450, "'}\u010a": 16823, "\u0120dive": 30963, "device": 6239, "[arr": 78556, ".MODE": 42352, ".createFrom": 98436, "\u0120enrolled": 37191, "Venue": 91236, "Iso": 77375, "----------------------------------------------------------------------\u010a": 63217, "b": 65, "\u0120rar": 96666, "\u0120\u00d1\u0127\u00d0\u00b0\u00d1\u0122\u00d1\u0129": 122715, "addWidget": 37905, "\u0120Abram": 91103, "\u00d9\u0125\u00d9\u0128": 101685, "_limit": 15106, "\u0120axs": 76262, "\u0120ade": 17546, "\u0120broadcasts": 66198, "IGNED": 26066, "Notify": 30062, "\u0120Starter": 60887, "\u00d1\u0123\u00d1\u0124\u00d0\u00b2\u00d0\u00b0": 94071, "asp": 13671, ".pose": 44000, "\u0120Source": 8922, "enkins": 58106, "\u00ed\u0131\u0143": 117960, ".Floor": 78749, "\"},\u010a": 7260, "\u0120Healthcare": 39435, "Configurer": 63924, "\u0120ecstasy": 93663, "\u0120Reading": 18242, ".Getter": 65768, "ULT": 3616, "kelig": 86110, "\u0120PART": 6909, "izacao": 98290, "\u0120required": 2631, "\u00d1\u0122\u00d1\u0138\u00d1\u0129": 112788, "sold": 63578, "\u0120//~": 77965, "\u0120){\u010a\u010a": 59277, "le\u00c5\u0141me": 111805, "\u0120ambient": 35288, ".unregister": 83206, "\u00ce\u00bf\u00cf\u0127\u00ce\u00bb": 109499, "_TOUCH": 75388, "\u0120rotary": 62917, "(bbox": 88159, "\u0120sede": 96687, "\u0120Let": 6914, "\u0120seemingly": 23490, "\u0120Jerusalem": 26523, "Utf": 40080, "\u00d9\u0129\u00d8\u00af\u00d9\u0123": 127905, "\u00e3\u0122\u012b": 103705, ".getTotal": 64671, "\u0120NET": 26025, "\u0120\u00d8\u00a8\u00d8\u00a7": 83711, "-K": 16222, "os": 437, "participant": 59613, "\u0120stressed": 32647, "/;\u010a": 80895, ".Close": 10638, "\u0120Dare": 67931, "\u00e7\u012b\u00b9\u00e6\u00ae\u012c": 119389, "\u0120\u00c4\u0133\u00e1\u00bb\u012da": 103077, "\u0120\u00cf\u0125\u00ce\u00b5": 101396, "\u00d9\u012a\u00d8\u00a8\u00d8\u00a9": 120031, "\u0120Calif": 41889, "\u0120upholstery": 96788, "\u0120\u00d0\u00b3\u00d0\u00b8\u00d0\u00b1": 125990, "\u0120stabil": 27276, "\u0120a\u00c3\u00ban": 78658, "_ue": 92164, "printf": 2578, "\u0120sust": 10446, "\u00d0\u00be\u00d1\u0129\u00d0\u00bd\u00d1\u012d\u00d1\u0127": 118671, "\u0120presentations": 38480, "\u0120satire": 82495, "Men": 29819, "\u0120\u00d8\u00b4\u00d9\u0129\u00d8\u00b1\u00d8\u00af": 124413, "\u0120\u00d8\u00a7\u00d9\u0127\u00d9\u012a\u00d8\u00b1": 115578, "\u00e5\u0128\u00b5": 104116, "\u0120Ang": 7568, "SE": 937, "\u00d0\u00bb\u00d0\u00b0\u00d0\u00b3\u00d0\u00be\u00d0\u00b4": 125195, "\u0120*)\"": 94752, "o\u00c4\u0141an": 110451, "warn": 34581, "\u0120gek": 49423, "rpc": 30514, "estinal": 65050, "rov": 40494, "\u0120URL": 5665, "brief": 6796, "\u0120Curve": 54777, ".Platform": 52327, "\u0120scept": 67451, "kontakte": 59968, "\u0120rij": 70445, "ginas": 80007, "\u0120installed": 10487, "\u0120dysfunctional": 88804, "\":": 794, "ted": 6702, "\u0120Irene": 88313, "\u00e3\u0123\u0142\u00e3\u0123\u00aa": 122543, "mercial": 19370, "\u0120compar": 7809, "\u0120allergies": 58742, "\u0120\u00e6\u0124": 118375, "irts": 20242, "\u0120designing": 30829, "UBL": 14451, "\u0120d\u00c4\u00b1\u00c5\u0141\u00c4\u00b1": 120748, ".\");": 56535, "\u0120odio": 87834, "LETED": 57586, "Helvetica": 50191, "-vis": 82489, "\u0120downwards": 92370, "\u0120(\"%": 51634, "\u00ec\u00b9\u013a\u00eb\u00a5\u00bc": 125155, "_EXTERNAL": 48971, "zug": 73201, ".MESSAGE": 78226, "\u0120Documents": 45890, ".Green": 65110, "\u0120Franken": 91815, "Lake": 82389, "\u0120kurum": 107150, "\u0142\u00ed\u0125\u013f": 76232, "_POSITION": 34680, "nut\u00c3\u0143m": 123807, "loha": 120685, "permanent": 98524, "Aliases": 96309, "\u0120Twist": 74474, ".\u00d0\u00a1": 119205, "@section": 14241, "engine": 8680, "\u0120compare": 9616, "erals": 17822, "AVA": 36710, "countries": 47808, "\u0120surgical": 34933, "\u0120amphib": 89022, "\u0120sims": 92013, "\u0120\u00d1\u0123\u00d1\u0123\u00d1\u012d\u00d0\u00bb": 95494, "combe": 92157, "uya": 45644, "\u0120\u00d1\u0122\u00d0\u00b5\u00d0\u00b4": 105844, "\u0120Belmont": 96066, ",strlen": 99009, "\u00d8\u00b9\u00d9\u012c": 109255, "\u0120antibodies": 59854, "\u0120Symptoms": 77417, "\u0120brawl": 100167, "\u0120zna\u00c4\u012f": 112291, "\u0120\u00d0\u00b2\u00d1\u0129": 114557, "\u0120\u00d1\u0139\u00d0\u00b9": 114993, "[NUM": 74990, "\u0120n\u00e1\u00bb\u0135i": 125431, "\u0120\u00ea\u00b2": 24839, "\u0120CO": 7432, ".getPath": 43362, "\u0120\u00d0\u00bf\u00d0\u00b5\u00d1\u0122\u00d0\u00b5\u00d0\u00bc\u00d0\u00b5\u00d0\u00bd": 81199, "_GOOD": 87825, "\u0120scam": 35726, "CompanyId": 95793, ".multi": 52251, "\u0120Kar": 13528, "Pull": 37168, "HBoxLayout": 64350, "Tre": 66875, "\u0120blurry": 100155, "\u00e7\u00bb\u013b\u00e6\u012a\u0133": 124211, "\u0109uint": 8418, "\",&": 18313, "\u0120Digital": 14434, "\u0120Mbps": 80575, "\u0120ContentView": 95028, "\u0120Polymer": 97770, "NSMutable": 19325, "Grant": 69071, "/down": 80167, "\u0120Courses": 48778, "etypes": 68653, "Stock": 19931, "zerbai": 57860, "\u0120nab\u00c3\u0143d": 109843, "\u00e5\u00b0\u00b1\u00e6\u013a\u00af": 103179, "\u0120\u00d8\u00a2\u00d9\u0127\u00d9\u012a\u00d8\u00b2": 103845, "\u00e6\u0139\u0131": 71869, "\u0120/*#__": 52246, "\u0120toxin": 98534, "\u0120\u00d8\u0143\u00d9\u012c\u00d8\u00ab": 108441, "\u0120PC": 6812, "\u0120\u00d1\u0125\u00d0\u00b4\u00d0\u00be\u00d0\u00b1": 112184, "\u0120\u00c3\u00b6nceki": 118172, "\u0120Legisl": 33815, "atri": 2416, "gps": 75611, "$form": 44345, "bars": 25995, "\u00d0\u00b2\u00d0\u00b5\u00d1\u0123\u00d1\u0124\u00d0\u00b8": 105471, "_spaces": 68983, "illon": 43588, "\u0120chlorine": 85206, "NotFoundError": 69008, "vider": 3819, "ainers": 21211, "PLICIT": 84194, "\u0109\u0120\u0120\u0120\u0120\u0120\u0120\u0120\u0120\u0120": 32770, "\u00e6\u0141\u0135": 108208, "_levels": 38919, "\u0120unsafe": 20451, "\u0120zastav": 115920, "SSERT": 7523, "\u0120Physiology": 95946, "\u0120Tencent": 71021, "\u00e3\u0123\u012d\u00e3\u0123\u00ab": 111201, "\u0120hym": 67743, "editing": 62453, "\u0120\u00d9\u012a\u00d8\u00a5": 110827, "CHA": 37887, "\u0109document": 17928, "SKI": 82645, "worker": 22179, "hetics": 49466, "ements": 3808, "\u0109rd": 93456, ".embed": 41541, "api": 2113, ".Dot": 35523, "las": 14833, "\u00e0\u00a4\u00be\u00e0\u00a4\u0137": 101315, "_paper": 90017, "\u0120Skinner": 98142, "\u0120Viewer": 59603, "\u0120arcade": 48312, "getState": 63453, "\u0120aston": 37473, "\u00ce\u00b4\u00ce\u00b9": 105468, "freeze": 52738, "ultiply": 22063, "gebung": 93235, "\u00e8\u0131\u00af": 105189, "CEPTION": 22089, "JNIEXPORT": 70539, "\u0120Kullan": 116251, "\u00e4\u00b8\u012c\u00e3\u0123\u0134": 109415, "\u0120\u00d1\u0124\u00d1\u0122\u00d0\u00b5\u00d1\u0124": 114306, "\u0120bom": 18665, "\u00e2\u0138\u012a": 15554, "_TypeDef": 91820, "\u0120\u00ec\u00bd": 102370, "\u0120\u00ed\u0137\u0126\u00ec\u013c\u0136": 108289, "\u0120collaborations": 83663, "\u00e3\u0123\u00a7\u00e3\u0123\u013b\u00e3\u0123\u012e": 119627, "/start": 71076, "\u0120\u00e9\u0125\u00a8": 112675, "rones": 32921, "pery": 62479, "\u0120Exodus": 88942, "Ek": 43017, "\u00d8\u00af\u00d8\u00b1": 100656, "Verts": 89893, "(strcmp": 34116, "amy": 27322, "\u0120styled": 11343, "\u0120Sparse": 72894, "ones": 3233, "esp": 25632, "\u0120apar": 58316, "\u00d0\u00b0\u00d1\u0124\u00d0\u00be\u00d1\u0122\u00d1\u012d": 125966, "_vel": 35604, "\u00e4\u00bd": 8687, "balanced": 59502, "\u0120rog": 95256, "\u0120Call": 7290, "---": 4521, "\u0120difficulties": 27129, "\u00e3\u0123\u0139\u00e3\u0123\u00be\u00e3\u0123\u013b": 78434, "\u00e5\u00b1\u0140\u00e4\u00ba\u0130": 122294, "greg": 8157, "\u0120capit": 61510, "(tid": 84619, "\u0120Pickup": 75560, "ElapsedTime": 99583, "\u0120\u00d0\u00bf\u00d0\u00be\u00d0\u00b4\u00d0\u00ba\u00d0\u00bb\u00d1\u0130\u00d1\u0129": 124657, "\u0120\u00d0\u00bd\u00d0\u00b0\u00d0\u00bf\u00d1\u0122\u00d1\u0131": 107252, "berapa": 75502, "PRI": 58442, "938": 25454, "\u0120whereby": 49001, "\u00e8\u0122\u0125": 78698, "\u0120Stone": 14637, "\u0120cheer": 26085, "\u0120t\u00c3\u00bd": 105413, "\u0120belle": 39892, "\u00d0\u00b5\u00d0\u00b2\u00d0\u00be": 122618, "Busy": 60037, "lemma": 9830, "\u0120deine": 73801, "\u00e8\u012a\u012f": 116969, "nearest": 70611, "\u0120\u00e5\u0122": 107443, "\u0120novembre": 83615, "loor": 4081, "\u00e7\u0136\u013c\u00e8\u0129\u00b3": 115550, "/color": 44998, "ubuntu": 39079, "?\u010a\u010a\u010a\u010a\u010a\u010a": 68664, "_csv": 14347, "\u0120IICIII": 110025, "\u0120\u00ec\u00a2\u0127": 99458, "\u00d0\u00bb\u00d1\u012e": 29118, "\u0120Datagram": 97904, "\u00e6\u0122\u00a7\u00e7\u013c\u0126": 117332, "ApiResponse": 62591, "\u0120Cot": 68825, "\u0120refurb": 56756, "\u0120reminis": 49679, ".onActivityResult": 93588, "\u0120sak": 78410, "\u0120l\u00c3\u0142": 39015, "ertas": 53530, "\u0120H\u00c3\u00acnh": 121310, "\u0120\u00d0\u00ba\u00d0\u00bb\u00d0\u00b5": 123718, "Emergency": 80069, "\u00d1\u0136\u00d0\u00b2": 123734, "\u0120trat": 41921, "magnitude": 97364, ".selectedIndex": 57844, "\u0120Sgt": 56760, "/simple": 68295, "\u0120Kuzey": 121488, "\u00e4\u00b8\u0130": 58318, "vey": 5735, "\u00d1\u0138\u00d0\u00b4\u00d0\u00be\u00d0\u00bc": 108403, "remain": 48684, "inspection": 54495, "Distance": 15121, "Forecast": 73559, "\u0120TEM": 76770, "\u0120celib": 78633, "\u0120sorun": 105997, "\u00e0\u00b8\u0137\u00e0\u00b8\u00a5\u00e0\u00b8\u0143\u00e0\u00b8\u0136": 125987, "\u0120Constructs": 48313, "\u0120Dip": 56147, "\u00e5\u00ba\u0137": 104792, "\u0120undertake": 49643, "\u0120ReadOnly": 44506, "\u0120\u00d1\u0124\u00d0\u00b0\u00d0\u00b9": 127251, "\u0109hash": 51433, "_FIX": 43735, "arrants": 52180, "Af": 55439, ".getMap": 85091, "\u00c5\u00beit": 101271, "\u0120christian": 52147, "\u0120\u00eb\u00b3\u00b5": 107067, "oque": 61652, "\u00e5\u0137\u0128": 33122, "hub": 27780, "\u0120trademarks": 42134, "\u0120gi\u00e1\u00ba\u00a3i": 101982, "oris": 51380, "\u00e6\u013e\u012a": 9953, "\u0120gnome": 92161, "(blank": 58962, "\u0120Strange": 43693, "fusion": 55665, "imony": 65556, "\u0120allocations": 70742, "-cons": 69604, "JK": 35170, "Set": 1681, "\u0120GameController": 97996, "\u00e0\u00b9\u012b\u00e0\u00b8\u013b\u00e0\u00b8\u0139": 114628, "\u0120infect": 34527, "\u0120\u00ec\u00b4\u012a": 84415, "Slim": 88308, ".Modified": 55532, "andidate": 17487, "\u0120Agr": 72808, "\u0120motives": 52140, "\u00e9\u00a7\u0128": 125894, "\u0120wors": 47293, "\u0120svm": 67411, "\u0120certains": 76076, "Tabs": 38085, "\u0120dank": 81222, "Whilst": 97774, "453": 20235, "\u0120t\u00e1\u00bb\u0131": 126825, "\u0120White": 5929, "\u0120gi\u00c3\u00b3": 122907, "\u0120diseases": 19338, "iphy": 61330, "_scenario": 90812, "\\Routing": 65099, "\u0120electrodes": 80390, "\u0120enlisted": 69576, "ROLL": 23081, "Sales": 36518, "\u0109print": 7045, "\u0120_(": 53717, "\u0120propagated": 86150, ".NotNil": 94982, "\u0120knob": 59672, "stry": 4720, "(tok": 67953, "eric": 11893, "_INVALID": 15520, "\u0120Interest": 25074, "\u00e4\u00b8\u00b8": 113692, "\u0120Lif": 65863, "\u0120Lovely": 65465, "ORLD": 26001, "\u0120cih": 110545, "/read": 70299, "-years": 57188, "arro": 82301, "\u0120British": 8013, "Dam": 49057, "\u00e0\u00b9\u0124\u00e0\u00b8\u00a5": 103554, "_misc": 70450, "\u0120i\u00c5\u0141i": 120806, "_U": 6803, "\u0120Taipei": 97445, "(Rect": 61183, "\u0120uuid": 16425, "\u0120exceeds": 36375, "ager": 1435, "\u0120Deus": 72885, "\u00ec\u0137\u00bc": 90759, "\u00c3\u00a2l": 108204, "\u0120Cherokee": 71141, "Regex": 33564, "\u00d1\u0123\u00d1\u012e\u00d0\u00ba\u00d1\u0138\u00d0\u00b9": 109426, "\u0120TW": 36655, "\u0120Represents": 39993, "\u0120sdl": 87430, "\u0120GHC": 84816, "\u0120cohesive": 87516, "\u0120genres": 36744, "\u0120commend": 74212, ".fre": 86653, "Ian": 80268, "\u00db\u00b4": 101009, "\u0120\u00d1\u0123\u00d1\u0129\u00d0\u00b5\u00d1\u0124": 115995, "Salir": 77734, "\u0120versions": 11028, "\u0120pays": 21935, "\u0120neuen": 48769, "-property": 62501, "ernote": 88550, "d\u00c3\u00a1l": 108624, "\u0120\u00d0\u0136\u00d0\u00be\u00d0\u00bd": 117631, "\u00e5\u012d\u0134": 108745, "ContentSize": 91725, "\u00d8\u00a7\u00d9\u012a\u00d8\u00b1\u00db\u012e": 114361, "\u0120'@": 3542, "itches": 26286, "\u0120validationResult": 97633, "\u00e8\u00ae\u00b8": 104894, "pts": 13044, "\u0109typedef": 32299, "\u0120Sonia": 90491, "\u0120\u0109": 7163, "_regex": 42932, "-alpha": 65638, "\u00e4\u00ba\u00bf\u00e5\u0127\u0125": 84095, "\u0120Hydra": 87961, "READY": 46678, "\u00d0\u00ba\u00d0\u00bc": 118949, "\u0120TK": 45399, "header": 2775, "ius": 9334, "Organization": 42674, "\"./": 96192, ".visitVarInsn": 56265, "/null": 19850, "\u0120qualities": 29600, "GM": 21287, "\u0120comparatively": 71561, "\u0120coordinates": 14259, "Parse": 14802, "\u0120independ": 7156, ".onPause": 84518, "_xyz": 66074, "\u0120supposed": 10171, "ursive": 16921, "\u0120Kirst": 81777, "\u0120\u00d8\u00ae\u00d9\u012a\u00d8\u00a7\u00d9\u0129\u00d8\u00af": 106447, "Visible": 5834, "uit": 3159, "ducation": 34985, ".details": 43417, "\u00e9\u0125\u00a8\u00e5\u00b1\u012d": 114834, "-Sh": 31361, "\u0120\u00d8\u00b9\u00d9\u0127\u00d9\u0126\u00d9\u012c\u00d8\u00a9": 126280, "\u0120GAP": 90987, "ileged": 69531, "\u0120runApp": 85780, "\u0120playwright": 99468, "\u00e0\u00a5\u0129\u00e0\u00a4\u00b6\u00e0\u00a4\u0137": 118814, "xFFFF": 14721, "\u0120reject": 8007, "\u0120Panthers": 45267, "\u00d8\u00a7\u00d8\u00a8\u00d8\u00aa": 107629, "stellar": 78393, "\u0120micron": 95309, "(Mock": 67536, "\u00e0\u00b8\u0136\u00e0\u00b8\u00b3\u00e0\u00b9\u0122\u00e0\u00b8\u013b": 113635, "195": 6280, "NUMBER": 52739, "-layer": 48435, "\u00e2\u0122\u0136\"": 93830, "\u0120[": 510, "\u0120inconsistencies": 92922, "qtt": 33367, "\u0120empez": 82949, "\u0120\u00d0\u013e\u00d0\u00b5\u00d1\u0123\u00d1\u0124\u00d0\u00be": 122701, "\u0120workshop": 26129, "PageSize": 47017, "\u00d1\u0129\u00d0\u00b0\u00d0\u00b5\u00d1\u0124\u00d1\u0123\u00d1\u0131": 109944, "enth": 21341, ".attributes": 27232, "\u0120tekn": 81126, "\u0120attrs": 16602, "\u0120ecosystems": 61951, "\u00e5\u012f\u00b4": 105368, "Decorator": 49051, "\u0120[.": 49439, "\u0120maar": 32691, ".Assign": 88071, "joy": 4215, "\u0120strr": 80552, "\u0120HDMI": 42150, "\u0120tr\u00c3\u00aas": 82629, "\u0120reviewer": 56614, "(css": 74102, "\u00ec\u00a3": 107117, "SERVER": 13211, "\u00d1\u0128\u00d0\u00b5\u00d0\u00bf": 105361, "_graphics": 85485, "\u0120USER": 14194, "\u00ec\u00bd\u013a": 102766, "\u0120SetLastError": 100102, "\u0120corros": 46657, "_GET": 12991, "122": 8259, "\u00e8\u00b0\u0125\u00e6\u0141\u00a5": 119652, "\u0120Biom": 91608, "umd": 61345, "gere": 88127, "needle": 60619, "915": 22387, "\u0120abuse": 11737, "\u0120heg": 90503, "\u0120\u00c3\u00a7\u00c3\u00bcnk\u00c3\u00bc": 111857, "\u00c3\u00bcsl\u00c3\u00bcman": 114091, "\u00d0\u0136\u00d0\u013c": 127436, ".unlock": 48281, "\u0120Vall": 79763, "_BUTTON": 20714, ".new": 4721, "atta": 33019, "Routing": 25730, "\u00e8\u00a8\u0122\u00e3\u0124\u0131": 117952, "\u0120\u00d0\u00bf\u00d0\u00be\u00d1\u0123\u00d1\u0124\u00d0\u00be\u00d1\u0131\u00d0\u00bd": 110535, "\u00ec\u0140\u012a\u00eb\u012c\u0136": 114500, "\u0120legalization": 57588, "\u0120fooled": 80647, "\u00c3\u00b3": 1832, "\u00c5\u00afsob": 102443, "\u0120\u00e3\u0125\u0138": 108453, "](": 9725, "_rx": 25323, "Mods": 82600, "\u0120virt": 13053, "(cuda": 63318, "\u00e3\u0123\u013f\u00e3\u0123\u00ae\u00e4\u00bb\u0138": 114950, ".Script": 54003, "][\"": 10069, "\u0109row": 35067, "getTime": 26345, "\u0120Swarm": 97570, "Started": 33627, "\u0120Generating": 97554, "\u0120Clash": 85670, "-fashion": 58580, "\u0120turkey": 45405, "\u0120bombed": 89938, "\u00ef\u00bc\u0128": 120740, "\u0120felse": 125455, "\u0120nh\u00c6\u00b0": 100558, "iffs": 19383, "\u0120models": 4211, "Votre": 78905, "\u00cf\u0126\u00ce\u00bf\u00ce\u00b9": 113232, "\u0120H\u00c3\u00a4": 91693, ".ic": 28922, "\u0120\u00d0\u00b4\u00d0\u00be\u00d0\u00bf\u00d0\u00be\u00d0\u00bb\u00d0\u00bd\u00d0\u00b8\u00d1\u0124\u00d0\u00b5\u00d0\u00bb\u00d1\u012e": 111583, "\u0120nale": 88490, "\u00d8\u00a7\u00d8\u00b1\u00db\u012e\u00d8\u00ae": 104190, "itempty": 20513, "ynchronized": 43264, "\u00e4\u00ba\u00ba": 17792, "Real": 13058, "-task": 53679, "\u0120Mara": 86604, "\u0120applicant": 32368, "\u0120\u00d1\u0122\u00d0\u00b5\u00d0\u00b7\u00d1\u0125\u00d0\u00bb\u00d1\u012e\u00d1\u0124\u00d0\u00b0\u00d1\u0124": 99300, "\u0120represents": 11105, "\u00e4\u00ba\u0133": 103458, "\u00e5\u00b2\u00a1": 106344, "urrencies": 20180, "\u0120datingside": 77135, "\u00d9\u0127\u00d9\u012a\u00d9\u0126": 107862, "\u0120\u00d1\u0123\u00d0\u00b2\u00d0\u00be\u00d0\u00b8\u00d1\u0127": 113816, "SetFont": 66150, "\u00e5\u013e\u00ba": 83324, "Radi": 75246, "\u0120movers": 96454, "space": 8920, "little": 56492, ",LOCATION": 88997, "\u0120cudd": 65245, "\u0120gab": 56979, "Global": 11907, "\u00e0\u00b8\u00b7": 42192, "ysz": 73445, "\u0120\u00d8\u00b3\u00d8\u00a7\u00d8\u00ae\u00d8\u00aa\u00d9\u0129": 114996, "\u00ec\u0140\u00a5\u00ec\u013f\u0122": 124788, "\u0120ebooks": 89002, "\u0120Renault": 67431, "\u0120\u00ec\u0124\u00b6": 124883, "\u0120porque": 28895, "cona": 91524, "\u0120Roz": 91580, ".hours": 77192, "\u0120\u00d8\u00ba\u00d8\u00b1\u00d8\u00a8\u00db\u012e": 120604, "\u0120GridView": 42035, ".sqrt": 18540, "\u0120TextBox": 30794, "\u0120\u00d9\u0128\u00d8\u00b4\u00d8\u00a7\u00d9\u0128": 107223, "\u0120dzi": 52126, "_WORLD": 40013, "\u0120nxt": 71552, "\u0120Download": 8745, "\u0120ger\u00c3\u00a7ekten": 116666, "Changing": 60146, "_shot": 82326, "protein": 79565, "science": 40657, "\u0120pozn": 117537, "\u00e3\u0123\u00b0\u00e3\u0123\u012d\u00e3\u0124\u012c": 122416, "eq": 11251, "\u0120Cary": 92664, "YLeaf": 94053, "<String": 3548, "draulic": 33842, "\u0120motions": 54245, "Answer": 16533, "\u0120Lionel": 84224, "\u0120mirrors": 41585, "CALL": 26502, "\u0120\u00d0\u00b8\u00d0\u00b7\u00d0\u00b2\u00d0\u00b5\u00d1\u0123\u00d1\u0124": 110252, "\u00c3\u00ba": 6792, "\u00c3\u00a4\u00c3\u00a4n": 60446, "\u0120porous": 94761, "\u00e5\u0143\u0139": 19113, "<|reserved_special_token_122|>": 128127, ".Serializer": 83309, ".mkdir": 31263, "(signature": 93750, "\u0120retire": 16177, "\u00ed\u0129\u00b4": 124921, "owner": 8281, "Union": 33758, "_publish": 59879, "\u00e7\u00a1\u00ae": 35056, "\u0120anatom": 75893, "\u00d0\u00be\u00d1\u0128\u00d1\u0138": 104134, "\u0120[@": 74979, "ernetes": 30923, "agnar": 81853, ".tolist": 56112, "\u00ec\u013f\u00b8\u00ec\u00a6\u013f": 121580, "\u00e0\u00b9\u012e\u00e0\u00b8\u00a3": 116297, "\u0120fishing": 20543, "\u00cf\u0129\u00ce\u0143\u00cf\u0124": 125245, "\u0120Cooke": 99839, "FA": 3711, "\u0120noe": 67539, "\u00d8\u00a7\u00d8\u00b1\u00d8\u00b4": 116754, "_rc": 31399, "687": 21897, "\u0120spinner": 36591, "\u0120dashboard": 28065, "\u0120REM": 26669, ".asset": 36383, ".\\\"": 87965, "\u00c3\u00a9fono": 73497, "_TH": 10850, ".GetProperty": 97231, "\u0120beden": 123739, "ordo": 52372, "digits": 61870, ".Then": 99065, "Attribute": 3994, "finite": 26806, "equipment": 68618, "\u0120nab": 73791, "\u0120\u00ed\u013f\u00ac": 116681, "\u0120\u00e0\u00b9\u0122\u00e0\u00b8\u0136": 105401, "\u0120\u00ea\u00b3": 46230, "\u00d1\u0138\u00d0\u00bd": 100372, "OAuth": 58950, "\u0120\u00e3\u0122": 100529, "?>\u010a": 6121, "Bir": 105812, "\u0120storefront": 91828, "_finished": 57523, "M\u00e1\u00bb\u013bt": 111221, "\u0120Duck": 46870, "\u0120rights": 3268, "spring": 30323, "\u0120invites": 45510, "-Trump": 68020, "\u0120strtol": 34724, "abol": 53904, ".Photo": 73199, "\u00e3\u0124\u00b0\u00e3\u0125\u00a9": 111134, "###": 14711, ".of": 10440, "_com": 3038, "\u0120difference": 6811, "uent": 11942, "\u00cf\u0129\u00ce\u00b5": 101967, "\u0120\u00d0\u00b4\u00d0\u00be\u00d0\u00ba\u00d1\u0125\u00d0\u00bc\u00d0\u00b5\u00d0\u00bd\u00d1\u0124\u00d0\u00b0": 113916, "\u0120Hear": 57199, "\u00e8\u00be\u0135\u00e5\u0129\u00ba": 67117, "By": 1383, "-logo": 34897, "ogne": 96441, "mot": 47928, "YC": 93944, "\u00e5\u0126\u00aa": 104622, "\u00d1\u0138\u00d0\u00bb": 101425, "\u0120vais": 91507, "/owl": 69718, "aries": 5548, "\u0120\u00d0\u00bc\u00d0\u00b5\u00d1\u0124\u00d0\u00be\u00d0\u00b4\u00d0\u00b8": 121499, "wow": 58554, "\u00cf\u0128\u00ce\u00bf\u00cf\u0123": 103970, "\u0120rewriting": 95545, "\u0120'^": 50538, "Contrib": 54084, "\u0120appear": 5101, "186": 9714, "\u0120underage": 88112, "\u0120\u00e0\u00b9\u0123\u00e0\u00b8\u0123": 122130, "\u00d0\u00be\u00d0\u00bb": 7975, "\u0120\u00c4\u0133\u00e1\u00bb\u0133c": 111739, "\u0120Continental": 61834, "refund": 69583, "\u0120Crushing": 41494, "\u00e5\u0131\u00af\u00e8\u0125\u00bd": 88367, "_prob": 21457, "votes": 38935, "Login": 6363, "\u0120director": 7690, "ouis": 49090, "kerja": 76018, "\u00d9\u0128\u00d8\u00af\u00db\u012e": 104095, "\u0120TODAY": 41362, "\u0120WC": 37746, "\u00d0\u00b0\u00d0\u00bd\u00d0\u00b8": 14332, "\u0120embeddings": 71647, "SeekBar": 84491, "(IM": 71776, "\u0120reshape": 44909, "\u0120conductor": 61856, "undle": 4300, "<<\"": 7909, "aca": 17544, "\u0120\u0120\u0109\u0120": 79199, "\u0120getaway": 70993, ".Order": 20240, "\u0120Timber": 45248, "altet": 95008, "Ki": 73672, "\u00eb\u00b0\u0136": 101974, "azer": 23697, "\u0120|=": 8832, "OBJ": 54549, "\u0120\u00c3\u00basp\u00c4\u013d": 112411, "\u0120Gh": 24855, "=bool": 90212, "\u0120$($": 95077, ".pop": 8452, "asyon": 102582, "Peer": 31988, "<R": 24259, "_design": 50903, "\u0120climbs": 77511, "\u0120horrors": 70618, "\u0120naval": 46398, "\u0120Digest": 54389, "_ag": 21233, "\u0120poh": 105934, "\u00e6\u013f\u0132\u00e6\u0138\u013b": 108321, "\u0120\u00d8\u00a7\u00d8\u00b3\u00d9\u0126\u00d8\u00a7\u00d9\u0127\u00db\u012e": 107229, "\u0120RU": 69925, "\u0120Recognition": 48698, "ALLENG": 89174, "\u0120\u00d1\u0123\u00d0\u00be\u00d0\u00b2\u00d1\u0122\u00d0\u00b5\u00d0\u00bc": 113506, "centre": 75217, "gMaps": 84904, "='.": 52886, "\u0120Maxwell": 59497, "\u0120Complete": 19121, "Positions": 46893, "\u00e7\u00a5\u00a8": 95544, "\u00d0\u00b0\u00d1\u0131": 36497, "_Details": 98526, "\u0120h\u00c3\u00bck\u00c3\u00bcm": 107882, "\u0120Dickens": 93999, "\u0120isol": 13399, "(Blueprint": 65347, "\u00d0\u00b5\u00d0\u00bd\u00d0\u00ba\u00d0\u00b0": 122323, "\u0120DLL": 48292, "\u00c3\u00a1tu": 113220, "\u0120barn": 33419, "\u00e5\u00af\u0126": 108385, "FullPath": 74320, "\u0120\u00c3\u00ba\u00c4\u012fast": 110953, "\u00ef\u00ba\u013a": 119425, "\u00e8\u00af\u0126\u00e4\u00bb\u00b7": 125485, "793": 24531, "\u0120Peel": 89694, "\u0120get": 636, "\u0120Covid": 38074, "userRepository": 86841, "\u0120tackling": 57911, "\u0120iPhones": 73165, "\u0120compress": 25633, "@synthesize": 37020, "\u00cc\u00a3": 105001, "mented": 28078, "\u0120\u00da\u00a9\u00d9\u0129": 100360, "\u0120\u00d0\u00bf\u00d1\u0122\u00d0\u00b5\u00d0\u00b2": 110222, "\u00ef\u00bc\u012e\u00e5\u013d\u0142\u00e4\u00b8\u00ba": 115286, "\u0120chunks": 27855, "(tags": 58313, "sap": 65713, "\u0120limb": 48694, "\u0120homers": 98698, "\u00d0\u00b0\u00d1\u0122\u00d1\u0127": 123104, "-placeholder": 70198, "\u00d8\u00a7\u00db\u012e\u00db\u012e": 100982, "\u0120\u00d1\u0126\u00d0\u00be\u00d1\u0122\u00d0\u00bc\u00d0\u00b5": 120160, "\u0120nu": 11148, "lambda": 13231, "\u0120bufferSize": 66258, "\u00c3\u00a1k\u00c5\u00af": 113186, "\u0120dile": 44261, "\u00d8\u00ac\u00d9\u0127\u00d9\u012c\u00d8\u00b9": 122724, "\u00e0\u00b9\u0122\u00e0\u00b8\u012a\u00e0\u00b8\u00a3": 124567, "=is": 93410, "agger": 10322, "394": 20077, "321": 14423, "cess": 1140, "\u0120nelle": 72864, "\u00e2\u0122\u0132": 31021, "UIS": 29621, "\u00e4\u00b9\u0141\u00e4\u00b8\u012f": 111333, "\u0120Industry": 24780, "\u0120litter": 39682, "\u0120possibilities": 24525, "UE": 2279, "\u013d\u00e5\u00bb\u00ba": 32438, "ange": 853, "\u0120tertiary": 80423, "\u00da\u0128": 100345, "\u00e7\u013c\u0126\u00e9\u0139\u00ae\u00e9\u00a2\u013a": 125648, "\u0120desperate": 28495, "Rating": 22940, "\u0120Writer": 30504, "utra": 78981, ".charset": 71930, "\u0120\u00c5\u0141imdi": 114231, "variable": 10014, "abr": 78671, "\u0120throwable": 65631, "Mag": 34015, "\u0120compact": 17251, "\u0120Y": 816, "\u0120DM": 20804, "erville": 51872, "\u00e8\u0129\u00aa\u00e6\u00b2\u00bb": 94134, "\u00e6\u0131\u0132\u00e5\u012f\u0129": 118402, "\u0120BSON": 77335, "eck\u00c3\u00a1": 126638, "\u00ec\u013f\u00b4\u00ed\u0126\u00b0": 108916, "\u0120sha": 16249, "\u00d0\u00be\u00d1\u0123\u00d0\u00be\u00d0\u00b1": 102207, "\u0120kt\u00c3\u00b3re": 43990, "_READY": 52284, "chod": 103844, "\u0120\u00d9\u0123\u00db\u012e": 102714, "/general": 67061, "-tabs": 32841, "\u0120iface": 50413, ".SO": 92971, "\u0120Messages": 27827, "\u0120Emerging": 86148, "\u0120p\u00c5\u013beklad": 126125, "\u0120Partner": 32413, "\u0120corporate": 13166, "wor": 50810, "\u00d9\u012a\u00db\u012e\u00d8\u00b4": 120797, "dimensions": 60339, "_decrypt": 81864, "\u00e3\u0125\u00b3\u00e3\u0125\u0133": 115695, "\u0120g\u00c3\u00b6sterir": 124702, "\u0120\u00d1\u0122\u00d0\u00b0\u00d0\u00bc\u00d0\u00ba\u00d0\u00b0\u00d1\u0127": 117987, "Travel": 41348, "\u0120responding": 30438, ".params": 9180, "\u0120outsourcing": 75792, "\u00e5\u013e\u00b0\u00e5\u0141\u0141": 119208, "\u0120\u00d8\u00a8\u00db\u012e\u00d8\u00b4\u00d8\u00aa\u00d8\u00b1\u00db\u012e": 126494, "_fin": 40837, ".Student": 57976, "<|reserved_special_token_181|>": 128186, "INGTON": 39649, "))))\u010a": 23631, "\u0120af": 8136, "\u00c4\u0123": 31757, "uibModal": 92209, "panic": 19621, "strand": 86981, "\u00eb\u00b0\u00b0": 103588, "\u0120institution": 15244, "_SYSTEM": 31267, "\u0120concentr": 17576, "\u0120Informationen": 49942, "\u00d0\u00b4\u00d0\u00b5\u00d1\u0122": 107451, "\u0120Knife": 62302, "\u0120r\u00c3\u00a9seau": 98947, "\u0120Removed": 52183, "=NULL": 29080, "\u00e6\u0139\u00a5\u00e6\u013e\u0141": 46885, "_precision": 55718, ".future": 98793, "\u00eb\u0137\u012e": 106745, "\u00d1\u0125\u00d1\u0122\u00d0\u00b3": 108001, "\u0120\u00d1\u012f\u00d0\u00bb\u00d0\u00b5\u00d0\u00ba\u00d1\u0124\u00d1\u0122\u00d0\u00be\u00d0\u00bd": 127472, "(pat": 95039, "GLOSS": 84310, "-under": 72207, ".Dir": 84857, "\u0120bothering": 91259, "instant": 86258, "mpz": 83805, "\u0120zat\u00c3\u0143m": 111719, "\u0120publicly": 17880, "columnName": 87130, "221": 12425, "\u0120SCM": 69648, "\u0120()": 1754, "cheap": 62790, "\u0120shampoo": 63032, "\u00e8\u00af\u00bb": 58653, "arming": 34002, "\u0120bumped": 79932, "\u0120\u00d9\u0128\u00db\u012e": 104078, "(len": 7046, "\u0120hastal\u00c4\u00b1k": 113320, "\u00cf\u0123\u00ce\u00bf\u00cf\u0128\u00ce\u00bf\u00cf\u0123\u00ce\u00af\u00ce\u00b5\u00cf\u0124": 120776, "\u00ec\u0142": 14806, "\u0120\u00d0\u00bf\u00d1\u0122\u00d0\u00b5\u00d0\u00b4\u00d1\u0123\u00d1\u0124\u00d0\u00b0\u00d0\u00b2\u00d0\u00bb\u00d1\u0131\u00d0\u00b5\u00d1\u0124": 123163, "\u0120Podcast": 30869, ".lab": 56382, "\u0120bourgeois": 53416, "\u0120v\u00c4\u013dt\u00c5\u00a1\u00c3\u0143": 111863, "_frame": 9106, "\u00e5\u00be\u00ae": 50034, "\u0120presents": 18911, "inus": 71956, "\u0120Delta": 26002, "\u0120Spiele": 70562, "\u0120\\|": 98255, "istrovstv\u00c3\u0143": 125563, "Tomorrow": 91273, "\u0120Educ": 10355, "ourmet": 51802, "Addresses": 53390, ".TextImageRelation": 92913, "CheckedChangeListener": 83002, "ifikasi": 78450, "\u00e0\u00b8\u00b6": 100470, "\u00d0\u00b8\u00d0\u00bd\u00d0\u00b3": 112298, "manda": 36645, "-LAST": 31615, "Bucket": 37118, ".Par": 42388, "\u0120thrown": 15338, "\u0120Europa": 39600, "ITIZE": 75602, "(cancel": 93662, "\u0120\u00eb\u012d\u00a4\u00ec\u0138\u0133": 115299, "735": 24939, "\u0120implications": 25127, "observation": 79060, "elay": 7040, "Toolbar": 27259, "eyed": 49059, "ollower": 30134, "-ren": 94109, "\u00d0\u00b6\u00d0\u00b5\u00d0\u00bd\u00d0\u00b8\u00d1\u0131": 106990, "\u0120Cand": 70654, "\u00c4\u0141inden": 113893, "esin": 122276, ".getProperties": 91902, "_META": 60936, "\u0120Hue": 67051, "\u00ef\u00bc\u012e\u00e5\u00ae\u0125": 115973, "\u0120Ref": 8718, "\u0120Combo": 54123, "toArray": 28874, "-${": 32258, "Elf": 76932, "\u0120nicht": 8969, "\u0120artillery": 54235, "\u0120\u00d0\u00b2\u00d0\u00b8\u00d1\u0122\u00d1\u0138\u00d1\u012a": 113004, "orous": 20857, "\u0120\u00ce\u00b2\u00ce\u00b9\u00ce\u00b2": 126112, "enzie": 57963, "\u00ec\u0124\u00ac\u00ec\u00a7\u0126": 119084, "\u0120/>\u010a": 2662, "\u0120novel": 11775, "<script": 7890, "\u0120bystand": 83483, "\u0120Borrow": 79047, "aying": 17718, "\u0120Lex": 27917, "\u0120\u00d8\u012e": 100368, "\u0120retrieving": 49324, "\u00eb\u0131\u0126": 49085, "iedy": 82719, "\u0120ciphertext": 70889, "Relationship": 51922, "\u00e4\u00b8\u00a1": 110176, "\u0120neste": 78559, ".dark": 53942, "\u0120Parses": 74530, "(Sprite": 82599, "\u0120encour": 8037, "ymous": 90492, "\u0120nat": 18050, "\u0120\u00d0\u00b4\u00d0\u00b0\u00d0\u00b2\u00d0\u00bd\u00d0\u00be": 119717, "\u0120overweight": 50254, "\u0120currentTime": 40299, "(digits": 99466, "LoginPage": 99433, "\u0120wars": 25981, "\u0120\u00d9\u0128\u00d9\u0123": 108322, "call": 6797, "\u0120rez": 49158, "(Map": 21950, "\u0120Hamilton": 24051, "\u0120Gareth": 88147, "\u0120tar": 12460, "Slinky": 57010, "\u0120organisation": 22139, "\u0120Backup": 44538, "\u00e6\u012b\u00be": 93233, "chen": 7674, "Navigation": 16804, ")}</": 52078, "\u0120heal": 27661, "\u00eb\u012d\u00b9": 65895, "ctest": 68980, "\u00e0\u00b9\u0122\u00e0\u00b8\u0124\u00e0\u00b8\u00b2": 108153, "\u0120cash": 8515, "\u0120aggregated": 71922, "\u00cf\u0126\u00ce\u00b9\u00ce\u00b1": 111336, ".getLine": 99457, "\u0120Stre": 36772, "\u0120trilogy": 57886, "\u00e0\u00b9\u012b\u00e0\u00b8\u00aa": 113117, "ifle": 19636, "\u0120Gon": 80806, "\u0120ederek": 113733, "\u0120\u00c5\u0141": 22841, "\u0120Girl": 11617, "-live": 74551, "ples": 125800, "Sensitive": 64416, "\u00e5\u00b9": 7190, "\u0120\u00e5\u012a\u013f": 111946, "istor": 5436, "\u0120segment": 10449, "\u0120MGM": 99491, "tracted": 55535, "\u00e6\u0136\u00bf\u00e6\u00b2\u00bb": 110886, "878": 25890, "\u0120grup": 34670, "loid": 52196, "\u0120Bray": 88920, "++)\u010d\u010a": 11910, "\u0120\u00d8\u00a7\u00d9\u0126\u00d8\u00b1": 101284, "\u0120Awake": 42322, "\u0120vyk": 120188, "\u0120directional": 73945, "-top": 8338, "\u0120\u00d1\u0131\u00d0\u00ba\u00d0\u00b8\u00d0\u00bc": 119854, "\u00ed\u0136\u012e": 104236, "Tp": 63341, "ismatic": 57245, "\u0120}}</": 11582, "\u00c3\u00a9mu": 102574, "@Resource": 99069, "Bulletin": 99735, ".PathVariable": 76746, "\u0120PDF": 11612, "\u0120UEFA": 79815, "region": 4030, "\u0120kdy\u00c5\u00be": 102595, "\u00d0\u00bd\u00d0\u00be\u00d1\u0123\u00d1\u0124\u00d1\u012e": 61379, "siblings": 53020, "\u00e4\u00ba\u012e\u00e4\u00ba\u012e\u00e4\u00ba\u012e\u00e4\u00ba\u012e": 116589, "-force": 81149, "'''": 19317, "waters": 99759, "\u0120\u00c4\u0133\u00e1\u00ba\u00b7c": 103519, "\u00d0\u00b8\u00d1\u0129\u00d0\u00bd\u00d0\u00be": 122564, "\u0120expressions": 24282, "Alt": 27108, "\u0120\u00c2\u0142\u0120\u00c2\u0142": 33145, "MouseListener": 70709, "(ob": 50695, "\u0120Freak": 81225, "Yep": 88643, "\u0120cr\u00c3\u00a9": 34280, "GROUND": 32787, "\u0120\u00d1\u0123\u00d0\u00b2\u00d0\u00be\u00d1\u0136\u00d1\u0139": 121434, "\u0109\u0120\u0120\u0109": 63472, "\u0120maize": 93307, "-im": 38025, "\u0120fetish": 40252, "\u00c3\u00a1st": 56503, "\u0120landlords": 64729, "\u0120\u00d0\u00bc\u00d0\u00be\u00d0\u00b4": 71239, "\u0120\u00d1\u0122\u00d0\u00b0\u00d0\u00b9": 102743, "\u00e7\u0136\u00a3": 106518, "\u0120While": 6104, "\u0120====": 82967, "\u0120Wired": 87385, ".stdout": 25880, "SGlobal": 54580, "_AMD": 99724, "\u00e1\u00ba\u00aft": 101340, "\u0120Tween": 67435, "ABCDEFGHIJKLMNOPQRSTUVWXYZ": 77002, "\u0120/=": 16860, ".ylim": 77835, "\u0120Required": 12948, "(models": 20905, "errar": 51149, "\u0120BitSet": 58327, "\u0120NONINFRINGEMENT": 29086, "\u0120]).": 97811, "\u0120amateurs": 76650, "Wolf": 96534, ".Hand": 36408, "\u0120Suite": 21652, "[start": 29563, "References": 32812, "\u0120Supervisor": 58207, "\u0120potrze": 89450, "\u0120thee": 40344, "\u0120\u00ce\u0143\u00cf\u0123\u00ce\u00b3": 119701, "among": 77405, "\u00d0\u00b1\u00d0\u00be\u00d1\u0122": 102038, "\u00e6\u00a2\u00b0": 109472, "\u0120bub": 78869, "\u00e0\u00a5\u0122\u00e0\u00a4\u0138": 117543, ".catalog": 63659, "\u0120adm": 14933, "\u0120Hindus": 82729, "\u0120beast": 32236, "\u0120sulf": 40769, "\u00d1\u0125\u00d1\u0122\u00d0\u00bd": 108902, "\u00ec\u012b": 113010, "CGPoint": 53655, "Char": 4873, "\u0120air": 3805, "\u0120taxes": 13426, "\u0120\u00d0\u00b2\u00d0\u00b8\u00d0\u00ba\u00d0\u00be\u00d0\u00bd": 106091, "\u0120conviction": 29191, "\u0120sturdy": 45652, "/kernel": 59443, "\u00e6\u012f\u00a2": 72234, "\u0120Onc": 77854, "\u0120\u00d8\u00a8\u00d8\u00a7\u00d9\u0124": 116214, "\u0120\u00e3\u0124\u013f": 116401, "\u00e6\u013e\u0122\u00e5\u0132\u0130": 112271, "\u00ea\u00b8\u00b0\u00ed\u0125\u0122": 118561, "lan": 10946, "\u0120effet": 67781, "\u0120\u00ce\u0133\u00cf\u0122\u00ce\u00bf": 118604, "ollider": 32355, "IGINAL": 51602, ".vertical": 53239, "\u0120inclination": 77004, "auses": 36243, "\u00e2\u0122\u012e\u00d8\u00aa\u00d8\u00b1": 114961, "44": 2096, "\u0120Bruce": 24785, "\u0120\u00d9\u0127\u00d8\u00b9\u00d9\u0128\u00db\u012e": 124881, "\u0120\u00d8\u00a7\u00d8\u00ac\u00d8\u00aa\u00d9\u0127\u00d8\u00a7\u00d8\u00b9": 106730, "_TW": 96847, "\u0120Benefits": 39195, "\u0120\u00d0\u00b7\u00d1\u0122\u00d0\u00be\u00d0\u00b7\u00d1\u0125\u00d0\u00bc": 117753, "\u00c3\u00bcst": 102211, "_winner": 93688, "\u0120Br": 3320, ".dequeue": 94889, "\u0120hoje": 74258, "orks": 74402, "\u0120spawns": 93776, "textContent": 44535, "\u0120nebylo": 117670, "\u0120\u00e3\u0127\u00a1": 107309, "pecial": 3037, "\u0120rn": 56939, "\u00e4\u00ba\u0128": 35287, "JECTED": 90007, "\u0120organiz": 25286, "\u0120cuenta": 32195, "LDAP": 94597, "\u0120cumshot": 95727, "\u0120Manuals": 59941, "\u0120refute": 84277, ".sponge": 98271, ".notifications": 76015, "ItemSelected": 27617, "\u0120\u00d1\u0123\u00d0\u00b2\u00d1\u0131\u00d1\u012b": 125404, "\u0120RCC": 33017, "012": 11531, "\u0120deals": 12789, "itor": 1960, ".avi": 85652, "\u0120Unauthorized": 64202, "\u00eb\u00a6\u00ac\u00ec\u0137\u0126": 106953, "ruits": 68998, "\u0120\u00d1\u0129\u00d0\u00b5\u00d0\u00bb\u00d0\u00be\u00d0\u00b2": 102649, "\u0120\u00c3\u00bczere": 104459, "\u0120Bye": 90425, "\u00e3\u0122\u0131\u00ef\u00bc\u012a": 121359, "\u0120AssetImage": 93306, "\u00e3\u0122\u0123\u00e5\u00bd\u00bc": 119568, "\u0120SAND": 98341, "\u00e3\u0122\u0122\u00e3\u0122\u0122\u00e3\u0122\u0122\u0120\u00e3\u0122\u0122\u0120\u00e3\u0122\u0122\u0120\u00e3\u0122\u0122": 125615, "\u0120Venezuelan": 83749, "<div": 2691, "inking": 16113, "_Selection": 89535, "-neck": 96533, "\u0120ki\u00c5\u0141isel": 114857, "\u0120FINAL": 68059, "_navigation": 59151, "\u0120pnl": 73793, "\u00e2\u0142\u0122\u00e2\u0142\u0122": 94747, "\u0120\u00e0\u00b8\u0126\u00e0\u00b8\u00b3": 126109, "\u0120Chips": 87768, "shaled": 76403, "\u00d0\u00b5\u00d0\u00b7\u00d1\u0125\u00d0\u00bb\u00d1\u012e\u00d1\u0124": 71889, "_pf": 76061, "\u0120\u00e7\u00ac": 49940, "\u0120SOUND": 85373, "\u00e0\u00a5\u0124": 100295, "\u0120[[]": 85607, "\u00e6\u00a3\u0134": 117399, "\u0120broadcasting": 49927, "\u0120reloc": 75395, "\u00e0\u00b8\u00b1\u00e0\u00b8\u0126\u00e0\u00b8\u00a3": 111524, "v\u00c5\u00afli": 110052, "\u0120boiled": 66185, ".forChild": 70108, "Interest": 35656, "\u0120mandates": 76053, "\u0120\u00d0\u00b7\u00d0\u00b0\u00d0\u00b2": 93323, "\u0120Oriental": 72051, "\u0109eval": 94513, "flip": 40117, "Cha": 97071, "\u0120\u00ec\u0139\u00ac\u00ea\u00b8\u00b0": 116864, "\u0120Alan": 26349, "\u0120Pv": 51439, "_title": 6240, "conomic": 32107, "\u0120t\u00c3\u00a9l\u00c3\u00a9phone": 100007, "\u00e5\u0136\u00af": 113723, "_behavior": 75640, "\u0120constitu": 31605, "phase": 26199, "\u00e0\u00b8\u00b2\u00e0\u00b8\u012f": 112726, "\u0120Furthermore": 24296, "\u0120pix": 32674, "\u00d0\u00bd\u00d1\u012d\u00d0\u00b5": 44065, "@class": 50218, "-process": 51194, "_SH": 6977, "NB": 34442, "\u00ea\u00bb\u013a\u00ec\u0126\u013e": 127737, "\u0120ch\u00e1\u00bb\u00a9c": 101774, "ssl": 25658, "695": 24394, "<Color": 89927, "\u0120\u00d0\u00b4\u00d0\u00be\u00d0\u00b1\u00d0\u00b0\u00d0\u00b2\u00d0\u00b8\u00d1\u0124\u00d1\u012e": 123776, "Auto": 13556, "ampion": 13580, "\u0120\u00e5\u012c\u00a8": 118822, "\u0120youthful": 65655, "\u00c2\u0142P": 112738, ")!\u010a": 65981, "\u0120Yeah": 22335, "Deleting": 61575, "\u0120clad": 83858, "Unload": 72528, "228": 14261, "\u0120sprite": 17488, "istent": 18620, "\u0120Browser": 16889, ".action": 12677, "\u0120Marshall": 30508, "tweet": 36487, "')</": 44972, ".transport": 53653, "\u0120s\u00c4\u0125": 30094, "\u0120neby": 105502, "\u0120newcomer": 88405, "\u00cf\u0123\u00ce\u00bf\u00cf\u012f\u00ce\u00bd": 120618, "ridged": 80228, "\u0120Wahl": 75957, "\u0120${": 3654, "\u0120issued": 11136, "predicate": 62885, "\u0120asteroids": 85322, "\u0120hs": 33320, "\u0120\u00d0\u00bc\u00d1\u012d\u00d1\u012a": 114224, "\u0120\u00d0\u00bd\u00d0\u00b5\u00d0\u00b8\u00d0\u00b7": 124464, "\u0120\u00d8\u00a7\u00d9\u0126\u00d8\u00ac\u00d8\u00a7\u00d9\u0127": 124009, "***": 12488, "haar": 69229, "\u00e0\u00a4\u0124\u00e0\u00a4\u0141": 103568, "_length": 5228, "payments": 64143, "_REPLACE": 98820, "\u0120st\u00c3\u00a1l": 124823, "\u0120enums": 71817, "\u0120clums": 78057, "/MIT": 86263, "\u0120dung": 86636, "\u0120nanoparticles": 94753, "794": 25926, "wheel": 39690, "worth": 20069, "\u0120flavors": 32523, ".pagination": 63713, "\u0120\u00ce\u00b5\u00ce\u00b9": 125154, "-establish": 48587, "\u0120ding": 67542, "\u00d8\u0143\u00d8\u00af\u00d8\u00a7\u00d8\u00ab": 127023, "Clar": 100069, ".ms": 40215, "\"])": 14340, "\u0120NSMutable": 21772, "-machine": 84315, "\u0120TextInputType": 93651, "\u0120Florence": 48606, "\u0120envy": 66533, "\u00c3\u00abr": 73574, "\u00ce\u00a1": 100619, "717": 25150, "\u0120Pou": 90123, "\u00e0\u00b8\u00aa\u00e0\u00b8\u00b3\u00e0\u00b8\u013b": 119503, "\u0120Cos": 18606, "\u0120RID": 28426, "sortBy": 66132, "\u00ec\u00aa\u00bd": 105678, "\u0120svob": 116180, "-Mar": 48535, "uluk": 106926, "\u0120antenna": 41032, "(\"{": 14303, ".errors": 17765, ".points": 31896, "\u0120ErrorMessage": 42927, "\u0120LeBron": 58335, "Dll": 35112, "|.": 85726, "\u0120THE": 3247, "_B": 1702, "ervations": 46921, "\u00e6\u00b3\u00a2": 103682, "\u0120funkc": 72878, "\u0120findet": 76415, "\u0120NZ": 42857, "\u00e8\u00a7\u0126": 75486, "amb": 3042, "\u0120calculated": 16997, "access": 5323, "\u0120\u00d0\u00b1\u00d1\u0125\u00d0\u00b4\u00d1\u0125\u00d1\u012b": 121448, "-msg": 58562, "\u0120b\u00c3\u00b6l\u00c3\u00bcm": 105886, "\u0120\u00ce\u00b8\u00ce\u0143\u00cf\u0125\u00ce\u00b7": 122185, "\u0120cav": 57709, "/\u010d\u010a\u010d\u010a": 73634, "Lookup": 35347, "ymph": 32800, "=l": 41727, "\u0120coveted": 70665, "\u0120useStyles": 35229, "Solver": 64930, "Du": 43174, "ece": 75507, "\u0120Master": 11060, "\u0120\u00eb\u00af\u00bc": 107138, "\u00d1\u0122\u00d0\u00be\u00d1\u0129": 112096, "}}>\u010a": 43209, "vla": 80663, "\u0120\u00ec\u0140\u012a\u00eb\u012c\u0136": 65621, "\u0120deletes": 55270, "\u0120Typeface": 96284, ".Keyword": 62325, "_tcb": 99825, ".addChild": 32869, "\u0109assertNotNull": 89221, "(func": 19062, "\u0120\u00d0\u00b7\u00d0\u00be\u00d0\u00b1\u00d0\u00be\u00d0\u00b2": 117415, "_dim": 11024, "\u0120Fac": 17375, ".her": 44872, "\u0120\u00d0\u00bf\u00d1\u0122\u00d0\u00b0\u00d0\u00b2\u00d0\u00b8": 102709, ".RowCount": 73878, "abbreviation": 77957, "(vertices": 66892, "\u0120Intl": 85678, "Logout": 29058, "\u0120raids": 52581, "termin": 23827, "();\u010a": 545, "\u0120outfits": 48374, "\u0120Ceremony": 95752, "\u0120\u00c4\u012fty": 108058, "\u0120\u00d0\u00b2\u00d0\u00bc\u00d0\u00b5\u00d1\u0123\u00d1\u0124\u00d0\u00b5": 112923, "\u0120aggregator": 97780, "\u0120Hunts": 71726, "\u0120Excellent": 37866, "\u0120Dahl": 87967, "\u0120r\u00c3\u00a9pond": 75871, "awy": 96819, "\u0120Walls": 72278, "Collider": 37897, "\u00d0\u00b6\u00d1\u0125": 107799, "\u0120heir": 51543, ".forward": 27613, "\u0120\u00d0\u00b2\u00d0\u00b5\u00d1\u0124": 109343, "\u0120yoga": 27102, "\u0120%+": 69624, "\u0120Tham": 110055, "\u0120\"/\"": 17318, "clid": 76144, "pill": 50946, "Unsafe": 79870, "}`}>\u010a": 57391, "\u0120SEEK": 47340, "\u0120NH": 35931, "\u0120tudo": 56796, "\u0120Mundo": 90923, "\u0120layoffs": 99922, "_form": 8074, "();": 2178, "\u0120winter": 12688, "\u0120Atlanta": 20005, ".toByteArray": 67284, "\u00d8\u00aa\u00db\u012e\u00d8\u00ac\u00d9\u0129": 113260, "-American": 24145, "amm": 8836, ".Framework": 21734, "\u0120vzd\u00c3\u00a1l": 115944, "\u00db\u00b4\u00db\u00b0": 121369, "\u0120highlight": 11415, "\u0120\u00d0\u00b3\u00d0\u00be\u00d0\u00b2\u00d0\u00be\u00d1\u0122": 103327, "\u0109prev": 51828, "\u0120[\"": 4482, "\u0120folded": 48135, "Pane": 8419, "\u0120\u00ec\u013f\u00b4\u00ec\u0125\u0123": 106751, "\u0120SSH": 41563, "\u010a\u0109\u010a": 18108, "<Class": 61884, "\u00cf\u0123\u00ce\u00b5\u00cf\u0124": 105484, "\u00e6\u012b\u00b9": 105856, "@a": 90317, "\u0120mined": 68768, "hibition": 60073, ".onError": 68816, "_fsm": 98169, "vap": 116613, ".cy": 57786, "ISE": 9311, "\u0120hedge": 42766, "\u0120uintptr": 39290, "\u0120line": 1584, "\u0120*/}\u010a": 22390, "\u0120B\u00c3\u00bct\u00c3\u00bcn": 124541, "\u0120surprised": 14792, "LEFT": 23203, "_SAVE": 44209, "\u0120\u00d0\u0141\u00d0\u00b5\u00d1\u0122": 104222, "\u0120Inquiry": 66802, "?>\u010d\u010a": 21500, "\u0120accr": 86659, "\u0120pipelines": 58773, "termination": 89776, "bose": 8461, ".Cho": 90157, ".Marker": 62231, "\u0120Nicht": 87517, "\u0120tbody": 46520, "\u0120\u00d9\u0127\u00d9\u0124\u00d8\u00af": 123635, "\u0120briefly": 27851, "\u0120p\u00c5\u013bep": 113476, "\u0120Bitcoins": 82925, "-Se": 98628, "\u0120Len": 25234, "strument": 20039, "\u0120theater": 27803, ":::/": 122885, "d\u00c3\u0143l": 112055, "\u0120colonies": 49028, "\u0120EVE": 87735, "\u0120renewed": 36646, "_BLOCK": 19281, "\u0120infant": 31383, "circ": 44398, "Jennifer": 72526, "l\u00c3\u00a1da": 117509, "ghi": 76176, "\u0120unus": 16236, "Bru": 68977, "\u0120\u00eb\u0128\u0122": 115418, "_mapping": 28028, "\u0120Volunteer": 65535, "\u0120ENTITY": 74971, "\u0120correl": 35983, "activate": 17281, "\u0120m\u00c4\u013ds\u00c3\u0143ce": 127044, "\u00e5\u00b2\u0139\u00e4\u00bd\u012f": 118469, "\u0120\u00c4\u012fe": 123791, "Sharp": 25023, "\u0120\u00d8\u00a8\u00d8\u00b1\u00d9\u0124": 121594, "\u0120\u00d8\u00a7\u00d9\u0126\u00d8\u00aa": 96057, "(\"//*[@": 82709, ";(": 58809, "\u00cf\u0123\u00ce\u00b5": 101435, "\u0120twitch": 60513, "-night": 45427, "iddleware": 11864, "\u0120Listings": 84984, "\u0120exhaustive": 73603, "\u0120tai": 53637, "675": 21129, "\u00d1\u0125\u00d1\u0124": 38521, ".figure": 27602, "\u0120Inventory": 29226, "\u0120defendant": 26884, "\u0120maxlen": 76548, "_FULLSCREEN": 88788, "\u0120\u00d8\u00b9\u00d8\u00a8\u00d8\u00a7\u00d8\u00b1\u00d8\u00aa": 119344, "(hdr": 88747, ")application": 62102, "_KeyPress": 78934, "unnable": 83311, "\u0120vinegar": 47205, "\u0120imaginative": 77361, "\u0120t\u00e1\u00bb\u00b7": 105397, "\u00d1\u0122\u00d0\u00b0\u00d0\u00bb": 126068, "\u0120proton": 82586, "amide": 66796, "\u0120\u00e0\u00a4\u0129\u00e0\u00a4\u00b8\u00e0\u00a4\u00b2": 109976, "?,?,": 40659, "Generally": 77641, "Conta": 98241, "goo": 63148, "024": 19592, "\u0120Cit": 18002, "\u0120\u00e7\u012b\u00b9": 110325, "\u0120poner": 73823, "vehicles": 58215, "\u0120muzzle": 75329, "Miami": 85250, "\u0120Lights": 35270, "_activity": 31126, "\u0120Kaz": 36074, "odata": 57269, ".stub": 39145, "chten": 43988, "uchs": 54252, "\u0120Providing": 81200, "Falsy": 83577, "\u0120fodder": 98895, "\\Repository": 44757, "\u0120giorni": 86830, "\u0120\u00d0\u00ba\u00d0\u00be\u00d0\u00bc\u00d0\u00b0\u00d0\u00bd": 109912, "\u0120individual": 3927, "_READONLY": 94795, "Hello": 9906, "\u0120mj": 84508, "...\">\u010a": 97805, "->[": 71012, "\u0120\u00d0\u00b3\u00d0\u00be\u00d1\u0124\u00d0\u00be\u00d0\u00b2": 105582, "\u00e0\u00a4\u00ac\u00e0\u00a4\u00b2": 127136, "obj": 2347, "apid": 44221, "\u0120rotational": 92371, "-dom": 14766, "\u00d8\u00b1\u00d8\u00b3": 102361, "_watch": 59662, "\u0120<--": 71486, "\u0120\u00ec\u0124\u00ac\u00ed\u0137\u0143": 126840, ".Media": 20351, "\u0120Tales": 54955, "\u00d1\u0122\u00d0\u00b0\u00d0\u00bc\u00d0\u00b8": 112459, "\u0120kat": 45356, "',\u010a\u010a": 20490, "IME": 5778, "\u0120visited": 12263, "\u0120rarely": 19029, "\u0120exclude": 22429, "\u0120SPEC": 48204, "\u0120Sergey": 74529, "\u0120Alban": 57991, "\u0120tabindex": 31273, "-art": 38921, "\u0120ADDRESS": 65528, "\u0120\u00d1\u0124\u00d0\u00be\u00d0\u00bd": 108164, "\u00d1\u0125\u00d0\u00bb\u00d1\u0131\u00d1\u0122": 106178, "\u00c5\u00a1t\u00c4\u013dn\u00c3\u0143": 107233, "\u00e8\u00a7\u012b": 103649, "751": 23986, "\u0120\u00d0\u00b7\u00d0\u00b4\u00d0\u00b0\u00d1\u0124": 120679, "\u0120cardiac": 47345, ".collectionView": 66808, "\u00cf\u0123\u00ce\u00af\u00ce\u00b6": 115086, "\u0120follows": 11263, "=\\\"$": 57213, "\u00e7\u00ae\u0122": 99337, "<br": 9668, "\u0120\u00d8\u00a7\u00d9\u0126\u00d8\u00a8\u00d8\u0143\u00d8\u00ab": 123842, "(attribute": 46507, "-scale": 13230, "Demo": 38513, "\u0120SAN": 60800, "\u0120Fotos": 67519, "(command": 15494, "<|reserved_special_token_22|>": 128027, ".blogspot": 46389, "\u0120embarked": 79120, "\u0120trembling": 93088, "\u0120Ez": 39726, "\u0120tents": 64470, "inp": 43192, "\u0120entren": 94921, "\u0120flare": 61363, "ucch": 71666, "tk": 6375, "\u0120\u00d1\u0123\u00d1\u0125\u00d0\u00bf": 107101, "$list": 56328, "\u00d0\u00b4\u00d1\u0131": 109412, "<Component": 97789, "/b": 3554, "Book": 7280, "\u0120Cert": 15663, "imately": 7253, "\u0120rib": 20735, ".Helpers": 48751, "rowad": 83387, "\u0120\u00d0\u00ba\u00d0\u00be\u00d0\u00bb\u00d0\u00bb\u00d0\u00b5\u00d0\u00ba": 127481, "\u0120lateral": 45569, "({\u010a\u010a": 52732, "\u00e5\u0127\u0143": 103070, "_subject": 29934, ",next": 63729, ":<?": 90571, "\u0120Chrom": 35318, "\u0120ba\u00c5\u0141ka": 104740, "\u0120\u00d0\u00b4\u00d0\u00b5\u00d0\u00b9\u00d1\u0123\u00d1\u0124\u00d0\u00b2\u00d0\u00b8\u00d1\u0131": 115015, "\u0120\u00d0\u00b3\u00d1\u0122\u00d1\u0125\u00d0\u00bf\u00d0\u00bf": 107736, "\u0120Assigned": 63724, "aj\u00c4\u0127": 33973, "Specifier": 88397, "\u00d8\u00aa\u00d8\u00b1": 100337, "\u0120vans": 77124, "_answers": 62710, ".annotation": 5177, "\u0120illicit": 59229, "(V": 12692, "enton": 75072, "phia": 18120, "_filename": 13626, "\u00e4\u00ba\u00a4": 39209, ".status": 4397, "\u0120dangerously": 59594, "\u0120FRE": 63706, "(ld": 65366, "\u0120pobl": 74675, "(indent": 77888, "\u00cf\u012e\u00cf\u0126\u00ce\u00b7\u00cf\u0126\u00ce\u00b1\u00cf\u0124": 117357, "\u00cf\u0126\u00ce\u00ae\u00cf\u0124": 108355, "PL": 2989, "\u0120almost": 4661, "\u0120Wallace": 39956, "\u0120whore": 73025, "sections": 25686, "\u0109className": 56242, "HDATA": 120607, "\u0120\u00cf\u0126\u00ce\u00b7\u00cf\u0124": 100661, "\u0120Enterprise": 26551, "hoot": 91421, "SEQU": 26561, "\u0120Moor": 84548, "\u0120fortress": 70938, "house": 7830, "\u00ce\u00bc\u00ce\u0143\u00ce\u00bd": 104051, "\u0120inputFile": 77308, "\u0120Wheeler": 61446, "&&&&": 121227, "\u00e3\u0126\u00b7": 120384, "\u0120enforcement": 13627, "ylko": 50676, "\u00d0\u00b4\u00d0\u00b8\u00d0\u00b2\u00d0\u00b8\u00d0\u00b4\u00d1\u0125": 118805, "\u0120primero": 71236, "yles": 2552, "\u0120Scal": 69934, "\u0120airborne": 70863, "uropean": 74387, "reset": 9915, "\u00e9\u0139\u0143": 59892, "\u0120happy": 6380, "turtle": 82209, "\u00e1\u00bb\u00b7": 110042, "metatable": 94689, "\u0120Angel": 23950, "\u0120za\u00c4\u012fal": 117309, "\u00e0\u00b8\u00b8\u00e0\u00b8\u0129\u00e0\u00b9\u0122\u00e0\u00b8\u0139\u00e0\u00b8\u0140\u00e0\u00b8\u00a1\u00e0\u00b8\u00ab\u00e0\u00b8\u00b2\u00e0\u00b8\u013b\u00e0\u00b8\u0126\u00e0\u00b8\u00a3": 121333, "\u00e3\u0123\u0139\u00e3\u0123\u00a6\u00e3\u0123\u0126": 109768, "\u0120XIV": 94515, "Disappear": 63955, "\u0120ac\u00c4\u00b1": 121778, "\u0120Cynthia": 75671, "\u0120\u00d8\u00b1\u00d9\u012c": 111933, "(SQLException": 96085, "\u0120wre": 67608, "\u0120\u00ea\u00b5\u0132\u00ec\u013e\u00a1": 109194, "\u00c3\u00a9ho": 100448, "ap": 391, "(cpu": 49914, "\u0120\u00ce\u0133\u00cf\u0122": 115006, "findAll": 52489, "XY": 16760, "\u0120Codes": 41661, "\u0120yuan": 73383, "ick\u00c3\u00a9ho": 105341, "\u0120bit": 2766, "_ticket": 46818, "(priv": 52850, "jak": 63502, "\u00d0\u00bd\u00d1\u0125\u00d0\u00bb\u00d0\u00b0\u00d1\u0123\u00d1\u012e": 120064, "\u00e0\u00b8\u00b4\u00e0\u00b8\u013b\u00e0\u00b8\u0136": 120826, "\u0120room": 3130, "\u00e5\u00b8\u0125": 52927, "MOV": 67122, "\u0120DataType": 34272, "\u00e0\u00a5\u0123": 73753, "\u0120commissions": 54764, "\u0120rue": 56949, ".att": 45157, "\u00d0\u0135\u00d0\u0140": 116948, "\u0120\u00d8\u00a7\u00d9\u0126\u00d8\u00a7\u00d8\u0143": 117070, "close": 5669, "\u0120unfinished": 64716, "\u00e5\u0137": 28308, "Term": 17695, "\u0120propName": 91214, "\u0120reli": 9559, "du": 1072, "DivElement": 88899, "\u0120Jarvis": 99620, "\u0120STOP": 46637, "?action": 58887, "\u00e1\u00ba\u00a1t": 100943, "\u0120buflen": 89464, "\u0120identifiable": 72450, "afs": 72598, "\u00cc": 136, "asd": 80202, ".COM": 21520, "\u0120world": 1917, "\u0120veel": 51237, "\u00e3\u0123\u00a8\u00e3\u0123\u00aa": 104856, "\u0120M\u00c3\u00a1y": 125004, ".vec": 71972, ".ff": 84985, "rement": 55755, "\u0120widen": 94415, "_attrib": 69887, "\u00d0\u00bb\u00d1\u0131\u00d0\u00b4": 113790, "aja": 19580, "RegularExpression": 91502, "\u00e3\u0125\u00bc\u00e3\u0123\u00ae": 115247, "\u0120Album": 26749, "gly": 23797, "-fill": 60087, "ycled": 37676, "\u0120bize": 114119, "Gay": 70475, "\u00e1\u00ba\u00a9n": 102300, "\u00c5\u013biv": 121495, "!\");\u010d\u010a": 43112, "oming": 18238, "\u0120p\u00c5\u013b\u00c3\u0143slu": 112105, "\u0120ViewController": 26362, "\u0120cafeteria": 94948, "\u00e9\u013a": 33443, "(Chat": 66138, "_matched": 95000, "={`": 18019, "\u0120bonus": 12306, "ind": 485, ":none": 22627, "\u0120\u00c4\u012fasto": 110605, "normal": 8416, "\u0120Redskins": 60378, "\u00e9\u00a8\u0130": 119126, "\u0120Ul": 16991, "\u0120\u00d9\u00be\u00da\u013a\u00d9\u012a\u00d9\u0129": 108238, "\u0120xml": 8562, ".strip": 17624, "setStatus": 84551, "\u0120Covenant": 64041, "\u0120sebou": 115352, ".drawImage": 48976, "inski": 53977, "\u00ba": 118, "aram": 640, "utoff": 28540, "\u0120towering": 87794, "\u0120passwd": 53137, "\u0120\u00d1\u0126\u00d0\u00b0\u00d0\u00ba": 103788, "uning": 38302, "\u00d0\u00bc\u00d0\u00b5": 101093, "$PostalCodesNL": 85071, "\u0120keywords": 21513, "(:,:,": 38590, ",the": 63738, "_attributes": 18741, "\u0120marketplace": 30633, ".Response": 12859, "\u0120loaded": 6799, "\u0120rer": 49647, "\u0120Tenant": 74824, ".Relative": 64563, "\u0120<=>": 72605, "uma": 13722, "\u0120trails": 33965, "\u0120\u00d0\u00b2\u00d0\u00be\u00d0\u00b7\u00d0\u00b2": 116409, "_Title": 73101, "\u0120\u00d9\u012a\u00d8\u00ac\u00d9\u012a\u00d8\u00af": 103447, "_if": 11366, "\u0120\u00ce\u00b1\u00cf\u0123\u00cf\u0129": 108603, "\u0120katk\u00c4\u00b1": 117059, "\u00d8\u00a7\u00d9\u0129\u00db\u012e": 112732, "correct": 20523, "d\u00c4\u00b1klar\u00c4\u00b1": 126754, "\u0120consolidate": 74421, "\u0120\u00d0\u00b0\u00d0\u00bc": 123527, "anical": 45983, "\u0120evaluations": 56181, "\u0120Ng\u00c3\u0142y": 114919, "Checkbox": 37694, "&amp": 28165, "\u0120POR": 58970, "\u00e3\u0124\u0123\u00e3\u0123\u00a6": 107436, "<<": 2501, "IZED": 52638, "footer": 7101, "England": 67308, "\u0120Recommended": 51762, "tau": 30243, "_gui": 47255, "\u0120perl": 57156, "\u0120Since": 8876, "ertainment": 11454, "OF": 12766, ".Access": 36745, "_anim": 59176, "yer": 27253, ".money": 61009, "_topics": 65458, "\u0120Pavel": 79369, "_strerror": 82544, "\u0120g\u00c3\u00a9n": 78422, "Call": 7368, "FIN": 17167, "cych": 74146, "\u0120fou": 57625, "\u0120bist": 78628, "\u00e3\u0123\u00a3\u00e3\u0123\u00a6\u00e3\u0123\u0126": 107462, "\u0120persona": 29055, "\u0120tenants": 41016, "\u0120\u00e6\u012b\u0122": 108182, "\u0120\u00d0\u00bc\u00d0\u00b8\u00d1\u0123": 115720, "\u00e3\u0123\u012a\u00e3\u0123\u00b0": 116285, "\u0120akci": 117755, "_reading": 82959, "zed": 16284, "(series": 71951, "(credentials": 86565, "Structure": 23807, "\u0120dinheiro": 97587, "_terms": 38598, "\u0120changing": 10223, "'\u00d1\u0131\u00d0\u00b7": 105254, "\u0120OPTIONS": 52380, "\u0120Const": 25538, "\u0120millet": 112455, "390": 15515, "service": 8095, "\u0120exceeding": 49005, "_every": 65148, "Posts": 20204, "\u0120heaven": 23070, "(ID": 19264, "acy": 2826, "LocalizedMessage": 99475, "\u0120bro": 2967, "\u00e5\u013e\u00a8\u00e7\u00ba\u00bf\u00e8\u00a7\u0128\u00e9\u00a2\u0133": 121189, "\u0120har": 4960, "\u0120sne": 21423, ".ba": 45169, "_INV": 41207, "\u0120HBO": 43978, "\u0120entitled": 20458, "\u0120Ethi": 45158, "\u0120\u00e5\u0128": 69839, "iple": 3863, "achers": 27618, "\u00ce\u00b5\u00ce\u00be": 113494, "\u00e3\u0123\u013f\u00e3\u0123\u0135": 110924, "\u0120LPC": 50175, "\u00d0\u00a7\u00d1\u0124\u00d0\u00be": 113264, "\u0120acres": 27464, "dry": 54310, "\u0120Raised": 54831, "\u0120membranes": 79348, ".localized": 61431, "\u00e5\u0126": 101268, "itar": 12635, "\u0120paren": 39040, "\u0120\\\"$": 66586, "\u00d0\u00bd\u00d1\u0138\u00d1\u0139": 126706, "\u0120looming": 65564, "createTime": 84286, "MESS": 28202, "\":\"": 3332, "Corn": 91641, "Alert": 9874, "manifest": 43415, "(of": 28125, "\u00d0\u00be\u00d0\u00b2\u00d0\u00b0\u00d0\u00bb\u00d0\u00b0": 127209, "hot": 10847, "ASN": 69234, "-breaking": 55407, "\u00e6\u00b3\u0137\u00e4\u00ba\u00ba": 122491, "\u00d9\u012a\u00d9\u012c": 101184, "\u0120\u00d0\u00be\u00d0\u00b1": 21923, "\u0120EF": 45090, "\u00e9\u0134": 38572, "apore": 18132, "\u0120computes": 58303, "\u00d0\u00b3\u00d0\u00b5": 114289, "\u0120horrific": 47322, "\u0120Marvin": 74626, "inine": 83334, "Mono": 60046, "\u0120genetics": 56104, "\u00d8\u00b2\u00d8\u00a9": 109019, "\u0120echo": 1722, "\u0120\u00d8\u00af\u00d9\u0124\u00db\u012e": 121008, "-an": 19415, "\u0120Deadpool": 94324, "\u0120Qatar": 43018, "\u0120v\u00c4\u013dn": 116019, "getExtension": 58960, "\u0120INTER": 30442, "\u0120\u00e8\u00af\u00b4": 127310, "\u0120Hong": 19730, "\u0120seaw": 67329, "\u0120\u00d1\u0129\u00d0\u00b5\u00d1\u0122\u00d0\u00b2": 111835, "\u0120mein": 42335, "\u0120fscanf": 69586, "\u0120\u00d9\u012a\u00d8\u00a7\u00d9\u0128": 120511, "verted": 22361, "\u0120IB": 12373, "Reason": 26197, "ETY": 69484, "}\u010a\u010a\u010a\u010a": 13549, ".Cryptography": 54958, "\u0120\").": 28610, "\u0120Tomas": 89036, "\u00c3\u00bcnde": 98410, "(length": 22081, "\u00cf\u0123\u00ce\u00bf": 100369, "\u00e8\u00b6\u00a3": 110999, "\u0120photograph": 10512, "=\"./": 27518, "charts": 37684, "chip": 30762, "\u00d0\u00b0\u00d0\u00bb\u00d0\u00b8\u00d1\u0123\u00d1\u012e": 105734, "Spe": 20298, "\u0120captured": 17439, "sehen": 66523, "(Job": 90192, "tura": 123910, "\u0120\u0120\u0120\u0120\u0120\u0120\u0120\u0120\u0120\u0120\u0120\u0120\u0120\u0120\u0120\u0120\u0120\u0120\u0120\u0120\u0120\u0120\u0120\u0120\u0120\u0120\u0120\u0120\u0120\u0120\u0120\u0120\u0120\u0120\u0120\u0120\u0120\u0120\u0120\u0120\u0120\u0120\u0120\u0120\u0120\u0120\u0120\u0120\u0120\u0120\u0120\u0120\u0120\u0120\u0120\u0120\u0120\u0120\u0120\u0120\u0120\u0120\u0120\u0120\u0120\u0120\u0120\u0120\u0120\u0120\u0120\u0120\u0120\u0120\u0120\u0120\u0120\u0120\u0120\u0120\u0120\u0120\u0120\u0120\u0120\u0120\u0120\u0120\u0120\u0120\u0120": 80971, "\u00c5\u013b\u00c3\u00a1d": 105738, "acional": 22326, "ley": 3258, ":@\"\"": 76406, "\u00ce\u00b6\u00ce\u00b7": 124406, "\u0120VIII": 58333, "ucchini": 86670, "\u0120distinctly": 71249, "\u0120Sist": 114901, "Custom": 10480, "\u0120Ops": 56258, "\u0120kas": 48756, "inerary": 52653, "(od": 93100, "\u0120Pleasant": 64912, ".offsetTop": 96398, "\u0120Pink": 27211, "\u0120Might": 34351, "KP": 66136, "Yu": 90510, "\u00c2\u0124": 104621, "\u0120\u00d8\u00a8\u00d9\u0129\u00d8\u00aa\u00d8\u00b1": 116322, "\u0120\u00e0\u00b8\u0143\u00e0\u00b8\u00a2": 109653, "\u0120Name": 4076, ");\">\u010a": 95005, "_calendar": 58765, "\u0120francouz": 122463, "\u0120lbl": 16826, "\u0120bedside": 96803, "freq": 34640, "\u0120nut": 10184, "\u00ce\u00b4\u00ce\u00b9\u00ce\u00bf": 108820, "\u00e6\u00bc\u0124": 125210, "\u0120\u00d9\u0124\u00d8\u00a7\u00d9\u0126\u00d8\u00a8": 120992, "\u00e0\u00b8\u00aa\u00e0\u00b8\u00b2\u00e0\u00b8\u00a1\u00e0\u00b8\u00b2\u00e0\u00b8\u00a3\u00e0\u00b8\u0138": 104204, "\u0120ludicrous": 90271, ".startActivity": 58431, "_ord": 68424, "\u0120Banner": 40714, "\u0120\u00e1\u00bb\u0141": 100788, "\u0120\u00e0\u00a4\u0137\u00e0\u00a4\u00b0": 100331, "-side": 25034, "\u0120lol": 28509, "&T": 31389, "_batch": 14876, "\u0120floral": 46119, "\u0120advance": 12178, "\u0120Devices": 41477, "\u0120strang": 47305, "_frac": 71458, "nonatomic": 10656, "ToSend": 81676, "_Price": 94334, "Replace": 23979, "\u0120interrogation": 66365, "_attachments": 99681, "_category": 12110, "\u0120Weiter": 74098, "\u0120upload": 8298, "\u00e5\u00bc\u013a": 119219, "\u0120abbrev": 40615, "\u0120WATCH": 48507, "\u00d1\u0128\u00d0\u00b8\u00d1\u0131\u00d1\u0127": 124447, "\u00d1\u0124\u00d0\u00b0": 44613, "erge": 10286, "Luckily": 96850, "\u0120v\u00e1\u00bb\u0131": 121259, "\u0120w\u00c3\u00a4h": 53467, "\u0120newValue": 25148, "rene": 48009, "\u0120dims": 41988, "\u00d8\u0143": 30925, "_CUBE": 93069, "ROLE": 37708, "\u0120Ya": 40484, ".exist": 52142, "\u0120Fellow": 37946, "545": 20749, "\u0120NotFound": 24312, "///\u010a\u010a": 48244, "\u0120M\u00c3\u00a4r": 85232, "\u0120Pant": 54222, "\u0120loosen": 83842, "=====": 47825, ".reactivex": 42092, "Ga": 81888, "\u0120Outline": 53009, "_MetaData": 76316, "ura": 5808, "covers": 56958, "\u0120\u00ed\u0137\u00a8": 52072, "\u00ec\u013e\u00b5": 123061, "\u0120Commentary": 73544, "\u0120kok": 90637, "egade": 96337, "%%%%%%%%": 9394, "ophile": 68546, ".jboss": 50214, "\u00e0\u00b8\u0140\u00e0\u00b8\u0143": 126098, "(JFrame": 86600, "isin": 58504, "_THREADS": 57339, "\u0120Nez": 127701, ".Rotate": 61110, "PDOException": 78761, ".coord": 75738, "simulation": 84872, "\u0120Floyd": 46899, "\u0120C\u00c6\u00a1": 116471, "chl": 68156, "igung": 43703, "\u00e5\u012c\u00a8\u00e7\u0136\u0141\u00e6\u012a\u0132": 79908, "]}</": 82236, "\u0120Bought": 78262, "\u0120plat\u00c3\u0143": 122285, "ewe": 88823, "\u0120pr\u00c3\u00b3xima": 91307, "_initial": 16186, "\u0120hurry": 48335, "\u0120\u00ec\u0140\u00ac": 102888, "vatel": 108017, "goog": 40958, "\u0120threaded": 67887, "azio": 57946, "\u00d8\u00b1\u00d8\u00a9": 101341, "_attr": 10639, "cpy": 7796, "\u0120\u00e0\u00a4\u0127\u00e0\u00a4\u00aa\u00e0\u00a4\u00a8": 100996, "ENABLE": 44828, "\u00ce\u00ba\u00ce\u00bb\u00ce\u00b7": 111144, "_gateway": 65149, "-push": 99743, "\u00e0\u00a5\u0122\u00e0\u00a4\u0131\u00e0\u00a4\u00b8": 116461, "\u0120diagnostic": 15439, "\u0120signify": 89522, "\u0120comforts": 97181, "svc": 59194, "\u00e2\u0122\u0140\u00d8\u00b8": 113316, "\u00e3\u0125\u00b3\u00e3\u0124\u00bf": 114483, "Configure": 29660, "\u00ed\u0128\u00a1": 113278, "orgen": 40663, "\u0120rescued": 45433, ".findBy": 40644, "\u0120\u00eb\u00b2\u0126": 87931, "_far": 68613, "\u0120sao": 104372, "\u00ce\u013b\u00ce\u0136": 119307, "\u0120salir": 79222, "notif": 86146, "rends": 79717, "\u0120Policies": 63348, "metal": 55108, "minate": 35116, "asure": 4058, ".wav": 30964, "mist": 80024, "\u00eb\u00a8\u00b9": 115595, "Laugh": 84967, "\u0120\u00d0\u0142\u00d0\u00b5": 127313, "\u0120ve\u00c4\u012fer": 120148, "\u00e5\u012f\u0129": 105062, "\u0120Eigen": 25059, "\u0109Server": 93175, "())),\u010a": 74827, "\u0120Erotic": 82942, "\u0120Balanced": 98209, "\u00e5\u0143\u0139\u00e5\u00b9\u0137": 118370, "\u0120\u00d1\u0131\u00d0\u00b9": 117935, "\u00d9\u012c\u00d8\u00ab": 105690, "\u0120maz": 126351, "EDIATEK": 49453, "\u0120N\u00c4\u013dm": 110537, "nos": 37491, "\u0120objections": 54111, "board": 2541, "YN": 25259, ".;": 16016, "\u0120lista": 14456, "erais": 81356, "\u00e5\u012a\u0128\u00e4\u00ba\u00ab": 94249, "\u0120Riley": 47935, "!..": 122604, "\u00e7\u00bb\u0126\u00e7\u00bb\u0129": 110063, "visa": 94633, "-image": 14064, "hotmail": 56554, "\u0120abide": 58299, "\u0120\u00d9\u012a\u00d9\u0124": 102791, "\u0120NM": 40814, "\u0120commerc": 95194, "agedList": 88865, "=:": 31590, "\u0120\u00d8\u00ac\u00d9\u0127\u00d8\u00b9": 104906, "\u00e3\u0122\u0123\u00e3\u0123\u013f\u00e3\u0123\u0128": 121906, ".html": 2628, "\u0120prosince": 118131, "_guest": 63839, "elo": 20782, "\u0120stretching": 42949, "\u0120writ": 2155, "(DIS": 75424, "OKEN": 13196, "_fc": 47606, "_sector": 63751, "<|reserved_special_token_84|>": 128089, "\u0120],\u010a": 3291, "_sizes": 33259, "\u0120anon": 75912, "\u0120Danh": 105398, "Override": 2226, "quisa": 59595, "\u00e0\u00a5\u012d\u00e0\u00a4\u0124": 100311, "\u0120\u00e6\u00be\u00b3": 124198, "Rew": 59565, "<Integer": 11619, "\u0120navegador": 96510, "\u0120bezpe\u00c4\u012f": 109728, ".df": 49478, "\u0120\u00e5\u013e": 54699, "_PART": 29378, "\u0120oceans": 54280, "\u0120unavoid": 78302, "\u0120s\u00c3\u0143": 45815, "\u0120getX": 76756, "\u0120pruning": 86292, "\u00d0\u00bf\u00d0\u00b5\u00d1\u0129": 104253, "polate": 46529, "\u0120\u00ea\u00b0\u0132\u00ec\u0124\u00ac": 117078, "_Header": 72453, "_cent": 33691, "`.\u010a\u010a": 63438, "\u00eb\u00a9\u013a": 127055, "\u0120prostitution": 50850, "\\R": 100237, "\u0109glColor": 85517, "\u00eb\u00a6\u00bc": 103338, "/packages": 74019, "232": 12338, "\u0120\u00e6\u012b\u0135": 126795, "German": 33179, "BufferSize": 53761, "\u0120endPoint": 70574, "\u0120Soy": 63103, "\u00e8\u00b0\u00a2": 109122, "_quit": 73524, "\u00e6\u012a\u013a\u00e6\u0138\u0139": 124018, "\u0120Odyssey": 66881, "\u0120Bat\u00c4\u00b1": 119937, ".Restrict": 91280, "AZ": 24476, "\u00e8\u00a6\u0123": 31634, "cken": 41288, "\u0120\u00d0\u00bf\u00d0\u00b5\u00d1\u0122\u00d0\u00b8": 105737, "\u0120\u00d1\u0122\u00d0\u00be\u00d0\u00bb\u00d1\u012e": 112549, "\u00ce\u00bb\u00ce\u00b5\u00ce\u00b9": 107978, "uales": 41852, "emperature": 94825, "\u00e3\u0122\u0123\u00e3\u0123\u013f\u00e3\u0124\u012e": 108048, ".firebaseapp": 100188, "\u0120elev": 12231, "\u00d3": 143, "\\models": 27198, "\u0120regain": 49655, ".Program": 81354, "_interaction": 98494, "\u0120pi": 9115, "\u0120Saves": 66667, "\u0120\u00d9\u0127\u00d8\u00b4\u00d8\u00a7\u00d8\u00b1\u00da\u00a9\u00d8\u00aa": 112782, "_\u010a": 13220, "\u0120disturbances": 85160, "\u0120forCellReuseIdentifier": 94956, "\u0120minWidth": 57198, "\u0120m\u00c4\u013dsta": 108015, "\u0120Nicholas": 40796, "\u0120t\u00c3\u00bck": 108822, "\u00d0\u0142": 34604, "TextEdit": 87875, "iciencies": 43690, "\u00eb\u0135\u00a4": 65950, "\u0120\u00d0\u00a3\u00d0\u00ba\u00d1\u0122\u00d0\u00b0": 114460, "\u0120\u00c4\u0132\u00e1\u00bb": 121533, "\u00d1\u0122\u00d1\u0125\u00d0\u00ba": 64478, "itemid": 85227, "aec": 72321, "\u0120afin": 54401, "\u0120nasal": 72188, "\u00e7\u00b6\u013c": 106307, "\u0120testers": 90819, "\u00d8\u00ae\u00d8\u00a7\u00d9\u0128\u00d9\u0129": 106573,
[...]
