{"hed": 42109, "\u0120investig": 4770, "istinguished": 80382, "$name": 47369, "\u0120forms": 7739, "\u0120whit": 34799, "Atomic": 66957, "ledon": 83557, "\u0120putchar": 90346, "\u00e7\u0137": 40198, "_resolver": 92678, "\u0120pillow": 43425, "\u0120Marseille": 88793, "adal": 51588, "_enter": 38580, "\u0120ts": 10814, "\u0120figures": 12678, "\u0120\");\u010d\u010a": 23145, "\u0120anticipate": 48248, ".main": 9056, "\u0120tolerate": 50134, "nesota": 17891, "\u0120Determines": 53812, "Stone": 46960, "\u0120slicing": 86015, "pic": 15959, "\u0120contributors": 20965, "\u0120Background": 25837, ".cc": 28912, "\u0109wait": 49850, "stellen": 59258, "LEV": 86511, "Tabs": 38085, ";z": 97812, "(opcode": 99447, ".setPreferredSize": 70883, "_DETAIL": 34005, ".py": 7345, "ci": 5979, "\u0120minded": 61267, "\u0120LogLevel": 64421, "Increase": 70656, "\u0120dabei": 50636, "\u0120git": 16749, "\u00c3\u00a1st": 56503, "\u00e6\u012d": 26955, "\u0120storytelling": 48929, "\u0120maps": 14370, "-mails": 61320, "\u0120palp": 75649, "/mainwindow": 82998, "\u0120...(": 86498, "-region": 61779, "HeaderCode": 98358, "eneric": 3553, "\u0120Kunden": 62391, "Version": 5755, "\u0120dads": 89861, "\u0120Palestine": 42034, "hdl": 91474, "\u0120p\u00c3\u00bab": 37005, "\u0120scalp": 65426, "\u0120displays": 19207, "\u0120abund": 23325, "umba": 71669, "\u0120lying": 21078, "\u0120YYYY": 61691, "propertyName": 63648, "\u0120FTP": 48650, "\u0120Jarvis": 99620, "Postal": 44900, "\u0120ning": 46607, "\u00ec\u013c\u0136": 36811, "\u0120optimizations": 82278, "\u0120dece": 31952, "\u0120happier": 44467, "\u0120Enumerable": 45225, "\u0120bers": 59654, ".telegram": 83903, "erie": 27197, ".getJSONArray": 85467, ".contentMode": 99405, "\u0109reader": 62577, "\u0120Christine": 46993, "\u0120KING": 74911, "\u00e9\u0139\u00ae\u00e9\u00a2\u013a": 87219, "(history": 57221, "\\a": 82145, "\u0120keyed": 91629, "\u0120Tough": 78154, "_attrib": 69887, ".'_": 63343, "ea": 12791, "\u0120Sinai": 79985, "\u0120nerve": 32015, "\u0120Grove": 41234, "::-": 41735, "llvm": 30142, "[col": 34622, "\u0120Betty": 56111, "(tableName": 62865, "\u0120szy": 92865, "\u0120paed": 95247, "\u0120superhero": 46244, "\u0120probes": 63610, "ernel": 5571, "\u00d0\u00be\u00d0\u00bd\u00d0\u00b0": 74828, "\u0120Pip": 78482, "able": 481, "Helmet": 88366, "\u0120Ej": 53858, "CHR": 68296, "\u0120\u0120\u0120\u0120\u0120\u0120\u0120\u0120\u0120\u0120\u0120\u0120\u0120\u0120\u0120\u0120\u0120\u0120\u0120\u0120\u010d\u010a": 46675, "\u0120Independence": 44177, "prot": 4490, "Ticks": 44884, "\u0120disasters": 51751, "(eval": 55563, "-worker": 66616, "\u0120nuit": 85434, "\u0120shoot": 6230, "_game": 19056, "\u0120\u00ef": 33595, "coes": 80950, "\u0120timeZone": 99864, "\u0120PARTICULAR": 7807, "te": 668, "/C": 11547, "(to": 12464, "\u0120Cow": 22607, "(...)": 48627, "\u0120coll": 4631, "018": 16745, "\u0120kp": 61419, "UNC": 12921, "\u0120Manifest": 40461, "deck": 34525, "\u0120Gel": 45482, "()]": 27654, "_FACE": 66213, "-liter": 86694, "anken": 90389, "\u0120theolog": 90602, "\u0120jedem": 95985, "ening": 6147, "\u0120[],": 10277, "/Open": 97762, "\u0120details": 3649, "'>\";\u010a": 40763, "\u0120cheap": 12136, "[\"": 1204, "ivet": 99754, ".getProperty": 21094, "\u0120STR": 12428, "oner": 27674, "\u00e3\u0123\u00a8": 19732, "\u0120d\u00c3\u00a4r": 78128, ".moveToFirst": 80253, ".Download": 62304, "\u0120\u00c5\u0141": 22841, "WHAT": 60960, "_TLS": 70167, "\u0109array": 12189, "\u0120skincare": 80705, "Mods": 82600, "\u0120Sesso": 54647, "\u0120expectations": 17078, "\u0120manipulated": 55315, "bellion": 86863, "\u0120fort": 12108, "\u0120tracked": 34156, "\u0120Dealers": 79289, "-encoded": 93362, "\u0120tp": 18593, "AINED": 86170, "\u0120langu": 83400, "\u0120showDialog": 76809, "\u0120writers": 16483, "\u0120velocidad": 99194, "role": 5898, "/template": 38194, "\u0120prostituer": 41024, "\u0120aggressively": 49139, "\u0120Compact": 55882, "\u00e3\u0123\u0126\u00e3\u0123\u00be\u00e3\u0123\u013b": 61689, "\u0120stag": 77536, "OLON": 91380, "ingredients": 39220, "\u0120lesbian": 25020, "\u0120THEM": 74803, ".quest": 99322, "?\"": 7673, "rov": 40494, "pieces": 47568, "\u0120MAD": 76473, "\u0120fieldName": 39638, ":NS": 24721, "\u0120Cameron": 27524, "\u00e7\u00bb\u0131": 54493, "[idx": 11858, "GRES": 92991, "\u0120################################": 55401, "\u0120Cars": 36231, "_EXCEPTION": 28385, "/issues": 39845, "\u00d0\u00bd": 2156, ":\\/\\/": 15685, "\u0120//}\u010a\u010a": 42137, "ukkan": 68304, "irit": 7051, "touches": 78053, "_requests": 38316, "\u0120chaos": 28013, "ichtet": 90830, "\u00ec\u0138": 28498, "\u0120exped": 31727, "\u0120Alb": 32672, ".space": 36983, "\u0120pains": 51266, "\u0120pick": 3820, "\u0120Supreme": 13814, "\u0120SERVICES": 26715, "Org": 43537, "-log": 47432, "\u0120puzzles": 47623, "(\"--": 22274, "ocurrency": 78580, "\u0120concentr": 17576, "\u0120entrar": 83413, "\u0120hare": 96018, "\u0120cram": 100181, "CallBack": 68373, "\u0120BB": 18772, "\u0120harmony": 26348, "usiness": 2108, "piring": 79863, "(origin": 46475, "\u0120Expr": 29919, "/native": 76287, "\u0120OWNER": 51278, "\u0120\"\")": 11962, "NewProp": 80582, "\u0120Programmer": 89124, "Therefore": 55915, "_USAGE": 58390, "SENT": 31758, "\u0120janvier": 94811, "\u0120things": 2574, "arl": 49358, "\u00e4\u00bb\u00b7": 51392, "quila": 75229, "\u0120bruises": 98675, "_tip": 49114, "\u0120Side": 17072, "Founded": 85973, "\u0120composite": 28814, "\u0120Ki": 30558, "\u0120Good": 7839, ":*": 54486, "\u0120initiatives": 28271, "Fuel": 71999, "aque": 20234, "\u0120ICMP": 85088, "\u0120allotted": 92643, ".toList": 36055, "\u0120role": 3560, "searchModel": 65684, "_expr": 22678, "\u0120fre": 3541, "\u0120excelente": 96507, "Below": 39314, "ungen": 11856, "For": 2520, "\u0120fetched": 42542, "rons": 26692, "Iterator": 12217, "_spin": 49065, "\u0120systematically": 60826, "\u0120pilgr": 55698, "niej": 61004, "\u0120subsid": 25905, ".GetFileName": 64666, "\u0120nextState": 70915, "\u0120parent": 2748, "\u0120performs": 27772, "\u0120Nombre": 48795, "(pdf": 86280, "143": 10290, "\u0120Squadron": 71172, "\u0120averages": 49920, "\u0120sondern": 52390, "\u0120/////": 65111, "Gam": 79984, "_LEAVE": 90841, "\u0120Nora": 73645, "architecture": 81519, "\u0120reviewing": 34988, "Bucket": 37118, "\u0120XF": 96790, "\u0120cuenta": 32195, "<v": 40397, "SpaceItem": 82748, "\u0120AMS": 98370, "Av": 10066, "\u0120indexing": 53080, "RE": 793, "/pg": 99334, "\u0120benchmark": 29531, "subset": 39353, "-Q": 29342, ".github": 11267, "\u0120RoundedRectangle": 78815, "\u0120\u00c2\u00bb": 8345, "Reading": 32999, "SnackBar": 55476, "\u00d0\u0142": 34604, "\u0120chance": 6140, "\u011c": 216, ",</": 91188, "PushButton": 34406, "feedback": 21674, "incess": 20141, "\u0120wo": 24670, "\u0120customerId": 68605, "\u00e5\u0122": 20022, ".desc": 31614, "\u0120Spread": 48816, "\u0120lookout": 72015, "\u0120nelle": 72864, "\u0120On": 1952, "\u0120nurse": 29198, "865": 24678, ",password": 57414, "ATO": 59208, "\u0120Down": 6419, "True": 2575, "(withIdentifier": 45411, "\u0120wors": 47293, "\u0120array": 1358, "\u0120Musk": 40638, "Thumb": 63799, "-fin": 85099, "\u0120Noah": 43084, ".structure": 68436, "\u0120Hp": 88933, "\u0120YM": 85545, "\u0120Brittany": 89254, "Entity": 3106, "\u0120everybody": 16470, "wi": 17043, "Gray": 29274, "_MEMBER": 38652, "\u0120UIB": 41647, "\u00e3\u0125\u0143": 42634, "\u0120setC": 86001, "\u0120repetitions": 86066, "\u0120}).": 8701, "\u0120nesting": 67810, "iore": 87107, "\u0120Unfortunately": 19173, "\u0120thermometer": 93297, "ough": 1409, ".Utils": 25071, "_REFER": 72010, "(SS": 94644, "\u0120requests": 7540, "currentIndex": 60414, "\u0120VC": 44595, "_UC": 81414, "\u0120exter": 55367, "\u0120treason": 79359, ".idea": 96172, "\u00c2\u0143i": 97282, "\u0120kh\u00e1\u00ba\u00a9u": 98710, "latitude": 24649, "lasting": 70529, "useum": 11768, "_AUT": 54816, "\u0120simplify": 40821, "\u0109S": 7721, "elp": 1290, "iere": 19380, "\u0120Bookmark": 56518, "\u0120Babe": 74448, "relude": 86168, "\u0120fran\u00c3\u00a7aise": 93424, "antasy": 98037, "UFACT": 92706, "\u0120Lounge": 50767, "\u0120Wyatt": 88562, "\"To": 66220, "<c": 64989, "\u0120Madame": 84276, "instr": 61611, "\u0120\u010a\u0120\u0120\u0120\u0120\u010a": 37945, "but": 8248, "\u0120strSQL": 81253, "\u0120RVA": 45696, "\u0120Lyme": 94216, "\u0120David": 6941, "ptune": 53014, "cancelled": 96382, "\u0120appealed": 53382, "\u0120opened": 9107, "(Be": 77960, "tabl": 74199, ".basicConfig": 69897, "\u0120SCT": 95385, "\u0120team": 2128, "ect": 440, "\u0120::": 3588, "\u0120Ref": 8718, ".Def": 51047, "-Javadoc": 50485, "emic": 8274, "\u0120Terrain": 63118, "/npm": 65020, "CONTACT": 74471, "\u0120worried": 18290, "\u0120defeating": 54216, "ENC": 16624, "<<<": 12889, "Port": 7229, "\u0120brush": 15998, "\u0120Kid": 32666, "\u0120qualifier": 61747, "/U": 63110, "\u0120QVERIFY": 67134, "\u0120legs": 14535, ">>;\u010a": 79043, "Perm": 82345, "icum": 86231, "\u0120plywood": 88998, "\u0120encountering": 92372, "Nuevo": 70853, "Specifies": 95627, "\u00e6\u013e\u00ac": 22656, "\u0120shar": 26708, "morgan": 97491, "\u0120Sandra": 56786, ":-------------</": 58508, "inks": 15872, "\u0120Observer": 35141, ".strictEqual": 45301, "GridView": 6176, "\u0120people": 1274, "\u0120technologies": 14645, "what": 12840, "gallery": 27297, ".up": 18119, "\u0120play": 1514, "extensions": 28709, "\u0120Robertson": 53596, "\u0120Essays": 56714, "352": 16482, "\u0120Retrieved": 58891, "\u0142\u0122": 64319, "\u0120trough": 79065, "\u0120nal": 85633, "DOMNode": 87840, "minimal": 93707, "Peer": 31988, "-il": 57375, "\u0120fellows": 87819, "unakan": 95204, "_transaksi": 96761, "_WATCH": 97109, "\u0120Wildcats": 97950, "]]\u010a\u010a": 43550, "\u0120'./": 2825, "\u0120cougar": 48191, "iben": 64336, "\u0120board": 4580, "_charge": 47108, "actually": 74128, "oundary": 73566, "ecessary": 20726, "\u0120bestellen": 98891, "abilit\u00c3\u00a9": 87782, "dataProvider": 36598, ".MM": 54538, "working": 21837, "_VISIBLE": 58289, "\u0120ense": 68061, "VersionUID": 24111, "loo": 48233, "\u0120EACH": 95513, "\u0120its": 1202, "bird": 23414, "\u0120drawings": 38940, "ublished": 11931, "\u0120affine": 69909, "004": 8759, "pletely": 50268, "\":-": 53152, "aar": 74709, "\u0120floatValue": 82613, "\u0120DOMAIN": 85686, "[Z": 86213, "\u0120INCLUDING": 16480, "reveal": 95126, "\u0120preventative": 97420, "maintenance": 99178, ".vel": 56810, "corev": 99745, "[res": 95490, "\u0120Contrib": 24052, "Normalized": 80182, "\u0120criminals": 32638, "atica": 54397, "\u0120MF": 39354, "\u0120GUILayout": 47529, "\",__": 79527, "\u0120Adresse": 90570, "optimizer": 34396, "\u0120influenza": 62937, "SKI": 82645, "blockquote": 49875, "\u0120Keys": 25104, "Jobs": 41767, "\u0120\u00d0\u00b2\u00d1\u012d\u00d0\u00b1": 63229, ".rcParams": 84186, "\u0109cont": 93491, "(Boolean": 41069, "[method": 94845, "taskId": 81788, "\u00d8\u00af\u00d9\u012c": 80920, "icense": 1574, "ishly": 65923, "\u0120___": 7588, "urred": 8293, "\u0120FilePath": 63803, "\u0120CharSet": 68091, "\u0109btn": 44121, "gran": 68163, "\u00e0\u00b9\u0125": 70967, "jours": 40906, ".addTo": 62192, "\u0120AFTER": 49364, "Slider": 22226, "\u0120Publications": 62770, "_energy": 35895, "\u0120Algebra": 77543, "_SHADER": 46263, "355": 17306, "\u0120venez": 75090, ".cgi": 60114, "188": 9367, "\u0120parseInt": 13187, "ured": 3149, "\u0120firm": 7626, "isplay": 2369, "\u0120emphas": 20654, "\u0120infected": 29374, "ocom": 12255, "urious": 28626, "\u0120injection": 26127, "\u0120slept": 46498, "-module": 47818, "@Configuration": 59546, "\u0120Devin": 81092, "\"\"\u010a": 90362, "\u0120Prefix": 57583, "\u0120scanner": 21438, "spr": 52773, "\u0120strtoupper": 61540, ".rest": 22113, "InOut": 64365, "\u0120een": 8517, "\u0120ADS": 65335, "\u0120Medieval": 78248, ".DecimalField": 87497, "================================": 3134, "LANGADM": 76371, "\u00d8\u012e": 69885, "[date": 88105, "\u0120Parl": 95987, "\u0120Lights": 35270, "\u0120weaken": 33556, "\u0120yelled": 56177, "gcc": 72083, "_HEAD": 29090, ".AutoScaleMode": 19986, "\u0120Hitch": 71464, "\u0120Dis": 4185, "_REFERENCE": 21805, "Maintenance": 93835, "\u0120STOCK": 83751, "atement": 5722, "Std": 23586, "olan": 38872, "\u0120Candidates": 65538, ".isTrue": 83626, "\u0120Oval": 56789, "Culture": 26896, "uerdo": 53570, "\u0109global": 19373, "\u0120\u00d0\u00b4\u00d0\u00be\u00d0\u00bb\u00d0\u00b6": 56449, "\u0120__": 1328, "coded": 66630, "oding": 3785, "\u0120functionalities": 93180, "\u0120Merry": 77801, "\u0120this": 420, "Framework": 15181, "\u0120typo": 86205, "lag": 13667, "Years": 55519, "_base": 7806, ".make": 10325, "\u0120Birthday": 37340, "\u0120'\"": 7273, "\u0120plethora": 68706, "\u0120kitten": 77757, "\u0120altern": 7064, "\u0120Associates": 40201, "\u0120Alpine": 82813, "successful": 32050, "\u0120Dolphins": 54812, "Be": 3513, "\u00c3\u00b6l": 50902, "\u0120Hai": 63782, "\u0120Labrador": 80376, "acios": 80945, "Refs": 83907, "\u0120showroom": 87235, "\u0120Terra": 50526, "arians": 30627, "\u0120army": 13695, "OPER": 47465, "\u0120compounded": 88424, "Flutter": 98344, "BackgroundColor": 30646, "\"'": 21230, "aster": 2352, "\u00e2\u0122\u0136that": 41128, "('_',": 77794, "\u0120tort": 16831, "\u0120partnerships": 40705, "\u0120Theo": 85237, "\u0120Trades": 96880, "\u0120Mistress": 97129, "\u0120denen": 70607, "\u0120presidential": 13621, "\u0120Job": 12280, ".layers": 21680, "\u0120domains": 31576, "\u0120degradation": 53568, "\u00e4\u00bc\u0123": 98897, "\u0120Holl": 25518, "pm": 5298, "-bs": 57530, "employees": 35639, "\u0120Obl": 56875, "'])->": 34091, "\u0120Box": 8425, "-ca": 51877, "getPost": 66097, "akeFromNib": 70829, "\u0120Hospital": 15429, "apgolly": 65507, "uma": 13722, "unte": 11066, "\u0120redirected": 50028, "/session": 55860, "\u0120debido": 91992, "ander": 8363, "ertos": 68219, "loops": 83551, "\u0120jams": 90398, "ainties": 62124, "\u00e4\u00bd\u00bf\u00e7\u0136\u00a8": 38129, "\u0120currents": 60701, "\u0120panc": 54574, "739": 25809, "\u0109cursor": 57048, "arc": 8362, "\u0120OCT": 67277, "etu": 95517, "\u0120regime": 17942, ")},\u010a": 40881, "\u0120Milano": 75967, "inbox": 85799, "\u0120accompanies": 49156, "FM": 26691, "elsius": 41347, "Twitter": 25904, "ippines": 65006, "\u0120init": 3003, "_input": 6022, "\u0120Duel": 58294, "MOVE": 30216, "jango": 5970, "\u0120IMD": 78363, "Officers": 82618, "\u0120Ironically": 94980, "peng": 64183, "Orig": 63826, "tea": 82694, "\u0120bankers": 64243, "\\Context": 97626, "CESS": 5359, "\u0120mis": 5906, "\u0120Exception": 4204, "_tv": 47232, "promo": 76565, "@Xml": 60188, "question": 7998, ".classes": 44097, "\u0120cooler": 36921, "\u0120Skeleton": 67033, ",input": 55444, "\u0120c\u00e1\u00bb\u00a7a": 60835, "\u0120wrappers": 79194, "\u0120macro": 18563, "856": 25505, "\u0120And": 1628, ".jupiter": 28484, "\u0120enum": 7773, "itle": 1017, "\\Active": 44781, "\u0120User": 2724, "\u0120cash": 8515, "\u0120EditorGUILayout": 53922, "\u0120Retrofit": 58498, "_PROVIDER": 63642, "\u0120reef": 71145, "wang": 71652, "nelly": 87731, "\u0120immediate": 14247, "\u0120weblog": 94398, "\u0120buckets": 43212, "Fault": 59880, "EXPR": 99610, "-fiction": 74531, "Without": 27131, "cue": 32824, "tile": 21774, "spy": 29291, "_cloud": 38456, "\u0120lig": 29413, ".spy": 56216, "!!\u010a\u010a": 25833, "_SPEC": 37536, "\u0109glVertex": 40752, "\u0120Cuban": 44810, ".userData": 68947, "\u00eb\u0124\u00b4": 96318, "\u0120AssemblyTrademark": 96927, "\u0120guarda": 98485, "\u0120deaf": 47842, "\u0120deputy": 27158, "\u0120claw": 57590, "changing": 52813, "\u0120Sea": 15379, "\u0120-->": 3929, "\u0120guitar": 17418, "\u0120setattr": 62214, "\u0120partnership": 15664, ".files": 20881, ".browser": 39711, "ogn": 4021, "\u0120definitive": 45813, "........................": 57341, "\u0120chewing": 75477, ".MATCH": 80458, "\u0120dept": 45693, "\u0120\u0120\u0120\u0120\u0120\u0120\u0120\u0120\u0120\u0120\u0120\u0120\u0120\u0120\u0120\u0120\u0120\u0120\u0120\u0120\u0120\u0120\u0120\u0120\u0120\u0120\u0120\u0120\u0120\u0120\u0120": 1408, "longitude": 26524, "\u0120absorbed": 42101, ".kotlin": 45730, "_VALIDATE": 65027, "\u0120slideshow": 65547, "_country": 29206, "/shop": 62977, "####\u010a": 71050, "\u00d0\u00be\u00d0\u00b1\u00d0\u00b0\u00d0\u00b2": 36960, "variants": 55711, "-design": 47117, "\u0120\"\");\u010d\u010a": 52594, "\u0120realm": 22651, "().'": 47130, "\u0120dej": 34063, "iciar": 73551, "(adapter": 43634, "\">\u010a\u010a": 7879, "CRET": 23352, "\u0120Access": 9742, "\u0120quel": 26077, "\u0120terrace": 52578, ".mar": 57248, "\u0120choix": 60020, "_UL": 77328, "_performance": 85933, "\u0120grinned": 88379, "anticipated": 93878, "IfExists": 41332, "\u0120sinks": 58052, "\u0109def": 7604, "\u0120\u00ec\u0140\u012a\u00eb\u012c\u0136": 65621, "','#": 63275, "/reference": 66880, "\u0120ROUND": 77238, "\u0120Lifestyle": 69256, "Oper": 5611, "$/,": 67524, "(pts": 85021, ".Debugf": 89378, "\u0120prenatal": 97128, "\u0120hardware": 12035, "\u0120municip": 20188, "\u00c5\u0124aw": 98348, "(<": 23561, "\u0120Require": 25011, "stitial": 49270, "\u0120(:": 30354, "\u0120Cher": 56207, "\u0120danske": 56853, ".Build": 26277, "Framebuffer": 59638, "\u0120subclasses": 69283, "\u0120ModelRenderer": 82110, "\u0120Spot": 24178, "]=$": 68651, "\u0120parl": 44314, "tram": 99040, "Thr": 99940, "_duration": 26532, "\u0120Entered": 76075, "Digital": 39212, "\u0120LDAP": 57479, "\u00e6\u012e\u012b\u00e9\u0134\u00ae": 85284, ".Height": 18215, "\u00e5\u0130\u0128": 82302, "\u0120fostering": 86644, "\u0120Tune": 75274, "\u0120Stard": 98928, "\u0120Ble": 39285, "ansk": 41874, "\u0120Centers": 41991, "eda": 14151, "\u0120Japanese": 11002, "\u0120scoring": 20413, "aily": 5179, "\u00c2\u00ab": 24633, ".dy": 46005, "\u0120nudity": 92472, "\u0120NI": 42601, "Allowed": 36482, "BYTES": 98949, "subject": 11760, ".mu": 49930, "freeze": 52738, "Aside": 71088, "\u0120evac": 30520, "\u0120Activities": 44382, "\u0120nilai": 84467, "ANC": 27267, "ulen": 95311, "ustr": 3497, ".dec": 29120, "\u0120educators": 50794, "getConfig": 53636, "\u0120foram": 55634, "_database": 28441, "\u0120gluten": 38455, "\u00e4\u00bb\u00bb": 49988, "\u0120Corona": 61329, "Nickname": 76008, "\u0120Caf\u00c3\u00a9": 66771, "curve": 51151, "\u0120Wants": 78578, "\u0120mund": 41666, "\u0120miniature": 57863, "\u0120foliage": 80105, "\u0120pesticide": 84673, "\u0120angrily": 87625, "akash": 95095, "\u0120rewritten": 59624, "%\u010a\u010a": 15804, "\u0120comforts": 97181, "\u0120initiator": 99140, "\u0120})\u010d\u010a": 26906, "Vectors": 85844, "\u0120homic": 38063, "\u0120Alerts": 69408, "AN": 1111, "\u0120Sequelize": 33140, "\u0120Westminster": 48043, "ampo": 54830, "Gtk": 46203, "\u0120servi": 55505, "/story": 79489, "_org": 36683, "ricks": 78889, "\u0120Load": 9069, "illation": 67184, "runs": 54410, "'/": 20788, "\u0120oracle": 53841, "creen": 2240, "\u0120neon": 47752, "\u0120Fist": 82519, "`);\u010a": 21274, "\u0120Chambers": 65276, "\u0120invokingState": 88941, "\u0120exquisite": 59708, "------+": 62347, "\u0120crucial": 16996, "\u0120favour": 12617, "FB": 16606, "formik": 77707, ".Options": 22968, "E": 36, "Printer": 46760, "enemy": 28928, "\u0120keywords": 21513, ".warning": 29936, "\u0120symbols": 18210, "antly": 18007, ".balance": 40178, "_redirect": 31143, "\u0120ttl": 55032, "\u0120\u00e5\u012f": 67621, "_configure": 76987, "\u0120dangers": 37064, "urrence": 21201, "ENTER": 13143, "\u0120Hat": 22050, "\u0120career": 7076, "\u0120Collective": 60018, "\u0120radix": 76758, "\u0120laboratory": 27692, "\u0120gent": 16265, "\u0120linebacker": 48800, "Credits": 70439, ".ser": 81017, "Michelle": 83862, "yntax": 13976, ".tech": 64604, "ittings": 53359, "\u0120Pension": 81557, "\u0120Tablets": 85482, ".ReactNode": 99385, "ENCE": 10360, "(operator": 80191, "Here": 8586, "-vesm": 95073, "URING": 88355, "/**\u010d\u010a": 7686, "FilePath": 19634, "Song": 34139, "\u0120praise": 29488, "_cond": 25437, "&P": 43945, "\u0120collectors": 52548, "iente": 13140, ".sensor": 68298, "Seven": 60628, "\u0120Sanford": 95141, ".globalData": 77730, "_mac": 23647, "hb": 50139, "gorith": 6191, "\u0120ur": 4433, "-delete": 42004, ".am": 13904, "roscope": 90879, "\u0120columns": 8310, "\u0120downt": 41657, "\u0120MSI": 68498, ".addWidget": 35373, "\u0120overcoming": 74017, "_EXIT": 35109, "\u0120Petite": 88083, "\u0120discovers": 52114, "!(\"": 17667, "\u0120effort": 5149, "CollectionView": 78472, "\u0120Honey": 40715, "\u0120trains": 28788, "\u0120QVector": 55355, "\u0120\u00d9\u0126": 57894, ".Top": 18016, "_constraints": 61367, "undles": 50304, "\u0120Oaks": 75356, "\u0120desks": 76915, "Construct": 29568, "\u0120Logistic": 79168, "\u0120'.'": 25360, "\u0120ITV": 94455, "\u0120agreement": 9306, "Descending": 48356, "\u0120seznam": 95968, "IB": 3336, "_comments": 31459, "\u0120Bones": 72399, "-hot": 60547, "\u00e2\u0122\u013eFor": 75550, "Returning": 85914, "\u0120isi": 96495, "\u0120drawers": 62707, "\u0120Kapoor": 82469, "\u0120confinement": 66678, "\u0120harmed": 69525, ".configure": 22052, "_prefs": 87530, "PAGE": 38474, "\u0120Logs": 55670, "\u0120sewer": 63020, "\u0120haircut": 86824, "nection": 1859, "\u0120Best": 7252, "\u0120\u00d8\u00a3": 64515, "TCHA": 71258, "\u0120billed": 50546, "665": 23467, "ricia": 46291, "\u00ef\u00bc\u0141\u00e2\u0122\u013f": 82364, "know": 33134, ">\u010d\u010a": 1459, "inand": 76831, "\u0120provincia": 79926, "\u0120TO": 5257, "\u0109\u0109\u0109\u0109\u0109\u0109\u0109\u0109\u0109\u0109\u0109\u0109\u0109\u0109\u0109\u0109": 28019, "\u0120munch": 99345, "\u0120Sofa": 61948, "\u0120fights": 28533, "\u0120cosmos": 83645, "#aa": 85521, "\u0120bulletin": 75829, "\u0109lines": 79490, ":',\u010a": 44455, "\u0120panels": 21988, "\u0120coeffs": 80272, "InputGroup": 74814, "\u0120lr": 28159, "\u0120somewhat": 14738, "_analysis": 43782, "\u0120Valk": 86262, "KeyCode": 76533, "-rock": 80437, "phoon": 78149, "ance": 685, "\u0120Performance": 21304, ".Manifest": 73372, "/')": 79764, "}`;\u010a\u010a": 73864, "_blob": 47008, "\u0120ferr": 58139, "\u0120Rag": 51359, "\u0120binnen": 84085, "RNA": 31820, "-content": 6951, "-desktop": 80349, "NSBundle": 58388, "uilt": 11476, "DESCRIPTION": 46533, "_Content": 79483, "\u0120Ade": 63140, ")->": 4085, "\u0120expense": 20900, "\u0120Cran": 67530, "\u0120ipsum": 27439, "\u0120lineNumber": 60041, "\u0120Markdown": 74292, "\u0120complying": 89506, "department": 28414, "polator": 58836, "\u0120graz": 51933, "\u0120#\"": 56150, "544": 21239, "AVOR": 70216, "\u0120eyebrow": 84416, "(branch": 78962, "):(": 78510, "\u0120\u0120\u010a\u0120\u0120\u0120\u0120\u010a": 78887, "_LESS": 91764, "316": 15340, "\u0120concession": 69573, "$lang": 12645, "476": 22191, "\u0120trait": 18027, "_title": 6240, "_unset": 99209, "Bruce": 79579, "\u0120thaw": 86478, "\u0120food": 3691, "Available": 16892, "\u0120dance": 15612, "/kg": 45870, "abajo": 74368, ".`);\u010a": 89757, "placing": 49033, "\u0120SES": 92850, "\u0120dawn": 39493, "\"]\u010a": 7171, "OURCE": 13377, "\u0120Raid": 33800, "\u00e9\u0122\u012b": 31867, "OutOfBoundsException": 65909, "\u0120Hier": 39847, "\u0120Lies": 78186, "\u0120Largest": 84419, "\u0120publication": 17009, ",\"": 1359, "eral": 3333, "\u0120vigor": 56022, ".au": 31877, "\u0120GENERAL": 53412, "\u0120Blackjack": 88192, "\u0120Newtown": 92929, "once": 13486, "\u0120Christie": 44406, "\u0120procession": 84814, "\u0120organisms": 44304, "\u0120\u00e6\u0138\u0129": 54140, ".at": 6990, "isan": 17570, "alan": 33383, ".firstChild": 51006, "]]:\u010a": 84420, "\u0120Practice": 28082, "\u0120Lumia": 92451, "\u0120Unknown": 22435, "\u0120Raspberry": 48665, ":utf": 56122, "ertext": 38320, "-proxy": 84801, "\u0120bott": 11176, "Downloading": 77117, "\u0120grabbed": 30418, "\u0109List": 10904, "TableWidgetItem": 75193, ",:),": 56078, "NTAX": 79321, "nero": 70052, "little": 56492, "\u00a2": 95, "\u0120fundamentals": 57940, "\u0120applause": 64626, ".Slf": 72114, "che": 1557, "ieval": 32986, "clo": 33678, "\u00c3\u013c": 71594, "\u0120defiant": 87371, "-ie": 88427, "\u0120Glob": 63388, "_rooms": 77137, "\u0120Wolves": 64579, "\u0120Blocked": 65096, "_ce": 51827, "NESS": 7415, "_suite": 58339, "\u0120durations": 90204, "=\"?": 53493, "(dAtA": 79652, ").\u010d\u010a": 33698, "\u0120Constructor": 17204, "Mot": 61032, "\u0120chaining": 74762, "\u0120dime": 74953, "\u0120Thief": 86698, "ogenous": 53595, "STDOUT": 90596, "LEEP": 44390, "\u0120CTRL": 53586, "LOCK": 8204, "\u0120cocos": 79192, "\u0120grandi": 90874, "prevent": 93755, "[])": 16170, "Interactive": 72786, "Louis": 67215, "DateFormat": 17022, "valueOf": 94113, "^.": 40496, "\u0120nominal": 47855, "\u0120assurances": 85145, "\u0109w": 6831, "ickt": 72080, "_Register": 74224, "\u0120Pad": 26367, "\u0120AppCompatActivity": 25096, "\u0120Minimum": 32025, ".jdesktop": 78175, "Bed": 16061, "reed": 29616, "]\");\u010a": 38489, "\u0120Swansea": 78903, "\u0120m\u00c3\u00a9todo": 58609, "---------\u010a": 29547, "(UnityEngine": 44449, "\u0120unbe": 66671, "ewing": 79510, ".checkNotNull": 98309, "\u0120Borrow": 79047, "PLICATION": 19366, "|[": 75823, "-collar": 97936, "\u0120grain": 24875, "CharCode": 64963, "\u0120transform": 5276, "\u0120recur": 64648, "ended": 2954, "ificado": 48238, "tsky": 82336, "\u0120Arduino": 47769, "\u0120norms": 40851, "Deal": 73941, "\u0120fireEvent": 77855, "\u0120Chronicles": 66416, ".ov": 94250, "\u0120Batch": 35004, ")>\u010a": 77008, "\u0120transitioning": 73194, "_ADMIN": 31560, "essel": 36648, "\u0120tipped": 66472, "asher": 34867, "\u0120equipment": 7241, "\u0120ya\u00c5\u0141": 84668, "_air": 51927, "grant": 52727, "\u0120d\u00c3\u00a9": 7591, "\u0120Pent": 23458, "\u0120:\"": 35738, "redits": 30602, "\u0120algae": 68951, "ListItem": 19583, "Arg": 2803, "ishes": 21168, "\u0120serum": 41529, "-create": 40779, "\u0120attackers": 42065, ".execSQL": 66151, "\u0120dost": 49415, ".Uint": 72969, "\u0120Hartford": 73220, "cheon": 76269, "-exp": 18882, ".relu": 41379, "GENCY": 88774, "\u0120molecular": 31206, "\u0120merger": 47112, "CreatedBy": 92263, "\u0120FIG": 38699, "\u0120MAR": 38599, "\u00e9\u00a6": 46065, "\u0120Kang": 55376, "rastructure": 10527, "\u0120bribery": 93137, "\u0120komm": 94788, "r\u00c3\u00a5": 98021, "\u0120trillion": 32610, "\u0120constructing": 50453, "?(:": 57982, ".trailingAnchor": 89996, "13": 1032, "Trying": 56962, "\u00e2\u0122\u013eOne": 99799, "\u0120SUMMARY": 96885, "Mayor": 86674, "ubic": 42281, "\u0120eventType": 59651, ".mock": 15418, "\u0120POLIT": 84320, "\u0120\"~": 52369, "\u0120silhouette": 57827, "/bower": 86156, "\u0120capital": 6864, "ipsoid": 97421, "\u0120eql": 68476, "\u0120vedere": 88845, "IData": 82636, "\u0120inventive": 92032, ".streaming": 85058, "-Type": 11038, "\u0120tcb": 94279, "482": 21984, "is\u00c3\u00a9": 69068, "\u0109update": 28274, "hover": 18043, "\u00ef\u00bd\u00a5": 58246, ".Modified": 55532, ".XtraBars": 43740, "\u0120ju": 10479, "itorio": 97086, "_SECONDS": 76451, "\u0120para": 3429, "SessionFactory": 64315, "(tf": 20511, "\u0120contiene": 81533, ".handle": 10341, "\u0120\"${": 11094, "-inc": 86719, "\u0120Evaluation": 40388, "reply": 21710, "\u0120ea": 37646, "\u0120Ball": 13131, "\u0120Padding": 23889, "\u0120redistrib": 8873, "\u0120Nixon": 42726, "\u0120Jamaica": 57275, "-IN": 81121, "\u0120scar": 23087, "adar": 37180, "PTS": 74793, "_UNDER": 93714, "\u0120modo": 34437, "\u0120digitalWrite": 65897, "\u0120gadgets": 54475, "_SPE": 89555, "kal": 36641, "\u0120webinar": 63660, "_VE": 90468, "\u0120RESP": 46577, "_vocab": 53923, "\u0120limite": 71080, "outfile": 60725, "NW": 70314, "\u0120casc": 76057, "\u00c4\u00b1kl": 91166, "Jets": 73717, "function": 1723, "Nintendo": 87079, "_aes": 92058, "\u0120recebe": 97830, "atio": 6400, "\u0120-:": 53273, "NewItem": 97051, "\u0120initWith": 14186, "\u0120HUD": 49696, "\u0120Paid": 55182, ".swagger": 45654, "Output": 5207, "[p": 11661, "\u0120league": 10966, "\u0120Galaxy": 20238, "signature": 35240, "\u0109namespace": 57723, "(space": 61804, "beeld": 80031, ".del": 34112, "/event": 41863, "\u0120hijo": 81145, "\u0120Farm": 18945, "sku": 41029, "\u00c3\u00bcsseldorf": 86135, "=\\\"/": 99285, "\u0120inning": 46386, "\u0120arresting": 84866, ".nodeName": 67108, "\u0120Beautiful": 20055, "\u0120shoppers": 49835, "\u0120xls": 97678, "boolean": 6245, "\u0120agriculture": 30029, "_paint": 93384, "Earn": 96359, ".Mouse": 19714, "enth": 21341, "\u0120rankings": 33407, "\u0120Computes": 66075, "(bc": 97155, "\u0120spons": 13769, ".crypto": 45223, "\u0120Magnus": 74899, "\u00e3\u0125\u00bc\u00e3\u0125": 25005, "\u0120fs": 8789, "QUIRES": 87888, "\u0120}\u010a": 457, "\u0120Ark": 22791, "\u0120rolled": 23255, "Pure": 58713, "eways": 70371, "abus": 58641, "\u0120//.": 64129, "fi": 10188, "usz": 70491, "/ec": 74158, "\u0120nanop": 76307, ".getPrice": 76356, "\u0120rebuilding": 56228, "\u00c3\u00a4\u00c3\u00a4": 43543, "orch": 22312, "\u0120GTK": 38479, "\u0120newState": 37948, "sources": 40751, "<hr": 44763, "efs": 45062, "-runner": 84156, "\u0120Osc": 56736, ".experimental": 88547, ".NOT": 41520, "\u0109Expect": 37011, "\u0120ASCII": 40416, "\u0120imply": 34608, "\u0120RUNNING": 98777, "\u0109Address": 99190, "\u0120PUSH": 71609, "_Up": 89525, "nation": 99895, "\u00e7\u00bd\u00ae": 22324, "_ver": 27133, "\u0120Cristina": 100214, "\u0120ai": 16796, "\u0120seaborn": 95860, "aled": 5962, ".Convert": 37279, "\u0120Lunch": 56699, "_THROW": 44997, "\u0120freshwater": 80744, ".Throw": 74472, "\u0120Half": 26924, "_AC": 15868, "_SF": 85779, "\u0120autorelease": 75666, "olio": 73267, "%X": 91289, "785": 22539, ";}\u010d\u010a": 40628, "\u0120fearless": 93111, "mate": 18543, "\u0109NS": 50000, "Tk": 76392, "\u0120FOX": 45288, "\u0120Homer": 66805, "\u00d9\u0126\u00d8\u00a7": 82070, "\\Mail": 78232, "OW": 3387, "\u0120funciones": 84512, "\u0120creeping": 88692, ".train": 20226, "Blocks": 30904, "\u0120Dort": 59716, "_coin": 76818, "\u0120\"/\"\u010a": 81555, "Che": 27941, "\u0120spd": 82562, "providers": 48387, "_quota": 98193, "\u0120victim": 11996, "=============": 36466, "\u0120>::": 34913, "\u0120Rico": 34248, "ylv": 15095, "\u0120electr": 43906, "LEM": 51864, "DataAdapter": 34614, "Could": 13191, "acz": 42930, "\u0120spaces": 12908, "=array": 25546, "\u0120UE": 31088, "\u0120provide": 3493, "\u00d0\u00bb\u00d1\u0131\u00d0\u00b5\u00d0\u00bc": 67768, "\u0120gov": 48725, "Percent": 33110, "moth": 68504, "aclass": 68628, "eligible": 69150, "__.": 19247, ".Scanner": 33198, "\u00c3\u00bablica": 69174, "SAN": 69791, "\u0120deployments": 72642, "PING": 74367, "\u0120Serious": 74596, "rolley": 75143, ".CurrentRow": 76621, "\u0120comparisons": 36595, "\u0109parser": 56904, "/logging": 81174, "_filled": 91692, "/service": 35286, "prech": 62331, "Tre": 66875, ".loggedIn": 93516, ")data": 65534, "\u0120Herbert": 58463, ":B": 82368, "bench": 28122, "\u0120socket": 7728, "pq": 65116, "\u0120browsing": 32421, "\u0120YELLOW": 82376, "Authenticate": 100187, "\u0120Delicious": 85788, "\u0120Merch": 66125, "Traffic": 88329, "Viewport": 35659, "\":[\"": 37899, "\u0120GtkWidget": 67208, "\u0120TempData": 82067, "ocache": 86772, "(letter": 66772, "\u0120epilepsy": 70655, "/el": 89758, "qx": 89835, "\u0120anew": 93392, "\u0120throwError": 81880, "-wrapper": 17844, "\u0120Tanzania": 69894, "\u0120Smy": 94502, "\u0120Engines": 95418, "\u0120Huckabee": 97184, "\u0120Searching": 80993, "\u0120ISSN": 87786, "\u0120discour": 34293, "\u0120youngster": 83371, "translation": 3129, "nonatomic": 10656, "\u0120Sections": 60137, "SHORT": 89018, "_session": 12596, "InterruptedException": 37785, "?,?,": 40659, "'e": 48968, "\u0109tv": 93910, "\u0120Tubes": 95470, "Listener": 2811, "\u0120K\u00c3\u00b6": 65994, "roperty": 8382, "\u0120vent": 10594, "Mount": 16683, "\u0120Fiscal": 64072, "_literals": 50743, "Massage": 88155, "HTTPRequestOperation": 94887, "\u0120Mask": 20519, "every": 30115, "\u00e1\u00ba\u00a1i": 38159, "Bindable": 71497, "\u0120prima": 36413, "\u00e2\u013b\u0122\u00e2\u013b\u0122": 40785, "use": 817, "\u0120enim": 60602, "-note": 68338, "\u0120Shopify": 96125, "\u0120prise": 85424, "362": 18509, "\u0120inert": 81073, "\u0120laptop": 21288, "\u0120tbsp": 64975, "ucch": 71666, "\u0120Kong": 18711, "mai": 77585, "Ben": 25584, ".seek": 39279, "\u00e2\u0122\u0136is": 55434, "\u0120Mog": 61021, "ndon": 86452, "\u0120responseBody": 99165, "\u0120Bucc": 79347, "Regressor": 94239, "_patches": 99619, "\u0120iar": 88821, "\u0120Baldwin": 56018, ".Services": 20690, ".Expression": 51457, "\u0120metavar": 52318, "\u0120cushion": 45738, "accent": 78648, "/&": 84472, "\u0120snatch": 85660, "\u0120assass": 26816, "isk": 3267, "\u0120Check": 4343, "odox": 31162, ".Notification": 50429, "Decoration": 19996, "quotes": 54382, "-hours": 77105, "uegos": 87306, "\u0120----------": 44889, "\u00e2\u0122\u013e\u010a\u010a": 93446, "ensex": 96636, "lfw": 97206, "\u0120Bosch": 72325, "\u00d0\u00bd\u00d0\u00be\u00d0\u00bc": 94962, "\u0120enlist": 88724, "\u0120paginate": 83074, "[Double": 64557, "\u0120moth": 98178, "\u0120updating": 21686, "?\";\u010a": 76658, "\u00ed\u013a": 35859, "\u0120?>\u010a\u010a": 12559, "_leader": 81091, "\u0120Edit": 8505, "Appointment": 70635, "_program": 26152, "cmath": 34825, "\u0120repar": 77026, "/manage": 82217, "_INS": 32750, "\u0120atlas": 62032, "\u0120sscanf": 63013, "APSHOT": 67748, "\u0120Angebot": 82120, "deriv": 83595, "\u0120complied": 84864, "ouser": 89105, "\u0120bor": 32732, "\u0120countryCode": 91302, "\u0120Friedrich": 80474, "-ID": 54465, ".HttpServletResponse": 40348, "inality": 81877, "APO": 85340, "\u0120region": 5654, "\u0120Thai": 27490, "likely": 14617, "\u0120\u00c3\u00a9galement": 44767, "\u0120_\u010d\u010a": 77664, "\u0120retaining": 51110, "Offset": 6582, "ISTS": 26194, "Need": 24581, "\u0120']": 43977, "\u0120Medicine": 19152, "_algorithm": 60631, "ALLY": 29555, "\u0120Colt": 91484, "601": 18262, "\u0120sidel": 86177, "\u0120guten": 94715, "ering": 4776, "\u0120ek": 27955, ".AspNetCore": 17175, "_Two": 84089, "\u0120Ti": 23126, "\u0120EMP": 52692, "mods": 61890, "Shapes": 93293, "\u0120\u00d0\u0141\u00d0\u00be\u00d0\u00bb\u00d1\u0125\u00d1\u0129": 90033, "azer": 23697, "\u0120entonces": 72499, "\u0120Warm": 46863, "lasses": 34968, "amines": 97081, "\u0120market": 3157, "antidad": 27891, ".Caption": 41451, "\u0120Blank": 43541, "\u0120refreshing": 37018, ".registry": 56668, "uml": 43331, "\u0120numbering": 79362, "\u0120quieres": 95395, "\u0120Dublin": 33977, "\u0120Vic": 44847, "_col": 10422, "\u0120Vince": 56232, "_enqueue": 29495, "ateral": 19715, ":\");\u010a": 25293, "everything": 73826, "\u0120Roku": 97092, "\u00e2\u0122\u013bil": 44996, "\u0120AOL": 94251, "-twitter": 60190, "-flex": 18612, "zbollah": 59604, "\\/\\/": 15251, ".reshape": 23967, "\u0120fung": 34698, "(filename": 11202, "\u0120Hyderabad": 69547, "IDENT": 20398, "powered": 52616, "\u0120chambers": 53279, "Valor": 34840, "\u0120catchError": 65034, "NDAR": 78741, "\u0120gobierno": 81893, "\u0120obj": 2909, "otton": 17307, "\u0120depends": 14117, "vascular": 33945, "\u0120szcz": 76673, ".setOn": 10763, "\u0120lawy": 11255, "\u0120tactics": 26411, "\u0120Late": 36931, "\u0120Pref": 43688, ".lineWidth": 68615, "610": 17608, "\u0120\u00ef\u00bf\u00bd\u00ef\u00bf\u00bd\u00ef\u00bf\u00bd\u00ef\u00bf\u00bd": 60730, "\u0120Investments": 77990, "\u0120notion": 23035, "\u0120be": 387, ".ttf": 46292, "\u0120TEMP": 58531, "comes": 6716, "\u0120circular": 28029, "pleasant": 45007, "\u0120mining": 11935, "<Vec": 51539, "\u0120din": 11884, "ennial": 32331, "\u0120modelling": 61966, "mostly": 63995, "\u00da\u00a9": 33411, "\u0120estaba": 64324, "\u0120signal": 8450, "(Resources": 70366, "Operand": 31040, "\u0120mage": 52903, "itting": 15154, "ousand": 52949, "thetic": 18015, ".PERMISSION": 59955, ".HttpStatus": 66750, "-playing": 73185, "\u0109tb": 63942, ":hidden": 73731, ">P": 30578, "/member": 76162, "\u0120IU": 81725, "-run": 23831, "817": 25528, "\u0120consolidated": 60391, "\u0120adversary": 82499, "\u0120entren": 94921, ".<": 16134, "Instead": 31887, "\u0120chu": 96899, "\u0120Laure": 33767, "')}}\">": 65922, "itchens": 49721, "\u0120leben": 98972, "\u0120%{": 64837, "_APB": 71491, "ause": 3538, "ASURE": 73269, "\u0120retention": 38231, "THOOK": 41492, "\u0120heb": 59241, "XmlAttribute": 83466, "\u0120singly": 86599, "\u0120timid": 99149, "\u0120compra": 58729, "\u00e3\u0124\u00a7": 78349, "\u0120delegation": 46361, "\u0120modeling": 34579, ";left": 91450, "\u00c3\u0143culo": 49591, "$c": 30935, ".ParseException": 72358, "\u00e7\u013e\u012e": 72099, "ungan": 52288, "EVENT": 38449, "\u0120incompatible": 53924, "\u0120covariance": 60408, "capt": 44303, "ActiveSheet": 44471, "98": 3264, "\u0120baths": 59300, "\u0120stripslashes": 64323, "_setup": 22074, "OnClick": 57103, "_%": 19213, "(helper": 81534, "ionate": 85999, "\u0120-*-": 12286, "\u0120inserts": 50398, "\u0120Js": 40222, "ieres": 65588, "/hooks": 93619, "\u0120Chore": 96638, "idas": 17449, "\u0120Army": 13309, "anked": 41872, "ification": 2461, "\u0109index": 27424, "\u0120stresses": 59623, "\u0120responsible": 8647, "|required": 69688, "igital": 10444, "ammable": 100210, "(avg": 79116, "Stamp": 21576, "\u0120production": 5788, "\u0120criterion": 37057, "\u0120terug": 90601, "Supported": 35736, ":title": 59749, "\u0109\u0109\u0109\u0120\u0120\u0120\u0120\u0109": 99838, "\u0120Aboriginal": 56510, "\u0120Jedi": 41495, "FILES": 20821, "\u0120Decode": 51294, "(beta": 76983, "Nach": 77019, "\\Bridge": 99210, "]}>\u010a": 88665, "\u0120revealed": 10675, "\u0120weighing": 47826, "Webpack": 54214, "InstanceOf": 15390, "\u0120rental": 19160, "07": 2589, "\u0120Architects": 78113, "seud": 40512, "\u0109es": 80066, "_license": 64939, "dataArray": 82668, "\u0120princes": 84293, "285": 15935, "\u0120Bathroom": 37932, "foto": 43238, "\u0120drainage": 58592, "\u0120Intr": 61894, "_PID": 56894, "\u00e4\u00b8\u00a4": 78640, "\u0120stringByAppendingString": 97610, "Lock": 12258, "\u00d1\u0125\u00d0\u00bd\u00d0\u00ba\u00d1\u0128\u00d0\u00b8": 45137, "\u0120st\u00c3\u00b8r": 75450, "\u0120mystical": 69532, "\u0120unpublished": 85317, "CodeGen": 25691, "tyard": 56636, "*np": 40105, "])));\u010a": 82968, "toupper": 88832, "*\u010a": 5736, "\u0109Update": 71164, "\u0120Desired": 89161, "aler": 13412, "\u0120Trap": 53920, "semantic": 48958, "Scores": 57036, ".What": 76241, "(strategy": 39791, "(jj": 96468, "\u0120Wii": 40292, "\u0120QDateTime": 99824, "\u00ef\u00bf\u00bd": 5809, "\u0120RaisePropertyChanged": 90430, "\u0120tab": 5769, "\u0120First": 5629, "_from": 5791, "artisan": 37351, "\u0120tumblr": 46400, "\u0120ovar": 66168, "\u0120fingertips": 72148, "_STARTED": 77166, "olv": 36415, "\u0120fluorescent": 74864, "\u00c2\u00a1": 40932, "----": 381, "LOT": 16122, "(value": 3764, "\u0120rent": 8175, "\u0120governed": 27800, "\u0120ops": 28231, "_lists": 38388, ".plus": 61640, "\u0120Pratt": 75087, "WN": 38019, "\u0120mk": 24723, "\u0120Credits": 49800, "\u0120paths": 13006, "ignment": 3615, "QUIRED": 31171, "\u0120\u00e8\u0130\u00b7\u00e5\u0131\u0138": 41771, "ONGO": 65084, "orgh": 89626, "_mex": 61030, "_dept": 94968, "\u0120constructions": 96939, "\u00d0\u00b9": 12415, "\u0120Village": 25036, "ties": 29646, "\u0120directional": 73945, "degrees": 70849, "\u00e6\u0140\u0132": 98871, "}`;\u010a": 25881, ".toastr": 88451, "ooks": 15027, "\u0120DI": 16943, "\u0120Sized": 22734, "<User": 17179, "Received": 24141, "arts": 7183, "\u0109right": 49021, "\u0120positioning": 39825, "\u0120dig": 4170, "\u0120Emirates": 49801, "wi\u00c4\u013b": 65098, "\u0120nuevos": 71663, "\u0120Organ": 10995, "(volume": 75806, "\u0120Mandal": 89979, "\u0120margins": 37682, "\u0120Ree": 57921, ":CGPoint": 90469, "\u0120quando": 30805, "ouse": 1559, "loads": 33785, "\u0120sper": 47116, "\u0120Personality": 65915, ".css": 4425, "*n": 24942, "Conclusion": 44534, "*g": 73679, "POOL": 70536, "eno": 12052, "atab": 2143, "\u00e5\u0130": 16906, "\u0120pure": 10748, "\u0120waypoints": 82386, ".Payload": 87532, "ieron": 40608, "ar\u00c4\u00b1": 68228, ")\";\u010a": 24984, "\u0120Appendix": 65814, "\u0120pdata": 71411, "Credentials": 28123, "\u0120upwards": 45054, "\u00e9\u00aa\u012e": 42462, "\u0120Mein": 60430, "utherland": 92932, "\u00d1\u0122\u00d0\u00b0\u00d0\u00bd\u00d0\u00b8\u00d1\u0128": 96256, "\u0120emiss": 99763, "\u0120hete": 83218, "\u0120asses": 80140, "(accounts": 92968, "\u0120dic": 21945, "\u0120__________________\u010a\u010a": 80464, "\u0120\u00ce": 8008, "\u0120conservative": 15692, "\u0120careers": 31133, "\u0120founded": 18538, "Russian": 48807, "RN": 51295, "Icon": 4494, "(array": 6238, "\u0120nm": 26807, ".Bad": 47046, ".visitVarInsn": 56265, "ound": 801, "\u0120York": 4356, "\u0120Garrett": 58716, "\u0109ff": 68499, "[++": 48824, "ENDER": 44704, "\u00e4\u00bd": 8687, "\u0120Diamond": 25328, "\u0120Custom": 8572, "roles": 14985, "\u0120inn": 6301, "notes": 18790, "\u0120achievement": 26501, "ython": 27993, ".Tipo": 94039, "solution": 50560, "\u0120beds": 28036, "\u0120swal": 50454, "\u0120Kris": 53102, "REFER": 11698, "\u0120carpet": 28954, ",email": 64652, ".forChild": 70108, "\u0120allowable": 85852, "NCY": 54848, "\u0120assertFalse": 45497, "\u0120clipping": 62956, "\">#": 87243, "\u0120patent": 25589, "_human": 87347, "\u0120disrespectful": 99622, "Physical": 40353, "/web": 22561, "\u0120Roland": 58906, "effective": 78995, "\u0120Ubisoft": 87997, "\u0120eBay": 31006, "\u0109fprintf": 16562, "\u0120fr\u00c3\u00bc": 99977, "\u0120Beard": 88530, "\u0120approving": 77258, "\u0120emitter": 48363, "\u0120Rab": 36824, "\u0120temperament": 79964, "clid": 76144, "_cmds": 90572, "(gcf": 73111, "InSection": 35823, "\u0120backgrounds": 36576, "\u0120Ivan": 42521, "ologie": 38469, "_toggle": 49960, "\u0120Prov": 59429, "\u0120commissioner": 41443, "\u0120inplace": 42994, "elier": 68249, "\u0120iron": 11245, "\u0120Ups": 72416, "xoops": 84928, "\u0120subsidized": 95114, "lec": 35853, "\u0120martial": 37959, "rea": 5325, "\u0120K\u00c3\u00bc": 70352, "Joy": 80871, "(line": 8973, "\u0120solitary": 58229, "alle": 5164, "enment": 53061, "plugins": 19237, "732": 24289, "obby": 10530, "alam": 17243, "\u0120\u00c3\u00a9conom": 82653, "\u0120Includes": 27044, "Patch": 44722, "\u0120granny": 63495, "myModalLabel": 82202, "\u0120europ\u00c3\u00a9": 95199, "\u0120parentNode": 76055, "\u0120aeros": 49825, "Gu": 17198, "(aux": 46975, "\u0120zIndex": 60817, "\u0120indulge": 68190, "\",\"\",": 82490, "\u0120pid": 15158, "\u0120FlatButton": 75717, "allback": 3503, "PU": 6459, "Ka": 84068, "\u0120NullPointerException": 57950, "\u0120xor": 55041, "racuse": 60869, ".ColumnHeadersHeightSizeMode": 73229, ".WebServlet": 82996, "ward": 1637, "=='": 9461, "Spe": 20298, "Her": 21364, "\u0120gentle": 22443, "\u0120father": 7126, "129": 9748, "245": 13078, "\u0120Sto": 71883, ".start": 5069, "\u0120sea": 9581, "\u0109friend": 52203, ".discount": 72957, "\u0120dispers": 79835, "\u0120producing": 17843, "\u0120sede": 96687, "\u0120norsk": 65367, "?\u010a": 5380, "apat": 26844, "../": 1266, "\u0120load": 2865, "\u0120AppComponent": 31592, "\u0120Refuge": 52219, "\u0120Thema": 62250, "\u0120timers": 45622, "\u0120PJ": 66080, "(validate": 95344, "\u0120Picks": 66290, "STAR": 68161, "urity": 5631, "\u0120recycle": 61843, "\u0120setTime": 90621, "\u0120itch": 95856, ".ds": 61117, "\u00d8\u00a7\u00d9\u0128": 40523, "\u0120Horizontal": 41009, "\u0120chemotherapy": 62730, "\u0120passions": 58724, "\u0120practiced": 44664, "\u0120shoulders": 28004, "\u0120irr": 37819, ".orig": 69937, "illis": 57312, "\u0120ArgumentException": 40908, ",file": 58576, "MMdd": 71667, "\u0120MemoryStream": 37698, "changer": 73931, "<AudioSource": 84725, "\u0120Plat": 87742, "\u0120linked": 10815, "hide": 8727, "\u0120Pow": 24523, "\u0120pics": 22067, "\u0120variant": 11678, "\u0120%}\u010a": 69014, "Recipe": 29880, "impan": 90988, "Surv": 63443, "sofar": 94671, "UICollectionView": 56671, "/root": 73174, "\u0120Cd": 85090, "(wx": 31575, "Latest": 33092, "\u0120paddingBottom": 61765, "coverage": 55350, "\u0120\u00c4\u0133\u00c6\u00b0\u00e1\u00bb\u00a3c": 64578, "\u0120france": 48687, "\u0120<!--[": 72990, "_Printf": 88357, "\u0120KEEP": 96909, "\u0120Brenda": 90134, "=zeros": 57644, "\u0120dicts": 98699, "(Transform": 84726, "\u0120subscriptions": 41455, "\u0120Gather": 50095, ".gc": 66654, ".Background": 19585, "sla": 52742, "\u0120Linda": 39162, "_completion": 61264, "INES": 34708, "\u0120Santos": 48723, "Subset": 71684, "vod": 92110, "\u0120lut": 63922, "iect": 92642, "`\u010a\u010a": 19884, "\u0120MASTER": 72297, "\u0109GLuint": 81926, "\u0120enjo": 31679, "_td": 58151, "\u0120Username": 30645, "[child": 86583, "<W": 87754, "\u0120ethers": 96220, "\u0120\u00c3\u0143": 41236, ".fn": 25144, "\u0120Cialis": 33402, "Reflection": 45338, "\u0120Premiere": 69924, "otechnology": 52536, "NSUInteger": 59022, "utterstock": 63696, "\u0120Zy": 87654, ".club": 98746, "\u0120CEOs": 75317, "NodeType": 67237, "\u0120das": 6754, ".checkbox": 96535, "\u0120centers": 19169, "(vertex": 45852, ".netflix": 73935, "_nv": 80530, "\u0120shim": 63232, "90": 1954, "etherlands": 24530, "so": 708, "lets": 10145, "loan": 39429, "')).": 19449, "\u0120fulfill": 21054, "\u0120Investig": 33180, "\u00e1\u00ba\u00a3n": 41807, ",F": 28328, "\u0120immense": 38883, "\u0120fp": 12276, "complete": 15079, "emand": 20699, "\u0120Butt": 70449, ".isNotBlank": 71367, "\u0120WLAN": 71947, "\u0120whispers": 89248, "/%": 12915, ".attrs": 46596, ";;;;": 23632, ".ship": 51685, "\u0120MAGIC": 60349, "_missing": 41547, "\u0120leveraging": 77582, "zz": 10616, "\u0120manpower": 96869, "fgets": 100093, "\u0120Auch": 56548, "\u0120Donation": 78330, "\u0120csr": 70032, "\u0120Rolled": 94491, ".ADMIN": 97969, "\u0120abilities": 18000, "\u0120Quentin": 91151, "\u0120Contest": 47633, "\u00c2\u0134": 76251, "\u00e6\u00b3\u00a8": 26130, "\u0120Brett": 40203, "\u0120Conflict": 59685, "\u0120pago": 65477, "(assign": 67982, "/in": 18480, "'},\u010d\u010a": 77427, "\u0120serves": 17482, "\u00c3\u00a9cial": 70877, "Tpl": 88237, "\u0120Uncategorized": 82028, "ika": 11755, "[string": 14359, ".ForegroundColor": 75019, "/mit": 94947, "Buff": 35361, "Nm": 69305, "\u0120nutrit": 69714, "(from": 17450, "77": 2813, "\u0120Anderson": 21293, "-labelledby": 33227, "\u00e4\u00ba\u0130": 35304, "_rsp": 65481, "\"][": 18613, "\u0120Emerson": 80554, "\u0120[]),\u010a": 97133, "\u0120tmpl": 80939, "\u0120forState": 29328, "\u0120Complexity": 71718, "contres": 75950, "\u0120legitim": 49297, "\u0109search": 46673, "\u0120funktion": 69412, "\u0120parentId": 56985, "\u0120gefunden": 82771, "Disable": 26558, "\u0120Spell": 30180, "\u0120substituted": 63196, "\u0120Bewert": 86751, "Online": 20171, "mium": 51318, "\u0120Relative": 40502, "OffsetTable": 87303, "\u0120avid": 56653, "\u0120engages": 69589, "Let": 10267, "44": 2096, "ycler": 10993, "ollectors": 30851, "\u0120Bolt": 47047, "\u0120resignation": 44734, ".Grid": 19090, "\u0120firefighters": 53206, "git": 13178, ".body": 5189, "\u0120Excellence": 58240, "aghetti": 65065, "\u00e9\u0139\u00a8": 65789, "\u0120zoning": 66078, "\u00e8\u00b4\u00a7": 82768, "\u0120NODE": 35917, "\u0120Cette": 62408, ".Sprite": 46404, "^^": 22634, "\u0120ile": 31905, "\u0120accessories": 23090, "averse": 23247, "\u00e1\u00ba\u00a5t": 52458, "\u0120Elegant": 81310, "_years": 75590, ",default": 88796, "\u0120distinct": 12742, "\u0120Wrath": 90615, "\u0120portrayed": 45877, "\u0120waged": 92500, "\u0120sessuali": 95969, "lifetime": 98157, "\u0120Region": 17593, "\u0120ourselves": 13520, "\u0120erotici": 40572, "\u0120divert": 37098, ".cr": 42664, "pp": 604, "related": 9920, "\u0120reminis": 49679, "/time": 36363, ".cor": 18672, "\u0120voc\u00c3\u00aa": 25738, "(gameObject": 52112, "(Activity": 53295, "').\u010a": 42229, "\u0120Comes": 54328, "AIR": 58261, "\u0120EventEmitter": 31104, "\u0120wanted": 4934, ".ml": 58509, "\u0120FACT": 59643, "\u0120Dum": 65082, "reflect": 36013, "\u0120android": 2151, "\u0120poil": 74611, "\u0120OrderedDict": 54313, ".scal": 16196, "\u0120gob": 75517, "\u0120resolution": 11175, "ButtonType": 77293, ".heap": 78247, "Nike": 92944, "Boxes": 94765, "\u0120Trafford": 95746, ".yang": 81577, "\u0120investing": 26012, "\u0120tah": 91193, "\u0120evaluator": 70910, "\u0120backward": 28655, "ISED": 27556, ".entities": 26624, "\u0109goto": 11963, "*/}\u010a": 50200, "_cp": 40911, "+/": 41731, "\u0120Aggregate": 58022, "qus": 62604, "anzi": 72918, "DRAW": 78135, "_SMS": 88426, "\u0120Nec": 64224, "loader": 8520, "(arr": 11179, "(serializers": 59068, "\u0120GLES": 79748, "ighet": 82608, "\u0120disappointed": 25406, "Interested": 84152, "('#": 3599, "\u0120generators": 44163, "\u0120organizational": 41295, "\u0120\u00e2\u0138\u012a\u00e2\u0138\u012a": 57873, ".MiddleRight": 75434, "\u0120tiener": 87746, "@\"": 3761, "_RESERVED": 68693, ":o": 94657, "\u0120dbHelper": 97080, ",[],": 90631, "\u0120;\u010a\u010a\u010a": 92681, "\u0120Edgar": 60091, "\u0120Safe": 23088, "\u0120Rub": 13134, ">S": 26922, "\u0120imagen": 41669, ".Len": 66919, "\u0120cancellationToken": 34233, "IN": 691, "\u0120tk": 17603, "(ip": 24338, "\u00e1\u00bb\u0135": 71780, "\u0120revenues": 30466, "\u0120REGISTER": 53737, ".scope": 49471, "\u0120Maxim": 56625, "\u0120chir": 71546, "\u0120AW": 34438, "_^": 68380, "UY": 32401, "546": 22048, "\u0120even": 1524, "ACLE": 75801, "\u00ea\u00b5\u00ac": 89359, "_chr": 70093, "\u0120puppies": 57725, "Breadcrumb": 76330, "r\u00c3\u00a9": 43711, ".cells": 51592, "\u0120simulated": 46836, "\u0120merits": 50932, ".localizedDescription": 74153, "\u0120quad": 28181, "_lin": 25628, "\u0120starvation": 78245, "\u0109pid": 79899, "\u0120Kunst": 81431, "Means": 84502, "\u0120honeymoon": 84893, "\u0120bus": 5951, "landers": 86067, "'\",\u010a": 39430, "\u0120West": 4410, "\u0120earns": 64859, "\u0120pname": 66046, "_Ch": 28688, "\u0120getId": 21084, "\u0120EDT": 49023, "\u0120Reflection": 43976, "\u0120biomass": 58758, "\u0120responseData": 68545, "Courier": 90943, "\u0120prere": 45001, "\u0120Yao": 91030, "\u0120\u00ec\u00b4\u012a\u00ea\u00b8\u00b0": 96413, ".ActionListener": 32064, "-du": 98305, "PELL": 23177, "xml": 6591, "uesday": 7192, ".sheet": 74997, "\u0120Acres": 83559, "_FWD": 86077, "AEA": 91921, "\\.": 19362, "\u0120'&#": 59639, "\u0120Buddha": 46054, "\u0109describe": 83960, "...]": 62499, "Offers": 96609, "\u0120ResponseEntity": 20390, "\u0120\u00d0\u00bd\u00d1\u0125\u00d0\u00b6": 77083, "\u0109where": 56842, "])),\u010a": 88719, "\u0120fav": 9428, "(pro": 10553, "anic": 32370, ".getDefault": 29694, "rowned": 45184, "\u0120utilise": 69152, "\u0120\u0120\u0120\u0120\u0120\u0120\u0120\u0120\u0120\u0120\u0120\u0120": 1835, "iterals": 38902, "\u0120illusions": 88128, "\u0120\u00c4\u0133i": 74686, "\u0120Ella": 78896, ".FileSystem": 87924, "\u0120horny": 38307, "\u00d0\u00b5\u00d0\u00bd\u00d1\u012d": 79686, "uer": 8977, ".p": 558, "Greg": 44612, "=\"$(": 47534, "Ass": 5733, "\u0120pes": 18541, "=`": 23046, "\u0120consectetur": 36240, ".ToDouble": 44633, "\u0120Moodle": 60543, ".labelControl": 43382, "aines": 33903, "(Attribute": 71973, "_taxonomy": 76894, "\u0120watchers": 87672, "\u0120slave": 20985, "Prod": 42379, "unned": 39090, "\u0120jar": 30695, "ord": 541, "_KeyDown": 82559, "\u0120ceasefire": 82873, "watch": 14658, "\u0120GB": 19397, "\u0120propose": 30714, "\u0120woke": 39826, "(images": 41977, "(loss": 45312, "_Per": 55018, "\u0120circulated": 63973, "reserve": 58085, "\u0120redistributed": 74494, "SM": 9691, "\u0120swinger": 24545, "\u00c3\u00bcr": 5297, "\u0120Murray": 28253, "\u0120*)[": 79182, "pedia": 83150, "\u0120cruc": 15131, "'><": 18914, "_NT": 77675, "(inplace": 83306, "\u0120variable": 3977, "PreparedStatement": 46505, "\u0120prejudice": 48786, "\u00c3\u00a8ne": 48099, "mobx": 89515, "iles": 3742, "Pre": 4808, ".Strings": 90254, "-Sah": 93214, "\u0120objectType": 93902, "ilestone": 94128, "Doctors": 96269, "unds": 44050, "anker": 99348, "\u0120mata": 97293, "('</": 74572, "\u0120Reserve": 25820, "mathrm": 92650, "ETHER": 16821, "_render": 23622, "ICAL": 15942, "elect": 19493, "\u0120Falcon": 43961, "\u0120executable": 33256, "prisingly": 49264, "\u00e5\u00af\u0128": 28741, "_vect": 60502, "(power": 84848, "InProgress": 89811, "\u0120governments": 17047, "atable": 15436, "\u0120focuses": 24400, "\u0120nota": 45138, "pb": 17063, "\u0120chickens": 54623, "\u0109module": 55120, "\u0120stimulating": 65792, "_FACTORY": 72252, "FDA": 82169, "\u0120firsthand": 83668, ".groups": 41721, "\u0120addons": 90245, "\u0120vagina": 39888, "\u0120Profession": 50311, "_ELEMENTS": 67269, "\u0120JM": 83152, "utedString": 40630, "\u0120Lid": 81709, "ireccion": 32605, "jabi": 92984, "fm": 21796, "\u0120Ferdinand": 93607, "\u0120greenhouse": 37647, "\u0120purchase": 7782, "udiante": 50763, "\u0109func": 30344, "xDF": 74434, "\u0120\u00d1\u012f\u00d0\u00ba": 81757, "endphp": 84762, "\u0120tracker": 29431, "/close": 95408, ".color": 8120, "atrigesimal": 43587, "\u0120Privacy": 19406, "(dict": 32378, "\u0120trat": 41921, "\u0120====": 82967, "[table": 99221, "\u0120acknowledge": 25670, "Sortable": 89452, "sburgh": 26320, "\u0120ActivityCompat": 93544, ".quant": 78702, "DA": 6486, "\u0120Owner": 26918, "_PAIR": 66865, "\u0120operatives": 73290, "]))\u010a\u010a": 38028, "/sites": 68602, "\u0120intim": 22713, "\u0120daha": 62594, "*@": 85406, "@class": 50218, "\u0120kidd": 92515, "\u0120Charset": 88971, "\\Entity": 15778, ".cx": 70174, "sem": 7143, ".\"),\u010a": 63597, "\u0120Linked": 13415, "amation": 27279, ".InputStream": 31004, "Sunday": 37165, "\u0120downward": 45578, "ongan": 83388, "\u0120mejor": 27026, ".Compare": 33477, "mui": 68566, "requestCode": 75635, "(messages": 56805, "\u0120publish": 3498, "\u0120Me": 2206, "_DEPTH": 33744, "itulo": 47478, "\u0120spoiled": 72524, "\u0120Slater": 98103, "_COMMAND": 23558, "enc": 967, "\u0120components": 6956, ".metadata": 28644, "orange": 35264, "Bo": 1255, "itas": 21920, "\u0120temple": 27850, "_CA": 55990, "_Obj": 71772, "\u0120exercises": 23783, "\u0120diagonal": 38336, "\u0120Katherine": 62426, "_my": 36786, "ConnectionString": 41531, "\u0120reduce": 8108, "\u0120--------------------------------": 20308, "]}\u010a": 24333, "\u0120dynamically": 43111, "\u0120fusion": 37608, "\u0120EMC": 74804, "\u0120recording": 14975, "\u0120dismissal": 59323, "CppGeneric": 54278, "\u0120Witt": 83276, "__,__": 84030, "\u0120interiors": 74564, "\u0120frying": 87196, "omedical": 61860, "Eastern": 97488, "\u0120flere": 86691, "\u0120skulls": 98712, "\u0120Component": 5695, "\u0120setUp": 19133, ".sam": 93086, ".Main": 24815, "\u0120*/;\u010a": 39094, "itted": 3847, "\u0120Declaration": 42021, "\u0120cloned": 55219, "BALL": 79580, "\u0120ench": 66812, "\u0120consulate": 99517, "astle": 75530, ".Ent": 92742, "\u0120merge": 11117, "CONFIG": 25677, ".PathVariable": 76746, "\u0120alumno": 99195, "\u0120Literary": 74724, "storage": 16568, "trans": 1485, ".Lib": 87381, "\u0120Highlights": 53300, "\"],\u010d\u010a": 38721, "icode": 13948, "validation": 12564, "\u0120UIView": 18085, "\u0120__(\"": 56661, "Different": 70223, "antee": 14164, "olson": 72638, ".createQuery": 56686, "HE": 1837, "\u0120apps": 10721, ".Compute": 90337, "\u0120wifi": 34517, "Israel": 34627, "\u0120swearing": 91781, "\u00ed\u0137\u0142": 48936, "_PIXEL": 51584, "_container": 16226, "\u00e6\u013e": 4916, "orie": 30303, "Expert": 75392, "\u0120punitive": 82532, "enery": 90333, "\u0120query": 3319, "Pragma": 94118, "Qualifier": 84591, "\u0120Laguna": 94198, "Tutorial": 98853, "\u0109tree": 53068, "svc": 59194, ",options": 89832, "\u0120Temperature": 38122, "\u0120h\u00c3\u00a4t": 75592, "\u0120Spy": 47414, "726": 24430, "\u0120Crafting": 98269, "\u0120Meh": 68324, "&nbsp": 28293, "N\u00c3\u00a3o": 51899, "uchos": 68350, ".typ": 50386, "resizing": 42567, "(dm": 86777, "'})\u010a": 27482, "\u0141\u00b3": 59815, "\u0120Dol": 25227, "\u0120dur": 10878, "-comment": 46766, "JNIEXPORT": 70539, "urnished": 84539, "\u0120REVIEW": 81151, "\u0120artillery": 54235, "\u0120-->\u010a": 3743, ".Keyboard": 79793, "Ensure": 65539, "_LCD": 64192, "\u0120conveying": 94165, "_TRIANGLE": 95275, "Dict": 13755, "\u0120ban": 9120, "iot": 11345, "Pooling": 59003, "\u0120NN": 45778, "220": 8610, "flow": 5072, ".Collection": 29729, "\u0120garant": 40192, "(\",\");\u010a": 47749, "_xlim": 75661, "\u0109break": 3470, "(controller": 41945, ">&": 5909, "DISPLAY": 69227, ".Take": 84172, "ONE": 5338, "-(": 8172, "\u0120ftp": 46527, "ped": 7018, "\u0109import": 22682, "\u0120circuits": 46121, "ControlEvents": 46049, ".title": 6195, "Engineering": 87100, "groupId": 52954, "fan": 31278, ".UIManager": 56973, "\u0120\u00ed\u0137\u00a8": 52072, "IDTH": 11061, "_aux": 31568, "\u0120Remark": 83833, "\u0120claiming": 21039, "Machine": 22333, "\u0120UIStoryboardSegue": 70260, "\u0120lent": 48907, "-imm": 64683, "\u0120\u00eb\u0126": 66653, "\u0120LABEL": 57974, "/T": 17146, "\u0120'';\u010a\u010a": 26582, ",S": 21861, "\u0120\u00c2\u0143": 50955, "_UNICODE": 76788, "\u00c3\u0143d": 87120, "_USB": 37092, ".tm": 34633, "])))": 81503, "ULT": 3616, "BST": 62106, "\u0120blessing": 40149, "\u0120cover": 3504, "tok": 30694, "olation": 36062, "\u0120Param": 7136, "\u0109\u0120\u0120\u0120\u0120\u0120\u0120\u0120\u0120\u0120\u0120\u0120\u0120\u0120\u0120": 96905, ",bool": 64734, "\u0120poured": 44033, "\u0120restricted": 22486, "\u0120violet": 80836, "\u0120entertaining": 30311, "OLUTION": 47077, "\u0109\u0109\u010a\u0109\u0109\u010a": 18869, "\u0120GCBO": 83846, "_rgba": 96329, "\u0120Sir": 17177, "_res": 5023, "\u00e0\u00b8\u0139": 36984, "\u0120splitting": 45473, "$(\"": 45590, ".\u010d\u010a": 3304, "\u0120DL": 34075, ".Properties": 16324, "\u0120Qty": 77657, "\u0120painful": 26175, "\u0120nuovo": 73829, "\u0120thumb": 25015, "\u0120stupidity": 88637, "_ctxt": 94385, "\u0120arising": 40986, "\u0120suggestive": 99578, "\u0120pesso": 40675, "/category": 47433, "\u0120Goat": 93872, "\u0120owned": 13234, "\u0120entertainment": 16924, "(handles": 35995, "\u0120Riyadh": 90890, "\u0120Frank": 9454, "\u0120/*<<<": 14613, "\u0120portals": 76563, "\u00e3": 159, "ARI": 16412, "flash": 19824, "\u0120tyr": 43049, "\u0120lymph": 43745, "debian": 91884, "SplitOptions": 77987, "(\"\"\"\u010a": 69860, "ards": 2402, "\u0120inversion": 47588, "_par": 23483, "_OT": 52247, "\u0120Following": 23548, "Fra": 79156, "}while": 85398, "\u0120Manson": 99233, "\u0120glasses": 29247, "ngle": 67330, "\u0120Ministers": 79073, "ifer": 11691, "\u0120xi": 38690, "\u0120device": 3756, "\u0120allen": 51141, "\u0120Patio": 65086, "Seleccion": 73429, "ponses": 23475, "////////////////////////////////////////////////////////////////////////////////////////////////": 61729, "\u0120Amb": 20423, "_gc": 50523, "setLabel": 89653, "region": 4030, "\u0120och": 12218, ".BO": 68701, "\u0120volupt": 51810, "\u00c4\u013d": 22161, "_changes": 48626, "\u0120however": 4869, "MAT": 57989, "Well": 11649, "\u0120\u00c2\u00b6": 79946, "sing": 80407, "rijk": 87774, "\u0120dysfunctional": 88804, "Caught": 91854, "Show": 7968, "-formed": 95977, "}}},\u010a": 75969, "\u0120Old": 10846, "\u0120filming": 39970, "\u0120superheroes": 91818, "continuous": 79689, "Austin": 83489, "INavigation": 45211, "\u0120supermarket": 49313, "])*": 48783, ".tr": 5543, "_EMPTY": 37740, "\u0120textStatus": 61883, "\u0120Simple": 9170, "\u0120soy": 29839, "destroy": 15886, "getParameter": 63749, "/legal": 48136, ".disk": 87311, "\u0120alleles": 98260, "PLAY": 18846, "\u0120Illum": 61720, "\u0120twist": 27744, "135": 8878, "/status": 33618, "\u0120Hardcore": 60650, "\u00e6\u013f\u00a1": 40089, "\u0120pict": 72829, "\u0120BrowserModule": 38471, "\u0120Elias": 86756, "/qu": 79945, "profiles": 57295, "\u0120zab": 74171, "$\\": 59836, ".setScene": 94775, "anova": 86563, "|i": 97236, ".XPath": 76975, "\u0120Entry": 16165, "\u0120mListener": 83496, "\u0120similarities": 43874, "ependency": 41629, "\u0120Species": 51567, "\u0120hypotheses": 74513, "\u0120derives": 75549, "\u0120notebooks": 79631, "eworthy": 57238, "\u0120Wells": 37958, "_HTML": 57826, "\u0120cela": 45602, "[z": 46375, "'],'": 40109, "\u0120implants": 63284, "lena": 49121, "\u0120Rio": 28059, "\u00c6\u00b0\u00e1\u00bb": 26856, "_SCL": 93415, "\u0120compuls": 48206, "\u0120EQUAL": 92709, "\u0120ax": 3944, "\u00e5\u013d\u0140": 18904, "\u0120grease": 63471, "Duration": 13242, "\u0109Set": 23004, "\u0120coordinator": 31384, "_pd": 32422, "Indian": 48664, "\u0120unbelievable": 52229, "Trans": 3246, "\u0120zum": 16419, "PathVariable": 29417, "\u0120stud": 1707, "handleChange": 49794, "_FROM": 28207, "\u0120Transmit": 98757, "':\u010a\u010a": 56530, "_UNUSED": 33016, "\u0120Cash": 23139, "\u0120basename": 39296, "coupon": 39400, "\u0109JLabel": 68277, "distributed": 63475, "\u00e2\u013b\u00aa": 40620, "-law": 31412, "CTSTR": 64420, "\u00e2\u0122\u013e(": 71270, "\u0120jumping": 30102, "/Desktop": 49599, "Po": 34004, "Portable": 97671, "playing": 43012, "\u0120env": 6233, "(min": 14478, "\u0120tersebut": 56866, "\u0120convictions": 48015, "ContextMenu": 57687, ":%": 7685, ",i": 11538, "\u0120Velocity": 55534, "Winter": 67288, "\u0120user": 1217, "#[": 13657, "Om": 64588, "\u0120Riding": 77419, "Tasks": 26527, "_Pre": 80661, "\u0120embrace": 27830, "Middle": 45035, "Editor": 9597, "integral": 82135, "ennessee": 22181, "\">{": 18573, "\u0120minds": 20663, "\u0120plac": 29960, "\u0120JOHN": 76275, "\u0120(!(": 14157, "\u0120Dy": 43048, "\u0120Lod": 89040, "\u0120metro": 34582, "\u0120cleanly": 97975, "outube": 10432, "\u0120Crescent": 77569, "\"}}>\u010a": 81039, "strtolower": 85569, "\u0120HASH": 59957, "*.": 20517, "\u0120besser": 71436, "_MIC": 70578, "\u0120probe": 22477, ":flex": 87985, "}{": 15523, "\u0120FEMA": 92789, "impse": 40527, "INTERFACE": 73448, "_ATT": 31077, "WindowState": 98747, "IOException": 15402, "Precision": 56601, "\u0120dataGridViewTextBoxColumn": 95525, "\u0120assays": 99592, "\u0120Delegate": 41280, "\u00e0\u00b8\u00b7\u00e0\u00b9\u012a": 65784, "\u0120skim": 79669, ".bank": 57783, "fat": 45283, "\u0120adap": 39732, "\u0120Omn": 90934, "enticator": 62493, "\u0120cheek": 41803, "\u0120Indicator": 64704, "\u0109nodes": 80856, "\u0120Rajasthan": 87440, "_yes": 60844, ".parts": 68635, "terror": 38488, "\u0120Fiona": 89943, "Sur": 23912, "=-": 11065, "\u0120Nas": 39322, "/functions": 57910, ".mask": 36279, "pon": 621, "AFE": 30952, "\u00d0\u00b4\u00d1\u0122": 63873, "\u0120thousand": 16579, "#/": 70567, "Neal": 94682, "mdi": 41523, "USERNAME": 64616, "ussions": 39833, "\u0120Wie": 43716, "LookAndFeel": 59704, "\u0120Electro": 69390, "attributes": 12620, "\u0120priv": 6223, "Ten": 33787, "\u0120cue": 50498, "lies": 49201, "\u0120pops": 48700, "\u0120neighbour": 22686, "\u00e8\u0122": 20551, "\u0120perpetr": 39454, "\u0109reply": 87249, "aha": 13856, "@Inject": 26988, ".Unknown": 71071, "\u0120Scotch": 93050, "\u00e1\u00ba\u00af": 62202, "\u0120\"\";\u010a": 5555, "Cro": 96141, "={`/": 56341, "osomes": 58375, "\u0120Sne": 51113, "(passport": 96213, "_TO": 8820, "\u00d0\u013c": 27435, ".Form": 1848, "fois": 86633, "PY": 38981, "\u0120Boris": 52771, "templates": 15827, "\u0120surge": 22531, "ierung": 37716, "\u0120Messenger": 42619, "\u0120Peninsula": 50714, ".deck": 86900, "\u0120offenders": 41702, "\u0120Fan": 25744, "(argc": 29780, "\u0120RECEIVER": 77276, "(verbose": 49703, "\u0120WRITE": 39652, "\u0120Chip": 32013, "\u0120Barb": 47142, "\u0120nailed": 75974, "\u0120Trout": 88638, "\u0120Applying": 90701, "\u0120metallic": 46258, "\u0120JFrame": 51463, "udies": 58787, "\u0120Phill": 25533, "-double": 69720, "_PERSON": 74528, "\u0120calendar": 13470, "\u0120mug": 52589, "_AES": 70481, "_via": 81810, "\u0120Children": 15394, "CppMethod": 24488, "*s": 34554, "\u0120VStack": 95759, "\u0120\u00ed\u012e\u012e": 56069, "irie": 62316, "\u00e0\u00b9": 8321, "libc": 56676, ".style": 7503, "\u0120hw": 32356, "\u0120\u00d0\u00b7\u00d0\u00b0": 44946, "\u0120regulating": 58499, "\u0120maken": 55156, ".WARNING": 64116, "\u00c3\u00a1s": 7206, "_strategy": 50408, "\u0120rootNode": 79075, "==(": 40735, "\u0120super": 2307, "\u0120her": 1077, "\u0120LSU": 65512, "\u0120semi": 18768, "iju": 64274, "721": 20873, "\u0120embodiments": 75653, "ample": 1545, "\u0120widget": 9264, "\u0120Aquarium": 81422, "\u0120uur": 89860, "queryString": 96988, ")\u010d\u010d\u010a": 98656, "enic": 56989, "\u0120\u0120\u0120\u0120\u0120\u0120\u0120\u0120\u0120\u0120\u0120\u0120\u0120\u0120\u0120\u0120\u0120\u0120\u0120\u0120\u0120\u0120\u0120\u0120\u0120\u0120\u0120\u0120\u0120\u0120\u0120\u0120\u0120\u0120\u0120\u0120\u0120\u0120\u0120\u0120\u0120\u0120\u0120\u0120\u0120\u0120\u0120\u0120\u0120\u0120\u0120\u0120\u0120\u0120\u0120\u0120\u0120\u0120\u0120\u0120": 39584, "\u0120removable": 54891, "\u0120breaking": 15061, "\u0120They": 2435, "_mon": 21399, "\u0120Wing": 35622, "erate": 59768, "omap": 75911, "\u0120Sterling": 44835, "\u0120Exhaust": 89334, ",['": 67176, "_epochs": 45227, "organ": 8629, "desired": 83882, "\u0120Reform": 40365, "\u0120tetas": 88615, ".Magenta": 91431, "ponge": 37354, "\u0120Cyril": 95805, "\u0120beads": 55308, "Directories": 57497, "\u0120PROM": 68788, "-pill": 89487, "jspb": 94047, "\u0120Intermediate": 61748, "\u0120pantalla": 71124, "\u0120\u00d0\u00ba\u00d0\u00be\u00d0\u00bc": 44216, ".qq": 61339, ".GPIO": 68289, "\u0120dependent": 18222, "IDES": 86914, "otech": 59196, "\u0120Fourier": 90054, "echa": 18246, "\u0120Evolution": 38321, "atings": 28789, "\u0120carn": 39438, "ILTER": 15675, ".Cascade": 56621, "reesome": 58405, "\u0120prevState": 76046, "getFile": 77695, "\u0120Pluto": 78681, "\u0120==(": 86507, "_COM": 7021, "\u0120controversy": 26654, "\\\\\\\\": 52107, "composed": 93834, "-parts": 93578, ".enter": 36790, "\u0120folders": 30342, "(:,:,": 38590, "\u0120contenido": 55354, "ecer": 94218, "\u0120Passage": 99575, "\u00c3\u00bch": 22284, "\u0120offer": 3085, "\u0120prayed": 67797, "_sf": 57282, "Expressions": 41415, "flater": 11991, "_format": 9132, "\u0120MainAxisAlignment": 34314, "\u0120entail": 87092, "\u0120Dedicated": 96658, "bare": 55202, "\u0120Po": 14128, "RGB": 18683, "mysqli": 16021, "\u0120Unix": 48095, "cac": 84210, "++)\u010d\u010a": 11910, "\u0120'%\"": 82503, "\u0120\u00d0\u0137\u00d1\u0123\u00d0\u00bb\u00d0\u00b8": 72244, "mt": 2562, "iores": 46896, "-depth": 31410, "_flush": 40313, "_MULT": 30307, "_tipo": 44759, "\u0120nickname": 30499, "\u00e5\u00ae": 8676, ".mousePosition": 82766, "DBObject": 95882, "tgt": 86326, "\u0120XCTest": 42340, "\u0120padre": 62120, "\u0120jb": 88218, "\u0120incent": 20647, "/******************************************************************************\u010a": 54296, "!),": 49743, "jong": 99560, "\u00e6\u0143\u00a4": 33091, "\u0120Trade": 17657, "_Desc": 94057, "%;\"": 70717, "\u0120roll": 6638, "173": 11908, "\u0120sightings": 83754, "ticks": 36178, "\u0120selber": 85293, "}\u010d\u010a": 1809, "_te": 39778, "_refs": 61738, "DN": 32364, "\u00d1\u0123\u00d1\u0131": 21204, "QR": 31565, "\u0120fa\u00c3\u00a7on": 76407, "paused": 79393, "onor": 55137, "\u0120foreclosure": 81382, "\u0120continued": 8738, "_STD": 48266, "Ast": 62152, "\"';": 78760, "\u0120giveaways": 87326, "\u0120useDispatch": 40994, "PHA": 29322, "\u0120XML": 12138, "\u0120Compatibility": 79095, "\u0120i": 602, "\u0120duties": 22006, "\u0120Knife": 62302, "\u0120painters": 97953, "\u00c4\u0127d": 62151, "coeff": 49738, "\u0120correction": 27358, "\u0120African": 11904, "\u0120penis": 23806, "\u0120{|": 42060, "(Cl": 44744, "crease": 20542, "\u0120AUDIO": 53224, "\u0120simultaneous": 58632, "tribution": 32240, "aldi": 78016, "\u0120\u00e6\u013f": 61696, "YS": 9579, "\u0120bridal": 81512, "Martin": 50219, "undi": 56998, ".png": 3592, "\u0120extraordinary": 24674, "\u0120staunch": 82721, "\",\"\",\"": 60959, "\u0120Rif": 90831, ")))));\u010a": 27677, "\u0120Architecture": 38943, "\u0120slammed": 50365, "\u0120Muslims": 20071, "xfc": 41528, "\u0120snap": 10885, "\u0120bra": 20716, "\u00e8\u0124": 57942, "\u0120membranes": 79348, ".logged": 65553, "(now": 33363, ".IOException": 14563, "ASSES": 49694, "\u0120sorts": 21522, "\u0120Cele": 23519, "announce": 66612, "any": 3852, "\u0120Components": 35185, "\u0120profiling": 56186, "\u0120scoop": 57507, "\u0120flowering": 82339, ".The": 11829, "\u0120spike": 37393, "Service": 1898, "Scheme": 30006, "\\\">\\": 39958, "\u0120Scripts": 64721, "mPid": 84879, "\u0120experts": 11909, "\u0120racism": 27052, "(local": 18574, "\u0120staff": 5687, "\u0120locationManager": 69832, ")(\u010a": 71642, "zap": 93471, "pizza": 93538, "\u00e7\u00ae\u0122": 99337, "\u0120grated": 97276, "\u0120borne": 65162, "(gca": 46950, "reater": 29462, "GC": 23710, "die": 27591, "\u00d0\u00be\u00d0\u00bb\u00d0\u00bd": 47680, "\u0109glColor": 85517, "\u00a3\u00bc": 36246, "#+#+": 16640, "\u0120freeze": 31030, "\u0120audi": 47468, "\u0120Watt": 60075, "daily": 49174, "\u0120BSD": 23974, ".AUTH": 65778, "\u0120acceso": 69629, "FLOAT": 52015, "\u0120sometimes": 7170, "appro": 16082, "\u0120newPosition": 91999, "\u0120staged": 51157, "bursement": 52173, ".subtract": 69752, ".endswith": 41215, "-country": 56971, "\u0120residents": 11062, "\u0120pixel": 13252, "udder": 57229, "-it": 38611, "Counter": 14431, "\u0120Zimbabwe": 52320, "\u00e2\u0122\u0136\u00e2\u0122\u0136\u00e2\u0122\u0136\u00e2\u0122\u0136\u00e2\u0122\u0136\u00e2\u0122\u0136\u00e2\u0122\u0136\u00e2\u0122\u0136\u00e2\u0122\u0136\u00e2\u0122\u0136\u00e2\u0122\u0136\u00e2\u0122\u0136\u00e2\u0122\u0136\u00e2\u0122\u0136\u00e2\u0122\u0136\u00e2\u0122\u0136": 61311, "\u0120Il": 7695, "4": 19, "\u0120Heart": 18449, "emer": 41996, "\u0120weaponry": 78122, "\u0120cellForRowAt": 83755, "Alabama": 98911, "\u0120chan": 27114, "\u0120spaced": 64928, "\u0120endlessly": 79837, "NFL": 88201, "District": 48940, "\u00c3\u00b0": 68800, "\u0120{{--": 24841, "''": 4708, "\u0120leuk": 57381, "(Transaction": 77727, "\u0120eiusmod": 80222, "\u0109Texture": 84573, "\u0120tossing": 85151, "_GC": 78015, "\u0120LPC": 50175, "\u0120chose": 14896, "financial": 76087, "\u0120Injection": 54911, ".spotify": 77553, "({\"": 17289, "\u0120Represent": 22717, "_eps": 76096, "\u00d0\u00b5\u00d0\u00b9": 21708, "\u0120FT": 24182, ".)\u010a\u010a\u010a\u010a": 76794, "\u0120Patty": 89345, "\u00c4\u00b1s\u00c4\u00b1": 90513, "-flat": 66568, "\u0120Liberation": 72984, "\u0120anmeld": 62161, "\u0120espos": 71327, "\u0120rowIndex": 52538, "ep": 752, "\u0120Harvard": 25996, "\u0120Mash": 69279, "ESCO": 71466, "\u0120Jennifer": 30750, "//--------------------------------": 49356, "\u0120slash": 37726, "\u0121": 221, "(done": 35332, "\u0120noodles": 61260, "\u0120FILES": 79845, "\u0120Lib": 5806, "\u0120Surface": 28061, "_meta": 13686, "-II": 76644, "-location": 61970, "\u0120testified": 39873, "commission": 81164, "\u0120lett": 51681, "\u0120validationResult": 97633, "ylene": 64651, "azor": 43966, "-launch": 86406, "sono": 74222, "\u0120wet": 14739, "\u0109Action": 68707, "\u0120heroine": 81187, "jection": 7761, ".then": 25642, "imating": 79448, "\u0120Economist": 84038, "\u0120queryInterface": 96015, "\u0120IL": 11598, "(localStorage": 39635, "\u0120waved": 65682, "\u00e5\u00a4\u00b4": 65455, "\u0120bouts": 96271, "_find": 22567, "unction": 600, "\u0120organis": 21874, "_nonce": 49608, "\u0120integer": 7698, "_sleep": 50493, "SYM": 80334, ".Abstractions": 95070, "coffee": 79217, "\u0120use": 1005, "DATE": 7242, "_CAPACITY": 93253, "\u0120erosion": 58097, "\u0120Blessed": 77097, "\u0120Cl": 2493, "arking": 34552, "olang": 38387, "ucid": 73787, "msp": 93645, "\u0120Maid": 48185, "\u0120right": 1314, "listener": 36139, "\u0120mapa": 69210, "\u0120SEXP": 87140, "\u0120writing": 4477, "(reordered": 95327, "Kh": 47888, "\u0120reason": 2944, "_lvl": 69075, "enze": 85191, "\u0120goto": 8145, "FG": 12270, "\u0120Dylan": 44458, "\u0120Force": 11994, "noun": 91209, "INET": 94630, "\u0120Tags": 28783, "<Member": 99039, "_imp": 37888, "\u0120Pat": 7281, "\u0120Africa": 10384, "\u0120LinkedIn": 33867, "\u0120Look": 9372, "AE": 13983, "igu": 27843, "\u0120lacks": 37856, ".PropertyType": 96818, "\u0120ControllerBase": 80124, "\u0120Biol": 81894, "\u00ec\u0128\u012e": 44690, "\u0120guide": 8641, "917": 24391, "/cal": 92834, "\u0120evolution": 15740, "'elle": 80720, "\u0120sqlalchemy": 43275, "\u0120NOT": 4276, ".local": 11279, "\u0120Narendra": 67432, "alamat": 54318, "_Application": 97679, "\u0120countdown": 49128, "iniz": 70739, "\u0120sentinel": 81878, "(Py": 43098, "\u0120classical": 29924, "\u0120Ave": 21998, ".Join": 23165, "\u0120Trip": 27852, ".SetValue": 43826, "_transport": 47498, "\u0120functionName": 91619, "\u0120hoy": 49841, "\u0120rowData": 74758, "itary": 45906, "log": 848, "\u0120ba": 13081, "\u0120proceeded": 45374, "recht": 48731, "\u0120webView": 57458, "(TAG": 16372, ")));\u010a\u010a": 23341, "(low": 58898, "jr": 60013, "\u0120seg\u00c3\u00ban": 63115, "urances": 64996, "uard": 11280, "\u0120tow": 16190, "\u0120lan": 31791, "\u0120poets": 74072, "\u0120ApiService": 79851, "_ADAPTER": 80702, ".getLog": 83864, "filtr": 85846, "-Length": 53593, "xad": 56354, "\u00c5\u00b1": 52359, "xo": 41922, "_create": 8827, "_timezone": 54293, "\u0120diabetic": 71975, "\u0120tst": 72807, "\\\"\\": 23041, ">\\<": 24556, "\u0120expose": 29241, "Particles": 57611, "\u0120capsules": 65879, "_fecha": 73617, "presentation": 45025, "\u0120Supporters": 91363, "acie": 47383, "ReturnType": 85462, "-powered": 41503, "illard": 67359, "ounter": 41014, "bern": 77812, "\u0120Flowers": 52645, "Aug": 22630, "$rs": 70290, "\u0109rv": 79584, "/release": 89748, "=\"'+": 37070, "Liked": 77668, "\u00e3\u0122\u0124": 1811, "POINT": 22255, "\u0120ogs": 44834, "\u0120oxide": 51180, "-p": 2320, "\u0120unittest": 20499, "\u0120examining": 38936, "DataSetChanged": 42741, "\u0120Evan": 45043, "\u0120grill": 40158, "][-": 63972, ".getDeclared": 81365, "_transform": 18956, "\u0120CommandType": 38027, "\u0120rotterdam": 71529, ".CLIENT": 73584, "*m": 33669, "\u0120Norwich": 84223, ".Ship": 86911, "latin": 61185, "-eight": 70815, "SECOND": 99304, "\u0120timed": 26245, "Don": 8161, ".'\u010a": 24314, "\u0109answer": 73670, "\u0120($)": 76446, "StartPosition": 54867, "ich": 718, "_VER": 15159, "\"](": 76292, "\u00c3\u00b6": 3029, "\u0109RT": 12089, "\u0120password": 3636, "\u00ef\u00bc\u012e\u00e9\u00bb\u013a\u00e8\u00ae\u00a4": 80003, "\u0120reserve": 21137, "\u0120alternating": 73462, "-winning": 27875, "\u0120hope": 3987, "\u0120eliminates": 60944, "-radius": 18180, "\u0120waiver": 54205, "\u0120eternal": 35825, "HEMA": 36939, "\u0120jamais": 56316, "\u0120btc": 87137, "\u0120Bowman": 85696, "\u0120Thunder": 27789, "-session": 58281, "\u0120stati": 96977, "\u0120spelling": 43529, ".Override": 91108, "\u0120upcoming": 14827, "atti": 32055, "\u0120characterize": 70755, "emsp": 92237, "()['": 39715, "\u0120limiting": 33994, "_parallel": 61725, "\u0120combined": 11093, "\u0120getFile": 63542, "\u0120paved": 63675, "acter": 2540, "(surface": 77950, "_IMPORTED": 26334, "\u0120Ministry": 20214, "\u0120irreversible": 93294, "\u0120dragging": 43476, "onomic": 48228, "\u0120abdominal": 57056, "\u0120propagate": 58514, "\u0120Franklin": 19372, "\u0120dor": 53403, "\u0109\u0109\u010a": 2451, "\u0120Tips": 26788, "(valor": 74507, "\u0120\u00d0\u00bc\u00d1\u012d": 88300, "\u0120Ritch": 97982, "flags": 11409, "adoo": 78212, "\u0120KY": 50579, "\u0120Williamson": 69631, "\u0120Tories": 67069, "POSITORY": 96497, "ithmetic": 27011, "fail": 18910, "Hand": 2367, "\u0120Wilhelm": 93537, "\u0120Initial": 4220, "getWidth": 66831, "jylland": 76261, "suit": 73140, "powers": 78404, "@Before": 78409, "isks": 93934, ".exam": 95217, "Members": 25370, "\u0120discard": 38967, "nat": 34397, "\u0120transitions": 34692, "\u0120induce": 49853, "\u0120Protection": 19721, "urs": 1759, "833": 22904, "_booking": 66265, "ivery": 6633, "\u0120journalistic": 94800, "(source": 12719, "dff": 99814, "\u0120''}\u010a": 76452, "ordinated": 83569, "\u0120sowie": 40407, ".find": 2725, "\u0120Ionic": 40674, "\u0120Fault": 60249, "Ranked": 95877, "\u0120shaded": 92866, "\u0120zak": 51415, "\u0120SVN": 76814, "amma": 13400, "\u0120Guitar": 47759, "\u0120incred": 9850, "\u0120paranormal": 92697, "-val": 46254, "\u0120\u00e8\u00ae\u00be": 47566, "\u0120Jenny": 52179, "\u0120invasion": 30215, "\u0120wxT": 75297, "-leaning": 78461, "WithTitle": 67143, "\u00e7\u00a5": 55228, "\u0120kre": 82170, "\u00e7\u0126\u00a1\u00e3\u0123\u0139\u00e3\u0123\u0137\u00e3\u0124\u0135": 87474, "\u0120vodka": 76524, "Stra": 77414, ".crt": 94969, "(QStringLiteral": 99349, "\u0120bubble": 24529, "\u0120assignments": 32272, "\u0120\u00ea\u00b0\u0134": 46663, "\u00e5\u013e\u00a8\u00e7\u00ba\u00bf": 100207, "\u0120FBI": 14160, "<&": 53344, "_failed": 36160, "usk": 33879, "ashed": 13883, "\u0120Alexandria": 57233, ".DEBUG": 39236, "\u0120hath": 52677, "\u0109\u0109\u0109\u0109\u0109\u0109\u0109\u0109\u0109\u0109\u0109\u0109\u0109\u0109\u0109\u0109\u0109\u0109\u0109\u0109": 98091, "\u0120postpon": 51101, "\u0120Heights": 40503, "Biz": 98581, "ician": 12734, "ipp": 2877, "\u00d1\u0123\u00d1\u0124\u00d1\u012e": 35592, "_Abstract": 75472, "\u0120en": 665, "finally": 40276, "\u0120Boost": 34507, "Even": 13461, "-not": 30269, "\u0120Light": 8828, "tabs": 32093, "Ctrls": 96082, "\\Foundation": 46322, "$return": 50691, "\u0120glacier": 94867, "<UFunction": 92339, "\u0120^{\u010a": 48523, ".Run": 17123, "acies": 27121, ".Skin": 92731, "ellig": 6842, "Raster": 69812, "\u0120roma": 58567, "\u0120togg": 54906, "fails": 60731, ":index": 47188, "\u0120Arabian": 73698, "_CONSOLE": 90392, "\u0120TIMESTAMP": 93692, "\u0120Daten": 48054, "\u0120handles": 13777, "\u0120'{}'": 70522, "_simps": 80672, "contains": 13676, "\u0120reviewer": 56614, "\u0120onPostExecute": 84263, "\u0120consumers": 13723, "\u0120Carnegie": 64373, "~-~-~-~-": 91107, "\u0120GANG": 97577, "elters": 47883, "ur": 324, "())))\u010a": 61231, "_escape": 22585, "ired": 2757, "\u0120frau": 38131, "384": 12910, "\u0120fracking": 71154, "].": 948, "\u0120Lent": 84470, "\u0120acciones": 94485, "\u0120RCMP": 75724, "summary": 1743, "(true": 3800, "WM": 15565, "GM": 21287, "REGISTER": 47402, "\u0120succeeding": 73820, "\u0120tits": 30682, "\u0120\u0120\u0120\u0120\u0120\u010a\u010a": 75625, "(Border": 94926, "azy": 13933, "`\u010a": 4077, "(Database": 51394, "={['": 96690, "\u0120residue": 49232, "\u0120pant": 26346, ".readlines": 38326, "igeria": 64817, "\u0120clums": 78057, "lij": 23808, "pras": 82322, "\u0120assertions": 55936, "ffield": 54339, "reau": 91049, "Accordion": 72703, ",...\u010a\u010a": 39325, "491": 21824, "\u0120body": 2547, "\"Yeah": 78917, "_WINDOW": 25815, "\u0120fantast": 64979, "ors": 1105, "Delay": 20640, "Collections": 53830, "\u0120polarization": 83245, "\u0120VBox": 99092, "vpn": 60689, "\u00d0\u00bf\u00d0\u00b8\u00d1\u0123": 30765, "ufacturer": 32645, "ingga": 66501, "_permission": 39071, "+(\\": 93242, "reported": 76833, "dsl": 82974, "\u0120alt": 4902, "\u0120neue": 39483, "\u0120Mia": 61697, "\u0120publications": 29085, "\".\"": 66820, "\u0120misplaced": 90660, "importe": 94896, ".'/": 26635, "/goto": 93120, "leys": 48779, "<App": 56768, "ilitary": 20860, "\u00c3\u00a4ft": 57639, "intage": 16547, "rades": 60635, "-'.$": 62760, "\u0120op": 1200, "[((": 47619, "abee": 80212, "\u0120rez": 49158, "-scenes": 80645, "ADIUS": 45671, "ZZ": 34636, ".Date": 8686, "$query": 16212, "\u0120eighteen": 63134, "\u0120ostream": 64611, ".TextEdit": 83507, "\u0120attractiveness": 100045, "_movie": 51829, "\u0120-\u010a": 18722, ".Itoa": 65209, "Tables": 22409, "\u0120\u00ec\u012a": 70292, "Choice": 25759, "stuff": 58404, "\u0120Hosting": 69523, "hydration": 81824, "\u0120squarely": 95563, "\u0120Headers": 22141, "_fin": 40837, "Circle": 26264, "\u0120Marines": 51889, "\u0120sina": 97363, "\u0120/*!": 23316, "\u00c3\u00a4d": 31975, "Scope": 11037, "\u0120Three": 14853, "yeah": 76515, "\u0120Spect": 27726, "\u0120theatre": 34596, "\u0120visualize": 51187, "\u0120GDPR": 92048, ".Depth": 77716, "\u0120Intro": 53086, "\u0120\u00d0\u00b4\u00d0\u00b0\u00d0\u00bd\u00d0\u00bd\u00d1\u012d\u00d1\u0127": 53376, "\u0120eccentric": 55920, "\u0120Birmingham": 36937, "Spacing": 28124, "ems": 12116, "\u0120Shade": 80918, ":convert": 96715, "\u0120DVD": 18584, "_notification": 35396, "\u0120Settings": 11548, "rie": 7379, "\u0120alert": 5225, "\u0120repairs": 31286, "_sh": 3797, "\u0120Austrian": 58069, "({'": 15597, "orge": 6809, "\u0120inquiries": 44983, "_NEW": 22789, "\u0120Kasich": 76081, "\u0120Sniper": 76154, ".constants": 39327, "\u0120mdb": 98876, "\u0120here": 1618, "\u0120descriptor": 16819, "externalActionCode": 91198, "\u0120flats": 61457, "\u0120motiv": 12521, "(tv": 76724, "liste": 65746, "_triggered": 79778, "REW": 94252, ".baseUrl": 53366, "portlet": 85643, "\u0120Abdel": 93391, "\u0120Austria": 35998, "\u0120Necessary": 95633, "\u0120Bav": 78080, "Backing": 41432, "()?.": 58595, "\u00d0\u00b4": 7094, "262": 14274, "\u00d8\u00a7\u00d8\u00b1": 36138, "\u0120slack": 46719, "\u0120\u00e2\u012a\u012a": 49435, ".+": 60252, "\u0120Sphere": 55599, "\u0120Maintain": 87477, "\u0120cdecl": 88274, "Mem": 19346, "ence": 768, "-neutral": 92322, "\u0120nails": 40943, "\u0120drifting": 85353, "mented": 28078, "\u0120introductory": 62469, ".multiply": 47533, "\u0120Woody": 76059, "\u0120Asus": 76273, "\u0120Discussions": 98225, "\u0120whe": 15240, "zc": 36068, "\u0120Roots": 75687, "imal": 2931, "atural": 4688, "fections": 25384, "\u0120pec": 31100, "\u0120Seeking": 59805, "BOOT": 68176, "berman": 81295, "\u0120bedtime": 89607, "\u0120th\u00c3\u00b4ng": 93530, "updatedAt": 70389, "\u0120Ask": 21069, "Creat": 31844, "[['": 57430, "\\Log": 81589, "\u0120venir": 96586, "_import": 18941, "\u0120knockout": 77173, "NEL": 82951, "RIC": 37078, "\u0120typing": 20061, "CSS": 34758, "_bool": 22947, "\u0120Seat": 40323, "\u0120estruct": 76509, "\u0120Modeling": 77349, "mmas": 90636, "_rc": 31399, "\u0120peuvent": 56311, "\u012c\u00b6": 38540, "(AF": 58967, "\u0120=\"\";\u010a": 99837, "\u0120gb": 48115, "\u0120Celtic": 55764, ".success": 15788, "\u0120hel": 11591, "\u0120scholars": 31839, "\u0120sleeves": 43475, "-place": 42761, "\u0120lifelong": 51263, "_keywords": 52454, "')\u010a": 1329, "ackets": 18889, "\u0120soon": 5246, "\u0120Pussy": 47945, "\u0120epis": 67594, "igrations": 18303, "Male": 37521, "Race": 57091, "Going": 47439, "\u0109retval": 62470, "ecture": 63293, "\u0109call": 68388, "(chip": 75025, "ifter": 38800, ".Margin": 20952, "\u0120Flo": 20151, "\u0120categoria": 48118, "holes": 75790, "\u0120Approach": 54184, "\u0120Gale": 79332, "\u0120sabotage": 80753, "\u0120defenseman": 83156, "\u0120{/*": 17679, "CHandle": 84253, "\u0120perfor": 84868, "\u0120executor": 32658, "\u0120suicides": 85049, "Important": 53380, "(rest": 63136, ",st": 91359, "\u0120sweeps": 97567, "\u00d0\u00be\u00d1\u0123\u00d1\u0124": 25262, "\u0120residing": 67512, "Inactive": 73314, "\u0120Sta": 60920, "shiv": 65830, "\u0120klub": 83790, "\u0120Bal": 19984, "\u0120evidenced": 69457, "\u00e2\u0122\u012d": 16067, "\u0120surroundings": 40190, "\u0120suitable": 14791, "vern": 76852, "\u00e2\u0122\u013f?": 74022, "\u0120deficit": 29287, "\u0120Aspen": 94328, "cation": 65982, "\u0120TimeZone": 89809, "GUI": 20844, "\u0120Exc": 39995, "-Up": 47197, "ug": 773, ".INFO": 39417, "\u0120lain": 51476, "(\";": 62164, "ss": 784, "\u0120Featured": 51319, "zimmer": 65574, "\u0120jury": 21928, "\u0120legality": 89846, "-haspopup": 62326, "_PD": 70587, "\u0120Optionally": 97295, "\u0120\u00d0\u00bd\u00d0\u00b0\u00d1\u0129": 73642, ".right": 9707, "_like": 26616, "_SRC": 30509, "(className": 51699, "\u0120Jays": 66835, "161": 10718, "\u0120Pavel": 79369, "keh": 71717, "\u0120migrations": 17500, "ahoo": 17397, "\u0120BIOS": 53963, "\u0120shit": 17619, "\u0120\u00c3\u00a9taient": 97958, "\u0120README": 63045, ".Fill": 20060, "\u0120Update": 5666, "\u0120sob": 11752, "\u00d0\u00bf\u00d0\u00b8\u00d1\u0123\u00d0\u00b0\u00d0\u00bd\u00d0\u00b8\u00d0\u00b5": 94722, ".CV": 99319, "/angular": 41151, "\u0120Cloth": 84735, "\u0120Successful": 46626, "213": 11702, "lags": 23698, "*);\u010a": 37982, "_VECTOR": 49093, "OLF": 87116, "\u0120treat": 4322, "\u0120Fol": 40555, "_registered": 73783, "MMM": 87773, "interval": 29004, "\u0120forefront": 52301, "_goal": 42364, "\u0120Baton": 86269, "\u0109component": 53328, "wear": 23581, "_png": 62846, "\u0120Caps": 44465, "\u0120\u00d0\u00b8\u00d0\u00bd\u00d1\u0124\u00d0\u00b5\u00d1\u0122": 98051, ")V": 78490, "-stat": 73454, "\u0120Creative": 25248, "\u0120Luca": 84278, "(length": 22081, "\u0120lots": 10283, "\u0120backgroundColor": 12983, "\"They": 32408, "pies": 45752, "_jwt": 96676, "\u0120Weekend": 48534, "\u0120breat": 28855, "OnError": 76045, "\u0120ci": 12088, "\u0120Nous": 48109, "nces": 99262, "=$_": 17682, "\u0120concurrency": 79110, "_RECE": 50916, "\u0120retirees": 97823, "\u0120Bren": 44808, "\u0120pediatric": 53166, ".getM": 67478, "\u0120MDB": 87452, "/pkg": 23339, "\u0120pharmacist": 90394, "\u0120lng": 25857, "\u0120Contractors": 98893, ">'.$": 30641, "\u0120Greenville": 93654, "_Get": 13928, "ivos": 25204, "_Collections": 39010, "abo": 48521, "\u0120Tween": 67435, ".nav": 25164, "GRP": 97093, "Arguments": 19686, "prime": 33438, "_sz": 35045, "Bonjour": 82681, "<Car": 93437, "ility": 1429, "ez": 10333, "assed": 60104, "PEnd": 88777, "\u0109anim": 94602, "iliated": 54873, "-flow": 62413, ".FILE": 72639, "'});\u010a": 29361, "\u0120>\u010d\u010a": 40306, "promise": 50650, "bru": 33713, "\u0120Bahamas": 84229, "\u0120musician": 39844, "_app": 8354, "como": 97396, ".Typed": 99252, "(ss": 31778, "\u0120timer": 9198, "thesize": 27985, "\u0120Charges": 79069, "\u00d0\u00bf\u00d1\u0122\u00d0\u00b0\u00d0\u00b2": 44646, "\u0120tarea": 91007, "Together": 82087, ".schema": 31992, "casts": 51134, "\u0120Spiele": 70562, ".Broadcast": 85888, "\u0120snaps": 52404, "ADDING": 53578, "(trace": 56558, ".permission": 33673, "_Al": 41912, "LETED": 57586, "\u0120Withdraw": 68481, "\u0120getKey": 75203, "Environmental": 83166, "ulsive": 58921, ".DropDownList": 76679, "ittel": 96383, "EM": 2783, "\u0120coils": 71860, "\u0120%-": 52053, "tein": 39340, "CustomAttributes": 63046, "\u0120produits": 54021, "\u0120l\u00c3\u00b6": 77233, "Unsigned": 57521, "\u0120Populate": 72038, ",copy": 73518, "_SPELL": 84768, "007": 11194, "\u0120Williams": 13926, "\u0120expressions": 24282, "-serving": 87086, "\u0120Health": 6401, "_exists": 9965, "\u0120conforms": 96264, ".Price": 50263, "$\u010a\u010a": 67526, "\u0120Sponge": 81843, "\u0120undergo": 37771, "_content": 7647, "\u0120Nos": 51097, "\u0120pog": 81369, "\u0120G\u00c3\u00a4": 95689, "\u0120afraid": 16984, "\u0120PROFITS": 29324, "\u0120Shooting": 61881, "Ver": 10351, "ACC": 30542, "\u0120grote": 44546, "\u0120Outputs": 59514, "\u0120alleg": 7179, "Education": 40234, "ADM": 51349, "\u0120locating": 72991, "'hui": 88253, "inde": 28074, "\u0120knots": 61317, "Kids": 70533, "840": 19899, "finite": 26806, "Da": 31516, "imization": 67064, "ApiResponse": 62591, "_TAG": 17002, "[D": 66020, "\u00eb\u00a5\u00bc": 18918, "_T": 1159, ".widget": 5917, "...\"": 21908, "/st": 14607, "\u0120doctr": 61990, "\u0120Boise": 79673, "textTheme": 94823, ".writeln": 93354, "ARC": 47572, "\u0120VP": 37110, "\u0120seja": 53696, "atically": 7167, "_cut": 42417, "\u0120informaci\u00c3\u00b3n": 35615, ".Sdk": 98213, "\u0120invitation": 29788, "_VENDOR": 57548, "]:\u010a\u010a\u010a": 34766, "\u0120'_": 9418, "Pending": 33127, "\u0120intestinal": 63900, "_URL": 8159, "Rob": 14804, "son": 942, "\u00e0\u00b8\u00a2": 35609, "(SE": 52148, "_ie": 63303, "Mic": 98402, ".googleapis": 20341, "\u0120Rece": 61396, "\u0120Thy": 67675, "\u0120laptops": 48985, "awner": 68293, "\u0120colum": 94325, "Urls": 16012, "\u0120coerce": 84125, "htar": 85744, "\u0120($_": 17892, "NG": 6269, "ativ": 20053, ".frame": 9318, "_now": 21480, "\u0120dell": 25219, "\u0120Introduced": 42789, "awning": 51946, "\u0120eagerly": 63473, "\u0120challenge": 8815, "_INVALID": 15520, "\u0120Carp": 49877, "\u0120lij": 73784, "\u0120Georg": 13629, "\u0120holy": 27823, "visibility": 29276, "Lisa": 73849, "_Color": 44487, "taboola": 49589, "\u0120LCD": 22745, "\u0120Bhar": 67692, "\u0120Wax": 76842, "\u0120Mold": 55263, ".Persistence": 68264, ":boolean": 43037, "artment": 3275, "\u0120segundo": 45387, "ZX": 81823, "_l": 918, "\u0120elseif": 12017, "\u0120DEFAULT": 12221, "/shared": 27038, "arro": 82301, "\u00a1\u00b4": 91657, "\u0120sparking": 100082, "eba": 71853, "$t": 34218, "\u0120blockers": 84235, "\u0120cro": 14425, ">null": 53972, "\u0120Conan": 79912, "\u0120f\u00c3\u00a5r": 49616, "OBJ": 54549, "\u0120bookmarks": 62019, "erequisites": 83401, "etes": 96281, "azu": 40229, "continental": 83951, ".visibility": 28834, ".jetbrains": 36610, "[K": 54377, "\u00e5\u00ae\u013c\u00e4\u00b9\u012b": 92382, "\u0120alertController": 73781, "\u0120LES": 97529, "Illustr": 97257, "\u0120smart": 7941, "apia": 80470, "\u00e7\u00ac\u00ac": 30537, "within": 56950, "\u0120paralysis": 86139, "\u0120hitting": 20129, "\u0120providing": 8405, "\u0120plugin": 9183, "\u0120Mongo": 25419, "\u0120makeup": 27649, "bubble": 78589, "Media": 12950, "\u0120\u00c3\u00banica": 89272, "Vu": 88242, "(convert": 61908, "iele": 25641, "EditingStyle": 88527, ".setIcon": 39886, "Stopping": 76485, "\u0120Conte": 94478, "248": 14185, "andle": 3397, ".getName": 9088, "ERIC": 37016, "\u0120Respir": 77934, "inst": 6442, ".Condition": 76234, "Pen": 29305, "\u0109Print": 59802, "\u0120analogous": 79283, "BASEPATH": 44693, "?><": 56417, ".SetText": 93359, "Reference": 9032, "odal": 58697, "Pri": 93978, ".ip": 24046, "queueReusableCell": 39659, ".getFullYear": 41051, "others": 59961, "\u0120progen": 84360, "\u0120prevent": 5471, "\u0120casa": 25233, "nek": 48045, "\u0120contain": 6782, "\u0109Logger": 56961, "Browsable": 59954, "\u0120eyel": 54957, ">New": 78532, "\u0120stip": 43773, "FolderPath": 91697, ">\")\u010a": 43463, "}.\u010a": 28374, "JKLM": 71618, "\u0120Collect": 21153, "chts": 55427, "\u0120abbreviation": 72578, "\u0109errors": 74524, "\u0120responseType": 91544, "sh": 939, "\u0120aproxim": 95524, "\u0120Geg": 99963, "alchemy": 36005, "OCKET": 34295, "\u0120flyer": 76006, "\u0120strncpy": 58429, "Your": 7927, "(action": 15665, "Broadcast": 44462, "\u0120\u00ea\u00b2\u00b0": 83719, "/utility": 96826, "\u0120stereotypes": 54168, "\u0120permutation": 59541, "\u0120irritating": 85077, "\u0120Freeze": 79692, "\u0120Sharma": 61115, "ents": 812, "\u00e3\u0122\u0122": 23249, "_THRESHOLD": 45505, "INTERNAL": 51525, ".imp": 81554, "\u0120disemb": 98644, "\u0120dri": 50511, "CString": 64777, "&_": 86147, "_Tag": 79140, "_EOF": 90387, "\u00d0\u013d": 65014, "\u0120tracks": 14242, "\u0120Draw": 12261, "\u0120recess": 47862, "getY": 53668, "\u0120\u0120\u0120\u0120\u0120\u0120\u0120\u0120\u0109\u0109": 38020, "\u0120prosperity": 44202, "ografia": 50901, ".accounts": 67045, "\u0120scarf": 68371, "Accuracy": 46922, "\u0120casual": 16736, "IRD": 46280, "\u0120commons": 66062, ".deb": 81831, "smith": 34117, "\u00eb\u00ac\u00b8": 52688, "_LL": 71409, ".Sql": 23867, "_scr": 60828, "\u0120\u00ec\u013e\u0126\u00ec\u00b9\u013a": 100087, "\u0120tradition": 14135, "\u0120fleece": 93090, "640": 14033, "\u0120Blitz": 89228, "\u0120bitterly": 99945, "\u0120ramifications": 85450, "\u0120\",\"\u010a": 90588, "\u0120reputed": 93072, "\u0120praw": 54572, "\u0120stumble": 75237, "\u0120transporte": 96488, "\u0120Updated": 16459, "\u0120filed": 13019, "arya": 73268, "\u0109include": 25728, "Law": 39166, "-addons": 95859, "\u0120quatre": 99309, "\u0120the": 279, "\u00ed\u012e": 67218, "\u0120getInput": 90077, "latable": 92247, "\u0120vision": 11376, "lest": 60244, "\u00eb\u00b0": 39277, "-solving": 99246, "\u0120Scotland": 19627, "TU": 99682, "192": 5926, "\u00e6": 162, "\u0120Ebola": 48082, "Uber": 57396, "----------------------------------------------------------------------": 54364, "\u00e7\u012b\u012a": 41401, "\u0120upset": 23268, "\u0120brushed": 62639, "/messages": 72853, "_procs": 97248, "WithTag": 44231, ".INTEGER": 50562, "\u0109stat": 79185, "\u0120THE": 3247, ".LOC": 76856, "_CONN": 61476, ".Il": 90452, "-being": 33851, "\u0120libros": 73446, "GreaterThan": 86820, "\u0120cre": 1922, "GetString": 50005, "\u0120deduction": 39943, "egl": 64602, "Requirement": 76902, "\u0120administrative": 23541, "\u0120trovare": 83683, "club": 20453, "aphrag": 95896, "543": 19642, "KT": 34639, "\u0120module": 4793, "only": 3323, "\u0120plus": 5636, "Related": 11948, ".views": 22831, "\u0120ASP": 49509, "-render": 60033, "aptop": 16791, "\u0120Frances": 43833, "\u0120registrar": 62567, "\u0120rhe": 68132, "\u0120aprend": 68446, "\u0120Dess": 70596, "\u0120Pal": 11165, "ALT": 36930, "\u0120gam": 9192, "\u0120WC": 37746, "\u0120THROW": 78634, "-zone": 78863, "Of": 2173, "\u0120[];\u010a": 6032, "\u0120favorable": 37849, "Attrs": 54771, "\u0120response": 2077, "186": 9714, ".Plugin": 65478, "(Network": 78723, "\u0120Entire": 80340, "\u0120obtained": 12457, "\u0120blind": 18507, "\u0120Metro": 21631, ".second": 13872, "\u0120fopen": 21001, "\u0120trous": 61128, "\u0120dialogRef": 80877, "\u0120JAN": 84587, "\u0120Sammy": 91129, "\u0120prioritize": 63652, "\u0120flushing": 91632, "spir": 50177, "ONGLONG": 99596, "\u0120cultura": 74735, ".guid": 63994, "\u0120overflowing": 94315, "\u0120Boston": 10406, "\u0120Like": 9086, "\u0120InitializeComponent": 16631, "\u0120SECTION": 43433, "\u0120Automation": 54878, "\u0120finanzi": 88978, "\u0120QUEUE": 98339, "\u0120convicted": 23959, "\u0120Proceedings": 55227, "uft": 90231, "_RADIO": 75515, "\u0120Ley": 54525, "_SUFFIX": 64925, "\u0120depressive": 84564, "\u0120Vs": 44082, "chsel": 91930, "Thus": 45600, "\u0120enviado": 99672, "hawks": 71387, "\u0120flatt": 52139, "peg": 10524, "webView": 71787, "/fire": 54110, "\u00ec\u0139\u00b4": 55055, "cxx": 90173, "_reg": 5025, "\u0120Pear": 23910, "illin": 61597, "(JNIEnv": 65988, "\u0109JOptionPane": 75308, "assign": 7128, "AreaView": 77672, "subtitle": 41517, "\u00e3\u0123": 2243, "\u0120lbl": 16826, "\u0120Stories": 30129, "perfect": 64185, "\u0120Andr": 78978, "(||": 80553, "\u0120readdir": 81232, "\u0109comment": 97368, "-we": 62441, "*l": 67280, "_texture": 29265, "Republic": 39963, "\u0120Handling": 56813, "NibName": 61958, "\u0120Coupons": 68167, "\u0120declare": 16292, "\u0120commerce": 36754, "\u0120ech": 31972, "mock": 17127, "\u0120anus": 82408, "\u0120bubbles": 44783, "\u0109un": 21113, "\u0120p\u00c3\u00a5": 9292, "\u0120distilled": 89867, "\u0120interesse": 96521, "-girl": 63970, "\u0120connected": 8599, "eldom": 53734, "\u0120+\u010a": 3694, "\u0120Feder": 21780, "Closing": 37394, "_zoom": 57836, "\u0120Banco": 77787, "\u0120suis": 36731, "-wh": 56432, "\u0120Moments": 83121, ".lazy": 85221, "\u0120NEW": 16560, "\u0120bouncing": 65128, "\u0120JOIN": 13369, "eso": 29930, ".seed": 37425, "igit": 12883, "agner": 40538, "\u0120m": 296, "`": 63, "--------": 515, "\u0120hem": 17728, "\u0120fantastic": 14964, "\u00e6\u012e\u012b": 60979, "olithic": 66470, "pit": 33686, "/content": 29017, "\u0120electronically": 71870, "(le": 75924, "\u0120stared": 45135, "\u0109\u010d\u010a\u010d\u010a": 43725, "obic": 31906, "\u00e0\u00b8\u00b1": 24152, "{_": 88757, ",rp": 90110, "\u0120diaper": 76853, "\u0120Horm": 92208, "kiye": 96303, "\u0120erotisch": 97663, "acb": 98571, "bsite": 3302, "\u00e2\u0122\u013b": 529, "\u0120amplify": 97168, "\u0120Ceremony": 95752, "ANCELED": 98617, ".githubusercontent": 52027, ".use": 7549, "\u0120mentions": 34945, "=w": 64517, "_GROUPS": 90289, "bug": 2365, "\u0120reint": 76267, "\u0120StringWriter": 85887, "\u0120agree": 7655, ".Handler": 32110, "pg": 3601, "\u0120infants": 42534, "\u0120hangs": 59441, "(sent": 62381, "\u0120fifo": 64597, "ienie": 75422, "\u00e6\u00b2": 31106, "\u0120Miner": 91012, "RowAt": 25209, "\u0120Phillip": 59809, ".addObserver": 93502, "lsi": 66633, "\u0120mommy": 82240, "bruar": 94389, "\u0120opendir": 96242, "\u0120moll": 55509, ".Designer": 98323, "\u0120ee": 37443, "BJ": 15327, "popup": 24636, "\u0120phrases": 32847, "_VOICE": 93930, "\u0120having": 3515, "\u0120Buster": 96587, "\u0120seiner": 55036, "\u0120FPGA": 90562, ".isUser": 95094, "st": 267, "[key": 8320, ".Be": 72023, "\u00ef\u00bc\u0123\");\u010a": 45516, "\u0120lectures": 46232, ".GUI": 65418, "\u0120whistle": 40649, "\u0120Werk": 90523, "').\"": 92614, "\u0120diversos": 95651, "Strike": 73419, "\u0120Polic": 99212, ".COL": 85175, ".MoveNext": 88042, "\u0120Automotive": 55518, "led": 839, "\u0120precio": 37620, "agr": 69405, "\u0120birds": 20229, "\u0120usando": 58241, "Jwt": 73856, ",line": 69850, "\u0120refusing": 39089, "\u0120wa": 10667, "\u0120classNames": 56565, "lor": 9761, "oxy": 61263, "\u0120rubble": 74535, "vrier": 91137, "\u0109not": 98366, "ftp": 26124, "\u0120Collins": 29770, "ombie": 24227, "constraint": 49157, "\u0120clang": 18761, "_host": 13144, "_dependency": 63487, "dot": 16510, "\u0120combines": 33511, "\u0120laz": 65536, "+S": 89053, ".raises": 50623, "atever": 7567, "\u00c3\u00a2n": 40492, "\u0120productService": 100095, "userinfo": 62610, "\u00e5\u00a4\u00b1": 21388, "adian": 10272, "\u0120reversed": 28537, "pletion": 14723, "\u0120Corporate": 36565, "\u0120vo": 4160, "(Event": 31569, "\u0120Holiday": 32769, ".)": 6266, "ragon": 56250, "(Unknown": 98956, "\u0120prohibited": 27010, "\u0120Shot": 33447, "\u0120Glouce": 87586, "\u0120tastes": 36263, "\u0120shutdown": 24700, ":a": 44933, ".removeItem": 45100, "-focus": 80564, "\u0120Faculty": 42904, "gression": 30840, "(ob": 50695, "\u0120soph": 19219, "\u0120(![": 66931, "\u0120allocated": 20816, "008": 11436, "\u0120canada": 32863, "\u0120dialect": 43379, "Men": 29819, "\u0120comercial": 74961, ".de": 2337, "nage": 68155, "\u0120Gregory": 44069, "_UClass": 68189, "/V": 28332, "GetObject": 85640, "\u0120arc": 15952, ".resolution": 87531, "\u0120Nov": 4723, "\u0120feudal": 95450, "\u0120Perhaps": 19292, ":[": 7407, "acam": 96708, "Leo": 99767, "\u0120\u00e2\u0122\u00a2": 7436, "reset": 9915, "\u0120\":\"": 24320, "_EXTERN": 38843, "\u0120X": 1630, "790": 22876, "\u00e6\u0123\u00af": 23018, "_bus": 26492, "\u00e8\u012d": 51043, "$('.": 19244, "\u0120CURRENT": 44207, "\u0120Neb": 52809, "\u0120mr": 17767, "constants": 16140, "\u0120Cookie": 25353, "\u0120literacy": 53082, "floating": 83610, "_COMPILER": 88109, "ialis": 18159, "\u0120Avengers": 44197, "MONTH": 95414, "_year": 14987, "\u0120enemies": 14207, "995": 22101, "Representation": 57003, "\u0120fragrance": 56227, "\u00d9\u0128": 12061, "_typeDefinition": 67705, "\u0120progress": 5208, "\u0120\u00d0\u00a1": 28599, "----------": 15700, "\u0120\u00d0\u00ba\u00d0\u00be\u00d0\u00bc\u00d0\u00bf": 77573, "\u00d8\u00a7": 5821, "iffs": 19383, "blocking": 71456, "\u0120EDIT": 33357, "-art": 38921, "]'": 31751, "\u0120SNAP": 93633, "_ft": 42672, "ad": 329, "\u0120GM": 19722, "-backend": 91087, "_bind": 28561, "\u0120Criterion": 69500, "\u0120','": 23058, "-ups": 27859, "\u0120Gra": 40113, "\u0120styl": 49304, "acked": 11440, "\u0120virt": 13053, "\u0120veterin": 61671, "\u0120postcode": 73936, "\u0120SOFTWARE": 8730, "rowsing": 87366, "\u0120Applicants": 98789, "_gshared": 19083, "(Me": 14615, "\u0120wys": 55647, "utures": 75706, "sid": 21703, ":NSLocalizedString": 94195, "\"]:\u010a": 34834, "\u0120Citadel": 97326, "_dl": 51911, "Duplicate": 55079, "\u0120adipiscing": 59024, ".Italic": 95546, "Upper": 14585, "\u0120Fa": 18145, "389": 20422, "\u0120ML": 20187, "izzard": 39248, "advance": 60420, "]),\u010a": 17473, "\u0120Every": 7357, "olate": 34166, "\u0120kad": 69144, "ickerView": 77356, "\u0120onRequest": 80108, "\u0120dank": 81222, "\u0120Kuala": 87433, "Transient": 49283, "\u0120Unlock": 58530, "IP": 3378, "\u0120acclaimed": 50082, "eterangan": 54411, "\"crypto": 89065, "\u0120Sle": 89558, "\u0120ajax": 27377, "wake": 91019, "lix": 15401, "\u0120UIPickerView": 93331, "\u0120exciting": 13548, "\u0120corresponding": 12435, "870": 22440, "\u0120stair": 37649, ".getApp": 94635, "\u0120Honour": 96914, "\u0120\u0120\u0120\u0120\u0120\u0120\u0120\u0120\u0120\u0120\u0120\u0120\u0120\u0120\u0120\u0120\u0120\u0120\u0120\u0120\u0120\u0120\u0120\u0120\u0120\u0120\u0120\u0120\u0120\u0120\u0120\u0120\u010a": 34741, ".NumericUpDown": 67032, "_up": 8401, "\u0120How": 2650, "_cam": 43611, "bin": 7006, "\u0120Videos": 20114, "_hostname": 64940, "\u0120homeless": 23855, "\u0120stairs": 32249, "cr": 5192, "implemented": 55171, "\u0120nostra": 91127, "_Bar": 92169, "rescia": 98612, "*$": 40118, "\u0120suspects": 30861, "\u0120relay": 32951, "ungeon": 24349, "\u0120Standing": 46327, "aleigh": 55930, "login": 3758, "\u0120Jos\u00c3\u00a9": 44365, "fork": 45838, "\u0120\"'.$": 70283, "anchor": 17547, "ricula": 46582, "_geo": 61408, "\u0120EEG": 76908, "\u0120inspir": 12979, "\u0120DNA": 15922, "(Application": 42336, "\u0109l": 8986, "\u0120lic": 12553, "coords": 36130, "\u0120Antar": 48623, "\u0120precedence": 54156, ">-->\u010a": 37460, "\u0120tapi": 99176, "sek": 57367, "\u0120credibility": 38769, "_aw": 55268, "charted": 91918, "ycopg": 72825, "GER": 8912, "_pel": 83952, "sWith": 16441, "\u0120maximum": 7340, "\u0120multid": 64486, "::\u010a\u010a": 66152, "_AST": 77953, "\u0120torino": 71543, ".fp": 81666, "\u0109Destroy": 82332, "AML": 32202, "uten": 13462, "\u0120profil": 53454, "\u0120consensus": 24811, "\u0120Vect": 91256, "_VALID": 28435, "\u0109align": 75151, "\u0120intake": 23730, "']])\u010a": 98705, "\u0120superintendent": 74133, "\u0120turned": 6656, "<Scalars": 58593, "\u0120IRA": 59783, "\u0120flex": 5882, "Jennifer": 72526, "\u0120conn": 4635, "\u0120stopwords": 92144, "bles": 39863, "-saving": 59085, "\u0120ELEMENT": 63456, "------\u010a": 27507, "\u0120LSTM": 86571, "\u0120Zombies": 89937, "author": 3170, "ln": 2312, "\u0120titles": 15671, "lobber": 92497, "\u0120Graz": 94030, "[vertex": 94584, "\u0120seguir": 58548, "ophobic": 61800, "(device": 18329, "\u0120randomly": 27716, "\u00d0\u00b0\u00d0\u00b3": 34493, "spi": 40257, "\u0120Cham": 42883, "\u0120tale": 24162, "\u0120Syrians": 80056, "\u00e2\u0122\u0136we": 86319, "(Binary": 78933, "\u00e9\u0129\u012f": 30358, "\u0120FirebaseFirestore": 93340, "anium": 35822, "\u0120Cli": 98071, "_fb": 51896, "\u0120prosecutions": 98511, "/'+": 29507, "baum": 59611, "\u0120Faith": 34053, "},{\"": 37928, "Ret": 12289, "*/),": 56130, "\u0120Gujar": 56731, "\u0120Ended": 77171, "assignments": 97410, "\u0120RTE": 82955, "RequestMapping": 14457, ".sent": 49776, "-spacing": 53473, "represented": 53859, "\u0120inhibited": 99669, "\u0120chilling": 62724, "password": 3918, "\u0120numberWith": 50898, "irc": 2496, "$ar": 82874, "\u0120CGAffineTransform": 69889, "\u0120explic": 56369, "cassert": 68022, "\u0120cairo": 54748, "\u0120\u00e5\u013e": 54699, "igue": 22711, "_wf": 87482, "Total": 7749, "ULE": 7873, "\u0120liver": 26587, "\u0120taxable": 59453, "\u0120descendant": 76951, "HttpGet": 30874, "\u0120jsonObject": 31327, "ropy": 18237, "\u0120prophet": 53604, "\u0120Dev": 6168, "Manchester": 75343, "\u0120term": 4751, "/re": 10991, "})();\u010a": 53511, ".....\u010a\u010a": 81734, "\u0120serif": 90848, "washer": 48397, "builtin": 43557, "\u0120microscopy": 92914, "gone": 46696, "useRalativeImagePath": 89473, "\u00e8\u00af\u00b4\u00e6\u013a\u0130": 67494, "\u0120Gold": 7573, "\u0120ton": 8941, "()->": 2828, "\u0120london": 63146, "ency": 2301, ".drop": 19628, "\u0120emulation": 79941, ".fix": 68885, "960": 16415, "\u0120own": 1866, "\u0120invoice": 25637, "seek": 26797, "iolet": 32012, "cepts": 58871, "(et": 77322, "GitHub": 76715, "\u0120\u00e6\u013a": 40003, "\u0120calcium": 35719, "\u0120planting": 48114, ".acc": 61960, "\u0120\u00eb\u00b6\u0122": 86503, "\u0120Error": 4703, "Run": 6869, "\u0120matters": 13146, "agment": 15974, "691": 25168, "<context": 35628, "\u0120usher": 64260, "\u0120transcend": 74809, "-visible": 92236, "\u0120cinemas": 98707, "<||_unused_8_||>": 100268, ".instance": 13366, "zik": 76574, "\u0120conditioning": 35121, "\u00e7\u00a1\u00ae": 35056, "$route": 58812, "\u0120refreshed": 66229, "\u0120Lexer": 86182, "\u0120Redskins": 60378, "[email": 93150, "\u0120cooperating": 82589, "\u00ef\u00bc\u012e\u010a": 42553, "\u0120jav": 1281, "\u0120predic": 79434, "rgctx": 62588, "\u0120?\u010a": 18072, "\u0120b\u00c3\u00a9": 90551, "\u0120culp": 98025, "_parameter": 25943, "_kwargs": 37335, "\u0120sunt": 40795, "oooooooo": 61393, "\u0120Liver": 22617, "\u0120Passport": 67900, "\u0120priests": 42963, "\u0120IPAddress": 84396, ":'\u010a": 92188, "Autowired": 13494, "\u0120imageUrl": 40749, "[r": 16523, "'Re": 50527, "DON": 85741, "BED": 66337, "\u010d\u010a\u010d\u010a\u010d\u010a": 8731, "ydro": 68107, "rang": 93683, "TreeView": 89353, "aturas": 87629, "stdexcept": 95613, "eax": 41244, "\u0120hd": 18390, "\u0120Apollo": 36250, "\u0120dire": 13510, "STR": 6805, "\\Abstract": 48526, "utom": 59724, "\u0120pref": 19257, "_script": 15002, "\u0120jungle": 45520, "_books": 74184, "uggest": 3884, "\u0120exploitation": 40761, "\u0120misma": 61809, "z\u00c5\u0133": 86827, "\u0120navigationController": 66562, "[len": 25721, "\u0120saat": 52465, "Cpp": 10091, "\u00d0\u00bb": 3114, "Priv": 33224, ",arg": 78365, "where": 2940, "t": 83, "AndServe": 97159, "sound": 28632, "\u0120embell": 72514, "\u0120across": 4028, "_training": 33991, "Propagation": 36272, "\u0120opera": 43516, "\u0120FreeBSD": 75660, "_As": 63841, "_frm": 83339, "upply": 85023, "Know": 39512, "\u0120dissolved": 56767, "_manifest": 75369, "\u0120Appliances": 97433, "\u0120ERROR": 13170, "\u0120Bailey": 43314, "OAD": 51633, "disciplinary": 71200, "Emoji": 93831, "\u0120Serializer": 59922, "\u0120relie": 59644, "\u0120XI": 54343, "Foreground": 27072, "\u0120Furthermore": 24296, "\u0120Replace": 30658, "\u00ef\u00bc\u013c\"": 41827, "\u0120unlaw": 39957, "_fr": 42637, "\u0120Saf": 12867, "_rates": 56473, "arry": 11687, "\u0120Leben": 56497, "(\"#": 3668, "\u0120procedural": 62781, "\u0120n\u00c3\u00bameros": 70526, "\u0120semp": 75697, "\u0120\u00d1\u0122\u00d0\u00b0\u00d1\u0123": 78876, "\u0120overtime": 39599, "_\".$": 81611, "\u00e2\u0141": 35729, "\u0120sty": 18078, ">(*": 61774, "ned": 19212, "\u0109F": 13017, "[ch": 58861, "ARRAY": 15239, "\u0120bacon": 41452, "\u0120Filters": 46112, "Additionally": 50674, "743": 26260, "\u0120Clara": 51657, "_FILL": 62100, "Publish": 51245, "\u0120widths": 65511, "\u0120dropout": 44381, "\u0120husband": 10177, "conexion": 44753, "PKG": 87436, "uien": 88174, "\u0120tasting": 47500, "\u0120dobr": 97668, "avs": 39851, "\u0120interception": 70568, "iga": 16960, "achsen": 71587, ".SetInt": 85825, "\u0120privately": 38171, "(worker": 74848, "\u00c5\u0133s": 96097, "\u00e5\u0130\u0141": 53229, "\u0120competency": 93904, "\u0120promoters": 95260, ".moveToNext": 83989, "\u0120courts": 19359, "eyes": 58331, "<Renderer": 90361, "zy": 4341, "\u0120legit": 15933, ".Serialize": 33959, "I\u00c3\u0135N": 64242, "Modifiers": 68037, "'|": 71931, "\u0120improvement": 16048, "\u0120adore": 61735, "\u0120mike": 98769, "\u0120\u0120\u0120\u0120\u0120\u0120\u0120\u0120\u0120\u0120\u0120\u0120\u0120\u0120\u0120\u0120\u0120\u0120\u0120\u0120\u0120\u010a": 56547, "\u0120\u0120\u0120\u0120\u0120\u0120\u0120\u0120\u0120\u0120\u0120\u0120\u0120\u0120\u0120\u0120\u0120\u0120\u0120\u0120\u0120\u0120\u0120\u0120\u0120\u0120\u0120\u0120\u0120\u0120\u0120\u0120\u0120\u0120\u0120\u0120\u0120\u0120\u0120\u0120\u0120": 10724, "ongsTo": 35325, ".parseInt": 14005, "orph": 16751, "////////////////////////////////////////////////////////////////////////////////\u010a": 59969, "\u0120touchdown": 26079, ".pointer": 65255, "_cf": 72243, ".bucket": 72726, "\u0120}\u010d\u010a\u010d\u010a\u010d\u010a\u010d\u010a": 77047, ".BackColor": 13268, "_root": 13290, "!important": 74271, "\u0120permanent": 15690, "Mont": 35515, "Servers": 79239, "(Person": 59274, "\u00d1\u0124\u00d1\u0125": 89348, "\u0120chem": 8590, "\u0120APK": 63586, "////////////////////////////////////////////////////////////////////////": 36209, "\u0120juris": 46995, "\u0120reusable": 62671, "\u0120Chen": 25507, "\u0120ViewChild": 69607, "\u0120TV": 6007, "Activities": 68920, "\u0120antes": 34435, "(clean": 84337, "\u0120cr": 1589, ".tooltip": 68266, "\u0120Occupy": 75035, "\u0120\u00d1\u0124\u00d0\u00be\u00d1\u0129": 82702, "TRACK": 89972, "\u0120unmistak": 96207, "\u0120AudioManager": 96981, "fce": 98714, "ARRY": 77964, "\u0120pronto": 90798, "\u0120steroids": 58161, ".Apply": 37151, "\u0120translators": 73804, "\u0120lengthy": 35306, "SetTitle": 75773, "Uploaded": 63161, "LOW": 9628, "_ACC": 26750, "\u0120stocking": 80249, "\u0120Reeves": 82852, "/apache": 39837, "(pos": 12539, "\u0120FX": 30001, "\u0120Bicycle": 79447, "\u0120gaussian": 64547, "-ring": 77029, "\u0120Philipp": 20540, "&#": 28977, "\u0120Arb": 87987, "\u0120isArray": 78069, "\u0120Tensor": 27127, "\u00c3\u00b3wn": 42413, "ollider": 32355, "SKIP": 92899, "routeProvider": 84760, "\u0120drew": 24465, "AspNet": 58277, "abouts": 64399, "\u0120surrounding": 14932, "\u0120circles": 26432, "\u0120contrasts": 83379, "Anderson": 96629, "\u0120Vancouver": 23393, "\u0120tissue": 20438, "\u0120\u00d7\u0133": 89631, "\u0120co": 1080, "\u0120wakes": 62667, "atre": 16091, "laws": 68637, "\u0120disciplinary": 57315, "Beer": 90328, "Detroit": 98393, ".copyWith": 98626, "\u0120od": 11018, "\u0120personal": 4443, "',)\u010a": 96910, ".leadingAnchor": 85945, "\u0120Presidential": 42855, "\u0120ARC": 71444, "\u0120Midwest": 52257, "alcon": 47314, "join": 6115, "\u0120container": 5593, "\u0120speedy": 66583, "Makes": 92864, "IME": 5778, "jf": 97523, "(tuple": 59702, "-major": 66681, "\u0120als": 10942, "<option": 14631, "\u0120jun": 18169, "\"]=": 24006, ">\").": 62132, "(label": 13648, "\u0120massively": 64807, "\u0120stocks": 23301, "\u0120TOKEN": 44674, "gebn": 67298, "\u0120DIE": 72506, "atsapp": 72544, "HL": 13793, "\u0120SAX": 75326, "Stuff": 87722, "\u0120passe": 39904, "\u0120Proposition": 87855, "autoreleasepool": 88522, "ADDR": 30310, "\u0120nitrogen": 47503, "Rights": 82975, "_stats": 15743, "GI": 29134, "\u0120Installation": 40245, "\u0120Merge": 41185, "UPDATED": 70842, "\u0120blasph": 99159, "....\u010a": 78928, "eg": 797, "\u00c5\u0133": 17221, "\u0120arise": 31889, "facts": 69153, "\u0120VARIABLE": 55393, "ria": 4298, "mirror": 74325, "\u0120likeness": 93874, "\u0120detection": 18468, "=fopen": 75187, "\u0120c\u00c3\u00b3": 29876, "[String": 19005, "\u0120lw": 42173, "\u0120numerator": 64633, ".seq": 44967, "token": 5963, "-cross": 77529, "\u0120BUFF": 96024, "_json": 9643, "\u0120kits": 32596, "Positions": 46893, "/ng": 45143, "\u0120Loans": 48615, ":@": 15227, "\u0120struggles": 28970, "\u0120RR": 44498, "\u0109elsif": 87570, "\u0120gameId": 93278, "homepage": 53119, "]**": 79441, "iji": 35973, "parated": 50700, ".rc": 37448, "\u0120distinctly": 71249, "support": 24249, "\u00e5\u013e\u0141": 74090, "\u0120ARGS": 85249, "\u0120cur": 2917, "\u0120Wr": 32730, "Runner": 20051, "(original": 40909, ">r": 75508, "../../": 2817, "\u0120(#": 30183, "@protocol": 67852, "::{\u010a": 75943, "(posts": 94078, "(tx": 28401, "\u0120applicable": 8581, "\u0120lasting": 29869, "_re": 1311, ".word": 23397, "IAS": 32922, "\u0120divisor": 50209, "COMM": 56654, "\u0120pr\u00c3\u00a9sident": 89802, "\u00ed\u0126": 31055, "\u0120\"$": 5312, "alyze": 56956, "\u0120eskort": 41641, "\"#": 58776, "\u0120deny": 23973, "ailles": 87455, "deer": 97362, "\u0120twe": 14887, "Lat": 24015, "WINDOW": 41256, "\u0120MyApp": 55116, "\u0120lsp": 99779, "startTime": 42006, "\u0120support": 1862, "\u0120Tib": 37916, "\u0120Pause": 50756, "\u0120HttpClientModule": 54749, "iculos": 68377, "\u0120lines": 5238, "\u0120nylon": 52155, "_formatter": 75065, "HAND": 75781, "-Ray": 79504, "696": 23578, "\u0120AND": 3651, "\u0120Companion": 70075, "\u0120idiots": 80133, "\u0120emphasized": 46728, "\u0120Frau": 52843, "_house": 65370, "ASIC": 45759, "\u0120Thailand": 30567, "\u0120sugars": 70913, "requested": 68205, "\u0120accommodating": 77141, "_DELTA": 81914, "<Path": 83983, "\u0120\u0120\u0120\u0120\u0120\u0120\u0120\u0120\u0120\u0120\u0120\u0120\u0120\u0120\u0120\u0120\u0120\u0120\u0120\u0120\u010a": 10912, "Hibernate": 87577, "(station": 91330, "_();\u010a": 97160, "Dist": 24243, "\u0120EPS": 41707, "\u0120abort": 11578, "iday": 49978, "\u0120pam": 42290, "\u0120editar": 80317, "\u0120RGB": 21653, ".showMessage": 30404, "<System": 31821, "\u0120Alley": 87089, "\u0120explaining": 26073, "\");\u010d\u010a\u010d\u010a": 16123, "ACION": 46144, "PNG": 60924, "Allen": 80977, "\u0120OBJECT": 40886, "ual": 940, "\u0120Gin": 51683, "-submit": 52315, "\u0120Cart": 13416, "avad": 38155, "\u0120Gingrich": 87493, "Wal": 89398, "\u0120erro": 37410, "\u0120invokevirtual": 70925, "219": 13762, "\u0120Generate": 20400, "\u0120refine": 46464, ".');\u010a": 17556, "?;\u010a\u010a": 70593, "\u0120Monterey": 98495, "\u0120SharedPreferences": 36184, "rosis": 63412, ".vendor": 73495, "\u0120veterinary": 69340, "[]=$": 78367, "MainMenu": 87328, "\u0120nond": 74998, ".\"'": 35277, "\u0120Vik": 29476, "auction": 80862, "_BAL": 81052, "Creating": 26021, "\u0120characters": 5885, "\u0120cholesterol": 39086, "irim": 62472, "\u0120Molly": 58500, "Ga": 81888, "\u0120errors": 6103, "OSC": 80061, "creens": 15909, "\u0120Turnbull": 68946, "`.\u010a\u010a": 63438, "\u0120closes": 34350, "\u0120sloppy": 75082, "\u0120severely": 35906, "\u0120Pipes": 79823, "\u0120demonstrated": 21091, "\u0120MG": 52292, ".fade": 55378, "bmp": 53796, "verty": 17098, "\u0120climbed": 45519, "\u0120Mandarin": 83871, "ObjectName": 38848, "cribing": 44631, "\u0120Howard": 20462, ")\">\u010a": 62625, "upported": 12796, "XmlNode": 86720, "-type": 10827, "\u0120manifestations": 78167, "ish": 819, "\u0120armour": 47777, "iface": 53774, "\u0120Degrees": 94001, "\u0120competit": 52304, "(parse": 28862, "\u0120mientras": 59694, "\u0120paperwork": 45731, "mitters": 83189, "LA": 18326, "\u0120associative": 70003, "\u0120Bernard": 35352, "\u0109record": 73052, "\u0109if": 748, "ephir": 81773, "stor": 48465, "\u0120decrypt": 39226, "\u0120nto": 62918, "-binding": 65500, "Review": 19997, "essment": 24280, "\u0120tooth": 26588, "\\Array": 77936, "\u0120CGSizeMake": 79787, "\"default": 87291, "\u0120frags": 98303, "\"},": 14682, "\u0120Tap": 37234, "+i": 21905, "\u0120anth": 23064, "\u0120cualquier": 47009, "%;\">\u010a": 63223, "\u0120filho": 92621, "_SIG": 56787, "_THIS": 67136, "\u00ed\u012c": 26787, "\u0120SUPER": 55902, "ities": 1385, "_condition": 28756, "\u0120Powered": 60720, "\u0120fees": 12718, "\u0120rowCount": 66245, "\u00e3\u0123\u00b0": 81219, "alloc": 4847, "}\",": 9737, "Portrait": 81465, "/pp": 88246, "_crit": 93189, "\u0120\u00e5\u0137\u0128\u00e5\u0135\u0123": 96407, "itched": 93503, "_io": 17369, "\u0120pel\u00c3\u0143cula": 97316, "_>": 99477, "Terr": 52502, "-outline": 30741, "\u0120acept": 55988, "\u0120modne": 81371, "\u0120_,": 8523, "\u0120Topic": 34011, "\u0109swap": 72855, "\u0120namedtuple": 81636, "\u0120Salesforce": 82035, "\u0120USPS": 85976, "Following": 28055, "\u0120bet": 1297, "\u0120General": 3331, "\u0120CONTROL": 54279, "oteric": 83775, "\\Event": 48129, "\u0120pais": 62383, "\u0120discoveries": 54098, "\u0120Handles": 21684, ".addChild": 32869, "\u0120Trash": 71723, "(ll": 36621, "idable": 37854, "\u0120PIXEL": 96922, "\u0120rencont": 9051, ".DeserializeObject": 51653, "\u0109W": 17749, "\u0120archivo": 30818, "\u0120dernier": 62891, "apo": 66652, "enville": 68732, "ah": 1494, "\u0120firefox": 82783, "same": 25030, "\u0120Selling": 54820, "\u0120Garner": 87088, "<K": 29339, "\u0120arquivo": 44505, ":green": 96831, "Kill": 54834, "\u0120tekst": 73678, "\u0120mw": 53910, "\u0120overposting": 95153, "snippet": 58715, "[item": 29418, "\u0120Bee": 38530, "\u0120crawling": 72179, "Susp": 95249, "\u0120jTextField": 52440, "jas": 30826, "\u0120pies": 61777, "\u0120DirectX": 67864, "itori": 94457, "\u00d0\u00b0\u00d0\u00bb\u00d0\u00b8": 48355, "\u0120bulbs": 54320, "\u0120Museum": 16730, "\u0120(?)": 77640, "\u0120uphe": 96710, "\u0120Canary": 100056, "/by": 68833, "BackingField": 44691, "\u0120won": 2834, "_normal": 14300, "\u0120Sin": 18098, "\u0120Brazilian": 36083, "_Data": 18296, "\u0120}\u010a\u010a\u010a\u010a": 17398, "ourcing": 43662, "\u0120brighter": 53657, "\u0120setType": 63809, "\u0120lh": 73373, "\u0120v\u00c3\u00a9r": 77680, "MER": 45368, "\u0120Regulations": 49357, "-use": 25700, "\u0120),\u010a\u010a": 38084, "_COMMON": 46126, "\u0120Hans": 25844, "NK": 77280, "\u0120walmart": 71225, "\u0120Plugin": 21940, ":date": 94363, "\u0120db": 3000, "\u0120Stout": 92130, "\u0120encrypt": 30725, "GINE": 29165, "\u0109DWORD": 45270, "URT": 88196, "\u0120electrons": 57678, "aways": 40690, "\u0120Vas": 53934, "_\u010a\u010a": 19327, "\u0120operands": 55610, "\u0120louis": 97230, "\u0120Stmt": 98123, "\u0120ABI": 64314, "\u0120Strait": 83163, "\u0120infuri": 85225, "instancetype": 34784, "(policy": 73882, "_lit": 99499, "_dc": 56947, "\u0120\u0120\u0120\u0120\u010d\u010a\u010d\u010a": 60049, "\u0120mascul": 37198, "())\u010a": 2455, "\u0120desper": 18439, "\u0120'#'": 58350, "\u0120viewers": 22511, "_BOX": 41267, "\u0120hb": 46235, ".Many": 40734, "\u0120Caul": 90538, "\u0120actions": 6299, "-labelled": 32901, "sdale": 84782, "Fld": 59543, "\u0120overwrite": 33316, "\u00e1\u0122": 25870, "ouver": 15170, "\u0120Would": 19418, "Card": 5889, "\u0120cubes": 55204, ".uid": 25916, "\u0120scriptures": 87733, "^[": 28836, "gender": 13265, "\u0109Session": 56566, "Brandon": 94857, "\u0120embarrassing": 45105, "\u0120Van": 13000, "\u0120conglomer": 88751, "Playable": 88009, "amas": 29189, "\u0120Fach": 79865, "/Game": 86053, "rape": 20432, "_Search": 67013, "\u0120Form": 3459, "\u0120Nicolas": 52836, "\u0120gc": 22903, "West": 24188, "\u0120frameborder": 72562, "tif": 85440, "uento": 56388, "\u0120Moines": 78158, "\u0120affair": 31017, "\u0120Julius": 70345, "InSeconds": 97336, "\u0120\u00d0\u00bf\u00d1\u0122\u00d0\u00be\u00d0\u00b3\u00d1\u0122\u00d0\u00b0\u00d0\u00bc\u00d0\u00bc": 94508, "\u0120Glo": 25372, "Method": 3607, "\u0120activity": 5820, "\u0120Articles": 29461, "\u0120Ric": 33652, "\u0120resting": 41219, "generic": 36887, "\u0109type": 13459, "IBE": 50406, "TypeError": 81176, "=message": 88229, "valor": 25817, "])\u010a": 2608, "\u0120formulario": 63528, "')?>": 65760, "_wrong": 76298, "stellung": 55477, "\u0120cd": 15667, "imity": 32035, "\u0120hypert": 48855, "\u0120incub": 49727, "finalize": 95505, "\u0120One": 3861, "\u0120newcom": 49576, "\u0120for": 369, "\u0120glossy": 74156, "axis": 7332, "ANTED": 50568, "\u0120Abilities": 80477, "\u0120imgUrl": 77183, "-more": 51014, "CommandEvent": 86592, "\u00c3\u00a9is": 88118, "iform": 7398, ".stamp": 92696, "\u0120Nietzsche": 94206, "_Play": 92954, "\u0120carnival": 94496, "\u0120Dale": 37828, ".insertBefore": 58467, "\u0120Scarborough": 86532, "021": 11592, "Through": 24798, "]string": 32053, ".tf": 70094, "\u0120glad": 16089, ".remove": 4955, "[arr": 78556, "'B": 47055, "\u00e6\u013f\u00a5": 37507, ".console": 48902, "<table": 21668, "queued": 67647, "quiz": 33049, "Way": 36154, "Founder": 83834, "\u0120rapid": 11295, "Lou": 93906, "ProgressHUD": 47246, "Migration": 20778, "\u0120flashing": 50857, "-images": 52091, "_interface": 21188, "\u0120circle": 12960, "\u0120Sunni": 56110, "imony": 65556, "\u0120DOWN": 28594, ".dex": 79133, "FFE": 80194, "'er": 94678, "QUEUE": 30045, "-lines": 84463, "_SCOPE": 62825, ".bd": 98334, "\u0120oat": 72754, "#ae": 89005, "second": 5686, "\u0120Wisdom": 57201, "\u0120Nimbus": 72593, "\u0120METH": 78924, "mess": 50846, "-symbol": 88422, "\u0120verv": 97541, "lesh": 17927, "\u0120Obamacare": 37096, "\u0120refr": 19914, "_motor": 60889, "isNew": 60433, ".Consumer": 71571, "\u0120<->": 67932, "\u0120Throw": 32445, "\u0120Laura": 30928, ".route": 12105, "\u0120protecting": 22973, "\u0120\u00ed": 10997, "PDF": 24317, "ITOR": 45656, "\u0120PageSize": 95932, "\u0120icons": 24699, "\u0120ready": 5644, "\u0120hoc": 67490, "iParam": 71008, ".espresso": 98242, "-write": 63162, "..\"": 38526, "\u0120acknowled": 16201, "\u0120governors": 68140, "\u0120Canucks": 81602, "rop": 897, ".UPDATE": 66473, "oron": 85950, ".Point": 3860, "LF": 23433, "\u0120vor": 14230, ".isArray": 32909, "ActionCreators": 70859, "\u0120uptake": 69575, "comb": 22631, "\u0120accommodation": 28377, "\u0120*</": 81561, "sharp": 54017, ".quantity": 35392, "\u0120microtime": 99571, "\u00c3\u00bcgen": 83140, "\u0120evaluating": 38663, "ulg": 56099, "\u0120Vox": 80712, "_COUNTER": 49511, "element": 6229, "_RW": 61918, "\u0120breakpoints": 92630, "426": 20363, ".err": 18948, "(times": 62218, "\u0120toen": 100134, "maybe": 37860, ".|": 57370, "\u00e8\u00bd\u00bd": 28466, "442": 20502, "\u0120semester": 34253, "pleted": 11274, "\u0120Callable": 54223, "Receive": 15084, ".attr": 13139, "\u0120elites": 56803, "\u0120bekan": 62706, "QUEST": 6810, "\u00e1\u00ba\u0143p": 37845, "\u0120Personally": 63647, "esen": 67035, "\u0120gastr": 56780, "\u0120fishermen": 74293, "\u0120throm": 84664, ".Drop": 22430, "//\u010a": 2341, "-wall": 86111, "\u0120paralyzed": 88968, "\u0120fizz": 88079, "\u0120Eleanor": 90530, "\u0120sees": 16008, "\u0120aus": 9608, "\u0120headquartered": 81296, "\u0120EventBus": 90667, "\u0120passionate": 25429, "_BLOCK": 19281, "\u0120DJ": 22102, ".toJson": 43239, "\u0120contend": 56195, "_cases": 42527, "\u0120McLaren": 72464, "\u0120Hast": 60607, "Apps": 54702, "\u0120\u010a\u0109\u0109\u010a": 68492, "\u0120Jaguar": 74637, "\\system": 74821, "\u0120Carpet": 72308, "takes": 79079, "\u0120Revision": 27893, "(Screen": 85041, "\u0120wyn": 62034, "\u0120objectively": 85121, "-validate": 90476, "049": 25307, "={{": 6923, "(nullable": 35985, "\u0120\"\",\u010a": 8488, "Hen": 50461, "-purpose": 59338, "punkt": 72965, "LOUR": 66872, "pects": 8132, "_arrow": 47666, "\u0120unl": 65985, "Bad": 17519, "\u0120kittens": 83190, "_gas": 83216, "_lhs": 85384, "UTC": 21872, ".cancel": 23049, "\u0120Indoor": 64368, "\u0120ucz": 88526, "roots": 38265, "PAY": 60997, "\u0120ley": 61515, "\u0120recycl": 92465, "\u0120Pol": 3735, "\u0120bufio": 98017, "ConfigurationException": 99292, "configs": 55078, "\u0120diary": 47242, "_BLUE": 54563, "\u0120seem": 2873, "343": 16522, "\u0109header": 21553, "list": 1638, "\u0120Senior": 19903, "\u0120listeners": 24475, ".Active": 29855, "Bridge": 33948, "\u0120builders": 49186, "\u0120LOSS": 28453, "\u0120bots": 50629, "\u0120mats": 62156, ">If": 67153, "$b": 68384, "corlib": 68530, "\u0109View": 70803, "_ber": 89265, "\u0120lesb": 23625, "aley": 43027, "/header": 25680, "\u0120Laser": 40708, "bnb": 45102, "\u0120Shadows": 67549, "_count": 3259, "array": 1686, "\u0109Response": 70704, "\u00e5\u00b9\u00bf": 82042, "!<": 88032, "\u0120I": 358, "urther": 4004, "fade": 17976, "-X": 31650, "\u0120skeptical": 44929, "Mapping": 6950, "\u0120computation": 35547, "tone": 59029, "\u0120ammon": 69911, "pectrum": 39806, "\u0120Villa": 37912, "\u00e2\u0122\u013bam": 77138, "\u0120PEN": 81770, ".Dropout": 89739, "\u0120champions": 34838, "Xi": 71730, "ypad": 55395, ".syntax": 92790, "*-": 74077, ".transitions": 84036, "_attached": 94661, "\u0109Type": 28825, "SocketAddress": 70555, "\u0120BBC": 18588, "\u0120Levels": 53793, "\u00e8\u00bd\u00af": 65372, "Trou": 91635, "\u0120puis": 44829, "\u0120dirname": 31008, "\u0120john": 40742, "\u0120antenn": 72577, "\u0120antim": 79312, "\u0120Samuel": 33007, "\u0120sport": 10775, "\u0120Cod": 34777, "\u0109category": 76470, "\u0120fileId": 92361, "\u0120accomp": 58433, "\u0120Replacement": 47312, "\u0120appropriations": 93666, "reme": 9831, "\u0120incl": 18916, "988": 24538, "\u0120veget": 13294, "\u0120DIM": 51959, "IELD": 10580, "\u0120\u00ec\u013f\u00b4": 23955, "vac": 54803, "$password": 58279, "ansi": 53167, "/cache": 63194, "Taken": 66769, "\u0120ageing": 80043, "pll": 81538, "_RESOURCES": 91059, ".ItemStack": 95903, "(PC": 96523, ",private": 99929, "\u0120Fabric": 37407, "'int": 55624, "(kernel": 56257, "\u0120pipelines": 58773, "iram": 67808, "okay": 94317, "uggling": 63031, "\u0120curator": 87805, "oldem": 74818, "\u0120Uncomment": 64958, "\u0109esc": 81729, "_ctx": 15498, "\u0120Gauss": 94316, "\u0120orderby": 86936, "Blo": 96549, "\u0120pada": 32911, "Override": 2226, "\u00d1\u0122\u00d0\u00b3": 93822, "\u0120gloves": 36516, "\u0120UIStoryboard": 93042, "\u0120air": 3805, "830": 21221, "\u00d0\u00b5\u00d0\u00b7": 32985, "\u0120OFFSET": 49204, "\u0120ethnic": 22277, "\u0120OH": 29822, "\u0120disciplines": 49255, "?>\u010d\u010a\u010d\u010a": 64448, "\u0120isot": 69551, "ened": 6901, "\u0120crossover": 49480, "imals": 25137, "\u0120green": 6307, "\u0104": 192, ".access": 22757, "\u0120meas": 7038, "iciency": 10603, "also": 19171, "\u0120forn": 57109, "-user": 8865, "\u0120dro": 7118, "\u0109BufferedReader": 78036, "WHERE": 27611, "\u0120Watson": 32580, "_decimal": 75529, "\u0120candidates": 11426, "\u0120scaler": 69824, "\u0120outlined": 33740, "juven": 63231, "ED": 1507, "\u0120essentially": 16168, "President": 27229, "(alpha": 37718, "dition": 2400, "\u0120watcher": 56827, "\u0120heavens": 63880, "=====\u010a": 65997, "\u0120Naw": 90810, "\u0120portion": 13651, "\u0120PRI": 51267, "\u0120ValueType": 56645, "-your": 53246, "\u0120compreh": 12963, "\u0120styles": 9404, ".Provider": 37308, "hm": 35401, "\u0120\u0120\u0120\u0120\u0120\u0120\u0120\u0120\u0120\u0120\u0120\u0120\u0120\u0120\u0120\u0120\u0120\u0120\u0120\u0120\u0120\u0120\u0120\u0120\u0120\u0120\u0120\u0120\u0120\u0120\u0120\u0120\u0120\u0120\u0120\u0120\u0120\u0120\u0120": 2623, "\u0120Polit": 16307, ".shared": 18553, "apolis": 24751, "\u00d0\u00b8\u00d1\u0124\u00d0\u00b5": 27055, "osaic": 45883, "(..": 57522, "\u0120JJ": 71140, "\u0120postpone": 95758, "*</": 32045, "\u0120wrongful": 93732, "\u0120capped": 61246, "\u0120spindle": 99291, "\u0120alb": 82698, "\u0120Combo": 54123, "eming": 74914, "Demon": 80853, "Dir": 6315, "GHz": 48343, "actory": 2992, "Good": 15571, "_ATTACH": 50897, "ASF": 48599, "\u0120Cant": 42931, "\u0120amended": 31011, "\u0120shifting": 32931, "be": 1395, "Help": 12978, "\u0120pt": 11051, "athed": 70737, "\u0120uintptr": 39290, "ULATOR": 72780, "(HaveOccurred": 84944, "\u0120invert": 43299, "\u0120Guidance": 82661, "Ber": 39379, "\u0120emotions": 21958, "alted": 62334, "\u0120CPUs": 66575, "\u0120wah": 86327, "/login": 16951, "\u0120keto": 66634, "\u0120made": 1903, "header": 2775, "\u0120Developed": 80110, "HUD": 31337, "calculate": 36697, "\u0120Renewable": 93438, "icontains": 100129, "\u0120Lazy": 45363, "audi": 15891, "\u00e0\u00b8\u0140": 60984, ".converter": 59725, ".coordinate": 70005, "\u0120[\u00e2\u0122\u00a6]": 28624, "\u0120porno": 5974, "Silver": 53443, "BP": 27187, "\u0120Sorted": 53788, "aning": 44159, "Medium": 42094, "\u0120Canton": 73466, "@end": 6760, "scribed": 50885, "Signup": 57346, "\u0120httpResponse": 75906, "userRepository": 86841, "\u0120Ner": 66904, "\u0120Lear": 61078, ".Visible": 12063, "&e": 69170, "ILD": 31315, "\u00e5\u0125\u0131": 66201, "\u0120dd": 20221, "\u0120analyzed": 30239, "\u0109pool": 86373, "adjusted": 88897, "\u0120occup": 10366, "\u0120&$": 28048, "_projection": 73838, "NX": 44404, "\u00d0\u00b5\u00d0\u00b3\u00d0\u00be": 47295, "Cadastro": 96867, "\u0120CI": 21351, "\u0120lot": 2763, "_read": 6579, "BI": 8768, "\u0120exc": 3521, "\u0120opinions": 18463, "WA": 27486, "\u0120flood": 18197, "=no": 31415, "atra": 40658, "/type": 50711, "\u0120attn": 98917, "\u0120persistence": 42056, "GRADE": 80391, "\u0120Mostly": 64285, "ablytyped": 81998, "erializer": 43039, ".sun": 33752, "\u0120Gand": 39421, "507": 20068, "\u0120nowrap": 49844, "}:${": 57174, "\u0120whatsapp": 61308, ";;;": 37428, "\u0120exponentially": 75251, "\"go": 76764, "\u0120Defendants": 99939, ".CompareTo": 77894, "\u0120g\u00c3\u00a9n": 78422, ".enc": 55544, "\u0120cr\u00c3\u00a9er": 75831, "!\u00e2\u0122\u013f": 18319, "sessions": 52064, "_RT": 54663, "Monkey": 97938, "\u0120extraordin": 64555, "_secure": 74188, "\u0120Till": 40788, "Today": 15724, "\u0120Fantasy": 27582, "/op": 53100, "recipient": 43710, "Matches": 43570, "\u0120preparations": 47979, "\u0120loosely": 63557, "\u0120};\u010a\u010a\u010a": 39597, "\u0120],\u010a": 3291, "Generating": 74414, "\u0120pontos": 77215, "rzy": 89088, "Sys": 33892, "ula": 5724, "timeout": 14482, "rait": 14687, "ROL": 16922, "alic": 32613, "\u0120g\u00c3\u00b6": 31285, "kker": 53698, "\u00e3\u0123\u00a1": 43514, "\u0109lock": 59971, "\u0120Britt": 64117, "\u0120Types": 21431, "%s": 13249, "\u0120oxidative": 79401, ".setLayoutParams": 87499, "\u0120florida": 76754, "\u0120opts": 12462, "\u0120});\u010a": 1657, ".Getenv": 65983, "\u0120delicious": 18406, "\u0120CON": 3501, "\u0120regular": 5912, "\u00eb\u00af\u00b8": 57139, "\u0120Nic": 18011, ".Angle": 99110, ".questions": 67788, "avic": 89545, "Dummy": 44444, "\u0120Dry": 31941, "}));\u010a": 34726, "(amount": 35089, "\u0120{};": 53266, "Pieces": 92325, "uran\u00c3\u00a7a": 88256, "\u0120Little": 15013, "\u0120TypeName": 98825, "_sales": 48167, "\u0109title": 25783, "(config": 8928, "toHaveBeenCalledWith": 57247, "ploy": 2760, "\u0120inv": 1558, "\u0120Canada": 7008, "mutations": 52855, "odata": 57269, "\u0120Silva": 42141, "\")\u010a\u010a": 5240, "\u0120XD": 72290, "\u0120saved": 6924, "\u0120geld": 43019, "\u0120opposition": 14076, "\u0120obliged": 54117, "needs": 56345, "\u0120ni\u00c3\u00b1os": 68356, "Object": 1211, ".sendFile": 72953, "\u00e5\u00b0\u0133": 83747, "\u0120river": 15140, "\u0120ruler": 49080, ".btnExit": 95610, "\u0120quarters": 32573, "\u0120)}\u010a": 18026, ":$": 22444, "Enemy": 29261, "\u0120CV": 14499, "?\u010d\u010a": 46449, "\u0120Atlas": 43443, "\u0120blank": 10321, ".shutdown": 54150, "<Tuple": 72141, "-chan": 78735, "/router": 19055, "\u0120FOLLOW": 58772, "equalTo": 91685, ".method": 13204, "\u0120watershed": 92456, "Tag": 5786, "813": 24288, "CppTypeDefinition": 66235, "\u0109properties": 88028, "\u0120theta": 19034, "-dollar": 54135, "\u0120claws": 68550, "htaking": 53343, "\u0120PARAMETERS": 69179, "\u0120lowers": 73115, "-framework": 74497, "min": 1083, "\u0120restriction": 20020, "\u0120Andrea": 41184, "\u0120framed": 47093, "\u0120createStore": 54539, "\u0120sensit": 74633, "\u00e4\u00bf": 11743, "\\_": 76838, "_ghost": 99884, "\u0120critically": 41440, "\u0120_:": 59636, "w": 86, "oucher": 24889, "\u0109temp": 16679, "\u0109\u0109\u0109\u0109\u010a": 7786, "\u0120Univers": 15915, "constraints": 66412, "uti": 32973, "otel": 41885, "\u0120Doch": 79121, "Extern": 85310, "ventas": 98201, "Wrapper": 11803, "anut": 38918, "\u0120Municipal": 45340, "\u0120historical": 13970, "(outputs": 71213, "(Stream": 53111, "\u0120spread": 9041, "eref": 45070, "blood": 51105, "\u0120reigning": 91056, ".Immutable": 87342, "(code": 16221, "\u0120Concepts": 76872, "\u0120unins": 66203, "cased": 92226, "\u0120reasonable": 13579, "\u0120stump": 89712, "State": 1423, "\u0120administration": 8735, "~": 93, "\u0120Gov": 25428, "\u0120'.',": 46769, "_RST": 65193, "\u0120seemed": 9508, "\u0120splitter": 74086, "ISBN": 46285, "\u0120sollten": 75553, "\u0120analsex": 90932, "\u0120util": 4186, ".fields": 13216, "(android": 46732, "MeasureSpec": 71520, "\u0120vari": 4244, "aper": 3271, "_SC": 12300, "izona": 15732, "\u0120december": 90111, "\u0120projection": 22343, "gett": 77545, "\u0120weir": 98086, "checkpoint": 70234, "\u0120bewild": 99774, "\u0120guardian": 47132, "LIKELY": 93524, "quier": 33571, "\u0120menn": 59827, ".getP": 49382, "Recommended": 57627, "Ip": 24267, "_SCRIPT": 47068, "opoly": 40863, "word": 1178, "\u0120lone": 47766, ".btnSave": 63480, "\u00e7\u0123\u00ab": 80699, "(previous": 69750, ".XtraLayout": 69215, "ory": 683, "\u0120//\u010a": 6611, "\u0120\u00eb\u00b2\u0126": 87931, "\u0120Productions": 52964, "#": 2, "\u0120retreated": 92037, ".operation": 49956, "\u0120Atlantis": 88035, "\u0120instantiated": 55686, "\u0120program": 2068, "\u0120extensions": 20300, "-setup": 79197, "\u0120modific": 70233, "angelo": 89010, ".ua": 78795, "(cls": 21024, "\u0120Radical": 88981, ".invoke": 28209, "dfa": 98649, "|string": 37150, "_INFORMATION": 54224, "ToString": 5994, "-\"+": 53177, "_\u010d\u010a\u010d\u010a": 91050, "_close": 12993, "Science": 36500, "\u0120aliens": 37219, "image": 1843, "!\");\u010a\u010a": 58173, "\u0120frowned": 77459, "-the": 10826, "\u0120Universal": 26581, ";x": 55721, "\u00d0\u00bc": 6578, "\u0120decades": 11026, "minute": 43657, "\u0120stickers": 50396, "\u0120dispersed": 77810, "/find": 82221, "\u0120himself": 5678, "\u0120Keynes": 82603, "\u0120queue": 7325, "\u0120unacceptable": 44085, "\"][\"": 11264, "getBody": 59820, "\u0120Salmon": 62826, "(numpy": 83948, "\u0120fest": 19390, "-channel": 54968, "\u0120foundational": 89328, "_RSA": 78094, "656": 20744, "\u0120Zion": 41435, "\u0120+:+": 13410, "\u0120lista": 14456, "serialize": 25140, "\u0120DAMAGE": 29304, "\u0120Kay": 31245, "\u0120batting": 51910, "abcdefgh": 57847, "\u0120Marie": 33116, "\u0120vertical": 12414, "\u0120ImageView": 26761, ".viewModel": 64824, "ERTICAL": 40604, "ISHED": 39979, "Orth": 67637, "\u0120Seasons": 68300, "\u0120midterm": 78590, ".Add": 1943, ".:": 18976, "Where": 9241, "ocide": 43277, ".toBe": 84546, "_INTERVAL": 38453, "\u0109\u0120\u0120\u0120\u0120\u0120\u0120\u0120\u0120\u0120\u0120\u0120\u0120": 47700, "Retention": 87429, "\u0135": 241, "\u0120\u00c5\u013d": 30286, "\u0120Nazi": 32527, ".':": 88188, "\u00d1\u0125\u00d0\u00bd": 35297, "\u0120accident": 11677, "_prov": 90748, "ambique": 90929, "\u0120multip": 12842, "\u00e4\u00b9\u00a6": 91386, "standard": 20885, "\u0120Block": 8527, "\u0120Summers": 80748, "_bases": 97390, "\u00e2\u0122\u013eHow": 98476, "ophage": 99054, "\u0120strangers": 40721, "\u0120Hindu": 36142, "rypted": 14353, "\u0120unseren": 67582, "acy": 2826, "EndInit": 21003, "methodVisitor": 26009, "hum": 28400, "mouseover": 47258, "returned": 78691, "_PC": 40897, "\u0120autom\u00c3\u00a1t": 80447, "\u0120coastline": 80944, "ConnectionFactory": 90421, "(dec": 36812, "\u0120Arguments": 28802, "\u00e2\u0122\u013bm": 4344, "ticket": 27632, "\u00d0\u00be\u00d0\u00b1": 14082, "*f": 55561, "\u0120CORPORATION": 89840, "\u0120messagebox": 93520, "\u0120Mic": 28095, "\u0120jealous": 41690, "\u0120unrealistic": 71985, "splice": 96060, "\u0120hebt": 89183, "\u0120lon": 18285, "lname": 51328, "-less": 56009, "\u0120rnd": 38293, "!\u010a\u010a\u010a\u010a\u010a\u010a": 57057, "\u0120DAN": 84510, "greater": 66335, "\u0120\u00d0\u00b4\u00d0\u00b2": 74254, "\u0120ima": 93793, "\u00ed\u012c\u00bc": 100033, "\u0120\u00e5\u0143\u0139": 74412, "++": 1044, "\u0120----------------": 14730, "PerPage": 37931, "\u0120Infect": 88911, "\u0120registers": 25771, "\u00e6\u0138\u00b0": 17039, "\u0120KS": 47474, ".serv": 65926, "=train": 77699, "('''": 84534, ".stringValue": 87307, "\u0120Blo": 40491, "-establish": 48587, "ures": 1439, "-mode": 15331, "imeter": 26402, "\u0120afterEach": 74591, "\u0120Elim": 43420, "semester": 62636, "\u0120hospitalized": 70340, "ancock": 75181, "aversable": 98613, "flower": 39853, "igure": 10012, "\u0120Drag": 25903, "\u0120recuper": 52621, "\u0120Biz": 62550, "\u0120flesh": 26000, "\u0120Password": 12642, "\u0120retina": 84827, "\u0120nos": 12155, "Beauty": 94909, "ORIZATION": 84378, "\u0120messageType": 98750, "(io": 38358, "\u0120Wellington": 57104, "span": 1508, "assertInstanceOf": 64280, "\u0120noop": 61929, "iPad": 67393, "\u0120solvent": 69996, "_receipt": 79074, "\u0120traits": 25022, "Website": 31151, "Hal": 57041, "\u0120Routine": 72162, "\u0120BCHP": 79826, "\u0120west": 9909, "\u0120devuelve": 96667, "\u00fd": 185, ".circle": 42594, "())).": 35770, "\u0120moins": 40970, "cheduling": 45456, "(KeyCode": 42140, "WillDisappear": 81591, ".StartsWith": 50879, "Priority": 21197, "\u0120Semester": 87948, "Controllers": 14690, "(string": 3693, "imax": 76209, "Cisco": 92137, "\u0109base": 25172, "\u0120Dominican": 67113, "(Mod": 73056, "(setting": 76740, "\u0120Robots": 97146, "\u0120os": 2709, ".connection": 20928, "plug": 48574, "\u0120Glad": 52741, "\u0120totaled": 89518, "\u0120subs": 5258, "_KP": 73949, ".execution": 77134, ".NotNil": 94982, "_payment": 27794, "(so": 96136, "\u0120dildo": 37603, ".ask": 68805, "\u0120prison": 9527, "\u0120\u0120\u0120\u0120\u0120\u0120\u0120\u0120\u0120\u0120\u0120\u0120\u0120\u0120\u0120\u0120\u0120\u0120\u0120\u0120\u0120\u0120\u0120\u0120\u0120\u0120\u0120\u0120\u0120\u0120\u0120\u0120\u0120\u0120\u0120\u0120\u0120\u0120\u0120\u0120\u0120\u0120\u0120\u0120\u0120\u0120": 17712, "\u0120guides": 28292, "_vm": 40108, "\u0120cannabinoids": 93986, "\u0120monitoring": 16967, "_bit": 14323, "\u00e3\u0123\u0135\u00e3\u0124\u0135": 69847, "\u0120Today": 11450, "/lib": 8357, "689": 25458, "\u0120epochs": 40446, "container": 3670, "_FONT": 40632, "-times": 45548, "\u0120Adjustable": 67828, "\u0120dr": 1377, "\u0120magg": 88999, "\u0120configurations": 33483, "\u0120});\u010a\u010a\u010a": 28411, "\u0120comida": 98878, "\u0120reordered": 50132, "lius": 87519, ".faceVertexUvs": 93695, "\u0120detecting": 54626, "_sdk": 62883, ".DAY": 63616, "\u0120formation": 18488, "(fr": 75412, "\u0120endian": 65788, ":update": 92909, "066": 23835, "(ur": 90045, "Post": 4226, "\u0120maritime": 58412, "\u0109G": 9796, "\u0120\"%": 6090, "<KeyValuePair": 84058, "eldig": 99511, "\u0120Ry": 26775, "\u0120appearance": 11341, "\u0120santa": 72851, ".OutputStream": 65400, "_TEMPLATE": 35886, "_movies": 78731, "_enabled": 18721, "abc": 13997, "929": 25344, "LM": 11237, "\u0120aster": 35037, "_arguments": 44533, "\u0120conflict": 12324, "\u0120backs": 28678, "Runtime": 15474, "\u0120brushing": 77826, "\u0120tremendously": 72423, "\u0120troops": 17312, "\u0120Royale": 87299, "@pytest": 34963, "typing": 90902, ",M": 28112, "unteer": 42005, "\u00e5\u0141\u00ba": 75146, "\u0120propelled": 92785, "\u00d1\u0125": 3865, "mall": 30632, "/drivers": 87747, "Classifier": 34995, "(TM": 93265, "\u0120achievable": 89253, "\u0120abduction": 97224, "\u0120ICON": 60424, "OSH": 87288, "\u0120Filme": 97285, "\u0120conten": 55111, "agos": 81707, "CSV": 45309, "\u0120euth": 81680, "mlin": 42026, "\u00ef\u00bc\u013a": 66115, "\u0120DEL": 24711, "Uni": 92830, "\u0120deer": 39149, "\u0120Fred": 28588, "-den": 97628, "\u0120PART": 6909, "_IC": 23817, "elia": 37029, "ylko": 50676, "\u0120MIX": 81309, "\u00e5\u00a7": 21589, "Sphere": 44059, "\u00c3\u00b6n": 24233, "transpose": 55587, "\u0120IDisposable": 54989, "-install": 58999, "ativos": 64545, "ouch": 3102, "_dr": 27778, "\u0120TreeNode": 17549, "\u00e2\u0139\u0131": 45048, "anyak": 51403, "\u0120IPPROTO": 88038, "\u0120discussing": 25394, "})\"\u010a": 93449, "_even": 69447, ".Site": 70091, "ANGLES": 75853, "insky": 52541, "-Day": 56012, "\u0120meaning": 7438, "(evt": 20286, "\u00d1\u0122\u00d0\u00be\u00d1\u0123": 42057, "\u0120games": 3953, "\u0120spir": 18823, "decoder": 49210, "\u0120contributed": 20162, ".InvariantCulture": 45703, "\u0120edad": 53782, "CHK": 56477, "\u0120semaphore": 57018, "read": 888, "\u0120d\u00c3\u00bc": 52119, "\u0120hurried": 73973, "\u0120energetic": 45955, "\u0120{}:": 92012, "\u0120loser": 59991, "markup": 81927, "MIN": 16818, "'ils": 85217, "\u0120banks": 14286, "\u0120Marine": 23820, ".Entities": 24727, "_predictions": 60987, "_dis": 10135, "snap": 49954, ".ball": 76308, "FragmentManager": 38582, "(class": 22723, "\u0120phys": 4571, "apters": 17881, "imited": 32611, "\u0120compliant": 49798, "\u0120Creed": 61477, "\u0120Twins": 66368, "ablish": 5212, "assis": 33567, "\u0120Parents": 44026, "\u0120slippery": 71672, "\u0120analyses": 29060, "\u0120lite": 50772, "ormal": 2553, "\u0120ss": 11107, "\u0120dq": 72713, "\u0120erf": 37508, "\u0120rebound": 42632, "\u0120strawberries": 76203, "\u0120Suk": 74874, "ombo": 81487, "_source": 10561, "Bill": 28576, ".numpy": 77625, "\u0120mirrored": 70137, "\u0120Tobias": 80102, "\u0120................................": 82472, "\u0120opioids": 84460, "/tutorial": 86352, "/method": 92937, "\u0120uber": 93139, "\u0120proclamation": 96530, "\u0120QRect": 66149, "Keys": 9026, "(Web": 68340, "(IEnumerable": 53012, "\u0120gezocht": 91374, "\u0120presence": 9546, "-mouth": 92139, ",\u010a": 345, "leston": 46668, "(pf": 96646, ".UserInfo": 97056, "\u0120limits": 13693, "\u0120Cyprus": 57784, "ons": 2439, "rafted": 61869, "\u0120plenty": 11510, "/run": 49485, "\u0120CLOSED": 98413, "Comfort": 95417, "\u0120missing": 7554, "CppCodeGen": 35338, "CB": 13276, "-R": 11151, "\u0120conditional": 35787, "place": 2050, "\u0120tou": 15119, "\u0120fallback": 33872, ")`\u010a": 50337, "\u0120Patel": 63855, "\u0120electr\u00c3\u00b3nico": 72566, "\u0120ISA": 85390, "\u0120Licht": 90037, "onation": 91983, "\u0120bile": 73394, "\u0120swings": 57890, "\u0120DOJ": 61910, "\u0120Renew": 50086, "alc": 17356, "content": 1834, "igned": 1571, ".\u010a": 627, "\u0120discipl": 15869, "flight": 39490, "\u0120LETTER": 45528, "ihil": 52526, "_unicode": 55762, "_buffer": 7932, "\u0120arom": 32369, "_assignment": 52991, "\u0120Getter": 57230, "Nat": 66314, "await": 11675, "\u0120teenagers": 37719, "\u0120included": 5343, "unifu": 23036, "nov": 39142, "osa": 12252, "\u0120Draco": 72802, "\u0120bikini": 55305, "ram": 2453, "\u0120lush": 58367, "_heat": 71081, "\u0120downhill": 73481, "slideUp": 79374, "\u0120BRE": 81662, "\u0120livro": 82523, "TC": 7905, "\u0120petition": 20984, "\u00d0\u00bc\u00d0\u00b5\u00d0\u00bd": 38972, "ocks": 26246, "\u0120Rangers": 34287, "supplier": 40930, "ellery": 50976, ")\"\u010a\u010a": 53394, "\u0120PR": 8743, "\u0120Lond": 80693, "GLOSS": 84310, "_sess": 84956, "\u0120raping": 87546, "_ascii": 51338, "994": 22897, "\u0120cru": 23010, "issent": 79738, "\u0120zeigen": 86339, "[mask": 86564, "middlewares": 89732, "\u00e6\u0138\u0129\u00e7\u00ab\u0142": 83125, "LOPT": 20689, "\u00e0\u00b9\u0129": 84382, "Including": 84549, "\u0120TAX": 91873, "Stencil": 58915, "yh": 74901, ".Comm": 91952, "Art": 9470, "930": 19306, "pot": 19644, "modity": 52302, "\u0120monopoly": 54301, "\u00c4\u0141\u00c4\u00b1": 44386, "UFFIX": 54833, "(**": 22551, "_router": 56687, "\u0120nostro": 84669, "\u0120Pompeo": 90734, "ANGER": 93468, "\u0120communist": 50315, "\u0120voir": 46131, "\u0120increases": 12992, ".Real": 96652, "irates": 25575, "_indent": 70145, "\u0120Cam": 8215, "WINDOWS": 76167, "!--": 2556, "Split": 20805, "Put": 19648, "_Admin": 58408, "/Auth": 87380, "altar": 71943, "Look": 10596, "\u0120muzzle": 75329, "Fox": 48414, "\u00e5\u0143\u0139": 19113, "\u0120fantasies": 60277, ".Column": 6284, "_frame": 9106, "\u0120stamp": 21899, "\u0120Moto": 48598, "\u0120Lawyer": 71314, "\u0120alphabetical": 84398, "\u0120analogue": 91343, ".EMPTY": 49477, "\u0120HOR": 84666, "Chi": 57735, "uitable": 86581, "\u0120charger": 45669, "provide": 62556, "\u0120exchanges": 30098, "_ob": 37422, "_Blue": 98301, "=row": 66629, "SUR": 92915, "\u0120park": 6246, "-holder": 66509, "(path": 5698, "_DOM": 31330, "Lng": 18432, ".beginPath": 57279, "\u0120asign": 61179, "\u0120datastore": 66086, "\u0120tex": 23984, "clidean": 51178, ".Import": 68375, "\u0120pagar": 84899, "\u0120native": 10068, "\u0120storefront": 91828, "\u0120CALLBACK": 74393, "\u0120Front": 15248, "(Json": 40441, "_CAMERA": 59479, "\u0120clinically": 70432, ".getAccount": 90836, "names": 11654, "(KEY": 38176, "\u0120Commonwealth": 38298, "\u00c3\u00a4h": 22243, "\u0120alternative": 10778, "\u0120accurately": 30357, "144": 8929, "\u0120COLOR": 26493, "068": 26661, "%),": 34971, "\u0120HP": 12478, "lla": 36882, "mix": 36171, "\u0120'}\u010a": 53562, "-Pro": 58186, "_TRANSFER": 65797, "\u0120eggs": 19335, ".Notify": 81535, "slice": 26010, "\u0120fun\u00c3\u00a7\u00c3\u00a3o": 63853, "\u0120mote": 88486, "\u0120Generally": 44493, "\u0120Conserv": 20650, "\"Some": 95975, "\u00e0\u00ab": 73319, "ulus": 19990, "\u0118": 212, "\u0120save": 3665, "\u0120UL": 22931, "efeller": 81712, "mil": 73370, "\u0120resumes": 66313, "\u0120espec": 43938, "\u0120adorned": 84273, "Clo": 52336, ".SuspendLayout": 15911, "\u0120defenders": 41131, "eri": 31803, "\u0109f": 1186, ")\"": 10143, "_prob": 21457, "\u0120single": 3254, "\u0120beers": 38066, "\u0120herbal": 51487, "\u0120ROT": 59311, "\u0120Mart": 8290, "\u0120earthquake": 38413, "\u0120brute": 65198, "\u0120\u00e2\u0122\u013e[": 66850, "\u0120\u0120\u0120\u0109": 40867, "Responses": 71843, "\u0120twisting": 80654, "uzzer": 92547, "_MATERIAL": 94032, "bower": 58049, "\u0120pra": 45103, "_Build": 97786, "\u0120anatom": 75893, "\u0120stale": 51451, "\u010a\u0109\u0109\u0109\u010a": 47552, "\u0120trust": 7095, "\u0120cluster": 10879, "actors": 21846, "\u0120UT": 26639, "erp": 23457, "hots": 35513, "Construction": 51918, "\u0120diferencia": 95527, "\u0120tre": 4353, "isseur": 74608, "opot": 89490, ".definition": 78940, "aturday": 7115, "\u0120fet": 16872, "\",\u010a": 761, "\u0120seven": 8254, "\u0120reading": 5403, "'icon": 85566, "lesc": 64631, "HomeAsUp": 90738, "\u0120Yug": 70825, "\u0120supplies": 17135, "\u0120equations": 39006, "stateParams": 56169, "\u0120gar": 7515, "\u0120Courtesy": 54197, "\u0120Derrick": 73189, "\u0120_|": 86237, "\u0109template": 23679, ".Locale": 60194, "\u0120ass": 1089, "\u0120haben": 18096, "uw": 43210, "emean": 47990, "arf": 60326, "inem": 69513, ")v": 52977, "\u00ef\u00bc\u013d": 26016, "\u0120\u00ec\u0142\u013e": 63171, "parentNode": 81804, "\u0120redevelopment": 88739, "_recall": 91411, "\u0120grosse": 45371, "\u0120Qi": 58094, "\u0120Talk": 19513, "\u0120lid": 27431, "[length": 58356, "(NS": 47829, "\u0120Explicit": 32430, "ServletContext": 79801, "Magic": 44638, "\u0120Bach": 42258, "\u0120objc": 64426, "STATUS": 21255, "nginx": 74661, "\u0120coal": 11756, "\u0120endurance": 49286, "(obj": 6922, "\u0120Runs": 51090, "-export": 66927, "\u0120leaves": 11141, "CHANGE": 41973, "_slow": 83547, "\u0120Bunifu": 68421, "\u0120Sous": 89578, "\u0120fundraiser": 59759, "\u00d0\u00be\u00d1\u0131": 61390, "_converter": 75173, "\u0120Damian": 92055, "\u0120Constr": 96684, "\u0120Usa": 97038, "OWNER": 100131, "China": 23078, "(IDC": 66119, "(S": 3844, "\u0120Fruit": 44187, "\\Message": 63109, "probably": 55540, "(depend": 92673, "\u0120mobs": 73492, "\u0120Framework": 24686, "\u00e3\u0123\u00be\u00e3\u0123\u0141": 53900, ".fasterxml": 28839, "\u0120mono": 40774, "\u0120registering": 39829, "_water": 55650, "\u0120Wh": 1254, ".setView": 60077, "\u0120d\u00c3\u0143as": 46180, "_corr": 54966, "_String": 32877, "obia": 41163, "\u0120TIFF": 75221, "\u0120dressing": 32623, "Py": 14149, "\u00e3\u0125\u0136": 70563, "Rol": 78586, ".locations": 80682, "selling": 38837, "\u0120hotel": 9689, "\u0120Moder": 44527, "\u0120isempty": 51409, "(substr": 54910, ".HorizontalAlignment": 61687, ".cent": 76689, "\u0120qt": 40049, "\u00ef\u00bf\u00bd\u00ef\u00bf\u00bd": 10178, "\u0120fallen": 21536, "\u0120piger": 39871, "\u0120receptors": 44540, "/Documents": 55830, "man": 1543, "\u0120lost": 5675, "ensch": 47845, "\u0120informing": 63025, "CRT": 77929, "\u0120Hoff": 43822, ":\"-": 87889, "\u0120setObject": 40083, "()},\u010a": 79208, "\u0120sexo": 20189, "\u0120computer": 6500, "\u0120zap": 34078, "_ent": 28525, "\u0120cpt": 95567, "ixel": 6066, "-days": 96314, "specialchars": 26601, "'\";\u010d\u010a": 73433, "\u0120caramel": 59811, "worthy": 43629, "\u0120ethereum": 85622, ".keywords": 88259, "ensing": 49205, "('${": 91248, "\u00c2\u00bd": 27154, "\u0120completionHandler": 46880, "resize": 17799, "\u0120FAQ": 32072, "\u0120Crazy": 51363, "checkBox": 73330, "BCM": 86687, "dyn": 44185, "\u0120truncated": 60856, ".SQLException": 42921, "Corporate": 87628, "_capacity": 36703, "osomal": 96108, ".subject": 34343, "(metadata": 55536, ".ne": 23456, "\u0120Ko": 30417, "\u0109com": 33910, "\u0120fought": 21095, "ACCEPT": 98456, "\u0120cartel": 80740, "ANO": 55994, "/AIDS": 93646, "kids": 74996, "/Typography": 84639, "\u0120provisioning": 98156, ".Reg": 9166, "\u0120graffiti": 65943, ")}}\"": 71887, "(baseUrl": 94291, "\u0120EDUC": 94077, "\u0120tenant": 26305, "Die": 18674, "\u0120irres": 35048, "\u0120footsteps": 60802, "\u0120neighb": 6152, "Parsed": 84059, "boarding": 38669, ".argv": 14629, "\u0120utilities": 30519, "\u0120shell": 12811, "[name": 11174, "ivities": 43479, "_Stop": 81408, "authorized": 19626, "\u0120BM": 20387, "wpdb": 27878, "\u0120bunk": 46569, ".snapshot": 53777, ">}'": 55822, "659": 25090, "fait": 64965, "(SQL": 39769, ".getProduct": 85556, "rogate": 49473, ".apply": 13344, "\u0120Qt": 10817, "hp": 21888, "\u0120Beach": 13011, "QUIRE": 20293, "relation": 23013, "kses": 55109, "lots": 66876, "\u0120aggregation": 52729, "\u0120Jessie": 80217, "_SET": 8648, "\u0120Outline": 53009, "\u0120morals": 81436, "Hdr": 89467, "_vertices": 38820, "\u0120Trot": 90330, "\u0120CoreData": 92222, "HeaderInSection": 96993, "\u0120pr": 550, "NSIndexPath": 33206, "\u0120Bristol": 45039, ".Permission": 74509, "-boy": 86003, "irus": 17402, ".Iterator": 41946, "BarItem": 63588, "_Helper": 68928, "realm": 70997, "\u0109ch": 23918, "30": 966, "\u0120reinforce": 55414, "amentos": 37879, "\u0120fruitful": 89684, "ilih": 48068, "\u0120ymin": 60215, "astr": 21100, "\u0120gracefully": 79599, "\u0120m\u00c3\u00a9th": 75601, ".Last": 25709, "\u0120law": 2383, "ides": 3422, "\u0120hail": 65350, "/load": 72996, "\u010a\u0109\u0109\u0109\u0109\u010a": 74527, "\u0120step": 3094, "\u0120cons": 1615, "converted": 77304, "located": 40563, "PCA": 82550, "\u0120Blob": 50539, "judul": 68712, "\u0120Heap": 48407, "\u0120manuals": 56294, "\u0120insol": 85943, "\u0120kim": 56884, "App": 2213, "\u0120endregion": 86117, "_WIDGET": 50194, "-breaking": 55407, "\u0109P": 10230, "_ENV": 22802, "It": 2181, "=s": 14481, "\u0120guidelines": 17959, "\u0120Coun": 32354, "Digit": 37520, "\u0120\u0120\u0120\u0120\u0120\u0120\u0120\u0120\u0120\u0120\u0120\u0120\u0120\u0120\u0120\u0120\u0120\u0120\u0120\u0120\u0120\u0120\u0120\u0120\u0120\u0120\u0120\u0120\u0120\u0120\u0120\u0120\u0120\u0120\u0120\u0120\u0120\u0120\u0120\u0120\u0120\u0120\u0120\u0120\u0120\u0120\u0120\u0120\u0120\u0120\u0120\u0120\u0120\u0120\u0120\u0120\u0120\u0120\u0120\u0120\u0120\u0120\u0120\u0120\u0120\u0120": 48649, "_priv": 25757, "\u0120>>>": 12382, "rez": 23577, "sqrt": 27986, "\u0120${({": 55231, "crc": 67183, "\u0120gracias": 67648, "\u0120xnxx": 95151, "ToShow": 67955, "\u0120[])\u010a": 28714, "\u0120elit": 31160, ".dashboard": 55530, "_CE": 95905, "\u0120fing": 39827, "TOKEN": 63953, "\u0120encontrar": 46723, "maal": 79891, "\u0120Southern": 16642, "_salary": 72322, "ifying": 7922, "_deploy": 92990, "\u0120forCellReuseIdentifier": 94956, "-destruct": 97322, "\u0120upgrading": 47035, "\u0120transforms": 29575, "\u0120trademark": 32464, "\u0120mise": 57459, "(cookie": 57451, "Nature": 79519, "EI": 79882, ">t": 61835, "(Register": 80303, "\u0120Word": 9506, "\u0120respects": 43666, "_verification": 85345, "\u0120Decom": 97478, "\u0120UIT": 20518, "_needed": 58526, "ore": 461, "prof": 22579, "/'\u010a\u010a": 80667, "\u0120drones": 38332, "\u0120McA": 65813, "=*/": 82913, "ombine": 27289, "\u0120demand": 7631, "\u0120Magazine": 22168, "thresh": 95482, "'av": 49152, "//---------------------------------------------------------------------------\u010a\u010a": 95564, "udo": 7835, ";//": 9545, "']))\u010a": 20084, "_form": 8074, "_combine": 73474, "clinical": 91899, "\u0120Akron": 95893, ":\\": 7338, "\u0120inclusive": 29408, "imagin": 80224, "\u0120scanners": 95146, "_fitness": 86446, ".super": 50121, "\u0120Soldier": 53529, "\u0120Alicia": 80002, "\u0120Anthem": 90232, "\u0120thumbnail": 29674, "_FOLDER": 34737, "\u0120Rich": 8269, "\u0120regardless": 15851, "\u0120sponsoring": 85441, ".Our": 95113, "\u0120narrator": 65271, "\u0120injected": 41772, "ROOT": 24831, "flu": 27256, "\u00e2\u0122\u0136I": 51757, "\u0120council": 15177, "_mysql": 61092, "apps": 28735, "(In": 48714, "\u0120enumerable": 45042, "cosity": 86218, "\u0120Assertions": 60906, "\u0120Miller": 17472, "Fr": 23376, "**\u010a\u010a": 57277, "\u0109gl": 9123, "zilla": 19890, "\u00e0\u00a4\u0137": 65804, "stdbool": 63656, "/data": 13469, "\u0120Resp": 80886, "\u0120Ago": 97703, "\u00f4": 176, "\u0120leaks": 37796, "\u0120Monte": 46867, "...\"\u010a": 31538, "\u0120Numeric": 51467, "taxonomy": 54104, "\u0120Leather": 32178, "SignIn": 36523, "_nat": 39269, "\u0120Tie": 59825, "\u0120dimensions": 15696, "$(": 8693, "\u0120Wine": 32926, "(click": 44417, "Okay": 33413, "\u0120arguments": 6105, "=com": 59946, "bedPane": 81643, "\u0120meme": 42285, "Mex": 52665, "\u0120Beg": 44793, "\u0120HttpServlet": 47319, "descending": 89132, "\u0120BlueprintReadOnly": 94225, "_pkg": 65839, "(world": 35397, "/reset": 71103, "apt": 2756, "\u0120watch": 3821, "\u0120RHS": 74932, "\u0120EB": 50242, "\u0120Kiev": 62725, "(active": 47029, "consum": 67776, "_chk": 65773, "\u0120GBP": 84361, "\u0120LAND": 92956, ".Al": 9833, "late": 5185, "($\"": 18175, "\u0120Andy": 25871, "\u0120Filip": 42378, "\u00d1\u012a\u00d0\u00b5": 60009, "ders": 12601, "_categoria": 79836, "\u0120modelo": 37042, "\"?\u010a\u010a": 94770, "\u0120ICO": 47636, "_Custom": 58502, "IDL": 51038, "\u0120classmates": 61190, ">T": 29650, "ogra": 92241, ".wav": 30964, "\u0120DVDs": 64436, "_tools": 40823, "\u00e9\u0135\u00be": 64414, "\u0120sourceMapping": 45684, "\u0109child": 59491, "true": 1904, "\u0120reck": 29299, "\u0120DONE": 55785, "\u0120wrath": 64391, "\u0120NOAA": 86748, "(Syntax": 94649, "\u0120puts": 9711, "yectos": 63248, "\u0120Tulsa": 75662, "ActionTypes": 94918, "\u0120\u00d0\u00bd\u00d0\u00b0\u00d0\u00b9\u00d0\u00b4": 87858, ">Type": 88165, "(im": 26163, "INI": 88508, "\u0120kontrol": 97134, "\u0120Tur": 8877, "datal": 83653, "-clock": 55388, "\u0120visas": 56777, "?$": 47411, ".ColumnStyles": 72488, "\u0120yt": 69853, "\u0120Saturn": 50253, "\u0120Denn": 72261, "\u0120Castillo": 96783, "\u0120UICollectionView": 29677, ".getImage": 49418, "\u0120adb": 83512, "\u00ef\u00bb\u00bf": 3305, "']},\u010a": 98164, "\u0120finding": 9455, "}_": 20009, "\u0120grassroots": 57193, "rypto": 9631, "\u0120strr": 80552, "\u0120Gems": 82172, "\u0120rsa": 69670, "Castle": 87703, "017": 17248, "\u0120mains": 69236, "iona": 42790, "\u0120dispersion": 86712, "\u0120slopes": 60108, "Didn": 87619, "\u0120`.": 75190, "374": 18265, "\u0120\u00d0\u00bc\u00d0\u00b5\u00d1\u0124\u00d0\u00be\u00d0\u00b4": 56729, "Exporter": 89125, "\u0120sided": 69036, "\u00e6\u00a3\u0122": 98657, "ifacts": 27499, "\u0120sculpt": 27863, "gray": 11912, "file": 1213, "_STYLE": 42875, "akest": 75241, "\u0109afx": 70714, "\u0120########################": 97615, "trail": 78975, "economic": 49944, "X": 55, "\u0109auth": 79111, "\u0120converting": 34537, "\u0120Probably": 38254, "\u0120spraw": 35908, "\u00c3\u00bc": 2448, "\u0120voluntarily": 54523, "_PCM": 70171, "\u0120differentiate": 54263, "valuator": 53489, "\u0120VALUE": 27925, "realDonaldTrump": 74505, "\u0120Adoption": 93117, "History": 13730, "ukt": 38767, "ar": 277, "\u0120ellas": 98760, "\u0120Bridges": 77339, "\u0120salvage": 72836, "\u0120parad": 28417, ".Environment": 46751, "Clar": 100069, "\u0120ineffective": 55288, "\u0120category": 5699, "/Card": 58589, "sur": 20370, "guess": 52851, "Wall": 33697, "\u0120Clinic": 40324, "_extended": 62778, "-store": 34352, "ho": 6292, "\u0120destruct": 21443, "DataRow": 52366, "(pointer": 83062, "\u0120journalists": 23348, "\u0120multi": 7447, "ulse": 17660, "\u0120olive": 33213, "\u00e6\u013d\u00b4": 34226, "(MAX": 56312, ".skill": 65234, "_MORE": 76231, "_where": 37914, "\u0120succesfully": 93736, "\u0120Direct": 7286, "=logging": 71328, "\u0120automotive": 40508, "erview": 13169, "\u0120submissive": 97340, "idunt": 57143, "\u0120Appro": 19157, "\u0120junto": 63088, "_pf": 76061, "\u0120abol": 37276, "_sem": 31542, "\u0120\",\");\u010a": 92686, ".ping": 99347, ".keyboard": 54670, "\u0120WIDTH": 43910, "\u0120champ": 35641, "\u0120affiliate": 22325, ".toInt": 48024, "\u0120spur": 60131, "=__": 88523, "Prov": 81361, "Yes": 9642, "Suite": 29100, "\u0120ITS": 47175, "\u0120metros": 76578, "\u0120MouseEvent": 67317, "\u0120chron": 27076, "\u0120Libraries": 55612, "fiction": 58162, "(inode": 81588, "\u0120innovate": 92064, "ogie": 78772, "\u0120New": 1561, ".isdir": 49261, "\u0120onComplete": 56346, "FIT": 68854, ".DE": 10813, "\u0120Palace": 31396, "\u00c3\u00a9rie": 35285, "\u0120stockings": 76705, "chapter": 41326, "upplier": 72791, "\u0120analyze": 24564, "browse": 62313, "('.')": 80368, "Mixed": 87533, "\u0120That": 3011, "\u0120Existing": 69571, "ende": 11178, "ocio": 47510, "oger": 56540, "Often": 78013, "UUID": 25786, "oteca": 65490, "\u0120antic": 88143, ".wx": 95768, "\u0120Views": 25987, "\u0120consum": 4766, "\u0120kilograms": 85402, "Touch": 11561, "`=": 91360, "Ignore": 12780, "Components": 10660, "\u0120those": 1884, "eguard": 82971, "lijke": 83034, "\u0120Emerald": 64196, "\u0120Much": 24191, "upos": 87547, "\u0120NSURL": 40963, "\u0120Bs": 83286, "schools": 91756, "ANCE": 8606, "\u0120stitching": 80231, "****************": 903, "\u0120Escorts": 50754, "@email": 72876, "\u0120Shoot": 50366, "ILogger": 83352, "\u00e6\u0142\u00b7": 91985, "\u0120Astroph": 94202, ".verify": 28620, "\u0120dik": 47299, "\u0120blacklist": 67149, "\u0120TEST": 13916, ".setDescription": 66578, "\u0120IOException": 9530, "<Vector": 43295, "FAQ": 56032, "chwitz": 92031, "\u0120trem": 18659, "\u0120modify": 5719, "\u0120ART": 34979, "ullan": 42220, "teacher": 24247, "Books": 25335, "shared": 6228, "\u0120environmental": 12434, "_Process": 71341, "ServletRequest": 13834, "\u0120ponto": 75288, "pga": 75769, ":key": 65949, "noch": 77118, "\u0109MessageBox": 86251, "(idx": 20364, "\u0120Published": 30114, "\u00e5\u013d\u013d": 64803, "(tk": 86060, "440": 14868, "\u0120NT": 18125, "\u0120melt": 30099, "\u0120Pul": 35962, "\u0120Kavanaugh": 38283, "\u0120fitting": 27442, "VERTISEMENT": 42326, "\u0120Seahawks": 46026, "Stats": 17046, "\u00d0\u013f\u00d0\u00b5": 63720, "957": 27341, "\u0120prophecy": 66884, "\u0120elig": 14510, "\u0120insults": 68989, "\u0120ebook": 35097, "\u0120newcomers": 68558, "belie": 32898, "\u0120Lawrence": 28574, "ROADCAST": 70619, "\u0120mutant": 61618, "ierten": 78499, "\u0120\u00e5\u0137\u0128": 84410, "\u0120pornost": 63523, "BundleOrNil": 86415, "_mapped": 93033, "\u0120AT": 7520, "/plain": 38071, "etc": 12380, ".Images": 48288, "\u0120neutral": 21277, "\u0120distract": 64917, "Mob": 61161, ".mipmap": 68620, "\u0120ascent": 76089, "eliac": 95705, "\u0120lt": 26237, "\u00e4\u00b8\u013c": 42052, "\u0120GSL": 98468, "ard": 569, "\u0120herein": 36881, ".Business": 39925, "Correo": 75266, "\u0120Buzz": 39051, "fr": 1658, "_picture": 43506, "_word": 13843, "otros": 48145, ".dispose": 32120, "\u0120barrels": 42975, "\u0120coral": 53103, "azine": 10119, "rega": 39976, "Digits": 48267, "\u0120NotImplementedError": 39299, "urning": 54444, ".min": 4456, ".embed": 41541, "\u0120Thor": 29550, "tau": 30243, "\u0120emulator": 59616, "\u0120CSR": 64076, "gies": 68469, "Helper": 5628, "\u0120vocab": 24757, "LIGHT": 60686, "\u0120coinc": 23828, "\u0120Neck": 44055, "\u0120drei": 58619, "\u0120HARD": 71002, "\u0120bottled": 72178, "_wire": 76306, "CLASS": 25411, "ooled": 46173, "APPLICATION": 73192, "VB": 37974, "asley": 74111, "\u00e3\u0124\u00ba": 78525, "odynamics": 80011, "\u0120contingency": 83549, "\u0120guilt": 34951, "\u0120Receiver": 52052, "\u0120sustaining": 80184, "-title": 8992, "Clr": 91531, "\u0120cameras": 18632, "comp": 5807, "COLOR": 32043, "akah": 77527, "olley": 35619, "\u0120pi\u00c3\u00b9": 23605, "\u0120Lic": 33675, "quipe": 61673, "(Temp": 76487, "\u0120equivalents": 86106, "\u0120\u00c5\u013c": 93127, "\u0120goalkeeper": 63300, "-md": 4533, "\u0120empowerment": 74477, "anged": 3811, "lint": 15306, "\u0120integrate": 32172, ";s": 40514, "\u0120calming": 78729, "BEST": 96071, "entropy": 50250, "\u0120directive": 34959, "clf": 70226, "\u0120''.": 43963, "\u0120diapers": 83962, "ancellable": 84703, "\u0120bietet": 61829, ")\u010d\u010a\u010d\u010a\u010d\u010a": 35016, "\u00e2\u0122\u00a6the": 94518, "\u0120]),\u010a": 39508, "ductor": 36869, "PC": 4977, "\u0120ongoing": 14529, "Ci": 61719, "-chat": 61635, "\u00e9\u0136\u013b": 29826, "\u0120completa": 71301, "_HORIZONTAL": 76967, "\u0120Graves": 80158, "unread": 97918, "\u0120CUSTOM": 44399, "_checked": 57556, "bib": 58380, "(report": 46275, "cdr": 65270, "\u0120Pessoa": 80676, "\u0120NVIC": 87032, ".not": 12238, ".lv": 91810, "masters": 64711, "enn": 2734, "\u0120cuales": 95849, "sembling": 43064, ".isDirectory": 67912, "\u0120denne": 65436, "False": 4139, "\u0120CS": 10211, "anship": 35402, "getRepository": 42432, "-hearted": 70395, "\u0120Final": 13321, "frey": 76331, "\u0120geographic": 46139, "periences": 69597, "\u0120jetzt": 38799, "\u0120mayo": 74431, "\u0120Computers": 69549, "PLAN": 95179, "\u0120Intelli": 85649, "\u0120Whale": 97102, "anti": 15719, "\u0120drafting": 59000, "yte": 79461, "Transactional": 32475, "host": 3875, "/***/": 22471, ".primary": 36597, "\u0120decorative": 46536, "osl": 48558, "IsValid": 56570, ".Encoding": 59864, "\"All": 68149, "\u0120cob": 34928, "\u0120Colonial": 73848, "\u0120podr\u00c3\u0143a": 83542, "manent": 33854, "\u0120unsettling": 92080, "\u0120Jinping": 94486, "'in": 52152, "\u0120Pee": 96408, "\u0120Hearth": 85993, "\u0120gunfire": 77895, "282": 16544, "_EXISTS": 71142, "\u0120Tipo": 46120, "ristol": 41715, "Axis": 8306, "$$$$": 70602, "asionally": 69491, "\u0120Augustine": 74565, "umbs": 16152, "culate": 11456, "\u0120Neighborhood": 62612, "\u0120IMP": 40540, "\u0120Imper": 25519, "Modify": 45527, "\u0120insign": 54127, "\u0120ambigu": 62397, "\u0120emergencies": 69074, "Measure": 33336, "(serv": 90969, "\u0120BusinessException": 98094, "\u0120realize": 13383, ".scalatest": 73363, ">Loading": 98560, "ismo": 17434, "\u0120setStatus": 57404, "\u0120unveil": 92131, "\u0120Hir": 80735, "ensa": 58925, "\u0120sem": 5347, "cape": 5443, "\u0120tieten": 72105, "\u0120rollout": 72830, "\u0120MUT": 88520, "\u0120cub": 19250, "paralleled": 68901, "\u0120one": 832, "PO": 2089, "\u0120Croat": 45182, "})\u010a\u010a": 9000, ":white": 51916, "\u0120nz": 44042, "_outer": 68358, "\u0120Bi": 12371, "\u0120contato": 75713, ".DESC": 94220, "etto": 53979, "indic": 86184, "ilan": 90459, "\u0120Dwarf": 80830, "\u0120fetal": 63746, "_minute": 78044, "\u0120actividad": 69840, "\u0120carne": 95954, "\u0120f\u00c3\u00a5": 39705, "abby": 79736, "_timing": 72073, "\u0120Definitely": 60998, "\u0120Buddh": 50618, "bee": 33131, "\u0120findViewById": 10452, "ISP": 56606, "\u0120Investigation": 47997, "UNCH": 54856, ".department": 67300, "SION": 12480, "\u0120Wins": 49544, "\u0120staggering": 55944, "...)": 33674, "\u0120stray": 62490, "DataSet": 22305, "\u0120emphasizes": 66159, "ANCED": 68098, "\u0120derivation": 96354, "headed": 63600, "/nginx": 70361, "\u0120politic": 77037, "sure": 19643, "\u0120\u00ec\u013a\u012a": 96717, "gewater": 86130, "\u0120verifica": 92171, "=\"'.$": 23280, "\u0120travellers": 60068, "sembly": 5760, "\u0120bowl": 19763, "Geom": 79808, "\u0120beams": 51045, "\u00c3\u00abr": 73574, "\u0120worsening": 93405, ".Actor": 77194, "\u0120resourceId": 98346, ".'": 3238, "_Method": 45944, "\u0120Command": 7498, "-linear": 62399, "\u0120please": 4587, "(token": 13577, "leich": 55471, "\u0120Thumb": 93356, "\u0120'';": 37903, ".message": 6837, "\u0120proving": 39858, "\u0120Spice": 68921, "\u0120Rossi": 77169, "\u0120espan": 80655, "\u0120insets": 99169, "(\"<?": 99376, "\u0120Tra": 17747, "Block": 4818, "alert": 5193, "ROOM": 51770, "\u0120screamed": 61466, "\u0120concealed": 44133, "\u0120Barney": 94529, "lineEdit": 93647, "*I": 90342, "\u0120recibir": 94280, "\u0120blended": 55645, "eten": 34848, "err": 618, "\u0120hijos": 89627, "\u0120cancer": 9572, "\u0120Decoration": 65119, ",top": 87569, "odka": 57640, "\u0120enctype": 38515, "\u0138\u012b": 52375, "OrNil": 52820, "arrays": 67993, "\u0120\u00e6\u013a\u00af\u00e5\u0132\u00a6": 73051, "toThrow": 89210, "'?": 71090, ".toJSONString": 83186, "\u0120Thou": 86471, "Crear": 87793, "\u0120onUpdate": 81502, "rig": 14746, "()==": 21368, "\u0120Ap": 5345, "\u0120obey": 41701, "_rights": 99153, "_UPDATED": 87148, "-pres": 80876, "\u0120Frederick": 51764, "\u0120Tunnel": 66701, "842": 25377, "(bb": 69602, "\u0120acting": 15718, "Complex": 32237, "\u0120manuscript": 47913, "\u00c5\u00bee": 51492, "Sport": 59837, "review": 19981, "IRE": 7618, "dist": 12489, "\u0120averaged": 37956, "Putin": 68786, "\u0120atrocities": 72336, "\u0120tern": 72717, "><![": 74299, "Eng": 4198, "\"E": 78299, "Tot": 65702, ".COMP": 78773, "/facebook": 77088, "ouncil": 6829, "Rick": 73345, "iteral": 10157, "Jeremy": 76665, "Destructor": 86061, "\u0120config": 2242, "\u0120disse": 34000, "\u00ec\u0137": 31495, "\u0120Kickstarter": 41080, "-Shirt": 76954, "isol": 61023, "\u0120algorithm": 12384, "\u0120anterior": 37229, "_Node": 42440, "\u0120withdrawing": 84060, "\u0120espec\u00c3\u0143f": 79020, "\u0120Gundam": 88476, "\u0109protected": 7875, "=\"#\"><": 28690, "uke": 10647, "stoff": 81056, "faction": 91409, "\u0120NFC": 48305, "\u00e3\u0125\u012c": 96452, "\u0120philosophers": 61787, "\u0120bakery": 66244, "\u0120Hitler": 31654, "ANCH": 43033, "_CONT": 10940, "\u0120intel": 14490, "\u0120Robbins": 88315, "VECTOR": 44787, "Sports": 42079, ".DataContext": 92294, "System": 2374, "\u0120Styles": 38470, "IVE": 6674, "-Owned": 91152, "/Q": 46374, ".UltraWin": 96913, "\u0120imageName": 67173, "Uh": 72891, "\u0120Efficiency": 67667, "\u0120IRequest": 82666, "evenodd": 84727, "otos": 8160, "\u0120participation": 20852, "_legend": 77712, "\u0120bleeding": 35763, "ories": 2490, "rece": 54487, "_guid": 44856, "[current": 26851, "restrial": 53686, "\u0120+#+#+#+#+#+": 34957, "_connections": 57502, "\u0120employed": 20011, "dream": 57291, "\u0120mond": 62940, ".'));\u010a": 69846, "-adjust": 60684, "\u00ce\u00ac": 75234, "\u00d1\u012d\u00d0\u00b9": 35723, "\u00e2\u013a\u0127\u00e2\u013a\u0127": 49617, "(vc": 81798, "Avatar": 25886, "\u0120printable": 43095, "ointed": 85079, "\u0120jl": 85810, "RESULTS": 86728, "\u0120Sunrise": 88288, "'][$": 18656, "VF": 50163, "\u0120probs": 70470, "\u0120mMap": 75570, ".foo": 59532, "Mt": 72272, "&m": 96732, "\u00c3\u00a9ments": 98942, "\u0120compiling": 55320, ".vs": 95331, "\u0120SCALE": 79223, ".service": 5855, "\u0120became": 6244, "\u0120IMPORTANT": 68240, "\u0120TURN": 83469, "Pass": 12465, "_MODIFIED": 87058, "GIT": 91659, "ALL": 4006, "\u0120cron": 47682, "\u0120dans": 7010, "_NV": 50731, "flatMap": 58691, "ToolBar": 55266, "ecycle": 17110, "Safety": 74137, "eph": 24453, "comput": 66047, "\u0120descend": 55668, "\u0120disadvantages": 64725, "Classification": 86140, "\u0120novel": 11775, ":this": 38712, "\u00c5\u0124ug": 75881, "\u0120IList": 29814, "\u0120inet": 50576, "\u00e2\u013f": 49633, "inous": 61798, "jun": 58781, "ood": 1411, "STD": 29586, "\u0120volcanic": 67164, "\u0120superClass": 60757, ".boost": 86158, "\u00d1\u0130\u00d1\u012b": 90457, "\u0120notifying": 98601, "\u0120Borg": 65582, "\u0109Default": 92184, "_effect": 28224, "-trans": 39160, "\u0120spraying": 83636, "\u0120impact": 5536, "_props": 45935, "odi": 31559, "_READY": 52284, ".'/'.$": 63270, "\u0109events": 91973, "\u0120label": 2440, "\u0120trackers": 92082, "\u0120TForm": 94717, "-semibold": 83016, "\u0120Chrome": 17669, "CONDS": 28002, "\u0120heavy": 8987, "osexual": 49300, ".Debug": 20967, "ation": 367, "icol": 27561, "\u0120devise": 53165, "_FETCH": 59025, "\u0120buflen": 89464, "\u0120Quaternion": 25838, "abela": 38485, "bere": 62386, "\u0120submissions": 37935, "\u0120answering": 36864, "\u0120seminars": 68569, "precation": 70693, "\u0120WEEK": 58529, "\u0120psychology": 31018, "\u0120fertility": 48111, "\u0120espionage": 78739, "VERBOSE": 79917, "corn": 39730, ".chomp": 58730, "Sad": 60765, "myp": 87234, "_feature": 17506, ".tele": 40431, ".bad": 32663, "\u0120Zombie": 58091, ".setDefault": 77930, "()\u010a\u010a\u010a\u010a": 68029, "\u0120memset": 18279, "roducing": 60637, "<Location": 91974, "_next": 11507, "\u0120\u00d0\u00b8\u00d0\u00bd": 42078, ".SwingConstants": 86160, "\u0120Twice": 94666, "Mozilla": 41130, "crest": 45551, "\u0120Bark": 60629, "\u0120Classifier": 90286, "\u0120subset": 27084, "\u0120cuer": 57395, "classification": 66481, "\u0120Aires": 65717, "Ford": 59663, "legend": 14845, "\u0120Guest": 27307, "\u0120transfer": 8481, "\u0120CLLocation": 53759, "\u00e7\u0136\u00a8\u00e6\u012a\u00b7": 20600, "\u0120SX": 55868, "\u0120STORAGE": 91584, "\u0120\u0120\u0120\u0120\u0120\u0120\u010d\u010a": 17707, "\u0109score": 61525, "\u0120Insp": 31016, ".nombre": 33677, "\u0120desert": 24521, "\u0120Stevens": 36177, "\u0120didnt": 48707, "kes": 12841, "ensed": 30040, ".calculate": 45065, "\u0120cuck": 63279, "\u0120dragons": 51536, "\u0120Clients": 48508, "\u0120Marshall": 30508, "std": 1872, "ANE": 28919, "\u0120depending": 11911, "\u0120lift": 12157, "_temp": 12033, "skins": 50418, "\u0120hin": 52821, "\u0120Fasc": 70707, "\u0120artistic": 32692, "getitem": 61012, "\u0120NES": 74313, "\u0120plut\u00c3\u00b4t": 96308, ".\";": 78455, "_definition": 32798, "ISODE": 100001, ".ApplyResources": 58373, "fff": 14424, "liche": 20603, "\u0120corrupt": 22681, "\u0120\"_\"": 33825, "Feed": 30016, "\u0120North": 4892, "_sec": 17687, "\u0120Rays": 80775, "\u0120err": 1886, "\u0120explo": 7684, "<Q": 33480, "\u0120demons": 45075, "\u0120Nichols": 81250, "-blue": 32754, "_Unit": 81581, "angered": 97409, "\u0143\u0132": 99834, "Mer": 27814, "\u0120discovery": 18841, "\u0120arr": 2961, "\u0120cours": 45369, "\u0120substantially": 32302, "\u0120Sh": 1443, "(PHP": 84654, "atial": 23241, "\u0120Uploaded": 69304, "thermal": 69218, "\u00ef\u00bc\u0130": 59983, "ingers": 14437, "\u0120borrowed": 46664, "\u0120Rabbit": 49431, "ccoli": 60803, "Thirty": 92702, "acman": 95214, "\u0120infinitely": 72600, "Backdrop": 91038, "\u0120M\u00c3\u00a4r": 85232, ".Flags": 52987, "\u0120Callback": 23499, "\u0120Sheffield": 61125, "ombres": 31132, "\u0120underline": 52974, "\u0120yAxis": 63678, "\u0120lever": 28605, "Moves": 46889, "\u0120context": 2317, ".fre": 86653, "\u0120Sup": 6433, "Shadow": 24591, "\u0120endorsing": 98859, "\u0120/>'": 72142, "_publisher": 85826, "turnstile": 57290, "BindingUtil": 88584, "\u0120grap": 69083, "_CO": 20201, "\u0120admits": 38239, "\u0120wirk": 51468, "upload": 6248, "Interceptor": 33886, "\u0120ancestral": 78771, "ulk": 22537, "/welcome": 87797, "kehr": 82212, "(plane": 96214, "\u0120INTER": 30442, "\u0120cones": 87992, "(signature": 93750, ".r": 1783, "ycle": 5566, "\u0120\u00e2\u0128\u0134\u010a\u010a": 29529, "iese": 82153, "\u0120jr": 80698, ".LINE": 82453, "rar": 45083, "_CHAIN": 71332, "del": 9783, "\u0120wand": 29810, "<strong": 49747, "\u00e4\u00b8\u0129\u00e5\u0127\u0125": 92555, "\u0120Ridley": 93401, ".Connect": 44951, "/frontend": 74263, "leftJoin": 76761, "'}),\u010a": 25854, "\u0120wards": 78251, "Featured": 53043, "\u0120stumbling": 88455, "\u0120\"\"\"\u010a": 3270, "\u0120\u00c3\u00a9t\u00c3\u00a9": 24560, "UNK": 32983, "\u0120miscon": 30771, "\u0120\u00e2\u013a\u0127": 38334, "\u0120Paint": 17646, "}];\u010a": 76153, "ial": 532, "(per": 53627, "dl": 8910, "\u0120Templates": 19820, "\u0120Certain": 35211, "lvl": 59260, "-document": 83333, "\u0120sticky": 28502, "newsletter": 72468, "_dice": 98296, ".BadRequest": 54892, ",obj": 69814, "alpha": 7288, "online": 26732, "\u0120som": 1794, "\u0120\u0120\u0120": 262, ".None": 18982, "engo": 65753, "UniformLocation": 52804, "\u0120repaint": 86789, "\u0120listening": 14624, "\u0120stark": 38246, "\u0120l\u00c3\u00a6": 78314, "\u00e2\u0122\u013b,": 20182, "\u0120diminishing": 84153, "female": 43734, "\u0120Predicate": 50927, "\u0120Dodge": 43981, "-abortion": 96583, "Translate": 28573, "anner": 4992, "\u0120stere": 23473, ".=": 29464, "arith": 57736, "_RATE": 30208, "Rpc": 61348, "-report": 48511, "ynom": 62220, "\u0120\"\\\"\"": 68722, ".Adam": 70218, "\u0120Dialogue": 70589, "')):\u010a": 75064, "\u0120Gon": 80806, "\u0120;\u010d\u010a\u010d\u010a": 63133, "LY": 9109, "_channel": 14913, "\u0109\u0120": 3762, "/red": 79000, "\u0120confidential": 27285, "=\u00e2\u0122\u013f": 45221, "\u0120Dj": 52162, ".Pr": 18431, "\u0120prosecuted": 58559, "\u0120environ": 50026, "\u0120serotonin": 77130, "387": 20062, ".loop": 45451, "acha": 52676, "validate": 7212, "\u0120segmented": 86045, "(nodes": 39805, "=M": 50782, "_ATOMIC": 88943, "untime": 4566, "\u0120dashed": 67822, "\u0120hawk": 76920, "\u00c3\u00a1lido": 59166, "at\u00c3\u00a9g": 94487, "play": 1387, "<r": 92290, "Parse": 14802, "(','": 63419, "\u0120Portions": 78897, "Ask": 27264, "\u0120Spr": 15883, "\u0120Paz": 88982, "_syntax": 79994, "\u0109Toast": 80387, "York": 100077, "\u0120functioning": 31301, "\u0120serviceProvider": 99109, "\u0120Dise": 24959, "\u0120imm": 4998, "fast": 9533, "-two": 38502, "\u0120Ln": 98919, "\u0120\u00ec\u0139\u0128": 47782, "\u0120&,": 53053, ".Api": 21721, "ENTION": 72983, "/{}/": 93609, "\u00d0\u00ba\u00d0\u00b5": 53671, "\u0120sticks": 34240, "\u0120--\u010a": 40614, "plt": 9664, "\u0109boolean": 21244, "\u0120oxidation": 71162, "\u0120cursos": 87591, "\u0120Farr": 75006, ".jump": 85222, ".UNKNOWN": 96137, "ManyToOne": 44194, "}|": 53498, "\u0120\"-//": 67996, "\u0120slapped": 72888, "\u0120christ": 26853, "\u0120objetos": 75148, "Passwords": 85646, "Tesla": 90541, "618": 21985, "\u00e2\u0136\u0124": 73987, "\u0120Flavor": 66099, "\u0120Meadows": 78142, "::::": 14053, "ritte": 99380, "noinspection": 90367, "\u0120fiber": 24722, "reflection": 78098, "/connect": 79589, "oxic": 82329, "\u00a9\u00eb\u012d\u012a\u00eb\u012d\u00a4": 49558, "\u0120sequ": 11506, "\u0120LAT": 54287, "\u0120tobacco": 27531, "\u0120Model": 5008, "\u0120pass\u00c3\u00a9": 81621, "\u0120absentee": 94190, "Spinner": 32181, "_peak": 67809, "\u0120Toe": 90904, "\u0120temporal": 37015, "\u0120'$": 8412, "agar": 38812, "\u0120cj": 92097, "\u0120exce": 91384, "Actions": 13245, "\u0120'/')\u010a": 94175, "*=": 41108, "_genes": 84572, ".AddModelError": 85325, "\u0120Jess": 23908, ".RIGHT": 53025, "Clear": 14335, "\u0120Vienna": 47387, "/screens": 60486, "Youtube": 92767, "\u0120systemd": 76066, "\u0120fue": 22800, "edBy": 98422, "imageName": 80878, "Inter": 3386, "\u0120deepest": 51621, "swer": 3643, "\u0120Spir": 66147, "\u0120submenu": 78497, "vla": 80663, "76": 4767, "\u0120damaged": 20727, "DOM": 15599, "\u00c3\u00a6lland": 87233, ".delivery": 74185, "\u0120specialised": 89004, "\u0120Firebase": 20261, "\u0120google": 11819, ".Nil": 60778, "JT": 82281, "\u0109of": 44323, "\u0120Scha": 92818, "\u0120visto": 66518, "\u0120*.": 32630, "Decrypt": 90760, "\u0120sich": 9267, "flush": 22402, "//$": 21207, "\u0120Needs": 44240, "Wo": 63862, "acao": 15459, "413": 19288, "_every": 65148, "\u0120appet": 30168, "\u0120CA": 9362, "quiv": 15780, ".Autowired": 19709, "\u0120Cab": 27200, "\u0109die": 38004, "\u0120infr": 25654, "PB": 41737, ".orders": 64644, "\u0120cosmetics": 66065, "/chat": 72435, "\u0120Sold": 28239, "\u0120contest": 14130, "!==": 50114, "\u0120disconnect": 30069, ".Controls": 4337, ".dataset": 25600, "[ii": 31924, "\u0120march\u00c3\u00a9": 84751, "ivement": 91640, "\u0120Bro": 6031, "\u0120writes": 14238, "\u0120Ownership": 86036, "Pal": 20577, "gew": 38385, "ISO": 25141, "BMW": 98736, "\u0120bike": 13260, "\u0120beg": 2197, "\u0120moms": 47834, ".freeze": 77785, "\u0120banda": 97211, "\u0120repaired": 52834, "admin": 2953, "Project": 8006, "logical": 31356, "speed": 20997, "-game": 19959, "andidate": 17487, "SerializeField": 18892, "\u0120prescription": 22866, "Reach": 49468, "MouseButton": 77644, "\u0120lastIndex": 88072, "\u0120FREE": 16655, "Merit": 64167, "\u0120dispose": 28490, "\u0120Customize": 47434, "more": 6518, "vet": 17553, ".'\"": 30251, "-initial": 49067, ".Private": 88838, "isin": 58504, "\u0120cellar": 76875, "\u0120exemp": 94320, "Details": 7955, "elleicht": 67460, "Thai": 70285, "employee": 13243, "|\"": 48676, "\u0120olig": 55984, "\u0120sizing": 64101, "/home": 18716, "redient": 14679, "\u0120COMPONENT": 71403, "ally": 750, ".Activity": 25970, "mean": 14622, "_CTL": 38637, "inally": 38745, "arias": 48213, "Visited": 76595, "\u0120ifndef": 83390, "_Work": 88571, "\u0120TTC": 88900, "nier": 90083, "\u0120obe": 98502, "\u0120Incorporated": 67795, "\u0120M\u00c3\u00bcller": 100018, "<decltype": 89974, "oreferrer": 59040, "ehler": 58696, "reative": 87466, "\u0120\u00ec\u0140\u0133": 69332, "\u0120panel": 7090, "_baseline": 83165, "\u0120cynical": 70779, "\u0120:\u010d\u010a": 30074, "Recent": 26198, "odont": 86815, "\u0120kommer": 48431, "\u0120rx": 19656, ".Video": 47347, "third": 32827, "Factor": 21316, "istogram": 29599, ".Dialog": 27952, ".pe": 53824, "\u0120packaged": 47237, "\u0120Latina": 59863, "\u0120mouseY": 69147, "\u0120suffix": 21166, "emoji": 38623, "vor": 37215, "ren": 1466, "[block": 84013, "requests": 37342, ".setFocus": 80892, "\u0120emailing": 92801, "(proj": 93147, "\u0120Fetish": 100019, "\u0120'?": 32167, "044": 20078, "comings": 70243, "qa": 15809, "\u0120Agreement": 23314, "\u0120Minds": 61410, "\u0120perso": 78072, "\u0120sapi": 82295, "\u0120Burton": 54755, "\u0120aseg": 65844, "\u0120ignition": 60692, "OTA": 37644, "/epl": 60403, "ALS": 47837, "\u0120restore": 15301, "(att": 66837, "\u0109bt": 83130, "\u0120p\u00c3\u00a9ri": 84411, "\u0109Register": 80196, "))(": 29254, "\u0120switched": 30975, "izio": 46082, "poon": 33076, "\u0120Matcher": 61732, ".assignment": 83823, "\u0120Another": 13596, "\u0120volum": 63920, "\u0120Turkish": 24666, "\u0120deltaTime": 59579, "Basically": 71903, "\u0120exports": 13086, "(transform": 31076, "\u0120Incre": 32711, "\u0120Sof": 36647, "-cons": 69604, "\u0120illustr": 12573, "\u0120Though": 18056, "\u0120Transaction": 18351, "gx": 61057, "\u0120Frequently": 93720, "\u0120accessory": 43081, "avored": 76486, "\u0120mockMvc": 97442, "Tipo": 33094, "atal": 4306, "<!": 13853, ")\":": 85736, "-routing": 53256, ".scss": 18166, "\u0109sh": 37296, "_constants": 56742, "\u0120Pink": 27211, "\u0120Titans": 47711, "\u0120fabricated": 70554, ".renderer": 41252, "\u0120Opr": 78618, "(`<": 87094, "constant": 18568, "\u0120dilig": 39387, "(LED": 84237, "\u0109sm": 73123, "\u0120anticipating": 86359, "\u0120Huffman": 89597, "_basis": 63796, "ObjectType": 50630, "\u0120obliv": 67105, "rite": 1269, "\u0120glance": 34522, "MenuStrip": 51545, "\u0120IMS": 88377, "\u0120headers": 7247, "\u0120bem": 33015, "(\"\"));\u010a": 90844, "ett": 7211, "\u0120Interview": 32567, "<Student": 58854, "\u0120rosa": 96344, "\u0120authoritative": 65693, "\u0120\u00e5\u00bc": 53606, "]:\u010a": 10556, "\\Plugin": 78398, "\u0120Detection": 58453, "/open": 38744, "\u0120generar": 96079, "[hash": 80941, "\u0120verses": 50399, "UIFont": 36205, "ifting": 18148, "\u0120Lisbon": 81801, "\u0120Shiv": 90913, "\u0120Cutter": 90878, "ingle": 2222, "\u0120explored": 36131, "_name": 1292, "itioner": 72346, "\u0120Customs": 46771, "\u0120telefone": 74264, "\u00e8\u012d\u00b1": 83947, "\u0120toolStrip": 48002, "\u00e9\u00bb\u013a\u00e8\u00ae\u00a4": 48463, "\u0120unwind": 82610, "\u00e9\u013f\u00a2": 28190, "\u0120presentations": 38480, ".nz": 62082, "please": 31121, "_MSK": 96417, "Occ": 22513, "\u0120Retail": 35139, "em\u00c3\u00a1s": 42941, "\u0120Lair": 58196, "profile": 5478, "\u0120interchange": 52363, "\u00c4\u00ab": 61711, "\u0120Penny": 54015, "apl": 73389, "\u0120Occasionally": 89426, "\u0120Pfizer": 97954, "_greater": 99094, "\u0120Parser": 21783, "cular": 22077, ".Decode": 57472, "/oct": 60282, "\u0120Lancaster": 66223, "-resolution": 64036, "\u0120talented": 23944, "\u0120dinosaur": 63989, "(serializer": 69371, "].\"": 72066, "\u0120storage": 5942, "izards": 35191, "\u0120nouvel": 35462, "\u0120Contributor": 65824, "erreur": 71656, "-driver": 77590, "\u00c3\u00b3w": 12543, "\u0120shipments": 59721, "_eval": 22001, "\u00d1\u0125\u00d1\u0123\u00d1\u0124": 61613, "\u0120nouve": 77701, "Inlining": 82404, "iqu\u00c3\u00a9": 76366, "rv": 10776, ".user": 3405, "\u0120Emb": 30227, "-created": 72057, "\u0139\u0131": 24339, "\u0120knowledge": 6677, "uplic": 10047, "ahaha": 74635, "\u0120Berkshire": 91375, "oker": 10668, "_SHAPE": 94238, "(visitor": 94416, "261": 15602, "\u0120caf\u00c3\u00a9": 53050, "_arrays": 70083, "Tem": 22759, "\u0120viagra": 20273, "='\"+": 39648, "\":\u010a\u010a": 52518, "ATIC": 47459, "\u0120Cognitive": 73235, "(Operation": 97704, ".time": 6512, "STEM": 15642, "\u0120races": 21234, ".cross": 53861, "\u0120succeeds": 51181, "\u0120Boys": 30857, "\u0120Disc": 11997, "Fast": 33274, "OLID": 59351, ".Seek": 77565, "\u0120mie": 30165, "akhir": 65958, "-align": 9841, "\u00d1\u0125\u00d0\u00bb\u00d1\u012e\u00d1\u0124": 66005, "\u0120millennia": 96731, "\u0120Orth": 32210, "-cell": 33001, "(V": 12692, "\u0120seated": 47413, "\u0120flour": 20415, "UGE": 48744, "\u0109sw": 78395, "\u0120plural": 39598, "\u0120[]\u010d\u010a\u010d\u010a": 81093, "Food": 27844, "\u0120Sund": 37902, "\u0120\u00e8\u0129\u00aa\u00e5\u012c\u00a8\u00e7\u0136\u0141\u00e6\u012a\u0132": 98128, "i": 72, "\u0109\u010a": 1602, "\u0120Mock": 14905, "=\"<?": 4347, "\u0120brightness": 33306, "\u0120wrapped": 20037, "\u0120Summary": 22241, "\u0120Hou": 60700, "\u00e8\u00aa\u0143": 98499, ".float": 16304, "\u0120\u00c3\u013e": 31612, "dispatch": 18777, "?>\">\u010a": 43171, "\u0120smiles": 43632, "\u0120thrilling": 57399, "\\Services": 55846, "xfa": 49990, "\u0120vig": 21466, "pei": 64974, "\u0120Detector": 80119, ".Metadata": 47575, "*log": 91514, "(xml": 31032, "Una": 65194, "\u0120UC": 31613, ";height": 44141, "\u0120irritated": 84971, "\u0120Perspective": 70288, "\u0120partial": 7276, "_aa": 90908, "\u0120Metal": 19757, "\u0120reactionary": 96238, "<small": 98487, "='${": 99614, "yellow": 28969, "\u0120augment": 49806, "wav": 53146, "\u0120butterflies": 81776, "_Field": 47372, "color": 3506, "_cover": 39187, "ifes": 83395, "ored": 3093, "isNull": 67911, "-elected": 96805, "uary": 3620, "\u0120Sara": 44020, "-sur": 68806, "/****************************************": 74061, "`,`": 41281, "\u0120Symposium": 74938, "\u0120comenz": 75209, "\u00e3\u0125\u0136\u00e3\u0125\u00bc": 93298, "picked": 94599, "\u0120?>;\u010a": 99287, "\u0120K": 735, "\u0120Enumerator": 77611, "\u0120flo": 9943, "\u0120Hv": 93087, "\u0120bst": 71331, "\u00ec\u00a1\u00b0": 93917, "\u0120stiff": 31161, "\u0120charming": 35509, "IGO": 61589, "<TreeNode": 81790, "<p": 8085, "Switch": 17259, "compressed": 46803, "\u0120genders": 82428, "l\u00c4\u00b1k": 92833, "\u0120Kenn": 15739, "759": 26439, "references": 37009, ".Param": 9775, "\u0120Feng": 43758, "_fragment": 44112, ".requests": 68771, "\u0120hovered": 91551, "\u0120primaryKey": 66958, "_Height": 84929, "methodName": 59650, "\\Core": 21569, "inheritDoc": 33569, "\u0120Taxes": 72837, "\u0120Felipe": 82547, "None": 4155, ".CL": 37008, "-Version": 85002, "-prefix": 68281, "\u0120Digit": 72565, "\u0120(_)": 57244, "\u0120proton": 82586, "Beginning": 76390, "\u0120llen": 79931, "_TD": 96962, ".video": 28720, "\u0120fois": 37291, "\u0120derived": 14592, "_)\u010a": 24262, "\u0120dirs": 43348, "INTERN": 43904, "\u0120IH": 46411, "\u0120lyrics": 24142, "\u0120rays": 45220, "MARY": 49970, "\u0120Buk": 70950, "**:": 96618, "'on": 54386, "\u0120zen": 54562, "}@": 81828, "\u0120wipe": 40194, "\u0120klar": 73834, "/contact": 47036, "racial": 50025, "\u0120widgets": 32955, "creates": 59619, "\u0120Marxist": 70050, "038": 24462, "\u0120theor": 46820, "\u0120Maced": 57552, "\u0120Jurassic": 84474, "\u00ce\u00bb": 34586, "Checkout": 56245, "-testing": 83255, "ucky": 10279, "es": 288, "\u0120genuine": 22785, "\u0120}),\u010a": 12240, "\u0120symptom": 49648, "acist": 50422, ".Abstract": 38440, "cen": 48422, ".\u00e2\u0122\u013f\u010a\u010a": 2950, "_component": 24297, "\u0120Jackets": 86664, "\u0120Missouri": 25378, "\u0120uncommon": 41296, "(shell": 94658, "uela": 24669, "\u0120grado": 78745, "\u0120sprint": 38949, "lagen": 55808, "\u00e8\u012c": 45951, "Thing": 54040, "\u0120commissioners": 74655, "Inner": 32697, "frequency": 47621, "_verify": 36738, "%H": 77931, "\u0120Basis": 70128, "nehmer": 89587, "\u0120ASAP": 67590, "_ADD": 8749, "arge": 2812, ".Track": 90190, "\u0120yg": 93886, "\u0120\"": 330, "\u0120contacted": 25559, "etest": 58924, "\u0120...\"": 79310, "\u0120TED": 84296, "\u0120fitness": 17479, "*size": 81931, "\u0120serialVersionUID": 24598, "\u0120Anders": 48693, "ORIZ": 25710, "\u0120tpl": 62079, "\u0120parce": 66021, "spa": 90298, "\u0120Vulcan": 94155, "\u0120external": 9434, "\u0120commercial": 8518, "\u0120recorded": 12715, "\u0120Asian": 14875, "chunk": 27069, "738": 25527, "(({": 36682, "\u0120organic": 17808, "\u0120federal": 6918, "516": 20571, "/error": 42837, "\u0120landmarks": 61024, ".bottomAnchor": 73907, "PX": 74912, "\u0120estr": 30607, "\u0120Acad": 12644, ")\",\u010a": 16129, "Inspector": 47330, "Moder": 69723, "\u0109Z": 36953, "\u0120baptism": 74927, "olg": 75163, ".Toggle": 81800, "\u0120Newfoundland": 89396, "ajan": 97386, "vlc": 99504, "\u0120\u00e0\u00a4\u00b9": 85410, "\u0120suf": 56868, "\u0120mapDispatchToProps": 32741, "\u0120Statements": 70816, "ada": 2649, ".bytes": 43797, "_Profile": 78394, "_utilities": 95144, "\u0120Assistant": 22103, "_hal": 53680, "peration": 92874, ".rabbit": 95677, "\u0120Resources": 16607, ".array": 7382, "\u00e5\u013e": 12554, "(pthread": 95984, "\u0120mettre": 48021, "_tab": 17796, "\u0120leer": 54238, "igy": 93593, "ANDLE": 16126, "heel": 8597, "\u0120NoSuchElementException": 95549, "lie\u00c3\u0141lich": 84190, "\u0120aussi": 28463, "-area": 30122, "\u0120remained": 14958, "\u0120M\u00c3\u00a9": 44031, "Alternatively": 93114, "\u0120radically": 61127, "//}\u010a": 37423, "Glyph": 83139, ",float": 46609, "Usuarios": 59686, "\u0120cheering": 69002, "\u0120!!}\u010a": 24859, "\u0120supper": 87117, "\u0120Hands": 43396, "Blend": 46100, "chein": 64959, "\u0120Athletics": 70831, "\u0120Nim": 47683, "\u0120lee": 83044, "\u0120pareja": 75886, "\u0120haste": 90539, "\u0120getNode": 82898, "-under": 72207, "_sampling": 78816, "onte": 53377, "\u0120accidents": 33788, "\u0120hab": 6183, "\\Component": 15650, "obi": 18843, "\u0120awaiting": 45088, "/$": 10982, "\u0120Fully": 49256, "\u0120mud": 27275, "\u0120Sud": 27430, "\u010a\u0120\u0120\u0120\u010a": 60058, "SEND": 62774, ".install": 51711, "\u0120flagged": 62309, "\u0120Norway": 32603, "\u0120Fires": 83930, "\u0120TAS": 92388, "\u0120ocean": 18435, "bind": 7821, "\u0120Burke": 50723, "\u0120bear": 11984, "\u0120State": 3314, "oria": 11015, "ermal": 18558, "\u0120accounted": 41853, "\u0120doors": 14365, ".exp": 14072, "\u0120Invest": 13038, "\u0120Advertisement": 67102, "yas": 82553, "\u0120breasts": 37449, "\u0120crawler": 74194, "_right": 10762, "\u0120staple": 50056, "\u0120Bands": 88402, "\u0120pInfo": 94683, "ewart": 27595, "\u0120mindfulness": 71705, "\u0120satire": 82495, "\u0120Samoa": 88120, "\u0120IOC": 98003, "\u0120require": 1397, "\u0120FUN": 36549, "\u0120retarded": 98459, "\u0120condiciones": 78758, "\u0120RESPONSE": 77273, ".Click": 11566, "\u0120Frozen": 58846, "-panel": 32476, "\u0120Shakespeare": 42482, "\u0120pricey": 79462, "//[": 66737, "\u0120\".\u010a": 81510, "\u0120tapered": 95155, "et\u00c3\u0142": 95971, "olis": 69858, "179": 11128, "\u0120yes": 10035, "\u0120opens": 16264, "she": 32158, "_AF": 47835, "horia": 96729, "\u00e0\u00b8\u00b4\u00e0\u00b8\u013b": 86145, "\u0120Magnum": 94961, "\u0120Kinder": 45099, "\u0120blockchain": 18428, "\u0120ENTRY": 73892, "identified": 43360, "\u0120gast": 88759, "\u0120rename": 30174, ",,": 10856, "ilo": 18536, ".prev": 30091, "\u0120odor": 54097, "\u0120refrigerator": 46044, ".addRow": 85213, "\u0120SEP": 74869, "StringUtil": 86629, "iri": 21336, "\u0120Millions": 74418, "-Ch": 30653, "\u0120testify": 49262, "aginator": 34228, "sst": 52000, "vinc": 35233, "tet": 73542, ".dto": 21952, "\u0120will": 690, "\u0120Chick": 63226, "_type": 1857, "=g": 38262, "\u0120\"{$": 56077, "******": 6967, "Australia": 49137, "_eta": 56025, "EO": 6903, ".productId": 93165, "_money": 35165, "\u0120NET": 26025, "\u0120Wrest": 46037, "\u0120intr": 10805, "amed": 3690, "ichi": 41652, "otics": 51003, "\u0120\u00c3\u00a1reas": 95162, "\u0120GRE": 62996, "venience": 40647, "\u0120dumpster": 28550, "\u0120BAL": 70245, "\u0120Archbishop": 82311, "-Class": 82626, "\u0120tussen": 89822, "\u0120suspension": 25288, "_fields": 12406, "-app": 20624, "\u0120POS": 27592, "_LOCATION": 31302, "(book": 34230, "Permission": 15315, "\u0120vb": 35819, "\u0120subrange": 94891, "\u0120suspicious": 32427, "\u00e2\u0122\u013eThat": 49977, ".He": 52425, "\u0120Disorder": 63877, "\u0120installs": 71420, "IFICATIONS": 78679, "\u0120Tro": 19881, "DDR": 71871, "signal": 27720, "\u0120sculpture": 51067, "\u0120windshield": 75039, "@update": 85331, "\u0120modelAndView": 81775, "\u0120Stanford": 31788, "\":\"": 3332, "ag": 351, "\u0120Vol": 11119, "cap": 11600, "meter": 60522, "\u0120defended": 35844, "usable": 23620, "ffect": 1740, "\u0120court": 5590, "\u0120wide": 7029, "\u0120Medicare": 31822, ".oracle": 51524, "RID": 63575, "\u00c3\u00a1k": 72542, "/../": 79480, "\u0120z\u00c5\u0124": 59168, "']),\u010a": 30340, "\u0120unitOfWork": 85153, "\u0120depot": 45719, "benhavn": 42077, "\u0120acompanh": 61897, "\u0120rested": 66529, "\u0120Challenges": 69778, "`\u010d\u010a": 76779, "\u0120shin": 77111, "\u0120Paige": 87511, ".So": 47487, "\u0120\u00d0\u00b7\u00d0\u00b0\u00d0\u00bf\u00d1\u0122\u00d0\u00be\u00d1\u0123": 70183, "\u0120never": 2646, "\u0120special": 3361, "Spr": 64505, "\u0120onViewCreated": 87734, "\u0120strateg": 5388, "\u0120Dot": 32362, "walls": 87396, "\u0120supreme": 44222, "\u0120Deliver": 65752, "mes": 9004, "\u0120trie": 60167, "ITED": 79604, "Resolution": 39206, "\u00c2\u00b9": 60597, "(br": 42337, "real": 8110, "\u0120gross": 20547, "\u0120G\u00c3\u00b6": 83246, "/respond": 67563, "\u0120uma": 10832, "Abb": 81319, "mensagem": 89941, "\u00d1\u012d\u00d1\u0127": 63233, "\u00e6\u0122\u013f": 91763, "\u0120cbo": 94777, "Implemented": 18804, "abaj": 80084, "\u0120Adri": 62443, "\u0120Ros": 16870, "ahren": 21865, "\u0120London": 7295, "\u0120intentionally": 37304, "\u0109data": 9101, "uards": 55708, "\u0120if": 422, "\u0120attributes": 8365, "\u0120setState": 22167, "\u0120lake": 22553, "\u0120pi\u00c3\u00a8": 70477, "exampleInput": 58792, "\u0120parsed": 16051, "_succ": 71858, "Disconnected": 78121, "Places": 59925, "_AA": 83041, "\u0120collateral": 52508, "\u0120payload": 7885, ".profile": 22230, "\u0120modulus": 75124, "\u0120Carrier": 51961, "!=": 5947, "axios": 22031, "\u0120\u00e7\u012b": 65488, "\u0120tor": 5801, "\u0120knew": 7020, "ViewSet": 77526, "\u0120tac": 60388, "(JS": 72750, "\"))))\u010a": 79078, "\u0120Olympia": 96829, "\u0120Worship": 87222, "\u0120defeat": 18506, "hexdigest": 98324, "\u0120deductions": 71737, "\u0120Minh": 93255, "_cat": 21492, "\u0120opting": 75701, "\u0120chr": 29231, "flatten": 48166, ".Elements": 69877, "Quarter": 87708, "console": 5467, "\u0120heightFor": 69449, ".JMenuItem": 90753, "\"bytes": 71691, "UDP": 42748, "\u0120Superv": 62924, "phys": 42305, "\u0120GURL": 94519, "\u0120Klopp": 94931, "\u0120cinematic": 65765, "\u0120localtime": 88594, "(Http": 12566, "\u0120Nebraska": 38379, "\u0120Douglas": 31164, "\u0120yc": 82958, "\u0120IMapper": 91599, "\u0120trag": 72702, "ertoire": 62704, "ew": 365, "\u0120collaborators": 79119, "\u0120dias": 41470, "DVD": 78239, "\u0120heads": 14971, "housing": 81715, "\u0120\u00c3\u0138": 35137, "\u00e6\u00b4": 44647, "\u0120queens": 70097, "\u0120alma": 82580, ".unsqueeze": 83115, "$new": 46984, "\u0120heir": 51543, "\u0120covenant": 65004, "\u0120brigade": 84972, "oggler": 40278, "\u0120weiber": 71449, "IColor": 10545, "\u0120Well": 8489, "\u0120detention": 33273, "itti": 72866, "\u0120pests": 76056, "\u0120Butterfly": 78820, "\u0120feminist": 38012, "gua": 85369, "app": 680, "PORT": 5205, "\u0120Industries": 37528, "\u0120ping": 31098, "((-": 56034, "\u0120fragmented": 87195, "\u0120Contractor": 87618, "ValueCollection": 87815, "\u0109cmd": 27009, "legation": 88666, "\u0120leader": 7808, ".Byte": 33219, "craper": 87382, ".va": 56693, "\u0120notably": 35146, "enefit": 89729, "ifie": 57609, "Lights": 75584, "(loc": 23476, "\u0120confusing": 31715, "Field": 1915, "-efficient": 73916, "\u0120otp": 84531, "\u00e6\u013b\u00af": 86354, "requete": 95442, ".wallet": 60311, "\u0120Next": 9479, "\u0120Danny": 33699, ".scrollTop": 49646, "\u0120rift": 78257, "nicos": 85530, "\u0120WG": 99175, "/editor": 76906, "GetX": 77722, "\u0120CP": 15643, "chemy": 25055, "997": 22694, "\u0120VER": 30361, "_windows": 59320, "\u0109show": 33827, "SELF": 66873, "Align": 10275, "unlock": 56121, "\u0120\u00ea\u00b3\u0126": 95303, "\u0120\u00ec\u012a\u013a": 29833, "bben": 37139, "\u0120mat\u00c3\u00a9": 86374, "Ethernet": 99106, "\u0120'('": 38980, "SmartyHeaderCode": 99168, "={\"": 16160, "\u0120resolves": 64397, "blo": 39245, "\u0120Ph": 2405, "Handling": 39706, "(Get": 25467, "_fire": 46872, "\u0120realmente": 69947, ".Warn": 69565, "\u0120cath": 31747, "\u0120centro": 41987, "ilarity": 49325, "Dot": 35307, "\u0120Hannah": 48361, "ProcAddress": 70744, "ViewController": 6770, "ieve": 19704, "\u0120,\u010d\u010a": 56919, "(docs": 90519, "_bg": 23997, "\u0120shielding": 97776, "\u0120Overse": 86403, "_inventory": 51573, "vinfos": 81761, "\u0120Komm": 88827, "aska": 17309, "\u0120Inter": 5783, "_et": 46768, "\u0120weapons": 10094, "OUT": 3740, "\u0120decisive": 51391, ".for": 6272, ".setProperty": 32333, "\u0120melting": 50684, "\u0120Nationals": 62191, "\u0120AAP": 75852, "\u0120sala": 59033, "\u0120freed": 28634, "=http": 35817, "(sw": 60002, "exampleModalLabel": 83503, "\u0120Electric": 21246, "\u0120exported": 35990, "could": 29177, "Bot": 24406, ".....": 18575, "ICO": 33750, "\u0120liar": 73724, "\u0120IGNORE": 82390, "\u0120Kah": 85107, "\u0120Whit": 27484, "clone": 20579, "\u0120ld": 27221, "patibility": 54153, "\u0120countless": 28701, "\u0120Heard": 95208, "_no": 6673, "esi": 34183, "\u0120BASE": 22984, "Travel": 41348, "-N": 11500, "information": 26125, "-terrorism": 95996, "owy": 37975, "\u00d8\u00a7\u00db\u012e": 47172, "\u0120lowered": 39920, ".IsEnabled": 54173, "ItemAt": 55296, "\u0120milling": 46472, ".Categories": 89259, "\u0120NSLocalizedString": 61372, "erah": 97308, "\u0120Bow": 18943, "\u0120ersten": 49258, "\u0120boasted": 84312, "\u0120readiness": 62792, "Metrics": 28428, "\u0120Firm": 38725, "\u0120troubles": 35665, "Ai": 70767, "(prom": 84432, "@\"\u010a": 85745, "_mtime": 94774, "\u0120pent": 20801, ".append": 2102, "\u0120LESS": 76048, "\u0120Gron": 87330, "\u0120planes": 25761, "\u0128": 228, "\u0120CONSTRAINT": 94863, "licer": 98343, ".each": 14650, "},\u010d\u010a": 11818, "::*": 35176, "\u0120grouping": 50284, "\u0120multitude": 49068, "\u00ea\u00b5": 89059, "\u0120conservatism": 90674, "foot": 5447, "\u0120\")\u010d\u010a": 51941, "_FL": 23408, "rowable": 15290, "=[];\u010a": 41052, "\u0120Gap": 59015, "\u0120bro": 2967, "_less": 51847, "\u0120datab": 72340, "Mp": 73250, "\u0120Charm": 58600, "leave": 22233, "WK": 69416, "ucion": 43377, "\u0120tard": 62197, "\u0120Maryland": 23481, "alaria": 58016, "eff": 6581, ".allocate": 69826, "\u0120approve": 29251, "\u0120wasted": 39928, "NPC": 64299, "\u0120Sunder": 73161, "\u0120cruel": 28128, "\u0120EXEMPLARY": 31642, "CheckedChangeListener": 83002, "\u0120Steak": 85343, ".RadioButton": 40347, "\u0120Was": 15148, "\u0120unpaid": 55184, "=center": 75244, "*N": 45729, "\u0120****************************************************************************": 29744, "kwargs": 9872, "]][": 28819, "umericUpDown": 42346, "_Ref": 82186, "(formatter": 90864, "\u0120draws": 27741, "\u0120coupon": 24759, "ARIANT": 45987, "orse": 11073, "\u0120PER": 18335, ">>>>": 18649, "\u0120LGBT": 23983, "\u0120Azure": 35219, ".findIndex": 55142, "\u0120Theft": 62099, "\u0120minValue": 64392, "\u0120perl": 57156, ".social": 61981, "\u0120collaborating": 73301, "chem": 2464, "semble": 16167, "Dashboard": 28045, "\u0120surgeons": 74272, "xxxxxxxx": 45202, "\u0120cria": 85008, "\u0120policemen": 86219, "\u0120ByteArrayInputStream": 86725, "\u00e6\u00b5\u0123": 89753, ".LogInformation": 91020, "\u0120Welch": 85263, "\u0109gr": 91159, "\u00d0\u00bb\u00d0\u00b8\u00d1\u0129": 91216, "\u0125": 225, "\u0120Nero": 85178, "\u0120Closet": 100240, "ino": 3394, "aine": 8511, "xF": 9969, "\u0120carrying": 15691, "\u00c2\u00b0C": 32037, "\u0120Thomas": 11355, "awesome": 17300, ".Custom": 28749, "\u0120sword": 20827, "\u0120traditions": 32006, "FontOfSize": 45862, "\u0120exclusive": 14079, ">NN": 54666, "-number": 26939, "\u0120McConnell": 47783, "\u0120gv": 56079, "=$": 3266, "\u0120Loaded": 63739, "\u0120Snapshot": 69797, "(Container": 76245, ".throw": 55013, "_GRA": 77874, "\u0120Steelers": 51555, "mscorlib": 72705, "oure": 80284, "\u0120loosen": 83842, "\u0120NSIndexPath": 66268, "::{": 23821, "ordinates": 8916, "\u0120rf": 37126, "\u0109org": 88725, "\u0120crushed": 33745, ".REG": 95238, "\u0120composers": 95835, "\u0109col": 47740, "\u0120What": 3639, "\u0120\u010a\u010a": 4815, "shake": 30761, "\u0120dt": 7748, "\u0120younger": 14992, "ivy": 65605, "\u0120Glasgow": 43997, "_oid": 60733, "\u0120gyro": 67968, "\u0120navbar": 15918, "In": 644, "\u0120Instead": 12361, ".backward": 66171, "dont": 78125, "\u0120therefore": 9093, "\u0120extensively": 42817, "_big": 37486, "\u0120Tutorial": 49107, "\u0120phenomenon": 25885, "omanip": 57015, "-properties": 68179, "uchsia": 74491, "jd": 44490, "However": 11458, "latest": 19911, "Html": 13905, "\u0120issuer": 55935, ".Window": 24543, ".Scan": 55974, "Acceler": 59282, "\u0120MOV": 38728, "(initial": 35431, "ultipartFile": 64400, "Orm": 81505, "\u0120undis": 82037, "\u0120traded": 31207, "\u0128\u00b5": 90279, ":message": 92573, "Emma": 90174, "Warehouse": 98167, "\u0120Strawberry": 89077, "\u0120Keeping": 56478, "\u0120horses": 27928, "\u0120exemption": 45798, "(separator": 78806, "ejs": 92883, ";\"": 11131, "/bootstrap": 10042, "\u0120Additional": 24086, "<(),": 69943, "apro": 59948, "\u0120Disease": 31974, "gan": 30528, "\u0120finishing": 25270, "\u0120leurs": 43153, "\u0120arcade": 48312, "ropp": 76156, "(fh": 90248, "liv": 34667, "Lines": 17213, "Connecting": 64024, "\u0109cm": 99416, "float": 3733, "\u00e5\u012f": 11239, "\u0120breakpoint": 53845, "\u0120eject": 90574, "\u00c2\u0122\u00c2": 43576, "AZY": 74652, "\u0120Cooke": 99839, "(Msg": 100026, "-provider": 82632, "ResponseStatus": 93763, ".googlecode": 98724, "\u0120unterschied": 81360, "bone": 20337, "Offer": 40562, ".Config": 10986, ">m": 74903, "chine": 88995, ".Branch": 98349, "_deps": 77589, "\u0120envoy": 60630, "Synopsis": 90170, "_WRONG": 90707, "\u0120Sc": 2522, "ICH": 33929, "\u0120erst": 35468, "pen": 2821, "Inject": 14055, "CEE": 43677, "\u0120DISPLAY": 53364, "ain": 467, "uong": 69895, "\u0109Get": 38754, "_dicts": 90061, ".OneToOne": 96929, "_species": 75230, "component": 8739, "\u0120renov": 32652, "ooo": 39721, "[,]": 47981, "weets": 26488, "`s": 40929, "\u0120encourages": 37167, "criptive": 41419, "Fan": 59377, "u\u00c3\u00a7\u00c3\u00a3o": 62067, "DatePicker": 63019, "_optional": 75744, "iotics": 83300, "/software": 79827, "Locker": 88353, "\u0120escaped": 28883, "PRS": 91206, "\u0120refactor": 93395, "uts": 6256, "\u0120salesman": 79547, "gross": 94902, "leep": 3583, ")f": 99099, "\u0120n\u00c3\u00a9cessaire": 100243, "shit": 41153, "\u0120debts": 45305, "\u0120Concern": 52347, "ondheim": 83403, "')\");\u010a": 79033, "picker": 15213, "ufficient": 27781, "\u0120kicked": 28219, "\u0120fr\u00c3\u00a5n": 49206, "\u0120bastard": 74677, "\u0120ministers": 35050, "\u0120\u00e2\u0128\u0135": 78954, "\u0120Dutch": 24113, ">tagger": 45794, "\u0120impairment": 53317, "158": 11286, "/N": 20906, "\u00e5\u013d\u00be": 29129, "SDK": 32634, "vv": 34175, "\u0120rendered": 23188, "\u0120Again": 14077, "IRM": 33532, "\u0109param": 37137, "\u0120Honest": 54284, "492": 21776, "\u0120TRI": 55663, "_walk": 57231, "_INET": 27932, "\u00d0\u00b4\u00d0\u00b5\u00d0\u00bb": 59030, "\u0120escapes": 66209, "_BTN": 59658, "oids": 17390, "\u0120solidarity": 44254, ".generator": 57834, "\u0120mou": 54409, "terrain": 47882, "ENUM": 69842, "_EXPR": 74151, "ASE": 4157, "/right": 74201, "strength": 75337, "\u0120Arbeit": 58903, "\u0120Succ": 89279, "\u0120gestures": 53492, "ModelProperty": 41182, "\u0120wreak": 83675, "\u0120pon": 35023, "Dig": 38198, "prit": 40807, "\u0120Hoover": 73409, "\u0120swords": 53157, "\u0120juices": 65959, "\u0120Utf": 44532, "LOC": 12321, ".createServer": 78390, "\"]]\u010a": 84763, "\u0120arisen": 90954, "\u0120newPassword": 76938,
[...]
