{"\u0120\u00d1\u0123\u00d0\u00b5\u00d0\u00b7\u00d0\u00be\u00d0\u00bd\u00d0\u00b0": 56979, "\u0120deman": 19600, "\u00e7\u00a6\u00b9": 69572, "\u0120pacient": 82542, "\u0120pictures": 7409, "Distribuci": 27238, "inese": 8858, "square": 19414, "Sorry": 27039, "ouville": 74012, "\u0120Gast": 79852, "\u0120flet": 94952, "bit": 3390, "\u0120Co": 3870, "cM": 75532, "iran": 68733, "\u0120morphisms": 53262, "\u00d1\u0124\u00d0\u00b8\u00d1\u0123\u00d1\u0124": 76630, "\u0120ODBC": 96977, ")...": 43570, "angry": 95519, "\u00e8\u00b0\u00a3": 40940, "\u00d0\u00bf\u00d0\u00b5\u00d0\u00bb\u00d0\u00b0": 95667, "\u00e6\u00b5\u00b4": 27442, "\u0120racks": 58720, "Dynamic": 29632, "\u0120labeled": 21869, "\u0120browser": 9724, "\u0120desenvolupar": 26235, "Hy": 27271, "\u00e4\u00b9\u012d\u00e6\u0139\u00a5\u00e8\u00b5\u00b7": 62139, "\u0120sinc": 34924, ">@": 53713, "\u0120\u00d0\u00b8\u00d0\u00b7\u00d0\u00b2\u00d1\u012c\u00d1\u0122\u00d1\u012a\u00d0\u00b2\u00d0\u00b0": 52945, "masters": 57118, "\u0120chaining": 82321, "\u0120corda": 51256, "\u00e5\u0129\u0142\u00e5\u0131\u00a5": 91783, "\u00e6\u012d\u012f\u00e7\u013c\u0126": 98365, "ounge": 23670, "\u0120Constraint": 57410, "\u0120gu": 1243, "\u0120systematically": 45606, "\u0120\u00d0\u00b5\u00d0\u00bb\u00d0\u00b5\u00d0\u00bc\u00d0\u00b5\u00d0\u00bd\u00d1\u0124": 86429, "\u00e5\u013e\u0128\u00e5\u00bd\u00a2": 61415, "ourning": 42548, "\u00e7\u0143\u012b\u00e9\u0129\u012f\u00e7\u0124\u00b9": 96885, "Programs": 86564, "BagConstraints": 97272, "raid": 42090, "\u0120adherent": 74406, "aid": 19505, "ire": 641, "\u0120excitement": 17200, "\u0120emulator": 54858, "\u0120representation": 8346, "\u00e7\u013f\u00a3\u00e5\u00af\u00bc": 58516, "\u0120institutional": 35904, "\u0120dont": 18911, "\u0120ROWSPAN": 99713, "\u0120\u00d0\u00bf\u00d0\u00be\u00d0\u00bf\u00d0\u00b0": 81858, "\u0120\u00d0\u00bf\u00d0\u00be\u00d1\u0122\u00d1\u0124\u00d1\u0125\u00d0\u00b3\u00d0\u00b0": 97728, "\u0120hospit": 16376, "logical": 35598, "\u0120`$": 52614, "\u0120vulnerabilities": 58276, "\u0120Mate": 33558, "\u00e5\u00a4\u012f\u00e4\u00b9\u0142": 45292, "\u00e8\u00be\u013e": 56739, "\u0120matured": 80755, "\u0120purposely": 70681, "uF": 46919, "\u0120guess": 6384, "virtual": 14137, "\u0120\u00d0\u00b8\u00d0\u00bb\u00d0\u00b8": 8029, "Acts": 88366, "\u0120ajud": 21201, "Major": 35392, "Massachusetts": 83324, "bases": 92996, "observa": 95097, "\u0120voor": 95951, "\u0120induct": 17837, "\u0120sprint": 37065, "Oxford": 42872, "ardless": 28295, "\"><?": 63238, "\u00e7\u00ba": 928, "\u00e5\u00b0\u00b1\u00e7\u013e\u012d": 78776, "\u0120extremadament": 81392, "uces": 43250, "buf": 9447, "\u00e5\u0127\u00b3\u00e5\u0131\u00a3": 81562, "\u0120happen": 6095, "\u0120vencedor": 51136, "\u0120p": 265, "\u0120escaped": 21327, "\u0120ahora": 31297, "ivi": 52481, "\u00e6\u00bf\u0122\u00e6\u00b4\u00bb": 55250, "ILABLE": 55481, "indexes": 64666, "\u00d0\u00b5\u00d0\u00ba": 5678, "oster": 13237, "------------------": 67910, "ruction": 3490, "\u00e4\u00b8\u0129\u00e5\u0132\u00a8": 36651, "eated": 75081, "\u0120Roads": 75702, "repid": 79869, "typeof": 17758, "Dal": 74001, "Divers": 91528, "TEXTURE": 44458, "\u00d0\u00bc\u00d0\u00bf\u00d0\u00b8": 16317, "eyes": 25657, "\u0120thermal": 13508, "\u0120appliances": 27515, "\u0120doncs": 32694, "\u0120Letters": 37104, "\u00e2\u0138\u012a\u00e2\u0138\u012a\u00e2\u0138\u012a\u00e2\u0138\u012a": 77469, "\u0120Pre": 7603, "\u0120Kak": 79174, "\u0120aparentment": 90518, "\u0120Liberals": 94427, "-+----------------": 94517, "\u0120report": 2508, "ersen": 52788, "\u0120PROVID": 57990, "Nag": 95371, "\u0120wrongful": 92009, "\u0120Certainly": 41257, "bang": 53134, "\u0120\u00d0\u00ba\u00d0\u00bb\u00d0\u00b0\u00d1\u0123": 53481, "\u0109uint": 54923, "Protect": 49476, "renia": 83270, "idy": 23629, "unn": 8831, "\u0120\u00d1\u0122\u00d0\u00b0\u00d1\u0123\u00d1\u0124\u00d0\u00b8\u00d1\u0124\u00d0\u00b5\u00d0\u00bb": 73858, "\u00e8\u00a5\u00bf\u00e6\u00b8\u00b8": 70561, "\u0120Requ": 10395, "\u0120\u00d0\u00b5\u00d0\u00bf\u00d0\u00b8\u00d0\u00b7\u00d0\u00be": 44240, "\u00e4\u00b8\u012f\u00e6\u0138\u0143\u00e7\u013c\u0126": 36318, "\u00e8\u00a1\u012e\u00e5\u012c\u00a8": 12500, "\u00e8\u0131\u00b2\u00e5\u00be\u012d\u00e5\u00ae\u00be": 68177, "\u0120canal": 20664, "}=-\\": 51788, "\u0120confided": 84381, "\u00e6\u0130\u00a5": 2613, "Howard": 92377, "\u00e5\u00b0\u0131\u00e5\u013f\u0139": 93217, "Metges": 96340, "Blocking": 70703, "ximadament": 21516, "\u0120Pull": 37589, "\u0120Chim": 70333, "\u00e5\u0135\u012a\u00e5\u00b0\u0136": 46460, "\u00e8\u00bf\u013d\u00e7\u0132\u0125": 48910, "\u0120\u00d0\u00a1\u00d0\u00b8\u00d1\u0128\u00d0\u00b8": 86602, "\u00e4\u00bc\u012f": 15984, "/?": 38409, "circumstances": 45281, "\u0120gpt": 83591, "\u00e8\u00a7\u00a3": 2477, "ln": 6621, "\u0120darkness": 16342, "\u0120Chapman": 53247, "\u0120possee": 55952, ":\\\\": 45030, "\u0120countable": 43508, "\u0120historiador": 57540, "\u0120suspense": 50414, "ahi": 47932, "\u00d0\u00b4\u00d0\u00be\u00d0\u00b2\u00d0\u00b0": 22779, "\u0120Putin": 53581, "\u00e7\u012b\u00a9\u00e4\u00bb\u00b7": 71941, "offee": 25889, "\u0120conspir": 26845, "\u00e8\u00b6\u0127": 3963, "\u0120darrere": 34464, "\u0120\u00d1\u0123\u00d1\u012c\u00d0\u00b1\u00d1\u0122\u00d0\u00b0\u00d0\u00bd\u00d0\u00b8\u00d0\u00b5": 48700, "\u0120convergent": 65947, "\u0120humming": 58175, "\u0120connector": 20267, "EE": 5343, "hum": 18292, "\u0120tod": 12993, "\u0120possessing": 49821, "\u0120seamlessly": 52133, ".),": 13963, "\u00e5\u0131\u00af\u00e4\u00bb\u00a5\u00e4\u00bb\u0130": 71279, "eco": 67081, "\u0120Truck": 42428, "\u00e5\u00bb\u00b6\u00e9\u0137\u00bf": 38140, "iku": 54179, "\u00e6\u00a2\u0127\u00e8\u00a5\u00bf": 73557, "\u0120Supervisor": 73963, "-+": 15025, "\u00e7\u00ba\u00bf\u00e7\u00b4\u00a2": 42665, "\u0120bestow": 60796, "league": 62574, "\u0120tre": 2333, "\u0120trays": 69346, "\u0120commissioned": 42192, ";,": 41249, "iclass": 71555, "\u0120quoth": 75370, "\u00d0\u00a3\u00d0\u00bc\u00d0\u00b8\u00d1\u0122\u00d0\u00b0": 66723, "\u00e8\u00bf\u013b\u00e6\u0142\u00b7\u00e4\u00b8\u0122\u00e6\u013f\u00a5": 77125, "\u0120ABO": 62026, "\u0120abras": 81797, "\u0120Dish": 57871, "\u0120Cooperative": 82877, "\u00d1\u0123\u00d1\u0125\u00d1\u0123": 91361, "\u0120epilepsy": 92125, "\u00e5\u00bb\u0138": 67488, "\u0120anatomical": 93321, "\u0120\u00d0\u00b7\u00d0\u00b5\u00d0\u00bc\u00d0\u00b5": 41561, "findutils": 98407, "\u0120\u00d0\u00b0\u00d1\u0124\u00d0\u00b0\u00d0\u00ba\u00d0\u00b0": 95936, "\u0120Milan": 35736, "\u0120\u00d0\u00bf\u00d0\u00b8\u00d1\u0123": 59442, "LET": 28084, "\u0120Femin": 74129, "\u0120faintest": 95955, "\u0120restar": 66755, "\u00e6\u00a3\u0122\u00e4\u00bf\u00ae": 96934, "\u0120stabilize": 61449, "\u0120retrieval": 42857, "\u0120\u00d1\u0123\u00d0\u00b2\u00d1\u012c\u00d1\u0122\u00d0\u00b7\u00d0\u00b0": 56313, "\u00e5\u00b0\u0131\u00e7\u012d\u0139": 95926, "Finding": 47206, "\u0120Zh": 94086, "\u0120ping": 27403, "\u0120\u00d1\u0125\u00d1\u0129\u00d0\u00b8\u00d1\u0124\u00d0\u00b5\u00d0\u00bb": 39224, "\u0120kicking": 44046, "\u00d1\u0128\u00d0\u00b5\u00d1\u0124\u00d0\u00be": 45711, "Important": 57532, "scode": 97476, "\u0120escriure": 18257, "\u0120wonderfully": 38148, "ANK": 32920, "\u0120\u00d0\u00b3\u00d1\u0125\u00d0\u00b1\u00d0\u00b5\u00d1\u0122": 89853, "\u00e8\u00af": 589, "\u0120solen": 29636, "\u00e5\u0132\u00ab\u00e9\u0129\u0131": 26219, "oci": 1753, "\u00e6\u0143\u00bb\u00e4\u00ba\u0128": 37599, "emplate": 6429, "ugar": 17375, "ochemical": 63427, "\u0120carelessly": 63954, "\u0120recentment": 49291, "\u0120Lluc": 78494, "\u0120\u00d0\u0135\u00d1\u012e\u00d0\u00be": 88277, "\u0120artful": 90166, "\u0120galloping": 99301, "\u0120\u00d0\u00bd\u00d0\u00b0\u00d0\u00bf\u00d1\u0122\u00d0\u00b0\u00d0\u00b2\u00d0\u00b5\u00d0\u00bd\u00d0\u00b8": 99912, "Signal": 39134, "\u00e4\u00ba\u00ba\u00e4\u00ba\u012d": 52598, "\u0120\u00d0\u00b8\u00d0\u00b7\u00d0\u00bb\u00d0\u00b8\u00d0\u00b7\u00d0\u00b0": 29606, "\u0120Blend": 72095, "\u00e6\u00b7\u00b1\u00e5\u0127\u00a5": 15509, "\u0120exhilar": 68974, "\u00d1\u0131\u00d0\u00b2\u00d0\u00b0": 9873, "\u0120penet": 19120, "\u00e5\u00a4\u0138\u00e8\u00b4\u00b8": 69761, "\u00d0\u00bf\u00d0\u00be\u00d0\u00bb\u00d0\u00b8": 71434, "\u00d0\u00bb\u00d0\u00be\u00d0\u00b2\u00d0\u00b8\u00d0\u00b5": 88686, "\u00d1\u0126": 1212, "ustin": 41946, "\u00d0\u00bf\u00d0\u00be\u00d1\u0123\u00d0\u00bb\u00d0\u00b5\u00d0\u00b4\u00d1\u0123\u00d1\u0124\u00d0\u00b2\u00d0\u00b8\u00d0\u00b5": 44330, "\u0120\u00d1\u0123\u00d0\u00ba\u00d0\u00bb\u00d0\u00be": 48355, "update": 7808, "\u00e6\u0142\u00bd\u00e5\u0141\u00b9": 74871, "\u0120priesthood": 82905, "\u00e5\u00b7\u00a2": 34242, "allax": 63362, "\u00e7\u00a2\u00a7": 27419, "\u0120\u00d1\u0123\u00d0\u00ba\u00d1\u0122\u00d0\u00b8": 82990, "\u0120gole": 92191, "\u00e5\u012f\u0142": 7364, "\u0120Michael": 9204, "\u0120behalf": 17469, "\u00e5\u0123\u00a5\u00e5\u00ba\u00b7\u00e5\u0131\u0133\u00e5\u00b1\u0137": 80281, "Collections": 21662, "hematically": 58250, "\u00e6\u0123\u00b6\u00e5\u00bf\u0125": 65718, "\u0120usuario": 14364, "ADA": 45654, "\u0120ich": 69320, "\u0120barbarous": 75280, "alic": 92768, "emos": 20441, "\u0120Gesch": 36018, "\u0120blancs": 60173, "\u0120/*!<": 27080, "\u00e5\u0131\u013a\u00e6\u012f\u00a2": 87093, "\u0120streamed": 69193, "\u0120alarming": 56146, "\u0120toppings": 95206, "\u0120Adjust": 36009, "numberOf": 77038, "\u0120Higher": 34899, "\u0120Dump": 35065, "\u0120nomenada": 71425, "typecol": 79283, "android": 6140, "crossed": 76381, "she": 5046, "Llocs": 85150, "ruit": 6649, "\u00e7\u00bb\u0128\u00e8\u012c\u0124": 21665, "TS": 5347, "\u00d0\u00bd\u00d0\u00be\u00d0\u00b2\u00d0\u00b5\u00d0\u00bd": 87725, "\u0120Replacement": 52179, "\u0120Garrett": 74876, "regut": 39413, "\u0120Conflict": 70886, "\u0120\u00d0\u00bc\u00d0\u00b0\u00d0\u00ba\u00d0\u00b0\u00d1\u0122": 59411, "\u00e5\u00ae\u00b6\u00e5\u0127\u00ac\u00e5\u0131\u00b8": 74862, "\u0120irritable": 93477, "\u00e8\u012e\u0126\u00e5\u0143\u0132": 78612, "\u0120Maximil": 94587, "\u0120Surgeon": 97541, "\u0120ec": 16122, "\u0120els": 1247, "\u0120whole": 3000, "hardware": 52547, "\u00e5\u00b9\u00b6\u00e5\u00af\u00b9": 55063, "chitz": 34305, "\u0120Gerard": 50947, "\u0120\u00d0\u00bd\u00d0\u00b8\u00d0\u00b2\u00d0\u00be": 54961, "Terr": 55405, "\u0120coincid": 69957, "PROTOCOL": 72512, "\u0120\u00d0\u00b7\u00d0\u00b0\u00d0\u00bb\u00d0\u00b8\u00d0\u00b2\u00d0\u00b0": 86164, "\u0120Grad": 24883, "\u0120Dos": 37537, "\u0120\u00d0\u00a4\u00d0\u00b8\u00d0\u00bb\u00d0\u00bc\u00d1\u012c\u00d1\u0124": 89536, "\u0120keeps": 11526, "enesis": 39802, "\u0120balcony": 36160, "\u0120Representatives": 43571, "\u0120traduccions": 68328, "\u0120zool": 78089, "\u0120Shopify": 99151, "\u00e8\u0122\u0123\u00e4\u00ba\u00ba": 15841, "\u0120iniciativa": 57934, "\u00e6\u013a\u00af\u00e5\u0132\u00a6\u00e6\u013e\u012b": 46822, "ov": 877, "\u0120superstar": 85690, "\u00e5\u00a4\u0138": 1935, "\u00d1\u012a\u00d0\u00b8": 6494, "\u0120sost": 25071, "\u0120VERS": 69635, "Awesome": 51566, "\u0120Sonic": 61376, "Arnold": 83326, "\u0120populated": 38517, "De": 4461, "\u0120ruf": 90522, "\u0120\u00d0\u00ba\u00d0\u00be\u00d0\u00bd\u00d0\u00ba\u00d1\u0125": 96374, "})+\\": 57879, "Audio": 18626, "\u0120existe": 26104, "\u0120PUBLIC": 34666, "\u00d0\u00b4\u00d0\u00b6\u00d0\u00b5": 45196, "\u0120vainly": 77211, "\u00e7\u00a8\u00bd": 81262, "\u0120Shares": 81809, "\u0120advocates": 38250, "\u0120Tags": 42893, "\u0120boss": 16943, "\u0120notebooks": 81176, "Formal": 95499, "\u00e9\u00a2\u0126\u00e7\u0125\u0143": 96276, "\u0120Eq": 7443, "cod": 16157, "\u0120workforce": 31715, "ALTH": 81919, "\u0120\\}.": 89483, "\u00e6\u012a\u0133\u00e5\u013d\u00bd\u00e7\u013c\u0126": 64245, "ictures": 20589, "\u0120partners": 8644, "\u00e6\u013a\u00a5\u00e5\u00a4\u00a9": 36013, "\u00e6\u012d\u013d\u00e5\u0133\u00bc": 69220, "\u00e9\u0124\u00a3\u00e4\u00b9\u012a": 5176, "\u0120recib": 25181, "\u0120rainy": 45630, "\u0120intolerance": 89876, "als": 914, "\u0120\u00d0\u00b3\u00d0\u00b5\u00d1\u0122\u00d0\u00bc\u00d0\u00b0\u00d0\u00bd\u00d1\u0123\u00d0\u00ba\u00d0\u00b8": 65061, "happily": 82263, "\u00e7\u00a7\u0133\u00e5\u012e\u00bb\u00e9\u013b\u00a2": 84521, "\u0120Mojave": 56687, "\u00e4\u00bd\u0131": 4222, "ksu": 81328, "\u0120Breed": 92411, "\u0120Clark": 24332, "Server": 8181, "\u0120presid": 27982, "\u0120Butter": 31295, "\u0120lear": 22966, "\u00e5\u00b0": 519, "pires": 25261, "African": 80925, "\u0120workout": 27781, "\u00e4\u00b8\u012f\u00e6\u0123\u00af": 84129, "\u00e4\u00bf\u00ae": 5364, "Gary": 84500, "\u0120filters": 16674, "September": 28192, "\u00e5\u0131\u00aa\u00e4\u00b8\u012f\u00e8\u00bf\u0129": 36959, "\u0120dens": 12767, "\u0120outlets": 34901, "grav": 20660, "\u00e7\u00a1\u00ae\u00e5\u00ae\u0140": 14569, "\u0120Pow": 17975, "\u0120petits": 27500, "\u00e5\u00a6\u0124\u00e6\u0140\u013e\u00e4\u00bd\u0142\u00e6\u0125\u00b3": 98184, "gett": 72880, "\u00d1\u0123\u00d0\u00b0\u00d0\u00bc": 97398, "\u0120proposat": 79238, "\u0120FCC": 58128, "arning": 3031, "\u0120challenge": 8919, ">`": 31929, "\u0120opposite": 9541, "eqnarray": 4396, "\u0120citation": 44184, "\u00e5\u012b\u012f\u00e6\u0130\u0134": 83105, "xu": 53946, "\u00e8\u0134\u013b": 13840, "forced": 21320, "\u0120Mait": 75996, "\u00e9\u0136\u0123": 16173, "\u0120Lennon": 84760, "Provides": 78150, "ithium": 37028, "\u0120Iss": 19419, "Ours": 85987, "UNUSED": 91854, "\u0120spend": 7594, "kov": 21346, "Crow": 88269, "\u0120\u00d0\u00bc\u00d0\u00b0\u00d0\u00b9\u00d0\u00ba\u00d0\u00b0": 40976, "\u0120level": 2258, "\u0120gul": 69288, "ren": 1165, "\u0120CDF": 89590, "\u0120parameterized": 58561, "\u00e4\u00bd\u013e\u00e5\u0129\u00ba\u00e7\u013c\u0126": 97939, "\u00e9\u0137\u00bf": 1600, "\u0120pract": 2948, "nee": 36324, "\u0120Carrie": 58996, "\u00e4\u00b8\u00be\u00e5\u012c\u00a8": 58732, "teeth": 97426, "\u0120\u00d0\u00bf\u00d1\u0122\u00d0\u00be\u00d1\u0128\u00d0\u00b5\u00d1\u0123\u00d0\u00b0": 88455, "\u0120\u00d0\u00bd\u00d0\u00b8\u00d1\u0124\u00d0\u00be": 61800, "\u0120Tipo": 84138, "\u0120tagged": 25162, "PhysRev": 50620, "\u0120bird": 7854, "\u0120rup": 87236, "\u00e9\u0122\u013c\u00e8\u00bd\u00a6": 62777, "stubs": 89621, "\u0120caig": 35579, "sculas": 96424, "\u0120algebraic": 26028, "see": 3372, "\u0120\u00d0\u00a1\u00d1\u012c\u00d0\u00b7\u00d0\u00b4\u00d0\u00b0": 81750, "\"}}": 98005, "\u0120trajectories": 29503, "\u0120eup": 60758, "\u0120Authentic": 57271, "\u0120Designer": 38692, "\u00e4\u00bd\u00bf\u00e7\u0136\u00a8\u00e4\u00ba\u0128": 59901, "bitats": 92898, "\u00e9\u00a3\u0141\u00e5\u0135\u0123": 13405, "affection": 58785, "\u0120ata": 70881, "vitx": 87923, "\u0120pure": 7660, "Colorado": 94066, "\u0120\u00d0\u00be\u00d0\u00b7\u00d0\u00b2\u00d1\u0125": 81190, "\u00e8\u00a1\u0139": 8256, "IRM": 91314, "\u0120routinely": 50257, "\u00e4\u00ba\u0128\u00e4\u00b8\u0122\u00e4\u00bb\u00b6": 89180, "\u0120Cost": 16634, "Sou": 69743, "eppel": 75020, "\u0120\u00d0\u00be\u00d1\u0122\u00d0\u00b3\u00d0\u00b0\u00d0\u00bd\u00d0\u00b8\u00d0\u00b7\u00d0\u00b8\u00d1\u0122\u00d0\u00b0": 42388, "\u0120\u00d1\u0122\u00d0\u00b5\u00d0\u00b2\u00d0\u00be\u00d0\u00bb\u00d1\u0130\u00d1\u0128\u00d0\u00b8\u00d0\u00be\u00d0\u00bd\u00d0\u00bd\u00d0\u00b0": 75490, "\u0120Pitt": 21418, "Oce": 70379, "\u00e9\u00a9\u00ac\u00e6\u013f\u00a5\u00e8\u00a5\u00bf\u00e4\u00ba\u013c": 67022, "ertime": 80761, "\u00e8\u0122\u00b6\u00e7\u00a8\u00a3": 97102, "\u0120stat": 2312, "\u0120NAD": 92402, "\u0120venues": 34640, "avatar": 45670, "\u0120opting": 82844, "\u0120textured": 67759, "\u0120wished": 15699, "\u00d0\u00bb\u00d0\u00be\u00d0\u00b6\u00d0\u00b8": 78464, "\u0120hobbies": 68841, "nap": 46355, "\u00e4\u00b8\u0143": 764, "\u0120\u00d0\u00be\u00d0\u00ba\u00d0\u00be\u00d0\u00bd\u00d1\u0129\u00d0\u00b0": 72026, "\u00e5\u00a4\u00a7\u00e5\u0127\u00b4": 95054, "Introduction": 16633, "\u00d1\u0123\u00d1\u0124\u00d1\u0122\u00d0\u00b0": 8070, "\u0120enables": 15467, "\u0120empirical": 25816, "\u0120Symfony": 42743, "\u0120toes": 38551, "\u0120queried": 58779, "\u0120activates": 80115, "qu": 328, "\u0120seat": 9888, "sufficiently": 68442, "\u0120Jasper": 54311, "\u00c4\u0139": 75717, "\u00e6\u013e\u00ac\u00e8\u00b4\u00a8": 31659, "\u0120hopes": 14388, "\u0120sue": 24837, "\u0120Diamond": 26546, "\u0120Communic": 17766, "\u0120\u00d0\u00a2\u00d1\u0122\u00d0\u00b0": 57815, "kpc": 62717, "LAND": 45635, "\u0120Kad": 70357, "\u00e5\u0128\u0127\u00e5\u0143\u013a": 56873, "\u0120conoc": 66350, "Firm": 78613, "\u0120python": 9934, "\u0120gr": 917, "\u0120organisational": 92209, "\u00e5\u0130\u013c\u00e9\u0129\u012f": 93542, "\u0120\u00d0\u013f\u00d0\u00be\u00d0\u00b9": 88445, "\u00e6\u0139\u0142\u00e4\u00ba\u00ba\u00e6\u013e\u00ba": 52125, "\u0120Italiana": 87858, "\u0120novice": 53749, "\u00c2\u00b0": 8641, "\u0120Stewart": 28719, "queries": 43458, "\u0120representants": 56971, "\u00e8\u00a6\u0123\u00e5\u00af\u00b9": 85826, "esters": 57389, "-----": 35545, "\u00e7\u012a\u00b1\u00e4\u00ba\u00ba": 60057, "\u00e7\u00ab\u0141\u00e7\u0126\u00b6": 23013, "conditional": 39850, "\u00e5\u0143\u0139\u00e7\u013c\u0126": 70738, "\u0120intersection": 20481, "\u00e7\u0130\u00b0\u00e6\u013e\u012b": 38363, "Tracks": 73928, "StatusCode": 40702, "\u00d0\u0138\u00d0\u00b8\u00d0\u00b2\u00d0\u00be": 85480, "rigid": 88703, "hungry": 97273, "\u0120fours": 94737, "Advice": 99169, "rprets": 99585, "\u0120head": 1917, "\u00e0\u00a5\u0129": 63087, "\u0120sighted": 89254, "\u0120Pirates": 59070, "\u00e4\u00b9\u0141\u00e7\u00bb\u013b": 92073, "\u0120adquir": 33306, "\u0120BSS": 91413, "\u0120Run": 12763, "\u0120email": 5001, "Bst": 70813, "\u0120Montju": 90400, "S": 50, "\u0120baixa": 18305, "\u0120Starting": 25259, "asive": 32531, "\u0120\u00d1\u0123\u00d0\u00bd\u00d0\u00b0\u00d0\u00b1": 93430, "Mix": 29096, "Exists": 30637, "\u0120support": 1855, "\u0120WMS": 66236, "\u00e8\u00bf\u013b\u00e6\u0142\u00b7\u00e7\u013c\u0126\u00e4\u00ba\u00ba": 69591, "ercial": 7327, "Syl": 78102, "apeake": 80252, "\u0120Commons": 28020, "\u0120marshes": 93802, "emplates": 25353, "\u0120sourcing": 57744, "\u0120reinforcement": 51062, "^*)": 56287, "WL": 64227, "\u0120polygons": 36014, "efi": 28172, "\u0120ds": 26016, "\u00e4\u00b8\u0138\u00e7\u0137\u012e\u00e6\u013f\u00af": 42811, "\u00d1\u0123\u00d1\u0124\u00d0\u00b8\u00d1\u0122\u00d0\u00b0": 63733, "\u0120filmmakers": 78543, "\u0120Bamb": 89856, "\u0120inmate": 93660, "Annie": 97207, "ical": 739, "aired": 21581, "AH": 27932, "\u0120Brace": 61481, "\u0120\u00d0\u00bf\u00d0\u00b0\u00d0\u00bc\u00d0\u00b5\u00d1\u0124\u00d0\u00bd\u00d0\u00b8\u00d0\u00ba": 69596, "\u0120warmer": 39034, "requent": 49658, "\u00e4\u00b8\u00bb\u00e6\u0126\u0131": 96978, "acked": 32660, "ChangeListener": 74343, "\u00e5\u0133\u00a8\u00e6\u013e\u0141": 23890, "hope": 30234, "\u00e6\u0143\u00a3\u00e4\u00b9\u012b": 54041, "gt": 5511, "inaire": 96367, "\u0120hivern": 72706, "Plain": 50800, "\u0120retirada": 46207, "rem": 1844, "vil": 46191, "\u0120chivalry": 87059, "\u0120presoner": 74407, "\u0120libreria": 93010, "\u0120constrain": 45837, "\u00e8\u0132\u00bd\u00e5\u013e\u00a8": 52825, "\u00d0\u00bb\u00d0\u00be\u00d0\u00b6\u00d0\u00b5\u00d0\u00bd\u00d0\u00b8": 72465, "Dimensions": 49965, "\u00e7\u013c\u0126\u00e8\u00b4\u00a3\u00e4\u00bb\u00bb": 55007, "\u00cf\u0122\u00ce\u00bf": 66193, "\u00d0\u00b9\u00d0\u00bd\u00d0\u00b0\u00d1\u0124\u00d0\u00b0": 67032, "\u0120Ibid": 72906, "\u0120Grandma": 77040, "\u0120Teh": 72521, "\u0120deessa": 80855, "\u0120\u00d0\u0140\u00d1\u0123\u00d1\u0124\u00d0\u00b0": 96408, "\u0120differing": 46429, "\u0120background": 4140, "\u0120dis": 696, "\u0120Memorial": 23921, "advice": 78023, "\u0120jorn": 63970, "\u0120Employee": 47653, "MIC": 62762, "\u0120Method": 11649, "entered": 44322, "floating": 46121, "\u00e4\u00ba\u012b\u00e5\u0132\u00b5": 80038, "\u00e6\u0137\u00b4\u00e5\u00ae\u00b9": 89292, "inks": 4059, "\u0120trailers": 59548, "Hans": 84629, "\u00e5\u00ae\u012e\u00e6\u012a\u0132\u00e5\u0132\u0130": 75848, "\u0120vac": 6085, "\u0120pillar": 53650, "\u0120biod": 43604, "\u0120controllable": 86568, "\u0120Sheridan": 66139, "\u00e5\u0128\u00b0\u00e5\u0128\u00b0": 54885, "\u0120serviced": 68186, "\u0120Adobe": 28988, "blica": 9558, "spherical": 89018, "\u00c3\u0125": 37832, "\u0120Examin": 81044, "\u00e7\u0132\u0128": 1496, "\u0120household": 15507, "\u0120investig": 6554, "uto": 26949, "\u0120restarting": 36771, "\u00d0\u00b3\u00d1\u0122\u00d0\u00b0\u00d1\u0126\u00d1\u0123\u00d0\u00ba\u00d0\u00b8": 81115, "\u0120Recerca": 85475, "\u00e6\u00b2\u00a1\u00e6\u00b3\u0137": 70533, "\u0120nil": 6474, "\u0120Oscar": 25922, "\u0120Michele": 68915, "\u00e7\u0138\u00a4": 51714, "\u0120Intermediate": 73137, "bP": 96106, "obia": 48453, "\u0120superClass": 94634, "Incorrect": 80588, "\u0120coet": 91477, "\u00e5\u0131\u013d": 41431, "\u0120hurled": 65841, "about": 8949, "urals": 24527, "\u00e7\u012e\u0130": 32417, "[{\\": 44481, "Academic": 72024, "\u0120body": 3123, "IBM": 73305, "\u0120yours": 12726, "\u00e8\u00bf\u0129\u00e5\u012a\u0128": 57527, "\u0120Sardenya": 78775, "setImage": 98510, "\u00e6\u0130\u0122": 47857, "\u0120CONNE": 54066, "\u0120inspires": 56578, "\u0120spouses": 74892, "\u0120\\<": 97970, "\u0120\u00d0\u00a3": 6532, "sold": 33641, "\u0120\u00d0\u00b0\u00d1\u0122\u00d1\u0124\u00d0\u00b8\u00d0\u00bb\u00d0\u00b5": 50904, "\u00e5\u012a\u0128\u00e6\u00b3\u012e": 28122, "pective": 8741, "boldmath": 28316, "\u0120egg": 9522, "\u0120quotation": 35875, "\u0120Access": 11623, "||||": 55425, "\u00e6\u012a\u0133\u00e5\u00b8\u012e\u00e6\u013e\u013d": 69817, "\u0120igualtat": 82378, "exec": 7692, "\u0120Llan": 90579, "\u0120\u00d0\u00b2\u00d0\u00b8\u00d1\u0123": 52841, "lang": 5725, "\u0120coronel": 54853, "trash": 76044, "\u0120linkage": 84469, "!'": 13797, "\u00e5\u00af\u0135": 28553, "\u0120\u00d0\u00b7\u00d0\u00b0\u00d1\u0124": 33350, "\u0120tk": 42024, "James": 26926, "Review": 20821, "\u0120Particle": 86066, "\u0120\u00d0\u00bf\u00d1\u0122\u00d0\u00b5\u00d0\u00b1\u00d1\u0122\u00d0\u00be\u00d1\u0131\u00d0\u00b2\u00d0\u00b0\u00d0\u00bd\u00d0\u00b5\u00d1\u0124\u00d0\u00be": 55115, "\u0120bluetooth": 26661, "\u0120haven": 7398, "\u0120tinyint": 90127, "\u00e7\u013f\u00a3\u00e6\u0141\u00a5": 62914, "\u0120SMB": 63718, "\u00e9\u0125\u00bd\u00e5\u00af\u00b9": 99296, "\u00d1\u0123": 368, "\u00e5\u0129\u0128\u00e5\u00a4\u0129": 9894, "\u00e4\u00b9\u0142\u00e8\u00bf\u0133\u00e5\u00b9\u00b3\u00e6\u0122\u00bb\u00e4\u00b9\u00a6\u00e8\u00ae\u00b0": 46040, "\u0120subclasses": 90267, "\u0120nodal": 74492, "Forms": 27019, "arest": 11409, "\u0120MCU": 29361, "\u00e4\u00b8\u012f\u00e7\u00ae\u00a1\u00e6\u013a\u00af": 33020, "\u0120beats": 34950, "shake": 40437, "\u0120lik": 2925, "OM": 3681, "\u0120weighted": 24151, "anglement": 29181, "\u0120jacket": 25024, "\u00e4\u00b8\u012c\u00e7\u00bd\u0133": 46769, "\u00e8\u0130\u00b1\u00e6\u0138\u00af": 88656, "\u00e4\u00b8\u0122\u00e5\u00a4\u00a7": 28970, "\u00e5\u00b1\u00b1\u00e5\u00a4\u00a7": 95840, "\u0120Uncle": 22987, "///": 16276, "rel": 3800, "ourcing": 38544, "Lore": 82383, "\u00e5\u013e\u00b0\u00e9\u0129\u012e": 82932, "\u00d1\u0123\u00d0\u00b5\u00d0\u00bd\u00d0\u00b8": 52211, "\u0120}(\\": 95030, "\u0120typo": 67416, "uncture": 57022, "operatorname": 9994, "\u0120\u00d0\u00b2\u00d0\u00b7\u00d1\u0122\u00d0\u00b8": 87673, "\u00e5\u013d\u0140\u00e5\u00bd\u0134": 29745, "\u00e4\u00bd\u0142\u00e6\u013a\u00af\u00e5\u0132\u00a6": 70402, "\u00e5\u0128\u012f\u00e5\u00ae\u00a1": 92476, "\u0120ocupaven": 38309, "isEqualTo": 68693, "ahn": 28248, "\u00e4\u00bd\u0142\u00e4\u00b8\u012f": 47717, "\u0120access": 2462, "\u0120indu": 6961, "\u00e4\u00ba\u0136\u00e5\u00ae\u013a": 73052, "\u0120hello": 39280, "\u00e5\u0134\u012e\u00e4\u00bd\u0142": 45012, "\u0120Ull": 75602, "adays": 24477, "\u0120bacon": 34574, "uphin": 89263, "\u0120worked": 5168, "\u0120ho": 8624, "\u00e7\u0129\u0137": 22400, "isors": 37921, "DIRECT": 42978, "poison": 85095, "\u0120Wah": 81398, "\u0120snapd": 88720, "iously": 10009, "\u0120quin": 35676, "\u0120fiery": 43166, "\u00e8\u00a9": 29703, "NumberOf": 56058, "\u0120REC": 63985, "fell": 41777, "\u00e5\u013d\u013d\u00e8\u0124\u00a2": 73268, "hess": 32241, "\u0120\u00d0\u00bd\u00d0\u00b0\u00d0\u00b7\u00d0\u00bd\u00d0\u00b0\u00d1\u0129\u00d0\u00b5\u00d0\u00bd": 44086, "\u00e5\u012a\u00a9\u00e4\u00ba\u013c": 32683, "\u0120Sweden": 29447, "\u00e5\u0131\u012a\u00e5\u0132\u012f": 91695, "\u00e6\u0136\u00bf\u00e7\u0143\u0138\u00e7\u013c\u0126": 50866, "\u00e6\u00b5\u00b7\u00e6\u00b4\u012d": 32904, "\u0120Worker": 58015, "\u0120oficines": 67990, "\u0120\u00d1\u0125\u00d1\u0129\u00d0\u00b8\u00d1\u0124\u00d0\u00b5\u00d0\u00bb\u00d0\u00b8": 96322, "\u00e4\u00bb\u0138\u00e8\u0125\u00bd": 88444, "\u0120Yarn": 93310, "\u0120anomen": 9065, "\u0120requesting": 36946, "\u00e5\u0131\u0124\u00e6\u0137\u00b0": 21273, "\u0120\u00d1\u0123\u00d1\u0124\u00d0\u00b0\u00d1\u0124\u00d0\u00b8\u00d1\u0123\u00d1\u0124\u00d0\u00b8\u00d0\u00ba\u00d0\u00b0": 73631, "\u00e7\u013b\u00be\u00e5\u00b9\u00b4": 36307, "\u0120estrenada": 40160, "\u00e9\u0129\u0130\u00e7\u0136\u0141": 46122, "Dor": 58046, "ES": 2729, "adal": 27259, "\u0120intractable": 96917, "progress": 17936, "\u0120multiplic": 30614, "\u00d1\u0127\u00d0\u00b5\u00d0\u00bc\u00d0\u00b0": 87385, "\u00e6\u0122\u0134": 22017, "\u0120fringe": 54191, "\u00e6\u013a\u0141": 4725, "\u00d1\u0126\u00d0\u00b5\u00d0\u00bd": 49084, "\u0120\u00d1\u0126\u00d0\u00b8\u00d0\u00bb\u00d0\u00bc": 28346, "\u0120invert": 28824, "atg": 88062, "All": 3315, "\u0120disruption": 46123, "\u00e6\u00af\u0131\u00e4\u00b8\u0122\u00e4\u00bd\u012f": 50965, "\u0120obscured": 69939, "\u0120Attention": 66225, "\u00d0\u00ba\u00d0\u00b8\u00d1\u0131\u00d1\u0124": 46525, "\u00e4\u00bc\u0131": 19773, "\u0120Luc": 10585, "\u00e6\u012c\u0122\u00e6\u013e\u00af": 4655, "ambre": 74473, "\u0120Matar": 69528, "\u00e5\u00be\u00ae\u00e9\u0129\u0131\u00e5\u0127\u0125\u00e7\u00b4\u0142": 82270, "\u0120Press": 8944, "\u0120DIST": 42838, "\u0120decided": 6143, "\u00e1\u00b8": 61227, "\u0120via": 3764, "Items": 16128, "urry": 55615, "\u0120neighbor": 8252, "\u0120ruth": 61332, "\u0120Columb": 15309, "]+\\": 78817, "THE": 10148, "Loc": 12308, "labels": 31341, "definite": 34582, "\u0120solve": 8708, "\u0120Innoc": 80327, "rucci": 32353, "\u0120unw": 19735, "\u0120GAN": 62428, "\u00e5\u0135\u00aa\u00e4\u00b8\u0122\u00e4\u00b8\u00aa": 93954, "talking": 61941, "perturbative": 64434, "Recommend": 76989, "iod": 2835, "\u00d0\u0141\u00d0\u00be": 9053, "\u0120tent": 17727, "\u0120Salad": 48837, "\u0120activate": 23567, "\u00e5\u0129\u0131\u00e6\u012e\u0123": 75160, "\u0120Korean": 28218, "\u00c3\u0126": 82077, "\u0120wail": 91900, "\u0120parisencs": 96090, "\u0120Pines": 96423, "\u0120produce": 6666, "\u0120contracts": 21191, "\u00c2\u00a9": 35410, "<": 27, "\u00e6\u012e\u0133\u00e5\u012b\u0136": 86844, "\u0120turf": 44996, "\u0120didnt": 50337, "\u0120\u00d1\u0123\u00d0\u00b2\u00d0\u00b5\u00d1\u012b\u00d0\u00b5\u00d0\u00bd\u00d0\u00b8\u00d0\u00ba": 79189, "odies": 9950, "\u0120mediante": 31269, "\u00e7\u013d\u00b8": 1975, "\u0120estel": 60587, "\u0120rank": 7052, "\u0120barely": 21300, "\u00e5\u00b1\u00b1\u00e4\u00b8\u013e\u00e7\u013e\u0123": 48974, "\u0120livelihood": 58801, "\u0120\u00d0\u00bc\u00d0\u00b5\u00d1\u0123\u00d1\u0124\u00d0\u00be\u00d0\u00be\u00d0\u00b1\u00d0\u00b8\u00d1\u0124\u00d0\u00b0": 65563, "\u00e6\u013a\u0130\u00e7\u0141\u00a5": 84775, "\u0120nutmeg": 84966, "mph": 64610, "\u00e5\u012e\u00ae": 98091, "\u0120wounds": 32303, "\u0120sexuality": 70706, "\u00e6\u00b2\u00b3\u00e6\u00b5\u0123": 61100, "cniques": 34618, "vegeu": 74910, "\u00d1\u0122\u00d0\u00b8\u00d0\u00b4\u00d0\u00b0": 93089, "\u0120medio": 52083, "\u00e6\u00b1\u0141\u00e8\u012d\u0131\u00e7\u013e\u0123": 52152, "iennes": 96704, "\u0120Compare": 31094, "\u0120Saragossa": 51757, "Speech": 64335, "]),": 31931, "\u0120battle": 8680, "\u00e5\u0143\u00a6\u00e6\u0142\u00a1": 7167, "\u0120authorize": 63896, "PART": 27357, "\u0120Outreach": 90427, "\u0120irritated": 61403, "\u0120ESL": 88448, "iola": 59672, "ence": 725, "ard": 494, "\u0120immense": 23516, "\u0120indoors": 44598, "\u0120\u00d0\u00b4\u00d1\u012c\u00d1\u0122\u00d0\u00b6\u00d0\u00b0\u00d0\u00b2\u00d0\u00b8": 46486, "ventional": 37159, "\u00e6\u00a3\u0142": 67491, "\u00e6\u0134\u0143": 7006, "\u0120gravity": 17019, "\u00e6\u0132\u0140": 15450, "\u0120feeds": 35267, "\u00e8\u012c\u00af": 23110, "\u00e5\u0127\u00ac\u00e6\u0138\u00a4": 38790, "\u0120escript": 32351, "upy": 74507, "\u0120&-": 50518, "\u0120quickest": 68695, "\u0120pinpoint": 78351, "---------------------": 81865, "\u0120IF": 15739, "Berry": 52665, "\u0120preserving": 30973, "amount": 21506, "\u00e4\u00b8\u00ba\u00e4\u00b8\u00bb\u00e9\u00a2\u013a": 50766, "\u0120relays": 46165, "\u00e9\u00a5\u00ae\u00e6\u00b0\u00b4": 61569, "\u00e7\u013b\u00ab\u00e7\u0139": 82229, "visual": 36052, "\u00c5\u013b\u00c3\u0143": 13120, "Subscriber": 75172, "Abd": 85562, "\u0120epoch": 22128, "software": 29469, "yo": 17231, "hall": 26678, "\u00e6\u013e\u00ba\u00e5\u013b\u00a8\u00e4\u00ba\u00ba": 29523, "\u0120*>": 85736, "\u00e8\u0129\u00aa\u00e7\u0126\u00b6": 7354, "\u00e8\u00ae\u00be\u00e6\u00b3\u0137": 92194, "People": 19673, "abez": 81397, "\u0120Gerhard": 89799, "\u00e7\u0125\u0124": 20284, "\u00e6\u00bf\u0134": 92336, "\u00e6\u0124\u00ac\u00e6\u00b5\u00ae": 76000, "Polymer": 99252, "\u0120Library": 12898, "UBLE": 48538, "\u0120mustache": 91383, "\u0120Guns": 75564, "varkappa": 80394, "\u0120sentencing": 90481, "\u00e4\u00bc\u0142\u00e8\u00a8\u0122": 91465, "\u0120milder": 93391, "KF": 85018, "\u0120\u00d0\u00bf\u00d0\u00be\u00d1\u0123\u00d1\u0124\u00d1\u0122\u00d0\u00be": 24693, "\u0120sele": 12845, "\u0120Produ": 17573, "PLL": 77955, "Notifier": 93405, "\u0120kinase": 93628, "dent": 93994, "\u0120competed": 69693, "\u0120Seine": 95965, "thin": 30461, "distant": 70938, "\u00e5\u00b9\u00b6\u00e4\u00b8\u0136": 9482, "\u0120bordering": 84965, "DISABLED": 97820, "\u00e6\u00bc\u0131": 20213, "\u0120teenagers": 46570, "\u00e8\u00a2\u00ab\u00e6\u012b\u0135": 66742, "\u0120granular": 71789, "\u00e6\u0139\u00a5\u00e5\u00bc\u0122\u00e5\u00a7\u012d": 80431, "\u0120REAL": 55975, "\u00d0\u00be\u00d1\u0122\u00d0\u00b8": 99660, "**:": 59668, "\u0120turned": 4540, "\u0120stand": 2039, "\u0120division": 14103, "\u0120imposing": 36913, "\u00e7\u012a\u00b8\u00e5\u00a6\u012a": 55478, "SYM": 56065, "\u00e7\u00a7\u012f\u00e6\u00a4\u012f": 22507, "IGGER": 56358, "\u00e5\u00b9\u00b4\u00e7\u00ac\u00ac": 78747, "\u0120Designing": 90652, "expressi": 51465, "\u00e7\u0139\u00b9": 83678, "\u0120shotgun": 78486, "NotSupported": 91174, "\u0120Rele": 46352, "\u0120crani": 98513, "EVENTS": 89747, "\u0120portugues": 41337, "\u0120quadres": 70252, "\u0120\u00d0\u013c\u00d1\u0125\u00d0\u00bf\u00d0\u00b0": 71387, "anky": 87400, "requisites": 61150, "pulseaudio": 83384, "\u0120NES": 93200, "\u0120accepts": 29808, "\u0120strateg": 4842, "\u0120mess": 5667, "\u0120Washing": 81348, "\u00e5\u0135\u00aa\u00e5\u00ae\u00b6": 93368, "\u00e7\u013f\u0122\u00e5\u012c\u013d": 39616, "lb": 21490, "\u00e8\u00bf\u013b\u00e5\u00af\u00b9\u00e4\u00ba\u0130": 62862, "\u0120Games": 16506, "\u0120simplicity": 17961, "\u00e6\u00bb\u00a1\u00e6\u00bb\u00a1\u00e7\u013c\u0126": 69970, "\u0120tect": 96813, "\u0120Kick": 44201, "ode": 738, "\u00e6\u0142\u00bc\u00e6\u0142\u0127": 47434, "ernet": 73049, "ulacions": 73745, "\u00e7\u013c\u0126\u00e6\u0139\u0142": 56099, "\u0120MISS": 64880, "\u0120Muss": 55123, "\u00e2\u0136\u013e": 26942, "\u00d1\u0123\u00d1\u0124\u00d0\u00b2\u00d0\u00b5": 8572, "\u0120concurrency": 86261, "wyn": 43277, "\u0120polytope": 76125, "\u0120Gi": 11594, "\u0120beech": 96893, "ndefined": 48378, "\u00e4\u00ba\u0136\u00e6\u013a\u0141": 92179, "\u0120senzills": 94528, "\u00e5\u00be\u0139\u00e5\u00a5\u00bd": 52962, "\u0120knelt": 57684, "Holiday": 70748, "ogh": 51427, "Gorgeous": 91981, "\u00e8\u00af\u00a5\u00e6\u013f\u0133": 93502, "entrenador": 95583, "\u0120antibodies": 67891, "Amanda": 99070, "})$.": 15534, "\u0120\u00d1\u0126\u00d1\u0125\u00d1\u0124\u00d0\u00b1\u00d0\u00be\u00d0\u00bb": 52525, "agic": 75563, "\u0120doctors": 18254, "\u00e8\u00bf\u0136\u00e4\u00b9\u00a1": 88830, "\u0120Britt": 47596, "\u0120\u00d0\u00bf\u00d0\u00be\u00d1\u0123\u00d0\u00bb\u00d0\u00b5\u00d0\u00b4": 18709, "\u0120seleccion": 18545, "wrote": 57301, "\u0120Jones": 13418, "izing": 4372, "\u00e8\u0124\u013d": 55209, "\u0120Trucks": 96899, "\u00d0\u00b7\u00d0\u00b5": 7342, "\u0120comic": 26925, "\u0120Plut": 65409, "\u0120Albuquerque": 77978, "\u00e9\u0137\u00bf\u00e5\u00ba\u00a6": 52131, "shut": 69290, "\u0120Beg": 36939, "\u00e5\u00b8\u012a\u00e8\u00b5\u0126": 78021, "\u00e9\u0125\u00bd\u00e5\u00ba\u0136\u00e8\u00af\u00a5": 78788, "crystal": 90358, "\u0120deterministic": 35182, "\u0120distressed": 48810, "\u0120%>%": 90527, "\u0120Turning": 61409, "System": 5251, "STE": 48528, "ei": 30850, "consum": 23876, "\u0120\u00d0\u0132\u00d0\u00bb\u00d0\u00b5\u00d0\u00ba\u00d1\u0123\u00d0\u00b0\u00d0\u00bd\u00d0\u00b4\u00d1\u012c\u00d1\u0122": 29582, "\u00e2\u0122\u013c": 59058, "\u0120waitFor": 98674, "\u00d0\u00ba\u00d0\u00b0\u00d1\u0124\u00d0\u00be\u00d0\u00bb\u00d0\u00b8": 97131, "\u0120revest": 90716, "\u0120disappointing": 45395, "estream": 77995, "\u0120tinent": 52847, "\u00e6\u0137\u013b\u00e7\u00a7\u0133": 80189, "truncate": 92000, "\u0120irr": 33636, "\u0120memoir": 66915, "excellent": 57973, "\u00e8\u0136\u00bd": 49701, "\u0120=\"": 53799, "afers": 93221, "\u0120LONG": 59557, "\u0120Mackenzie": 76878, "unningham": 63708, "\u0120Neut": 49835, ",\\;": 64076, "\u00e7\u00ae\u00a1\u00e7\u0132\u0128\u00e4\u00ba\u00ba\u00e5\u0133\u013a": 76563, "\u0120anywhere": 10279, "backup": 24157, "Millis": 40297, "\u0120cigarette": 40665, "\u00e4\u00b8\u0143\u00e5\u012f\u012a": 35946, "\u0120shriek": 47976, "emporada": 64481, "\u0120\u00d0\u0141\u00d0\u00b8": 17409, "urades": 27173, "\u0120quel": 68523, "\u0120Governance": 78505, "\u0120tracte": 96607, "\u00e6\u0139\u0123": 16006, "\u0120bass": 23352, "\u00e9\u013f\u00a2\u00e4\u00b8\u00b4\u00e7\u013f\u0122": 68521, "\u0120nose": 15728, "\u0120indicator": 19405, "\u00e6\u013e\u0122\u00e5\u00a4\u00a7\u00e7\u013c\u0126": 14183, "subscribe": 31443, "\u0120estimation": 16595, "\u0120accessories": 19870, "\u0120capit": 20078, "\u0120llic": 31576, "\u00e5\u00a7\u00bf\u00e5\u012c\u00bf": 44027, "online": 22546, "\u00e7\u00bb\u012a\u00e4\u00ba\u0130": 15480, "\u0120Celebration": 69536, "asion": 6123, ">`_": 82648, "\u0120\u00d0\u00bf\u00d0\u00be\u00d0\u00b4\u00d0\u00b3\u00d0\u00be\u00d1\u0124\u00d0\u00be\u00d0\u00b2\u00d0\u00ba\u00d0\u00b0": 86591, "\u0120Darius": 87348, "ww": 2254, "\u0120insolence": 96006, "\u0120MIC": 66425, "\u0120\u00d0\u00ba\u00d0\u00be\u00d0\u00bc\u00d0\u00bf\u00d0\u00be": 65739, "\u0120Edinburgh": 30687, "\u0120superiors": 39508, "\u0120circled": 86978, "\u0120flawed": 61048, "\u00e8\u00bf\u013b\u00e4\u00ba\u012d": 83910, "\u0120canon": 32394, "\u0120portfolios": 66116, "\u0120unchanged": 31768, "\u0120listado": 82114, "\u00e9\u0124\u00b5": 51595, "\u00e4\u00bb\u0130\u00e4\u00b8\u00a5": 68052, "uble": 36984, "\u0120magna": 81860, "bas": 9924, "mless": 35188, "\u00e5\u00a5\u00b6\u00e5\u00a5\u00b6": 30682, "RO": 2256, "rn": 19950, "\u0120guests": 10764, "\u0120Ambassador": 47657, "\u0120\u00d1\u012a\u00d0\u00b2\u00d0\u00b5\u00d0\u00b4": 81322, "Vision": 64297, "nb": 3511, "\u0120hike": 34275, "\u00e7\u00ac\u00ac\u00e4\u00b9\u013f": 51403, "\u00e5\u0131\u0133\u00e5\u00b1\u0137\u00e7\u013c\u0126": 16752, "ranos": 95861, "informaci": 38695, "\u0120sufferings": 50070, "singleton": 62024, "walls": 46916, "Context": 4836, "\u0120fibre": 38130, "SDL": 42793, "inents": 55634, "\u0120Diary": 74551, "Rah": 80631, "\u00d1\u0131\u00d0\u00b7\u00d0\u00b2\u00d0\u00b8": 96011, ".\";": 38705, "\u0120actriu": 27520, "\u0120\u00d0\u00bf\u00d0\u00be\u00d1\u0123\u00d0\u00bb\u00d0\u00b5\u00d0\u00b4\u00d0\u00bd\u00d0\u00b8\u00d1\u0131\u00d1\u0124": 85420, "suggested": 64849, "\u0120Nintendo": 28994, "\u00e5\u0129\u00b8\u00e6\u013a\u00be": 50153, "\u0120\u00d0\u00bf\u00d1\u0122": 17322, "Hair": 76146, "\u0120disgusted": 69072, "Ok": 17847, "aussian": 12639, "\u0120accomplishments": 46453, "javac": 55867, "\u0120heading": 19250, "\u0120slowing": 50265, "garia": 53902, "\u00e8\u0122\u00bf": 57303, "\u0120Vars": 74297, "\u0120contar": 76391, "\u00e5\u00b9\u00b3\u00e6\u00b0\u0133": 76862, "icients": 12620, "\u0120recording": 16387, "\u0120replay": 47012, ")}+": 59811, "\u00e6\u00b4\u0123": 11650, "\u00e5\u00af\u0126": 23652, "\u0120microscopy": 81318, "\u0120Chin": 49738, "\u0120coupled": 18105, "\u0120reminder": 29780, "\u0120Aval": 64065, "Potential": 84498, "\u00e8\u00ba\u00ab\u00e6\u013f\u0132": 24886, "ificates": 24046, "\u0120perfectamente": 84961, "\u0120intoxicated": 85908, "\u0120Grans": 87899, "xA": 91686, "\u0120civilization": 30593, "\u0120byla": 63721, "UIImage": 93308, "atin": 8392, "\u0120strengthe": 34786, "\u00d0\u00b3\u00d0\u00be\u00d0\u00bb\u00d0\u00b5\u00d0\u00bc\u00d0\u00b8\u00d1\u0124\u00d0\u00b5": 58245, "unknown": 25352, "\u0120led": 5426, "\u0120conca": 41157, "\u0120\u00d1\u0125\u00d0\u00b1\u00d0\u00b5": 64750, "\u0120categorical": 64757, "\u0120\u00d0\u00be\u00d1\u0123\u00d1\u0124\u00d1\u0122\u00d0\u00be\u00d0\u00b2\u00d0\u00b8\u00d1\u0124\u00d0\u00b5": 94052, "\u00e5\u0143\u0132\u00e9\u0129\u012e": 28713, "willingly": 96387, "\u0120bilateral": 62923, "\u00e5\u0131\u00af\u00e8\u0125\u00bd\u00e5\u013e\u00a8": 85667, "CURRENT": 43694, "\u0120you": 340, "\u0120hills": 17188, "\u00e5\u00a4\u00a9\u00e6\u00b0\u0136": 17770, "\u0120energet": 28468, "Maps": 48564, "\u0120Esgl": 59276, "\u0120Coss": 83442, "nl": 22532, "\u0120Events": 21683, "\u0120Garland": 85088, "\u0120Danes": 94596, "\u00e8\u00b5\u00b0\u00e8\u00b5\u00b0": 98672, "aplic": 35877, "hq": 58467, "appendChild": 32914, "\u0120Charles": 9952, "\u0120\u00d0\u00bf\u00d1\u0122\u00d0\u00b8\u00d0\u00b5\u00d1\u0124": 88468, "\u0120dificult": 44534, "theta": 2911, "ucker": 30781, "\u0120compressor": 58733, "Chair": 67367, "\u0120\u00d1\u0123\u00d0\u00bb": 23849, "\u0120withdrawing": 85075, "Declared": 73642, "\u0120\u00d0\u00ba\u00d0\u00be\u00d0\u00b3\u00d0\u00b0\u00d1\u0124\u00d0\u00be": 17425, "\u0120septic": 91585, "\u0120Lemmas": 78465, "\u0120Answer": 35829, "\u00c3\u00af": 2865, "\u0120reconnect": 43629, "RON": 35005, "TOTAL": 77879, "\u00e9\u0122\u012b\u00e4\u00b8\u0143": 92955, "session": 10306, "enced": 5092, "Esto": 39946, "bal": 9002, "\u0120Uncategorized": 66759, "\u0120illegally": 68749, "ua": 5720, "\u0120tableau": 94562, "\u0120Avengers": 71637, "\u0120\u00d0\u00bf\u00d0\u00b0\u00d1\u0122\u00d0\u00b8": 49558, "\u0120Kyoto": 65181, "\u0120Extensions": 62981, "\u0120hilo": 90913, "\u0120Drac": 73078, "\u0120guaranteeing": 90064, "\u0120Clarendon": 97101, "\u0120offend": 64164, "FECHA": 86279, "PointerException": 64345, "\u0120superficial": 39948, "\u0120blows": 33094, "\u0120speaks": 19926, "\u0120anglesa": 44452, "\u0120rogue": 56900, "\u00e5\u00b2\u0139": 12952, "\u0120alumnes": 57057, "\u0120docutils": 89090, "\u0120erm": 82893, "inequality": 91723, "\u00e7\u0130\u00af\u00e5\u00a2\u0125\u00e5\u0134\u012e": 93104, "\u0120socket": 17077, "\u0120reconsider": 78369, "\u0120enumeration": 61263, "Privile": 63089, "tain": 1430, "\u0120buit": 60103, "\u0120Farn": 53318, "Aws": 54209, "\u0120associated": 5329, "\u0120Dynam": 67328, "isodes": 85124, "]);": 10109, "\u00e8\u00bd\u00a6\u00e8\u00ba\u00ab": 25438, "\u0120enjoys": 28033, "\u0120injunction": 78206, "\u0120text": 2432, "\u0120doubt": 5914, "\u0120Asked": 68154, "\u0120ejecuta": 42976, "\u0120EE": 33662, "Anything": 61658, "\u00e7\u00aa\u0139\u00e5\u00b8\u013a": 81276, "\u0120Horiz": 86255, "\u00e8\u012a\u0128\u00e8\u00ae\u00ba": 46250, "\u0120demostraci": 95954, "grams": 62511, "\u0120Hart": 19483, "\u00e5\u00ae\u0140\u00e8\u00b7\u00b5\u00e4\u00b8\u0143": 55766, "\u00d0\u00b2\u00d0\u00b5\u00d1\u0129\u00d0\u00b5\u00d1\u0124\u00d0\u00be": 79441, "\u00d0\u00b2\u00d0\u00b8\u00d1\u0124\u00d0\u00b5": 10197, "\u00e5\u00bf": 819, "\u0120exporting": 56055, "\u0120urges": 74669, "\u0120envelopes": 66532, "\u0120\u00d0\u00be\u00d1\u0126\u00d0\u00b8": 33230, "\u0120AIDS": 59641, "city": 23774, "electron": 44492, "\u0120Changed": 63619, "\u0120pore": 72601, "\u0120\u00d0\u013b\u00d0\u00be\u00d0\u00b7\u00d0\u00b5\u00d1\u0126": 84612, "\u0120chief": 8037, "\u0120delegaci": 86130, "\u0120toner": 86266, "\u0120lamin": 38670, "_%": 68069, "oton": 16685, "\u0120record": 3377, "\u0120fathers": 29436, "\u0120\u00d0\u0134\u00d0\u00b8\u00d0\u00b4": 82086, "\u0120Native": 25507, "getConnection": 83683, "\u0120gangs": 90387, "\u00e5\u012e\u0127\u00e7\u013c\u00ae": 93296, "\u0120\u00d0\u00bd\u00d0\u00b0\u00d1\u0127\u00d0\u00bb\u00d1\u0125": 91810, "\u00e6\u00ae\u012c\u00e4\u00b8\u012f\u00e7\u0141\u00a5": 96873, "glow": 66897, "\u0120Bl": 2799, "bek": 44188, "detach": 73946, "fic": 8488, "\u0120React": 18843, "\u00d0\u00ba\u00d0\u00bd\u00d0\u00be\u00d0\u00b2\u00d0\u00b5\u00d0\u00bd\u00d0\u00be": 30934, "oscript": 43284, "\u0120styl": 49903, "\u0120breadboard": 61086, "izard": 20808, "\u0120gains": 21454, "ixes": 38604, "\u0120conquered": 42103, "timestamp": 25021, "adding": 6515, "\u00e7\u0136\u00bb\u00e9\u013f\u00a2": 28178, "\u0120veuen": 69426, "\u0120Lunar": 88027, "NOP": 95642, "Haw": 47592, "\u00d1\u0137": 39972, "alter": 26597, "\u00e7\u013c\u0126\u00e8\u0122\u0123": 27625, "\u0120HTTP": 18054, "arant": 6403, "\u0120strokes": 45666, "\u0120concluding": 53006, "rmi": 88823, "Newton": 30569, "lac": 93857, "\u00d1\u0129\u00d0\u00bd\u00d0\u00b8": 4654, "\u0120yes": 5348, "\u0120tail": 9960, "flow": 5227, "programming": 82961, "\u0120seguid": 46058, "\u0120Constantinoble": 57859, "\u0120transactional": 78084, "\u0120materialized": 97681, "\u0120restricted": 15608, "\u0120commander": 29971, "\u0120talking": 6807, "\u0120captivity": 66433, "MOVED": 95224, "brook": 35976, "\u0120register": 8938, "\u0120OD": 63915, "Sor": 94754, "\u00ef\u00bb\u00bf\u00ef\u00bb\u00bf\u00ef\u00bb\u00bf\u00ef\u00bb\u00bf": 99879, "Twas": 66608, "\u00e8\u00b4\u00a2\u00e4\u00ba\u00a7": 22086, "\u0120delights": 54302, "\u0120Blues": 38556, "\u0120FW": 78625, "istres": 86136, "\u0120tossing": 62005, "\u0120spacetime": 32858, "\u0120ciclistes": 55352, "\u0120stops": 16981, "\u00e5\u013e\u00a8\u00e4\u00b8\u0143\u00e5\u013d\u00bd": 21605, "\u0120refrain": 47682, "\u0120chunky": 93924, "\u00e4\u00ba\u00ba\u00e6\u0125\u0127": 74160, "\u0120Sc": 3106, "\u00e4\u00b9\u0141\u00e6\u013a\u00af\u00e4\u00b8\u0122\u00e7\u00a7\u012f": 60683, "\u0120Specs": 95950, "\u0109console": 76679, "moveTo": 84573, "\u00e9\u0122\u013c\u00e9\u0122\u0131": 96161, "AJ": 52851, "jem": 97711, "certified": 76022, "GY": 57565, "\u00e6\u013e\u00ac\u00e9\u00a2\u0128": 82183, "\u0120Wade": 53578, "\u00e7\u00a5\u0140\u00e7\u00bb\u0131": 20561, "\u00e5\u012b\u012f\u00e8\u0126\u00b8": 56385, "\u00e5\u00a4\u00a7\u00e5\u00a4\u013c\u00e6\u013a\u00af": 99593, "\u0120poden": 9450, "Geom": 71360, "\u0120prospects": 26658, "\u0120monastery": 53753, "\u00e6\u0139\u00b6\u00e6\u013e\u012b": 71700, "\u0120biscuit": 71757, "oi": 24850, "Datum": 82187, "ToolStripMenuItem": 84996, "\u0120\u00d0\u00b4\u00d0\u00b2\u00d0\u00b8": 22841, "efe": 28041, "unlock": 31121, "Summary": 19350, "cz": 29715, "ighed": 35636, "\u0120\u00d0\u00b3\u00d1\u0122\u00d0\u00b0\u00d0\u00b6\u00d0\u00b4\u00d0\u00b0\u00d0\u00bd\u00d0\u00b8": 66637, "\u0120Consortium": 73668, "\u0109((": 82938, "))+": 89843, "\u0120heresy": 87188, "\u00d0\u00bf\u00d0\u00b5\u00d1\u0122\u00d0\u00b0": 21427, "\u00e5\u00af\u0141": 7541, "cionario": 43268, "OpenGL": 56258, "\u00e5\u00ae\u013a\u00e5\u0125\u013c": 99873, "\u00e6\u00a9\u0126": 66232, ">%": 29501, "\u0120discipl": 13945, "TextField": 45832, "\u0120attend": 8350, "\u0120tending": 62602, "ishers": 54674, "\u00e9\u00aa\u00a8\u00e9\u00aa": 68786, "\u00e8\u012d\u012f": 29727, "\u00e5\u0143\u0132\u00e5\u0143\u013b": 69485, "\u0120sin": 6198, "raved": 83387, "\u00e4\u00b8\u0143\u00e7\u013c\u0126": 5387, "\u0120Done": 18184, "\\),": 51665, "Session": 12541, "\u00e1\u0125\u013a": 51366, "idenc": 12622, "shed": 57386, "\u0120Oss": 71727, "\u0120committee": 14891, "\u0120roman": 28222, "\u0120Without": 15382, "\u0120cosmological": 30279, "onis": 35398, "\u0120Posts": 36260, "\u0120Reset": 34055, "\u0120neon": 51763, "\u0120\u00d0\u00b7\u00d0\u00b0\u00d0\u00b3\u00d0\u00b8": 46945, "Exactly": 55793, "\u0120Sonata": 71524, "\u0120classpath": 95610, "Pisces": 95661, "\u0120allergic": 57647, "msgs": 94084, "\u00e5\u0131\u012c\u00e7\u013d\u00b8\u00e5\u0127\u00b3": 75687, "\u0120basal": 72855, "\u0120Stem": 87849, "issima": 97106, "\u00e4\u00b8\u00ba\u00e4\u00bb\u0122\u00e4\u00b9\u012a": 10285, "\u0120Enter": 10688, "\u0120younger": 14000, "\u00d0\u00bc\u00d0\u00b5\u00d0\u00bd\u00d0\u00b0": 28499, "\u0120installers": 78693, "\u0120irritating": 64058, "\u00e7\u013c\u0126\u00e6\u013e\u012d\u00e5\u0131\u012d\u00e4\u00bb\u00ac": 92068, "adesh": 27578, "\u0120Bulg": 42527, "\u0120Japanese": 13727, "\u0120recal": 61038, "\u0120\u00d0\u00b4\u00d1\u0122\u00d0\u00b5": 28061, "\u0120postfix": 72085, "\u0120murder": 15674, "\u0120MY": 24521, "\u00e7\u013f\u00bf": 48593, "\u0120mails": 77770, "asympt": 56119, "\u0120Mac": 4156, "Metrics": 30497, "\u0120rolled": 19178, "\u00e6\u012f\u0140": 34125, "missi": 38642, "\u0120Super": 9876, "Hu": 44474, "\u00e8\u00b5\u0126\u00e8\u00ae\u00af": 38723, "\u0120Madrid": 10701, "\u0120elephants": 52065, "\u0120Witch": 57218, "\u0120discussion": 8317, "\u00e5\u012a\u0128\u00e5\u0127\u00ac\u00e5\u0131\u00b8": 54514, "\u00d0\u00b4\u00d0\u00bd\u00d0\u00b0\u00d1\u0124\u00d0\u00b0": 58339, "\u0120\u00d0\u00bf\u00d0\u00b0\u00d0\u00bf\u00d0\u00b0": 60909, "\u0120contingency": 78798, "\u00e6\u0127\u00a2": 6953, "\u0120pearls": 50754, "ISING": 62033, "\u0120\u00d0\u00b7\u00d0\u00b0\u00d0\u00b2\u00d0\u00b8": 75509, "\u0120nicer": 59512, "\u00d0\u00ba\u00d0\u00be\u00d0\u00bc\u00d0\u00b0\u00d0\u00bd": 81662, "\u00e6\u012b\u012f\u00e5\u012f\u0130": 57060, "\u00e6\u013f\u00a5\u00e4\u00ba\u0128": 14587, "\u00e8\u00b5\u00b7\u00e5\u00ba\u012c": 47979, "\u0120Joint": 36881, "\u00e8\u0125\u012e\u00e9\u00a9\u00b0": 73566, "lero": 92721, "\u0120\u00d1\u0124\u00d0\u00b8\u00d1\u0124\u00d1\u0125": 94122, "SUM": 38303, "Latin": 53683, "\u0120Child": 10236, "\u00e6\u012a\u00b7\u00e7\u00b1\u012f": 50790, "\u0120treason": 54064, "\u00e6\u0124\u0141\u00e7\u00a9\u00ba": 56403, "\u0120\u00d0\u0142\u00d0\u00b8\u00d0\u00bc\u00d1\u0123\u00d0\u00ba\u00d0\u00b0": 85489, "\u00d0\u00bb\u00d0\u00be\u00d0\u00b6\u00d0\u00b5\u00d0\u00bd\u00d0\u00b0": 81132, "\u00e4\u00b8\u013e\u00e4\u00ba\u00ac": 49519, "\u00e8\u0143\u00a6\u00e6\u0138\u00b9": 28148, "\u0120Guerrero": 99094, "\u00e5\u0127\u00b1\u00e4\u00ba\u00ab": 22601, "\u00e7\u013f\u00a3\u00e4\u00bf\u0125": 57073, "\u0120alkaline": 81476, "\u00e8\u00af\u00bb\u00e4\u00b9\u00a6": 23041, "\u0120recap": 57620, "Options": 7867, "\u00e8\u012f\u00af": 4914, "\u0120Myth": 52712, "\u0120+\"": 85621, "\u0120slash": 53258, "\u00e8\u00bf\u013b\u00e4\u00ba\u013d\u00e9\u0125\u00bd\u00e6\u013a\u00af": 53888, "acke": 44510, "\u0120trustees": 68560, "\u00e5\u00be\u0122\u00e8\u00bf\u0136": 79546, "\u00e7\u00a8\u00b3\u00e9\u0129\u012f": 96463, "\u0120Death": 18670, "\u0120coneixement": 37497, "\u00e7\u00bb\u0131\u00e5\u0130\u0128\u00e4\u00ba\u0128": 41492, "Iv": 58101, "scriptstyle": 19139, "\u0120acquiring": 38851, "\u00e7\u0141\u00b3\u00e5\u00a4\u00b4": 38990, "\u00e7\u013c\u0126\u00e4\u00ba\u00ba\u00e9\u0125\u00bd": 63800, "\u0120contemplating": 64810, "AES": 66083, "\u0120disposition": 30329, "qw": 47758, "\u0120Tracks": 91131, "\u00e9\u0125\u00bd\u00e6\u013a\u00af\u00e4\u00b8\u0122\u00e4\u00b8\u00aa": 94784, "\u0120manufacture": 8695, "\u0120flashed": 38833, "\u00e6\u013b\u013c\u00e4\u00b8\u012c": 15549, "'?": 35271, "\u00e6\u0139\u00a5": 1479, "\u0120introductory": 51859, "\u0120explorer": 53585, "\u0120Watt": 53871, "\u0120mag": 2798, "\u0120absolut": 48931, "\u00e6\u00b1": 1293, "\u0120begs": 80157, "\u0120proactively": 96433, "\u0120SERVICES": 74572, "\u00e4\u00b8\u012d\u00e8\u00be\u00be": 86651, "ilos": 9046, "plan": 11713, "accordion": 71531, "enix": 23132, "\u0120Hispanic": 61558, "J": 41, "\u00e6\u00b8\u0127": 3160, "=&": 29377, "gos": 62182, "Miller": 77901, "\u0120functionalities": 84251, "aronja": 91716, "ilities": 3957, "\u0120recurrence": 53649, "\u00e9\u0122\u013c\u00e8\u00bf\u0129\u00e4\u00ba\u0128": 95001, "discrete": 50344, "\u0120risk": 5441, "\u00e6\u012c": 806, "\u00e5\u00be\u0123\u00e6\u012a\u013a": 98592, "\u0120Nuremberg": 92969, "\u00e8\u0124\u012b\u00e8\u00b4\u00a8": 98637, "\u0120sundry": 86878, "liberty": 77115, "\u00e6\u0139\u00a5\u00e7\u00b3\u00bb": 78273, "covered": 35823, "\u00e6\u012a\u0133\u00e4\u00bb\u00ac\u00e4\u00b8\u012f\u00e8\u0125\u00bd": 96384, "hn": 26039, "\u0120cuffs": 82745, "\u00e6\u012a\u0132\u00e5\u00b9\u00b4": 32101, "bib": 29363, "\u00d0\u00bb\u00d0\u00b8\u00d0\u00be": 74611, "aints": 14215, "ists": 1934, "\u00e5\u012f\u00b3\u00e5\u0131\u00af": 15074, "\u0120wrought": 35386, "\u0109case": 14249, "\u0120milestone": 49884, "\u0120might": 1667, "\u0120fact": 1714, "courage": 73208, "interior": 22639, "isma": 62785, "biggl": 42588, "\u0120containment": 75304, "\u0120volien": 79337, "\u00e5\u012e\u0139\u00e4\u00b8\u012c": 83832, "\u0120\u00d0\u0142\u00d1\u0125\u00d1\u0123\u00d0\u00ba\u00d0\u00be": 82655, "\u0120tied": 16482, "\u0120pledged": 53886, "\u00e9\u013f\u0142\u00e8\u00bf\u0133": 47015, "\u0120Jennings": 73466, "\u0120dyst": 99031, "\u00e4\u00bf\u00ae\u00e5\u00bb\u00ba": 57415, "\u0120owner": 8383, "\u0120were": 778, "possession": 47938, "erset": 43753, "Verbose": 77710, "Offsets": 87718, "\u00ec\u0138": 94627, "\u0120rolling": 18740, "Man": 3856, "\u0120wasn": 6740, "\u00e9\u0127": 1950, "Wr": 21553, "PIN": 36706, "\u0120\u00d0\u00ba\u00d0\u00be\u00d0\u00bd\u00d0\u00ba\u00d1\u0122\u00d0\u00b5": 98166, "\u00e7\u0137\u0127\u00e9\u0122\u013c": 55450, "Spy": 55732, "\u00e7\u00ac\u0136\u00e8\u00af\u0137": 55930, "MAIN": 59813, "ccane": 90936, "\u00e6\u00a3\u0122\u00e6\u00b5\u012d": 18239, "\u0120neurop": 99098, "\u0120Fra": 26479, "\u00e9\u013b\u00aa": 15395, "\u00e4\u00b8\u0143\u00e6\u0140\u00a2": 38845, "Chinese": 43431, "\u00e4\u00b8\u012b\u00e8\u00bd\u00ae": 81746, "__": 1442, "\u0120apps": 9445, "\u0120Noir": 82092, "\u00e4\u00b8\u0122\u00e8\u00be\u0128": 34285, "ZERO": 74267, "\u0120Charging": 91834, "\u0120anxiety": 15522, "\u0120sympath": 38691, "Mid": 33029, "\u0120prosa": 66753, "\u0120jal": 84089, "\u0120\u00d1\u0125\u00d1\u0123\u00d0\u00bf": 27532, ".},": 33209, "\u0120petit": 18992, "born": 13176, "GL": 7202, "\u0120ocult": 50662, "shiv": 51205, "llvm": 57663, "\u0120allotted": 66222, "\u0120balloons": 67088, "raph": 1911, "cie": 8167, "Enumer": 45847, "\u00e6\u00af\u0131\u00e4\u00b8\u0122\u00e5\u00a4\u00a9": 70061, "\u0120ceilings": 49120, "shapes": 67588, "\u0120NMOS": 92012, "union": 22335, "\u0120gonna": 24036, "\u0120calif": 67560, "\u0120Cron": 49870, "\u0120insightful": 59017, "segueix": 74804, "\u00e5\u0132\u00af\u00e5\u012c\u00a8\u00e4\u00bb\u00aa\u00e5\u00bc\u0131": 93029, "mxd": 93052, "\u00e5\u00b0\u0123\u00e9\u013f\u00a2": 95043, "\u0120arquitectes": 99595, "\u0120\u00d0\u0134\u00d0\u00b8\u00d0\u00bb\u00d1\u0127\u00d0\u00b5\u00d0\u00bb": 39725, "obox": 60655, "\u0120sabe": 62774, "\u00e5\u013e\u00a8\u00e4\u00b8\u012d": 83966, "\u00e7\u00ae\u0122\u00e4\u00bb\u012d": 37770, "\u00e4\u00b8\u0138\u00e7\u0137\u012e\u00e4\u00b8\u012c\u00e6\u013e\u0122": 63536, "\u0120meas": 6852, "\u0120outcry": 98760, "\u00d0\u00b1\u00d1\u0125\u00d1\u0122\u00d0\u00b3": 11999, "athy": 22488, "\u0120umb": 72792, "\u0120detain": 64503, "\u00e7\u00a8\u0130\u00e7\u0130\u0129": 78601, "\u00e4\u00be\u013d\u00e9\u013e\u0122": 87284, "airy": 23359, "\u0120Oval": 87638, "\u0120\u00d0\u00a2\u00d1\u0131": 24641, "TRACK": 80908, "eclipse": 28169, "\u0120Experi": 90526, "\u0120representaci": 31029, "\u00e5\u00ba\u00b8": 34909, "inger": 6639, "\u0120instructional": 62950, "\u0120thence": 34042, "\u0120Random": 27148, "\u0120field": 2021, "\u00d1\u0129\u00d0\u00b8\u00d0\u00bd\u00d0\u00b0\u00d0\u00bb\u00d0\u00b8": 22142, "\u0120brilliantly": 66025, "\u00e6\u0143\u00a4\u00e6\u0139\u00b6": 19994, "Escape": 53064, "\u0120Edwin": 51277, "\u0120Balk": 59496, "Footnote": 14327, "\u0120\u00d0\u00b1\u00d1\u0125\u00d0\u00bd": 62045, "\u0120\u00d0\u00b3\u00d1\u0122\u00d0\u00b0\u00d1\u0126": 16062, "\u0120modific": 30786, "\u00e2\u0136\u0136": 34249, "eleg": 58973, "\u0120Aus": 45522, "\u0120Reina": 61339, "\u0120\u00d0\u00b8\u00d0\u00b7\u00d0\u00bf\u00d0\u00be\u00d0\u00bb\u00d0\u00b7\u00d0\u00b2\u00d0\u00b0\u00d0\u00bd\u00d0\u00b5\u00d1\u0124\u00d0\u00be": 71008, "codec": 23881, "\u0120fleca": 85249, ">')": 89687, "\u00e7\u00a7\u0133\u00e5\u00b9\u00bb": 79485, "ile": 605, "Rooms": 96420, "\u0120dreamed": 36043, "Karl": 99587, "beam": 37640, "utils": 10505, "mental": 47006, "pens": 68845, "\u0120infringement": 66441, ")=(": 32615, "\u0120inquire": 35519, "\u0120raz": 36761, "\u0120disk": 5555, "\u0120\u00d0\u00b5\u00d0\u00bf\u00d0\u00b0\u00d1\u0122\u00d1\u0127\u00d0\u00b8\u00d1\u0131": 53315, "nak": 79679, "\u0120cliente": 33650, "\u00e6\u00af\u013d": 7666, "\u00e6\u0137\u0133\u00e6\u00b2\u00bb": 59681, "\u00e4\u00ba\u00ba\u00e5\u013e\u00a8": 19776, "\u0120quitting": 62620, "bart": 72905, "\u0120Stop": 19353, "Personal": 34705, "\u00e7\u00a4\u00be\u00e5\u012e\u00ba": 13155, "\u0120usable": 36085, "\u0120pounding": 78802, "ARN": 14467, "\u0120Xia": 54363, "classifier": 80441, "\u0120\u00d0\u013b\u00d0\u00be\u00d1\u0127\u00d0\u00b0\u00d0\u00bd": 37914, "\u0120Irving": 54434, "\u0120\u00d1\u0129\u00d0\u00b8": 14999, "\u0120cinquena": 70338, "pile": 53348, "\u0120Sigma": 64797, "\u00e7\u013c\u0126\u00e4\u00ba\u00ba\u00e6\u00b0\u0136": 86318, "\u0120Ninth": 94276, "\u0120General": 5780, "\u00e4\u00bc\u00b8": 17078, "\u0109'": 15021, "\u0120Rec": 4894, "RET": 25948, "\u0120\u00d0\u00b3\u00d1\u0122\u00d0\u00b0\u00d0\u00bd\u00d0\u00b8\u00d1\u0128\u00d0\u00b8\u00d1\u0124\u00d0\u00b5": 91449, "niest": 97837, "\u00e6\u00b8\u0127\u00e6\u00b4\u0123": 25301, "ggreg": 23683, "\u0120il": 8849, "\u0120groc": 23328, "\u0120oft": 36799, "\u0120Wiki": 34163, "\u00e7\u00aa\u012f": 53107, "\u0120draw": 4305, "=~": 65429, "\u00e6\u00b3\u00b3": 27923, "\u0120\u00d0\u00b3\u00d1\u0125": 32358, "\u00e4\u00b8\u00a4\u00e5\u00b2\u00b8": 55497, "\u0120oscillator": 27612, "uresa": 48566, "footnotes": 21747, "uckoo": 76531, "\u0120Shelter": 84883, "\u0120Polyester": 85831, "\u0120DNN": 50402, "\u0120daily": 6793, "\u0120monopoly": 62601, "cosm": 77672, "\u00e6\u0143\u00a6\u00e5\u00b8\u013f": 84826, "\u00e6\u0138\u012d": 69474, "\u0120farmac": 73853, "Kath": 82394, "\u00e7\u013e\u012d\u00e8\u00a7\u0123": 24037, "\u00e6\u00a1\u00a3\u00e6\u00a1\u012a": 47617, "\u0120peasant": 40153, "\u0120recommendations": 17584, "\u00e8\u00bf\u013a\u00e4\u00b8\u012f\u00e5\u00a4\u0141": 88301, "\u00e6\u00b2": 931, "arser": 13006, "\u0120stamp": 23313, "\u0120reunir": 41876, "\u0120paragraphs": 44896, "\u0120grounded": 33453, "\u00d0\u00b7\u00d0\u00bd\u00d0\u00be": 59929, "varnothing": 68957, "\u0120gn": 39102, "\u00e5\u012c\u00a8\u00e7\u013c\u0126": 31640, "\u0120projective": 34452, "\u0120\u00d0\u00b8\u00d0\u00b7\u00d0\u00b8\u00d1\u0123\u00d0\u00ba\u00d0\u00b2\u00d0\u00b0": 71562, "ossing": 75505, "Thinking": 80823, "\u00e5\u0135\u012a\u00e5\u00b0\u0136\u00e6\u00bb\u00a8": 53516, "\u0120dazed": 89620, "breakfast": 65474, "\u0120\u00d1\u0125\u00d0\u00ba\u00d1\u0122\u00d0\u00b0\u00d0\u00b8\u00d0\u00bd": 98444, "\u0120llei": 26083, "Wood": 37282, "\u00e8\u013b": 2628, "\u00e7\u00bb\u0128": 4845, "\u0120eighth": 36437, "rido": 85002, "\u0120Tata": 88792, "\u0120Barre": 96116, "\u00e5\u012a\u013d\u00e6\u0126\u0131": 30717, "icans": 9017, "\u0120opposed": 15185, "\u0120framed": 35977, "directed": 45597, "\u0120Mahar": 83464, "\u00e5\u0135\u0123\u00e4\u00bd\u012f": 91203, "\u0120esteem": 42401, "\u0120\u00d1\u0122\u00d0\u00b0\u00d0\u00b7\u00d1\u012a\u00d0\u00b8": 47793, "FT": 8015, "\u00e6\u0122\u00a5\u00e6\u0137\u0133": 62917, "AS": 3156, "\u00e7\u0136\u00b3\u00e8\u00af\u00b7": 11906, "\u00e8\u00af\u00b1\u00e5\u0131\u0133": 64590, "\u00e8\u0143\u00ac\u00e5\u00a6\u0124": 78801, "Decoration": 97129, "\u00e4\u00b8\u012f\u00e4\u00b8\u00ba": 62848, "\u0120treballen": 97540, "\u00e4\u00ba\u0128\u00e4\u00b8\u0122\u00e5\u013e\u00ba": 55532, "esian": 18203, "\u0120outlined": 28526, "ewski": 93633, "\u00e8\u0125\u00bd\u00e5\u00a4\u0141\u00e5\u013e\u00a8": 51307, "\u0120pilgr": 37230, "\u00e7\u00a6\u0131\u00e5\u00be\u00b7": 93556, "usr": 4927, "\u0120prolonged": 37484, "outen": 80048, "\u0120LIST": 47710, "\u0120FBI": 41611, "essay": 93966, "\u0120saf": 5095, "\u0120Bubble": 78470, "\u0120\u00d0\u00b4\u00d0\u00b5\u00d0\u00b5\u00d1\u0128": 39790, "\u00e5\u013e\u00b0\u00e5\u00bd\u00a2": 83655, "\u00e6\u00ac\u00a7\u00e5\u0128\u0142": 73379, "\u0120Theme": 35994, "\u0120Gaelic": 99124, "\u0120asset": 16229, "\u0120imag": 4829, "\u0120Blockchain": 86887, "\u0120Atheros": 83768, "\u0120principals": 12502, "although": 21014, "\u0120Dame": 39712, "\u0120engagement": 16138, "vari": 7357, "\u0120Bertr": 42087, "\u0120gutter": 60794, "\u0120\u00d0\u00b2\u00d0\u00bc\u00d0\u00b5\u00d1\u0123\u00d1\u0124\u00d0\u00be": 67581, "\u0120tranquillity": 80175, "\u0120hogs": 83868, "\u0120somehow": 13505, "\u00e3\u0125\u0139": 93226, "\u00e5\u0127\u012f\u00e8\u00b4\u00b9\u00e5\u0134\u00a8\u00e8\u00af\u00a2\u00e7\u0136\u00b5\u00e8\u00af\u013f": 95190, "\u0120Wakefield": 95243, "icolon": 58488, "\u0120linguistics": 92051, "pn": 17734, "\u00e4\u00b8\u012f\u00e8\u00b5\u00b7": 22346, "HI": 31661, "\u0120Interesting": 60133, "\u0120accorded": 86668, "\u00e6\u0136\u00af\u00e9\u0127\u012f": 65879, "belonging": 99421, "TRANSL": 92284, "\u0120cellspacing": 36807, "\u0120Differential": 83289, "PubMed": 55485, "\u0120\u00d0\u0134\u00d0\u00b5\u00d0\u00bb\u00d0\u00b5": 88825, "\u0120escoles": 37122, "\u0120remained": 10471, "\u0120muse": 12501, "\u00d1\u0122\u00d0\u00b5\u00d1\u0123": 22833, "grey": 35140, "\u00e7\u0130\u0129": 4190, "\u00e7\u0136\u00bb\u00e7\u013c\u0126": 70251, "\u00e5\u00b0\u0136": 5073, "\u0120liberation": 75538, "\u0120arrest": 11710, "\u00e5\u00bc\u0135": 53684, "\u0120Whose": 64950, "\u00e5\u00ba\u0141\u00e7\u012b\u00a9": 76113, "\u0120radiation": 16835, "\u0120Bamboo": 86722, "\u0120Bale": 87365, "\u00e8\u0129\u00aa\u00e4\u00b8\u00bb": 20147, "\u00e9\u0141\u00b5": 28954, "\u00e5\u00b8\u0125\u00e6\u012d\u012b": 89728, "ITION": 16437, "\u0120interfere": 29997, ",-.": 61559, "\u0120supposedly": 44891, "models": 11601, "\u00e6\u0142\u0129\u00e5\u0129\u0128\u00e7\u013c\u0126": 46011, "\u0120Sole": 56697, "\u0120protagonist": 66859, "\u00d0\u00bc\u00d0\u00b5\u00d0\u00b4": 67637, "\u0120Stored": 80440, "cur": 1870, "\u00e4\u00b8\u012f\u00e7\u0141\u00a5\u00e9\u0123\u0135\u00e5\u00a4\u00a7\u00e5\u00ae\u00b6": 93782, "UP": 6055, "\u0120azure": 56290, "\u0120pd": 35338, "\u0120\u00d0\u013a\u00d0\u00bb\u00d0\u00b8\u00d1\u0131": 69964, "uliarly": 57023, "\u0120permission": 11970, "Bibli": 9734, "rm": 1146, "needs": 52354, "\u0120emailing": 86628, "\u0120Biography": 64572, "\u0120deformations": 70266, "\u0120\u00d0\u00bf\u00d1\u0122\u00d0\u00b5\u00d0\u00b4\u00d0\u00b0\u00d0\u00b2\u00d0\u00b0\u00d0\u00bd\u00d0\u00b5": 98389, "\u0120mix": 5074, "\u00e5\u00b0\u0128\u00e4\u00b8\u00ba": 70820, "\\'{": 41584, "unlike": 80572, "TeX": 40367, "\u00e6\u0136\u00af\u00e7\u0132\u0125\u00e9\u013a\u0141": 90445, "\u0120guilty": 17753, "\u00e8\u00b5\u00b0": 3382, "HERE": 8262, "\u00e5\u00a4\u00a7\u00e7\u0123\u00af": 46447, "\u0120criteris": 79776, "}}}": 11058, "\u0120representing": 14357, "\u0120Mig": 57783, "\u0120asi": 22547, "\u0120frowned": 67770, "\u00e5\u0133\u012c\u00e8\u00af\u012b\u00e4\u00bb\u0138": 70065, "LEVEL": 44269, "\u0120fading": 44582, "\u0120diccionario": 61218, "flake": 86305, "\u00e9\u0136\u012e": 52542, "\u0120presos": 90351, "know": 12462, "\u0120Xin": 67705, "\u0120($": 4616, "\u00e5\u00b0\u00b1\u00e5\u00ba\u0136\u00e8\u00af\u00a5": 60167, "rwxrwxrwx": 65517, "\u0120convencional": 89063, "ENSION": 49306, "Actor": 48123, "\u0120atl": 58981, "\u0120devastated": 76737, "\u0120newValue": 69994, "\u00e4\u00ba\u00a4\u00e6\u0130\u00a5": 98159, "\u00e4\u00ba\u0130\u00e4\u00b8\u0122\u00e4\u00bd\u0135": 68827, "\u0120suspension": 28320, "\u0120incidents": 27478, "\u0120isometric": 73727, "\u0120Ruiz": 56746, "abit": 42943, "\u0120intrigued": 65645, "attain": 91875, "Mu": 40647, "<<\"": 42168, "\u0120curls": 55775, "ev": 1231, "\u0120\u00d0\u00bf\u00d0\u00b0\u00d1\u0122\u00d1\u0124\u00d0\u00b8\u00d0\u00b7\u00d0\u00b0\u00d0\u00bd\u00d0\u00b8": 97801, "itely": 28333, "\u00e9\u00bb\u0131": 42368, "\u0109\u0109\u0109\u0120": 59659, "\u0120\u00d0\u013d\u00d0\u00be\u00d1\u0123": 81414, "\u00e7\u00b1\u00bb\u00e4\u00bc\u00bc\u00e7\u013c\u0126": 72636, "\u0120corba": 83354, "ricks": 25650, "phr": 42690, "\u00e7\u013e\u0123\u00e5\u00b8\u0124": 57001, "\u0120HAD": 96207, "\u0120Germain": 96355, "\u0120prou": 8360, "\u0120Ye": 18733, "\u0120labored": 88551, "\u0120Indeed": 13788, "\u0120estatunidenc": 15803, "\u0120SCO": 69644, "Bos": 72137, "\u0120HIM": 80492, "pur": 12648, "\u00e5\u0132\u0133\u00e6\u012a\u0133": 94584, "\u0120alp": 71903, "\u0120round": 4078, "\u0120embarked": 58650, "\u0120\u00d1\u012a\u00d0\u00ba\u00d0\u00be\u00d0\u00bb\u00d0\u00b0": 59532, "ELS": 73625, "equivalence": 75080, "\u00e5\u00a4\u013c\u00e4\u00ba\u00ba": 48467, "diver": 65031, "\u0120individual": 3451, "asi": 8798, "\u00e4\u00bd\u0135\u00e7\u00b3\u00bb\u00e7\u013c\u0126": 98045, "\u0120rays": 24321, "\u0120queda": 26229, "Recorder": 75486, "\u00e5\u00bd\u0135\u00e7\u0126\u00b6": 9158, "\u00d0\u013a\u00d1\u0123": 92792, "\u00e7\u013c\u0126\u00e5\u00bb\u00ba\u00e8\u00ae\u00be": 65721, "\u0120jackpot": 73931, "\u0120mongoose": 95799, "abella": 40533, "\u0120My": 2682, "\u00e3\u0124\u00af": 63907, "\u0120controls": 13346, "\u0120needless": 63244, "rrr": 88364, "\u00e7\u0135\u013e": 13863, "\u00e5\u0129\u00ba\u00e5\u0136\u00ae": 40230, "\u0120teac": 6643, "mez": 46693, "\u00e5\u00ae\u00b6\u00e8\u00a3\u0127": 92288, "\u0120touching": 23005, "\u0120comes": 3450, "\u0120biting": 60373, "odec": 43138, "\u0120Newport": 49060, "\u0120readers": 11726, "\u00e5\u00a5\u00a5\u00e8\u00bf\u0132": 33167, "\u00e4\u00ba\u00ba\u00e5\u00af\u00b9": 50851, "\u0120contemplated": 60868, "ebly": 78072, "\u00d1\u0124\u00d0\u00b8\u00d0\u00bd\u00d0\u00b3\u00d0\u00b5\u00d0\u00bd": 82100, "sg": 7644, "\u00e5\u00a6\u0124\u00e6\u0140\u013e\u00e4\u00b8\u012f": 43199, "ographer": 32816, "\u0120reviewing": 34689, "IVER": 41550, "\u0120Serra": 31993, "\u00e6\u013e\u0141\u00e5\u012a\u012c": 84975, "\u00d0\u00b2\u00d0\u00be\u00d1\u0122\u00d0\u00b0": 63237, "istration": 10366, "\u00e4\u00b8\u012f\u00e5\u00a4\u013c": 23277, "Com": 1704, "\u0120pintors": 55156, "\u0120Brownian": 61576, "RuntimeException": 74308, "irement": 55567, "Dell": 79298, "\u00e6\u013a\u00be\u00e7\u00a4\u00ba\u00e5\u0129\u00ba": 97081, "\u0120premises": 30281, "\u0120Participants": 57042, "\u00e9\u0122\u0124\u00e9\u0129\u0131\u00e7\u013c\u0126": 69041, "\u00e7\u0136\u00b5\u00e6\u00a2\u00af": 40854, "widgets": 47293, "Advanced": 38996, "\u0120Cup": 14250, "\u0120mica": 31403, "\u00e8\u0129\u00aa\u00e5\u00b7\u00b1\u00e5\u0134\u012e": 93378, "regardless": 95490, "expansi": 58830, "\u0120\u00d0\u00bf\u00d0\u00be\u00d0\u00ba\u00d0\u00b0\u00d0\u00b7\u00d0\u00b2\u00d0\u00b0": 52168, "reate": 4857, "icki": 85566, "\u0120accelerometer": 88932, "compliant": 91070, "\u0120Nicaragua": 69576, "\u0120Sight": 75200, "\u00e5\u00a5\u00b3\u00e5\u00a3\u00ab": 19700, "\u00e7\u00b2\u0139": 18929, "\u0120MET": 58543, "\u0120Conversion": 60521, "\u00ce\u00b1\u00ce\u00bb": 77890, "\u00e8\u013c": 15059, "\u0120fixture": 34802, "NORE": 57748, "\u00e5\u0135\u0123\u00e7\u012b\u012e": 6831, "\u0120finalized": 80387, "formed": 14041, "\u00e7\u0142\u0136\u00e7\u00a9\u00b6\u00e9\u013b\u00a2": 35711, "Suite": 36243, "\u0120\u00d0\u0141\u00d1\u0122\u00d0\u00be\u00d1\u0126\u00d0\u00b8\u00d0\u00bb": 63426, "\u00d0\u00b0\u00d0\u00b7": 9499, "\u0109\u0109\u0109\u0109\u0120\u0120\u0120": 88824, "\u0120unscrupulous": 97608, "\u00e6\u013a\u00a5\u00e7\u00a7\u012d": 60309, "emente": 66998, "\u0120officer": 11231, "oing": 65617, "\u0120earnestness": 75578, "\u0120shadow": 13423, "\u0120htt": 2953, "\u00e4\u00b8\u012b\u00e4\u00b8\u00aa": 15150, "\u0120Oliver": 27138, "iotic": 55705, "\u0120GRA": 54616, "\u0120GLuint": 63675, "\u0120Wyn": 77803, "\u0120Review": 9712, "elfare": 21627, "\u0120coal": 13678, "\u0120view": 2343, "\u0120argue": 18889, "rules": 21217, "rotate": 31910, "\u0120headset": 46313, "Last": 7267, "\u0120Preg": 57403, "\u00e7\u013c\u0126\u00e7\u0136\u0141\u00e5\u0133\u00bd": 59129, "\u0120unbroken": 60300, "principles": 61666, "\u0109string": 65572, "\u0120note": 4347, "\u00e5\u00b0\u0131\u00e5\u00bf\u0125": 26001, "Actors": 29216, "\u0120forfe": 68504, "\u0120Colombo": 87680, "\u0120\u00d0\u00ba\u00d0\u00be\u00d0\u00bc\u00d1\u0125\u00d0\u00bd\u00d0\u00b8\u00d1\u0123\u00d1\u0124\u00d0\u00b8": 48917, "captured": 92271, "setTimeout": 98553, "\u0120Processor": 41555, "\u0120atribut": 30280, "Solo": 79289, "\u0120Mosaic": 85368, "Lit": 68874, "\u0120charts": 28752, "\u0120Sears": 81994, "\u0120visites": 92695, "isions": 6105, "\u00e6\u0137\u012e": 15160, "\u00d0\u0139\u00d0\u00b0": 15293, "\u0120costing": 55749, "iber": 7063, "\u0120electricista": 80716, "mathrm": 2591, "\u00e6\u0137\u00b0\u00e5\u0143\u0139\u00e5\u012e\u0138": 45626, "\u00e6\u0138\u00b0\u00e5\u0128\u0142\u00e8\u0124\u00ba\u00e7\u0124\u0130": 35805, "HID": 56171, "zw": 87003, "Atlantic": 72851, "foam": 88984, "\u0120lessened": 96778, "\u0120enthusiasm": 23319, "PN": 11629, "\u0120Oregon": 23822, "\u0120rainbow": 42701, "\u00e6\u013e\u012f": 2699, "\u00c3\u0122": 12759, "COMPI": 53103, "maintain": 56288, "Everything": 30856, "\u0120slipped": 27885, "\u0120drawbacks": 62328, "\u00e4\u00b8\u012f\u00e4\u00bb\u0127\u00e8\u00a6\u0123": 78385, "}$(": 83814, "\u0120dataset": 10085, "AtA": 77124, "YG": 73925, "tnia": 96892, "\u0120representations": 17603, "warning": 21307, "\u0120streamlined": 71292, "\u0120regularity": 36908, "\u00e6\u0137": 812, "\u0120slander": 93455, "\u0120combos": 94241, "\u0120tyr": 28887, "\u0120corporation": 31664, "\u00e4\u00bd\u0130\u00e4\u00bb\u00b7": 59587, "\u0120Democr": 11315, "\u0120shorter": 19029, "\u0120stub": 24873, "\u0120mice": 30035, "\u00e9\u0122\u0131\u00e6\u013a\u0130": 38496, "\u0120emphasized": 44939, "\u0120jets": 32468, "\u0120\u00d0\u00b8\u00d1\u0123\u00d1\u0124\u00d0\u00be\u00d1\u0122\u00d0\u00b8\u00d1\u0129\u00d0\u00b5\u00d1\u0123\u00d0\u00ba\u00d0\u00b8": 48770, "\u00e7\u00bb\u0131\u00e6\u00b5\u0130\u00e7\u013c\u0126": 48952, "\u0120Gaza": 50635, "\u0120Versailles": 74107, "ulity": 81301, "EndOf": 85388, "\u0120your": 520, "\u00e7\u00bb\u013b\u00e5\u00a5\u00b9": 41930, "cycle": 19912, "\u0120Socket": 50125, "\u00e7\u013e\u00bc\u00e7\u0132\u0125": 63061, "\u0120produint": 93498, "fty": 3162, "\u0120Rehabilitation": 73736, "\u0120tolerable": 74071, "\u00e4\u00b8\u0122\u00e4\u00ba\u013d": 4804, ":@": 45394, "\u00e4\u00ba\u0128\u00e4\u00b8\u0122\u00e4\u00b8\u012d": 38598, "Event": 4151, "lying": 6061, "\u00d0\u00b4\u00d0\u00b5\u00d1\u0122\u00d0\u00b0": 37196, "\u0120\u00d1\u0123\u00d0\u00ba\u00d0\u00be\u00d1\u0122\u00d0\u00be\u00d1\u0123\u00d1\u0124": 56431, "\u0120jus": 99347, "\u0120'/": 11719, "\u00e8\u0123\u012e": 4984, "\u00d1\u0123\u00d0\u00bf\u00d0\u00b5": 27839, "}^\\": 7968, "odeling": 42483, "issors": 49045, "\u0120\u00d0\u00ba\u00d0\u00be\u00d0\u00bd\u00d0\u00ba\u00d1\u0125\u00d1\u0122\u00d1\u0123": 85838, "\u0120Cartier": 90161, "\u00e5\u012a\u00b6": 2278, "\u0120extreme": 12459, "\u00e8\u012a\u00b9": 13469, "\u0120Lose": 84806, "\u0120asked": 3637, "\u0120Contents": 49154, "\u0120vascular": 57808, "civil": 45293, "})": 1417, "ely": 733, "led": 1215, "\u0120imaginary": 27225, "\u00e7\u013e\u00bc": 4176, "\u0120sickness": 36914, "\u0120melod": 62623, "\u0120indrets": 67803, "\u00e9\u0122\u013c\u00e8\u00af\u013f": 86571, "''(": 58294, "\u0120Nir": 88298, "SID": 59849, "\u0120attitudes": 39072, "\u0120cred": 4525, "\u00e4\u00b8\u00ba\u00e5\u0137\u00a5": 89289, "\u0120robe": 50578, "\u0120OF": 5372, "ationals": 45855, "leys": 27004, "hm": 35794, "\u0120\u00d0\u00b3\u00d0\u00be\u00d1\u0123\u00d0\u00bf\u00d0\u00be": 37778, "\u0120reacci": 42660, "\u0120distribut": 24879, "pun": 43398, "forgotten": 59625, "\u0120Challenge": 27079, "\u0120shorthand": 65657, "\u0120Notify": 71259, "\u00d0\u00b8\u00d1\u0124\u00d0\u00b5\u00d1\u0122\u00d0\u00b0\u00d1\u0124": 14617, "\u0120Locations": 72105, "\u0120Riemannian": 48396, "\u0120differ": 17467, "Ko": 63781, "\u0120maternity": 73336, "SSD": 75233, "epsi": 75424, "\u0120utilitzats": 54158, "\u0120inertia": 59848, "lowest": 81137, "\u0120quede": 81501, "\u00e6\u00b0\u0133\u00e4\u00ba\u012d\u00e8\u00af\u012b\u00e8\u00ae\u00bc": 82972, "fford": 84228, "\u00e7\u013c\u0126\u00e7\u00be\u0130\u00e5\u00a5\u00bd": 61531, "\u0120emperador": 57913, "\u0120\u00d0\u00b8\u00d0\u00b7\u00d0\u00b4\u00d0\u00b0\u00d1\u0124\u00d0\u00b5\u00d0\u00bb\u00d1\u0123\u00d1\u0124\u00d0\u00b2\u00d0\u00be": 85460, "\u00e4\u00b8\u012d\u00e5\u00b7\u00b4": 88052, "\u0120sleepless": 88145, "\u00e9\u0122\u0123\u00e8\u00be\u00be": 77778, "\u00d0\u00bf\u00d1\u0122\u00d0\u00be\u00d1\u0123\u00d1\u0124\u00d1\u0122\u00d0\u00b0\u00d0\u00bd": 23596, "\u00e6\u0133\u0128\u00e6\u0136\u00be": 56152, "\u0120\u00d0\u013a\u00d0\u00bc": 95594, "\u0120alternator": 98382, "\u00e9\u00a2\u0142": 36171, "${": 6683, "administr": 39528, "One": 4711, "\u0120Arquitect": 33564, "\u00e5\u00b9\u00b6\u00e9\u0122\u013c\u00e8\u00bf\u0129": 73981, "\u0120aparegut": 84197, "\u0120graduar": 52903, "agreb": 95209, "\u0120unlikely": 18714, "\u00e9\u0122\u0125\u00e8\u00b7\u0133": 97470, "\u0120deduct": 35081, "\u0120blushing": 81280, "\u0120ens": 3785, "ITE": 14883, "\u00e8\u00b5\u00b0\u00e4\u00ba\u0128": 26271, "bracket": 38831, "\u0120obting": 43531, "\u0120byl": 48478, "archive": 11389, "\u00e8\u00a8\u0122\u00e8\u00af\u0143": 60243, "\u0120contrase": 45404, "AIPS": 76576, "\u00e5\u00bd\u00a2\u00e5\u00bc\u0131\u00e7\u013c\u0126": 83449, "\u00e8\u00bf\u013e\u00e4\u00ba\u0128": 98216, "\u0120shap": 75661, "ulina": 81440, "\u0120wrists": 76038, "\u0120Gol": 40809, "\u00e6\u012c\u00a4\u00e7\u0127\u00a7": 81997, "\u0120pivot": 43326, "\u0120Bridget": 79493, "Lie": 34058, "\u00e5\u00ba\u0137\u00e7\u013c\u0126": 89030, "cattle": 92285, "\u0120oddly": 69549, "WN": 97355, "arra": 20167, "\u0120meth": 27940, "removeClass": 38885, "\u0120Diabetes": 59853, "\u00e9\u00a1\u00ba\u00e7\u0137\u0127": 67236, "\u0120Praise": 89974, "\u00e4\u00b8\u012f\u00e8\u00b6\u00b3\u00e4\u00bb\u00a5": 91861, "\u0120genealogy": 78988, "rats": 34264, "\u0120inspected": 52190, "ines": 1451, "Drug": 94949, "\u0120attenuated": 96554, "itz": 2014, "FE": 12822, "\u00d0\u00b0\u00d0\u00bb\u00d0\u00b8": 12938, "\u0120receipts": 56402, "ELDS": 92972, "\u00e8\u00a1\u0139\u00e4\u00b8\u012c": 65412, "ERRY": 87763, "\u0120SUR": 76728, "\u00e6\u013d\u00b2\u00e6\u012c\u013a": 87051, "\u00d1\u0123\u00d1\u0124\u00d0\u00b5\u00d0\u00bf\u00d0\u00b5\u00d0\u00bd\u00d0\u00bd\u00d0\u00be": 57517, "Bool": 29597, "\u0120EMI": 55674, "chunk": 37218, "\u0120diagn": 9948, "INVALID": 33743, "\u0120exists": 6057, "\u0120let": 1632, "ONT": 7884, "gov": 20719, "cker": 18931, "\u0120spoon": 33921, "\u00e4\u00ba\u0128\u00e8\u0129\u00aa\u00e5\u00b7\u00b1\u00e7\u013c\u0126": 38448, "ylene": 43382, "\u00e8\u00bf\u0129\u00e5\u00a4\u00b4": 84949, "\u0120encom": 93111, "\u00e8\u012c\u0134\u00e6\u0140\u013e": 72361, "\u00e4\u00b8\u00ba\u00e5\u00b9\u00bf\u00e5\u00a4\u00a7": 87132, "ument": 1595, "\u0120biblioteques": 82549, "similarity": 92352, "\u0120Bands": 94011, "\u0120objections": 46887, "\u0120sn": 4505, "\u00e4\u00b8\u012f\u00e8\u00ae\u00a9": 52546, "bx": 29946, "\u0120evolves": 56450, "\u0120twin": 26900, "\u0120issu": 65173, "\u0120Marcus": 38005, "EventArgs": 39729, "\u00e6\u013d\u00b4\u00e9\u0129\u012f\u00e8\u00a6\u0123\u00e7\u013c\u0126\u00e6\u013a\u00af": 54860, "\u00e7\u013c\u0126\u00e5\u00a5\u00b9": 65212, "floppy": 87222, "\u00e6\u00b8\u00a9\u00e6\u013c\u0138\u00e7\u013c\u0126": 76239, "ematic": 31909, "\u00e9\u0122\u013c\u00e6\u012c\u00a5": 41725, "\u00e8\u0125\u012e\u00e7\u013f\u0122": 93190, "ascar": 39484, "\u0120church": 6835, "captain": 62069, "\u0120\u00d0\u013c\u00d0\u00b0\u00d0\u00b9": 64997, "\u0120thine": 33714, "\u0120kar": 53268, "\u0120Utils": 61969, "\u0120prove": 6650, "Bit": 15562, "hibition": 79495, "\u00e4\u00b8\u012f\u00e9\u0122\u0124": 41485, "Far": 33343, "fig": 973, "\u0120freeing": 78409, "\u0120d": 263, "Requ": 3887, "qual": 19204, "\u00e7\u013c\u0126\u00e6\u0142\u0129\u00e5\u0129\u0128": 47569, "\u0120dBm": 65271, "inat": 14588, "\u00e8\u0122\u0125\u00e5\u013e\u00ba": 90923, "acionals": 15145, "\u0120locomot": 87905, "Documento": 68656, "\u00e6\u00af\u0131": 2690, "cam": 13210, "\u00e8\u00af\u00a5\u00e9\u00a1\u00b9\u00e7\u013d\u00ae": 67173, "\u0120remove": 4760, "\u00d0\u00be\u00d0\u00ba": 85053, "plet": 41172, "\u0120Schmitt": 94440, "\u00e9\u0124\u00a3\u00e5\u00a4\u00a9": 42247, "hor": 2119, "\u00e7\u00ac\u0133": 7330, "ade": 927, "\u0120surgery": 14912, "\u0120bronze": 20571, "\u0120MEM": 47224, "\u0120\u00d0\u00bf\u00d0\u00be\u00d0\u00bf\u00d0\u00b0\u00d0\u00b4\u00d0\u00b0": 58821, "\u0120mold": 21527, "emir": 63340, "\u00e5\u0127\u00ac\u00e5\u0131\u00b8\u00e5\u013e\u00a8": 56650, "ovolta": 83000, "XB": 93480, "\u0120Bird": 22337, "\u00d0\u00b4\u00d0\u00b6\u00d0\u00b8\u00d0\u00b5\u00d0\u00b2": 65540, "\u0120DS": 29473, "\u0120Z": 1981, "\u0120McDonald": 39579, "\u0120comtes": 67091, "\u0120influencers": 85036, "\u0120PD": 34197, "\u0120renovated": 54962, "\u00d0\u00b1\u00d0\u00b2\u00d0\u00b0": 20588, "\u0120Bin": 33052, "\u0120haughty": 66782, "\u00d0\u00bf\u00d0\u00b0\u00d1\u0122\u00d1\u0124\u00d0\u00b0": 43898, "\u0120workplace": 25330, "\u0120\u00d0\u00bd\u00d0\u00b0\u00d1\u0125\u00d0\u00ba\u00d0\u00b0\u00d1\u0124\u00d0\u00b0": 94789, "\u0120directorio": 51810, "Prepared": 82971, "\u00e8\u00a7\u0126\u00e5\u00be\u012d": 24637, "\u00e6\u00a1\u0136": 77382, "hours": 31123, "\u0120Hond": 77370, "\u0109client": 77512, "\u00d8\u00ac": 80023, "\u0120innovations": 41216, "constitution": 46986, "\u00e7\u00ba\u00a6\u00e6\u013e\u012b": 98011, "\u0120Short": 15498, "\u0120warnings": 28750, "\u00e4\u00b9\u0142\u00e8\u00bf\u0133\u00e5\u00b9\u00b3": 26711, "\u00e9\u00bb\u0126\u00e8\u012b\u00b2": 38842, "\u0120conservat": 49706, "\u00e8\u00b5\u013d\u00e4\u00b8\u0143": 86759, "YE": 98301, "\u0120opinions": 15675, "\u00d1\u0123\u00d0\u00be\u00d0\u00b2": 32659, "\u0120systems": 4254, "altre": 30436, "\u00e4\u00ba\u012d\u00e5\u00ae\u0140": 14902, "Wrong": 50881, "\u00e6\u0132\u013e": 17140, "Whatever": 38841, "ivals": 59914, "rients": 29601, "\u0120\u00d0\u00b3\u00d1\u012c\u00d1\u0122": 41281, "\u00e7\u0142\u0136\u00e5\u0131\u0133": 16407, "\u0120praised": 40408, "Directory": 16215, "\u0120Anchor": 75046, "}^*$": 56628, "Spect": 42429, "\u00e5\u00b0\u0128\u00e6\u012e\u0123\u00e7\u00bb\u0143": 93128, "riving": 16834, "urbs": 40218, "\u0120dishwasher": 54078, "\u00e7\u013c\u0126\u00e5\u00b0\u0131\u00e4\u00bc\u013b\u00e4\u00bc\u00b4": 54251, "\u00e5\u0143\u013a\u00e6\u00ac\u00be": 42561, "\u0120upbeat": 91531, "\u0120neighbourhood": 26438, "\u00e5\u0135\u012a\u00e5\u00bc\u0139": 36477, "ents": 713, "\u0120Stephen": 18232, "toprule": 37328, "\u0120License": 10403, "Creator": 47642, "\u0120wt": 87148, "Happy": 26978, "\u00e5\u00bf\u0125": 1346, "\u0120comuna": 35770, "\u00e4\u00bb\u0130\u00e5\u00b0\u0131": 28775, "\u0120exploiting": 56272, "\u00e6\u0138\u0129\u00e7\u012e\u00ae": 70155, "\u00e7\u00aa\u0141": 65307, "crowd": 77042, "\u00e6\u00b1\u012b\u00e6\u0139\u0131": 75960, "\u00e6\u00b0\u00b8\u00e4\u00b8\u012f": 81704, "\u0120angel": 22975, "\u00e9\u0136\u0127\u00e7\u0124\u012b": 89983, "\u0120\u00d1\u0122\u00d0\u00b5\u00d0\u00bb\u00d0\u00b5": 95842, "\u00d0\u013a\u00d0\u00b7\u00d1\u0124\u00d0\u00be\u00d1\u0129\u00d0\u00bd\u00d0\u00b8\u00d1\u0128\u00d0\u00b8": 7634, "\u0120\u00d0\u00a6\u00d0\u013c": 79820, "coloring": 88623, "\u0120adjectives": 37381, "\u0120receive": 5219, "\u0120Fen": 38665, "\u0120Toolkit": 73294, "\u0109})": 34277, "\u00e4\u00b8\u00a4\u00e6\u013f\u00a1": 61193, "\u00e5\u0131\u012a\u00e4\u00bc\u013c": 68129, "ynamic": 13609, "represent": 17006, "\u00e5\u00bc\u00ba\u00e5\u012e\u0138": 21340, "\u0120Selected": 51847, "\u00e7\u012b\u0129\u00e6\u00ae\u00b5": 81912, "\u00e8\u00be\u0125\u00e5\u00b7\u00ae": 89932, "\u0120Mod": 4859, "\u00e2\u0136\u012a\u00e2\u0136\u012a": 90988, "\u0120easter": 94351, "notch": 68552, "lys": 53546, "cordova": 76469, "\u0120browsing": 30264, "\u0120adm": 7640, "\u00e8\u00b5\u013d\u00e5\u0132\u0130": 80324, "validate": 24909, "urge": 94468, "\u0120hardly": 10983, "\u0120enforce": 15976, "\u00e8\u00bd\u00ac\u00e8\u00bd\u00bd": 27234, "\u0120\u0120\u0120\u0120\u0120\u0120\u0120\u0120\u0120\u0120\u0120\u0120\u0120\u0120\u0120\u0120\u0120\u0120\u0120\u0120\u0120\u0120\u0120\u0120\u0120\u0120\u0120\u0120\u0120\u0120\u0120\u0120\u0120\u0120\u0120\u0120\u0120\u0120\u0120\u0120\u0120\u0120\u0120\u0120\u0120\u0120\u0120\u0120\u0120\u0120\u0120": 29016, "swagger": 70448, "tna": 37448, "\u0120waters": 14585, "\u0120Jub": 62786, "\u0120compress": 23439, "\u0120\u00d0\u00bd\u00d0\u00b5\u00d0\u00b9\u00d0\u00bd\u00d0\u00b0\u00d1\u0124\u00d0\u00b0": 70087, "ServiceProvider": 87242, "\u0120Lauderdale": 77846, "preserved": 82483, "\u0120fem": 6421, "\u00e4\u00b8\u0143\u00e5\u012e\u00bb": 18199, "trim": 19782, "\u0120PSU": 56680, "\u0120Annals": 95343, "\u0120apprehension": 52956, "<?>": 43929, "\u0120Pt": 69408, "\u0120logical": 14502, "Civ": 90189, "\u0120inhabitants": 21741, "Central": 39372, "\u0120spanning": 42684, "\u0120\u00d0\u0133\u00d1\u012c\u00d0\u00bb\u00d0\u00b3\u00d0\u00b0\u00d1\u0122": 30276, "\u00e5\u00ae\u00b6\u00e9\u0137\u00bf": 11428, "ummies": 47845, "\u0120Spray": 66288, "\u0120mena": 33699, "ayama": 86463, "\u0120partake": 71167, "\u0120Guang": 68323, "\u00e8\u013c\u013f": 91248, "UND": 18077, "\u0120DIG": 99938, "].": 2986, "\u00e5\u0127\u00b3\u00e5\u00bf\u0125": 24536, "\u0120schooner": 57914, "\u00e8\u00b6\u0127\u00e8\u00bf\u0129": 9467, "Bern": 40673, "\u00e5\u013d\u013d\u00e5\u0143\u00a3": 46601, "\u0120</": 1119, "policy": 19954, "\u0120particulars": 21411, "\u0120Methodist": 51919, "\u0120Boris": 61875, "\u0120North": 5226, "\u0120aim": 8223, "\u00e6\u00b8\u0127\u00e6\u013a\u0130": 42759, "\u0120Rubber": 62819, "\u0120deline": 64470, "\u00e9\u0140\u012d": 15060, "\u00e5\u00b0\u00b1\u00e5\u00bf\u0127\u00e9\u00a1\u00bb": 66129, "\u0120Cuando": 56550, "\u0120Norwich": 69146, "\u0120metropolis": 71574, "\u0120capture": 11029, "\u00e1\u0125\u0132": 46554, "True": 8173, "Photo": 20949, "\u0120protegida": 53950, "whel": 72590, "\u0120Apostle": 75010, "JV": 78897, "\u0120generalization": 28851, "\u00e8\u0129\u00aa\u00e6\u012a\u0133": 16997, "\u0120emerged": 27433, "\u0120\u00d0\u00b4\u00d0\u00b2\u00d0\u00be\u00d1\u0122": 64174, "\u0120\u00d1\u0123\u00d0\u00b8\u00d0\u00bd\u00d0\u00b0": 50629, "oga": 12553, "\u0120voler": 55861, "\u00e2\u0122\u00b3": 22472, "\u0120Ribera": 52429, "excluding": 77686, "\u0120Cornelius": 85636, "\u0120nightfall": 96742, "\u0120lleial": 78063, "\u0120pasture": 52989, "\u0120\u00d0\u00b8\u00d0\u00b7\u00d0\u00bf\u00d1\u012c\u00d0\u00bb\u00d0\u00bd\u00d0\u00b5\u00d0\u00bd\u00d0\u00b8\u00d0\u00b5": 72849, "\u00d1\u0124\u00d0\u00b5\u00d0\u00bb\u00d0\u00bd\u00d0\u00b0\u00d1\u0124\u00d0\u00b0": 70809, "\u0120ath": 13183, "iments": 5307, "\u00d0\u00b0\u00d0\u00bd\u00d0\u00be": 44412, "\u00e6\u00a5\u013c": 12527, "infty": 3330, "\u00d0\u00b2\u00d0\u00ba\u00d0\u00b8": 84541, "Napoleon": 93964, "\u0120harshly": 88554, "^*$": 19867, "\u0120nast": 94809, "udis": 26712, "\u0120worthy": 15945, "\u00e5\u0129\u0131\u00e8\u00bd\u00bb": 33008, "Upgrade": 43558, "went": 22353, "lits": 50642, "lou": 51323, "zen": 7387, "\u0120logging": 17867, "\u0120isot": 23462, "own": 709, "VICE": 21577, "\u0120absol": 5331, "\u00e6\u013e\u012b\u00e8\u00bf\u0129": 40727, "\u0120confirmed": 13556, "\u0120distribuci": 27649, "\u0120capita": 26517, "\u0120normalment": 33643, "\u00e8\u00a5\u00bf": 2797, "\u0120recycl": 20238, "\u0120FK": 46743, "\u0120awareness": 17034, "\u00e5\u013d\u00bd\u00e7\u0130\u012d": 55692, "loat": 58296, "\u00e7\u013c\u0126\u00e7\u0136\u0141\u00e4\u00ba\u00a7": 62489, "\u0120retaule": 65392, "\u0120iz": 43506, "\u00e8\u0123\u013a\u00e7\u0136\u00a8": 66901, "\u0120crochet": 75627, "\u00d0\u00bd\u00d0\u00b0\u00d1\u0124\u00d0\u00b0": 2638, "necessity": 77691, "mddev": 94515, "\u00e6\u00b7\u00a1": 11619, "\u0120caric": 62878, "encoder": 47485, "\u0120flyers": 93192, "plete": 32791, "\u0120fullness": 85268, "\u00c3": 125, "dining": 80504, "\u0120nons": 53495, "]</": 41548, "\u00e6\u013a\u00af\u00e4\u00bb\u0138\u00e4\u00bb\u00ac": 96314, "\u00e6\u0133\u0126\u00e5\u0125\u0131\u00e5\u00a4\u00b4": 43529, "\u0120Nutrition": 45886, "\u0120ArrayList": 19743, "\u0120Bod": 39572, "NK": 80782, "\u0120monom": 64814, "\u0120interpretat": 60237, "nvarchar": 80950, "\u0120enthus": 13250, "atl": 47981, "\u0120kissed": 28734, "PRODUCT": 67680, "\u0120obtiene": 92698, "Instagram": 93695, "\u00e5\u00a4\u00a7\u00e5\u012c\u013d": 29092, "\u00e4\u00b8\u0130\u00e6\u0143\u00a4\u00e5\u0132\u012e\u00e6\u0139\u00b6": 39066, "\u0120sunrise": 48223, "\u00e4\u00bc\u0142\u00e6\u012b\u00bf": 29398, "\u00e8\u00bf\u0130\u00e6\u013f\u00a5\u00e4\u00ba\u0128": 55102, "Numbers": 55011, "rophy": 42830, "\u00e6\u013a\u00af\u00e4\u00b8\u00ba\u00e4\u00ba\u0128": 31759, "rtimes": 59841, "\u0120Broadcom": 62210, "\u0120Yours": 71220, "\u0120UA": 80154, "\u00e9\u0136\u00ae": 9049, "\u0120systemctl": 41854, "\u00e7\u00a7\u0133\u00e5\u012a\u013d": 56401, "\u0120unimportant": 68702, "burgh": 16791, "\u0120scroll": 15916, "\u0120doctor": 7601, "\u00e7\u00b1\u00bb\u00e5\u012a\u00ab": 69404, "olev": 53281, "k": 74, "\u00e5\u00ae\u00a2": 3858, "Compressed": 93091, "OTT": 29561, "klore": 60748, "grain": 68866, "\u0120alph": 88122, "\u0120simplicial": 63586, "\u0120": 207, "\u0120unbounded": 49525, "\u0120concede": 94592, "dism": 97563, "Food": 38837, "splendid": 96588, "\u00e4\u00bb\u0122\u00e4\u00b9\u012a\u00e4\u00ba\u012d": 87328, "\u0120Wel": 24412, "MESSAGE": 39859, "\u0120Proposition": 13647, "\u0120Romania": 35030, "Sea": 55240, "chu": 57018, "wi": 22602, "contro": 65814, "ushed": 7735, "\u0120scorn": 31594, "\u00e6\u012a\u0133\u00e5\u00ae\u00b6": 52215, "\u0120favorably": 86913, "\u0120collide": 90038, "clave": 39013, "^{**": 98177, "fw": 21352, "\u00e5\u0127\u00a8\u00e6\u013b\u00af": 61819, "\u0120transitioning": 80690, "\u0120Daytona": 96347, "\u0120CONTRACT": 64685, "\u00e8\u00a1\u0122\u00e7\u00ae\u00a1": 21207, "defer": 82298, "\u0120rotational": 40677, "ant": 401, "\u0120pts": 54030, "\u0120Professor": 14857, "ovsky": 78407, "Appendix": 47076, "\u0120monarca": 75956, "\u0120lord": 15332, "recommended": 54862, "approaching": 92652, "\u0120bosons": 51141, "\u0120medi": 21125, "\u0120inv": 1340, "\u0120McK": 28776, "\u0120pursuant": 53863, "ensus": 19910, "\u0120\u00d0\u0137\u00d0\u00bd": 64870, "\u0120condemnat": 66166, "Select": 6325, "ellations": 90179, "\u00e6\u013c\u0133\u00e6\u013e\u0141": 92050, "\u0120hes": 35309, "gomery": 36605, "ilateral": 64644, "\u0120Sud": 10975, "dT": 92053, "\u00e8\u012b\u00b0": 22721, "\u0120deployed": 30402, "part": 1629, "\u0120Serge": 53039, "\u0120declarada": 72814, "\u00e5\u0130\u012b\u00e5\u00ae\u00b3": 32036, "\u0120millores": 86099, "TestSuite": 89043, "\u00e7\u00a7\u0123\u00e6\u013e\u012b": 96390, "\u00e8\u0140\u012f\u00e5\u0132\u012a\u00e5\u0131\u0133\u00e5\u00b1\u0137": 82403, "\u0120promoting": 23682, "\u00e8\u012f\u00b7\u00e5\u0127\u00b0": 55460, "etooth": 10546, "\u00e5\u00ba\u0136\u00e5\u00af\u00b9": 25358, "\u0120Items": 33321, "\u0120comparteix": 99966, "\u0120Laguna": 79528, "\u0120ou": 24964, "\u0120Amph": 73747, "\u0120Wine": 22711, "\u0120ET": 30048, "\u0120seniors": 34983, "\u00e5\u00ae\u00b6\u00e5\u012c\u00a1": 70141, "\u0120Jar": 29298, "\u0120paved": 53905, "\u0120Monk": 64970, "\u00e8\u00af\u00be": 6241, "\u0120\u00d0\u013f\u00d0\u00be\u00d1\u0122\u00d0\u00b2\u00d0\u00b5\u00d0\u00b3\u00d0\u00b8\u00d1\u0131": 81695, "filename": 17396, "cido": 54067, "ked": 30346, "\u0120intrac": 75701, "\u0120Ry": 27524, "Hum": 40074, "\u0120ovens": 92505, "\u0120bread": 9886, "\u0120error": 2189, "\u0120laughing": 19640, "\u0120owed": 39601, "\u00e5\u0135\u012a\u00e7\u013b\u00bb": 61814, "\u0120Farmers": 60842, "\u0120Carre": 95593, "duplicate": 73381, "\u00e9\u0135\u00be": 11223, "ede": 25170, "\u0120Place": 15107, "\u00e9\u0123\u00bf\u00e5\u0143\u0137": 81165, "\u0120APA": 92329, "\u0120demonstrated": 17892, "theo": 45398, "\u0120Posteriorment": 32198, "\u00e5\u0143\u013f\u00e9\u00a1\u00ba": 90960, "\u0120Concord": 52978, "fly": 14239, "\u0120salts": 56613, "\u0120mallorqu": 64107, "OD": 4822, "\u0120thrilling": 46729, "instruments": 75158, "gy": 4854, "\u0120\u00d0\u0139\u00d0\u00b0": 7946, "\u0120aforementioned": 34108, "\u0120PG": 37687, "\u00e6\u012c\u0139": 8312, "\u0120Hard": 11068, "\u00e5\u0127\u00b3\u00e8\u0123\u0136": 44745, "\u00c3\u00bc\u00c3\u00a8": 15776, "\u0120lett": 45123, ",&": 51162, "\u0120Chevrolet": 53468, "\u0120Theresa": 67884, "\u00e5\u00b9\u00bf\u00e6\u0134\u0143": 38570, "\u0120districte": 15393, "attractive": 75479, "keyring": 77090, "\u0120VIII": 23356, "\u0120visc": 43596, "\u00e5\u0122\u0141\u00e5\u012c\u00a9": 39046, "loading": 20627, "\u00e6\u012b\u0130": 15443, "\u0120randomized": 46365, "\u00e5\u0132\u0130": 1102, "hyp": 30579, "\u00e9\u013c\u00be\u00e5\u00be\u0139": 46153, "\u0120Vita": 69468, "activitat": 33130, "\u0120unitary": 31648, "\u00e7\u0130\u012d\u00e5\u013d\u00bd": 74881, "\u0120Bridges": 80170, "\u0120overwrite": 41724, "\u00e6\u013f\u00a8\u00e5\u00b9\u0124": 51337, "%</": 87782, "\u0120intends": 47988, "\u0120tasty": 33155, "kid": 53093, "\u00e6\u0137\u013b\u00e5\u00b8\u012a": 11897, "Inverse": 78669, "Exam": 83529, "universe": 33863, "ssf": 98055, "Valid": 9374, "'));": 20029, "\u0120espai": 31499, "Brian": 56234, "\u0120Vict": 10815, "}{*}{\\": 55552, "\u0120\u00d0\u00b4\u00d0\u00b5\u00d0\u00bc": 57866, "\u0120collapses": 90964, ")$$": 38295, "Ess": 34548, "\u0120Negre": 80706, "\u0120\u00d0\u00bf\u00d0\u00be\u00d0\u00b2\u00d1\u0122\u00d0\u00b5": 83539, "JK": 70099, "quam": 85660, "\u0120\u00d0\u00ba\u00d1\u0122\u00d0\u00b0\u00d0\u00bb\u00d1\u0131": 81984, "}|^{": 65344, "\u00e7\u013c\u0126\u00e5\u00b0\u0131\u00e8\u00af\u00b4": 98497, "\u0120Veter": 29471, "\u0120Katz": 83639, "\u00e8\u00ae\u00b2\u00e7\u013c\u0126": 69780, "their": 8102, "orith": 4162, "\u0120mail": 9444, "\u00e6\u00b0\u0136\u00e7\u00ae\u00a1": 57166, "icion": 9171, "readable": 44759, "\u0120unemployed": 62675, "Previous": 27845, "\u0120\u00d0\u00b2\u00d0\u00bb\u00d0\u00b8\u00d1\u0131": 36076, "believed": 63399, "\u0120sections": 12506, "\u00d1\u0123\u00d1\u012c\u00d1\u0130\u00d0\u00b7": 69271, "\u0120Nan": 29059, "osofia": 69808, "\u0120withheld": 79200, "\u00e7\u00b2\u012b\u00e4\u00b8\u013f\u00e4\u00bb\u00ac": 63897, "cvt": 82742, "\u0120pigeons": 80866, "itas": 21674, "\u0120cultured": 82686, "\u0120asteroid": 83740, "Nearby": 96809, "\u00e5\u0135\u0123\u00e8\u00b4\u00a8": 16692, "\u0120basket": 14623, "\u0120\u0120\u0120\u0120\u0120\u0120\u0120\u0120\u0120\u0120\u0120\u0120\u0120\u0120\u0120\u0120\u0120\u0120\u0120\u0120\u0120\u0120\u0120\u0120\u0120\u0120\u0120\u0120\u0120\u0120\u0120\u0120\u0120\u0120\u0120\u0120\u0120\u0120\u0120\u0120\u0120\u0120\u0120\u0120\u0120\u0120\u0120\u0120\u0120\u0120\u0120\u0120": 45428, "righteous": 76523, "\u0120\u00d0\u00b7\u00d0\u00b0\u00d0\u00bd\u00d0\u00b8\u00d0\u00bc\u00d0\u00b0\u00d0\u00b2\u00d0\u00b0": 58804, "Once": 10492, "\u0120Ethel": 73715, "esser": 85884, "Calls": 72213, "\u00e6\u0125\u012c\u00e5\u0138\u013e": 33412, "\u0120\u00d0\u013a\u00d0\u00b2\u00d0\u00b0": 35276, "bluetooth": 41897, "\u0120\u00d0\u00b7\u00d0\u00b0\u00d0\u00b3\u00d1\u0125\u00d0\u00b1\u00d0\u00b8": 72696, "\u00e5\u012b\u012f\u00e5\u012a\u0139\u00e8\u0127\u00ba\u00e7\u0124\u0130": 97988, "POLL": 98740, "\u0120nag": 88998, "\u0120db": 10488, "\u0120yielded": 34237, "\u0120Maui": 78330, "\u0120smoked": 42478, "\u0120colorful": 31292, "\u0120\u00d0\u00bd\u00d1\u0131": 9195, "German": 35541, "\u00e9\u013d\u00b6\u00e9\u00a3\u0141": 53312, "\u0120indemn": 57038, "\u0120incurs": 58833, "\u0120\u00d0\u00b0\u00d1\u0123\u00d0\u00b8": 69217, "arrel": 82395, "\u0120i": 460, "Disney": 89390, "\u00e5\u00af\u0134\u00e5\u0128\u00ac": 92049, "abody": 90192, "\u0120possession": 14806, "\u0120chestnut": 79287, "\u0120uplifting": 78252, "\u0120Esm": 93578, "bog": 94008, ")],": 59331, "\u00e7\u013b\u012e\u00e7\u00bb\u0128\u00e8\u0125\u0140": 86709, "\u00e5\u012e\u00bb\u00e5\u00b8\u012a": 41931, "\u0120profundament": 95296, "\u0120Lulu": 98893, "ortality": 61640, "ifi": 7958, "hyth": 43130, "\u00e7\u013b\u00bd\u00e4\u00ba\u0133": 55294, "KC": 94821, "\u0120bombardeig": 99136, "\u00e6\u012b\u0135\u00e8\u00b5\u00a2": 65495, "Tree": 10939, "matrices": 66320, "\u0120twelfth": 76234, "ajos": 82385, "lish": 2226, "\u0120denial": 43153, "ull": 897, "\u00e3\u0122": 343, "sample": 18414, "\u0120outlook": 33197, "\u0120comparative": 36281, "\u0120laterals": 41776, "\u00e5\u00b8\u012e\u00e6\u013e\u013d\u00e8\u0125\u00bd": 59455, "alion": 45902, "\u0120och": 66004, "Resources": 20252, "todes": 40177, "\u00e4\u00bb\u00a5\u00e4\u00b8\u012c": 7956, "\u0120Gine": 68022, "\u0120audacity": 83376, "inaug": 87078, "\u00e7\u00b2\u00be\u00e7\u00a5\u0140\u00e5\u0134\u012e": 88699, "\u00e7\u0136\u00a8\u00e5\u00bf\u0125": 36776, "mA": 16861, "\u00e5\u013d\u00bd\u00e5\u012c\u00a1\u00e9\u013b\u00a2": 31852, "\u00d1\u0129\u00d0\u00bd\u00d0\u00b0\u00d1\u0124\u00d0\u00b0": 20209, "\u00e8\u00ae": 640, "ustrious": 46508, "\u0120France": 7239, "\u0120Fraser": 49866, "\u00e6\u0139\u00b6\u00e5\u00b8\u00b8": 52167, "\u0120VDD": 75730, "found": 10232, "\u00e7\u013c\u0126\u00e5\u0127\u00b6\u00e4\u00bb\u0138": 68629, "\u00d0\u00b4\u00d0\u00be\u00d0\u00bb\u00d1\u0125": 84745, "\u0120Broncos": 82167, "\u0120revoke": 89207, "\u0120drills": 68969, "\u0120heatsink": 72594, "\u0120\u00d0\u00b4\u00d1\u012c\u00d0\u00bb\u00d0\u00b3\u00d0\u00b0": 92950, "\u0120yelled": 58062, "\u0120Cyprus": 59029, "\u0120acknowledging": 65476, "consideration": 56889, "\u00e6\u0130\u0134\u00e6\u0136\u00be": 41590, "\u00e5\u00bc\u0137\u00e6\u0135\u0130": 41401, "\u00e4\u00bf\u013f\u00e5\u012f\u00ab": 66545, "\u0120lluit": 16744, "pthread": 68343, "\u0120\\(": 12837, "\u0120Sad": 24649, "\u00e7\u00a7\u012f\u00e7\u00a7\u012f": 37654, "\u0120Chemical": 44735, "\u0120Changes": 37758, "images": 10151, "\u0120permeten": 47914, "acerb": 64703, "\u00e9\u013d\u00b6\u00e9\u0125\u00a8\u00e4\u00bb\u00b6": 66822, "\u00e4\u00ba\u013c\u00e5\u0128\u013d": 91207, "\u0109echo": 43399, "\u0120transgender": 85827, "\u0120helicopters": 96937, "VEN": 56554, "\u0120\u00d0\u00af\u00d0\u00ba\u00d0\u00be": 96279, "\u0120\u00d0\u00bd\u00d0\u00b0\u00d1\u0122\u00d1\u0125": 70492, "\u00e9\u00a2\u0126\u00e7\u00ba\u00a6": 33459, "ngels": 75624, "\u00e4\u00ba\u00ba\u00e5\u012c\u013d": 35472, "\u00e6\u00af\u0131\u00e4\u00b8\u00aa\u00e4\u00ba\u00ba\u00e9\u0125\u00bd": 63166, "\u0120opened": 6899, "\u0120PyObject": 85548, "\u00e8\u00b9\u00b2": 44973, "\u0120\u00d0\u00ba\u00d0\u00bb\u00d0\u00b8": 36151, "\u00e6\u00b5\u0131\u00e8\u00a7\u012a": 49831, "\u00e4\u00b8\u0122\u00e7\u012b\u0129": 25088, "sweet": 39474, "elope": 51500, "\u0120Noguera": 71965, "\u0120potentially": 14565, "zend": 85112, "\u0120TM": 35898, "umo": 69926, "HEAD": 26963, "mpi": 46318, "\u0120observat": 95995, "\u00e6\u0139\u0143": 39324, "\u0120Rama": 77722, "\u0120Ft": 61989, "\u00e5\u00a4\u00b4": 2655, "\u0120<=": 10551, "\u0120JTAG": 93873, "\u00e7\u0136\u00b5\u00e8\u00a7\u0128\u00e5\u012b\u00a7\u00e3\u0122\u012c": 78922, "\u00e8\u0124\u012b\u00e7\u013c\u0126": 99287, "\u0120xfce": 63975, "\u0120powerfully": 80801, "\u0120dav": 89956, "Xu": 93547, "indic": 15316, "\u00e5\u012a\u0128": 1289, "\u00e5\u00a4\u013e\u00e6\u013b\u013c": 49837, "\u00e2\u0136\u0136\u00e2\u0136\u0122\u00e2\u0136\u0122": 70162, "Pan": 13171, "\u00ce\u00bf\u00ce\u00bd": 56244, "\u00e4\u00b9\u0141\u00e9\u0125\u00bd\u00e6\u013a\u00af": 63286, "\u0120snork": 69645, "\u0120Fun": 15381, "\u0120\u00d0\u00bc\u00d0\u00b0\u00d0\u00b9\u00d1\u0123\u00d1\u0124\u00d0\u00be\u00d1\u0122": 69277, "\u0120\u00d0\u00b3\u00d0\u00bb\u00d0\u00b5\u00d0\u00b4": 89898, "\u0120pag": 12482, "\u0120mysteriously": 85980, "Mort": 53317, "\u00e5\u00a4\u00a7\u00e5\u00b9\u0127\u00e5\u00ba\u00a6": 71262, "\u0120munt": 12653, "\u0120gramm": 25638, "norm": 9628, "\u0120staring": 30118, "\u00e5\u00b7\u0127": 43249, "adors": 5429, "_+(": 65073, "\u0120Superc": 67231, "Problems": 99900, "\u0120PUR": 45856, "\u0120ull": 60451, "\u0120flame": 24138, "Algorithm": 34186, "\u00e9\u00ab\u013a\u00e9\u0122\u0141\u00e5\u0127\u00ac\u00e8\u00b7\u00af": 38399, "\u0120officers": 11335, "\u00e4\u00b8\u012c\u00e6\u013f\u00a5": 42117, "\u0120Build": 10380, "\u0120broadcast": 16532, "\u0120CRM": 49721, "\u00e5\u00a4\u00a9\u00e5\u013e\u00b0": 35416, "icides": 60536, "\u0120ranc": 66393, "\u00e7\u0136\u00b5\u00e8\u00a7\u0128": 11863, "tweak": 82337, "\u0120\u00d0\u00bd\u00d0\u00b0\u00d0\u00b9": 7827, "arrays": 61950, "SPAN": 35558, "ITES": 72291, "\u0120extra": 4155, "\u0120republic": 20818, "\u00e4\u00bf\u00ae\u00e9\u00a5\u00b0": 74537, "Phones": 64522, "creatures": 81465, "\u0120\u00d0\u00bd\u00d0\u00b8\u00d0\u00ba\u00d0\u00b0": 83836, "\u0120devuelva": 84046, "\u0120romans": 26275, "\u00e4\u00b8\u0125\u00e6\u013e\u012a": 96415, "\u0120coronavirus": 51777, "\u00e4\u00b8\u0122\u00e8\u00be\u012a": 84957, "\u0120ruin": 22204, "\u00e6\u00a5\u0142": 58454, "\u0120Mage": 60177, "\u0120BAR": 54655, "mith": 28496, "PHP": 23994, "\u00e8\u012c\u0124\u00e5\u0123\u0129\u00e6\u0139\u00a5": 73070, "\u00e5\u00b0\u00b1\u00e4\u00b8\u012f\u00e8\u00a6\u0123": 70997, "\u00e5\u00a4\u013c\u00e5\u013e\u00b0": 94113, "\u0120Pul": 35720, "chan": 4986, "\u00e7\u00b4\u0142": 4427, "fix": 13292, "\u0120seismic": 81269, "certs": 88861, "\u00e4\u00bb\u00a5\u00e6\u013f\u00a5": 11276, "\u0120Pse": 48978, "\u0120Marroc": 49135, "\u0120Decorating": 81904, "\u0120princes": 26124, "\u0120financially": 40737, "liberal": 96243, "\u0120Ready": 37194, "\u00e4\u00b8\u012f\u00e5\u00be\u0139\u00e4\u00b8\u012f\u00e8\u00af\u00b4": 47752, "\u00e6\u00bc\u0136\u00e7\u00a4\u00ba": 85832, "\u0120cataract": 93803, "rir": 21920, "\u00e6\u0142\u0139": 58619, "\u00e7\u00a5\u0140\u00e5\u013e\u00a3": 84746, "\u0120vows": 59892, "\u0120Welsh": 41702, "\u00e8\u00bf\u013d\u00e9\u0139\u00a8": 95406, "\u0120Dirac": 32193, "\u0120Pang": 82426, "wchar": 55997, "\u0120escult": 39429, "\u00e4\u00ba\u012d\u00e4\u00b8\u013c\u00e5\u012f\u0137\u00e4\u00bd\u012f": 41476, "stup": 97448, "\u0120Russ": 6598, "\u00e5\u0143\u013e": 69676, "\u0120everyone": 5514, "builtin": 66029, "theories": 95234, "Submitted": 71175, "\u0120graph": 4150, "\u00d1\u0127\u00d0\u00b2\u00d1\u012c\u00d1\u0122": 37185, "\u00e6\u0138\u0129\u00e8\u012b\u00ba": 33591, "\u0120ingresar": 56475, "\u00e5\u0131\u0133\u00e8\u00a1\u012e": 24669, "\u0120patience": 21704, "apa": 7755, "\u0120\u00d0\u00bf\u00d1\u0124\u00d0\u00b8": 34213, "\u00e6\u0141": 1875, "tres": 44418, "\u00e5\u00a2\u0140": 3068, "\u0120pet": 4558, "\u0120Livingston": 81933, "\u0120ub": 17716, "\u00e6\u0122\u0123\u00e5\u00ba\u00a6": 18383, ";-><": 86453, "\u0120reflection": 17069, ":~": 31366, "\u0120Advisor": 57552, "uploaded": 89059, "iasm": 21255, "\u0120woodland": 61508, "\u00e4\u00b8\u00a4\u00e5\u00ae\u00b6": 62997, "\u0120Manip": 95131, "(--": 21874, "\u0120starving": 61431, "\u00e5\u0123\u013c\u00e5\u00bc\u00ba": 96687, "\u0120\u00d0\u00a8\u00d0\u00b0": 27693, "\u0120Viking": 70120, "\u0120fractures": 75472, "\u0120yeast": 44593, "\u00e8\u00b4": 808, "ops": 3676, "\u0120Denote": 55382, "\u0120interpretar": 39737, "\u0120Movement": 41850, "\u0120cmd": 18123, "\u0120Portsmouth": 67303, "\u0120Everyone": 24310, "\u0120tasks": 9224, "\u0120Llista": 28514, "athing": 43356, "mapped": 67667, "\u00e3\u0122\u012e": 17194, "\u0120enzymes": 65090, "\u0120preparation": 15797, "\u0120HIP": 73404, "\u00e4\u00bd\u013e\u00e7\u012b\u00a9": 56384, "lands": 7632, "Translator": 77834, "memItemRight": 78300, "\u0120silky": 71285, "\u0120Slavery": 96144, "}\";": 71511, "elling": 4192, "\u00d0\u00b2\u00d0\u00b8\u00d1\u0128\u00d0\u00b0\u00d1\u0124\u00d0\u00b0": 81685, "Analytics": 64130, "\u0120Brent": 45702, "\u00d0\u00b7\u00d0\u00b8": 2552, "oly": 18098, "\u0120off": 842, "\u00e5\u013d\u00ba\u00e5\u00ae\u013c\u00e8\u00b5\u0126\u00e4\u00ba\u00a7": 85835, "angelo": 64210, "\u0120vendors": 24657, "adur": 83340, "\u00e6\u012d\u00bc\u00e5\u00a4\u013c\u00e5\u00a4\u013c": 98798, "lVert": 51569, "\u0120Diego": 19521, "\u0120closes": 32445, "\u0120hesitate": 27321, "LER": 40669, "\u0120Thursdays": 98084, "\u0120abrupt": 27131, "\u0120advisory": 44053, "ABA": 77552, "selection": 25797, "\u0120demonstr": 6892, "\u0120estud": 7400, "\u0120Indust": 13585, "\u0120Islam": 17488, "\u00e8\u0140\u00ba": 28586, "\u0120fixing": 25056, "\u0120pork": 30819, "ativity": 36500, "\u0120loft": 39346, "\u0120serene": 52336, "\u0120transmissions": 67953, "\u0120Contract": 23899, "cep": 74956, "\u0120late": 5189, "\u0120Goth": 31182, "\u0120using": 1244, "autop": 75203, "\u0120OBJECT": 56877, "\u00e5\u00a4\u00a7\u00e8\u00b1\u0128": 66512, "\u0120Terror": 48226, "activ": 11452, "Discografia": 69342, "med": 2026, "\u00d1\u0129\u00d0\u00bd\u00d0\u00b8\u00d1\u0124\u00d0\u00b5": 19633, "Deleted": 52878, "\u0120avg": 56086, "\u0120\u00d0\u013b\u00d0\u00be\u00d1\u0122": 27970, "\u00e9\u0129\u0133\u00e5\u0131\u012b": 84071, "\u00e5\u0128\u013b\u00e5\u0143\u0139": 59177, "\u0120teatres": 96221, "\u0120zoomed": 99859, "\u0120altre": 14350, "\u0120USER": 34000, "\u0120LDO": 68584, "Rotate": 69444, "\u0120perfectly": 8558, "\u00e9\u013f\u00a2\u00e4\u00b8\u012c": 29429, "\u0120crack": 14788, "!),": 41805, "\u00e8\u0135\u013f\u00e5\u00a4\u00a9": 56623, "pv": 52808, "abol": 23524, "\u0120\u00d0\u00b7\u00d0\u00bd\u00d0\u00b0\u00d1\u0129\u00d0\u00b8\u00d1\u0124\u00d0\u00b5\u00d0\u00bb\u00d0\u00bd\u00d0\u00be": 57106, "\u0120Laus": 87584, "macrodef": 64443, "\u00e4\u00ba\u00bf\u00e5\u0127\u0125\u00e4\u00ba\u00ba\u00e6\u00b0\u0133\u00e5\u00b8\u0123": 93300, "\u00e6\u012e\u00af\u00e5\u00a5\u012d": 99222, "\u0120CEO": 15753, "\u00e8\u0127\u0136": 21719, "\u0120desires": 25372, "\u00e4\u00bc\u013a\u00e7\u00a7\u0122": 13013, "\u0120\u00c3\u0139\u0120": 37668, "\u00ce\u0143": 38194, "fraction": 54928, "stor": 68314, "cards": 35709, "\u0120holly": 85085, "\u0120Health": 7140, "Publisher": 51974, "tools": 12644, "\u00e6\u013a\u0130\u00e7\u013c\u0126": 25999, "\u00e6\u012a\u0133\u00e5\u00a6\u012a": 86637, "\u0120arcade": 62075, "\u0120auspices": 99674, "PH": 11886, "stack": 8706, "\u00e5\u0130\u0128\u00e5\u0131\u00b2\u00e7\u013c\u0126": 55891, "Particle": 63074, "\u00e6\u013a\u00af\u00e4\u00b8\u0122\u00e5\u00ba\u00a7": 93489, "\u0120separations": 87300, "\u0120Belgian": 50634, "\u00e5\u00ba\u0141\u00e5\u00bc\u0125": 78149, "Ung": 74226, "tenham": 57872, "\u0120JB": 74940, "\u0120dessert": 33097, "\u00e6\u0138\u00b0\u00e6\u012b\u012d": 61060, "\u0120\u00d1\u012a\u00d0\u00b8": 24569, "\u00e6\u012b\u0123": 41907, "\u00e5\u013e\u00a8\u00e4\u00b8\u0122\u00e4\u00b8\u00aa": 33208, "\u00e7\u0136\u00b7\u00e4\u00b8\u00bb": 78864, ")--": 16617, "\u0120preocupaci": 86030, "\u00e4\u00b9\u0141": 1024, "\u00c3\u012a": 58017, "ady": 4535, "kube": 82107, "\u0120cathedral": 42970, "comprom": 75842, "Fl": 7514, "\u00e4\u00bd\u0128\u00e8\u00bf\u013b": 46655, "profits": 56502, "\u00e5\u00a6\u00be": 97717, "If": 1847, "\u0120\u00d0\u00be\u00d1\u0123\u00d0\u00bd\u00d0\u00be\u00d0\u00b2\u00d0\u00bd\u00d0\u00b0": 95275, "Maximum": 40519, "\u0120Ball": 14500, "kun": 82158, "commends": 59088, "Xml": 15129, "\u00e6\u013a\u00af\u00e8\u0129\u00aa\u00e5\u00b7\u00b1": 63766, "\u00d0\u00b4\u00d0\u00b6": 16454, "\u0120wides": 30102, "\u00e8\u00ae\u00a8\u00e5\u0130\u012e": 54177, "\u0120democr": 15039, "ukes": 56621, "\u00e8\u0125\u012e\u00e9\u0125\u00a8": 65785, "\u0120Immun": 73421, "\u0120TEN": 89589, "\u0120sacr": 12321, "\u0120chemical": 11471, "Th": 1081, "\u0120Classic": 23457, "ync": 4046, "Roles": 59955, "\u00e5\u0131\u00af\u00e4\u00bb\u00a5\u00e5\u00b8\u00ae\u00e5\u012c\u00a9": 62636, "\u0120pioneering": 67045, "\u00e5\u00a8\u00a9": 75484, "\u0120Figures": 42870, "\u0120gigs": 74101, "\u0120pathological": 96426, "News": 25134, "quetes": 72603, "\u0120\u00d1\u0127\u00d0\u00be\u00d1\u0122": 84934, "\u0120Affairs": 27549, "\u0120Emanuel": 92390, "\u0120hazel": 85109, "\u0120lovers": 25437, "\u00e6\u013f\u0133\u00e9\u0129\u012e": 50704, "optimal": 27594, "Ingrese": 42414, "\u0120Bay": 8355, "apellidos": 85152, "\u0120tailor": 38434, "\u0120acte": 51068, "\u0120consent": 16206, "\u0120sprink": 38910, "\u0120hides": 51367, "\u0120sanctioned": 80119, "\u0120supposed": 8548, "FP": 17779, "\u0120Depart": 29174, "\u00e5\u00b0\u00bd\u00e5\u00a4\u00b4": 94725, "\u0120wpa": 70146, "lusi": 89065, "\u0120hurt": 12392, "dica": 36674, "\u0120determina": 90696, "\u00e9\u013f\u0140\u00e5\u00b8\u00b8\u00e5\u00a4\u013c": 92076, "imode": 95563, "\u00d1\u0126\u00d0\u00b8\u00d0\u00bd": 97099, "\u0120parrot": 82099, "\u0120workings": 69984, "\u00d1\u012c\u00d0\u00b3\u00d1\u012c\u00d0\u00bb": 48789, "\u00e5\u00a4\u00a7\u00e9\u013d\u00a8": 81244, "armes": 39360, "\u0120Championships": 47730, "\u0120knowingly": 87603, "Walk": 29879, "\u0120battling": 58422, "\u0120Ala": 71821, "\u0120\u00d1\u0126\u00d1\u0122\u00d0\u00b0": 89020, "\u0120anterior": 14127, "\u00e5\u012c\u0140\u00e6\u00a1\u012a": 58093, "Recognizer": 79768, "\u0120\u00d1\u0125\u00d0\u00bc": 87253, "inuous": 96656, "\u00e5\u012a\u00a4": 7978, "\u0120estructural": 97051, "\u00d0\u00bd\u00d1\u0131\u00d1\u0124\u00d0\u00b0": 62239, "\u00e5\u013d\u0140\u00e5\u0133\u00b3": 84744, "\u00e4\u00ba\u00ba\u00e4\u00ba\u00ba": 37015, "zhang": 49684, "\u00e9\u013f\u0134\u00e6\u013a\u00a5": 21310, "throw": 18486, "\u0120UCLA": 70131, "\u00e5\u0131\u0133\u00e5\u00b1\u0137\u00e6\u012a\u013a\u00e7\u0137\u00a5": 92333, "\u0120orde": 93550, "\u0120Primer": 35863, "\u00d7\u0137\u00d7": 36533, "Bull": 88169, "\u00e8\u013e\u013a\u00e8\u013d\u013d": 83299, "\u0120Territorial": 95297, "\u0120\u00d0\u00a1\u00d1\u0125\u00d0\u00bf\u00d0\u00b5\u00d1\u0122": 83465, "\u00e5\u00b4\u0136": 46826, "\u0120Bull": 21828, "\u0120Cecilia": 72573, "\u00e7\u013c\u0126\u00e4\u00b8\u012f\u00e6\u013a\u00af": 77913, "\u0120homeomorphism": 90105, "\u0120reliable": 12261, "\"],": 21738, "\u0120Duchess": 47195, "Win": 24835, "\u0120professors": 33841, "dummy": 44990, "\u00e6\u0134\u0140\u00e5\u0129\u00bb": 91180, "\u0120teach": 11195, "ilight": 30775, "abbr": 38100, "\u00e8\u0124\u00a1\u00e6\u012e\u0129": 69181, "\u0120subs": 13937, "\u0120Summer": 18735, "\u0120\u00d0\u00bf\u00d0\u00be\u00d1\u0123\u00d0\u00b2\u00d0\u00b5\u00d1\u0124\u00d0\u00b5": 81086, "\u00e7\u00bc\u013c": 65269, "////////////////////////////////////////////////////////////////": 43041, "\u00d1\u0123\u00d0\u00ba\u00d0\u00b0": 2305, "\u0120esportives": 66396, "\u00e7\u00b2\u00be\u00e9\u00ab\u0135": 86141, "\u00d0\u00bc\u00d0\u00b8\u00d0\u00bb": 52491, "\u0120eliminate": 19832, "\u0120liability": 23097, "\u00e8\u012d\u00a5\u00e5\u00b9\u00b2": 38403, "\u0120adren": 59983, "mys": 8461, "\u0120BBC": 22974, "\u0120cruise": 26579, "Entren": 47143, "\u0120Religious": 60273, "MSG": 40121, "\u0120overloaded": 84888, "fecha": 17597, "nautilus": 69257, "\u0120\u00d1\u0122\u00d0\u00b5\u00d0\u00b6\u00d0\u00b8\u00d0\u00bc": 72162, "\u0120cosmology": 58817, "\u00e5\u0137\u0128\u00e5\u0141\u0130": 48914, "breve": 61201, "\u0120protr": 71931, "\u0120GeForce": 53815, "\u00e8\u013a\u0133\u00e8\u0131\u0129": 74607, "\u0120mitjana": 20138, "ays": 797, "_{[": 30129, "\u0120presidents": 58408, "career": 81410, "Brook": 82391, "\u00e5\u00bc\u0142\u00e8\u012b\u00ba": 86510, "z": 89, "\u00e6\u013d\u00b4\u00e4\u00b8\u00ba": 24534, "\u0120dato": 28592, "correspond": 25533, "\u0120logos": 52622, "\u0120poisoning": 59185, "\u00e6\u00af\u013d\u00e5\u00b7\u00be": 61131, "\u0120INPUT": 51549, "\u0120unix": 58417, "\u0120\u00d0\u00b1\u00d1\u0122\u00d0\u00b8\u00d1\u0124\u00d0\u00b0\u00d0\u00bd\u00d1\u0123\u00d0\u00ba\u00d0\u00b8": 69043, "\u0120sleeve": 33989, "\u00e8\u00af\u00a2": 10772, "\u00e5\u00a4\u00b1\u00e8\u00b0\u0125": 72801, "\u0120\u00d0\u00bc\u00d0\u00b8\u00d0\u00bd\u00d1\u0125": 51145, "\u0120rd": 61156, "\u0109array": 76246, "maintenance": 80787, "\u00e4\u00b8\u0129\u00e6\u012a\u00b7": 82430, "\u00e7\u013e\u00bc\u00e7\u013e\u012d": 86483, "arcourt": 89027, "\u00e6\u0125\u012c\u00e5\u0131\u00b9": 88858, "\u0120Twitter": 11187, "\u0120Baxter": 69297, "\u0120noblest": 71322, "\u0120metallicity": 39915, "\u00d0\u00bc\u00d0\u00b5\u00d0\u00bd\u00d0\u00bd\u00d0\u00b8": 76771, "\u0120\u00d0\u0133\u00d1\u012c": 87122, "\u00e9\u0134\u012a\u00e7\u00bb\u0129": 89966, "\u0120partisan": 75251, "\u0120educatiu": 90300, "\"/><": 95121, "\u0120Dartmouth": 86696, "\u0120Coaches": 91589, "\u0120Descriptor": 73145, "portunity": 34608, "\u00e6\u0138\u00b0\u00e5\u0140\u012d\u00e5\u0128\u0142\u00e7\u012c\u00b6\u00e7\u0139\u0127\u00e6\u00af\u0134": 86614, "iae": 37577, "rosa": 58176, "\u00d0\u00be\u00d0\u00bb\u00d0\u00be\u00d0\u00b3\u00d0\u00b8\u00d1\u0131": 41330, "\u0120epochs": 39733, "\u0120vanities": 98194, "\u00e2\u013a": 31137, "\u0120swallowed": 49600, "\u0120\u00d0\u0141\u00d1\u0122\u00d0\u00b5\u00d0\u00b7": 7792, "\u0120renamed": 44266, "{,}": 91388, "\u0120appreciable": 99234, "itzada": 15412, "\u00e5\u0130\u0137\u00e6\u012b\u0122": 42291, "\u0120relations": 4158, "\u00e8\u00af\u00be\u00e7\u00a8\u012d": 17499, "\u00e5\u00a9\u00b4": 22576, "\u00e4\u00b9\u013a\u00e8\u00bd\u00a6": 59399, "Segments": 77408, "\u0120vessel": 16892, "leading": 21374, "\u00d0\u00b7\u00d0\u00b8\u00d0\u00ba\u00d0\u00b0": 48262, "\u0120alloys": 88087, "\u0120abs": 3105, "\u00e6\u012d\u0130": 98307, "\u00d1\u0122\u00d0\u00be\u00d0\u00b4\u00d0\u00bd\u00d0\u00b0": 61147, "\u00e7\u00a6\u00bb": 4282, "Ds": 41562, "\u0120clas": 97903, "Der": 28396, "\u00e4\u00b8\u012c\u00e5\u0143\u00a6": 40758, "\u0120quantization": 44666, ")){": 31262, "aded": 10253, "\u00e5\u00bf\u0127\u00e7\u0126\u00b6": 24386, "\u0120oficials": 34844, "\u0120cannon": 35964, "\u0120retrieved": 37743, "\u00e8\u013b\u0132": 51733, "\u0120\u00d0\u00be\u00d0\u00ba\u00d1\u0125": 56425, "\u0120sobren": 64087, "\u0120Yak": 69331, "\u00e7\u0132\u0128\u00e8\u00b4\u00a2": 32575, "\u00e8\u0123\u012e\u00e7\u00a7\u00b0": 72319, "\u0120@\"": 25564, "ateau": 45988, "\u00e9\u0125\u00bd\u00e6\u0139\u0142\u00e6\u00b3\u0137": 76357, "\u00e6\u0139\u0142\u00e8\u00ae\u00ba": 11285, "\u0120obstacle": 33672, "\u0120Epic": 49157, "\u00e6\u013d\u00b4\u00e8\u0125\u00bd": 53729, "\u0120Ephes": 82754, "ister": 2543, "\u0120centuries": 20580, "\u00e9\u0129\u012f\u00e7\u0139\u0129": 68612, "\u0120congen": 62813, "\u0120ki": 62974, "\u0120applicable": 13762, "\u0120settle": 20032, "\u00e4\u00b8\u0125": 7895, "++){": 32385, "\u0120ober": 35663, "belt": 64488, "RENDER": 85626, "adjust": 31897, "\u00e6\u00a8\u00a1\u00e7\u00b3\u012c": 50939, "antar": 88237, "\u0120MSC": 79968, "\u00e9\u00a3\u0141\u00e6\u012e\u0129": 88865, "\u00d0\u00ba\u00d0\u00be\u00d0\u00bb\u00d0\u00be": 10479, "\u0120flooding": 44913, ";;;;": 98500, "\u00e7\u013b\u00bd\u00e9\u00a9\u00ac": 98010, "\u00e4\u00bd\u0128\u00e4\u00b8\u012f": 63887, "\u0120citizen": 24093, "\u00e7\u012a\u00b1\u00e7\u013c\u0126": 16499, "LETE": 21060, "\u00e6\u0140\u0137": 40868, "\u00e5\u00a5\u0139": 6808, "Numero": 52290, "Following": 23223, "assoc": 46372, "\u0120perdre": 28246, "\u00e5\u00be\u0139\u00e7\u0141\u00a5": 35776, "\u0120\u00d0\u00a1\u00d1\u0124\u00d1\u0125": 73825, "\u0120equilib": 44563, "\u0120Stores": 53448, "\u0120reverses": 94663, "save": 13733, "\u00e5\u00ae\u00b6\u00e9\u0137\u00bf\u00e4\u00bb\u00ac": 62658, "\u00d0\u00b8\u00d1\u0124\u00d0\u00b5": 1579, "\u0120GUID": 46732, "\u0120MacBook": 17501, "\u0120\u00d0\u0137\u00d0\u00b1\u00d0\u00b5\u00d1\u0122": 96260, "\u0120\u00d1\u0122\u00d0\u00be\u00d0\u00ba": 59297, "\u0120\u00d1\u0123\u00d1\u0124\u00d0\u00b0\u00d1\u0122\u00d0\u00b8": 97302, "\u00e7\u0139\u0127\u00e5\u013d\u0142": 64379, "\u00e7\u0138\u013c": 90848, "\u0120ferment": 34184, "\u0120Wh": 2180, "\u0120Castell": 19973, "\u0120Market": 14039, "Cook": 23733, "\u0120Housing": 34914, "\u00e5\u00bc\u0137\u00e5\u0127\u00a5": 44546, "\u0120Omega": 56042, "\u00e5\u00ae\u012e\u00e5\u0127\u00a8\u00e6\u00b2\u00a1\u00e6\u013e\u012b": 74123, "\u0120integraven": 32866, "\u00e6\u013e\u012b\u00e9\u013b\u0132\u00e7\u013c\u0126": 80179, "yang": 45367, "\u00d1\u0123\u00d0\u00ba\u00d0\u00be\u00d0\u00bf\u00d0\u00b8": 63379, "Sent": 29864, "\u0120Unsupported": 58145, "\u0120consequent": 65323, "hop": 10371, "\u00d0\u00b4\u00d0\u00b0\u00d1\u0124\u00d0\u00b5\u00d0\u00bb": 22592, "asser": 36098, "ided": 2269, "\u0120suffered": 15203, "\u0120broom": 76551, "\u0120Seu": 51795, "\u00e9\u0127\u00ae": 69914, "\u0120throws": 8471, "cils": 66617, "zone": 15096, "\u0120Paraguai": 84628, "\u0120encouraging": 24091, "catal": 39902, "\u0120Alto": 57867, "ich": 514, "\u00e6\u00be\u0130\u00e6\u00b9\u0125": 76180, "\u0120parametro": 69284, "\u00e4\u00ba\u00ac\u00e6\u00b4\u00a5\u00e5\u0128\u0122": 85043, "Constructor": 26316, "\u0120?),": 90079, "mend": 98248, "\u00e7\u0136\u0141\u00e6\u0126\u0131": 27491, "scene": 32240, "\u0120nectar": 90583, "Brush": 70480, "\u00e5\u0122\u00ba": 10695, "\u0120Kyle": 44765, "instanc": 95723, "illot": 96206, "\u0120bought": 8939, "\u0120harmless": 39507, "ToString": 16818, "\u0120Fritz": 57599, "\u0120Artemis": 94525, "uling": 14320, "\u0120Spain": 14836, "contract": 33351, "\u0120dozens": 29709, "\u0120Beng": 32538, "sevent": 74807, "\u00d0\u00bf\u00d0\u00b5\u00d1\u0129\u00d0\u00b0\u00d1\u0124": 75826, "\u0120associative": 69973, "inue": 15308, "\u0120Anthrop": 69160, "\u0120vuelve": 95454, "ien": 2008, "\u0120Verg": 55781, "\u00e4\u00bf\u013f\u00e5\u00ae\u012a": 58724, "\u0120reflecteix": 84704, "\u0120fascination": 59208, "\u00e5\u00b9\u00b3\u00e6\u0139\u00b6": 18366, "\u0120alloc": 13577, "illery": 27319, "\u00e7\u0130\u00b0\u00e8\u00a1\u012e": 81758, "\u0120FALSE": 29474, "unix": 35324, "\u0120exactly": 5096, "\u0120\u00d1\u0123\u00d0\u00b2": 46079, "\u0120evils": 48714, "\u00e4\u00bb\u0138\u00e8\u0129\u00aa\u00e5\u00b7\u00b1": 69356, "wo": 848, "\u0120Indicates": 69597, "\u00d0\u00b4\u00d0\u00be\u00d1\u0123": 77082, "\u0120\"<<": 84372, "lts": 60405, "\u0120FULL": 45931, "\u0120morts": 36316, "\u00e5\u013f\u0139\u00e9\u0134\u00b1": 38035, "\u0120\u00d0\u013c\u00d0\u00b0": 6358, "\u0120MSI": 61005, "\u0120\u00d0\u0142\u00d0\u00b8\u00d0\u00bc": 26035, "\u0120drives": 14303, "\u00e4\u00bc\u00a6": 14595, "\u00e6\u0139\u00a5\u00e7\u013d\u012c": 41769, "\u00d0\u00ba\u00d1\u012c\u00d1\u0123": 44575, "\u0120dominated": 23494, "Preparing": 53565, "\u0120disturbed": 31770, "\u00e5\u00a4\u00a7\u00e8\u0129\u00b4": 54901, "\u0120el": 466, "}}}$": 36750, "lifted": 58826, "\u0120Thread": 22258, "\u0120ayuda": 29009, "\u0120Chi": 28126, "\u0120delim": 59603, "\u00e5\u0131\u0139\u00e6\u012f\u0141": 52447, "Han": 60188, ".).": 13655, "'];": 14176, "\u0120innovative": 15686, "\u0120Suff": 35158, "\u00d0\u00b6\u00d0\u00bd\u00d0\u00b8\u00d1\u0124\u00d0\u00b5": 54405, "\u00e8\u00b0\u0135": 10909, "did": 14331, "\u0120grouping": 45929, "\u00d0\u00be\u00d0\u00b4\u00d1\u0122\u00d0\u00b8": 47427, "idimensional": 60663, "emitter": 63435, "Ids": 24169, "Making": 40011, "\u00e5\u0127\u00b3\u00e7\u00b3\u00bb\u00e7\u013c\u0126": 48082, "metro": 33293, "\u0120Castel": 65343, "\u00e8\u00bf\u013b\u00e9\u0125\u00a8\u00e5\u012b\u00a7": 76339, "regulation": 77807, "\u00e8\u00bf\u013b\u00e6\u013a\u00af\u00e6\u012a\u0133": 78402, "\u0120Listed": 81219, "We": 1380, "\u0120defe": 13320, "\u00e8\u00bf\u013d\u00e5\u0129\u00ba": 70791, "\u00e4\u00bd\u0142\u00e5\u0131\u00af\u00e8\u0125\u00bd": 82682, "\u00e8\u00bf\u00bd\u00e6\u012f\u00a7": 72039, "\u0120poking": 87755, "\u00e4\u00bd\u0135\u00e7\u0130\u00b0\u00e5\u0129\u00ba": 88107, "\u0120offset": 8811, "\u0109switch": 41780, "\u00d0\u00a4\u00d0\u00b0\u00d0\u00bc\u00d0\u00b8\u00d0\u00bb\u00d0\u00b8\u00d1\u0131": 55033, "arella": 60633, "isomorphism": 91639, "\u00e8\u00be\u00be\u00e5\u012a\u00b0\u00e4\u00ba\u0128": 29634, "\u0120naturals": 37402, "act": 622, "\u00e5\u0127\u00ac\u00e5\u0131\u00b8": 2814, "\u0120BY": 9781, "\u00e7\u00a9\u00b7": 18901, "\u00e5\u0128\u00ac\u00e5\u00a4\u00a9": 31832, "\u0120Hebrew": 34625, "\u00e7\u013c\u0126\u00e4\u00bb\u00b7\u00e6\u0142\u00bc": 27392, "approximately": 65493, "contenedor": 63731, "Quit": 65631, "\u0120educators": 42661, "\u00e6\u00b4\u00bb\u00e8\u00a1\u0122": 77332, "\u0120newcomers": 79267, "\u0120croats": 87561, "\u00e9\u013c\u0136\u00e5\u00a3\u0123": 89430, "\u00e7\u0124\u00b8\u00e5\u00bc\u00b9": 89466, "\u00d1\u0123\u00d1\u0124\u00d1\u012c": 16417, "Usage": 25097, "\u0120clown": 67878, "Columbia": 93855, "\u0120radi": 14790, "\u0120veto": 58940, "ITED": 71721, "\u0120Campbell": 28979, "\u0120Els": 5041, "\u0120predictive": 38675, "\u0120inclusive": 30340, "\u0120marginalized": 93823, "\u00e7\u0141\u013d": 22578, "ofo": 94295, "vest": 7034, "\u0120coincident": 95863, "\u0120unconscious": 26369, "\u00e5\u013e\u0141": 5708, "\u0120Stocks": 96473, "\u0120\u00d1\u0126\u00d1\u0125\u00d0\u00bd\u00d0\u00ba\u00d1\u0128\u00d0\u00b8\u00d0\u00be\u00d0\u00bd\u00d0\u00b8": 83325, "\u00d0\u00b8\u00d0\u00b7\u00d1\u0124\u00d0\u00be\u00d1\u0129\u00d0\u00bd\u00d0\u00b0": 59232, "Datas": 59008, "\u0120fluct": 15707, "\u0120vern": 68681, ",->]": 72244, "ientras": 57065, "\u0120SIGMA": 59200, "\u0120dere": 41807, "BROWSER": 91975, "\u0120\u00d0\u00bb\u00d0\u00b8\u00d0\u00bd": 75006, "\u0120Michel": 20576, "\u0120LS": 39332, "essels": 66249, "\u0120glaciers": 90519, "\u0120Serrano": 90001, "\u00e5\u0124\u00a8\u00e8\u0135\u0126": 86384, "Particip": 29351, "\u00e6\u013e\u012b\u00e4\u00b8\u0122\u00e4\u00bd\u012f": 66150, "\u0120tres": 6141, "\u0120\u00d0\u00b4\u00d1\u0125\u00d0\u00bc\u00d0\u00b0": 74894, "\u0120temes": 29125, "ec": 869, "\u0120finances": 35538, "\u00d0\u00b7\u00d0\u00bd\u00d0\u00b0\u00d1\u0124\u00d0\u00b0": 81337, "\u0120seminal": 76967, "Ups": 86791, "\u0120Ramb": 56918, "\u0120CSR": 70370, "aC": 14868, "\u0120Ah": 14096, "enar": 28781, "formula": 38061, "\u00e4\u00b8\u012f\u00e8\u012a\u0134\u00e6\u013e\u012f": 65396, "\u0120Bri": 48227, "\u00e8\u00a9\u00b9": 31765, "\u0120savour": 83801, "\u0120denies": 67000, "\u0120Chancellor": 47175, "\u0120attribution": 74591, "\u00e6\u0125\u00b3\u00e5\u0130\u00bb": 66285, "anim": 10193, "\u00e4\u00b8\u0122\u00e4\u00b8\u00aa\u00e5\u00b0\u0131": 42279, "getNum": 79324, "DO": 8447, "\u00e9\u00ab\u013a\u00e6\u00b8\u00a9": 36223, "\u0120\u00d0\u00bf\u00d1\u0122\u00d0\u00b5": 1692, "\u0120plugs": 55155, "\u0120Walsh": 58481, "ner": 1341, "\u0120Bills": 70381, "\u0120Husband": 71772, "\u0120gm": 83795, "servicio": 89462, "\u00e6\u00ba\u0125\u00e7\u0138\u00a1": 54944, "\u0120empie": 89238, "\u0120oxy": 93871, "bv": 38044, "\u00e9\u0125\u00bd\u00e6\u00b2\u00a1\u00e6\u013e\u012b": 19869, "\u00e7\u00ac\u00ac\u00e4\u00ba\u0136": 24630, "\u00e4\u00b8\u0122\u00e5\u00ba\u00a6": 33491, "\u0120cigarettes": 49308, "ccoli": 55934, ";;": 32491, "\u0120competir": 37455, "\u0120lloc": 7725, "hurst": 43243, "\u00e5\u0132\u012a\u00e5\u012c\u013d": 62561, "\u0120predicts": 43061, "\u0120disciplina": 70538, "\u0120EMC": 78468, "\u0120Ever": 21938, "\u0120feta": 37036, "Roine": 79353, "\u0120Epson": 80671, "winner": 84069, "\u00e7\u013c\u0126\u00e5\u013d\u00bd\u00e9\u013b\u0127": 88779, "Introducing": 90188, "\u0120possible": 2198, "\u0120legislatura": 83052, "\u0120Checks": 47445, "\u0120Deleg": 65482, "\u0120mantel": 76426, "\u00e4\u00b9\u0132\u00e5\u013b\u00a8": 91144, "\u00d1\u0124\u00d0\u00b0\u00d0\u00bb\u00d0\u00b8\u00d1\u0131": 22015, "answer": 28439, "\u00e5\u00b2\u0123\u00e7\u013c\u0126": 17176, "\u0120elim": 32827, "\u0120\u00d0\u00be\u00d1\u0123\u00d0\u00bc\u00d0\u00b0\u00d0\u00bd": 46441, "\u00e9\u0129\u0133\u00e6\u013a\u0141": 93459, "\u00e8\u00a1\u012e\u00e7\u00a8\u012d": 48962, "\u0120investigacions": 67001, "\u0120compon": 3548, "\u0120completed": 8002, "\u0120Territory": 55048, "\u00e5\u0141\u0125\u00e5\u0131\u012c": 76665, "\u0120londin": 84027, "\u0120difficulty": 11437, "\u0120>&": 94251, "cision": 84680, "\u0120Gar": 11290, "\u00e6\u00a7\u013d": 43823, "\u0120timelines": 98487, "Fs": 37091, "\u0120\u00d0\u0141\u00d0\u00b0\u00d1\u0122\u00d0\u00b8": 34987, "\u00e5\u0128\u0127\u00e5\u012a\u0128\u00e6\u00b3\u012e": 63865, "\u0120engage": 16444, "\u00e7\u00bb\u00bf": 7944, "ACLE": 70472, "SQLite": 84113, "\u0120incorporate": 23647, "ractor": 28226, "hearted": 27325, "\u0120proclaimed": 47882, "\u00e6\u013a\u00af\u00e4\u00b8\u0122\u00e4\u00bb\u00b6": 54169, "\u0120Loud": 65613, "\u0120roads": 16672, "diques": 59191, "\u00d0\u0134": 3774, "andin": 41392, "\u0120propos": 8537, "\u0120chunks": 34717, "\u00d0\u013e\u00d1\u0125": 45092, "\u00d0\u00bd\u00d0\u00b5\u00d1\u0131": 66876, "\u00e5\u012c\u00a3\u00e5\u012c\u00bf": 88343, "\u0120scanners": 89842, "\u0120Sara": 37861, "\u0120sleeping": 17483, "\u00e5\u012a\u00ab\u00e8\u00af\u00b4": 74111, "plans": 68378, "\u0120Face": 7335, "\u0120sensing": 35270, "\u00e6\u00a8\u012c": 69612, "\u00e6\u0139\u0142\u00e7\u0139\u013d\u00e4\u00ba\u00ba\u00e6\u00b5\u0123": 93754, "$|\\": 87906, "\u00e4\u00b8\u0122\u00e4\u00bc\u013c\u00e5\u0126\u00bf": 48201, "\u0120attained": 32308, "UG": 34654, "\u0120caves": 52441, "\u00e5\u012a\u013d\u00e6\u0138\u00b0\u00e5\u012a\u013d\u00e4\u00b8\u013c": 74689, "\u0120\u00d0\u00bf\u00d0\u00be\u00d0\u00bb\u00d0\u00b5\u00d1\u0124\u00d0\u00b0": 78108, "LineNo": 89182, "\u0120kh": 46740, "irling": 36779, "\u00e6\u00b6\u012b\u00e5\u00ab\u012e": 37395, "Economia": 24003, "xiller": 89894, "osse": 96401, "\u00e9\u0122\u0122\u00e7\u00a8\u0130": 99961, "~~~~~~~~~~~~~~~~~~~~~~~~~~~~~~~~": 98127, "Until": 30733, "Showing": 58396, "\u0120SMD": 72633, "\u00e5\u0136\u0132\u00e6\u013e\u013f": 76322, "Det": 7973, "\u0120Perhaps": 13394, "\u00e8\u012f\u00a3\u00e8\u0122\u0122": 25799, "\u00e7\u013c\u0126\u00e6\u0139\u00b6\u00e9\u0139\u00b4\u00e9\u0129\u012e": 99667, "\u0120Roberts": 32779, "Swap": 52275, "\u00e5\u0128\u013b\u00e5\u0129\u00ba": 91033, "hand": 4567, "\u0120briefing": 71497, "\u0120bulletin": 80541, "\u0120astrology": 88415, "\u0120tub": 12468, "\u0120forthwith": 69487, "\u0120shameless": 87504, "\u00e7\u013c\u0126\u00e8\u00a1\u00a8\u00e7\u0130\u00b0": 29904, "\u0120endangered": 60130, "cw": 68050, "\u0120preguntas": 83783, "jes": 55487, "\u0120throttle": 59417, "\u00c5\u013b\u00c3\u00a1": 99016, "Sil": 24298, "psline": 27471, "\u00e8\u012a\u00aa\u00e7\u00a9\u00ba\u00e5\u0127\u00ac\u00e5\u0131\u00b8": 76745, "IT": 2117, "\u0120Clubs": 65370, ")}": 2866, "\u0120tart": 44196, "\u0120\u00d1\u0127\u00d0\u00b0\u00d1\u0122\u00d0\u00b0\u00d0\u00ba": 27050, "\u0120inferior": 18094, "Controllers": 70602, "\u00e8\u0126\u0124": 12862, "\u00e7\u0130\u00a9\u00e5\u00ae\u00b6": 13849, "FIRST": 50385, "ada": 1064, "awan": 93717, "acks": 8428, "\u0120walls": 9906, "}{*": 22265, "har": 13192, "\u0120copies": 15334, "Pane": 25381, "\u0120abused": 46483, "\u0120interna": 51066, "\u00e6\u00b2\u00a1\u00e6\u013e\u012b\u00e5\u012c\u0140\u00e6\u00b3\u0137": 78285, "ugu": 23010, "iid": 88659, "Certain": 81024, "\u0120destructor": 97039, "\u0120carried": 7452, "\u00e4\u00ba\u00ba\u00e9\u0125\u00bd": 26953, "\u00e5\u0127\u00b1\u00e6\u013e\u012b": 28900, "INCREMENT": 44658, "\u00e5\u0128\u013e\u00e5\u0130\u0128": 59292, "\u00e8\u013b\u00bd\u00e8\u00af\u00b4": 54423, "\u0120nautilus": 40699, "\u00e5\u0127\u00ac\u00e6\u00b0\u0133": 40908, "\u0120heart": 2997, "\u0120Feed": 27197, "\u0120McL": 48992, "definitions": 65900, "\u0120\u00d0\u00bf\u00d1\u0122\u00d0\u00b5\u00d0\u00b2\u00d0\u00be": 70084, "\u00e5\u013d\u0140\u00e5\u012a\u00b0": 19768, "\u0120Sally": 35287, "\u0120controversy": 35350, "\u0120assistir": 48874, "\u0120New": 2006, "Galeria": 55458, "interpre": 81850, "\u00e8\u00bf\u0129\u00e9\u0136\u013b": 66595, "omor": 85102, "\u00e5\u012f\u0123\u00e5\u013d\u013d": 43167, "hao": 42632, "dew": 63971, "\u0120confirm": 9143, "\u0120anonymous": 28589, "ater": 988, "\u0120functionality": 14853, "\u00e6\u013b\u00af\u00e7\u0124\u00b9": 37047, "\u0120neutrinos": 44503, "UME": 55129, "Otherwise": 47701, "\u0120Recommends": 88022, "\u0120wedges": 91580, "\u00e6\u013e\u0122\u00e5\u0132\u0130\u00e4\u00b8\u0122\u00e6\u00ac\u00a1": 92274, "Viv": 93309, "roquois": 95160, "\u00e6\u00b6\u012b": 10470, "\u00e5\u012c\u0142\u00e5\u00b7\u00a5": 21380, "UIT": 59785, "haha": 85091, "vr": 26875, "notin": 31013, "\u0120GMT": 40860, "\u0120Linux": 7626, "\u0120eloqu": 31517, "\u0120kan": 38779, "\u0120transformers": 53142, "WAYS": 56490, "paid": 30868, "heartedly": 92486, "Styles": 40719, "\u0120ballar": 79938, "\u0120raging": 58838, "\u0120from": 473, "\u0120recursos": 32420, "\u00e5\u012c\u0142\u00e4\u00b8\u012c": 14855, "\u0120az": 23784, "\u0120cardio": 70307, "\u0120blender": 55536, "\u0120Connected": 62760, "Luck": 64601, "\u0120SPA": 93481, "\u0120puny": 97983, "ellites": 41463, "buntu": 2531, "\u0120literary": 19580, "aru": 40422, "\u0120Hawai": 22883, "KB": 30731, "\u0120reserved": 14621, "\u0120gly": 44197, "newline": 29209, "\u00e6\u00a6\u013e": 16154, "pendix": 16283, "Destroy": 37171, "lyphicon": 24585, "\u0120climax": 66526, "\u00d0\u00bd\u00d1\u0131\u00d1\u0124": 79672, "\u00e5\u013e\u00a8\u00e5\u013e\u00ba": 89203, "arc": 1809, "\u0120anything": 3270, "\u0120verd": 25327, "\u00e6\u00b2\u00a1\u00e6\u013e\u012b\u00e4\u00ba\u0128": 47863, "\u0120scratching": 62365, "\u0120ethanol": 71538, "\u00e5\u013e\u012a": 8274, "\u0120mim": 29708, "curve": 35652, "\u0120textarea": 68644, "\u00e6\u013e\u012b\u00e4\u00b8\u0122\u00e4\u00b8\u00aa": 16628, "\u0120MLB": 61495, "\u0120\u00d0\u00b5\u00d0\u00ba\u00d1\u0123\u00d0\u00bf\u00d0\u00b5\u00d0\u00b4\u00d0\u00b8": 59777, "Trap": 99588, "\u00e6\u0131\u0132\u00e8\u00b5\u00b7": 35397, "\u0120Resolution": 39990, "\u0120wrinkled": 79410, "\u0120thrown": 13188, "\u0120landing": 20918, "\u0120Neutral": 77535, "\u00e7\u012a\u00b6\u00e4\u00ba\u00b2\u00e7\u013c\u0126": 83877, "\u0120\u00d0\u0133\u00d1\u0130": 85740, "\u0120intently": 67601, "\u0120fathom": 84460, "\u0120aesthetic": 29747, "\u00e8\u0126\u0135": 73069, "uncertainty": 88749, "\u0120anyway": 12344, "\u0120assigns": 54309, "\u00e8\u013c\u0124\u00e8\u013c\u0123": 66227, "\u0120tipping": 85505, "\u0120Berry": 38467, "\u0120NAVBAR": 29323, "\u00e6\u012a\u012a": 36702, "\u0120barb": 41672, "('<": 31876, "\u00e8\u00ae\u00a8\u00e8\u00ae\u00ba": 21068, "\u0120Paran": 94813, "\u0120satisf": 3878, "\u0120starting": 5872, "\u0120arduous": 78155, "capacity": 41692, "\u0120adopts": 72325, "\u0120Vul": 53475, "\u0120nightmares": 98792, "\u0120drets": 22741, "\u0120instructions": 9454, "\u00e4\u00bc\u013c\u00e5\u00af\u00b9": 44568, "\u0120galaxies": 13634, "Prin": 60729, "\u0120inaugural": 51983, "\u0120sausage": 51098, "\u0120ma": 5482, "\u0120doubly": 52812, "\u0120bilinear": 60555, "\u0120\u00d0\u00ba\u00d0\u00be\u00d0\u00bc\u00d0\u00b8\u00d1\u0124\u00d0\u00b5\u00d1\u0124": 42421, "umblebee": 68658, "\u00e6\u013e\u0122\u00e4\u00b8\u00bb\u00e8\u00a6\u0123": 82161, "\u0120correspon": 18477, "\u0120notification": 19005, "\u00e7\u0132\u0128\u00e5\u00b7\u00a5\u00e5\u00a4\u00a7\u00e5\u0143\u00a6": 82988, "\u0120hijack": 89303, "\u00e8\u00aa\u012b": 15839, "\u0120bed": 3853, "\u0120Emirates": 68541, "\u0120Hospitals": 83588, "\u0120paypal": 98688, "\u0120\u00d0\u00be\u00d0\u00b1\u00d1\u0123\u00d0\u00bb\u00d1\u0125": 84692, "\u0120moderated": 91137, "\u00e4\u00b8\u012f\u00e5\u00bf\u012f": 87977, "\u0120calendar": 16520, "facet": 78582, "\u0120\u00d0\u00b8\u00d0\u00b7\u00d0\u00b4\u00d0\u00b8\u00d0\u00b3\u00d0\u00b0": 76648, "\u0120Rash": 63597, "\u0120guitars": 65199, "\u0120mantenir": 20668, "\u0120\u00d0\u00bd\u00d0\u00b0\u00d0\u00b3\u00d1\u0122\u00d0\u00b0\u00d0\u00b4\u00d0\u00b8": 47511, "\u00e8\u0128\u0131": 31288, "\u00e7\u013c\u0126\u00e5\u013e\u00b0": 36257, "idelity": 26570, "estudi": 23292, "\u0120depot": 40296, "lite": 51622, "alternative": 68816, "\u0120Kes": 81243, "\u0120Arcade": 81370, "McC": 84496, "\u00e6\u0137\u013b\u00e5\u00ae\u00a4": 45435, "Esports": 94253, "\u00e4\u00ba\u00ba\u00e7\u00be\u00a4": 25706, "\u00e7\u0125\u00a7\u00e7\u0125\u00a4": 67152, "\u0120assessing": 46927, "Dr": 10167, "\u00d0\u00bc\u00d0\u00b0\u00d0\u00b9\u00d0\u00be\u00d1\u0122": 63650, "\u00e4\u00b8\u012f\u00e8\u00a6\u0123\u00e5\u0128\u012f": 85199, "eded": 50913, "eo": 34497, "scrollbar": 85906, "identification": 79599, "AG": 4592, "\u0109</": 5380, "\u0120Persia": 67352, "scaled": 58697, "\u0120swapped": 64055, "\u0120pendant": 49062, "\u0120\u00d0\u00b7\u00d0\u00b0\u00d0\u00bf\u00d0\u00be": 10595, "\u00e4\u00be\u013d\u00e7\u00bb\u013b": 37456, "MAIL": 45159, "coordinates": 49900, "\u0120positional": 71288, "\u00e4\u00ba\u0128\u00e4\u00b8\u0122\u00e5\u00a4\u00a7": 88549, "\u0120operations": 7772, "Mel": 29652, "\u00e8\u0124\u0138": 22116, "\u0120Zen": 35855, "\u0120Vamp": 62782, "\u00e6\u00b7\u00bb": 15893, "ilies": 79625, "\u00e7\u0139\u00a3": 90078, "\u0120strategic": 18549, "\u0120Bates": 62229, "\u0120unconstrained": 90453, "\u00e6\u00b3\u00aa": 17897, "\u0120funcions": 28228, "\u0120theology": 45050, "\u0120Jacksonville": 60552, "abe": 23606, "ubs": 20812, "Inter": 5328, "\u0120update": 3979, "\u0120namely": 15637, "\u0120%%": 90801, "onde": 28411, "\u00e5\u0138\u0122": 69873, "Feb": 17820, "phalt": 48127, "vin": 12180, "\u0120\u00d0\u00bd\u00d0\u00b0\u00d0\u00bc\u00d0\u00b0\u00d0\u00bb\u00d1\u0131\u00d0\u00b2\u00d0\u00b0": 64802, "ippet": 32881, "\u00e5\u00b0\u0128\u00e4\u00bc\u013c": 18950, "ifying": 6520, "\u0120thresholds": 46113, "\u0120relleus": 73093, "occo": 42147, "\u0120gravats": 90955, "\u0120standout": 81959, "otherapy": 29679, "\u00e5\u0123\u00bf\u00e8\u00bf\u013a": 64615, "\u0120ToString": 98009, "Bre": 19213, "\u0120Tickets": 38497, "\u0120ul": 18416, "\u0120Ultimate": 39770, ")$]": 85815, "\u0120polls": 43425, "\u0120Force": 18095, "station": 21189, "\u0120REL": 51581, "UNG": 55761, "\u0120\u00d0\u0140\u00d0\u00b4\u00d1\u0122\u00d0\u00b8": 85084, "\u0120dais": 94565, "\u0120Sam": 7421, "Net": 6431, "\u0120Linked": 26777, "State": 4438, "\u00e7\u0124\u013b": 81778, "\u0120\u00d1\u012b\u00d0\u00b0\u00d0\u00b1": 80695, "displaystyle": 17799, "\u00e7\u013c\u0126\u00e6\u012b\u012d\u00e6\u00ae\u00b5": 94969, "\u0120resumes": 61289, "\u00e7\u013c\u0126\u00e8\u0129\u00aa\u00e7\u0126\u00b6": 80895, "\u00e6\u012b\u012d\u00e4\u00b8\u012c": 59130, "\u0120Huss": 75666, "Latency": 83347, "Rachel": 76727, "\u0120shave": 71567, "\u00d0\u00bc\u00d1\u012c\u00d0\u00bd": 36595, ".$$": 25058, "\u00e9\u0122\u00bb": 25776, "\u00e9\u013a\u00bf\u00e5\u00a7\u00a8": 45700, "\u00e9\u0136\u00a6": 21481, "\u0120brain": 9290, "\u00e8\u00a6\u0123\u00e6\u012c\u012c": 41937, "\u0120fluids": 41886, "\u0120hazardous": 45086, "\u0120includes": 5312, "\u00e5\u013e\u00b3": 15536, "\u0120Coordinator": 46535, "Widget": 14178, "population": 46611, "\u0120\u00d1\u0122\u00d0\u00b5\u00d0\u00ba\u00d0\u00b0\u00d1\u0124\u00d0\u00b0": 48247, "\u0120Finger": 61427, "\u00e7\u00a7\u00bb\u00e5\u012c\u00a8": 16502, "get": 708, "\u0120clo": 25985, "STRU": 32410, "\u00e7\u00a5\u0140\u00e7\u00a7\u013a": 35582, "\u0120Hanover": 66729, "\u0120Legal": 29243, "\u0120bitcoin": 43209, "\u00e4\u00bf\u00ae\u00e5\u00a4\u012f": 28547, "\u00e5\u00a4\u0131\u00e5\u00a4\u00a9": 27604, ",@": 53534, "\u00e4\u00ba\u00ba\u00e5\u00b1\u0127": 76670, "\u0120reinforced": 49161, "\u0120Packet": 66852, "idences": 56167, "\u0120Around": 37332, "LC": 9561, "\u0120vb": 47929, "favicon": 43645, "\u0120vernacular": 94681, "\u0120Select": 13144, "\u0120pores": 57501, "\u0120finalist": 94116, "\u0120LOCK": 63287, "\u0120\u00d0\u00b1\u00d1\u0122": 80742, "\u00e8\u012c\u00b9\u00e8\u0131\u013e": 78635, "\u0120logs": 17143, "\u00e5\u00bb\u00ba\u00e8\u00ae\u00ae": 10597, "\u0120showcase": 32571, "\u0120velocitat": 26060, "\u0120registros": 33148, "\u0120Paddy": 91584, "\u0120partnering": 67935, "\u00e5\u00be\u012a\u00e5\u00a4\u013c\u00e7\u0130\u00a9\u00e5\u00ae\u00b6": 98768, "doch": 89464, "hereafter": 88841, "\u0120\u00d0\u00bf\u00d0\u00be\u00d0\u00bb\u00d1\u0125\u00d0\u00be": 56862, "\u0120shown": 3707, "\u0120\u00d0\u0141\u00d0\u00b5": 11507, "\u0120confidential": 28383, "orna": 68308, "\u00e5\u012a\u0129\u00e5\u012b\u00b2": 72999, "jdk": 30435, "\u0109\u0120\u0120": 32458, "\u0120adoption": 24842, "urious": 19434, "\u0120startActivity": 88149, "\u0120escl": 29873, "\u0120HEN": 76979, "\u0120\u00d1\u0122\u00d0\u00b8\u00d0\u00bc": 41084, "\u00d1\u0125\u00d1\u0123": 22373, "\u0120$+": 60970, "\u0120Fill": 32657, "\u0120Rodney": 70667, "\u0120atmosp": 11242, "altered": 87225, "AGG": 87342, "\u00e5\u0134\u012e\u00e7\u013f\u00a6": 92931, "loqu": 29147, "\u0120affords": 58870, "INTERFACE": 71585, "\u0120ejecta": 80329, "\u00e8\u00ae\u00bf\u00e8\u00b0\u012a": 96375, "\u00e7\u013c\u0126\u00e6\u00b3\u0137\u00e5\u00be\u012d": 87206, "\u00e6\u012d\u00a5\u00e6\u013e\u012b": 9476, "\u0120lore": 63618, "\u00e6\u013e\u012b\u00e5\u0127\u00b3\u00e8\u00a7\u0126\u00e5\u00ae\u013c": 68697, "\u0120chewing": 67514, "\u00e9\u013a\u00b2\u00e6\u00b2\u00bb": 33258, "\u0120nevertheless": 23173, "\u0120infinitesimal": 63794, "riz": 9542, "\u00e7\u013c\u0126\u00e4\u00bb\u00a3\u00e8\u00a1\u00a8": 84970, "\u00d0\u00ba\u00d1\u0124\u00d0\u00bd\u00d0\u00be": 76251, "\u0120Soap": 73817, "espai": 27651, "\u0120DataFrame": 85769, "\u0120glaci": 71840, "\u0120tenga": 44832, "\u00e6\u00b3\u0137\u00e5\u00ae\u013a": 45900, "Pope": 83426, "anque": 77903, "\u00e7\u00ae\u00a1\u00e5\u00a7\u0136\u00e4\u00bc\u013c": 82981, "\u0120thrice": 66110, "cea": 84859, "\u00e4\u00bd\u0128\u00e5\u0127\u00b6\u00e5\u00ae\u0140": 68624, "qualities": 73871, "\u00e9\u0122\u00be": 37438, "\u0120AND": 5597, "\u00e9\u00a9\u00ac\u00e6\u012d\u012b": 44583, "\u0120polyester": 54294, "\u0120Mills": 36220, "\u00e9\u0122\u012b\u00e6\u012d\u00a9\u00e7\u013c\u0126": 66622, "\u0120\u00d0\u00bd\u00d1\u0131\u00d0\u00bc\u00d0\u00b0\u00d1\u0124": 85546, "\u00e5\u0123\u0131\u00e7\u00a6\u00bb": 91228, "\u00e4\u00bc\u0133": 9153, "\u0120PHP": 14051, "Compos": 24978, "\u0120substitutions": 89326, "\u00e6\u013d\u00bf\u00e6\u012f\u00a2": 95569, "\u00e5\u00a5\u00bd\u00e7\u0130\u00a9": 87627, "scale": 6706, "brace": 12978, "\u0120glittering": 52813, "\u0120admon": 60126, "Klein": 97969, "\u0120peasants": 53960, "\u0120Gifts": 56898, "\u0120SSMS": 58770, "\u00e8\u0131\u013e\u00e5\u012f\u0137": 67137, "','$": 73244, "sdb": 25254, "\u00d1\u0123\u00d1\u0125": 19816, "\u0120LL": 27344, "}}}{\\": 39624, "\u0120exclamation": 49121, "\u0120hypertension": 69330, "\u00e5\u00be\u013a\u00e5\u00be\u012c": 83507, "\u0120\u00d0\u00bf": 619, "\u0120\u00d0\u0134\u00d0\u00bf\u00d0\u00be\u00d1\u0123\u00d0\u00bb\u00d0\u00b5\u00d0\u00b4\u00d1\u0123\u00d1\u0124\u00d0\u00b2\u00d0\u00b8\u00d0\u00b5": 89216, "\u00e5\u013e\u00a8\u00e8\u00bf\u013b\u00e4\u00ba\u013d": 75346, "}}}}": 41467, "\u0120Juliet": 52104, "\u0120governador": 27897, "doesn": 61822, "Ak": 47174, "\u0120Sovi": 32915, "\u0120celestial": 53978, "Nas": 78200, "\u00e5\u00b9\u00b2\u00e5\u013a\u013d": 86306, "\u0120Milo": 86513, "regi": 81121, "\u0120ghostly": 86888, "\u00e5\u013d\u00b0\u00e9\u013c\u00be": 14865, "\u0120puedo": 17127, "\u00d0\u00bb\u00d0\u00b5\u00d0\u00bd\u00d0\u00b1\u00d1\u0125\u00d1\u0122\u00d0\u00b3": 67100, "\u0120adel": 89363, "\u0120TED": 80585, "\u0120attachment": 24930, "\u00e5\u00bf\u0125\u00e4\u00b8\u0143\u00e7\u013c\u0126": 48802, "agall": 95012, "\u0120Beck": 27005, "\u00e8\u00b6\u0127\u00e5\u0129\u00ba": 59170, "migration": 60529, "EY": 13493, "\u0120franquisme": 72285, "\u00e8\u0125\u0140": 14942, "\u0120gifts": 15413, "\u0120\u00d0\u00bd\u00d0\u00b0\u00d1\u0122\u00d0\u00b5\u00d1\u0129\u00d0\u00b5\u00d0\u00bd\u00d0\u00b8": 99289, "asts": 11821, "ker": 8141, "Batch": 26626, "\u00e6\u013a\u00af\u00e5\u00a4\u00a7": 42556, "\u00e8\u00b6\u0127\u00e8\u00b6\u012c": 29230, "\u0120aunque": 51248, "Gas": 57233, "\u00d1\u0124\u00d0\u00bd\u00d0\u00be\u00d1\u0124\u00d0\u00be": 76229, "agoons": 81726, "\u0120bishop": 31791, "cow": 53668, "\u0120telecommunications": 69230, "insp": 47851, "\u0120bloque": 37601, "\u0120inactive": 39830, "\u0120comforted": 72883, "environ": 75161, "\u0120oce": 41322, "\u0120hypocrisy": 77155, "\u0120DBMS": 75744, "\u0120dieta": 84838, "Hem": 93453, "\u00e4\u00bb\u0130\u00e8\u0122\u012e": 14685, "\u0120Team": 11701, "\u00e6\u013a\u0141\u00e6\u013e\u0141": 32145, "\u0120\u00d1\u0123\u00d0\u00b8\u00d1\u0123\u00d1\u0124\u00d0\u00b5\u00d0\u00bc\u00d0\u00b8": 53206, "\u0120Jesuits": 78255, "\u0120bathrooms": 37162, "frica": 15545, "isation": 8210, "uter": 36954, "encrypted": 49789, "\u0120inhabited": 52090, "\u0120circus": 53081, "\u0120combustible": 57085, "Reason": 27036, "ance": 649, "\u00e6\u0122\u00a7\u00e6\u0142\u00bc": 22619, "\u0120memoria": 41832, "\u00e7\u0136\u0141\u00e6\u00b4\u00bb\u00e4\u00b8\u0143\u00e7\u013c\u0126": 58729, "\u00e8\u00bd\u00ac\u00e5\u0140\u012d\u00e5\u012f\u0129\u00e7\u00ba\u00a7": 60662, "\u0120Trade": 22573, "['": 3215, "\u00e8\u0123\u012e\u00e4\u00b8\u013c\u00e7\u0136\u0141\u00e6\u00b6\u00af": 60735, "\u0120penetrating": 66257, "\u0120Gramm": 80619, "\u0120Fr": 1858, "\u00e5\u00af\u0128\u00e5\u00ba\u00a6": 44728, "\u00e5\u00b0\u00b1\u00e6\u013a\u00af\u00e4\u00bd\u0142": 93220, "\u0120stalk": 41753, "\u0120Studios": 35880, "endants": 56501, "\u0120jurisdic": 59326, "$)": 7716, "\u0120germs": 65204, "\u0120betwixt": 88796, "\u00e5\u00b0\u00b1\u00e5\u00be\u0139": 62225, "Excellent": 44974, "\u00e6\u00b8\u00a9\u00e5\u0134\u012e": 52004, "\u00d0\u00bf\u00d0\u00b5\u00d1\u0122\u00d0\u00ba\u00d0\u00b0": 85745, "nullable": 58445, "reload": 44586, "\u0120Conquest": 89846, "\u00e6\u00b0\u0133\u00e4\u00bf\u0139": 56386, "\u00e7\u0123\u00ab\u00e4\u00ba\u0128": 82277, "oping": 18131, "\u0120firstly": 59688, "flag": 19656, "\u0120podien": 36700, "\u0120\u00d1\u0124\u00d0\u00b0\u00d0\u00b7\u00d0\u00b8": 19787, "\u00e7\u0143\u0138": 5874, "subsec": 22174, "\u0120big": 2567, "\u00e4\u00b8\u0122\u00e6\u0138\u00b9\u00e9\u013f\u00a2": 28655, "\u00e9\u0134\u00a5\u00e5\u012e\u013b": 47523, "\u0120Beast": 54538, "\u0120reciproc": 61951, "={\\": 38660, "ROUP": 18278, "\u0120posture": 43891, "ListItem": 64157, "\u00e7\u00ae\u0122": 5449, "emies": 58424, "Gene": 64564, "\u0120no": 642, "\u0120mouths": 47396, "\u00e6\u0143\u00a4\u00e4\u00b8\u00be": 86250, "\u0120happenings": 87388, "\u00d0\u00b4\u00d0\u00b8\u00d1\u0124\u00d0\u00b5\u00d0\u00bb\u00d0\u00b8": 59636, "\u0120\"$": 12474, "Enter": 14609, "\u0120dm": 48813, "\u00d0\u00b2\u00d1\u0122\u00d0\u00b8": 6179, "\u0120speedup": 98530, "cN": 87924, "\u0120\u00d0\u00b5\u00d1\u0123\u00d0\u00ba\u00d0\u00b0": 79175, "\u0120Niem": 87909, "\u0120divid": 19675, "abund": 46222, "\u00d0\u00bc\u00d0\u00b8\u00d0\u00bd\u00d0\u00b0": 13017, "Filmografia": 53296, "\u00e6\u00b7\u012d\u00e6\u00bc\u0135\u00e5\u00b0\u00bd\u00e8\u0129\u00b4": 91152, "\u0120moving": 6546, "\u0120calling": 9609, "\u00eb\u012d": 39537, "\u0120Days": 25452, "\u0120jewellery": 49485, "$$": 3539, "\u0120http": 4087, "\u00e7\u00a7\u00bb\u00e6\u00b0\u0133": 37430, "tls": 50325, "\u00d1\u0124\u00d0\u00b8\u00d0\u00bd\u00d1\u0123\u00d0\u00ba\u00d0\u00b8": 56633, "\u00e5\u013f\u0131\u00e4\u00ba\u0128": 57515, "\u00e8\u00bd\u00b0": 31573, "\u0120parte": 23635, "\u0120\u00d0\u00bd\u00d0\u00b0\u00d0\u00bf\u00d1\u0122\u00d0\u00b5\u00d0\u00b4": 69684, "\u0120prophetic": 73583, "adjusted": 77223, "Whole": 96311, "\u0120Iranian": 50933, "\u0120\u00d0\u00bf\u00d0\u00be\u00d1\u0123\u00d0\u00b5\u00d1\u012b\u00d0\u00b0\u00d0\u00b2\u00d0\u00b0": 66226, "\u0120\u00d0\u00a4\u00d1\u0122\u00d0\u00b0\u00d0\u00bd\u00d0\u00ba": 66549, "BD": 15386, "\u0120toured": 89762, "\u0120revenue": 13986, "\u0120break": 2973, "\u0120Honor": 32696, "\u0120prueba": 44341, "\u00d0\u00b5\u00d0\u00bb\u00d0\u00b5": 9783, "\u0120\u00d0\u013f\u00d0\u00b0\u00d1\u0128\u00d0\u00b8\u00d0\u00be\u00d0\u00bd\u00d0\u00b0": 31449, "irma": 32590, "entire": 41551, "Intel": 35562, "\u0120Earlier": 63014, "\u0120partides": 84516, "\u0120raising": 17811, "\u0120wird": 90932, "ashore": 90995, "\u0120electoral": 37821, "\u0120Day": 6617, "sorrow": 90018, "\u0120futuristic": 95159, "\u00e2\u0138\u00ba": 83483, "state": 4979, "\u0120Aquesta": 13501, "DEC": 67697, "\u00e0\u00a4\u00b2": 92940, "\u00e4\u00ba\u012d\u00e5\u00ae\u0140\u00e4\u00b8\u012c": 27429, "parent": 4895, "destroy": 22386, "CID": 74932, "\u0120yards": 14084, "\u0120concat": 65278, "\u00e5\u00be\u0123\u00e4\u00bf\u00a1": 92244, "\u0120LIN": 46853, ".{": 54784, "\u0120skipped": 42913, "\u00d0\u00b1\u00d0\u00b0\u00d0\u00bd\u00d0\u00b8": 50520, "\u00e4\u00bd\u0128\u00e6\u013a\u00af\u00e5\u012f\u00b4": 70895, "\u00e8\u0124\u0128": 44753, "\u00d1\u0126\u00d0\u00b5\u00d1\u0122\u00d0\u00b5\u00d0\u00bd": 45958, "\u0120WM": 52585, "\u0120problems": 4194, "Depends": 82960, "ikipedia": 14854, "overty": 17972, "\u00e8\u012a\u0134\u00e9\u0122\u0124": 19569, "ink": 796, "\u0120incent": 22993, "insky": 45556, "---+--------": 65205, "bulk": 47095, "weets": 60864, "Orders": 65576, "\u0120Florent": 67166, "\u00d0\u00b4\u00d0\u00b8\u00d1\u0122": 34643, "\u0120Gran": 9231, "\u0120\u00ce\u00b1": 36268, "\u0120\u00d0\u00be\u00d0\u00b1\u00d0\u00b8": 18631, "\u0120\u00d0\u0133\u00d0\u00b0\u00d1\u0122\u00d0\u00b1\u00d0\u00b0": 83942, "accomplished": 85589, "anomenada": 55053, "\u0120safely": 15712, "\u0120fortress": 45110, "\u00d0\u013c\u00d0\u00bb\u00d0\u00b0": 61470, "\u0120trump": 32984, "\u00d0\u00a4\u00d1\u0122\u00d0\u00b0\u00d0\u00bd": 74193, "\u0120assists": 32331, "\u0120single": 2816, "\u0120approach": 3956, "\u0120businesses": 9225, "\u0120towel": 36655, "introduced": 53624, "rotating": 84123, "}-(": 86055, "\u0120Hertz": 94413, "Io": 40927, "\u00e8\u00b5\u00b0\u00e4\u00b8\u012c": 56253, "\u0120\u00d0\u00b2\u00d1\u012c\u00d1\u0122\u00d1\u0127\u00d0\u00b0": 74377, "vanishing": 54412, "assertTrue": 32347, "\u0120arre": 51357, "Command": 7474, "\u0120litoral": 92341, "iquitous": 53718, "\u0120gib": 53786, "Artist": 65955, "\u0120\u00d0\u00bf\u00d1\u0122\u00d0\u00be\u00d0\u00b1\u00d0\u00bb\u00d0\u00b5\u00d0\u00bc": 98245, "\u0120\u00d0\u00bc\u00d0\u00bd\u00d0\u00be\u00d0\u00b3\u00d0\u00be\u00d0\u00b1\u00d1\u0122\u00d0\u00be": 84447, "\u00e9\u0124\u00a3\u00e4\u00b8\u0122\u00e5\u012a\u00bb": 78959, "\u00e5\u00a4\u00a9\u00e8\u012c\u00b1": 89764, "():": 10935, "\u0120melt": 21732, "\u00e6\u013d\u00b4\u00e5\u00bc\u00ba": 64835, "\u00e4\u00ba\u00b2\u00e4\u00ba\u00ba": 54972, "\u00d1\u0122\u00d1\u012c\u00d1\u0128": 18512, "\u0120turb": 17364, "\u00d1\u0129\u00d0\u00b5\u00d1\u0123\u00d0\u00ba\u00d0\u00b0": 16307, "\u00d0\u00b7\u00d0\u00b2\u00d0\u00b0\u00d0\u00bd\u00d0\u00b5\u00d1\u0124\u00d0\u00be": 45139, "spicuous": 39400, "\u0120Mentrestant": 85453, "}).}": 90872, "\u0120cursa": 36187, "ips": 2744, "\u0120\u00d0\u00bf\u00d0\u00be\u00d0\u00bc\u00d0\u00b5": 49767, "\u00e5\u00a2\u0140\u00e5\u00bc\u00ba\u00e4\u00ba\u0128": 88685, "cluded": 10369, "production": 28142, "\u00e9\u013f\u00a2\u00e5\u0143\u0132": 54415, "\u0120Doubt": 76957, "\u0120personalitat": 62641, "\u0120salad": 24678, "ly": 326, "oscopic": 61312, "CLAIM": 63106, "\u0120\u00d0\u00a4\u00d1\u0122\u00d0\u00b0\u00d0\u00bd\u00d1\u0128\u00d0\u00b8\u00d1\u0131": 24403, "Operations": 41344, "\u0120tribut": 38292, "\u0120exited": 48069, "rails": 55256, "enco": 87294, "\u0120manufacturing": 15104, "\u0120BufferedReader": 88080, "\u00e7\u00a2\u012e": 37671, "\u0120($_": 96084, "\u0120SS": 16222, "Writing": 47704, "\u0120Vicente": 54045, "\u0120Gomez": 71615, ")^*": 71848, "Ignored": 98410, "\u0120lado": 43262, "\u0120whisk": 29492, "\u0120fisher": 29890, "\u0120companion": 15640, "~\\": 1582, "\u0120growers": 69234, "\u0120Elisabeth": 86258, "\u00e6\u0122\u00bb\u00e7\u013c\u0126": 62746, "Search": 10274, "\u0120voiced": 69530, "itton": 75314, "\u00e6\u0138\u00b0\u00e9\u013d\u00b6\u00e5\u0136\u00ae": 81484, "\u00e9\u00b2\u013e\u00e6\u013a\u0130\u00e7\u013c\u0126": 90039, "]_": 40295, "\u00e6\u0124\u0141": 19122, "\u00e8\u00af\u0143": 5262, "\u0120Vi": 23708, "\u00e8\u00bd\u00bb\u00e8\u00bd\u00bb": 34258, "\u00e6\u0138\u00b0": 1404, "\u0120tenen": 12781, "chief": 16623, "Please": 7900, "\u0120Nested": 80103, "\u0120Tolosa": 59687, "\u0120respuesta": 24725, "game": 14600, "agat": 75361, "\u0120geom": 36767, "gies": 34860, "raged": 50321, "\u0120NEC": 89045, "\u0120peaked": 69355, "sj": 94346, "\u0120FC": 16686, "\u00e8\u00b0\u0125\u00e7\u0132\u0128": 51476, "bounce": 96039, "ometric": 11364, "\u0120Nes": 76181, "bedo": 87494, "\u0120Wellness": 57324, "\u0120\u00d0\u00b1\u00d1\u0122\u00d0\u00be\u00d1\u0131\u00d1\u0124": 92626, "antry": 42644, "\u00e8\u00bf\u013b\u00e7\u00a7\u012f\u00e7\u0130\u00b0\u00e8\u00b1\u00a1": 97524, "bation": 69868, "\u00d1\u0123\u00d0\u00ba\u00d0\u00be\u00d0\u00b3\u00d1\u0122\u00d0\u00b0\u00d1\u0126\u00d0\u00b8\u00d1\u0131": 97981, "\u0120\u00d0\u00bc\u00d1\u0125\u00d0\u00b7\u00d0\u00b8\u00d0\u00ba\u00d0\u00b0": 23113, "\u0120servidor": 23879, "\u0120reel": 52778, "\u00e9\u0134\u012a\u00e5\u00af\u00b9": 13458, "POL": 44686, "\u0120Franco": 38117, "\u0120determined": 7124, "\u00e7\u0136\u0141\u00e4\u00ba\u00a7\u00e7\u00ba\u00bf": 67310, "\u00d0\u00ba\u00d0\u00b5\u00d0\u00b4\u00d0\u00be\u00d0\u00bd\u00d1\u0123\u00d0\u00ba\u00d0\u00b8": 74023, "$(\"#": 86476, "\u0120Catholic": 15881, "\u00e7\u00bc\u00ba\u00e5\u00b8\u0143": 85458, "\u00e6\u012c\u00b5\u00e5\u00be\u00a1": 90516, "azu": 93843, "\u0120\u00d0\u00bf\u00d1\u0122\u00d1\u0131\u00d0\u00ba\u00d0\u00be": 95299, "communication": 43183, "\u0120Belles": 44965, "Ged": 69100, "ActivityThread": 72477, "\u0120extraordin": 44106, "\u0120analyze": 17804, "\u0120arreu": 48490, "\u0120scanner": 34617, "\u00d0\u00ba\u00d0\u00b8\u00d0\u00b2\u00d0\u00b0": 49314, "Hang": 81709, "\u0120efecto": 92751, "\u00e5\u013b\u00a8\u00e4\u00bb\u00b6": 95873, "\u0120y": 320, "\u0120grief": 20110, "\u0120WS": 36491, "ificacion": 46210, "\u00e9\u0143\u0124": 20413, "$}{\\": 78518, "merely": 62991, "weakly": 92215, "\u0120Uses": 59090, "\u0120rockets": 81985, "\u0120aptitude": 49637, "\u0120got": 2149, "\u0120take": 1529, "\u0120\u00d0\u00b5\u00d0\u00bb\u00d0\u00b5": 25975, "\u0120cline": 65983, "Calc": 70677, "\u0120COALESCE": 82787, "\u0120Kitchen": 20176, "\u0120quotes": 17201, "\u0120seccions": 59792, "Fish": 66405, "\u0120solids": 68518, "\u0120ross": 98210, "Obra": 46540, "LM": 29222, "\u0120grau": 34694, "\u00d0\u00b7\u00d0\u00b5\u00d0\u00bd": 28453, "\u0120CS": 15648, "ynchron": 10608, "\u0120arrested": 19752, "\u0120\u00d0\u00b4\u00d1\u012c\u00d1\u0122": 28016, "\u0120blinds": 52020, "abyrin": 64702, "Spacing": 69545, "errno": 57802, "ollers": 78254, "\u00e6\u0136\u00bf\u00e5\u00ba\u013e\u00e9\u0125\u00a8\u00e9\u0139\u00a8": 97556, "ARM": 41525, "\u00e7\u0132\u00aa": 47019, "\u0120Nas": 40181, "science": 17041, "\u0120antibiotics": 55016, "\u0120empirically": 64211, "\u00e4\u00b8\u0122\u00e4\u00ba\u012e": 66707, "\u0120??": 36109, "\u0120Lea": 65976, "\u0120perplexed": 69749, "detalle": 74854, "\u0120Equals": 80373, "\u0120incorporaci": 89566, "embed": 25920, "fq": 90440, "\u0120Vanderbilt": 98103, "LEX": 39962, "\u0120am": 608, "\u0120popular": 4504, "Case": 9688, "\u0120depths": 28846, "calde": 33481, "nings": 34118, "\u0120Desire": 73304, "\u0120mantenint": 81050, "\u00e4\u00b9\u0141\u00e8\u0125\u00bd": 19981, "\u0120depenent": 67532, "\u0120\u00d0\u00b3\u00d0\u00b0\u00d1\u0122": 96932, "\u0120\u00d0\u00bf\u00d1\u0122\u00d0\u00be\u00d0\u00b2\u00d0\u00b8\u00d0\u00bd": 57514, "\u0120analyzing": 32773, "ready": 2356, "scall": 62898, "\u0120\u00d0\u00bc\u00d0\u00b0\u00d0\u00bb": 15346, "filesystem": 49980, "VDC": 57393, "pend": 1407, "\u0120Mits": 67986, "\u00e8\u0122\u0125\u00e6\u0142\u00b8": 30227, "\u0120Ma": 6655, "\u00e7\u0141\u0143\u00e6\u013e\u0141\u00e5\u0128\u0127": 70327, "multicolumn": 10094, "GBT": 33544, "\u00e8\u00b5\u013d\u00e4\u00ba\u012d": 30413, "\u0120viuen": 46890, "\u0120usability": 62132, "\u00e6\u013d\u00be\u00e5\u013e\u00a8": 49507, "\u0120\u00d1\u0126\u00d0\u00b8\u00d0\u00bb\u00d0\u00be\u00d1\u0123\u00d0\u00be\u00d1\u0126": 67769, "\u0120GLint": 53471, "Fourth": 74739, "\u0120margin": 7037, "userm": 81491, "\u0120Bench": 42635, "\u00e4\u00b8\u012f\u00e4\u00bf\u0139": 87064, "Ft": 98464, "\u00e6\u0141\u00bf": 45037, "\u0120ais": 38708, "pond": 2593, "LU": 41092, ".~": 7731, "\u0120best": 1608, "df": 3944, "ueix": 8194, "\u00e7\u013c\u0126\u00e7\u0141\u00a5\u00e8\u00af\u0128": 66284, "Solic": 83810, "breaker": 68026, "\u0120sna": 98477, "lice": 88494, "\u00e8\u0129\u00aa\u00e7\u0126\u00b6\u00e6\u013a\u00af": 78309, "\u0120litt": 75657, "\u00e6\u00b2\u00bb\u00e6\u0126\u012a": 39189, "\u00e5\u00be\u00ae\u00e5\u0137\u0128": 70354, "\u0120Clifford": 52784, "refresh": 31845, "\u0120SB": 36360, "\u0120\u00d0\u00be\u00d0\u00b1\u00d0\u00be\u00d1\u0122\u00d1\u0125\u00d0\u00b4": 91845, "\u0120aixecar": 71263, "\u0120popup": 36565, "TITLE": 44103, "\u0120Landing": 65851, "\u00e5\u0132\u00b8\u00e5\u00bc\u0137\u00e5\u012c\u013d": 60640, "\u0120Reno": 77369, "\u0120XP": 25752, "\u0120Rules": 30807, "\u0120deficits": 92375, "\u0120Extract": 40760, "\u0120Joan": 10178, "\u00e7\u00bb\u0126\u00e5\u00bb\u00ba": 44192, "\u0120Seq": 45566, "\u0120rumor": 60413, "\u0120struct": 2794, "Flag": 24039, "\u0120Americans": 13500, "\u00e5\u0127\u012a\u00e6\u012c\u012c": 76457, "\u0120\u00d1\u0122\u00d0\u00b0\u00d0\u00b7\u00d0\u00b1\u00d0\u00b8\u00d1\u0122\u00d0\u00b0": 64594, "\u0120fermented": 96449, "\u0120mides": 96350, "\u00d1\u0123\u00d0\u00b0\u00d1\u0122": 57567, "\u0120Several": 23435, "\u0120rook": 42889, "\u00d0\u0141\u00d1\u0125": 98437, "\u0120minus": 30317, "\u00e5\u012f\u0123\u00e5\u00b9\u00b4": 17318, "\u0120lifecycle": 59323, "\u0120expressed": 10372, "\u00e6\u0127\u012a\u00e5\u0138\u0126": 45235, "Nothing": 22776, "Constraints": 37379, "\u0120functional": 12420, "\u0120lattice": 14723, "\u00e6\u012a\u0133\u00e4\u00bb\u00ac\u00e5\u0127\u012a": 92895, "\u0120carrots": 49091, "hound": 60204, "viii": 96289, "\u00e6\u013f\u00a5\u00e7\u013e\u012d": 10260, "\u00d0\u00ba\u00d1\u0122\u00d1\u012c": 17718, "\u00e5\u00bd\u0135\u00e4\u00b8\u0143": 19440, "\u00e8\u00b7\u00af\u00e8\u00be\u00b9": 53191, "\u0120architectural": 31758, "\u0120seguida": 59834, "ilv": 62340, "\u0120BUS": 64321, "\u00e5\u0132\u012c": 25308, "cq": 67479, "\u0120oversees": 84914, "\u0120WHITE": 86952, "\u0120processos": 42140, "\u0120JM": 79969, "\u0120CTx": 93890, "\u00e5\u0131\u0133\u00e7\u0130\u00b0": 5669, "\u0120synchron": 16047, "pause": 42980, "\u00e6\u0140\u00b8\u00e6\u013f\u0140": 50036, "BW": 54253, "diy": 94539, "tablenot": 97547, "\u00e9\u0129\u012f\u00e9\u0129\u0131": 39286, "\u0120rotation": 14271, "\u0120Front": 16555, "\u0120\u00d1\u0124\u00d0\u00b5\u00d1\u0122\u00d0\u00b8\u00d1\u0124\u00d0\u00be\u00d1\u0122\u00d0\u00b8\u00d1\u0131": 26554, "\u00e6\u00b5\u0133": 35334, "\u0120pizza": 25480, "boundary": 36768, "\u00e4\u00ba\u00ae\u00e7\u013c\u0126": 51854, "\u0120requests": 12425, "\\,,\\": 70235, "\u00e8\u00bf\u013a\u00e6\u013a\u00af\u00e6\u00b2\u00a1\u00e6\u013e\u012b": 98516, "\u00e5\u00bf\u0125\u00e6\u013f\u00a5": 99147, "UK": 26202, "\u0120sermons": 64167, "\u0120Sociology": 99211, "\u0120Bless": 34931, "\u0130\u00a1": 34918, "\u0120Classroom": 83474, "received": 29865, "\u0120centerpiece": 94673, "\u00e5\u0131\u00a4\u00e8\u00a3\u0127": 65710, "\u0120dilation": 94333, "\u00e4\u00b8\u0138\u00e7\u0137\u012e": 4997, "\u0120harvested": 63403, "\u0120ideas": 5121, "\u0120rasters": 90511, "\u00e5\u00a4\u00aa\u00e9\u00ab\u013a": 64231, "\u0120repercussions": 98129, "\u0120inici": 14799, "\u0120banana": 41482, "\u0120unusually": 47464, "\u00e6\u012b\u012f\u00e4\u00bc\u013c": 23385, "Editar": 85804, "\u0120immigration": 29701, "\u0120portrait": 25233, "\u0120Gym": 42569, "\u00e7\u013c\u0126\u00e5\u0131\u00af\u00e8\u0125\u00bd\u00e6\u0122\u00a7": 47777, "\u0120upsetting": 99156, "\u00e6\u0139\u0142\u00e7\u00ba\u00bf": 40999, "\u00d0\u00bf\u00d0\u00be\u00d0\u00bb\u00d0\u00ba\u00d0\u00be\u00d0\u00b2\u00d0\u00bd\u00d0\u00b8\u00d0\u00ba": 92749, "\u0120repel": 75149, "\u00d0\u00b2\u00d0\u00b5\u00d0\u00bb\u00d0\u00b8": 30470, "\u0120faint": 17203, "\u0120hammer": 30519, "\u0120subtracted": 69168, "\u0120awaiting": 36952, "\u00e5\u00bb\u00ba\u00e7\u0143\u0133\u00e7\u012b\u00a9": 70994, "xv": 62032, "\u0120s": 252, "Enginy": 69013, "\u00d0\u00bc\u00d0\u00b5\u00d0\u00bd\u00d1\u0124\u00d0\u00b0\u00d1\u0122": 62650, "tok": 26491, "Sean": 88114, "actory": 5954, "\u0120Feedback": 60765, "isol": 44693, "\u0120quaternion": 96929, "\u0120creepy": 63529, "trail": 75856, "\u0120labors": 59249, "\u00e6\u013e\u0122\u00e5\u00bf\u00ab": 68288, "quantity": 43149, "\u00e6\u00b8\u00a9": 4861, "\u0120salt": 9877, "\u00e5\u00a5\u0136": 15710, "neglig": 86441, "\u0120enzyme": 63324, "\u00e8\u00ba\u00ab": 2108, "\u0120asp": 16986, "\u0120\u00d0\u013a\u00d0\u00b3\u00d1\u0122\u00d0\u00b0": 78195, "\u00e6\u00bf\u0122\u00e5\u012c\u00b1": 34295, "recently": 79892, "\u00e9\u0129": 682, "\u0120classificats": 99826, "Values": 14173, "cion": 4537, "vbox": 64198, "\u00e6\u00af\u013d\u00e5\u0143\u0136": 66721, "CodeDom": 70184, "assertEquals": 20410, "Bound": 23454, "\u00e5\u0128\u013e\u00e6\u012a\u00b7": 49676, "\u00e7\u013c\u0126\u00e9\u0136\u0122\u00e9\u0129\u0131": 85216, "varian": 87842, "\u00e8\u0130\u0130": 35895, "\u00d1\u0127\u00d0\u00be\u00d0\u00bb": 68168, "trouble": 57340, "\u00e8\u00af\u00ba\u00e8\u00b4\u013f\u00e5\u00b0\u0136": 91387, "\u0120ideologia": 94397, "\u0120cath": 39328, "ava": 1637, "grap": 66905, "\u00d0\u00bc\u00d0\u00b5": 2044, "\u00e3\u0123\u00ab": 45223, "Errors": 24010, "\u0120Ond": 80760, "\u00e7\u012e\u00ab": 15425, "\u0120rivals": 35835, "\u0120Actor": 51649, "\u0120inspired": 12565, "\u0120CL": 13656, "\u0120Boost": 42917, "\u0120\u00d1\u0125\u00d1\u0129\u00d0\u00b0\u00d1\u0123\u00d1\u0124\u00d0\u00b2\u00d0\u00b0\u00d1\u0124": 51742, "\u0120\u00d0\u00bd\u00d0\u00b0\u00d0\u00bf\u00d0\u00b0": 51389, "\u00e6\u0138\u0143\u00e4\u00ba\u0128": 77999, "\u0120o": 269, "\u00e5\u00bc\u0137\u00e5\u0131\u0133\u00e4\u00ba\u0128": 82835, "\u0120reconstru": 48092, "\u00e6\u0138\u00b9\u00e6\u00b3\u0137": 7073, "nam": 10667, "\u0120automation": 30127, "GC": 15301, "\u0120fable": 89664, "computed": 53036, "\u0120vaccines": 55391, "iable": 17554, "\u0120bom": 25249, "cust": 80571, "\u0120persecuci": 60698, "guided": 49690, "\u00e6\u012a\u0138": 2322, "\u0120rags": 65395, "\u0120\u00d0\u00ba\u00d1\u0122\u00d0\u00b0\u00d0\u00bb\u00d1\u0123\u00d1\u0124\u00d0\u00b2\u00d0\u00be": 64301, "titulo": 44375, "\u00d0\u00b2": 424, "financial": 75293, "amely": 13710, "yl": 3987, "\u0120Verlag": 47324, "\u0120Minerva": 96549, "\u0120Satisf": 68647, "\u0120weed": 41775, "\u00e9\u00a1\u00b9\u00e7\u013d\u00ae\u00e5\u00bb\u00ba\u00e8\u00ae\u00be": 56990, "\u0120ad": 602, "pseud": 88133, "\u00d7\u00a2": 82022, "\u0120RED": 42564, "BUG": 14779, "\u0120Practice": 28011, "\u0120removable": 45066, "\u0120Vil": 19790, "\u0120HDD": 22313, "\u0120chim": 28275, "\u0120Chambers": 54545, "\u00e8\u00ae\u00b6": 54354, "%\u00ef\u00bc\u013d": 25901, "\u00e4\u00b8\u012f\u00e5\u00ba\u0136": 49997, "\u0120limit": 3945, "obert": 9181, "\u00e7\u013c\u0126\u00e7\u013d\u00b8\u00e5\u0127\u00b3": 46776, "\u0120\u00d1\u0123\u00d1\u0124\u00d0\u00be\u00d0\u00b9": 48365, "\u0120willingly": 45088, "\u0120Bosch": 54633, "\u00e4\u00b8\u012f\u00e5\u00be\u0139\u00e4\u00b8\u012f": 21280, "SER": 15634, "\u00e6\u00b8\u00a9\u00e6\u00b0\u00b4": 68167, "\u0120southeast": 59762, "\u0120Chrysler": 67047, "nery": 70358, "dbl": 88944, "\u00e5\u00b0\u00bd\u00e9\u0129\u0131\u00e4\u00b8\u012f\u00e8\u00a6\u0123": 95264, "millan": 68248, "\u00e7\u00bb\u00bf\u00e8\u012b\u00b2": 18646, "\u00e2\u013e": 37103, "Fu": 61957, "\u00e5\u013e\u00a8\u00e6\u0126\u0131": 54105, "\u0120AFM": 99068, "Lambda": 5705, "\u0120yonder": 42443, "\u00e7\u0124\u00ab": 38669, "movie": 62111, "Gib": 65451, "\u00e4\u00b9\u00b0\u00e4\u00b9\u00b0": 96583, "\u0120Human": 13407, "\u0120Vacuum": 87620, "\u0120rasc": 93569, "decreasing": 71449, "Analyzer": 63827, "\u00e6\u00b7\u00b1\u00e6\u00b7\u00b1": 36682, "\u0120\\}": 30692, "\u00e7\u013b\u00bb\u00e9\u013b\u0128": 46363, "\u0120quasars": 71697, "\u0120pathogens": 93876, "\u0120Proceedings": 50688, "\u00e8\u00bf\u0133\u00e4\u00ba\u013d": 85322, "\u0120retrospect": 68699, "\u0120selects": 39851, "First": 6306, "Sprintf": 48049, "\u0120l": 284, "drug": 90612, "\u00e5\u00a5\u0130": 75337, "\u0120Modi": 73395, "\u0120star": 5395, "[]": 4818, "\u0120ourselves": 9856, "\u0120cp": 24185, "inistic": 63109, "\u0120mover": 65860, "Seq": 35735, "\u0120calculation": 13998, "\u0120winds": 21670, "\u0120francisc": 93065, "\u00e4\u00ba\u00ba\u00e6\u012b\u012f\u00e5\u0141\u00b9\u00e5\u0127\u00bb": 73846, "\u00e9\u0122\u00ae\u00e6\u012f\u0137": 84803, "\u0120torne": 85627, "FRINGEMENT": 98322, "\u0120lam": 66572, "\u00e6\u00b4\u0139": 7407, "arde": 33684, "\u00e5\u0138\u013f\u00e8\u012e\u00b6": 74436, "Commission": 75779, "residual": 87684, "\u00d1\u0123\u00d1\u0124\u00d1\u012c\u00d0\u00bf\u00d0\u00b2\u00d0\u00b0": 42735, "\u00e5\u00b0\u0131\u00e5\u00ba\u00b7": 60198, "$\\": 1862, "cup": 4266, "@{}": 35145, "kien": 77043, "\u0120GPS": 22964, "Cambridge": 45922, "Gb": 54323, "\u0120bacterial": 52596, "\u00e6\u0123\u012f": 73177, "grunt": 98192, "\u0120initiation": 66738, "\u00e4\u00bb\u0135\u00e5\u00ba\u0135": 63412, "\u0120paw": 60948, "\u0120temporal": 16984, "\u0120fail": 4571, "tawa": 38677, "\u0120Generate": 41062, "\u0120Romanian": 89530, "onClick": 95895, "\u00e9\u00be\u013b\u00e7\u013c\u0126": 97098, "\u0120basically": 12927, "\u0120Clarke": 43235, "\u0120Wait": 22944, "\u0120epit": 37590, "FIL": 44495, "\u0120statewide": 66258, "\u0120\u00d0\u013e\u00d1\u0125\u00d0\u00b7\u00d0\u00b5": 93009, "izable": 14366, "Preference": 51351, "\u0120defeating": 72533, "Banner": 98318, "\u00e5\u00ae\u012b\u00e4\u00b8\u013e\u00e5\u00b0\u00bc": 74248, "shell": 15116, "\u0120Early": 22020, "\u00e7\u013c\u0126\u00e5\u0141\u00ba\u00e7\u00a1\u0122": 22292, "ulp": 28147, "\u0120Markov": 29880, "\u0109r": 37279, "\u0120bidding": 39622, "hibernate": 40035, "\u0120gerund": 51400, "\u0120Trends": 59650, "\u0120ITS": 65033, "\u0120iput": 70523, "Heavy": 79747, "Actually": 40852, "Econom": 57614, "\u00e6\u012a\u0133\u00e6\u00b2\u00a1": 84650, "Tips": 66168, "\u0120traps": 44087, "\u0120transforms": 37822, "\u00e5\u0127\u012b\u00e4\u00bc\u0131": 57741, "networks": 57735, "\u0120SUN": 61405, "\u0120accelerator": 63757, "\u00e7\u0130\u00b0\u00e5\u013e\u00a8\u00e5\u00b7\u00b2\u00e7\u00bb\u0131": 71997, "\u0120whopping": 79864, "\u00d0\u00b8\u00d1\u0131\u00d1\u0124": 86945, "\u0120Persians": 90041, "\u0120{}": 11095, "\u0120Capac": 71953, "\u0120satellite": 22709, "\u0120obeying": 80922, "\u00e4\u00ba\u00ba\u00e5\u00a4\u00a7\u00e4\u00bb\u00a3\u00e8\u00a1\u00a8": 94907, "\u0120\u00d0\u00bf\u00d1\u0122\u00d0\u00b8\u00d0\u00b4\u00d1\u0122\u00d1\u0125": 94989, "\u0120Sumatra": 95064, "\u00e7\u0140\u00b3": 95507, "\u0120vibrating": 70222, "\u0120\u00d0\u00b2\u00d0\u00b0\u00d1\u0122\u00d0\u00b8": 39033, "\u0120existents": 64780, "\u0120celebr": 5999, "\u0120develops": 34304, "zi": 19118, "\u0120journeys": 49936, "\u00d0\u00bf\u00d1\u012c\u00d1\u0122": 38619, "\u0120Devils": 73283, "\u0120EST": 34112, "esfor": 89648, "\u00c3\u00a8": 724, "~~~": 36566, "\u0120Wiring": 65408, "ries": 2228, "\u0120reveal": 17547, "\u0120linea": 31397, "comma": 71551, "ardt": 83981, "\u00e8\u00b0\u0125\u00e7\u0142\u0136": 27564, "min": 1521, "mn": 14591, "\u0120runaway": 68469, "keySet": 91553, "Arm": 19975, "\u0120\u00d1\u0123\u00d0\u00b8\u00d0\u00b3\u00d1\u0125\u00d1\u0122": 43102, "olecular": 38122, "\u0120dissipation": 31135, "Ban": 40017, "\u00e4\u00b9\u012d\u00e6\u0139\u00b6": 40486, "\u0120FIX": 49506, "WOR": 63652, "han": 7724, "edor": 32033, "\u0120censure": 79182, "\u00e5\u00b0\u00bd\u00e6\u0139\u00a9": 79654, "\u00e6\u00b1\u0141\u00e5\u00b8\u0124": 99904, "flush": 26340, "\u00e8\u013d\u012d\u00e9\u00bb\u0126": 73969, "\u0120hoop": 75181, "\u0120finestres": 34111, "\u0120Getty": 81031, "\u00e5\u013d\u00bd\u00e7\u013c\u0126": 27683, "\u00e8\u00a5\u00bf\u00e5\u012e\u0139": 37355, "\u0120markings": 59930, "\u00e8\u00bf\u013a\u00e4\u00b8\u012f": 32998, "\u0120amusements": 93840, "\u0120\u00d1\u0122\u00d0\u00b5\u00d0\u00b0\u00d0\u00bb\u00d0\u00b8": 71713, "\u0120pec": 10322, "\u00e6\u00b3\u00a8\u00e9\u0136\u0122": 79783, "\u00e7\u013d\u00ae\u00e5\u012b\u012f\u00e5\u013e\u00a8": 84408, "\u00e7\u0139\u0136\u00e7\u0138\u00ae": 91139, "tech": 21129, "\u00e7\u0126\u00a6\u00e8\u013b\u0133": 39632, ":!": 64840, "\u0120\u00d1\u0123\u00d1\u0124\u00d0\u00b0": 6029, "yll": 24645, "\u0120burdens": 52700, "DOC": 56645, "hti": 93187, "\u00e6\u0139\u0142\u00e5\u00b8\u00b8": 88003, "\u0120ms": 14442, "\u00e6\u012b\u00ac": 12286, "\u0120scientists": 21029, "handbol": 95536, "\u0120Earn": 49013, "\u0120Jun": 12247, "\u0120msdb": 76318, "\u00e7\u013e\u0123\u00e9\u0137\u00bf": 99871, "))=\\": 68837, "\u0120\u00d0\u0134\u00d1\u012c": 24292, "NW": 69311, "\u00e4\u00b8\u0122\u00e5\u0131\u00a3": 39179, "rieg": 76138, "\u0120\u0120\u0120\u0120\u0120\u0120\u0120\u0120\u0120\u0120\u0120\u0120\u0120\u0120\u0120\u0120\u0120\u0120\u0120\u0120\u0120\u0120\u0120\u0120\u0120\u0120\u0120\u0120\u0120\u0120\u0120\u0120\u0120\u0120\u0120\u0120\u0120\u0120\u0120\u0120\u0120\u0120\u0120\u0120\u0120\u0120\u0120\u0120\u0120\u0120\u0120\u0120\u0120\u0120\u0120": 37238, "\u0120demolition": 71149, "\u0120nef": 88516, "\u0120bony": 90451, "Bib": 85285, "\u00e7\u0142": 2272, "\u00d0\u00a1\u00d0\u00b5\u00d1\u0122\u00d0\u00b8\u00d1\u0131": 68121, "\u0120staged": 66796, "IAM": 48639, "\u0120Ins": 8773, "\u0120barred": 59675, "\u00e5\u0127\u00a8\u00e6\u0138\u00b9\u00e4\u00bd\u012f": 49861, "RT": 19310, "\u00e7\u0136\u0141\u00e6\u0122\u0123": 12161, "Pictures": 69292, "holomorphic": 97850, "\u0120Small": 15744, "uso": 63181, "\u0120evident": 11086, "\u0120Marcel": 40789, "\u0120predominantly": 50846, "ilarly": 10465, "\u0120source": 3130, "dropdown": 15372, "mouse": 20355, "\u00e6\u00bd\u00ae": 12483, "\u00e5\u00bc\u0122\u00e5\u00b9\u0137\u00e5\u00bc\u0131": 73578, "\u0120stepping": 33945, "\u0120\u00d0\u0133\u00d0\u0132\u00d0\u013f": 76201, "\u0120preacher": 50306, "fixture": 67985, "\u0120\u00d0\u00bd\u00d0\u00b0\u00d1\u0122\u00d0\u00be\u00d0\u00b4\u00d0\u00bd\u00d0\u00be": 76418, "ighters": 28377, "\u0120\u00d0\u0137\u00d0\u00b2": 47139, "nascut": 67480, "\u00e5\u00af\u00b9\u00e4\u00bb\u013a": 76695, "\u00d0\u00ba\u00d0\u00b2\u00d0\u00be": 87557, "\u0120Peoples": 82328, "\u00e6\u00af\u0136\u00e5\u012a\u00a9": 88754, "\u0120Verizon": 56010, "\u0120propag": 11947, "\u00d0\u00b2\u00d0\u00b5\u00d0\u00b4": 30388, "\u0120Coq": 34365, "\u00e8\u00bf\u013b\u00e6\u0136\u00af": 65589, "\u00d0\u00bb\u00d0\u00b0\u00d0\u00bd\u00d1\u0124\u00d0\u00b8": 65022, "\u00e5\u00b0\u00b1\u00e8\u00af\u00bb": 65626, "walking": 59806, "languages": 68577, "\u0120luminosities": 74868, "\u0120rave": 85357, "\u0120Rights": 19185, "\u0120produir": 20626, "\u00e4\u00bc\u00aa": 28130, "\u0120hunter": 37089, "\u0120Climate": 39146, "\u0120employers": 24110, "\u0120Copy": 13090, "\u0120parametric": 47679, "angle": 2405, "\u0120Timer": 47289, "\u00e9\u013a\u00bb\u00e6\u0143\u00a2": 49876, "\u0120implied": 20034, "\u0120quants": 69090, "\u0120Becky": 77222, "arsely": 59766, "Opts": 59694, "\u00e7\u013c\u0126\u00e5\u00bd\u00a2\u00e8\u00b1\u00a1": 68223, "\u0120shrub": 55687, "\u0120Ingredients": 82669, "\u0120Tesla": 48461, "fear": 44928, "\u0120Lift": 62227, "metre": 18187, "NAMES": 38840, "\u0120\u00d0\u0135\u00d0\u00b5\u00d0\u00be\u00d1\u0122\u00d0\u00b3\u00d0\u00b8\u00d0\u00b5\u00d0\u00b2": 63473, "\u0120local": 2301, "Several": 31953, "\u0120Bh": 31020, "\u013b": 234, "ethod": 1498, "\u0120disappe": 11067, "\u0120awkward": 22175, "\u00e9\u0124\u00bb": 23563, "\u0120\u00d1\u0123\u00d1\u0124\u00d1\u0122\u00d0\u00be": 24896, "\u0120determ": 3008, "\u00d1\u0124\u00d0\u00b8\u00d0\u00bb\u00d0\u00b5": 36455, "Padding": 38351, "\u0120----------": 54443, "\u0120recommending": 56454, "\u0120ordinarily": 65301, "\u0120Trustees": 73511, "\u0120squir": 46235, "ellat": 66814, "\u00e7\u00b2\u00bd": 75636, "deven": 14073, "\u00e5\u0128\u013e\u00e4\u00b8\u013c": 15359, "ustered": 79004, "bitter": 79520, "\u00e9\u0127\u0134\u00e5\u0132\u0130": 81161, "\u0120Electricity": 83234, "beams": 85372, "reng": 19638, "\u0120gag": 85437, "\u0120\u00d0\u00bf\u00d1\u0122\u00d0\u00be": 2796, "\u0120Common": 15337, "\u00e7\u00bd\u00ae\u00e7\u0138\u0133": 88449, "\u00e5\u0130\u00bb\u00e5\u00b9\u00b4\u00e5\u0132\u012e\u00e6\u013e\u0141": 77942, "\u0120BEN": 87804, "__)": 30326, "\u0120\u00d0\u00be\u00d0\u00b1\u00d1\u0123\u00d0\u00b0": 69945, "\u0120Jules": 57356, "\u0120assim": 84395, "\u00d0\u00b3\u00d0\u00b0\u00d1\u0122\u00d0\u00b4": 87227, "\u0120cemetery": 50027, "\u0120Adaptive": 83439, "generous": 95381, "\u0120\u00d0\u00b0\u00d0\u00ba\u00d1\u0124\u00d1\u012e\u00d0\u00be\u00d1\u0122": 38637, "component": 12315, "\u00e5\u00b0\u0128\u00e8\u00bf\u013d\u00e4\u00b8\u0122\u00e6\u0143\u00a5": 88064, "\u00e6\u00b3\u00a2\u00e6\u00b5\u00aa": 95442, "\u0120ALLOW": 57766, "\u0120sheaves": 68468, "allen": 93903, "\u0120dashboard": 39260, "duly": 95758, "\u0120\u00d0\u00bd\u00d1\u0125\u00d0\u00b6": 98752, "TER": 3910, "Havana": 81146, "\u0120Tol": 18520, "\u0120aprofitar": 66930, "versely": 31534, "\u0120soothe": 67060, "curr": 41446, "MHz": 20037, "\u0120workable": 96862, "\u0120subscriber": 44955, "\u0120guards": 29526, "getColumn": 65625, "ZZ": 25629, "+{": 75980, "\u0120EFI": 24699, "DEN": 41641, "[,": 99794, "\u0120Kot": 50080, "workflow": 66069, "\u0120Alb": 21905, "\u0120Napoleon": 32236, "\u0120insert": 7093, "\u00e9\u0134\u00a5": 43371, "\u00e4\u00b8\u012f\u00e5\u012a\u00a9\u00e4\u00ba\u0130": 71321, "East": 36330, "\u0120cluster": 9653, "\u0120Kat": 17458, "\u00e5\u00a4\u00a7\u00e8\u00a7\u0126\u00e6\u00a8\u00a1": 44820, "\u0120Alternatively": 34923, "\u00d0\u00be\u00d0\u00b1\u00d0\u00bb\u00d0\u00b0": 74668, "\u0120reachable": 66909, "Extensions": 32296, "\u0120provoking": 82265, "\u00e7\u013b\u00bd\u00e4\u00ba\u0128": 82983, "\u00e4\u00b8\u0143\u00e5\u013e\u00ba": 97475, "\u0120statistically": 42306, "Adem": 97794, "allowed": 20807, "\u0120SSH": 26526, "\u00e7\u00b1\u00b3": 4428, "\u00e5\u00ae\u012b\u00e9\u013f\u013b": 37175, "\u0120Bacon": 42053, "\u0120cambio": 41735, "examples": 25780, "\u00e5\u0129\u0128\u00e5\u012a\u013b": 79346, "\u0120shared": 7480, "\u00e6\u013d\u00be\u00e6\u013a\u00af": 93245, "\u0120Selecting": 93986, "\u00e8\u012d\u00a6\u00e9\u013c\u00be": 78350, "\u0120McLean": 94103, "\u00e6\u0130\u012e\u00e5\u00a3\u00b0": 71327, "\u0120\u00d0\u00ba\u00d0\u00b0\u00d0\u00bd\u00d0\u00be": 96258, "\u00e6\u013e\u012b\u00e6\u0139\u00b6": 22332, "\u0120\u00d0\u00bf\u00d0\u00be\u00d1\u0123\u00d0\u00b5": 34583, "\u0120dependent": 13618, "\u0120PAM": 81202, "\u0120Davidson": 59054, "\u0120Fut": 28177, "\u00e9\u0122\u0136\u00e4\u00b8\u0143": 47478, "\u0120\u00d0\u00b8\u00d0\u00b7\u00d0\u00bc\u00d0\u00b5": 84863, "\u00e6\u013e\u0122\u00e5\u0132\u0130": 6955, "\u00e4\u00b9\u0141\u00e7\u00ae\u0139\u00e6\u013a\u00af": 68125, "^^": 20931, "\u0120tota": 15283, "FTWARE": 38504, "\u0120\u00d0\u00be\u00d1\u0124\u00d0\u00b1\u00d1\u0122\u00d0\u00b0": 50826, "\u0120carriages": 61424, "\u0120workloads": 75619, "\u0120IDE": 28729, "\u0120shakes": 62766, "\u0120confront": 22323, "(@": 15390, "Tri": 31111, "\u00e8\u00b5\u0126\u00e8\u00b4\u00a8": 42307, "\u00e6\u012b\u0135\u00e5\u012f\u00b0": 54696, "\u00d1\u012b\u00d0\u00b0": 3515, "ious": 1123, "atal": 2466, "shots": 27382, "\u0120flames": 31577, "\u0120protective": 30694, "\u0120mortality": 37762, "\u0120exact": 3508, "Tel": 40862, "\u0120EF": 53286, "Aggreg": 30847, "easily": 58064, "\u0120Marty": 69194, "UTF": 14997, "ANCE": 18637, "\u0120compactly": 88058, "\u00e5\u00ae\u0125\u00e5\u013e\u00a8": 70408, "Pr": 5964, "\u00e7\u00af\u0129": 13143, "\u0120\u00d0\u00bc\u00d0\u00b8\u00d1\u0122": 56671, "\u0120include": 3433, "\u0120fraud": 19608, "lxc": 91583, "enching": 78525, "\u00e7\u0136\u00a8\u00e7\u0136\u00b5": 60459, "\u0120Thousand": 73074, "eter": 4355, "\u0120DELETE": 38411, "bookmark": 91628, "oke": 3522, "duct": 2478, "\u00e5\u0122\u00a6": 49021, "\u00e7\u00a5": 2090, "\u0120responsibility": 12353, "ru": 734, "\u00d0\u00b2\u00d1\u0123\u00d0\u00ba\u00d0\u00b8": 24759, "\u0120cylind": 31494, "\u0120Crest": 68926, "\u0120beset": 85878, "\u00d1\u0123\u00d0\u00be\u00d0\u00bb\u00d1\u0123\u00d1\u0124\u00d0\u00b2\u00d0\u00be": 86826, "jective": 12848, "\u0120\u00d0\u00bf\u00d1\u0122\u00d0\u00b8\u00d0\u00b2\u00d0\u00bb\u00d0\u00b5": 93920, "getNext": 99362, "\u0120ruined": 32494, "\u0120fashionable": 37667, "\u0120decades": 14651, "Sim": 7411, "\u0120SNe": 62858, "\u0120llega": 77129, "\u0120phrasal": 79433, "\u0120\u00d1\u0125\u00d0\u00b4\u00d0\u00be\u00d1\u0123\u00d1\u0124\u00d0\u00be": 83617, "\u00e8\u0125\u00a1\u00e6\u0143\u012e": 92467, "\u00d0\u00b8\u00d0\u00bb": 5275, "upt": 23136, "\u0120Splash": 93011, "\u00e9\u00a6\u0138\u00e9\u00a1\u00b5": 92008, "lake": 47241, "\u00e5\u012b\u012c\u00e5\u00bc\u00b1": 75418, "\u0120Forms": 49775, "\u0120founded": 16266, "\u0120sand": 8151, "\u00e9\u0135\u013f": 30555, "ribing": 42843, "Amazing": 64857, "\u0120duel": 51410, "\u0120satisfactor": 72332, "ctrics": 83132, "producing": 66199, "role": 16355, "\u0120\u00d1\u0122\u00d0\u00b0\u00d0\u00b7\u00d1\u0122\u00d0\u00b5": 59315, "\u00e4\u00b8\u0122\u00e5\u0133\u00b3": 72929, "escriure": 86675, "\u00e5\u0131\u00af\u00e8\u00a7\u0128": 85456, "\u0120mots": 99006, "\u00e7\u00bd\u00b2": 16349, "\u0120refresh": 20085, "\u00e4\u00b8\u0135\u00e5\u00ae\u00b6": 10900, "\u0120\u00d0\u00bf\u00d1\u0122\u00d1\u012c": 36162, "\u00e4\u00b8\u0135\u00e7\u00a7\u0133": 46382, "\u00e5\u012f\u0142\u00e6\u013e\u012b": 46500, "setVisibility": 79561, "\u0120Apr": 5754, "\u0120philosophical": 40089, "\u0120kon": 42142, "\u0120turbulence": 44158, "pets": 61947, "\u00e5\u0138\u0129\u00e5\u0131\u0143": 76927, "dry": 39534, "\u0120imparted": 87350, "\u00e8\u00ae\u00b2": 5692, "ubi": 34477, "\u0120Coming": 42924, "\u0120mites": 83338, "\u0120Hurst": 93785, "OpenTl": 40247, "filePath": 77274, "\u00e9\u013e\u0122": 2757, "IENT": 27030, "\u00e5\u0122\u00a1\u00e5\u00af\u00bc": 52259, "\u0120newly": 13553, "formatted": 68783, "\u00d0\u00a4\u00d0\u00be\u00d1\u0122": 87903, "question": 18195, "\u00d9\u0127": 24048, "\u0120crist": 16793, "\u00e9\u0129\u012f\u00e7\u0124\u00b9": 9914, "\u0120PAGE": 47733, "\u0120travessar": 74845, "\u0120initiating": 86938, "\u0120Drag": 33830, "\u00d0\u0128": 42505, "structure": 22845, "\u00e4\u00bd\u0142\u00e8\u0125\u00bd": 46556, "\u00e6\u0138\u00b9\u00e5\u00bd\u00a2": 92112, "ACE": 11343, "\u0120Array": 9795, "^+,": 86541, "ientos": 49439, "\u00e5\u0127\u00ac\u00e7\u013d\u012c": 23624, "\u00e4\u00bc\u0139\u00e6\u012b\u0122\u00e5\u0133\u00a8\u00e7\u0141\u00a5": 52382, "\u0120metaphor": 31300, "\u00d0\u00b1": 795, "\u0120CTRL": 52101, "Raster": 49749, "\u0120respons": 4340, "\u00e5\u0123": 1211, "isch": 29674, "\u0120superflu": 53167, "\u0120revisi": 77286, "\u0120EPS": 31628, "\u00e8\u0124\u00af\u00e5\u00ae\u013c": 12604, "\u00d0\u00b2\u00d0\u00bd\u00d0\u00be\u00d1\u0123\u00d1\u0124": 74394, "\u0120\u00d0\u00b4\u00d1\u012c\u00d0\u00bb": 15481, "\u0109final": 43462, "\u0120\u00d0\u013c\u00d0\u00b8\u00d0\u00b5\u00d0\u00b2": 87764, "\u0120sacrifices": 46800, "\u00e5\u0130\u013c": 10844, "\u0120bud": 6581, "\u0120Lle": 16843, "\u0120cobertura": 88995, "\u00d1\u0122\u00d0\u00b0\u00d0\u00bd\u00d0\u00b8": 22050, "\u00e9\u0125\u00a8\u00e9\u0137\u00bf": 32921, "Bird": 57528, "iley": 18249, "ACC": 48394, "syntax": 50105, "\u0109Set": 77600, "\u0120album": 11679, "\u0120cadascun": 49562, "Specific": 47231, "\u00e7\u00ba\u00bf\u00e4\u00b8\u012c": 18220, "uny": 18806, "\u00e5\u00bd\u0135\u00e5\u00a4\u00a9": 24051, "\u0120\u00d0\u0133\u00d0\u00b8": 17383, "\u0120deserial": 57921, "Smooth": 77801, "\u0120\u00d0\u00ba\u00d0\u00b0\u00d0\u00bb\u00d0\u00b5\u00d0\u00bd": 82246, "mill": 15616, "atern": 14066, "\u0120Easy": 20188, "\u0120resur": 54524, "\u00e9\u013b\u00a2\u00e5\u00a3\u00ab": 58413, "\u00e6\u0135\u012f\u00e7\u013d\u013a": 92527, "\u0120pestil": 94855, "\u0120entonces": 32089, "solar": 74813, "\u0120ballast": 95249, "Sally": 92533, "spic": 33829, "\u0120Heavens": 96774, "\u0120Husk": 98209, "\u00d0\u00bd\u00d0\u00b5\u00d1\u0123": 16788, "\u00e5\u00ae\u0140\u00e4\u00b9\u0142": 44509, "\u00e5\u00b0\u0136\u00e5\u00a4\u00ab": 64176, "\u0120Clara": 33417, "variables": 37144, "classified": 78062, "fpm": 92967, "\u0120Rou": 25270, "\u0120matrix": 5856, "\u0120sobbed": 76500, "\u0120shape": 6775, "\u0120administration": 13029, "\u0120Besides": 17835, "\u00e5\u00ba\u00b7\u00e7\u0128\u013b": 58472, "\u0109item": 96988, "SERIAL": 98201, "\u0120paying": 12716, "\u0120services": 3248, "\u0120nom": 2434, "\u00d0\u00b2\u00d1\u012c\u00d0\u00bd": 32138, "\u00e5\u0127\u00bb\u00e7\u0136\u0141": 28667, "Thumb": 57031, "\u0120Gutenberg": 39884, "\u0120recalling": 54447, "\u0120\u00d1\u0122\u00d0\u00b0\u00d0\u00b7\u00d0\u00bf\u00d0\u00be\u00d0\u00bb\u00d0\u00b0\u00d0\u00b3\u00d0\u00b0": 64482, "\u0120Raman": 71784, "mbits": 82898, "\u00e6\u0140\u0126": 4659, "\u0120Ler": 50618, "\u0120Andalusia": 88911, "lah": 18607, "\u0120libinput": 88613, "\u0120sf": 52632, "bies": 34378, "asure": 2365, "\u0120hither": 24293, "\u0120posicions": 47828, "\u0120presoners": 57369, "EZ": 89161, "\u0120zoning": 77163, "\u00e9\u0124\u00a3\u00e4\u00b8\u00aa\u00e4\u00ba\u00ba": 93093, "Kop": 93138, "\u0120Boer": 76625, "\u00e7\u00bc\u00ba\u00e4\u00b9\u0131": 22209, "\u0120benevol": 49559, "\u0120grec": 18116, "Afganistan": 79898, "\u00e4\u00ba\u0136\u00e5\u013d\u013d": 94336, "\u0120Ike": 96990, "\u0120lograr": 59895, "\u0120subsided": 82969, "\u0120Romanticisme": 90319, "STRUCT": 47643, "eek": 31382, "\u0120\u00d0\u0136\u00d1\u0122\u00d1\u0125\u00d0\u00b3\u00d0\u00b8": 73147, "vention": 8764, "ilets": 53991, "\u00e7\u00a6": 2556, "\u0120hunting": 19386, "\u0120austral": 29348, "bert": 6160, "Ric": 53354, "ecake": 77734, "\u0120nomenament": 78036, "Alaska": 74851, "\u0120alla": 92175, "\u00e7\u013b\u00be\u00e5\u012a\u0128": 27745, "\u00e5\u012a\u00b7\u00e6\u0138\u00b0": 53282, "\u00e7\u013c\u0126\u00e3\u0122\u012c": 17154, "PAT": 55020, "\u0120\u00d0\u00bf\u00d0\u00b8": 8847, "\u0120conquer": 22255, "\u0120various": 3947, "))$.": 35891, "\u00d1\u0123\u00d0\u00bb\u00d0\u00b5\u00d0\u00b4\u00d0\u00be\u00d0\u00b2\u00d0\u00b0": 29198, "\u0120provincial": 33156, "\u0120Join": 22678, "Hor": 23976, "\u0120oficialment": 39107, "\u00e8\u00bd\u00ac\u00e8\u00ae\u00a9": 31313, "\u0120FIRST": 43224, "\u00e8\u00b8\u0131\u00e5\u00ae\u0140": 56745, "\u0120tomatoes": 31197, "\u0120\u00d0\u00b8\u00d0\u00b7\u00d0\u00b4": 35462, "\u0120ambigu": 21620, "\u0120Emergency": 36371, "\u0120assertion": 25483, "\u0120Rocket": 58136, "\u0120Kull": 58202, "\u0120Obl": 58308, "wedge": 13052, "\u0120europees": 56960, "\u00e2\u0136\u0122\u00e2\u0136\u0122\u00e2\u0136\u0122\u00e2\u0136\u0122\u00e2\u0136\u0122\u00e2\u0136\u0122\u00e2\u0136\u0122\u00e2\u0136\u0122\u00e2\u0136\u0122\u00e2\u0136\u0122\u00e2\u0136\u0122\u00e2\u0136\u0122\u00e2\u0136\u0122\u00e2\u0136\u0122\u00e2\u0136\u0122\u00e2\u0136\u0122": 62251, "\u0120vitro": 64361, "\u0120spears": 68487, "Descripcion": 68985, "\u0120Cord": 32021, "\u0120grotes": 65539, "\u0120squeezing": 70647, "\u0120audiov": 72183, "\u0120Including": 62687, "Mappings": 75419, "\u00d0\u00bd\u00d0\u00be\u00d0\u00b2\u00d1\u0123\u00d0\u00ba\u00d0\u00b8": 82886, "SETT": 39569, "\u0120colouring": 57330, "\u00d1\u0122\u00d0\u00b8\u00d0\u00b4\u00d0\u00b8": 72564, "ernate": 25245, "\u00e6\u013e\u00ac\u00e6\u013e\u0141": 72604, "\u0120incessantly": 86504, "\u0120Gecko": 87644, "\u0120falta": 33426, "bary": 88979, "\u00e8\u00b5\u00b7\u00e4\u00ba\u0128": 21212, "\u0120saturated": 37831, "\u00e5\u00b8\u0125\u00e7\u00bd\u00ae": 47572, "\u0120insist": 28933, "\u0120mum": 40287, "\u00e5\u00bf\u0125\u00e7\u013c\u0126": 13918, "\u0120Christendom": 95271, "ArgumentNullException": 99109, "\u0120struggling": 18701, "usiness": 6675, "bach": 27367, "acl": 31593, "VOL": 52044, "\u0120deem": 52380, "shuffle": 77958, "iope": 56249, "WB": 66971, "\u00e8\u00b0\u012a\u00e8\u00b0\u012a": 89669, "}^*": 14362, "\u0120enduring": 48361, "SOL": 52666, "BIG": 69568, "Prompt": 71187, "ances": 2271, "\u00e7\u00a6\u0126": 53304, "\u0120Auckland": 55035, "POSITION": 77759, "setminus": 11778, "exports": 15117, "\u00e5\u00be\u0139\u00e7\u00bd\u00aa": 98060, "ista": 2813, "\u0120happy": 4977, "\u00e5\u00a5\u00b9\u00e5\u013e\u00a8": 42253, "\u0120LT": 35819, "\u00d1\u0123\u00d1\u0124\u00d1\u012c\u00d0\u00bf": 19540, "\u00d0\u00b3\u00d1\u0125\u00d1\u0122": 25775, "\u0120exercir": 38004, "andem": 59509, "\u0120Dominican": 71731, "\u0120Tou": 51683, "\u0120leaflet": 94051, "Clearly": 43670, "igroup": 47468, "\u0120\u00d0\u00be\u00d0\u00b1\u00d1\u0131\u00d0\u00b2\u00d1\u0131\u00d0\u00b2\u00d0\u00b0": 50940, "\u00e5\u013e\u00a8\u00e6\u012a\u0133\u00e4\u00bb\u00ac": 41338, "Datasets": 99495, "\u0120COMP": 34220, "\u0120held": 4586, "\u00e8\u00a7\u0124\u00e7\u0124\u00b9\u00e6\u012a\u0138": 45476, "onson": 49963, "Parcel": 51110, "\u00e6\u00af\u0136\u00e8\u00b5\u00b7": 52801, "Garden": 77568, "\u00e5\u0128\u00b3\u00e7\u0143\u0138": 29266, "\u00e5\u00b1\u00a5\u00e8\u00a1\u012e": 25012, "\u0120contrap": 51390, "\u0120Transmission": 61535, "\u0120buyer": 24931, "\u00e5\u00a4\u00a9\u00e7\u0136\u0141": 54152, "File": 3893, "Accounts": 59940, "\u00e5\u012e\u00bb\u00e7\u0138\u0139\u00e6\u013e\u012f\u00e5\u012c\u00a1": 77269, "Organitzacions": 99276, "\u0120Re": 1926, "construction": 32749, "\u0120yard": 15673, "\u00e8\u0129\u00b4\u00e5\u012c\u013d\u00e4\u00ba\u0130": 37931, "\u00d1\u0122\u00d0\u00b8\u00d0\u00bb": 38667, "\u0120pena": 68273, "\u00e6\u00b4\u0140": 15743, "\u0120subquery": 68777, "\u0120deductions": 75790, "\u00e6\u012b\u0135\u00e7\u013f\u0122": 70980, "\u0120\u00d0\u00b0\u00d0\u00b4\u00d0\u00b2\u00d0\u00be": 83383, "\u0120Armen": 60762, "\u0120Manfred": 97077, "\u0120comit": 52335, "\u0120snake": 35031, "category": 13566, "\u00e7\u013f\u0122\u00e9\u0129\u012f": 79780, "cond": 1416, "\u00e6\u013a\u0130\u00e6\u013e\u013f": 64104, "\u00e6\u012b\u012d\u00e6\u012e\u0129": 37225, "\u0120invoke": 15988, "ActionBar": 67325, "\"!": 80015, "\u00e6\u012f\u0141\u00e5\u013f\u0131": 55424, "shan": 65389, "\u00e5\u00b0\u00b4\u00e5\u00b0\u00ac": 36730, "guien": 53057, "\u00d0\u00b4\u00d0\u00b5\u00d0\u00bd\u00d0\u00b8": 10666, "\u0120External": 37500, "iele": 61472, "igament": 49897, "immediate": 67122, "\u0120IC": 13174, "\u00e5\u0132\u00b8\u00e5\u00bc\u0137\u00e4\u00ba\u0128": 50019, "\u0120roles": 16330, "arf": 43906, "\u0120\u00d0\u0141\u00d0\u00bb\u00d0\u00be\u00d1\u012b\u00d1\u0124\u00d0\u00b0": 77442, "\u0120UK": 7312, "\u00e8\u00a1\u00b0": 19237, "\u0120companyia": 25339, "\u0120prehist": 54130, "\u0120\u00d1\u0123\u00d1\u012c\u00d1\u0124\u00d1\u0122\u00d1\u0125\u00d0\u00b4\u00d0\u00bd\u00d0\u00b8\u00d1\u0129\u00d0\u00b5\u00d1\u0123\u00d1\u0124\u00d0\u00b2\u00d0\u00be": 79113, "Estimated": 83295, "mesh": 41981, "aram": 64243, "\u0120wagon": 33061, "\u0120dimensi": 74039, "\u00e5\u00a6\u0126": 44548, "\u0120patriot": 80010, "umeric": 97242, "\u00e6\u013e\u012b\u00e4\u00ba\u00ba\u00e5\u013e\u00a8": 87888, "\u0120Equ": 9810, "inee": 40511, "Monte": 64903, "ghed": 69848, "\u0120Braun": 74691, "poor": 29881, "\u00e8\u012c\u00b1\u00e6\u013e\u00b5": 80268, "\u0120Salut": 64423, "\u0120EPSG": 80100, "reci": 28915, "abeth": 13261, "\u00e4\u00bd\u00ac": 60352, "response": 8813, "\u00e5\u00b0\u0131\u00e4\u00bc\u013b\u00e4\u00bc\u00b4": 35630, "\u0120coneg": 8166, "\u00e5\u00a6\u013b": 17173, "\u0120violation": 22521, "lef": 27790, "previous": 27952, "\u0120Bones": 68141, "\u0120hovered": 88329, "\u0120notebook": 34257, "/#": 32188, "\u00e4\u00bc\u012c\u00e6\u013e\u0139": 37522, "LEY": 40608, "\u0120Ram": 10343, "\u00d0\u00bc\u00d0\u00b0\u00d0\u00b9\u00d1\u0123\u00d1\u0124\u00d0\u00be\u00d1\u0122": 98285, "\u0120\u00d0\u00b0\u00d1\u0123\u00d0\u00be\u00d1\u0128\u00d0\u00b8\u00d0\u00b0": 79621, "\u0120Resort": 30433, "\u0120obtenir": 17602, "OMET": 88023, "++": 3953, "Projection": 46395, "\u00e6\u00b7\u00b1\u00e5\u00ba\u00a6": 26069, "Duke": 67851, "\u00e5\u0131\u012a\u00e6\u013a\u00af": 28681, "inhab": 80024, "IgnoreCase": 55122, "\u0120anci": 60855, "\u0120joined": 10213, "\u0120smaller": 6611, "\u0120\u00d0\u00be\u00d0\u00ba\u00d0\u00be\u00d0\u00bb\u00d0\u00be": 12756, "\u0120disappear": 26915, "\u0120fewer": 17966, "\u00d0\u00b4\u00d0\u00b5\u00d0\u00bc": 41947, "noalign": 52174, "\u0120pads": 31332, "CRIPT": 33332, "\u0120cones": 53553, "ecer": 64738, "blr": 51407, "\u0120consciousness": 22800, "\u0120Reef": 69461, "\u00e5\u0131\u012f\u00e6\u013a\u0142\u00e4\u00ba\u0128": 85833, "Guardar": 86244, "\u0120accommodated": 87705, "\u0120Gen": 9424, "\u0120wishes": 16996, "\u00e4\u00b8\u012c\u00e4\u00bc\u0142": 58713, "!...": 59840, "\u00e5\u00b1\u0137\u00e5\u0130\u0127": 88137, "aph": 2831, "Isn": 52362, "bott": 33359, "\u0120storing": 29152, "\u0120Acid": 51797, "\u0120facets": 57255, "titles": 79059, "obtain": 54940, "\u0120Chic": 65634, "\u0120gist": 79732, "\u0120HV": 79759, "{-}\\": 90170, "\u0120\u00d0\u00a1\u00d1\u0122\u00d0\u00b5\u00d0\u00b4": 32081, "burning": 60172, "\u0120stir": 13586, "('./": 34480, "\u00d0\u0140\u00d0\u00bf\u00d0\u00b8\u00d1\u0123\u00d0\u00b0\u00d0\u00bd\u00d0\u00b8\u00d0\u00b5": 53011, "\u0120attraction": 27571, "SDE": 80632, "\u00e6\u0126\u0131\u00e4\u00b9\u012b\u00e4\u00b8\u012c": 71602, "\u0120ONLY": 37009, "\u0120fd": 39760, "ALIGN": 60003, "Alg": 16271, "\u0120customised": 95722, "kn": 4344, "\u00e7\u012c\u00b9\u00e5\u00a4\u00aa": 94272, "\u0120Pune": 76462, "\u00d0\u00bb\u00d0\u00b5\u00d0\u00bd": 6307, "\u00e7\u013c": 336, "\u0120appointment": 14988, "\u00d0\u00b7": 611, "\u0120bal": 4870, "ague": 6008, "\u0120\u00d1\u0125\u00d1\u0123\u00d1\u0124\u00d0\u00b0\u00d0\u00bd\u00d0\u00be\u00d0\u00b2\u00d1\u0131\u00d0\u00b2\u00d0\u00b0": 62532, "\u0120relies": 27244, "ella": 4962, "\u00e5\u00b0\u0128\u00e7\u00bb\u00a7\u00e7\u00bb\u0143": 51305, "Agregar": 75670, "\u00e4\u00b8\u0122\u00e7\u00ab\u013b\u00e5\u00bc\u0131": 83148, "ausole": 85314, "\u00e4\u00b8\u0122\u00e4\u00b8\u0143": 89789, "\u0120seals": 49529, "\u00d0\u013d\u00d0\u00b5": 51924, "\u0120swaps": 91015, "Morning": 72557, "\u00e5\u012f\u0131\u00e8\u00ae\u00ae": 17516, "\u0120monarquia": 70601, "iw": 36910, "\u00e5\u00bc\u0124\u00e5\u0133\u00b3": 79828, "\u00e4\u00b9\u012d\u00e7\u00b1\u00bb\u00e7\u013c\u0126": 51990, "\u0120\u00d0\u00bf\u00d0\u00b5\u00d1\u0127\u00d0\u00be\u00d1\u0124\u00d0\u00b5\u00d0\u00bd": 72136, "zones": 80365, "\u0120atorg": 30665, "themes": 32705, "Las": 44618, "submenu": 59432, "adena": 67407, "Iran": 49106, "\u0120CAPITAL": 67989, "\u00e4\u00b8\u012f\u00e5\u00ae\u013c": 84473, "\u00e7\u0143\u012b\u00e7\u013d\u00b8\u00e5\u0127\u00b3": 64884, "\u0120impover": 86640, "\u0120\u00d0\u00b8\u00d0\u00b7\u00d0\u00b3\u00d0\u00be": 89051, "\u00e5\u00b0\u0131\u00e6\u013e\u012d\u00e5\u0131\u012d": 47634, "lecci": 19016, "\u0120Shared": 35346, "oration": 10478, "assel": 66582, "\u00e6\u012c\u00a5\u00e5\u0133\u012c\u00e3\u0122\u012d": 73958, "positories": 81073, "Growing": 84390, "\u0120\u00d0\u00bf\u00d1\u0122\u00d0\u00b5\u00d1\u0123\u00d0\u00bb\u00d0\u00b5\u00d0\u00b4": 73536, "\u0120incandescent": 91576, "\u0120\u00d0\u00b4\u00d1\u0131": 36882, "mau": 84808, "\u0120Technical": 29694, "\u0120(\\": 2549, "while": 6460, "\u0120pens": 15517, "\u00e5\u00b0\u0131\u00e5\u00b0\u0131\u00e7\u013c\u0126": 52338, "\u00e9\u013b\u0132\u00e5\u00ba\u00a6": 65820, "\u00e5\u0132\u00b4": 12498, "ropolit": 42636, "\u0120impaired": 52543, "\u0120ambaix": 62288, "\u00e9\u00a2\u013a": 2475, "\u0120hunted": 55601, "\u0120pis": 19241, "\u00e8\u00bf\u00bd\u00e8\u00b8\u00aa": 72167, "Ide": 39816, "\u0120southern": 18034, "\u0120Bridge": 18803, "\u0120dst": 33224, "\u0120dioxide": 54188, "\u0120comma": 22317, "\u0120HAND": 61411, "\u0120blaze": 48408, "Tour": 53360, "]{\\": 22777, "\u0120Cleaning": 34463, "\u0120appointed": 15572, "\u0120Bluetooth": 16736, "\u0120\u00d0\u00be\u00d0\u00b1\u00d1\u0122\u00d0\u00b0": 25934, "\u0120lodging": 43989, "lspci": 89706, "shops": 91815, "\u0120Mob": 34508, "\u0120VGG": 94884, "\u00e5\u00af\u00b8": 14668, "Monuments": 65112, "\u0120vivien": 9889, "\u0120\u00d1\u0126\u00d0\u00b8": 11196, "beans": 25537, "\u0120utf": 31807, "\u0120LHC": 42522, "\u00e8\u00b4\u0141\u00e6\u012d\u0127": 30729, "\u00d0\u00be\u00d0\u00b3\u00d1\u0122\u00d0\u00b0": 9418, "\u0120assimil": 63319, "\u0120teories": 63318, "electrons": 81083, "\u0120jab": 92306, "\u0120\u00d0\u00ba\u00d0\u00be\u00d0\u00bd\u00d1\u0123\u00d1\u0124\u00d0\u00b8\u00d1\u0124\u00d1\u0125": 71241, "\u0120disgrace": 36906, "prec": 9205, "\u0120enmig": 84649, "\u0120heights": 31078, "\u0120confer": 33297, "\u0120peering": 74005, "Kube": 97276, "\u0120pint": 9967, "\u00e7\u00ae\u0139\u00e4\u00ba\u0128": 89294, "edg": 90201, "\u0120algebra": 10276, "\u0120Mic": 14261, "spir": 16130, "\u0120Arturo": 99708, "\u00e6\u012b\u00b0\u00e4\u00b9\u00b1": 90542, "\u0120spiritual": 13886, "\u00d0\u00b0\u00d1\u0123": 60283, "ethylene": 83161, "assume": 61428, "wouldn": 68056, "smooth": 28895, "uento": 75820, "aman": 21628, "\u0120fabricant": 79076, "hda": 29975, "\u0120Katie": 40945, "\u0120beginners": 45000, "\u0120aristocr": 37469, "\u0120recipes": 18277, "\u00e9\u00bb\u013a\u00e9\u00bb\u013a": 37416, "scarcely": 65053, "\u0120band": 4219, "\u0120transitions": 22094, "\u0120vineyards": 66298, "Phabricator": 72586, "\u00e6\u00b5\u00b7\u00e5\u0141\u0141": 86031, "\u0120indret": 75065, "eler": 8390, "\u0120Brun": 23802, "\u0120Regulatory": 77871, "\u0120Caire": 86118, "\u0120Hold": 21827, "\u0120audiences": 30171, "znam": 69744, "\u0120action": 3439, "Pos": 6950, "\u0120ocup": 7559, "\u0120parsing": 35852, "\u0120Cush": 77700, "\u0120Guys": 31441, "straight": 40578, "understand": 28063, "arena": 63220, "\u00e9\u00ab\u013a\u00e6\u00b8\u0127": 68446, "\u00e2\u0122\u0130": 77880, "\u0120bios": 36778, "\u0120Pref": 15628, "\u0120chuck": 36479, "\u00e6\u0138\u00b0\u00e6\u00b5\u00aa": 24309, "\u0120Leaf": 37567, "\u0120delightful": 24344, "=\"{": 47058, "stupid": 97625, "\\;": 21422, "\u0120han": 9493, "versation": 29253, "\u0120abuse": 15670, "\u0120bei": 81586, "david": 78604, "ottie": 90777, "\u0120Guild": 41501, "\u0120stretched": 24880, "ugh": 5478, "usen": 77664, "\u0120participants": 12456, "\u0120spaces": 9577, "AD": 3206, "\u0120giv": 1426, "\u00d0\u00b7\u00d0\u00b0\u00d1\u0128\u00d0\u00b8\u00d1\u0131": 51701, "\u0120Fancy": 68861, "\u0120flanks": 96331, "\u0120Which": 11692, "dated": 12199, "\u0120despl": 75787, "orientaci": 91715, "\u0120votes": 22508, "develop": 13806, "adequ": 30172, "Primary": 30730, "\u0120upgraded": 16708, "\u0120escultura": 86116, "itemize": 9761, "Treat": 51744, "\u00e7\u0124\u0134\u00e4\u00bd\u013e": 59671, "\u00e7\u012a\u00b6\u00e5\u0143\u0132": 88162, "ocaly": 96638, "\u00e4\u00b8\u00a5\u00e6\u0142\u00bc": 16226, "\u0120ric": 19057, "iliate": 49127, "\u0120\u00d0\u00b8\u00d0\u00b3\u00d1\u0122\u00d0\u00b8": 45056, "\u00e4\u00ba\u0128\u00e5\u0129\u0142": 40881, "\u00e6\u00af\u00ab\u00e7\u00b1\u00b3": 41420, "\u0120gin": 51831, ":=\\": 23178, "RGBA": 84781, "\u00e7\u013c\u0126\u00e4\u00bd\u0142": 72113, "\u00e6\u0137\u00b0\u00e7\u013b\u00be": 72519, "\u00e6\u0136\u00bf\u00e6\u00b3\u0137": 58653, "DONE": 95742, "\u0120Prima": 78418, "abul": 21069, "\u0120laughter": 24493, "\u0120dismiss": 18363, "complexity": 67972, "\u00e9\u013d\u0137\u00e5\u012a\u00bb": 72641, "\u00e6\u012b\u012d\u00e4\u00b8\u0143": 39654, "\u0120tals": 68800, "\u00e4\u00b8\u012d\u00e6\u0139\u00ac": 72247, "emento": 97027, "oscill": 98258, "bower": 59974, "\u0120firewood": 98793, "DF": 6506, "\u0120ACCESS": 82076, "\u0120sib": 28364, "gradient": 23368, "\u00e7\u00bc\u0138": 6394, "\u00e7\u00a1": 2389, "\u0120oral": 22310, "\u00d1\u0130\u00d1\u0123\u00d1\u0130\u00d0\u00bb": 56147, "\u0120miner": 57814, "everal": 16850, "\u0120Hann": 38607, "tb": 23327, "\u00e6\u00b3\u00a8\u00e6\u013a\u0130": 53543, "azing": 82897, "\u00e5\u0132\u00ac\u00e8\u00bf\u0129": 88262, "\u0120conjugacy": 96609, "\u00e6\u0139\u0142\u00e7\u0138\u0133\u00e6\u013a\u00af": 60661, "\u00d0\u00bb\u00d0\u00b0\u00d0\u00b9\u00d0\u00bd": 76029, "\u00e5\u00a2\u013b\u00e4\u00b8\u012c": 77207, "\u00e7\u013b\u00be\u00e5\u012a\u0128\u00e7\u0124\u00b9": 46087, "\u0120inspire": 25272, "\u00e6\u013e\u0122\u00e5\u00b0\u0133": 85916, "\u0120WWE": 49643, "\u0120\u00d1\u0126\u00d0\u00b8\u00d0\u00b3\u00d1\u0125": 57198, "\u0120tenir": 8765, "\u0120graduating": 50141, "\u0120Constituci": 50274, "\u0120cease": 28447, "\u0120\u00d1\u0127\u00d1\u012c\u00d0\u00bb": 61453, "\u0120Job": 17644, "\u0120Pint": 66658, "\u0120Jaume": 24575, "\u0120reached": 6889, "\u0120trabaj": 26043, "\u0120Pie": 36244, "\u0120buys": 53410, "Exports": 95205, "\u00e8\u00af\u00b4\u00e6\u012a\u0133": 65071, "encil": 19866, "){\\": 13649, "\u0120sitio": 53778, "\u0120affecting": 24703, "stic": 10409, "\u0120alemanyes": 69129, "\u0120aquelles": 69319, "\u0120\u00c5\u013a": 98659, "\u0120KB": 26823, "\u0120fileName": 54279, "\u00e6\u00ac\u00a1": 1936, "\u0120TEST": 32402, "\u00e5\u0124\u00a8\u00e5\u00a4\u0129": 41357, "\u00e4\u00bb\u0127\u00e4\u00bb\u00a3\u00e8\u00a1\u00a8": 43454, "\u0120\u00d0\u00bd\u00d0\u00b0\u00d1\u0129\u00d0\u00b8\u00d0\u00bd": 31609, "\u0120nets": 42285, "\u00e6\u013b\u00ba\u00e8\u0125\u00bd\u00e5\u012e\u0138": 47577, "copy": 11768, "\u00e8\u00ae\u00b8\u00e5\u00a4\u013c\u00e4\u00ba\u00ba": 47994, "\u0120pardon": 25880, "\u0120Biden": 55681, "regression": 66806, "istr": 2694, "\u0120relatives": 26938, "\u00e4\u00b9\u0141\u00e5\u00b8\u012e\u00e6\u013e\u013d": 77948, "\u0120\u00d0\u0142\u00d0\u00b0\u00d0\u00b4\u00d0\u00be": 84006, "\u00e4\u00b8\u012f\u00e5\u00ba\u0136\u00e8\u00af\u00a5": 61059, "Justice": 83903, "\u0120greet": 17276, "!'\"": 87936, "\u0120quizzes": 99714, "\u00e7\u013f\u0122\u00e8\u0129\u00aa\u00e5\u00b7\u00b1": 72530, "\u0120parenting": 49082, "\u0120meaningless": 56133, "Asset": 35972, "\u0120survivor": 67973, "\u0120marginal": 25666, "\u0120Insert": 32200, "\u00e5\u0134\u012e\u00e6\u012a\u0133": 42977, "\u0120Strategic": 50775, "\u00e6\u0130\u0134\u00e5\u0132\u012f": 19539, "\u0120Cinemat": 65371, "\u00d1\u0123\u00d0\u00b1\u00d0\u00b5\u00d1\u0122\u00d0\u00b3": 74657, "besgue": 66023, "boarding": 52557, "\u0120Cardona": 73923, "}%": 13494, "\u0120aggrav": 49796, "Contacts": 64534, "\u0120impatient": 31229, "\u0120Characters": 73316, "\u0120toug": 41082, "\u0120spokeswoman": 78773, "\u0120cloud": 6788, "\u0109virtual": 52449, "\u00e8\u0123\u0136\u00e7\u00b3\u00bb\u00e7\u0136\u00b5\u00e8\u00af\u013f": 84585, "\u0120pict": 3750, "Bits": 32689, "abst": 81479, "encarreg": 56957, "\u00e3\u0122\u012c\u00e4\u00b8\u0143\u00e5\u013d\u00bd": 48147, "\u0120rid": 9373, "\u0120commune": 27497, "etics": 33007, "\u0120Comissi": 38047, "\u00e8\u0128\u013f\u00e7\u013d\u0138": 62821, "\u00e5\u00a4\u00a7\u00e6\u00b6\u00a8": 69618, "regex": 31409, "\u0120Usage": 32793, "antically": 48782, "\u0120turbo": 54250, "Monsieur": 59989, "\u0120survives": 70024, "\u00e5\u0130\u0141\u00e6\u013e\u012b\u00e7\u013c\u0126": 74781, "\u0120empresonat": 79951, "\u00e6\u0133\u0128\u00e5\u013e\u00a8": 82436, "\u00e5\u0127\u012a\u00e9\u0136\u012d": 54642, "\u0120\u00d0\u00bd\u00d0\u00b0\u00d1\u0122\u00d0\u00b0\u00d1\u0123\u00d1\u0124\u00d0\u00b2\u00d0\u00b0": 84165, "\u00e5\u0131\u0133\u00e5\u00b8\u0125\u00e4\u00bc\u013c": 41480, "emphis": 43472, "\u00e5\u00b8\u00a6\u00e5\u00a4\u00b4": 56275, "KeyEvent": 86727, "\u0120nieces": 83849, "\u0120Prescription": 87762, "\u00e4\u00bd\u0142\u00e7\u0130\u00b0\u00e5\u013e\u00a8": 96866, "chis": 85734, "\u0120minor": 10398, "cipl": 10720, "_{-": 14021, "\u0120nests": 61417, "\u0120configurar": 78903, "\u0120slaves": 21209, "\u0120inex": 30848, "UNK": 84556, "\u0120comedy": 25996, "\u00e9\u0136\u00a5": 94549, "Dec": 9280, "Andorra": 66341, "descriptor": 40434, "\u0120\u00d0\u00b7\u00d0\u00b0\u00d0\u00b5\u00d0\u00b4\u00d0\u00bd\u00d0\u00be": 19879, "\u00e6\u0130\u012e": 10856, "\u0120Planet": 38112, "app": 963, "\u00e4\u00ba\u00a4\u00e6\u013a\u0135": 9399, "OPER": 45762, "Decode": 47483, "\u0120Fry": 56176, "\u0120placed": 6746, "\u00e4\u00bc\u013c\u00e6\u012c\u012c": 73433, "\u00e8\u012b\u00b2\u00e6\u00b3\u00bd": 75058, "uen": 14400, "ieren": 71734, "Athe": 81683, "\u00e8\u012b\u00b2\u00e7\u00b4\u0142": 76898, "\u0120provisioning": 84124, "Insets": 85764, "\u0120Vod": 69265, "\u0120COS": 78346, "\u0120Kear": 99575, "\u0120Robbins": 91435, "ften": 15531, "OPTION": 39196, "<'": 80304, "\u0120\u00d0\u00b8\u00d0\u00b7\u00d1\u0124\u00d0\u00be\u00d1\u0129\u00d0\u00bd\u00d0\u00b8\u00d1\u0128\u00d0\u00b8": 64153, "algam": 62765, "\u00e5\u00b0\u0128\u00e8\u0129\u00aa\u00e5\u00b7\u00b1\u00e7\u013c\u0126": 78599, "Coord": 47244, "\u00e6\u0138\u00b0\u00e5\u00bb\u00ba": 42640, "\u0120\u00d1\u0124\u00d0\u00b5\u00d0\u00ba\u00d1\u0123\u00d1\u0124\u00d0\u00be\u00d0\u00b2\u00d0\u00b5": 91806, "\u00e7\u013e\u00bc\u00e4\u00b8\u0143": 55572, "\u0120fe": 749, "Blob": 37840, "\u0120NON": 52097, "Crystal": 88527, "\u0120occupies": 55017, "\u0120couches": 89557, "\u0120Mash": 70993, "\u00e4\u00bb\u0138": 1147, "\u0120Ap": 2360, "\u00e5\u0133\u00a8\u00e5\u013d\u00b4": 23760, "\u0120Clarence": 62015, "\u0120Augustus": 63773, "desert": 73452, "lavn": 97402, "\u00e7\u013c\u0126\u00e7\u013d\u00ae\u00e7\u013c\u0126": 38520, "\u0120holographic": 65254, "\u0120countertops": 68986, "\u0120\u00d1\u0122\u00d0\u00b5\u00d0\u00ba\u00d0\u00b8": 69916, "\u00e4\u00b8\u0122\u00e6\u013e\u00ac": 53835, "+--------------------": 75922, "\u0120detriment": 82309, "\u00e4\u00b9\u012d\u00e4\u00bb\u00a5": 65890, "\u00e7\u013c\u0126\u00e6\u00a8\u00a1\u00e5\u00bc\u0131": 76514, "\u0120Byrd": 94925, "\u00d1\u012a": 1619, "\u0120articulated": 88579, "\u0120basa": 45636, "\u00e5\u00a5\u00b9": 2601, "\u00e5\u00b8\u0124\u00e5\u013e\u00ba\u00e4\u00b8\u0143": 69051, "iland": 81831, "\u0120BJ": 29967, "\u0120regenerate": 87971, "\u0120hire": 15736, "\u0120mole": 11810, "fellow": 27184, "forma": 29942, "\u0120TL": 40658, "\u0120steward": 43830, "Device": 11731, "\u00e7\u00a9\u00b6": 5000, "\u0120\"\",": 22498, "\u0120Whit": 24314, "\u0120skiing": 49822, "}{": 1061, "\u0120DT": 43033, "\u0109req": 45833, "\u00d0\u00bb\u00d1\u0131\u00d0\u00b2\u00d0\u00b0\u00d0\u00bd\u00d0\u00b5": 60121, "\u0120Sophia": 60958, "\u0120signal": 4834, "\u0120reconstrucci": 71785, "\u0120Loved": 73276, "ataka": 76091, "\u0120INVALID": 77061, "TypeDef": 47184, "\u0120rak": 62855, "\u00d0\u00b5\u00d1\u0122\u00d0\u00bd": 87885, "\u0120Mog": 55287, "\u00d0\u00ba\u00d0\u00b0\u00d0\u00bd\u00d1\u0123\u00d0\u00ba\u00d0\u00b0\u00d1\u0124\u00d0\u00b0": 70658, "\u0120venerable": 53760, "}$'": 89098, "\u00e8\u00ae\u00a4\u00e4\u00b8\u00ba\u00e8\u0129\u00aa\u00e5\u00b7\u00b1": 91100, "\u00e5\u012b\u00af\u00e9\u0125\u00a8\u00e9\u0137\u00bf": 91879, "\u0120tornat": 89628, "\u00e5\u012a\u013b\u00e5\u013e\u00a8": 96100, "\u0120kidd": 81857, "ebra": 65916, "perm": 32974, "\u0120examination": 18681, "\u0120motius": 41187, "cart": 24362, "Ben": 17052, "eas": 26220, "\u00e5\u00a4\u00a7\u00e4\u00bd\u00bf": 63508, "\u0120Relationships": 86212, "\u0120chaps": 94460, "\u0120sur": 1578, "\u00e5\u00be\u0123": 8416, "\u0120accident": 9274, "\u0120\u00d0\u0134\u00d0\u00b5\u00d1\u0122": 35983, "\u0120\u0120\u0120\u0120\u0120\u0120\u0120\u0120\u0120\u0120\u0120\u0120\u0120\u0120\u0120\u0120\u0120\u0120\u0120\u0120\u0120\u0120\u0120\u0120\u0120\u0120\u0120\u0120\u0120": 12278, "\u0120Nest": 40907, "\u0120passage": 13108, "\u0120absence": 13356, "ickets": 23306, "\u0120\u00d1\u0126\u00d0\u00be\u00d1\u0122\u00d0\u00bc\u00d0\u00b0": 31906, "\u0120\u00d0\u00bf\u00d0\u00bb\u00d0\u00be": 18265, "DDIR": 67751, "\u00e6\u013b\u012d\u00e7\u00ba\u00a7": 69724, "\u0120royalty": 49502, "\u00d0\u00bd\u00d1\u0128\u00d0\u00b8\u00d0\u00ba\u00d0\u00bb\u00d0\u00be\u00d0\u00bf\u00d0\u00b5": 76079, "\u0120municipal": 16501, "\u0120Moss": 43142, "\u0120\u00d0\u00b2\u00d0\u00b5\u00d1\u012b\u00d0\u00b5\u00d1\u0123\u00d1\u0124\u00d0\u00b2\u00d0\u00b0": 90098, "\u00e5\u00bc\u0122\u00e9\u013b\u00a4": 92598, "Proposition": 29719, "otropic": 91072, "\u0120broadly": 41635, "\u0120consells": 92760, "\u0120invaders": 82586, "\\{(": 82266, "\u0120quedar": 18510, "\u0120gravitation": 88930, "\u0120ANSI": 62876, "\u0120\u00d0\u00bd\u00d0\u00b0\u00d0\u00bc\u00d0\u00b5\u00d1\u0122\u00d0\u00b8": 93471, "\u0120Wise": 58300, "\u0120dram": 10640, "\u00e5\u013e\u00b0\u00e6\u012c\u012c": 84015, "\u0120args": 10919, "\u0120fucked": 80342, "\u00e7\u00ac\u00ac\u00e4\u00b8\u0122\u00e4\u00b8\u00aa": 22172, "rowning": 31088, "\u0120Static": 47401, "\u0120fallback": 49726, "\u0120cessation": 84283, "\u00e5\u013d\u0142\u00e4\u00b8\u00ba\u00e6\u013a\u00af": 95534, "scss": 32597, "most": 2377, "\u0120\u00c2\u00a7": 31425, "esto": 43017, "\u0120biography": 45609, "\u0120curso": 91260, "\u00e5\u00b0\u0128\u00e8\u00a2\u00ab": 69858, "\u0120buckets": 53883, "\u00d0\u00b9\u00d0\u00bd\u00d0\u00be": 38806, "\u00e5\u00bd\u00bb\u00e5\u00ba\u0137": 21304, "\u00e6\u012c\u0137\u00e7\u00a8\u00bf": 93295, "\u0120prescribe": 68282, "\u0120apar": 21826, "\u0120refurb": 49770, "\u0120MIMO": 99085, "\u00e8\u0127\u00b0\u00e7\u00ba\u00bf": 87170, "forcement": 44417, "\u00e0\u00a5": 23424, "\u0120thought": 2215, "\u00e4\u00b8\u00a4\u00e5\u00a4\u00a7": 41045, "\u0120\u00d1\u0126\u00d1\u0122\u00d0\u00b0\u00d0\u00b9\u00d1\u0127\u00d0\u00b5\u00d1\u0122": 86004, "Me": 6968, "\u0120Addison": 62542, "\u0120hadron": 57953, "\u0120duplex": 62652, "tcl": 64346, "\u00d1\u012a\u00d0\u00b5\u00d0\u00bd\u00d0\u00b8\u00d1\u0131": 34300, "\u0120supplemented": 70007, "rina": 39545, "\u0120Ripoll": 68709, "\u0120tour": 6973, "\u0120Caj": 78260, "appendTo": 79264, "store": 11199, "\u0120await": 13238, "\u0120constructed": 13475, "\u00e6\u0138": 599, "\u00e8\u00a3\u0123": 13099, "clusters": 58453, "\u00e5\u00a6\u0124\u00e6\u0140\u013e\u00e8\u00a6\u0123": 89217, "DataFrame": 66182, "\u0120panoramic": 68797, "SIGN": 41240, "Html": 23412, "textSize": 82192, "\u0120bionic": 39250, "\u00e9\u00ab\u013a\u00e6\u00bd\u00ae": 70763, "\u0120frame": 4577, "\u0120Calculate": 50586, "Buck": 52226, "\u0120governing": 25652, "\u0120coord": 23669, "\u0120Py": 15103, "\u0120Hits": 72684, "\u00e5\u012f\u00a1\u00e7\u012b\u0129": 91758, "\u0120\u00d0\u0134\u00d0\u00bb\u00d0\u00b0\u00d0\u00b4\u00d0\u00b8": 40817, "\u0120sponsored": 31921, "\u00e6\u00a6": 6275, "_{_": 80002, "\u00e5\u012f\u0123\u00e9\u0129\u012e": 94195, "leaving": 50022, "\u0120citat": 96298, "anium": 36466, "\u00e8\u00bf\u013d\u00e5\u0128\u013d": 72544, "\u00e5\u012a\u0128\u00e7\u013c\u0126": 37555, "\u00e5\u0129\u013f\u00e8\u0123\u013c": 47526, "\u0120\u00d0\u00a2\u00d0\u00be\u00d0\u00b7\u00d0\u00b8": 54102, "\u00e5\u0131\u00a6\u00e5\u00a4\u0138\u00e4\u00b8\u0122\u00e4\u00b8\u00aa": 69509, "\u00e5\u0131\u00ac": 14405, "\u0120Application": 15792, "\u00e7\u013c\u0126\u00e6\u013e\u0122": 40888, "\u0120Slam": 63275, "\u00e6\u013d\u00b4\u00e4\u00bd\u0137\u00e5\u0128\u00b5": 75957, "\u00e6\u0139\u00a9\u00e6\u013b\u013c": 58812, "\u0120Chatt": 85558, "\u0120Cassandra": 69071, "\u00e4\u00bc\u00aa\u00e8\u00a3\u0127": 97500, "Strip": 40064, "\u00e5\u012c\u00bf": 3951, "\u0120features": 3804, "itans": 48027, "\u0120Leiden": 94633, "\u0120including": 2847, "\u00e5\u012f\u0137\u00e7\u012d\u00ac": 40561, "\u00e5\u013f\u013c\u00e5\u013d\u00ba": 93024, "\u0120\u00d0\u013e\u00d0\u00b5": 12578, "Free": 13805, "\u00e9\u0137\u00bf\u00e6\u00b1\u0141": 33801, "\u0125\u00bd": 689, "\u00e5\u013d\u00bd\u00e6\u00b0\u0133": 31744, "relax": 33811, "\u00e6\u013a\u00af\u00e5\u00be\u012a": 29089, "\u00e5\u012d\u0129\u00e6\u00b0\u0136": 40188, "\u00e6\u013a\u0136": 49544, "unused": 50258, "\u0120proporciona": 58757, "LIT": 62176, "\u00e7\u0132\u0125\u00e5\u013e\u00ba": 71854, "\u0120uint": 10930, "Ran": 74497, "\u0120\u00d0\u00b5\u00d0\u00ba\u00d0\u00b8\u00d0\u00bf\u00d0\u00b0": 56469, "\u0120integrator": 75112, "\u0120luxe": 79972, "\u0120Habs": 73800, ")}\\,": 78493, "\u00e5\u00a2\u0140\u00e5\u0122\u00bc\u00e7\u00a8\u0130": 44915, "\u0120intervenir": 81475, "ht": 383, "\u00d0\u00ba\u00d1\u0124\u00d0\u00be\u00d1\u0122\u00d0\u00b8\u00d1\u0131": 87632, "Risk": 77873, "\u00e5\u012f\u00b5\u00e7\u00ae\u00a1": 91699, "ene": 3043, "\u0120\u00d0\u00b5\u00d0\u00b4\u00d0\u00b2\u00d0\u00b0": 51331, "\u00e8\u00bd\u00a6\u00e9\u0122\u0141": 79336, "adel": 15352, "\u0120\u00d0\u0135\u00d1\u012c\u00d1\u0122": 24348, "orientation": 38911, "\u0120notar": 74794, "\u0120seguridad": 87510, "\u0120dinosaur": 87873, "\u00d0\u00ba\u00d0\u00b0\u00d0\u00bd\u00d1\u0123\u00d0\u00ba\u00d0\u00b8": 42907, "Yan": 73813, "ology": 2342, "\u0120autoritats": 40886, "Scot": 50048, "\u00e8\u00af\u00b4\u00e5\u0129\u00ba": 57707, "\u0120ted": 31786, "\u0120Literature": 38683, "\u0120tomat": 20509, "\u0120\u00d1\u0129\u00d0\u00b8\u00d1\u0124\u00d0\u00b0": 62802, "\u00e8\u0129\u00aa\u00e7\u00a7\u0123": 75840, "\u00e2\u0136\u0124": 7497, "\u0120blast": 28884, "\u0120watchers": 97002, "dles": 66060, "shy": 79532, "\u0120broke": 11564, "CONDS": 66700, "\u0120\u00d1\u0130\u00d0\u00bd\u00d0\u00be": 83901, "ognito": 86841, "\u0109j": 95852, "idel": 9222, "\u0120cambres": 42494, "athe": 46856, "\u0120tumult": 45571, "\u0120Defines": 86196, "\u00e5\u012e\u00bb\u00e5\u012c\u00a1": 63200, "\u00e7\u0137": 1920, "lename": 73383, "\u0120suffice": 40164, "\u0120dtype": 50232, "\u0120lavender": 61177, "\u00e7\u013d\u00b8\u00e4\u00bc\u00b4": 75047, "\\}}\\": 81292, "\u0120sweets": 59402, "months": 44792, "\u0120indie": 55162, "\u0120\u00d1\u0123\u00d0\u00b5\u00d0\u00b2\u00d0\u00b5\u00d1\u0122\u00d0\u00be\u00d0\u00b7\u00d0\u00b0\u00d0\u00bf\u00d0\u00b0\u00d0\u00b4": 57958, "\u00d0\u00b3\u00d0\u00b8\u00d0\u00be": 46444, "\u00d0\u00bd\u00d0\u00b8\u00d1\u0131": 1993, "\u00e8\u00a7\u012b\u00e5\u00be\u0139\u00e8\u0129\u00aa\u00e5\u00b7\u00b1": 46333, "\u0120cancers": 58721, "itra": 43832, "\u00e8\u00b4\u00b8\u00e6\u013a\u0135": 21323, "\u00ce\u00bf\u00cf\u0127": 38730, "quired": 77169, "\u0120crimin": 36012, "threads": 38102, "teams": 87848, "\u00e5\u00a6\u0124\u00e4\u00bb\u012c\u00e7\u013c\u0126": 46276, "\u0120ruler": 40939, "\u0120Nokia": 47022, "\u0120co": 980, "\u00e7\u00a7\u00a6": 17185, "\u0120shortcuts": 32815, "\u0120independent": 6187, "\u0120basada": 35391, "\u00e6\u00ae\u012d\u00e9\u0127\u00b7": 63522, "\u0120Fay": 40016, "\u0120feia": 26625, "\u00e6\u013d\u00b4\u00e5\u00a4\u00a7": 32604, "\u0120\u00d0\u00b2\u00d0\u00b5\u00d1\u0123\u00d1\u0124\u00d0\u00bd\u00d0\u00b8\u00d0\u00ba": 51663, "\u0120\u00d1\u0122\u00d0\u00b5\u00d0\u00ba\u00d0\u00b8\u00d1\u0124\u00d0\u00b5": 55111, "\u0120tenia": 6562, "Children": 20083, ")-\\": 17494, "\u0120investing": 24971, "\u0120ARM": 34316, "feet": 34817, "enna": 39983, "\u00e4\u00ba\u00a4\u00e5\u00be\u0122": 40871, "\u0120spit": 57650, "Vict": 37387, "ournal": 6274, "\u0120unconditional": 68366, "\u00d0\u00ba\u00d0\u00b3\u00d1\u0122\u00d0\u00b0\u00d1\u0126": 71488, "\u0120fles": 84227, "\u0120pending": 22636, "matr": 76298, "\u00e7\u012b\u00b9\u00e5\u012a\u00ab": 6662, "\u0120optimised": 90253, "\u0120ATLAS": 85250, "\u00e9\u013d\u00b7\u00e5\u0127\u012d\u00e8\u0132\u00a8\u00e6\u0138\u00af": 90581, "\u0120\u00d0\u0133\u00d1\u0125\u00d0\u00bd": 91951, "\u00e5\u0132\u012f\u00e6\u0142\u00a1": 60834, "race": 37597, "\u0120romana": 29197, "ajar": 93312, "htaccess": 93323, "\u0120polonesa": 96147, "\u0120ahi": 99641, "\u00e6\u00b8\u0132": 9357, "\u00e7\u013d\u00b4\u00e6\u0134\u0143": 16402, "\u00e8\u0129\u00aa\u00e7\u0126\u00b6\u00e8\u0122\u012e": 89031, "pled": 9297, "\u0120cott": 54373, "\u0120spokesperson": 59035, "\u00e6\u012a\u0133\u00e4\u00bb\u0130": 81228, "\u0120traveller": 45376, "\u00e7\u0130\u012d": 3996, "ampoo": 45411, "\u00e5\u013d\u00bd\u00e5\u00ba\u0128": 48150, "reporter": 57497, "fixed": 16896, "\u0120discharging": 66123, "\u0120unconfigured": 68653, "\u0120determiner": 91953, "gments": 87554, "\u0120victories": 48629, "chat": 24468, "\u00e6\u00b3\u00a8\u00e6\u0126\u0131\u00e4\u00ba\u012d\u00e9\u00a1\u00b9": 49849, "\u0120Also": 6070, "\u0120\u00d1\u0124\u00d0\u00b5\u00d1\u0127\u00d0\u00bd\u00d0\u00b8": 45405, "admissible": 84631,
[...]
