{"\u00e8\u00a2\u00ab\u00e5\u013d\u00b0": 91499, "}}).": 99718, "eppelin": 88325, "\u0120loans": 16570, "\u0120sauce": 15068, "\u00e4\u00ba\u00ba\u00e7\u00b1\u00bb\u00e7\u013c\u0126": 68973, "\u0120Write": 17370, "zf": 75813, "auto": 10860, "\u0120cavity": 28712, "\u0120addicted": 56690, "\u0120Institutes": 80786, "Boys": 90580, "\u0120\u00d0\u00b2\u00d1\u012c\u00d0\u00b7\u00d1\u0122\u00d0\u00be\u00d0\u00b6\u00d0\u00b4\u00d0\u00b5\u00d0\u00bd": 93849, "\u0120acquaintance": 27798, "\u0120combustible": 57085, "\u0120Transformer": 56123, "\u0120annih": 33065, "iban": 55023, "\u0120wagg": 76472, "\u0120featuring": 17713, "\u0120quartic": 86515, "\u00e9\u00a9\u00b1": 16837, "\u0120Stephenson": 99812, "\u0120stunned": 55607, "rese": 50335, "\u00e7\u00b2\u00be\u00e5\u00bd\u00a9\u00e7\u013c\u0126": 70159, "sqcup": 54457, "\u00e8\u00bd\u00a9": 38018, "\u0120Lion": 20198, "\u0120soul": 7828, "\u0120kinetic": 28606, "figref": 80536, "\u00e8\u00bf\u00aa": 12071, "\u0109fmt": 72926, "\u0120Literature": 38683, "allo": 67931, "\u00e3\u0123\u0137\u00e3\u0124": 95138, "zero": 12029, "\u0120Twenty": 43928, "\u0120addressing": 22931, "\u00e5\u012f\u00ab\u00e7\u0136\u0141\u00e5\u0123\u00a5\u00e5\u00ba\u00b7": 85026, "\u00d0\u00bc\u00d0\u00b0\u00d0\u00b9\u00d1\u0123\u00d1\u0124\u00d0\u00be\u00d1\u0122": 98285, "\u00e8\u00bf\u013d\u00e5\u0129\u00ba": 70791, "references": 63489, "\u0120Voltage": 38301, "\u0120Nelson": 24192, "\u0120Sovi": 32915, "\u0120furnish": 28279, "\u0120Opportunity": 61106, "\u0120\u00d0\u00bd\u00d0\u00b0\u00d1\u0122\u00d0\u00b5\u00d1\u0129\u00d0\u00b5\u00d0\u00bd": 70782, "testing": 21552, "Renderer": 27372, "distance": 20457, "\u0120bitterly": 44604, "\u0120conserved": 47267, "angled": 25038, "\u0120reinforcing": 99690, "\u0120sobs": 81515, "TPS": 43859, "\u0120Audience": 89567, "\u0120PhD": 28850, "\u0120Availability": 52219, "\u0120Reserva": 90550, "\u0120Amanda": 44030, "\u0120\u00d0\u00bf\u00d1\u0122\u00d0\u00be\u00d1\u0124\u00d0\u00b8\u00d1\u0129\u00d0\u00b0": 90142, "\u0120aa": 68354, "\u0120Springs": 27177, "VAE": 91841, "covered": 35823, "ibu": 18772, "\u00e7\u0125\u00b9": 43422, "ynman": 50652, "CK": 6115, "\u0120\u00d0\u013d\u00d0\u00b5\u00d0\u00b2\u00d1\u0123\u00d0\u00ba\u00d0\u00b8": 53362, "\u00e7\u012b\u00a9\u00e8\u00b4\u00a8": 14706, "|>": 66325, "\u0120Thousands": 77239, "\u00e5\u00b0\u00bd\u00e9\u0129\u0131\u00e4\u00b8\u012f\u00e8\u00a6\u0123": 95264, "\u00e8\u00a1\u00a8\u00e5\u00bd\u00b0": 70360, "ivn": 93058, "\u0120Laugh": 72118, "\u0120teaspoons": 88672, "boson": 85858, "\u0120ASE": 84103, "iak": 64364, "\u00e9\u00a6\u0138\u00e6\u00ac\u00be": 67471, "\u0120Cam": 8231, "\u0120\u00d0\u00b0\u00d0\u00b4\u00d0\u00bc\u00d0\u00b8\u00d0\u00bd\u00d0\u00b8\u00d1\u0123\u00d1\u0124\u00d1\u0122\u00d0\u00b0": 58887, "\u00e6\u0138\u00af\u00e5\u0141\u00ba": 96981, "Salida": 83258, "\u0120Junk": 66264, "\u0120Fighting": 72393, "\u0120accidental": 38368, "\u00e7\u012d\u00b8": 78616, "\u0120combat": 14711, "Hast": 88250, "!}": 52575, "\u00e9\u013d\u00b7\u00e8\u00be\u00be": 57920, "hunt": 90745, "\u00e8\u0127\u00bf": 11989, "imated": 22264, "\u0120spouse": 30295, "\u0120planets": 28600, "\u0120\u00d1\u0122\u00d0\u00b5\u00d0\u00b3\u00d0\u00b8\u00d0\u00be\u00d0\u00bd\u00d0\u00b0": 47408, "\u0120layers": 10653, "\u0120\u00d1\u0126\u00d1\u0122\u00d0\u00b0\u00d0\u00bd": 58084, "\u0120\u00d0\u00a1\u00d0\u00ba\u00d0\u00be\u00d1\u0122\u00d0\u00be": 87509, "\u0120imprison": 30851, "\u00e5\u013e\u00a8\u00e5\u00a5\u00b9": 65587, "\u0120irrelevant": 32047, "\u0120Conver": 85901, "\u0120Morm": 44906, "Experimental": 53347, "\u0120Drets": 80399, "\u00e6\u013a\u00af\u00e4\u00b8\u0122\u00e4\u00bb\u00b6": 54169, "\u0120\u00d0\u00b2\u00d0\u00b0\u00d1\u0122\u00d0\u00b8\u00d0\u00b0\u00d0\u00bd\u00d1\u0124": 77844, "\u00e7\u0143\u012b": 1537, "\u0120hus": 6376, "ueren": 45172, "Gal": 22722, "\u00e6\u00af\u013d\u00e8\u00a1\u00a3": 74875, "\u00d0\u0132\u00d0\u00ba\u00d1\u0124\u00d1\u012e\u00d0\u00be\u00d1\u0122\u00d1\u0123\u00d0\u00ba\u00d0\u00b8": 99137, "\u0120esf": 94130, "\u0120\u0109\u0109": 51793, "\u00e5\u013e\u00ba\u00e5\u013f\u0129": 54186, "\u0120humbled": 84976, "\u0120fos": 18192, "\u00e6\u013a\u00af\u00e6\u012e\u0129": 26026, "aparell": 62576, "Brun": 73131, "\u0120slow": 4363, "\u0120Isaac": 34559, "\u00e4\u00be\u013d": 4068, "\u0120cubes": 48912, "ette": 7924, "icultural": 49195, "\u00e8\u00bf\u013b\u00e7\u00af\u0129\u00e6\u0138\u0129\u00e7\u00ab\u0142": 69108, "iab": 41483, "\u00e6\u0141\u00a5": 4093, "\u00e5\u00b9\u00bd": 26330, "urate": 45966, "VOL": 52044, "gat": 52331, "\u00e5\u00b0\u0136\u00e5\u00a4\u00ab": 64176, "\u0120gratefully": 66423, "closure": 15752, "\u0120Shows": 55230, "\u0120provoke": 71966, "\u00d0\u00bf\u00d1\u0125\u00d0\u00bb\u00d1\u0131\u00d1\u0122": 81379, "\u0120muons": 91400, "\u0120unions": 37366, "gerald": 61843, "\u00e8\u012d\u00a6\u00e7\u0135\u013e": 93504, "\u0120ms": 14442, "\u0120\u00d0\u00a3\u00d0\u00bd\u00d0\u00b8": 49511, "\u00e6\u00b3\u00a8\u00e6\u013a\u0130": 53543, "\u0120matriu": 66556, "\\!\\!\\": 66413, "\u00e5\u00b0\u0123\u00e4\u00bf\u00a1": 89371, "\u0120productions": 41075, "\u0120\u00d0\u00ba\u00d0\u00bb\u00d0\u00b8\u00d0\u00bc\u00d0\u00b0\u00d1\u0124": 95639, "-+-------+": 99710, "\u0120\u00d0\u0142\u00d0\u00b0\u00d0\u00bd": 81881, "}=-": 44866, "\u00e8\u013e\u0124\u00e8\u013e\u013e": 40216, "\u0120disposava": 74244, "\u00e9\u00a5\u00b5": 77827, "\u0120\u00c2\u00b1\u0120": 61178, ",#": 81448, "Inf": 20467, "\u0120Isles": 73894, "\u0120Schro": 88066, "alloween": 24796, "\u0120rc": 32582, "\u0120policymakers": 93927, "\u0120Does": 9843, "\u0120\u00d1\u0129\u00d0\u00b8\u00d0\u00bd": 74568, "Plot": 43895, "\u0120graves": 53421, "\u0120Heine": 98292, "\u00e8\u012a\u012e": 27586, "\u0120Facilities": 57886, "looking": 13275, "estamp": 11207, "\u0120featured": 17120, "\u00e4\u00b8\u0122\u00e6\u0142\u00b9": 52703, ")+": 9759, "\u00e5\u0135\u0123\u00e7\u00a7\u012f": 25146, "\u00e4\u00ba\u0128\u00e6\u012a\u0133\u00e4\u00bb\u00ac": 87399, "\u0120Doppler": 61760, "\u0120\u00d0\u00bd\u00d0\u00b0\u00d1\u0122\u00d0\u00b5\u00d0\u00b6\u00d0\u00b4\u00d0\u00b0": 96344, "Ros": 38982, "duino": 16182, "\u00e5\u0124\u012f\u00e6\u013b\u013c": 74380, "\u0120Shift": 34675, "unconscious": 91127, "\u00e7\u013d\u00b8\u00e8\u00af\u0128": 65074, "\u0120\u00d0\u00b5\u00d0\u00b4\u00d0\u00b8\u00d0\u00bd": 11114, "\u00e6\u0122\u00bb\u00e7\u00bb\u0141": 30556, "\u0120Ising": 67125, "uh": 19661, "aroo": 69318, "lelament": 88630, "\u00e4\u00b8\u00bb\u00e6\u0134\u0143": 37027, "\u00e8\u0122\u012e\u00e8\u00a8\u0122\u00e4\u00b9\u012d": 93083, "CENT": 90728, "\u0120soil": 13314, "\u0120concepts": 16982, "\u00e5\u012f\u0123\u00e8\u00b6\u00b3": 30466, "Actualment": 47269, "\u00e6\u00af\u0131\u00e6\u013e\u012a": 37018, "\u0120Terry": 34024, "\u00e7\u013c\u0126\u00e4\u00b8\u00bb\u00e4\u00bd\u0135": 88165, "_.]": 88874, "\u0120Things": 21985, "\u00e8\u0125\u0140": 14942, "\u0120Wayland": 67762, "Device": 11731, "\u00e9\u0139\u00b4\u00e9\u013c\u013b": 83787, "\u0120Fortress": 85743, "nasa": 97277, "Simons": 87210, "grep": 39766, "Was": 23973, "HG": 77160, "\u0120dret": 19616, "\u0120dirigir": 24939, "\u0109g": 42973, "\u00e7\u00bb\u0126\u00e6\u012a\u0132\u00e7\u013c\u0126": 58635, "onclick": 81214, "tc": 18984, "\u00d0\u00bf\u00d0\u00b0\u00d0\u00b4\u00d0\u00b0": 26296, "\u0120reused": 71896, "\u00e6\u013d\u00b4\u00e9\u0129\u012f\u00e8\u00a6\u0123": 82299, "\u0120wherever": 21004, "\u0120Romero": 72257, "\u0120Offices": 73213, "Cou": 40435, "\u00e5\u0130\u013a": 29650, "\u0120Recruitment": 60647, "\u0120unworthy": 53601, "\u00e4\u00b9\u012d\u00e5\u012a\u0128": 95474, "\u0120yeah": 30351, "\u0120condici": 31813, "ceptor": 41231, "\u00d1\u0124\u00d0\u00be\u00d0\u00b2\u00d0\u00b5": 48102, "\u00e7\u013c\u0126\u00e4\u00ba\u00a7\u00e5\u0135\u0123": 24457, "\u0120Diego": 19521, "owntown": 41017, "\u00e7\u00a7\u00bb\u00e6\u00a4\u012f": 66048, "\u0120Thomas": 10001, "\u0120converting": 30833, "\u00e6\u00bd\u013a": 34966, "danger": 21554, "\u0120pillar": 53650, "caps": 44373, "\u0120holog": 49736, "ilar": 2633, "gla": 63670, "\u0120APK": 76266, "\u0120demas": 78202, "\u0120prostrate": 88200, "replica": 80375, "terror": 56273, "VGA": 82603, "TF": 16891, "\u0120TF": 35748, "entic": 77531, "\u00e9\u00ba\u00bb\u00e5\u00b0\u0128": 90719, "\u0120lagoon": 85509, "understand": 28063, "\u0120Bundes": 84386, "haps": 3813, "\u0120bestowed": 46118, "\u00a5": 98, "\u0120assailed": 88124, "trap": 56728, "\u00e8\u0123\u013c\u00e9\u013d\u0128": 35345, "\u00e6\u00b2\u012b\u00e7\u00a8\u00b3": 91467, "\u0120Cellular": 92030, "\u0120aton": 98074, "\u0120Institution": 37520, "\u0120\u0120\u0120\u0120\u0120\u0120\u0120\u0120\u0120\u0120": 3180, "\u00e6\u013e\u012a\u00e4\u00bb\u00bd": 16258, "\u0120tolerably": 83847, "bitat": 24854, "\u0120his": 586, "\u0120Campos": 87614, "\u0120again": 1310, "\u00e8\u012b\u00b2\u00e6\u00b3\u00bd": 75058, "\u0120svn": 92417, "\u00e4\u00b8\u0143\u00e4\u00b9\u012d": 69619, "\u0120govern": 2738, "\u0120acute": 29494, "\u0120phrases": 18779, "\u00d0\u00b4\u00d1\u012c\u00d0\u00bb": 12802, "\u00e9\u0122\u0124\u00e7\u0136\u00a8\u00e4\u00ba\u0130": 44150, "\u00e8\u00b7\u00af\u00e8\u00bf\u0129": 76287, "Betty": 89241, "sche": 7757, "\u0120sodium": 43700, "\u0120Pauli": 57308, "\u00e6\u00bb\u00a1\u00e6\u00bb\u00a1": 36489, "\u00e8\u00a1": 741, "\u0120changed": 5464, "\u00e9\u0129\u0133\u00e9\u0134\u00b1": 36465, "\u0120Roland": 42495, "\u0120Distributed": 50273, "director": 52926, "\u0120grabbing": 63030, "Endpoints": 65775, "\u0120hp": 41184, "\u0120actuals": 42846, "\u00e7\u013c\u0126\u00e9\u013f\u00a2": 47837, "abases": 15473, "\u0120\u00d0\u00b4\u00d0\u00b2\u00d0\u00b0\u00d0\u00bc\u00d0\u00b0\u00d1\u0124\u00d0\u00b0": 51212, "\u0120mutil": 71061, "\u0120\u00d0\u00b4\u00d0\u00be\u00d0\u00ba\u00d1\u0125\u00d0\u00bc\u00d0\u00b5\u00d0\u00bd\u00d1\u0124\u00d0\u00b0": 71369, "\u00e6\u012b\u012d\u00e8\u0126\u013c": 71589, "defaultValue": 77716, "trunk": 44501, "There": 2960, "\u00e6\u00b2\u00a1\u00e5\u012c\u0140\u00e6\u00b3\u0137": 54773, "TRACK": 80908, "\u0120KVM": 84772, "\u0120Osm": 85825, "\u0120book": 2135, "ensi": 27801, "CAST": 32524, "\u0120Marian": 42989, "\u0120renal": 60389, "\u0120aggression": 62320, "\u0120INTER": 39266, "pw": 48407, "nvme": 54974, "\u0120FFT": 70943, "TRANS": 49513, "ajos": 82385, "\u00e4\u00ba\u013c\u00e5\u00a4\u00aa": 86760, "flows": 80407, "\u0120Swed": 18774, "principle": 59354, "\u0120happenings": 87388, "\u0120modalitat": 89077, "\u00e5\u013f\u0129\u00e5\u012e\u0122": 29040, "\u0120maximise": 73040, "\u00e8\u00bf\u013b\u00e5\u0126\u00bf": 89714, "\u0120tsunami": 90536, "ensa": 31376, "\u0120containers": 24573, "\u0120desig": 46092, "\u0120debates": 50263, "className": 27538, "\u0120numer": 5321, "vered": 64675, "\u0120drummer": 67198, "\u00e5\u00b1\u0127": 5528, "\u0120ecstasy": 76447, "Modelo": 87015, "\u0120exports": 23095, "\u0120BufferedReader": 88080, "\u0120BOOT": 89372, "PLUS": 97615, "Nominacions": 98267, "stochastic": 76655, "\u0120\u00d0\u00bf\u00d0\u00be\u00d1\u0123\u00d1\u0124\u00d1\u012c\u00d0\u00bf\u00d0\u00b2\u00d0\u00b0": 80034, "\u0120fainted": 90308, "\u00e6\u00af\u0136\u00e8\u00b5\u013d": 8846, "\u0120roost": 96543, "\u0120migration": 24097, "noop": 59697, "\u0120bulge": 64742, "inate": 17532, "gauge": 47075, "\u0120Knight": 27759, "tles": 99922, "<\uff5ctool\u2581output\u2581begin\uff5c>": 100015, "\u00d0\u00b8\u00d1\u0124\u00d0\u00be": 6468, "cif": 57447, "code": 2121, "\u0120Walton": 68416, "\u00e5\u00b0\u0128\u00e5\u013e\u00a8": 23339, "\u0120\u00d0\u0132\u00d0\u00b1": 79913, "WER": 92784, "definitions": 65900, "\u0120circle": 9982, "iling": 5969, "\u0120floating": 17864, "\u0120tooth": 19022, "\u0120Rece": 55630, "\u0120sweat": 27282, "\u0120relies": 27244, "structures": 66627, "\u00d0\u00bc\u00d0\u00be\u00d0\u00b2\u00d0\u00b0": 83532, "\u0120Match": 23680, "\u0120\u00d0\u00b7\u00d0\u00b0\u00d0\u00b3\u00d1\u0125": 38310, "ubert": 50822, "\u0120perenn": 57146, "\u00e4\u00b8\u0143\u00e7\u00ba\u00a7\u00e4\u00ba\u00ba\u00e6\u00b0\u0133\u00e6\u00b3\u0137\u00e9\u013b\u00a2": 83308, "theories": 95234, "\u0120Dades": 28358, "dynam": 96107, "\u0120\u00d0\u00bf\u00d1\u0122\u00d0\u00b5\u00d0\u00bc\u00d0\u00b5\u00d1\u0123\u00d1\u0124\u00d0\u00b2\u00d0\u00b0": 70529, "\u0120portada": 54364, "ichthys": 94308, "\u0120easily": 4671, "\u0120atmos": 78597, "inuz": 42674, "\u0120public": 1272, "\u00e7\u0143\u012b\u00e6\u0138\u00b9\u00e9\u013f\u00a2\u00e7\u013c\u0126": 73407, "Of": 4112, "esca": 43946, "\u00e5\u0127\u00bb\u00e9\u00a2\u013e": 93132, "\u0120tests": 9131, "\u0120GH": 52798, "dorf": 76502, "\u00e8\u0129\u00aa\u00e7\u0126\u00b6": 7354, "\u00e5\u012f\u00b8": 38439, "\u00e8\u00a7\u0134\u00e8\u00b4\u00a8": 82279, "idity": 18639, "\u0120Conversation": 58738, "\u0120Church": 7448, "\u00e4\u00bb\u0135\u00e5\u00ba\u0135": 63412, "experienced": 86497, "\u0120MD": 17958, "\u0120Ancient": 37836, "][<": 69327, "\u0120ascertain": 29050, "\u0120gorgeous": 17008, "\u00e8\u0122\u012f": 40469, "SF": 31546, "\u00e4\u00b9\u0141\u00e7\u00ae\u0139\u00e6\u013a\u00af": 68125, "\u0120relatives": 26938, "\u0120Cooperation": 87405, "ollary": 13201, "\u0120damunt": 40518, "\u0120audience": 10079, "\u0120.$": 92554, "\u0120customised": 95722, "\u0120Fitness": 40378, "\u0120Actor": 51649, "\u0120GT": 17385, "ulta": 27744, "PORT": 12020, "\u0120\u00d1\u0125\u00d1\u0123\u00d1\u0124\u00d0\u00b0": 49111, "\u00e5\u0134\u012d": 63285, "quette": 80512, "\u00d1\u0130\u00d1\u0122\u00d1\u0124\u00d0\u00b5\u00d0\u00bc\u00d0\u00b1\u00d0\u00b5\u00d1\u0122\u00d0\u00b3": 86751, "\u0120directes": 98350, "\u0120objectively": 98572, "\u00e9\u00a2\u0128\u00e5\u00af\u00bc\u00e4\u00b8\u012d": 93394, "\u0120brilliancy": 98605, "\u0120Campo": 60507, "\u0120sacrament": 98983, "Steps": 54010, "\u0120Vega": 54432, "\u00e5\u00a4\u00b4\u00e5\u0131\u0133": 24333, "\u00e6\u00b4\u00bd": 51603, "pression": 4833, "\u0120raising": 17811, "impse": 29530, "\u0120Patel": 84734, "\u0120Maggie": 46398, "\u0120occupies": 55017, "\u00d0\u00b4\u00d1\u0131\u00d1\u0124": 48003, "\u0120opting": 82844, "amples": 10583, "\u00e8\u00bf\u013d\u00e5\u012e\u0138": 67657, "Iteration": 83681, "/[": 55182, "\u0120\u00d1\u0128\u00d1\u012c\u00d1\u0122\u00d0\u00ba\u00d0\u00b2\u00d0\u00b0\u00d1\u0124\u00d0\u00b0": 36805, "\u00d1\u012a\u00d0\u00b0\u00d1\u0124\u00d0\u00b0": 48403, "rawling": 63175, "\u0120presentaci": 58465, "\u00cf\u0124": 17038, "\u0120basketball": 23892, "Aix": 48379, "\u00e9": 163, "\u0120especially": 4398, "footnotes": 21747, "\u00e9\u013f\u00b6": 79687, "necess": 12685, "\u00e6\u00af\u013d\u00e6\u00b3\u00bd\u00e4\u00b8\u013e": 33373, "\u0120spoils": 77001, "\u00e7\u012c\u00b6\u00e5\u0127\u0125": 79971, "\u0120eradic": 83018, "\u0120seny": 15357, "\u00ef\u00bb\u00bf\u00ef\u00bb\u00bf": 59293, "\u00e5\u0134\u0131": 62446, "ASS": 31031, "\u0120realizes": 58977, "\u0120endowed": 43824, "\u00e7\u00b9\u0123": 13677, "Amazon": 39036, "endar": 8429, "\u00e5\u0131\u00b2\u00e4\u00b8\u012c": 50212, "\u0120Ballet": 55924, "crime": 70954, "\u0120hustle": 80142, "Preliminaries": 82949, "\u00e8\u0126\u0132": 52490, "tracker": 57991, "\u00e7\u0123\u00ab\u00e7\u012a\u0128": 47105, "\u00e5\u00a4\u00a9\u00e7\u0126\u00b6": 22789, "\u0120internships": 87840, "\u0120\u00d0\u00a2\u00d0\u00b8\u00d0\u00bc": 96580, "owed": 12944, "aderia": 73502, "\u00e7\u0136\u0141\u00e4\u00ba\u00a7\u00e5\u0134\u012e": 96247, "und": 1553, "\u0120mim": 29708, "\u0120leaf": 14568, "\u0120Protocol": 33972, "\u0120constru": 6430, "\u0120Chung": 94015, "\u00e5\u00a4\u00a7\u00e5\u00b7\u00b4": 96596, "\u0120epist": 57558, "Tool": 15127, "ha": 3793, "\u0120\u00d1\u0123\u00d1\u012c\u00d1\u0124\u00d1\u0122\u00d1\u0125": 44496, "\u0120Cesar": 99072, "\u00e8\u00be\u0140": 22131, "\u0120\\%": 48179, "comings": 61283, "\u0120thanks": 7749, "CIAL": 39703, "\u0120creatively": 86725, "\u0120liquor": 36872, "Android": 26412, "aternion": 50671, "\u00e4\u00bd\u00bf": 2581, "\u0120\u00d1\u0123\u00d0\u00b5\u00d0\u00bc\u00d0\u00b5\u00d0\u00b9": 13572, "\u0120definitions": 16936, "cursor": 21679, "\u0120@\"": 25564, "\u0120aging": 31551, "\u0120\u00d1\u0123\u00d1\u0122\u00d0\u00b5\u00d0\u00b4\u00d0\u00b0\u00d1\u0124\u00d0\u00b0": 38964, "\u00e6\u012d\u00a7": 86283, "\u0120Pune": 76462, "\u0120\u00c2\u00a1": 65410, "\u0120$>$": 94078, "\u00e5\u00be\u012a\u00e5\u00a5\u00bd\u00e7\u013c\u0126": 21733, "peres": 10101, "\u0120Tx": 22744, "\u00e6\u012c\u012c\u00e4\u00bd\u0142": 60252, "\u0120Scottish": 26836, "atics": 35453, "\u0120Purple": 47587, "\u00e9\u00a2\u0127": 92445, "\u00e9\u00a9\u00ac\u00e5\u012a\u00ba": 85819, "\u0120\u00d1\u0123\u00d0\u00b2\u00d0\u00b5\u00d1\u0124\u00d0\u00be\u00d0\u00b2\u00d0\u00bd\u00d0\u00b0": 22462, "\u0120wildlife": 28926, "\u00e5\u00b0\u00b1\u00e6\u0125\u00b3": 63751, "\u0120Whom": 89070, "avelength": 19248, "\u0120chloride": 82734, "brother": 31838, "\u0120Russians": 44446, "\u0120pact": 58589, "\u00e6\u00b3\u00a8\u00e6\u0126\u0131\u00e7\u013c\u0126\u00e6\u013a\u00af": 44416, "\u0120Andrea": 39451, "\u0120Sunset": 65111, "\u0120shapefile": 38886, "\u0120organisation": 21435, "ixes": 38604, "\u0120Rogers": 32633, "diagn": 49886, "\u0120extr": 15077, "\u00e6\u013e\u00ba\u00e8\u0125\u00bd": 73850, "URA": 75586, "\u0120surv": 8606, "\u0120Dias": 89474, "\u0120Launch": 31438, "\u00e4\u00bf\u00ae\u00e8\u00ba\u00ab": 78000, "demean": 68058, "\u0120destacades": 67798, "\u00d0\u00b2\u00d0\u00b8\u00d0\u00bb\u00d0\u00b8": 92345, "\u0120Speedway": 91791, "\u0120rem": 1092, "\u0120Creat": 11730, "\u0120relacionar": 92233, "lero": 92721, "\u00e7\u0136\u00b5\u00e5\u0130\u012d": 69341, "\u0120wrinkled": 79410, "\u0120Assistance": 50116, "\u0120champagne": 50127, "\u0120Metropolit": 94230, "evac": 96491, "\\$\\": 76036, "amo": 28256, "\u0120innate": 62085, "\u0120kindness": 22751, "\u0120listener": 17937, "\u0120mont": 30390, "Dataset": 33776, "possess": 81564, "\u0120student": 6710, "positive": 28573, "\u0120Parking": 46991, "\u00d0\u00a7\u00d0\u00b5": 74203, "\u0120Essentially": 62834, "]\\": 9840, "\u00e6\u00b1\u013d": 74528, "QD": 92704, "\u0120Fira": 95624, "\u0120Bos": 22099, "architecture": 47876, "\u0120\u00d0\u00b4\u00d0\u00be": 2736, "\u0120hoped": 18936, "\u00e5\u00b0\u00b1\u00e5\u00b7\u00b2\u00e7\u00bb\u0131": 32744, "\u0120Enough": 62963, "\u0120activist": 52781, "\u0120ment": 4630, "\u0120jet": 17107, "\u0120movies": 14242, "\u0120Twitter": 11187, "\u0120creaci": 21580, "\u0120Hamiltonian": 16946, "\u0120toward": 7230, "\u0120inexpensive": 34442, "\u00e6\u013e\u012b\u00e4\u00b8\u0122\u00e7\u00a7\u012f": 34718, "\u0120interrupts": 53230, "\u0120designs": 11115, "\u0120Zak": 71144, "\u00e4\u00b8\u0143\u00e6\u013e\u012b": 28687, "\u0120methodology": 28953, "illation": 41497, "\u00e5\u012f\u00a6": 41234, "\u00e5\u012f\u0139\u00e9\u013f\u0140": 97030, "Monitoring": 87963, "\u0120etiquette": 67718, "\u0120thumbnails": 83566, "\u0120Giro": 45976, "list": 2502, "\u00e9\u0129\u012f\u00e9\u0129\u012f": 72509, "\u0120Rights": 19185, "\u00e9\u0123\u0139\u00e6\u0128\u00be": 32370, "\u00e8\u00a1\u012e\u00e8\u00bd\u00a6": 44468, "\u00e7\u0141\u013d": 22578, "\u00d0\u00ba\u00d0\u00bb\u00d0\u00be\u00d0\u00bf\u00d0\u00b5": 75358, "\u0120Cart": 13345, "\u00d0\u00ba\u00d0\u00b0\u00d1\u0122": 16471, "\u0120\u00d1\u0124\u00d0\u00be\u00d1\u0122": 64984, "\u00ea\u00b5": 91765, "spapers": 78347, "mitt": 27533, "\u0120gone": 5418, "clearly": 71223, "\u0120tagging": 67038, "\u0120permissible": 79162, "Heart": 47948, "\u0120cognition": 94919, "\u00d0\u00b4\u00d0\u00b0\u00d1\u0124": 18026, "egin": 932, "ol": 314, "renentatge": 49800, "\u0120Tracy": 56752, "\u0120mongo": 51698, "\u0120escolar": 46473, "metic": 18871, "\u0120enseny": 39180, "ionista": 38037, "QP": 58486, "\u00d1\u0123\u00d0\u00ba\u00d0\u00be\u00d1\u0124\u00d0\u00be": 9515, "\u00e5\u012f\u013c\u00e4\u00b8\u00bb": 85144, "\u0120zlib": 89204, "\u0120pant": 13777, "Welcome": 20684, "\u0120Zig": 84194, "Relax": 92145, "\u0120traits": 31081, "jon": 46478, "\u00e5\u0143\u00b5": 60434, "ulk": 24579, "\u00e9\u0125\u0143": 18820, "SEG": 86968, "operaci": 62047, "\u00e5\u012b\u012f\u00e8\u00a1\u012e": 51690, "hwe": 90472, "\u0120merrily": 79537, "\u0120deterior": 32679, "\u00d1\u0123\u00d0\u00bf\u00d0\u00be": 15435, "\u0120installer": 20677, "\u0120Blackjack": 99874, "\u0120\u00d0\u0135\u00d1\u0122\u00d0\u00b0": 28669, "\u0120animated": 27673, "\u0120pelegr": 84530, "{\\,\\": 94294, "JM": 64478, "\u0120penal": 15950, "hybrid": 59573, "\u0120worms": 53328, "onClick": 95895, "\u00e6\u0140\u00af\u00e7\u0129\u00a5": 96808, "\u00e8\u00bf\u013b\u00e8\u00af\u00b4\u00e6\u013a\u0130": 99036, "\u0120reduced": 8487, "\u0120habitants": 31624, "\u0120principally": 55387, "\u0120Siemens": 83475, "AW": 29782, "\u00e7\u0138\u0133\u00e9\u013c\u00be": 92939, "\u00e8\u00a2\u00ab": 2209, "\u00e5\u013e\u00a8\u00e6\u0141\u0132": 95423, "Zen": 80150, "\\}^{": 88765, "\u0120improb": 56061, "\u0120fear": 5663, "\u0120angry": 15846, "\u0120pioneer": 49823, "\u0120\u00d0\u00bd\u00d0\u00b0\u00d1\u0129\u00d0\u00b8\u00d0\u00bd": 31609, "scanner": 75441, "bles": 7662, "\u0120VMs": 67272, "\u0120implode": 94401, "\u00d1\u0124\u00d0\u00b8\u00d1\u0122\u00d0\u00b0": 15757, "\u00d0\u00b1\u00d0\u00b0\u00d1\u0124\u00d0\u00b0": 24763, "initrd": 51194, "\u0120integrates": 57932, "\u0120implications": 24674, "\u0120CN": 36200, "\u0120ax": 7624, "Normally": 68512, "\u0120continguts": 69438, "\u00e5\u013b\u00a8": 4625, "NUMBER": 35719, "\u00e5\u013f\u0129\u00e4\u00b8\u00ba": 47772, "_.": 4549, "\u0120gearbox": 98409, "\u00e5\u012f\u00b0\u00e5\u012a\u00b7": 57637, "\u00e8\u0125\u00bd\u00e5\u00a4\u0141\u00e8\u00ae\u00a9": 98096, "\u00e6\u0130\u00a8\u00e5\u0132\u0133": 82519, "\u0120belga": 54069, "\u00e8\u0123\u012d": 63574, "\u00e8\u00bf\u013d\u00e4\u00b8\u0122\u00e6\u0143\u00a5\u00e5\u012c\u0142\u00e5\u00bc\u00ba": 81812, "Return": 8925, "\u0120timed": 36238, "aptop": 7699, "\u0120Al": 1396, "\u0120cant": 7246, "\u0120Arbor": 67596, "IGHT": 15228, "\u00e9\u00a3\u0130\u00e6\u013c\u00b4": 75316, "ABC": 37190, "IGHTS": 75319, "\u00e9\u013a\u00b3\u00e5\u0130\u00bf": 75077, "\u0120organisations": 25812, "\u00ec\u013e": 75706, "Pressure": 84481, "\u0120bulbs": 39974, "\u0120OUR": 58011, "\u0120algunos": 53372, "igis": 91199, "ulator": 13911, "algebras": 51541, "Marg": 37712, "\u0120prior": 5080, "-": 12, "\u00e6\u012e\u0129\u00e7\u00a4\u00ba": 46576, "ayed": 51151, "\u0120racial": 35572, "itor": 1940, "memitem": 66255, "\u00e6\u0122": 828, "\u0120specialized": 24414, "Ass": 5630, "oelectric": 72368, "\u00e5\u00bc\u0122\u00e7\u013d\u013a": 49304, "\u0120Bubble": 78470, "azing": 82897, "\u00e9\u0139\u00aa": 19370, "\u0120Ile": 86247, "upp": 91732, "\u0120Florent": 67166, "\u0120radis": 92087, "\u00e9\u0122\u012b\u00e4\u00b8\u00be": 62513, "\u00e6\u0138\u00b9\u00e9\u013f\u00a2": 4782, "\u00e6\u0126\u0141\u00e7\u0141\u00a5": 59424, "symmetric": 40415, "\u0120Constantinoble": 57859, "apart": 44737, "ATIVE": 45759, "\u00e8\u0129\u00aa\u00e7\u00a7\u0123": 75840, "\u00e6\u013e\u00ac\u00e9\u013b\u00a2": 83404, "\u0120exclusively": 22294, "ocells": 85263, "\u0120concepci": 85333, "\u0120converses": 96782, "\u0120\u00d0\u00b0\u00d1\u0122\u00d1\u0127\u00d0\u00b8\u00d1\u0124\u00d0\u00b5": 34490, "\u0120generation": 8979, "\u0120Rapids": 61838, "\u00e9\u013e\u0122\u00e8\u00a6\u0123\u00e6\u00b3\u00a8\u00e6\u0126\u0131": 75549, "Economia": 24003, "\u0120alphabetical": 97689, "\u0120flexible": 15650, "\u0120\u00d1\u0123\u00d1\u0124\u00d0\u00b5\u00d0\u00bd\u00d0\u00b8": 90700, "icits": 88750, "blem": 11230, "\u0120Providing": 74966, "\u0120conv": 5885, "\u0120eb": 56228, "\u0120debris": 33387, ")})": 19642, "rwx": 26842, "\u00e7\u0123\u00b5\u00e6\u0137\u0131": 93970, "wani": 98343, "\u0120assassinat": 44125, "\u0120described": 5734, "\u0120\u00d1\u0126\u00d1\u0122\u00d0\u00b0": 89020, "\u0120Font": 16798, "\u0120Gemini": 85188, "\u0120inequalities": 33992, "confirm": 35004, "\u0120sharp": 11453, "pro": 671, "\u0120ocupa": 45851, "\u0120Strategic": 50775, "\u0120darle": 67639, "\u0120dynamics": 12024, "\u00e7\u0141\u00bf\u00e4\u00b8\u013c": 92846, "\u0120pist": 19721, "\u0120\u00d1\u012a\u00d0\u00be\u00d1\u0125": 73696, "\u00e5\u00a4\u00a9\u00e7\u013c\u0126": 17842, "\u0120Yum": 88533, "amente": 8984, "\u0120Howard": 24589, "\u0120salads": 58471, "\u0120pointed": 11977, "\u00e6\u00b5\u0128": 29907, "\u0120cathedral": 42970, "\u0120INS": 23505, "existent": 61042, "\u00e9\u013f\u0140\u00e5\u00b8\u00b8\u00e7\u013c\u0126": 21079, "\u0120clause": 12341, "\u0120Currently": 25192, "\u0120warrant": 14524, "versations": 75905, "\u0120defensa": 25300, "\u0120lluites": 85960, "Feed": 27872, "mapsto": 16433, "\u00e7\u013b\u00bb\u00e4\u00b8\u012c": 57759, "iation": 6670, "\u0120crisis": 15080, "\u0120\u00d1\u0127\u00d1\u0122\u00d0\u00b0\u00d0\u00bd\u00d0\u00b8": 97213, "abody": 90192, "\u0120falls": 15300, "\u0120\u0120\u0120\u0120\u0120\u0120\u0120\u0120\u0120\u0120\u0120\u0120\u0120\u0120\u0120\u0120\u0120\u0120\u0120\u0120\u0120\u0120\u0120\u0120\u0120\u0120\u0120": 4042, "pem": 50473, "\u0120\u00d1\u0129\u00d0\u00b5\u00d1\u0123\u00d1\u0124\u00d0\u00be": 25552, "\u0120Cron": 49870, "prest": 51666, "extended": 38937, "\u0120coffee": 9356, "BV": 52688, "\u00e6\u0122\u00bb\u00e7\u013c\u0126": 62746, "\u0120France": 7239, "riott": 66010, "\u0120serializer": 71249, "CLAIM": 63106, "\u0120efficiencies": 59734, "\u0120spurred": 82634, "\u0120Webs": 65108, "\u0120splendor": 62156, "\u0120<!--<": 95094, "\u00e6\u0136\u00b6\u00e5\u0127\u00a5\u00e7\u013c\u0126": 86278, "bounce": 96039, "\u0120perfectamente": 84961, "\u00e7\u0127\u00a7\u00e7\u012b\u0129": 15808, "\u0120haunts": 79193, "ById": 10577, "urry": 55615, "\u0120recoll": 34205, "\u0120oasis": 77014, "Ball": 38627, "\u00e5\u0132\u012e\u00e6\u013e\u0141": 36694, "\u00e6\u013e\u00b1\u00e5\u0127\u0125\u00e7\u0134\u012d": 79593, "\u0120Jared": 71302, "urses": 80556, "arna": 49142, "\u0120dyes": 84539, "seeds": 98957, "\u00d0\u00b5\u00d1\u0124\u00d0\u00b0": 40683, "urs": 2761, "\u0120cattle": 21447, "\u0120Canadians": 54236, "\u00e9\u00a2\u0128\u00e5\u00af\u00bc\u00e5\u00b0\u0131\u00e7\u00bb\u0126": 59647, "\u0120inflater": 88290, "\u00e9\u012b\u00b4\u00e5\u012a\u00ab": 95705, "\u0120Article": 20613, "Za": 75110, "Nb": 88604, "mgr": 46228, "Coment": 97262, "Bigr": 32560, "\u0120\u00d0\u0133\u00d0\u00be\u00d1\u0122\u00d0\u00b8\u00d1\u0123": 55551, "\u00e9\u00a2\u0126\u00e9\u013a\u00b2": 19165, "\u00e6\u013c\u0129": 66531, "DO": 8447, "ique": 2724, "\u0120semifinals": 67391, "\u0120norma": 73361, "\u0120\u00d1\u0126\u00d0\u00b0\u00d0\u00bd\u00d1\u0124\u00d0\u00b0": 82814, "\u0120gluing": 83240, "\u0120sidel": 89040, "\u0120chaff": 90376, "\u0120Projecte": 98815, "\u00e8\u00ae\u00b0": 3012, "\u0120rever": 55174, "\u00e8\u0126": 2101, "\u0120ancest": 18824, "Gem": 72808, "\u00d1\u0123\u00d1\u012c\u00d0\u00ba": 30453, "\u0120Af": 17210, "\u0120cym": 99936, "\u00d0\u00bb\u00d0\u00b8\u00d0\u00b0\u00d0\u00bd": 51430, "\u0120Darius": 87348, "\u0120\u00d0\u00b8\u00d0\u00bc\u00d0\u00b5\u00d0\u00bd\u00d0\u00b0": 63515, "rescue": 77731, "================================================================": 29765, "\u0120incorporat": 95726, "\u0120vict": 5974, "agus": 40226, "\u0120trunks": 57189, "\u0120sirve": 62779, "\u00ae": 106, "\u0120sot": 26368, "\u0120Higher": 34899, "\u00e7\u00b2\u00be\u00e8\u012d\u00b1": 40618, "\u0120\u00d0\u00be\u00d0\u00b1\u00d1\u0122\u00d0\u00b0\u00d1\u0124": 55452, "\u00d1\u012c\u00d1\u0122\u00d0\u00b8": 91444, "\u00e7\u00bb\u013b\u00e4\u00ba\u0128": 21484, "punk": 90882, "\u00e6\u012c\u00bc\u00e9\u0129\u0133": 94748, "corr": 42143, "\u0120contractual": 74659, "estre": 17420, "\u0120Parents": 43716, "\u0120least": 2754, "\u0120prevail": 48885, "\u00e7\u012b\u012a": 5940, "\u0120Brave": 77268, "\u0120perten": 80305, "\u00d1\u0122\u00d0\u00b0\u00d0\u00b2": 60934, "\u0120eased": 93825, "\u0120seguretat": 30567, "\u0120mysterious": 22144, "\u0120fiction": 21611, "\u00e9\u0129\u0130\u00e5\u00a4\u0138": 89819, "Make": 11345, "Tag": 10838, "\u0130\u00a1": 34918, "\u0120masies": 94199, "\u0120acquire": 18247, "disks": 84932, "\u00e6\u00b8\u00b4": 27447, "trigger": 18964, "Failure": 27124, "\u00e7\u0133\u0140\u00e5\u00a3\u00ab": 64119, "\u0120\u00d0\u00bf\u00d0\u00b0\u00d1\u0122\u00d1\u0124\u00d0\u00b8\u00d0\u00b7\u00d0\u00b0\u00d0\u00bd\u00d0\u00b8": 97801, "\u00e6\u0138\u0129\u00e5\u012a\u013d": 78122, "\u00e6\u0138\u00b0\u00e6\u00b5\u00aa\u00e7\u00bd\u0133\u00e8\u0123\u0136\u00e7\u00b3\u00bb": 62274, "\u0120leveraged": 82791, "\u0120obligations": 28505, "\u0120Rai": 91572, "\u0120llengua": 17126, "\u0120sacr": 12321, "\u0120\u00d1\u0122\u00d0\u00b8\u00d0\u00bc\u00d1\u0123\u00d0\u00ba\u00d0\u00b8": 55468, "\u0120Dynasty": 87940, "\u0120nurt": 38261, "\u0120libgl": 61133, "iegel": 94443, "icle": 4666, "\u0120Shak": 40170, "\u00e8\u00b7\u00af\u00e8\u00be\u00b9": 53191, "\u00e9\u00a1\u00b6\u00e7\u00ba\u00a7": 43628, "\u0120\\,{\\": 95595, "\u0120resto": 59134, "bigotimes": 91680, "\u0120count": 1690, "learning": 22103, "\u00e6\u00b2\u00b3\u00e5\u012f\u0139\u00e7\u013e\u0123": 51521, "questa": 63221, "\u00e7\u00be\u0130\u00e6\u013e\u00af\u00e9\u00a6\u0128": 85637, "iday": 5172, "select": 4674, "amma": 1871, "\u0120ArcGIS": 25471, "\u0120reempla": 48417, "\u00e8\u00b4\u0140": 53190, "\u0120lod": 21286, "enthal": 81813, "'|": 54703, "ervous": 82409, "\u00e4\u00ba\u0134\u00e9\u0122\u013c": 65342, "\u0120LEN": 90614, "Recorder": 75486, "/;": 92783, "\u00e2\u0122\u0133": 61697, "uat": 98085, "\u0120collaboration": 17472, "branch": 30395, "\u0120majority": 9662, "\u0120Alter": 67379, "\u0120Might": 36710, "regat": 34002, "\u00e5\u013d\u00bd\u00e7\u0130\u012d": 55692, "\u0120QUERY": 84750, "\u0120Roe": 91397, "upta": 55603, "\u0120\u00d0\u00b3\u00d1\u0122\u00d1\u0125": 11606, "\u00e5\u00b0\u0131\u00e8\u012c\u00b1": 93159, "\u0120noies": 76761, "\u0120strap": 26168, "\u0120introduced": 8131, "QUEST": 23651, "\u0120sold": 5151, "\u0109\\\\": 25811, "\u00e8\u00a7\u0128": 3466, "localized": 93488, "\u00d0\u00b2\u00d0\u00b5\u00d0\u00b6\u00d0\u00b4\u00d0\u00b0": 15195, "\u00e7\u013c\u0126\u00e4\u00bc\u013a\u00e5\u012c\u00bf": 50773, "\u00e5\u0123\u013c\u00e4\u00b8\u012f\u00e5\u012a\u00b0": 71737, "_[": 33977, "\u0120shell": 8477, "Our": 5516, "\u0120\u00d0\u00b6\u00d0\u00b8\u00d1\u0124\u00d0\u00b5\u00d0\u00bb\u00d0\u00b8\u00d1\u0124\u00d0\u00b5": 68201, "`": 63, "ng": 950, "\u0120campos": 32142, "\u0120CREATE": 36656, "\u0120Hardy": 39245, "\u00e5\u0129\u00a4\u00e5\u0129\u00b0": 44926, "arreglo": 82582, "\u00e9\u013b\u0132\u00e5\u00ae\u013c": 80037, "greeter": 94693, "achy": 41342, "\u0120Famil": 91114, "oucester": 48744, "\u0120infringement": 66441, "\u00e6\u0122\u00bb\u00e5\u0128\u0142\u00e5\u0128\u013d": 79600, "\u0120Alex": 8688, "\u0120Rear": 49661, "\u00e5\u00b1\u00b1\u00e6\u00a5\u0124": 80230, "\u0120\u00d0\u00b2\u00d1\u0123\u00d0\u00b5": 18957, "Submit": 34729, "\u0120Surely": 42102, "\u00d1\u0129\u00d0\u00bd\u00d0\u00b8\u00d1\u0131\u00d1\u0124": 65284, "Hamilton": 47218, "\u0120constructing": 34062, "\u0120HTML": 11013, "exual": 87176, "\u0120NTFS": 37805, "\u0120Securities": 53259, "\u00e7\u0126\u00b6\u00e5\u0132\u0130\u00e5\u00b0\u0128": 97400, "\u0120reforms": 41427, "\u0120Resist": 72910, "\u0120Servlet": 80409, "AY": 11814, "\u00e1\u0125\u013a\u00e1\u0125": 69806, "\u00e5\u00b8\u0127": 18659, "ultura": 17170, "\u00e7\u00aa\u013e": 84791, "\u0120\u00d0\u00b6\u00d0\u00b5\u00d0\u00bd": 28906, "\u0120skim": 64763, "\u0120valued": 24768, "assertTrue": 32347, "\u0120\u00f0\u0141\u0133": 59948, "Cor": 10616, "\u0120Super": 9876, "\u0120fn": 19337, "\u0120\\\\\\": 46744, "\u0120portable": 22306, "\u0120canvis": 31432, "\u00e6\u013a\u00af\u00e8\u0129\u00aa\u00e5\u00b7\u00b1": 63766, "\u0120MLP": 74518, "\u00e5\u00b1\u0137\u00e7\u0130\u00b0\u00e4\u00ba\u0128": 77468, "\u0120Shine": 93160, "\u0120prices": 7961, "\u00e6\u013f\u00a1\u00e8\u00a7\u0126\u00e5\u00ae\u013c": 50416, "ior": 1765, "qi": 50460, "\u0120pic": 15525, "\u0120Cleaner": 88401, "embarrass": 89733, "\u00e7\u00b2\u00be\u00e7\u013d\u012c": 98494, "\u0120\u00d1\u0125\u00d1\u0129\u00d0\u00b0\u00d1\u0123\u00d1\u0124\u00d0\u00b2\u00d0\u00b0": 22911, "genre": 96604, "Ku": 83337, "\u0120demostrar": 45348, "\u0120\u00d0\u0133\u00d0\u00be": 10008, "\u00e7\u013c\u0126\u00e5\u012b\u012f": 20411, "baid": 62627, "cons": 5711, "\u0120Settings": 16741, "\u0120spies": 65883, "\u00e7\u00bb\u0134": 37420, "ruption": 44449, "\u0120chari": 53716, "\u0120accurate": 10356, "\u0120assertion": 25483, "\u0120preventing": 25554, "\u0120\u00d0\u00b8\u00d0\u00bc\u00d0\u00b5": 12398, "IFY": 40070, "\u00d1\u0122\u00d0\u00b5\u00d0\u00b2": 63750, "\u0120\u00d1\u0126\u00d0\u00b0\u00d0\u00ba\u00d1\u0125\u00d0\u00bb\u00d1\u0124\u00d0\u00b5": 59875, "\u00e8\u00ae\u00a9\u00e4\u00bd\u0142\u00e7\u013c\u0126": 75480, "\u0120var": 2251, "\u0120cinqu": 30928, "\u00e8\u00bf\u00aa\u00e5\u00a3\u00ab": 80806, "\u00e6\u012a\u0133\u00e4\u00bb\u0130": 81228, "\u0120Gallagher": 87595, "\u00e5\u00b7\u00a6\u00e5\u0131\u00b3": 9596, "\u00e5\u0131\u00af\u00e4\u00bb\u00a5\u00e9\u0122\u012b\u00e6\u012d\u00a9": 52667, "\u0120sugger": 67455, "stica": 12154, "aug": 14401, "\u00e4\u00b8\u00bb\u00e4\u00bb\u00bb": 14493, "\u00e8\u00b2\u012e": 18088, "\u00e5\u0141\u00ba\u00e7\u00a1\u0122\u00e4\u00b8\u012c": 42882, "\u0120flashes": 52023, "\u0120cult": 3986, "ape": 2570, "\u00e7\u0124\u00b9\u00e7\u0129\u0125": 68136, "\u00e9\u00aa\u00a8\u00e8\u00b4\u00a8": 83547, "eqn": 3725, "Relay": 91646, "*=\"": 91685, "\u0120isolating": 94374, "\u00e6\u013e\u00ac\u00e8\u00ba\u00ab": 16179, "\u0120issues": 4458, "\u0120improvements": 17068, "\"><": 2789, "\u0120Dru": 40556, "\u00e5\u0131\u00aa": 2141, "\u0120\u00d1\u0123\u00d0\u00b5\u00d0\u00b2\u00d0\u00b5\u00d1\u0122\u00d0\u00bd\u00d0\u00be": 57998, "urbed": 19344, "ople": 1153, "\u0120silhou": 52250, "Commercial": 68224, "Week": 31175, "\u0109}": 1846, "\u0120infrastructure": 15415, "\u0120Adj": 69229, "Primary": 30730, "\u0120donde": 15577, "\u0120\u00c3\u0128": 70756, "\u0120Franch": 72637, "\u00e4\u00bc\u0139\u00e5\u00a4\u013c\u00e7\u013c\u0126": 76589, "MOVED": 95224, "\u0120order": 1835, "stown": 37252, "\u0120intends": 47988, "counting": 74191, "tar": 11861, "\u00e9\u0137\u00bf\u00e5\u0141\u0130": 37439, "adise": 80833, "\u00e8\u00a3\u0127\u00e7\u013c\u0126": 81911, "\u0120Kimberly": 95584, "dba": 98288, "tableView": 73730, "\u00e7\u013c\u0126\u00e4\u00bc\u00a4\u00e5\u00ae\u00b3": 75504, "\u00e6\u0130\u00a5\u00e9\u0122\u0123": 95993, "\u0120nascut": 41509, "\u0120therapies": 51645, "\u00e8\u00bf\u013a\u00e7\u013e\u0141": 62171, "\u00e5\u0128\u0127\u00e5\u013e\u00a8": 42688, "\u00e5\u0128\u012f\u00e4\u00b9\u0141": 78876, "Upload": 26165, "\u0120\u00d1\u0127\u00d1\u0125\u00d0\u00b4\u00d0\u00be\u00d0\u00b6\u00d0\u00bd\u00d0\u00b8\u00d1\u0128\u00d0\u00b8": 72735, "\u00e7\u0124": 1287, "\u0120briefing": 71497, "[])": 40117, "\u00d1\u0127\u00d0\u00b5\u00d0\u00bb": 34660, "your": 10002, "erving": 16002, "\u0120$+": 60970, "plasma": 99590, "\\&": 58743, "Float": 16340, "\u0120libro": 69506, "\u0120Rajas": 79305, "\u00e4\u00ba\u0134\u00e8\u0123\u0136\u00e7\u00bd\u0133": 12163, "\u0120swift": 18847, "keye": 91329, "\u0120shrank": 72073, "\u0120grandparents": 52267, "\u0120Feynman": 66076, "essels": 66249, "\u00e8\u00bf\u013b\u00e4\u00b8\u00aa\u00e5\u013e\u00b0\u00e6\u0138\u00b9": 83460, "\u0120Showing": 94180, "gence": 10240, "\u0109http": 97114, "\u00e6\u00b7\u00b1\u00e5\u0131\u0139": 47209, "\u0120presently": 20737, "fullcomment": 82753, "\u0120airt": 95920, "\u0120flickering": 64628, "\u0120acceptance": 23674, "\u0120plated": 64876, "\u00d0\u00ba\u00d0\u00b8\u00d1\u0123\u00d1\u0124\u00d0\u00b0\u00d0\u00bd": 71215, "\u0120fasting": 60213, "\u0120timber": 29218, "\u0120what": 856, "\u0120bew": 31038, "\u0120establerta": 74283, "\u0120\u00d0\u00bb\u00d0\u00b5\u00d0\u00b3\u00d0\u00b5\u00d0\u00bd": 60500, "\u0120impres": 84788, "\u0120vin": 22590, "ici": 1905, "\u0120confer": 33297, "\u0120messy": 45892, "\u0120filming": 55994, "\u0120objective": 12982, "\u0120sov": 80516, "law": 10562, "\u00e6\u012b\u012d\u00e6\u00b3\u0137": 46331, "\u0120\u00d0\u00a2\u00d0\u00b0\u00d0\u00b9\u00d0\u00bb\u00d0\u00b0\u00d0\u00bd\u00d0\u00b4": 98221, "\u0120$-": 15718, "\\,$\\": 75690, "\u0120distint": 42558, "\u00e6\u0142\u0129\u00e8\u00af\u0128": 50816, "\u00e8\u0122\u0123\u00e6\u013f\u00bf": 19772, "\u00d1\u0124\u00d0\u00b8\u00d1\u0122\u00d0\u00b0\u00d0\u00bd\u00d0\u00b8": 53982, "timely": 96236, "seemed": 28857, "\u0120replying": 76561, "Gauss": 99355, "avid": 18480, "\u0120gotta": 49976, "\u0120fossin": 62557, "{``": 67997, "Invalid": 14506, "\u0120Vienna": 35916, "\u00e9\u0122\u013f": 34269, "rett": 22362, "\u0120Leather": 37507, "\u0120congest": 41695, "dater": 54109, "Cavall": 85203, "\u0120FRAMES": 94849, "rupulous": 80419, "\u0120overlaid": 95520, "\u0120deno": 91797, "\u0140": 239, "\u0120patented": 60265, "\u0120comporta": 86340, "\u00e5\u00a4\u0129\u00e7\u0136\u00a8": 49412, "\u0120Francesc": 21637, "\u00d0\u00b2\u00d1\u0122\u00d1\u012c\u00d1\u012b\u00d0\u00b0": 82557, "\u0120pageant": 96911, "\u0120candidat": 52201, "\u0120pettico": 97663, "\u00e6\u012a\u00bf\u00e7\u00a7\u0141": 86100, "\u0120assistants": 53370, "\u0120Sitter": 69750, "\u00e7\u013e\u00bc\u00e5\u012b\u012f": 34541, "\u00e8\u00ba\u00ba\u00e5\u013e\u00a8": 53733, "\u00e6\u012d\u0138\u00e6\u00ac\u0142": 87481, "\u0120\u00d0\u0138": 15051, "\u00e5\u00be\u0122\u00e5\u012b\u012f": 71000, "\u0120intrac": 75701, "\u0120Ortega": 90749, "\u0120parells": 95298, "\u0120subdivision": 57655, "\u00d1\u0129\u00d0\u00b8\u00d1\u0131": 49590, "\u0120afore": 27747, "\u0120Regina": 64907, "\u0120\".\"": 65012, "\u0120gat": 62847, "Should": 16830, "\u00e4\u00bc\u0142\u00e7\u00bb\u0141\u00e7\u013c\u0126": 33555, "\u00e8\u00a1\u0122\u00e7\u00ae\u00a1": 21207, "\u0120Tud": 56830, "RGB": 32345, "\u0120Jerusalem": 21203, "\u0120dragons": 63323, "\u00e8\u00bf\u0129\u00e6\u0139\u00a9": 87039, "\u0120Barclay": 87462, "\"},{\"": 89492, "pam": 55029, "\u0120shaggy": 97864, ")^{-": 15163, "\u0120fractional": 34528, "art": 432, "MESSAGE": 39859, "\u0120transformation": 12503, "\u00e4\u00b8\u00ba\u00e4\u00b8\u0122\u00e4\u00bd\u0135": 51452, "atoris": 49443, "\u0120Nan": 29059, "\u00e6\u013e\u00ac\u00e7\u013c\u0126": 95147, "\u00e4\u00ba\u00a4\u00e9\u0122\u013c\u00e4\u00ba\u012d\u00e6\u0137\u0127": 40795, "\u0120journey": 8398, "\u0120Ranking": 96346, "\u00d1\u0123\u00d1\u0124\u00d1\u012c": 16417, "\u0120hyst": 53531, "\u0120\u00d0\u00b5\u00d0\u00b4\u00d0\u00b8\u00d0\u00bd\u00d0\u00b8\u00d1\u0128\u00d0\u00b0": 90216, "\u00e6\u00b0\u00b4\u00e6\u00b3\u00a5": 35672, "helps": 73724, "\u0120stacking": 59236, "\u0120internet": 7084, "\u0120\u00d0\u00ba\u00d0\u00be\u00d0\u00bd\u00d1\u0128\u00d0\u00b5\u00d1\u0122": 46390, "\u0120brasil": 64123, "\u0120equivalently": 43231, "proved": 27707, "\u00e8\u0143\u00a6\u00e6\u0138\u00b9": 28148, "\u00e8\u00bf\u0129\u00e7\u00a8\u012d\u00e4\u00b8\u0143": 11674, "...?": 88391, "Fetcher": 92965, "BM": 16188, "\u0120,\"": 97330, "February": 29180, "\u0120descendent": 63995, "\u0120IV": 9602, "xkb": 75209, "\u00d1\u012a\u00d0\u00b0\u00d0\u00bd": 91395, "respective": 91167, "\u0120unable": 9892, "\u00e5\u00ae\u00b6\u00e4\u00bd\u0131": 93100, "\u0120Knox": 50556, "\u0120\u00d1\u0125\u00d1\u0129\u00d0\u00b0\u00d1\u0123\u00d1\u0124\u00d1\u012c\u00d0\u00ba": 76518, "lays": 98839, "pron": 42194, "SH": 8012, "oice": 4021, "\u0120dato": 28592, "NSString": 29803, "activation": 47424, "\u00d1\u0127\u00d0\u00b0\u00d0\u00bb": 61098, "\u0120abundantly": 71803, "alas": 79102, "\u0120\u00d0\u00b4\u00d0\u00b5\u00d0\u00bc": 57866, "\u0120please": 4066, "devil": 84531, "\u0120suits": 25489, "ensk": 31941, "\u0120\u00d1\u0124\u00d1\u0131": 9808, "$/": 19454, "\u0120junction": 27775, "\u00e4\u00b8\u012f\u00e5\u00af\u00b9": 38042, "cerem": 69991, "\u0120uttering": 76999, "\u00e6\u0124\u00b2\u00e5\u0135\u0122": 89048, "\u0120computationally": 51327, "\u0120lions": 52558, "\u0120buffalo": 52268, "\u0120deber": 20076, "\u0120igual": 15999, "\u0120Lou": 7815, "garden": 49277, "ROS": 58590, "Threads": 59449, "EndSection": 65189, "\u0120residents": 12191, "\u0120RTValue": 99448, "sshd": 84300, "\u0120Reload": 97467, "\u00e6\u013d\u00b4\u00e4\u00bd\u0137\u00e5\u0128\u00b5": 75957, "\u0120carts": 59796, "\u0120SA": 17306, "\u0120\u00d1\u0122\u00d0\u00b0\u00d1\u0123\u00d1\u0124\u00d0\u00b8\u00d1\u0124\u00d0\u00b5\u00d0\u00bb": 73858, "\u0120Raim": 82769, "\u00e7\u0139\u012c\u00e6\u0126\u012a": 89094, "yarn": 46983, "\u00e7\u0128\u0141\u00e7\u00bb\u0125": 59917, "opathic": 65968, "\u0120\u00d1\u012b\u00d0\u00b0\u00d1\u0124\u00d0\u00b0": 44937, "matters": 70103, "\u0120delicious": 13066, "\u0120straight": 6044, "\u0120Bangkok": 58754, "\u0120bankers": 73852, "\u0120Conca": 47438, "marine": 83733, "\u0120Carolyn": 86327, "aggling": 91469, "Paired": 74337, "\u0120nonex": 93652, "\u0120entangled": 46426, "\u0120Manufact": 21815, "\u0120some": 742, "oe": 6697, "dht": 89012, "\u0120funcions": 28228, "\u00e6\u012c\u00b9": 25184, "highlight": 27278, "\u00e5\u013d\u0142\u00e4\u00b8\u00ba\u00e4\u00bb\u0138\u00e4\u00bb\u00ac": 52751, "Traceback": 71388, "\u0120geografia": 91990, "\u0120Tips": 31544, "\u0120encuny": 97567, "\u0120language": 4706, "\u0120modific": 30786, "\u0120art": 2460, "\u0120Packers": 64705, "Printf": 63890, "par": 1060, "\u0120Francesca": 73840, "\u0120cryptographic": 89420, "\u00e7\u00af\u00ae\u00e6\u013f\u00bf": 40426, "\u0120\u00d0\u013c\u00d1\u0122\u00d0\u00b8\u00d1\u0123\u00d1\u0124\u00d0\u00b8\u00d0\u00b0\u00d0\u00bd": 87303, "\u0120allow": 2009, "\u0120malign": 44236, "\u00e5\u012f\u00b0\u00e8\u012c\u00b1": 79373, "\u0120Component": 27773, "\u00e5\u013d\u00be\u00e4\u00b9\u00a6\u00e9\u00a6\u0128": 48864, "\u0120imports": 37878, "xymatrix": 44556, "\u0120sean": 60597, "\u00e5\u00bd\u0135\u00e5\u012a\u013f": 31359, "\u0120exported": 40567, ")--(": 22143, "\u0120\u00d0\u00b5\u00d1\u0124\u00d0\u00b0\u00d0\u00bf": 84697, "\u0120theat": 36432, "\u0120compatibility": 24273, "\u00e5\u0141\u0130\u00e5\u012e\u00ba": 24480, "\u0120credentials": 24510, "\u00e4\u00b8\u0122\u00e7\u013d\u00b4\u00e5\u013e\u00a8": 29028, "\u0120honorary": 90654, "iron": 2568, "\u0120linguistics": 92051, "\u00e5\u00ae\u00bd\u00e5\u00b8\u00a6": 98263, "\u0120Warner": 36677, "\u0120Lug": 49596, "Vin": 50733, "\u0120partition": 5638, "\u0120Nautilus": 38718, "\u00e8\u00a7\u0134\u00e8\u0132\u00bd": 53085, "\u0120\u00d0\u00b5\u00d0\u00bf\u00d0\u00be": 46901, "\u0120riots": 88635, "\u00e6\u00b0\u0136": 2363, "\u0120teaching": 10333, "uart": 26285, "\u0120Specifically": 26383, "\u00e5\u00bf\u013a\u00e4\u00ba\u0128": 39833, "coma": 67114, "\u0120This": 1002, "eds": 6820, "fellows": 75682, "\u00e5\u00bc\u0137\u00e8\u00b5\u00b7": 12295, "\u0120struggled": 29213, "isme": 5445, "\u0120potass": 45356, "seek": 30575, "\u00e8\u00ba\u00ab\u00e5\u0143\u0132": 86910, "\u00e6\u0124\u00b2\u00e8\u00a7\u0124": 87633, "\u00e7\u013c\u0126\u00e8\u00a1\u0122": 98552, "\u0120maintains": 31149, "\u0120dificultats": 55419, "\u0120LI": 21166, "\u0120rs": 32158, "\u0120sail": 11583, "\u0120xxi": 70892, "toolbar": 32734, "\u0120rotational": 40677, "\u0120managers": 18834, "\u00e6\u00b1\u0142": 12405, "\u0120\u00d1\u0124\u00d0\u00b5\u00d0\u00be": 37350, "\u0120Origins": 87856, "\u0120traslladar": 28487, "endale": 77776, "Importer": 96275, "\u00e4\u00bf\u013f\u00e8\u00af\u0123\u00e9\u0129\u0133": 85451, "\u0120fibres": 50175, "\u00e6\u00b8\u00a1": 25386, "\u0120newest": 21771, "\u0120joints": 31949, "uerite": 65262, "\u0120jo": 6149, "\u00d1\u0122\u00d0\u00b0\u00d1\u0123\u00d1\u0124": 25826, "\u0120debating": 77384, "\u0120(*)": 96200, "\u0120homework": 27386, "\u0120\u00d0\u00b5\u00d0\u00b2\u00d1\u0122\u00d0\u00be": 30432, "cke": 37308, "\u0120misuse": 64188, "Command": 7474, "\u0120addicional": 68751, "dumps": 86519, "\u0120envelope": 25616, "\u0120raw": 11652, "\u00e6\u0124\u012f": 52234, "\u0120reaccions": 74728, "\u0120bean": 31487, "iars": 23076, "\u0120Tennyson": 85014, "\u00e5\u012d\u0134": 18959, "\u0120Presenta": 92427, "\u0120leap": 30689, "\u0120posiciones": 96403, "\u0120PW": 71320, "\u00e7\u013c\u0126\u00e4\u00b8\u0122\u00e6\u013f\u00a1": 84747, "\u00e9\u0129\u0133\u00e5\u012a\u013c": 61290, "\u0120GRE": 31646, "ingly": 7931, "\u0120Says": 57036, "hal": 13807, "ICS": 28336, "ribing": 42843, "lint": 32291, "\u0120irq": 44300, "\u0120between": 1439, "Highlight": 45459, "\u0120lone": 50480, "\u0120Dh": 52534, "dddd": 61516, "isy": 17647, "\u0120Crown": 27231, "\u0120metropolitan": 62367, "\u0120Pietro": 55297, "\u0120distortion": 32919, "^\\": 2765, "\u0120lunch": 12728, "\u0120grate": 46723, "\u0120neuron": 55959, "\u0120async": 17997, "assignment": 62237, "gpt": 68475, "\u00e7\u013c\u0126\u00e6\u00a8\u00a1\u00e5\u00bc\u0131": 76514, "\u0120Algunes": 48488, "\u0120droplet": 80976, "\u0120interoper": 81483, "\u0120cunning": 39310, "\u0120singularly": 66477, "\u0120Moul": 93362, "\u00e5\u00bf\u0125\u00e5\u00a4\u00b4": 94419, "\u0120modifications": 25384, "\u00e9\u00aa\u00a8\u00e6\u012c\u013a": 85771, "\u0120Stuttgart": 53409, "\u0120spontaneously": 65050, "\u0120clumps": 74227, "\u00e5\u013e\u00b0\u00e5\u013f\u0122": 15131, "\u0120sen": 7249, "Independ": 81404, "\u0120nobleman": 74502, "TY": 20178, "kot": 75749, "\u00d0\u00b7\u00d0\u00bd\u00d0\u00be": 59929, "\u0120\u00d0\u00a4\u00d0\u00b5\u00d1\u0122": 45542, "\u00e5\u0128\u012f\u00e5\u00ba\u00a6": 42262, "\u0120hoof": 87016, "\u0120Publishing": 33629, "\u0120Biografia": 72133, "\u0109virtual": 52449, "\u0120Plugins": 97656, "\u0120neutr": 20850, "\u00e4\u00bc\u0133\u00e6\u0123\u00af": 21742, "\u0120ambitions": 53280, "\u00d1\u0128\u00d0\u00be": 15132, "\u0120recesses": 94970, "\u0120Jou": 64967, "*'": 44045, "\u00e5\u0131\u0139\u00e4\u00ba\u0128": 99539, "stuck": 92833, "\u0120Find": 11424, "\u0120Wag": 32857, "uncia": 52034, "\u0120exerc": 6434, "Dst": 76208, "\u0120deliberately": 32643, "\u00e5\u00b0\u0123\u00e9\u013f\u00a2": 95043, "\u0120LEDs": 21533, "\u00e6\u0139\u00a9\u00e5\u00b7\u00b2": 29532, "\u0120deployed": 30402, "\u00d0\u00b2\u00d0\u00be\u00d0\u00bb\u00d0\u00b8": 56868, "\u00e4\u00ba\u00bf": 4472, "\u0120ashamed": 28523, "plicated": 53252, "\u0120desenvolup": 9459, "rir": 21920, "\u00e4\u00b9\u0141\u00e5\u00be\u012a": 20296, "\u00d0\u00b5\u00d0\u00bc\u00d0\u00b0": 13539, "\u00e4\u00b9": 503, "member": 7934, "aculate": 77967, "\u00e8\u00a2\u00ab\u00e5\u0133\u012c": 21643, "\u0120designation": 49435, "\u0120villagers": 57092, "\u0120frances": 13186, "\u0120explaining": 24393, "\u00e7\u0127\u0140": 67278, "\u00d0\u00b3\u00d1\u0122\u00d0\u00b0\u00d1\u0126\u00d1\u0123\u00d0\u00ba\u00d0\u00b8": 81115, "\u00d0\u0141\u00d1\u012c\u00d1\u0122\u00d0\u00b2\u00d0\u00be": 95208, "\u00e7\u00a7\u0133\u00e5\u0143\u00a6\u00e4\u00b8\u0130": 96676, "whence": 97943, "\u00e8\u00bf\u013b\u00e7\u0124\u00b9": 47503, "\u00e6\u0138\u00b0\u00e6\u0139\u00b6\u00e4\u00bb\u00a3\u00e4\u00b8\u0143\u00e5\u013d\u00bd\u00e7\u012b\u00b9\u00e8\u012b\u00b2\u00e7\u00a4\u00be\u00e4\u00bc\u013c\u00e4\u00b8\u00bb\u00e4\u00b9\u012b\u00e6\u0122\u013f\u00e6\u0125\u00b3": 79205, "retired": 99781, "\u0120employ": 3477, "qe": 80123, "\u0120wor": 551, "patrick": 62759, "Pay": 15865, "\u0120abstracts": 90418, "Japan": 65594, "\u0120rhymes": 79482, "\u00e7\u012a\u0128\u00e7\u00ab\u00b9": 76321, "\u00d1\u012a\u00d0\u00b0\u00d0\u00b2\u00d0\u00b0\u00d0\u00bd\u00d0\u00b5": 67386, "\u00e4\u00b8\u0135\u00e7\u0136\u00a8": 40828, "\u0120envi": 30420, "\u0120Sweep": 97914, "\u00e2\u0122\u013a": 2901, "\u0120\u00d0\u00ba\u00d0\u00be\u00d0\u00bc\u00d0\u00bf\u00d0\u00b0": 38339, "\u00d0\u0133\u00d0\u00b0\u00d0\u00bb": 88409, "\u00e5\u0131\u00af\u00e4\u00bb\u00a5\u00e9\u0122\u013c\u00e8\u00bf\u0129": 40617, "\u0120\u00d0\u00b0\u00d0\u00bd\u00d0\u00b0\u00d0\u00bb\u00d0\u00b8\u00d0\u00b7": 93283, "\u00e8\u0128\u013f\u00e7\u013d\u0138": 62821, "ebn": 50862, "mas": 5213, "\u0120Cer": 22194, "altered": 87225, "\u0120nano": 32310, "\u0120suffrage": 53670, "\u00d0\u00a1\u00d0\u00b0\u00d0\u00bd": 94424, "\u00e6\u013c\u00b4": 10861, "hd": 16351, "omens": 57230, "\u0120Shab": 87339, "\u00e5\u00a5\u00bd\u00e5\u0132\u00a7": 97507, "\u0120counc": 14444, "arks": 8625, "\u0120records": 8727, "\u00e6\u0130\u00a5\u00e7\u013f\u0122": 27125, "\u0120knowledgeable": 31816, "\u0120carcin": 59702, "\u0120Overflow": 78403, "\u0120low": 2495, "cludes": 16321, "vents": 58648, "CharSequence": 98980, "bigl": 18161, "\u0120BD": 36531, "\u00e4\u00bb\u00b7\u00e7\u013c\u0126": 63406, "maintainer": 85490, "\u0120Pierre": 24522, "\u0120harmless": 39507, "\u0120Americana": 73016, "\u0120shutting": 43564, "\u00e6\u013e\u012b\u00e6\u00af\u0134": 78136, "\u0120kra": 81327, "\u0120airs": 60852, "\u0120garland": 94270, "\u0120amplify": 62279, "\u00e5\u00af\u00b9\u00e5\u0143\u00a9\u00e5\u0143\u0132": 58540, "\u0120scientist": 38200, "\u0120opcode": 71711, "\u0120funnels": 77320, "\u00e9\u0122\u013c\u00e6\u012c\u00a5": 41725, "\u0120Password": 36481, "\u0120Uh": 91364, "\u0120draped": 93196, "\u0120rocky": 37481, "\u00e9\u0137\u00bf\u00e7\u00ba\u00bf": 96918, "\u00e5\u012a\u0128\u00e8\u00a1\u012e": 72473, "\u0120Estonia": 96371, "opini": 69603, "\u00e5\u012b\u00a7\u00e7\u00bb\u0126": 98079, "\u0120initializing": 76570, "\u0120plans": 6685, "psum": 35864, "\u00e8\u0122\u012e": 1306, "\u0120posing": 72529, "itively": 43944, "uru": 24653, "\u00e5\u00bf\u0125\u00e7\u0138\u00bc": 52890, "\u0120Monitor": 24154, "\u0120\u00d1\u0124\u00d1\u012c\u00d1\u0122\u00d0\u00b3\u00d0\u00be\u00d0\u00b2\u00d0\u00b8\u00d1\u0131": 59552, "\u00e9\u00a9\u00ac\u00e4\u00b8\u012c": 23154, "\u0120gui": 26946, "\u0120Parameters": 35107, "\u0120predecessors": 54580, "igns": 79700, "\u0120decoding": 39671, "\u0120swims": 94266, "\u0120\u00d0\u00b7\u00d0\u00b0\u00d1\u0123\u00d1\u0124\u00d1\u0122\u00d0\u00b0": 38352, "\u00e6\u013f\u0133\u00e8\u0132\u00bd": 89406, "\u0120jocs": 35879, "\u0120Vern": 34167, "\u0120thanksgiving": 94745, "guarant": 81853, "whel": 72590, "\u0120Moh": 19760, "\u0120llei": 26083, "hash": 12209, "alf": 2520, "ogan": 33594, "\u00a4": 97, "ocaml": 24182, "\u00d1\u0122\u00d0\u00bd\u00d0\u00b8": 72376, "idy": 23629, "\u0120characterization": 36576, "\u0120Berry": 38467, "\u0120separa": 69235, "\u00e6\u0125\u012c\u00e5\u0138\u013e": 33412, "unused": 50258, "\u0120($(": 57725, "Ann": 25946, "\u0120OA": 84712, "AAAAAAAAAAAAAAAA": 60697, "\u00e8\u00ae\u00a1\u00e5\u012a\u0134\u00e7\u013c\u0126": 98439, "\u00e6\u012a\u0133\u00e6\u0126\u0141\u00e8\u00a7\u012b": 97991, "Operation": 12875, "\u0120fee": 10229, "\u00d0\u00bb\u00d1\u0131\u00d1\u0122": 27685, "\u00d1\u0123\u00d1\u0124\u00d1\u0122\u00d0\u00b0\u00d0\u00bd": 16698, "\u0120barre": 36957, "male": 59124, "bmatrix": 19560, "\u0120Grace": 21687, "jr": 72421, "MOV": 86666, "\u00e7\u0136\u0141\u00e7\u0132\u0128": 38602, "\u0120desp": 6469, "ARD": 13752, "\u0120RPG": 61825, "\u0120Sole": 56697, "\u0120huge": 6791, "\u00e7\u013d\u00b8\u00e5\u00bd\u0135": 14285, "WARD": 42321, "\u0120\u00d1\u0123\u00d0\u00b2\u00d0\u00b5\u00d0\u00b4\u00d0\u00b5\u00d0\u00bd\u00d0\u00b8\u00d1\u0131": 78173, "\u0120halftime": 91789, "\u0120Lent": 59153, "Avoid": 58379, "inating": 17543, "anches": 37930, "\u0120incoherent": 69511, "\u0120electronics": 21442, "\u0120cuad": 95737, "\u00d0\u00b0\u00d0\u00bd\u00d1\u0123\u00d0\u00ba\u00d0\u00b8": 84786, "\u00e5\u00a4\u00a7\u00e5\u00b0\u0131": 25042, "alo": 9975, "\u0120Gra": 13376, "\u0120queue": 16539, "contact": 19657, "iquen": 27284, "\u00e8\u00ba\u00ab\u00e4\u00bb\u00bd\u00e8\u00af\u0123": 32924, "\u00e5\u00b0\u0131\u00e6\u0139\u00b6\u00e5\u0122\u013b": 37868, "\u0120display": 3798, "\u0120ideally": 38651, "positional": 53994, "\u0120\\$\\": 30315, "\u0120VIEW": 54162, "appa": 5747, "Ord": 38849, "\u0120Ter": 18878, "reat": 784, "\u0120WordPress": 23120, "\u0120proclamar": 62115, "\u0120Huang": 67549, "Jar": 56429, "moral": 59251, "\u0120added": 3746, "\u0120oli": 69825, "\u0120\u00d0\u00b1\u00d0\u00b8\u00d0\u00b1\u00d0\u00bb\u00d0\u00b8\u00d0\u00be\u00d0\u00b3\u00d1\u0122\u00d0\u00b0\u00d1\u0126\u00d0\u00b8\u00d1\u0131": 70053, "\u0120anthem": 85554, "\u00e6\u00b5\u0123\u00e4\u00ba\u00a7": 67526, "\u0120Hul": 75178, "\u00e4\u00bc\u0123\u00e5\u013d\u00be": 85650, "\u0120\u00d0\u013c\u00d0\u00bd\u00d1\u0131": 85954, "\u0120\u00d0\u00ba\u00d0\u00be\u00d0\u00bb\u00d0\u00b5\u00d0\u00ba": 70513, "reure": 72127, "\u0120SCH": 72630, "\u0120Weather": 34179, "})}$": 67844, "\u0120potes": 80795, "\u0120Vocal": 87805, "\u0120Rd": 29456, "\u00d0\u00bd\u00d1\u012d\u00d1\u0127": 88921, "\u00e6\u0142\u00b7\u00e5\u00bc\u0131": 73095, "\u0120abuse": 15670, "\u0120Brabant": 98404, "maps": 21961, "\u00e6\u00b8\u00a9\u00e9\u00a6\u00a8\u00e6\u0131\u0132\u00e7\u00a4\u00ba": 74515, "\u00e9\u0129\u012f\u00e5\u013d\u0140": 89477, "\u0120\u00d1\u0123\u00d1\u012c\u00d0\u00bf\u00d1\u0122\u00d1\u0125\u00d0\u00b3": 83452, "\u0120breaks": 16905, "\u0120haz": 17817, "entren": 54062, "\u0120midfield": 85633, "&\\!": 89491, "\u0120affording": 98213, "orphisms": 63075, "\u00e5\u0129\u0128\u00e5\u0127\u00a5": 84933, "\u0120earthqu": 31602, "missions": 8908, "\u0120tripping": 95933, "\u0120xserver": 46065, "\u0120important": 2375, "arxa": 67395, "\u0120monotonous": 69717, "\u0120Include": 46457, "\u00e9\u0137\u00bf\u00e6\u013e\u0141\u00e7\u013c\u0126": 79973, "have": 6279, "Alemanya": 28883, "\u0120Valenc": 38080, "\u0120coerc": 64122, "ordinary": 14141, "\u0120VALUES": 17830, "\u00e9\u0141": 3782, "\u0120funcione": 63278, "\u00e5\u00a6\u0124\u00e6\u013e\u0141": 85818, "showMessageDialog": 93339, "getField": 96067, "\u00e7\u00a1\u00ae\u00e5\u00ae\u013c": 13196, "\u0120listened": 19240, "\u00e4\u00bb\u0127\u00e4\u00bb\u00a3\u00e8\u00a1\u00a8\u00e4\u00bd\u013e\u00e8\u0122\u0127\u00e6\u013e\u00ac\u00e4\u00ba\u00ba": 45991, "FRINGEMENT": 98322, "\u0120validity": 29165, "\u0120purest": 74977, "\u0120Ribagor": 83692, "\u0120Commission": 11653, "\u0120whist": 37983, "\u0120\u00d0\u00be\u00d0\u00b1\u00d0\u00b8": 18631, "\u00e4\u00ba\u0128\u00e4\u00b8\u00aa": 40300, "Describe": 41800, "Slave": 72295, "\u0120bou": 28635, "\u0120rung": 81403, "\u0120\u00d0\u00b3\u00d1\u0125\u00d0\u00b1\u00d0\u00b8": 59640, "ws": 8417, "\u00e5\u0135\u00aa\u00e6\u0122\u0137": 35767, "Mode": 9440, "Schwarz": 83129, "\u0120sug": 29602, "problem": 25114, "arme": 95331, "OpenGL": 56258, "\u0120adjustments": 33587, "\u0120robot": 19585, "\u0120Vari": 16093, "\u0120Cell": 23401, "esses": 35149, "\u0120jerk": 48392, "\u0120dice": 27387, "\u00e6\u0125\u0137": 49599, "ishers": 54674, "\u0120oneself": 44143, "\u00e5\u0134\u012e\u00e5\u0143\u00a9\u00e5\u0143\u0132": 63252, "\u00e5\u0143\u00b5\u00e5\u012e\u0138": 66093, "\u0120window": 4071, "\u00d0\u00b4\u00d0\u00b5\u00d0\u00b6": 45683, "Alta": 43702, "rera": 10132, "\u0120didnt": 50337, "\u0120matte": 65772, "\u0120Outstanding": 73538, "shard": 74548, "\u0120fiscal": 24326, "\u00e4\u00ba\u00a4\u00e5\u00be\u0122": 40871, "\u0120REL": 51581, "Ingres": 71125, "\u00e5\u00be\u0122": 4229, "\u00c3\u00a7\u00c3\u00b3": 20187, "\u0120tercer": 24223, "Await": 64929, "\u00e5\u012a\u0128\u00e4\u00b9\u012d\u00e4\u00b8\u0122": 80763, "\u0120attachments": 48472, "\u0120Hebrews": 83430, "onel": 11644, "\u00e9\u0125\u00a8\u00e5\u012a\u0128\u00e5\u013e\u00b0\u00e5\u012e\u00ba": 87179, "\u0120Assignment": 77785, "\u0120senzill": 43441, "\u00c3\u0126": 82077, "olia": 34347, "Accept": 27137, "\u0120)\\": 44629, "\u0120impet": 49987, "\u0120\u00d1\u0123\u00d1\u0124\u00d0\u00b0\u00d0\u00bd\u00d0\u00b5": 70355, "\u0120\u00d0\u00a2\u00d0\u00be": 6770, "\u00e5\u0127\u00ac\u00e9\u0129\u012e": 14255, "\u00e9\u0139\u00ae\u00e9\u00a2\u013a\u00e7\u013c\u0126": 23150, "\u0120tak": 32326, "SPI": 37514, "jo": 5616, "\u0120Guil": 29100, "\u0120Male": 37864, "\u0120oat": 59158, "\u0120Savings": 63256, "Downloads": 35889, "\u0120volunteer": 22139, "\u0120impulses": 67185, "avantatge": 98183, "\u0120unicode": 56091, "Incre": 32629, "\u00d0\u00be\u00d1\u0124\u00d0\u00be": 88927, "conver": 33478, "\u0120dexter": 64501, "\u0120Estats": 7951, "\u0120Bradley": 43305, "\u0120motorists": 90577, "iana": 4673, "$)}": 96452, "Hon": 24623, "emperador": 27736, "\u0120Tattoo": 88942, "\u0120row": 5451, "\u00e5\u00be\u012a\u00e5\u0131\u00af\u00e8\u0125\u00bd": 49382, "\u00e8\u00bf\u013b\u00e5\u0131\u00aa\u00e6\u013a\u00af": 92949, "morning": 29047, "pit": 21964, "\u0120unavailable": 36408, "\u00e9\u00a6\u0138\u00e5\u0127\u012a\u00e8\u00a6\u0123": 51261, "His": 11126, "\u00e7\u00bb\u0131\u00e7\u00ba\u00aa\u00e4\u00ba\u00ba": 81457, "\u00e4\u00b8\u0143\u00e9\u013a\u0141": 67899, "\u0120morph": 15657, "othing": 6015, "\u0120TEST": 32402, "ascens": 67987, "\u0120\u00d0\u00b4\u00d1\u0122\u00d1\u0125\u00d0\u00b3\u00d0\u00b8": 13904, "oidal": 27664, "\u0120rhs": 43624, "\u0120Mabel": 66889, "\u0120Desk": 46292, "MacBook": 66490, "etched": 81846, "\u0120Blizzard": 78753, "\u00e0\u00a4\u00be": 43909, "\u0120\u00d0\u00b4\u00d0\u00b5\u00d0\u00bb\u00d0\u00b0": 82231, "=&": 29377, "\u0120Observ": 23545, "\u00e5\u012f\u0125\u00e5\u0127\u012d": 84168, "\u0120abortion": 39860, "\u0120outlets": 34901, "\u0120pell": 39914, "\u00e5\u00ae\u00a2\u00e6\u012a\u00bf": 97480, ",-.": 61559, "utenant": 21056, "\u0120GNOME": 31172, "\u0120\u00d0\u00b4\u00d0\u00b0\u00d0\u00bb\u00d0\u00b5": 56571, "\u00e6\u00b2\u00b3\u00e5\u012e\u0139\u00e7\u013e\u0123": 61113, "\u0120trailer": 26156, "\u0120ks": 69084, "\u0120Anast": 76476, "\u0120arous": 42161, "\u0120cooker": 62065, "geometry": 25420, "\u0120clique": 72230, "\u00e5\u012f\u00a1\u00e7\u012b\u0129": 91758, "\u0120hatched": 92119, "cco": 68397, "\u0120Obra": 92319, "penat": 87354, "\u0120kills": 32834, "\u00e5\u0127\u0143\u00e4\u00b8\u00aa": 63674, "}\\]": 65603, "\u0120\u00d0\u00a4\u00d1\u0122\u00d0\u00b8": 25715, "\u00e6\u00b5\u00aa\u00e6\u00bd\u00ae": 78602, "\u0120viagra": 25063, "\u0120stabilized": 78855, "\u0120dilemma": 50995, "gitlab": 89532, "\u0120agradecer": 92737, "\u0120Dans": 94629, "\u0120patent": 21947, "\u00e8\u00bd\u00bd\u00e4\u00bd\u0135": 57152, "\u0120Observatory": 48064, "\u00e6\u00a8\u00a1\u00e5\u00bc\u0131": 9520, "\u0120\u00d1\u0124\u00d0\u00b5\u00d0\u00bb\u00d0\u00b5": 22036, "achim": 77658, "\u0120Wilkins": 98030, "setting": 28642, "\u0120physics": 15836, "\u00e6\u0140\u00b8\u00e6\u013f\u0140": 50036, "\u0120Legi": 59615, "\u0120gorge": 65908, "Te": 8517, "Medallistes": 35183, "\u00e4\u00b8\u00b0\u00e6\u00bb\u00a1": 92047, "BT": 19856, "\u0120redu": 2983, "idend": 98503, "\u00e5\u012e\u012a": 74027, "\u0120synch": 57887, "\u00e8\u00b5\u0126\u00e6\u00ba\u0132\u00e7\u013c\u0126": 72847, "izontal": 9675, "\u00d1\u0123\u00d0\u00b5\u00d0\u00b4\u00d0\u00b0": 52247, "orney": 12842, "\u0120Aur": 34219, "\u00e6\u0138\u00b9\u00e4\u00be\u00bf": 15471, "\u0120rele": 6343, "urrent": 6594, "styles": 9799, "\u0120Olympics": 42069, "\u0120quarta": 46677, "\u00e4\u00b9\u00b3\u00e8\u0127\u00ba\u00e7\u013b\u012e": 84717, "ernatural": 96949, "\u00e6\u013f\u0141": 10624, "\u00e7\u00ba\u00a2\u00e8\u012b\u00b2\u00e7\u013c\u0126": 62880, "related": 10652, "\u0120\u00d1\u0123\u00d0\u00b2\u00d0\u00be\u00d0\u00b9": 47970, "tip": 12674, "\u0120perpendicular": 30650, "\u00d0\u00b4\u00d0\u00b5\u00d0\u00be": 40792, "\u0120Django": 55876, "izzy": 56955, "\u0120predicates": 71863, "\u0120def": 977, "\u0120Armenian": 76829, "\u00e5\u0128\u012f\u00e7\u013e\u012d": 80744, "\u0120egipcis": 82891, "estany": 86008, "\u0120Hear": 45578, "\u00e8\u0129\u00aa\u00e5\u00a6\u0124": 83623, "\u0120distros": 86984, "\u0120wondered": 21517, "filer": 36189, "\u0120\u00d0\u00b2\u00d0\u00bb\u00d0\u00b0\u00d1\u0123\u00d1\u0124\u00d0\u00b8": 75213, "rpret": 82507, "\u00e9\u013b\u012f\u00e6\u00b0\u00b4": 88151, "\u00e8\u00bf\u013a\u00e6\u013e\u012b": 5333, "=-=-": 28527, "\u00e6\u012a\u0133\u00e4\u00bb\u00ac\u00e5\u0130\u00bb": 95761, "\u00e9\u0123\u00b5": 22164, "\u0120Plat": 35040, "\u0120\u00d0\u00a1\u00d0\u00be\u00d0\u00bb\u00d1\u0125": 42742, "degenerate": 47421, "Cheers": 55598, "\u0120blends": 54859, "Han": 60188, "\u0120pr": 793, "\u00e7\u0141\u00a5": 2347, "\u0120encounters": 39935, "\u0120\u00d0\u00b4\u00d1\u0122": 28521, "\u0120adiabatic": 55526, "\u00e5\u012a\u00b6\u00e5\u012c\u00a8": 62679, "\u00e5\u0134\u012e\u00e4\u00b8\u0122\u00e4\u00b8\u00aa": 80314, "\u00e6\u0133\u0126\u00e5\u00bd\u00b1": 23997, "\u0120\u00d0\u00b8\u00d0\u00b3\u00d1\u0122\u00d0\u00b0\u00d1\u0131\u00d1\u0124": 82581, "\u0120cif": 97461, "\u0120hopper": 99206, "ursor": 20573, "\u00e3\u0123": 7217, "\u0120Farewell": 83205, "\u0120slash": 53258, "\u0120ripe": 39679, "\u0120PVC": 55808, "\u0120strains": 39913, "\u0120previst": 68037, "overwrite": 86274, "\u0120pigeon": 70825, "ophers": 41912, "\u00e5\u013d\u00b4\u00e8\u00a7\u0124": 81497, "\u0120Your": 4518, "\u00e5\u012a\u0134": 5503, "\u0120Healthy": 44497, "etats": 34724, "\u0120Hartford": 65449, "\u0120clearness": 90232, "\u00e6\u00af\u0131\u00e4\u00b8\u00aa\u00e4\u00ba\u00ba": 22435, "\u0120vex": 38358, "\u0120Cyber": 40320, "\u00e6\u013e\u0122\u00e9\u00ab\u013a\u00e4\u00ba\u00ba\u00e6\u00b0\u0133\u00e6\u00b3\u0137\u00e9\u013b\u00a2": 44480, "\u0120ellipse": 69371, "AO": 59414, "Elem": 43270, "::_": 65140, "Selecci": 87526, "\u00e5\u0130\u0141": 2615, "\u00e6\u013f\u00bf": 5358, ")|^": 34575, "\u00e5\u00be\u0139\u00e7\u0141\u00a5": 35776, "\u00e8\u0130": 3058, "\u00e7\u013c\u0126\u00e6\u013e\u012b": 32608, "\u0120sticky": 36112, "opold": 44968, "second": 9345, "\u0120\u00d0\u00bf\u00d1\u0122\u00d0\u00be\u00d0\u00b8\u00d0\u00b7\u00d0\u00b2\u00d0\u00be\u00d0\u00b4\u00d1\u0123\u00d1\u0124\u00d0\u00b2\u00d0\u00be": 52932, "FS": 8620, "\u0120Continue": 36021, "\u0120gleaming": 64195, "argar": 34018, "\u0120tells": 10496, "\u00d0\u00bc\u00d0\u00b5\u00d1\u0123\u00d1\u0124\u00d0\u00bd\u00d0\u00b8\u00d0\u00ba": 47783, "\u00e6\u0136\u00be\u00e8\u00bf\u013d": 71990, "kor": 73621, "\u00e5\u0128\u012b": 75677, "anut": 35426, "\u0120disappears": 41462, "\u00e6\u0122\u00a7": 1729, "\u0120investigative": 82901, "\u0120elective": 84157, "\u0120\u00d1\u0122\u00d0\u00b0\u00d0\u00b2\u00d0\u00bd\u00d0\u00b8": 44894, "olid": 14455, "\u0120tau": 53972, "Magic": 56789, "\u0120extending": 23529, "rollable": 54647, "\u0120professions": 53141, "\u0120enumerated": 79078, "\u0120Ali": 15444, "\u00e6\u013e\u0122\u00e5\u0127\u00b3\u00e9\u0136\u00ae": 85975, "\u0120Wholesale": 58708, "\u0120\u00d0\u00bf\u00d0\u00be\u00d1\u0122\u00d1\u0124\u00d1\u0122\u00d0\u00b5": 83334, "Pot": 33958, "hell": 18678, "Chunk": 43002, "\u0120\u00d0\u00a1\u00d0\u00b0\u00d1\u0122\u00d0\u00b0": 61459, "\u0120scrat": 40933, "cel": 6229, "hidden": 14767, "\u0120squares": 26532, "\u0120hermit": 58068, "gradually": 84950, "\u0120doi": 41437, "subjects": 64949, "\u00e5\u0132\u00ac\u00e7\u013f\u0122": 71807, "phone": 7158, "\u0120veritable": 41763, "\u00e5\u00af\u0128\u00e7\u0142\u0123": 43577, "\u00e7\u0138\u0133\u00e4\u00bc\u00bc": 60509, "\u00e7\u013c\u0126\u00e5\u0143\u013a\u00e5\u013e\u00a8": 42528, "\u00e7\u00bd\u0139\u00e6\u00b1\u012b": 96659, "\u0120\u00d0\u00ba\u00d0\u00bb\u00d0\u00b0\u00d1\u0123\u00d0\u00b8\u00d1\u0122\u00d0\u00b0\u00d0\u00bd\u00d0\u00b5": 86941, "\u0120pitching": 52236, "\u0120functors": 63559, "\u0120signar": 39780, "\u0120challenging": 14358, "\u0120Patty": 52826, "\u00e5\u0130\u0128\u00e7\u00a8\u012d": 54683, "\u0120plasm": 89385, "\u0120contenen": 47985, "iada": 58660, "\u0120appearance": 8753, "uerda": 89296, "\u0120Deploy": 97107, "Expansion": 88595, "\u0120Title": 24204, "\u0120WI": 41059, "\u0120columnes": 48037, "\u0120mitigated": 97146, "\u00e5\u0130\u0141\u00e6\u013f\u00a5\u00e7\u013c\u0126": 48750, "\u0120Co": 3870, "\u0120stumbling": 71479, "\u0120\u0120\u0120\u0120\u0120": 663, "scan": 21526, "\u0120Presentation": 65317, "\u00e6\u012d\u00b3": 21039, "\u00e6\u00aa\u00ac": 48699, "\u0120agitated": 55433, "\u00e4\u00b8\u012f\u00e4\u00b8\u0122\u00e6\u0142\u00b7": 31975, "\u0120Panam": 71438, "\u0120bride": 23219, "\u0120Dublin": 31637, "\u0120Ensure": 37006, "\u0120russa": 50406, "paint": 54646, "\u0120\u00d0\u00b8\u00d0\u00b7\u00d0\u00b2\u00d0\u00b5\u00d1\u0123\u00d1\u0124\u00d0\u00bd\u00d0\u00b8": 53004, "\u0120\u00d0\u00bf\u00d0\u00be\u00d1\u0123\u00d1\u0124\u00d1\u0122\u00d0\u00be\u00d0\u00b5\u00d0\u00bd\u00d0\u00b0": 60777, "\u0120KHz": 62390, "Tmp": 66406, "\u0120revisi": 77286, "swap": 25502, "\u0120swallowed": 49600, "\u0120\u00d1\u0125\u00d1\u0129\u00d0\u00b5\u00d0\u00b1": 81574, "\u0120Waste": 47003, "ili": 5187, "PER": 15384, "-|": 56629, "\u0120administratiu": 77028, "\u00e4\u00ba\u00bf\u00e7\u00be\u0130\u00e5\u0127\u0125": 22092, "agg": 15305, "\u00e9\u0141\u00b3": 5431, "\u0120crunch": 43573, "\u0120shaken": 44876, "\u0120labored": 88551, "quisite": 96586, "\u0120voiced": 69530, "\u0120fred": 39276, "\u0120codimension": 73748, "green": 12361, "nav": 3954, "\u00e6\u0140\u0123\u00e5\u0127\u00b7": 55068, "DWORD": 59096, "\u00e5\u0131\u0133\u00e7\u0136\u0141\u00e5\u0132\u0130": 82363, "\u0120insolent": 85837, "\u0120strawberries": 56076, "\u0120Covers": 80405, "\u0120sexual": 13511, "Registry": 22497, "\u00e5\u00a5\u00bd": 1250, "genes": 29430, "\u0120Sans": 35806, "\u0120APIs": 40780, "ans": 533, "\u0120Welsh": 41702, "\u0120Yours": 71220, "\u0120lifeless": 79011, "\u0120carbohydrate": 96241, "ancer": 12745, "\u0120diamond": 16847, "shade": 65259, "\u0120Leave": 28764, "\u0120Pig": 46069, "ievable": 49754, "onga": 40782, "hare": 53135, "\u0120Infect": 92984, "\u0120descriptions": 23782, "\u0120Prom": 17216, "\u0120\u00d0\u00b3\u00d0\u00b0\u00d1\u0122": 96932, "\u00e7\u013c\u0126\u00e7\u0136\u0141\u00e6\u00b4\u00bb": 16436, "\u0120working": 2695, "\u0120institutional": 35904, "\u0120horiz": 37924, "\u00e5\u00be\u0139\u00e6\u0126\u0131": 74863, "\u00e5\u0129\u0142\u00e7\u013b\u00be": 60446, "aber": 84944, "\u00d0\u0134\u00d0\u00b5\u00d0\u00bb\u00d0\u00b8": 91989, ">": 29, "\u00e6\u00b4": 1299, "initely": 6390, "\u0120Diff": 25061, "\u00e2\u013b": 33513, "\u0120Medalla": 39476, "\u0120idx": 21943, "\u00e7\u013c\u0126\u00e5\u00a5\u00b3\u00e4\u00ba\u00ba": 41573, "\u0120disciplina": 70538, "\u0120\u00d0\u00bd\u00d0\u00b0\u00d1\u0128\u00d0\u00b8\u00d0\u00be\u00d0\u00bd\u00d0\u00b0": 19114, "\u0120Anch": 74313, "\u0120reinvent": 77898, "\u00e7\u013c\u0135": 85352, "ikawa": 85767, "\u0120Camille": 86540, "\u0120\u00d0\u00bd\u00d0\u00b5\u00d0\u00b7\u00d0\u00b0\u00d0\u00b2\u00d0\u00b8\u00d1\u0123\u00d0\u00b8\u00d0\u00bc\u00d0\u00be\u00d1\u0123\u00d1\u0124": 80911, ".}": 4992, "\u0120finestres": 34111, "military": 57912, "\u0120wavelengths": 47232, "Loss": 56660, "\u00e8\u00be\u0125\u00e9\u0137\u00bf": 90080, "\u0120LESS": 79664, "\u0120French": 6016, "\u00e6\u0143\u00a3\u00e7\u00a1\u00ae": 16169, "getItem": 55678, "\u0120Mask": 32562, "\u0120controversial": 34959, "\u0120Scar": 32697, "levance": 31207, "\u0120simplification": 67631, "\u00d1\u0123\u00d1\u0124\u00d0\u00b8\u00d0\u00ba\u00d0\u00b8": 75169, "\u0120cent": 1793, "called": 11222, "\u0120Makeup": 82287, "\u0120navigating": 58551, "ormal": 2768, "\u0120didn": 3320, "\u00e8\u00a1\u00a1": 12813, "\u0120STRE": 70427, "\u0120Maxwell": 37741, ")\"/>": 95080, "Columb": 57429, "\u0120confront": 22323, "\u0120\u00d0\u00a1\u00d1\u0124\u00d0\u00b0\u00d1\u0122\u00d0\u00b0": 50511, "\u0120nation": 7881, "\u0120Apt": 74582, "\u00e4\u00b8\u0122\u00e8\u012a\u00ac\u00e9\u0125\u00bd\u00e6\u013a\u00af": 75114, "\u0120BPS": 79660, "hline": 5222, "Proceed": 77817, "\u0120byla": 63721, "\u00e7\u00a5\u013f\u00e8\u00b4\u00ba": 96121, "\u0120Harbor": 38244, "\u00c5\u00be\u00c3\u0143": 46496, "\u00e4\u00b8\u012f\u00e8\u00b5\u00b7": 22346, "\u00d0\u00ba\u00d1\u0122\u00d0\u00b0\u00d1\u0124": 39875, "\u00e8\u0132\u00bd\u00e5\u00ae\u0140": 14234, "\u00e5\u0131\u00af\u00e9\u0122\u013c\u00e8\u00bf\u0129": 71151, "\u0120sciences": 32011, "streamer": 55804, "\u0120pizz": 72140, "monton": 57672, "\u0120Cursor": 70543, "\u0120genocide": 91008, "\u0120derrota": 42411, "whe": 13145, "\u00e7\u0128\u012c": 21172, "\u0120verbs": 23455, "\u0120metals": 30900, "\u0120aapt": 63149, "\u00e5\u012f\u00b5\u00e5\u00b7\u00a2": 63213, "\u0120dispositius": 57673, "\u0120Hair": 28374, "\u0120gums": 70366, "Protos": 55225, "\u0120Katrina": 76587, "\u0120Gret": 86237, "\u0120accessor": 60372, "\u0120Solaris": 86393, "\u0120drone": 40978, "\u00e6\u0139\u00b6\u00e6\u013e\u00ba": 37120, "^@^@": 30959, "boldsymbol": 5105, "\u00e5\u00b1\u00b1\u00e7\u013c\u0126": 46316, "Synchron": 66812, "Germ": 34502, "\u00e4\u00b8\u012f\u00e6\u013e\u012f": 60857, "MILL": 74567, "\u0120iptables": 52223, "pected": 5892, "\u0120Enh": 38308, "\u00e4\u00bb\u0136\u00e7\u00bb\u0128": 28352, "\u00e7\u013c\u0126\u00e8\u00bf\u013b\u00e4\u00b8\u00aa": 76729, "cience": 36528, "itutions": 39363, "alom": 73783, "\u0120slope": 23764, "\u0120lame": 51235, "--)": 62841, "ellation": 43120, "\u00e6\u0142\u0129\u00e5\u0129\u0128\u00e7\u013c\u0126": 46011, "\u00d1\u0127\u00d0\u00b0\u00d0\u00b9\u00d0\u00bc": 40745, "stride": 82450, "\u0120Chesapeake": 92103, "\u0120knocks": 87703, "\u0120earthen": 98173, "\u0120devastating": 45385, "nida": 81869, "\u0120oste": 49406, "SEVER": 92268, "\u00e4\u00b8\u012d\u00e6\u013f\u00a5\u00e7\u013c\u0126": 34157, "\u0120presents": 12531, "\u0120eigenvalues": 24790, "\u0120trag": 27647, "\u0120loser": 83127, "\u0120earthquake": 38924, "\u0120\u00d0\u013b\u00d0\u00be\u00d1\u0122\u00d0\u00b4\u00d0\u00b0\u00d0\u00bd": 73054, "\u00e5\u00b8\u0124\u00e5\u012e\u00ba": 41167, "\u0120hints": 28328, "\u00d0\u00b2\u00d0\u00b5\u00d1\u0123\u00d1\u0124\u00d0\u00b5\u00d0\u00bd": 29515, "\u00e5\u013e\u00a8\u00e5\u012b\u012f": 46196, "\u0120Wordsworth": 73970, "CLAIMED": 99916, "\u0120Them": 60544, "\u0120Alejandro": 75746, "\u00e7\u0136\u0141\u00e7\u0136\u0141": 87567, "\u00e8\u00bf\u0129\u00e9\u00ab\u013a": 60899, "\u0120subscriptions": 53007, "\u00e6\u00b0\u00b4\u00e7\u0136\u00b5": 75458, "\u00e4\u00b9\u00a6\u00e4\u00b8\u0143": 54132, "\u0120Julia": 29673, "assing": 79057, "\u0120hier": 69038, "Fl": 7514, "\u00e8\u00b4\u00a2\u00e7\u00bb\u0131": 39017, "Interestingly": 59279, "Known": 48013, "\u0120\u00d0\u013c\u00d0\u00be\u00d1\u0122": 36387, "\u0120Instance": 41308, "\u0120Under": 10281, "\u0120optimism": 61325, "HOR": 75913, "\u0120Korean": 28218, "\u0120suction": 82293, "\u00e6\u013c\u0138\u00e6\u00b0\u0136": 97019, "\u0120volunt": 18698, "\u0120modifies": 50177, "\u00e7\u013c\u0126\u00e6\u0139\u00b6\u00e5\u0122\u013b\u00e5\u00b0\u00b1": 69364, "HA": 18081, "\u0120\u00d1\u0123\u00d0\u00b2\u00d0\u00b5": 10302, "\u0120Island": 10511, "\u0120Esgl": 59276, "\u00e4\u00bb\u00a3\u00e7\u0132\u0128": 25951, "\u00e7\u00bc\u00b4\u00e7\u00ba\u00b3": 37471, "\u00e8\u00be\u00a9\u00e6\u012c\u00a4": 58684, "\u00e9\u0129\u0129\u00e8\u00ae\u00bf": 22946, "Compatible": 47942, "\u00e4\u00b8\u0122\u00e7\u013d\u00b4\u00e9\u0125\u00bd\u00e6\u013a\u00af": 69390, "\u0120thinner": 53774, ")}^{\\": 79173, "\u00e5\u0131\u013a\u00e5\u00be\u0139\u00e6\u013d\u00b4": 87052, "\u0120misunderstood": 57895, "\u0120widow": 29274, "Inline": 47470, "\u0120hygien": 90053, "\u00e7\u00a7\u00af\u00e8\u0135\u0126": 88240, "onsk": 98325, "\u0120Rating": 39378, "ridor": 33079, "Editors": 87166, "atherine": 21356, "IFE": 41630, "\u00e5\u00be\u012a\u00e9\u013c\u00be": 16465, "\u0120dream": 6267, "Pom": 75954, "\u00e5\u0129\u0143\u00e5\u0122\u0141": 24500, "Absolute": 46075, "STATIC": 56904, "\u0120claust": 76505, "\u00e4\u00ba\u012e\u00e4\u00ba\u00ba": 42821, "castle": 29161, "\u0120Cosmos": 94325, "\u0120coalesce": 99780, "angeli": 85646, "\u0120\u0120\u0120\u0120\u0120\u0120\u0120\u0120\u0120\u0120\u0120\u0120\u0120\u0120\u0120\u0120\u0120\u0120\u0120\u0120\u0120\u0120\u0120\u0120\u0120\u0120\u0120\u0120\u0120\u0120\u0120\u0120\u0120\u0120\u0120\u0120\u0120\u0120\u0120\u0120\u0120\u0120\u0120\u0120\u0120\u0120\u0120\u0120\u0120\u0120\u0120\u0120\u0120\u0120\u0120": 37238, "accept": 16313, "bes": 11034, "\u00e5\u013d\u00bd\u00e5\u00ba\u0128": 48150, "\u0120cities": 10949, "$^{\\": 43354, "\u00e6\u013b\u0135": 14414, "\u00e5\u0131\u0133\u00e7\u0130\u00b0\u00e4\u00ba\u0128": 44286, "\u00e6\u012a\u0132\u00e4\u00ba\u00a4\u00e9\u0129\u0131": 45401, "destroy": 22386, "\u0120spinal": 47405, "\u00d1\u0124\u00d0\u00b0\u00d0\u00bd\u00d1\u0123\u00d0\u00ba\u00d0\u00b8": 45675, "larger": 48726, "orious": 15411, "\u0120tracker": 41397, "\u0120craftsmanship": 68488, "vall": 70976, "\u00e5\u012f\u0139\u00e4\u00ba\u00ac": 22739, "\u0120phenomenological": 71583, "\u0120Redis": 82690, "\u0120MODE": 69630, "\u00e5\u00bc\u0122\u00e4\u00bc\u013c": 86299, "\u0120OL": 51412, "\u00d0\u00ba\u00d1\u0125\u00d1\u0122": 47118, "\u0120predecess": 29415, "l": 75, "heard": 23959, "\u00e5\u00bf\u00ab\u00e9\u0122\u0134": 29831, "President": 30663, "\u00d0\u00ba\u00d0\u00b0": 1288, "\u0120oven": 17592, "\u0120\u00d0\u00b3\u00d0\u00be\u00d0\u00b4\u00d0\u00b8\u00d0\u00bd\u00d0\u00b0\u00d1\u0124\u00d0\u00b0": 45134, "\u0120podrien": 44622, "\u0120massless": 50665, "\u0120Aless": 55632, "\u0120ERA": 60422, "\u0120americana": 63575, "\u0120thrice": 66110, "\u0120phase": 5700, "\u00d1\u0126\u00d0\u00b0": 19447, "\u0120warning": 11522, "\u0120Regiment": 47163, "acquaintance": 81641, "ipi": 91235, "\u0120appre": 6136, "\u0120oxygen": 23382, "\u0120squire": 70282, "\u0120patience": 21704, "Register": 17809, "\u0120lb": 34763, "\u00e4\u00ba\u0128\u00e8\u0129\u00aa\u00e5\u00b7\u00b1": 42883, "aughter": 46996, "await": 47452, "Johnny": 92155, "amf": 99796, "pi": 1804, "\u0120Buff": 19378, "\u00e6\u00b1\u0141\u00e8\u00a5\u00bf\u00e7\u013e\u0123": 78109, "\u0120launching": 29465, "\u00e4\u00b8\u0122\u00e8\u0126\u013c": 97089, "tat": 8636, "\u0120highway": 28558, "itored": 37842, "polygon": 63927, "pear": 75830, "\u0120Azerbai": 90359, "\u0120)$.": 93567, "\u0120\u00d0\u0133\u00d0\u00b0\u00d0\u00bb": 26097, "\u00e4\u00ba\u0128\u00e5\u0132\u0139": 39541, "\u0120booths": 78064, "\u00d0\u00b7\u00d0\u00b4\u00d0\u00b0": 10840, "sure": 18831, "\u00e6\u00b3\u00a2\u00e5\u012c\u00a8": 33970, "LOP": 88212, "\u00e9\u00a9\u00ac\u00e6\u013f\u00a5": 60028, "\u00e6\u00b5\u0123\u00e6\u00b5\u00aa": 61662, "inal": 1596, "\u0120guided": 24732, "\u0120altern": 5310, "\u00d1\u0123\u00d1\u012c\u00d1\u0124": 44137, "\u0120insure": 51158, "\u0120disguised": 67692, "figh": 89977, "($.": 98341, "']": 3687, "Boston": 52139, "\u0120Beatles": 57260, "spe": 9462, "\u0120\u00d0\u00bd\u00d0\u00b0\u00d0\u00bb\u00d0\u00b8": 58031, "\u0120whip": 34996, "\u00e3\u0122\u012d\u00e4\u00b8\u0122": 67439, "\u0120Wilmington": 78323, "\u0120Widow": 82020, "\u0120Revised": 83178, "\u0120vib": 12358, "\u00e5\u013e\u00a8\u00e8\u00bf\u013b\u00e4\u00b8\u0122": 59648, "\u0120frightened": 27822, "ETERS": 94783, "\u00e6\u013e\u0122\u00e5\u00a4\u00a7\u00e5\u012e\u0138": 97082, "\u00e4\u00b8\u0133": 27565, "pref": 10413, "physical": 24425, "integration": 40207, "\u00e8\u012a\u00b1": 41079, "\u00e4\u00bb\u0127\u00e4\u00bb\u0127": 24219, "hibernate": 40035, "\u00e5\u0129\u00ba\u00e5\u00b8\u0143\u00e4\u00bc\u013c\u00e8\u00ae\u00ae": 92283, "veh": 40657, "\u00e7\u0124\u0130\u00e7\u0139\u0129": 48676, "\u00e9\u0123\u0143\u00e5\u012a\u00b0\u00e4\u00ba\u0128": 91292, "\u0120submissions": 46345, "hg": 57596, "\u0120Cen": 83081, "\u00d0\u00b4\u00d0\u00be\u00d0\u00b2\u00d0\u00b5\u00d1\u0124\u00d0\u00b5": 41521, "Guest": 49503, "\u00e5\u00b0\u0131\u00e9\u00b1\u00bc": 99392, "\u0120historia": 77687, "\u0120maintaining": 18230, "\u0120subscribe": 30740, "adium": 20089, "rils": 46904, "\u0120proposition": 21353, "\u00e5\u00bd\u0135\u00e5\u00b9\u00b4\u00e7\u013c\u0126": 56719, "\u0120Corporation": 11631, "Jess": 58899, "eating": 63828, "\u0120Vinc": 63073, "\u0120NODE": 77308, "tol": 9050, "UMP": 77751, "\u00e5\u0127\u0123\u00e8\u00ae\u00b8": 25544, "\u00e7\u0136\u0126\u00e5\u00ac\u013d": 96380, "\u0120Gradu": 68694, "\u0109class": 81416, "\u0120Bien": 56885, "\u0120Jew": 9576, "\u00e8\u012c\u00af": 23110, "invasive": 88100, "]);": 10109, "ometria": 91518, "\u0120Methods": 26807, "La": 2888, "upt": 23136, "\u0120GW": 32030, "Startup": 48881, "\u0120Kom": 42984, "\u0120beers": 48762, "\u0120coalici": 53339, "\u00d0\u00b4\u00d0\u00b8\u00d1\u0124\u00d0\u00b5": 14412, "\u00e8\u00a7\u00a3\u00e6\u0140\u0132": 54964, "fors": 72116, "\u00e7\u0141\u00a5\u00e8\u00af\u0128\u00e7\u0124\u00b9": 90764, "rality": 97533, "\u0120Cream": 30558, "LS": 10821, "\u0120\u00d0\u00bf\u00d0\u00bb\u00d0\u00be": 18265, "\u00d0\u00b1\u00d0\u00bb\u00d1\u0130": 36105, "Zip": 44521, "\u0120TP": 42579, "\u0120\u00d1\u0125\u00d0\u00b4\u00d0\u00be": 69378, "\u0120Attached": 78592, "\u0120canvia": 64526, "\u0120Regi": 62109, "\u00e9\u013b\u00a8\u00e7\u0141\u00b3": 66607, "Interview": 90195, "\u0120June": 6564, "arque": 41298, "\u0120quarrels": 77324, "\u00e5\u00b0\u00b1\u00e5\u00b0\u0128": 72384, "\u0120prevent": 5120, "miles": 49649, "intensive": 77172, "\u00e5\u00b9\u00b4\u00e7\u013c\u0126": 6707, "\u00e8\u00be\u0138": 23938, "\u0120milestone": 49884, "\u0120alber": 79778, "\u00e4\u00b9\u00b0": 4220, "PubMed": 55485, "\u0120accidentally": 28121, "\u0120DAR": 84488, "\u0120py": 15445, "\u0120\u00d1\u0124\u00d0\u00b5\u00d0\u00b0": 27808, "htdocs": 65527, "mico": 97823, "\u00e5\u012f\u0123\u00e5\u0127\u0143": 43785, "\u0120troops": 14177, "\u0120seleccionar": 45965, "oyne": 92673, "ieg": 28210, "\u0120missp": 98634, "\u0120technical": 9388, "\u00e8\u00bf\u013b\u00e7\u00a7\u012f\u00e6\u0125\u0127\u00e5\u0128\u00b5": 39981, "ctrica": 46653, "shore": 26837, "\u0120\u00d0\u00b4\u00d0\u00b5\u00d1\u0128\u00d0\u00b0": 28714, "=['": 69490, "ghed": 69848, "\u0120beca": 85928, "\u00e5\u00b8\u00a6\u00e9\u00a2\u0128": 25903, "\u00e9\u013c\u0132\u00e7\u00a7\u0123": 53627, "\u00e8\u00a1\u0139\u00e4\u00b8\u012c": 65412, "\u0120Tara": 70013, "\u0120\u00d0\u00b5\u00d0\u00bd\u00d0\u00b5\u00d1\u0122": 43613, "\u00e6\u012b\u0135\u00e5\u0127\u00a5": 88393, "\u0120computation": 15108, "'][$": 88866, "\u0120fulfills": 88867, "\u0120\u00d1\u0127\u00d1\u0125": 53102, "\u0120nut": 9863, "\u0120clicking": 16918, "\u0120\u00d0\u0140\u00d1\u0122\u00d0\u00b3\u00d0\u00b0\u00d0\u00bd\u00d0\u00b8": 91125, "\u0120canadencs": 91684, "Quest": 65511, "\u0120geomet": 27294, "\u0120ValueError": 47304, "\u0120\u00d0\u0136\u00d0\u00b5\u00d0\u00bb": 65849, "Designer": 75629, "\u0120Cartoon": 89873, "\u0120Casas": 74866, "\u00e4\u00ba\u012d\u00e5\u00ae\u0140": 14902, "$_\\": 54670, "\u00e8\u00a2\u0123": 30010, "\u0120behalf": 17469, "DIS": 19759, "\u0120\u00d0\u00a6\u00d0\u00b5\u00d0\u00bd\u00d1\u0124\u00d1\u0122\u00d0\u00b0": 35292, "\u0120should": 1023, "reddit": 89524, "\u0120sequence": 6905, "\u00e6\u013a\u0128\u00e6\u013a\u0130": 43201, "oz": 11328, "\u0120vegetation": 41406, "connection": 14005, "\u00e5\u00a4\u00a7\u00e8\u0125\u0128": 48582, "asley": 92868, "plements": 11981, "\u0120maturity": 43793, "\u0120depos": 11772, "\u00d1\u0129\u00d0\u00b2\u00d0\u00b0": 8669, "iliate": 49127, ">(": 6779, "inherited": 37200, "\u0120Establish": 73042, "========================================================================": 47031, "\u0120\u00d1\u0123\u00d1\u012c\u00d0\u00be\u00d1\u0124\u00d0\u00b2\u00d0\u00b5\u00d1\u0124": 36972, "\u0120THC": 77117, "\u0120brutality": 86543, "\u0120\u00d0\u00b2\u00d1\u0131\u00d1\u0122": 59444, "\u00e8\u00bf\u013b\u00e9\u0125\u00a8\u00e5\u012b\u00a7": 76339, "\u0120deriving": 58001, "Traditional": 78342, "\u0120Limits": 86396, "{|\\": 43335, "Christopher": 77638, "\u0120ideals": 33524, "\u0120yielded": 34237, "Save": 15295, "\u0120lunar": 52631, "\u0120copyrighted": 84187, "\u0120excell": 22466, "flour": 85387, "\u00d0\u00b8\u00d1\u0124\u00d0\u00b5": 1579, "\u0120\u00d0\u00b0\u00d0\u00b4\u00d0\u00b0": 70546, "Did": 13062, "\u00e8\u00bd\u00ac\u00e7\u013e\u00bc": 82947, "\u0120enll": 37900, "\u00e4\u00b8\u00bb\u00e7\u00bc\u0138": 91220, "\u0120Ability": 66254, "~~\\": 98913, "\u00d1\u0129\u00d0\u00b5\u00d1\u0123\u00d0\u00ba\u00d0\u00be\u00d1\u0124\u00d0\u00be": 46694, "\u00e7\u0132\u0128\u00e7\u0136\u00b1": 21257, "\u0120signatura": 81878, "iev": 19691, "\u0120structures": 10918, "\u0120cosmic": 30962, "mast": 58677, "\u0120afegint": 93532, "aea": 71178, "\u0120discarded": 42449, "\u0120Supported": 61730, "\u00e7\u0136\u0141\u00e6\u00b4\u00bb\u00e4\u00b8\u0143": 20340, "\u0120Raleigh": 49889, "\u0120Viol": 34555, "\u0120Department": 8238, "\u00e8\u012f\u00af\u00e7\u012b\u00a9": 20933, "\u00c2\u0142cm": 22616, "}`": 42013, "explained": 52554, "\u0120\u00d0\u0142\u00d0\u00b0\u00d0\u00b1\u00d0\u00be": 59723, "\u00e5\u012f\u0137\u00e8\u00af\u012f": 70032, "\u00e4\u00b8\u012f\u00e6\u013a\u00af\u00e4\u00b8\u0122\u00e4\u00b8\u00aa": 74513, "classifier": 80441, "\u00d0\u00b3\u00d0\u00b0\u00d0\u00bd": 23560, "\u0120victory": 13961, "\u00d0\u00b7\u00d0\u00b5\u00d0\u00bc": 69195, "\u0120Algorithm": 24495, "native": 22200, "\u0120Village": 22681, "\u0120$(\"#": 22742, "\u0120Exped": 47023, "\u0120RR": 50838, "\u00e6\u012a\u0132": 1114, "Leave": 37109, "\u0120Zo": 51699, "ZX": 83508, "iclisme": 46698, "optimize": 86019, "\u0120India": 7493, "olades": 89588, "\u0120detingut": 75925, "\u0120ocultar": 92431, "\u0120Ferre": 92752, "()==": 92773, "\u00e5\u00b7\u00a6\u00e5\u0131\u00b3\u00e7\u013c\u0126": 52816, "\u0120huh": 76758, "altime": 80267, "URL": 9068, "Uh": 86191, "\u00e5\u00ae\u0129": 15938, "G": 38, "\u0120encontrar": 46642, "\u0120informe": 68166, "\u0120though": 2451, "\u0120modification": 21814, "\u0120Aus": 45522, "enter": 10807, "\u0120centrals": 63194, "\u0120Heritage": 29491, "\u00e5\u012a\u0128\u00e9\u0134\u0141\u00e5\u00b7\u00a6\u00e5\u0131\u00b3": 65706, "\u00e5\u00a6\u00a8": 29417, "\u0120FALSE": 29474, "\u00e6\u0139\u00b7": 61392, "\u0120epoxy": 76583, "maker": 26929, "'])": 17366, "chains": 52970, "dominated": 63520, "\u0120Xorg": 68744, "\u0120kale": 68531, "\u0120construed": 73453, "work": 1597, "\u0120So": 2086, "\u0120vill": 7280, "\u0120arbitr": 30616, "\u0120genres": 50781, "\u00e5\u0127\u00a8": 1446, "\u0120stronghold": 87643, "\u00d0\u013d\u00d0\u00be": 63448, "\u0120mime": 62009, "keyst": 93214, "\u0120radius": 11846, "\u0120Foods": 44814, "\u0120Four": 15121, "\u0120\u00d1\u0124\u00d0\u00b5\u00d1\u0122\u00d0\u00b8\u00d1\u0124\u00d0\u00be\u00d1\u0122\u00d0\u00b8\u00d1\u0131": 26554, "Congratulations": 44763, "testers": 57905, "\u00e6\u0142\u0129\u00e5\u00bf\u0139\u00e7\u013f\u0122": 68659, "Austr": 43523, "\u0120numberOf": 72350, "\u00e5\u00a4\u0138\u00e5\u00a9\u0128": 84475, "atial": 10769, "\u0120retir": 17531, "scription": 18085, "\u00e5\u00b0\u00b8": 36868, "\u0120Physician": 85507, "\u00e6\u00b9\u0138\u00e6\u00b3\u012c": 89689, "\u0120Surprise": 95617, "duly": 95758, "\u0120\u00d0\u013d\u00d0\u00b8\u00d0\u00b3\u00d0\u00b0": 96888, "\u0120decompositions": 85970, "\u0120pap": 22806, "SSERT": 17865, "\u0120Amazon": 11157, "\u0120liquids": 55357, "button": 5316, "lices": 74923, "\u0120FLA": 71379, "\u0120Worldwide": 61458, "\u00e5\u012e\u00bb\u00e7\u0138\u0139\u00e9\u013a\u0141": 84993, "\u0120DID": 73110, "\u0120\u00d0\u0141\u00d0\u00be\u00d1\u0122": 39524, "\u0120Navy": 24552, "Both": 16885, "\u00f0\u0141\u013a": 71899, "\u0120faced": 17815, "\u0120localhost": 27956, "\u0120Blob": 76552, "BLACK": 91192, "\u0120\u00d0\u00bc\u00d0\u00b0\u00d0\u00bd\u00d0\u00b0\u00d1\u0123\u00d1\u0124\u00d0\u00b8\u00d1\u0122": 35818, "\u0120sof": 36866, "\u00d0\u00b5\u00d1\u0122\u00d1\u0125\u00d1\u0123\u00d0\u00b0": 98534, "KW": 80284, "\u0120nuance": 82970, "\u0120\u00d0\u00b7\u00d0\u00bd\u00d0\u00b0\u00d1\u0129\u00d0\u00b5\u00d0\u00bd\u00d0\u00b8\u00d0\u00b5": 48362, "\u0120reiterated": 80272, "spy": 54864, "\u0120ounce": 44200, "October": 27810, "\u0120$\\|\\": 45216, "\u0120NEVER": 61374, "\u0120negre": 28110, "\u00e4\u00b8\u012f\u00e7\u00bb\u0131": 66734, "\u0120antibodies": 67891, "\u0120dreamed": 36043, "\u0120workstation": 68993, "\u0120\u00d0\u0134\u00d0\u00b5\u00d0\u00bd": 73199, "\u00e4\u00bb\u00a5\u00e5\u012b\u012f": 14593, "imir": 33539, "\u00e4\u00b8\u012f\u00e4\u00bc\u013c\u00e6\u013e\u012b": 59939, "pherd": 30979, "\u0120SERVER": 60895, "\u0120\u00d0\u00a5\u00d0\u00b0\u00d0\u00bd\u00d1\u0123": 92586, "\u0120fool": 12192, "\u00e8\u00a7\u0124\u00e7\u0124\u00b9\u00e6\u012a\u0138\u00e7\u00ab\u012d\u00e5\u013e\u00ba": 46252, "\u00e4\u00b8\u0122\u00e6\u0136\u00af": 47287, "lambda": 2229, "oad": 3929, "\u0120cookie": 22955, "\u00e7\u013f\u00a1\u00e5\u012b\u012f": 56567, "\u0120Web": 6247, "\u0120consect": 58299, "\u0120rics": 89788, "\u0120\u00ce\u00b3": 72588, "arder": 90709, "\u00e5\u00ae\u00b4": 29594, "\u0120protein": 15032, "\u00e8\u00b4\u0143\u00e8\u00bd\u00a6": 59699, "\u00e4\u00bd\u0128\u00e6\u013a\u00af\u00e4\u00bb\u0138": 66899, "\u00e5\u012b\u012f\u00e4\u00b8\u012b": 50922, "\u0120Matlab": 82921, "\u0120Europeu": 50598, "\u0120sig": 17378, "Handler": 7769, "uled": 9364, "\u0120opciones": 45866, "\u00e9\u0136\u00bb": 22151, "\u0120toxic": 26372, "File": 3893, "\u00e9\u00a3\u0141": 3577, "\u0120asi": 22547, "\u0120Lazar": 78399, "zena": 70609, "\")){": 90255, "\u0120magistrate": 55913, "\u0120\u00d0\u00b2\u00d0\u00b0\u00d0\u00b6\u00d0\u00bd\u00d0\u00b0": 87819, "\u0120\u00d0\u00ba\u00d0\u00be\u00d1\u0123\u00d1\u0124": 95338, "\u0120Monts": 34391, "\u0120Carrie": 58996, "\u00e7\u00a4\u00bc\u00e7\u012b\u00a9": 35693, "\u0120externa": 72959, "\u00e5\u00b7\u00ab": 68379, "\u0120Phaser": 71943, "\u00e8\u00bd\u00ac\u00e5\u0131\u013a": 30325, "hoquei": 62503, "onstr": 39419, "wow": 51401, "\u0120finalize": 78778, "Ctx": 45183, "\u00e6\u013a\u00af\u00e9\u0122\u013c\u00e8\u00bf\u0129": 66497, "\u0120abstraction": 47675, "vector": 10913, "\u0120Bour": 28062, "){": 4543, "\u0120greeting": 37785, "\u0120nova": 12958, "\u0120Patrimoni": 27246, "\\{(": 82266, "\u0120skewed": 86999, "Gov": 87060, "\u0120EMC": 78468, "\u0120Law": 7323, "buntu": 2531, "\u0120ctx": 20711, "\u0120Traditional": 46238, "holds": 24659, "\u0120rb": 60342, "\u0120sou": 10529, "\u0120\u00d0\u00a1\u00d1\u0124\u00d0\u00be\u00d1\u0131\u00d0\u00bd\u00d0\u00be\u00d0\u00b2": 68855, "\u0120cloves": 71074, "oves": 13318, "\u0120relevance": 34593, "\u0120Stammtafeln": 48307, "\u0120probed": 79006, "\u00e9\u00bc\u00bb\u00e5\u0143\u0132": 49683, "}+": 7026, "\u00e5\u0143\u00a3\u00e5\u00ba\u00a6": 21224, "\u0120township": 72086, "\u0120Diod": 95831, "\u0120supplement": 17075, "\u0120Sic": 26396, "\u00e6\u0142\u012a": 64541, "\u0120holand": 64032, "\u00e8\u00bd\u00bd": 7438, "\u0120\u00d0\u00b8\u00d0\u00b7\u00d0\u00bf\u00d1\u0122\u00d0\u00b0": 28093, "\u00e4\u00bd\u013e\u00e5\u0135\u0123": 9668, "\u00e9\u0141\u00a7\u00e6\u0122\u00a7": 97873, "\u0120representatives": 21091, "UserName": 59821, "\u00e6\u00aa": 30131, "\u0120Nemo": 99849, "\u0120UNION": 39165, "ValueType": 69605, "enginyer": 97916, "\u00e4\u00b9\u012d\u00e5\u012c\u00bf": 87458, "\u0120scar": 15730, "\u00e9\u0143\u0124": 20413, "background": 8969, "lag": 20414, "\u0120\u00d1\u0123\u00d1\u012c\u00d1\u0130\u00d0\u00b7": 27288, "toBe": 28462, "\u00e5\u012f\u00a2": 28620, "onat": 36375, "\u0120\u00d0\u00bb\u00d0\u00b8\u00d0\u00bd\u00d0\u00b8\u00d1\u0131": 37710, "\u0120acronym": 56360, "COLUMN": 48706, "\u00e2\u0133\u00a3": 74156, "\u0120bifurcation": 79729, "hart": 34942, "\u00e5\u00a4\u00b4\u00e8\u0126\u0133": 45978, "derive": 89577, "\u0120Thorpe": 93427, "uf": 3831, "Scot": 50048, "\u00ea\u00b2": 75432, "\u00d0\u00b2\u00d0\u00b5\u00d0\u00b7": 82772, "Wear": 94222, "\u0120HTMLElement": 96550, "intr": 43759, "\u0120\"'": 20186, "\u00e4\u00bc\u00b8\u00e5\u00b1\u0137": 99152, "\u00d0\u00b3\u00d0\u00bb\u00d0\u00b8": 62830, "\u0120Bingo": 80711, "\u0120roseg": 85438, "\u00e7\u013d\u013d\u00e5\u00ae\u00b4": 72012, "\u00e5\u012e\u00bb\u00e5\u0143\u00a6\u00e9\u013b\u00a2": 81368, "\u0120resolver": 33797, "exclusion": 54281, "ialize": 13361, "onsor": 47378, "\u0120tbsp": 65654, "\u00e4\u00bb\u012c\u00e5\u00a4\u00a9": 7029, "\u0120ss": 14780, "\u00e6\u0139\u00a5\u00e8\u00ae\u00af": 50302, "\u0120\u00d0\u00be\u00d0\u00b1\u00d1\u0125\u00d1\u0129\u00d0\u00b5\u00d0\u00bd\u00d0\u00b8\u00d0\u00b5": 66666, "\u0120Municipal": 33201, "\u00e4\u00b8\u012d\u00e5\u0131\u0133": 78137, "cdnjs": 43437, "\u00d1\u0124\u00d1\u0125\u00d1\u0122\u00d0\u00b0": 19049, "ichan": 93216, "\u00e3\u0122\u012c\u00e6\u013e\u0122\u00e9\u00ab\u013a\u00e4\u00ba\u00ba\u00e6\u00b0\u0133\u00e6\u00b3\u0137\u00e9\u013b\u00a2": 97680, "\u00e6\u0139\u0142\u00e9\u0129\u0131": 87091, "oty": 94448, "psia": 90981, "Holy": 57957, "\u0120Thanks": 7475, "\u00d1\u0123\u00d0\u00bd\u00d0\u00b0": 17346, "\u0120cease": 28447, "\u0120agreeing": 54042, "\u0120SUM": 20773, ":~$": 22090, "\u0120administrador": 78447, "\u00e7\u013c\u0126\u00e5\u00b0\u0131": 8781, "\u0120cp": 24185, "\u0120nib": 49258, "\u0120Ada": 51961, "potent": 61536, "\u0120garnered": 84280, "EH": 85524, "\u0120Dimit": 86942, "\u00e6\u012a\u0138\u00e5\u013e\u00a8": 94656, "riving": 16834, "olated": 62001, "\u0120realize": 11591, "igma": 2038, "\u0120saute": 97886, "\u0120Technical": 29694, "\u00e6\u0139\u0142\u00e7\u00bc\u013a": 74780, "\u0120jung": 97715, "\u0120concealment": 85318, "\u0120\u00d0\u00ba\u00d0\u00be\u00d0\u00bc": 9553, "\u0109\u0109\u0109\u0109\u0109\u0109\u0109\u0109\u0109": 21319, "\u0120plus": 8109, "\u0120\u00d0\u00bb\u00d0\u00b5\u00d0\u00b3\u00d0\u00b8": 83009, "\u0120detr": 43083, "MySQL": 46358, "BD": 15386, "\u0120WIDTH": 28980, "\u0120grip": 20972, "\u0120Neb": 51984, "Vision": 64297, "\u0120\u00d1\u0123\u00d0\u00b5\u00d0\u00b2\u00d0\u00b5\u00d1\u0122\u00d0\u00be\u00d0\u00b8\u00d0\u00b7\u00d1\u0124\u00d0\u00be": 69431, "local": 5271, "\u0120plenty": 9572, "\u0120den": 3292, "\u0120thermal": 13508, "TV": 13802, "supported": 19220, "\u0120Neither": 28106, "SUP": 34357, "ltims": 36116, "\u0120ecological": 53512, "utilitz": 87827, "\u00e5\u0131\u0133\u00e6\u0136\u00b9\u00e5\u00a7\u0136": 68190, "\u0120Noble": 48270, "individuals": 89632, "\u00d0\u00b2\u00d0\u00b0\u00d0\u00b9\u00d0\u00b3": 93925, "\u00e6\u00b1\u00a1": 12422, "ieth": 73166, "comed": 26676, "\u0120Trip": 29246, "\u0120decir": 22784, "\u0120ordered": 10133, "\u0120scenario": 12188, "\u00e5\u00bf\u0125\u00e6\u0122\u013f": 55888, "\u00e8\u0126\u00b8\u00e9\u0125\u00a8": 74701, "\u0120badly": 21460, "\u0120\u00d0\u00b4\u00d0\u00b8\u00d1\u0122\u00d0\u00b5\u00d0\u00ba\u00d1\u0124\u00d0\u00bd\u00d0\u00be": 96137, "\u0120Wired": 73611, "\u0120Long": 9055, "\u0120aching": 75349, "\u0120\u00d0\u00b8\u00d0\u00b7\u00d1\u0123\u00d0\u00bb\u00d0\u00b5\u00d0\u00b4\u00d0\u00be\u00d0\u00b2\u00d0\u00b0\u00d1\u0124\u00d0\u00b5\u00d0\u00bb": 82804, "\u0120Accounts": 46715, "revoc": 81780, "lian": 67553, "\u0120buckets": 53883, "\u0120\u00d0\u013c\u00d0\u00b0\u00d0\u00b7\u00d0\u00b0": 72159, "\u00e9\u0124\u00a3\u00e5\u00b9\u00b4": 73650, "\u00e2\u0124\u00ac\u00e2\u0126\u00a2": 41191, "description": 8337, "\u0120Java": 9834, "secure": 26736, "\u0120enterprises": 35753, "\u00e6\u0138\u00b0\u00e5\u00bb\u00ba": 42640, "\u00e8\u00b0\u0143": 46255, "Location": 10265, "\u0120veget": 9708, "\u0120keywords": 27449, "\u0120Mur": 11108, "\u0120mall": 27678, "\u0120Archbishop": 52550, "IATE": 78905, "\u0120Goethe": 65579, "\u00e6\u0134": 3992, "ogue": 19511, "\u00e5\u00be\u012a\u00e5\u00a4\u013c\u00e4\u00ba\u00ba": 11848, "midt": 34505, "\u0120Booking": 73574, "PARTITION": 56563, "\u0120Gas": 21135, "\u00e6\u012e\u0142": 78707, "\u00e8\u00b0\u0123": 8672, "\u0120Pvt": 91621, "\u0120omn": 37057, "httpResponse": 77828, "sserv": 78626, "\u0120vor": 65799, "accum": 54840, "voice": 31095, "\u0120solely": 21019, "\u00e7\u0125\u0143\u00e7\u0125\u012a": 70896, "\u00e4\u00ba\u0128\u00e4\u00b8\u0122\u00e5\u00a5\u0139": 91032, "\u0120jungle": 39557, "\u0120Wins": 60556, "Including": 97261, "\u0120DWORD": 59904, "\u00d1\u0123\u00d0\u00bd\u00d0\u00b0\u00d1\u0124\u00d0\u00be": 97638, "\u0120RH": 50462, "\u0120unprepared": 92551, "omething": 9639, "DES": 44448, "\u0120tecl": 46443, "skip": 7463, "benius": 54539, "\u0120performed": 7903, "\u0120Syracuse": 62384, "]}{": 83328, "\u0120turisme": 67110, "Rooms": 96420, "\u00e6\u00b8\u0127\u00e6\u012b\u00ab": 87991, "\u0120bankrupt": 28893, "\u0120musician": 36801, "chal": 51927, "\u0120\u00d0\u00bc\u00d0\u00b8\u00d1\u0124\u00d0\u00be\u00d0\u00bb\u00d0\u00be\u00d0\u00b3\u00d0\u00b8\u00d1\u0131": 93729, "pipes": 85462, "\u0120\u00d0\u013c\u00d1\u0122\u00d0\u00b8\u00d1\u0123\u00d1\u0124\u00d0\u00be": 83190, "ritz": 39108, "\u0120savage": 29522, "\u00e4\u00bd\u00b3\u00e8\u012c\u0124": 96693, "uchy": 35406, "\u0120\u00d1\u0126\u00d0\u00b5\u00d0\u00b4\u00d0\u00b5\u00d1\u0122\u00d0\u00b0": 54639, "\u0120irrespective": 56905, "\u00e4\u00bb\u00bb": 2922, "My": 3673, "\u0120discharge": 20690, "\u0120restore": 11945, "\u00d0\u00b8\u00d0\u00bc\u00d0\u00bd\u00d0\u00b0": 33475, "\u0120affirm": 30463, "\u0120\u00d0\u00bb\u00d0\u00b5\u00d0\u00ba\u00d0\u00b0\u00d1\u0122": 54980, "\u0120Squad": 52387, "\u0120counterex": 97144, "\u0120surveyed": 47336, "estiu": 17423, "\u0120Suitable": 82323, "\u00e8\u012b\u00b2\u00e7\u013c\u0126": 11467, "\u00e5\u013e\u00a8\u00e7\u00be\u0130\u00e5\u013d\u00bd": 38135, "\u0120rins": 84905, "[_": 31939, "\u0120paisatge": 58359, "\u0120Cum": 57693, "\u00e5\u00b2": 2886, "\u00e3\u0122\u0136": 56760, "\u0120Bible": 13976, "\u0120coursework": 72366, "\u0120vella": 79256, "\u0120Dex": 59534, "beg": 23725, "\u0120Gaza": 50635, "\u0120Bor": 15364, "]['": 32618, "enes": 11414, "\u0120jealousy": 41935, "ambigu": 59312, "\u0120associated": 5329, "xhr": 64735, "\u0120acupuncture": 81670, "\u00e5\u012a\u0128\u00e5\u012a\u00ab": 11732, "iders": 7260, "supplied": 87123, "attle": 5188, "\u0120aparegut": 84197, "\u0120contrived": 51082, "\u00e6\u0125\u00b3\u00e8\u00b1\u00a1\u00e7\u013c\u0126": 85392, "\u0120java": 5089, "\u00e4\u00b8\u0143\u00e5\u013d\u00bd\u00e5\u00b8\u0124\u00e5\u013e\u00ba": 72537, "\u0120Officials": 98489, "\u0120nau": 28495, "\u0120blast": 28884, "\u0120Numerous": 76324, "\u0120watery": 76934, "ter": 367, "\u0120lightly": 24404, "\u0120interfer": 46692, "\u0120claus": 52488, "refresh": 31845, "\u00e5\u0131\u0124": 3989, "\u0120Physical": 30243, "alias": 20679, "\u00e5\u00a4\u00a7\u00e5\u0132\u012e": 88464, "\u0120Argentine": 97307, "Scheme": 39675, "\u00be": 122, "\u0120discontent": 53433, "\u00e8\u00a1\u00b0\u00e9\u0122\u0122": 79846, "\u00e5\u0143\u00a6\u00e4\u00b9\u0142\u00e6\u012a\u0132\u00e7\u00bb\u00a9": 93888, "olfo": 67161, "\u0120Pirine": 45582, "ionization": 68100, "\u0120racism": 49107, "\u00d1\u0128\u00d0\u00b8\u00d0\u00bd": 73449, "\u0120breed": 28101, "\u0120\u00d0\u00b0\u00d0\u00b2\u00d1\u0124\u00d0\u00be": 21607, "match": 10107, "Rend": 20586, "functor": 80042, "uffs": 37635, "\u0120tertiary": 85101, "\u0120mechanic": 50522, "\u0120athletics": 77285, "rendering": 49270, "\u0120\u00d1\u0123\u00d1\u0124\u00d1\u0122\u00d1\u0125": 35622, "\u0120Blackburn": 95725, "\u00e6\u013e\u012b\u00e9\u0124\u00a3\u00e4\u00b9\u012a": 99940, "\u0120hand": 1297, "\u00e4\u00b8\u012f\u00e7\u00ac\u00a6\u00e5\u0132\u012a": 49662, "odia": 35810, "\u0120Ma": 6655, "\u0120quantities": 16915, "_{*": 66132, "\u0120lush": 50461, "\u0120shard": 56528, "appl": 70521, "\u0120Release": 19844, "Dy": 85396, "hawks": 88922, "\u0120Madd": 52321, "\u0120dissu": 86551, "\u0120VO": 50214, "\u0120Greg": 17157, "\u0120righteousness": 51419, "\u0120pak": 56322, "\u00e5\u0140\u0126": 56335, "LENT": 93746, "\u0120admirable": 38657, "\u00e5\u012f\u0142\u00e5\u013e\u00b0\u00e9\u013f\u00a2\u00e7\u00a7\u00af": 80193, "\u0120\u00d1\u0128\u00d0\u00b8": 22926, "%\\": 74562, "\u0120resid": 11608, "\u0120Guillaume": 57157, "answer": 28439, "\u00e8\u013b\u013c\u00e5\u00bc\u00b1": 72497, "clic": 82617, "]=": 19998, "\u0120agrad": 40735, "\u0120DAM": 45186, "ancing": 7356, "\u0120bos": 12673, "\u0120secured": 19965, "compiled": 42404, "Studies": 87111, "\u0120Locked": 94947, "\u0120shriek": 47976, "\u0120Orig": 13724, "Lif": 45468, "decomp": 83743, "\u0120Hig": 15029, "iscop": 31446, "\u00e7\u013e\u012d\u00e4\u00b9\u00a6": 66445, "\u00e5\u013e\u00a8\u00e6\u0137\u00b4\u00e4\u00b8\u00aa": 80091, "Mig": 96836, ">);": 95715, "(?": 83488, "\u00d0\u00ba\u00d1\u0122\u00d0\u00b0": 11369, "\u00e5\u0132\u012a\u00e7\u012b\u00a9": 58737, "abin": 56834, "discussed": 73654, "\u00d0\u00bf\u00d0\u00bb\u00d0\u00be": 25385, "\u00e8\u00bf\u013d\u00e6\u0136\u00bb": 29628, "\u00e5\u00bb\u00ba\u00e4\u00ba\u0130": 77606, "nexi": 54123, "\u0120glowing": 36301, "\u0120sencillo": 69107, "Search": 10274, "igue": 15406, ").": 633, "gdal": 75104, "\u0120stood": 6626, "\u0120Remember": 19555, "OTH": 43257, "ingale": 47998, "KN": 33369, "\u00e5\u00ba\u0143\u00e5\u00ae\u00a1": 81437, "\u00e8\u00be\u0126": 99757, "\u00e4\u00b8\u012f\u00e5\u00a4\u00aa": 27624, "textup": 27666, "\u0120Show": 11091, "\u0120begun": 17070, "\u0120places": 6171, "\u0120desembre": 10570, "\u0120SC": 13821, "\u00e6\u00af\u0131\u00e5\u0133\u00a8": 40989, "Outline": 70299, "\u0120Wat": 20316, "\u0120MJ": 79362, "(|\\": 57425, "\u00e6\u0143\u00bb\u00e5\u0130\u00bb": 95859, "\u0120\u00d1\u0124\u00d1\u0122\u00d0\u00b5\u00d1\u0124\u00d0\u00b8": 62973, "geqslant": 49691, "\u0120redirected": 65669, "\u00e5\u00b1\u0137\u00e7\u0130\u00b0\u00e5\u0129\u00ba": 84983, "\u00e6\u0141\u0136\u00e5\u0134\u012e": 74081, "\u00d0\u00a1\u00d0\u00b2": 39193, "\u0120eup": 60758, "\u0120pacient": 82542, "\u00e7\u013c\u0126\u00e8\u00a1\u00a8\u00e7\u0130\u00b0": 29904, "meter": 29659, "elfth": 55131, "\u00e3\u0122\u0123": 537, "\u00d0\u00b4\u00d0\u00b8\u00d1\u0131\u00d1\u0124\u00d0\u00b0": 76837, "\u0120admittedly": 86871, "\u0120concatenation": 66648, "Hands": 88860, "\u0120activ": 3875, "\u0120Jason": 24168, "ason": 1663, "\u0120Casimir": 76845, "\u0120Daemon": 90754, "\u00e8\u00bd\u00ac\u00e6\u012c\u013a": 71908, "\u0120centrifugal": 98927, "\u00d0\u00bc\u00d0\u00be\u00d1\u0124\u00d0\u00be": 48651, "\u0120desemb": 53907, "Pos": 6950, "({},": 60756, "Fan": 63942, "fishes": 69317, "\u0120sparse": 25976, "\u0120examine": 16095, "'=": 36333, "ousel": 27777, "\u0120sworn": 45901, "Seg": 9735, "\u00e6\u0138\u013b": 4196, "\u0120applying": 12397, "\u00e5\u012b\u00a7": 6795, "brahim": 51488, "inheritance": 70170, "\u0120\u00d0\u00b3\u00d0\u00b8\u00d0\u00bc\u00d0\u00bd\u00d0\u00b0": 35782, "\u0120onboard": 42473, "hips": 14065, "\u0120['": 12262, "Woman": 74909, "\u0120consens": 84972, "\u0120covering": 14486, "\u0120biasing": 89807, ";\\;\\": 23448, "\u0120steak": 43842, "\u00e6\u0143\u00a4\u00e6\u00ac\u00a1\u00e6\u00b4\u00bb\u00e5\u012c\u00a8": 97385, "evol": 22395, "\u00cf\u012f": 44994, "\u00e5\u00b9\u00b4\u00e6\u013a\u00af": 90283, "\u0120Western": 12732, "\u0120\u00d0\u00bf\u00d0\u00be\u00d0\u00bb\u00d0\u00b8\u00d1\u0124\u00d0\u00b8\u00d1\u0128\u00d0\u00b8": 58074, "\u0120Ong": 95646, "\u0120producte": 36518, "\u00d0\u0133\u00d0\u00b5": 58823, "ECD": 94733, "ana": 2306, "AGE": 9296, "\u0120concretament": 59867, "\u00e5\u0127\u013c\u00e7\u00bb\u0126\u00e7\u00bb\u0129": 58992, "\u0120update": 3979, "PROT": 97441, "\u0120\u00d0\u00bc\u00d0\u00b5\u00d1\u0127\u00d0\u00b0": 51345, "\u0120retro": 25016, "\u0120damaged": 18838, "\u0120satisfies": 13031, "\u0120clasped": 52364, "\u0120franja": 85794, "\u0120Francisc": 94089, "emerg": 42215, "Subset": 87419, "History": 21205, "\u0120IO": 13242, "\u00e9\u0122\u0124\u00e5\u00ae\u013e": 49221, "Hell": 62710, "\u00d0\u00bf\u00d0\u00be\u00d1\u0129\u00d0\u00b2\u00d0\u00b0": 63344, "sugar": 74617, "\u00e7\u0126\u00af": 78846, "obtenir": 91111, "\u00e5\u0128\u0127\u00e7\u00ba\u00bf": 93714, "\u0120\u00d0\u0137\u00d0\u00b2\u00d1\u0122\u00d0\u00be\u00d0\u00bf\u00d0\u00b5": 42918, "oten": 93154, "\u0120build": 2297, "\u0120Extra": 28627, "\u0120heuristic": 53173, "\u00e6\u013b\u00be": 60971, "\u00e4\u00ba\u00a7\u00e9\u0129\u0131": 34359, "\u0120transaction": 9386, "\\!\\!\\!\\!": 40602, "ombard": 47804, "\u0120WA": 30533, "\u00e6\u012c\u0133\u00e9\u0125\u0123\u00e7\u0139\u0129": 79488, "fics": 18888, "\u00e5\u012a\u00b0\u00e5\u012e\u00bb\u00e9\u013b\u00a2": 78408, "\u00e4\u00b9\u0141\u00e6\u013a\u00af\u00e9\u013f\u0140\u00e5\u00b8\u00b8": 44919, "\u0120Aristotle": 63305, "\u00d1\u0122\u00d0\u00b8\u00d1\u0124\u00d0\u00b0": 80207, "\u0120austral": 29348, "\u0120arreu": 48490, "esdeven": 65358, "\u00e5\u0143\u013b\u00e5\u0143\u0132": 65724, "\u0120parar": 86595, "\u00e6\u012b\u0122\u00e4\u00bb\u00a5\u00e4\u00bb\u0138": 86868, "Visit": 27283, "\u00e7\u0126\u00b0": 55706, "\u0120scat": 81612, "\u00e7\u0142\u0136\u00e7\u00a9\u00b6\u00e4\u00b8\u0143\u00e5\u00bf\u0125": 57601, "\u0120IMPLIED": 63904, "\u0120Spaces": 68054, "\u0120cortex": 77094, "\u00e5\u0127\u0127\u00e8\u00b6\u00b3\u00e7\u013c\u0126": 77339, "\u0120bloody": 34345, "\u0120Helvetica": 84331, "stud": 16760, "\u0120amiable": 54479, "\u0120gala": 68415, "\u0120withhold": 84463, ":///": 68093, "\u0120proposa": 85523, "\u00e8\u0129\u00aa\u00e6\u012a\u0133": 16997, "\u0120dusky": 84325, "\u0120extremities": 87356, "\u00e6\u0137\u00ac\u00e7\u0137\u0131": 88106, "\u0120apostle": 78359, "Tract": 88803, "\u00e5\u012f\u00ab\u00e5\u0123\u00a5": 89270, "\u00e6\u00b5\u013b\u00e6\u00b1\u0141\u00e7\u013e\u0123": 53405, "\u0120Continuous": 67768, "\u00e6\u0138\u00b0\u00e5\u012f\u0130": 34386, "\u00e7\u013c\u0126\u00e4\u00b8\u012b": 36950, "\u0120leader": 10164, "\u0120marc": 9802, "\u00d0\u00b6\u00d0\u00bd\u00d0\u00be": 21297, "oble": 21226, "\u0120\u00d0\u00bf\u00d0\u00be\u00d1\u0123\u00d0\u00be": 31553, "\u0120left": 2116, "ingham": 19394, "\u0120\u00d0\u00bd\u00d0\u00b5\u00d0\u00be\u00d0\u00b1": 43502, "DOMAIN": 55215, "\u0120foregoing": 59230, "\u0120piston": 62250, "\u00e6\u00b2\u00bf": 14899, "\u0120crises": 70778, "\u00e9\u013d\u00a8": 7714, "reaching": 57791, "\u00d0\u00bd\u00d0\u00b5": 1603, "\u0120Dol": 19895, "FN": 30353, "Shader": 33272, "\u0120examinations": 56997, "\u0120always": 1958, "\u00e9\u0141\u00a9": 11249, "\u011a": 201, "\u0120loves": 13635, "\u0120\u00d0\u00a1\u00d1\u012c\u00d0\u00b5\u00d0\u00b4\u00d0\u00b8": 48569, "\u00e5\u00a7\u00ac": 48649, "oint": 967, "\u0120normal": 4057, "\u0120plethora": 62551, "wrong": 38887, "\u0120blurred": 69073, "\u00e5\u00bd\u00b1\u00e5\u0143\u0132": 64158, "\u0120romana": 29197, "glers": 71115, "pop": 9540, "\u00e5\u00bd\u00bb": 13416, "symbol": 17957, "\u00e6\u00b3\u0137\u00e5\u00be\u012d\u00e8\u00a7\u0126\u00e5\u00ae\u013c": 77210, "\u0120rectangulars": 80565, "\u0120\u00d0\u00b4\u00d1\u0125\u00d0\u00bc\u00d0\u00b8": 70960, "\u0120Hessian": 73422, "\u0120Mondays": 82936, "\u0120drafting": 64202, "\u00e6\u0122\u0122\u00e5\u00bf\u00b5": 68755, "\u0120circulaci": 82845, "colhead": 44744, "\u0120delivered": 11803, "getActive": 80472, "Attribute": 8027, "\u00d0\u00bd\u00d1\u0123\u00d0\u00ba\u00d0\u00b8": 11643, "\u00e6\u0142\u00b9\u00e6\u00ba\u0132": 69448, "\u0120breakout": 64325, "si": 4873, "\u00e8\u0140\u012f\u00e5\u0132\u012a": 20098, "educaci": 33606, "\u0120\u00d0\u00ba\u00d0\u00b0\u00d0\u00bd\u00d0\u00be": 96258, "\u00e5\u0135\u00aa\u00e5\u00ae\u00b6": 93368, "uera": 96611, "\u00d0\u013e\u00d1\u0125\u00d0\u00b7\u00d0\u00b8\u00d0\u00ba\u00d0\u00b0\u00d0\u00bb\u00d0\u00bd\u00d0\u00b8": 85719, "\u0120playing": 6069, "apers": 6925, "\u0120nud": 64446, "\u0120filial": 68447, "\u00e2\u0139\u0130": 91309, "omegranate": 93234, "\u00e5\u00ae\u012e\u00e6\u012a\u0132\u00e5\u0132\u0130": 75848, "\u0120crossorigin": 57778, "\u0120How": 1724, "Mhz": 97590, "\u00ce\u00bf\u00cf\u012f": 97815, "\u0120Greater": 36716, "\u0120mason": 52678, "\u0120\u00d0\u0134\u00d0\u00b8\u00d0\u00b5\u00d1\u0124\u00d0\u00bd\u00d0\u00b0\u00d0\u00bc": 84661, "asons": 5776, "\u0120modest": 22473, "\u00e5\u00a2\u0140\u00e6\u012e\u0123": 90922, "\u0120comandament": 34201, "ATIONS": 36810, "\u0120specialists": 27063, "\u00e9\u0135\u00ba": 16052, "Prev": 29772, "\">&#": 45858, "\u0120EVER": 79661, "\u0120overseeing": 83744, "olic": 8903, "\u0120injection": 26880, "included": 58020, "~}{~": 13041, "GIN": 16112, "\u0120req": 19092, "lead": 30789, "witness": 49516, "\u0120Addison": 62542, "\u0120paisatges": 87563, "\u0120EVEN": 82381, "PRODUCT": 67680, "\u00e5\u00b0\u00bd\u00e8\u0129\u00b4": 89656, "harpoon": 91846, "\u0120ect": 80965, "\u0120Spear": 92299, "\u0120Regard": 96151, "\u0120Fourth": 37826, "\u00e5\u00bb\u00b6\u00e5\u00ae\u012b": 98936, "\u0120\").": 71940, "Higgs": 84857, "\u0120illustrious": 53632, "ixon": 34969, "]]": 13818, "**:": 59668, "\u0120Due": 20729, "denoted": 77940, "\u0120podemos": 55613, "->,": 50587, "\u00d1\u0122\u00d0\u00b8\u00d0\u00b4": 41543, "Happ": 85149, "\u0120Model": 10683, "arrib": 26859, "\u0120Newcastle": 45079, "\u0120interpretant": 95154, "patches": 48224, "\u0120Imper": 24088, "\u00e6\u013e\u012b\u00e5\u00be\u012a\u00e5\u00a4\u013c": 19409, "\u00e8\u00b5\u00b7\u00e6\u013f\u00a5": 5991, "\u0120vehicles": 11858, "\u0120Systems": 16738, "illion": 26644, "promise": 37612, "\u0120Sword": 57302, "\u00e4\u00bc\u013c\u00e5\u013e\u00ba": 69179, "dule": 8192, "\u0120Ellie": 90237, "exerc": 49795, "\u0120Legion": 53456, "ochastic": 20618, "\u0120describing": 16934, "\u00e7\u00aa\u0123": 6109, "erg": 1771, "\u0120payment": 9525, "\u0120Ho": 15740, "\u00e4\u00b8\u0122\u00e8\u00be\u00b9": 21066, "\u0120\u00d0\u00b2\u00d0\u00be\u00d0\u00b5\u00d0\u00bd\u00d0\u00bd\u00d0\u00b8": 37582, "domestic": 83533, "\u00e5\u0136\u00ae\u00e5\u0132\u0130\u00e6\u013e\u012f\u00e5\u012c\u00a1": 88285, "\u00d0\u00b1\u00d1\u0125\u00d1\u0122\u00d0\u00b3": 11999, "\u0120Ang": 5542, "\u0120ghosts": 46049, "ificates": 24046, "\u0120staple": 48122, "toe": 72246, "\u0120Investors": 73102, "\u0120inception": 57801, "itories": 74280, "\u0120untrue": 83388, "\u00e5\u00b9\u0137": 11252, "\u00e6\u0132\u00ba\u00e6\u012b\u012d": 42198, "\u00e5\u00a4\u00a7\u00e5\u00b9\u0127": 21735, "\u0120brushes": 50744, "\u0120leveraging": 56226, "\u00e4\u00b9\u012d\u00e4\u00bd\u013b": 65207, "\u0120Dels": 27017, "\u0120bombing": 71958, "\u0120apareixen": 38286, "beq": 47466, "\u0120podien": 36700, "\u0120Jesuit": 72522, "\u0120toasted": 74338, "\u00e8\u00a2\u0143": 21946, "\u00e4\u00bf\u00a1\u00e5\u00bf\u00b5": 46251, "\u0120requested": 13136, "\u0120aficion": 63950, "\u00e6\u0140\u013e": 1830, "\u0120q": 4662, "jak": 69231, "|^{-": 70048, "\u0120murders": 65536, "\u0120amateurs": 92930, "\u00e9\u013f\u0140\u00e7\u012b\u00a9\u00e8\u00b4\u00a8": 98709, "\u0120Audi": 36549, "\u0120\u00d8\u00a8": 49838, "\u0120rest": 1610, "\u0120recognise": 33540, "jer": 47658, "\u00e7\u012e\u013e\u00e6\u00b5\u012d": 55560, "\u0120icon": 7928, "\u0120AMP": 62148, "\u00e7\u00a4\u00be\u00e4\u00bc\u013c\u00e4\u00bf\u013f\u00e9\u013b\u00a9": 64877, "\u0120sofas": 68048, "\u0120festivals": 32775, "\u0120furnishings": 52129, "efect": 35793, "\u0120MLS": 55838, "\u0120Gesch": 36018, "\u0120Library": 12898, "\u00e5\u0128\u013e\u00e5\u013e\u00ba": 65705, "TableModel": 71986, "\u0120acabada": 74539, "\u0120\u00d1\u0123\u00d0\u00bb\u00d0\u00b5\u00d0\u00b4": 6400, "\u0120everyday": 16099, "TMP": 87204, "\u0120Anthony": 23079, "\u0120where": 1066, "cellcolor": 37268, "\u00e7\u00ae\u00a1\u00e5\u00ae\u00b6": 87761, "\u00e5\u0128\u013d\u00e5\u00b7\u00a5": 88095, "ensis": 18365, "\u00e8\u013f\u00b4\u00e8\u013f\u00b6": 59598, "ustering": 68524, "Pam": 89261, "\u0120bh": 77712, "Vintage": 92880, "\u0120tastes": 28096, "\u00e9\u0140\u012d\u00e5\u0143\u0132": 53427, "\u0120communal": 65054, "\u00e5\u0128\u00b7\u00e8\u0139\u0131": 83563, "\u0120----------------------------------------------------------------": 28403, "\u0109:": 36965, "\u00e6\u013d": 1352, "\u0120educate": 34690, "\u0120inver": 58160, "\u00e9\u013f\u0140\u00e5\u00b8\u00b8\u00e5\u00a5\u00bd\u00e7\u013c\u0126": 77077, "Detalle": 73626, "CharacterOffsetBegin": 89954, "\u00e4\u00ba\u012d\u00e5\u0126\u00bf": 66075, "\u0120Dhabi": 74153, "Design": 23532, "\u0120Atkinson": 97176, "\u00e8\u00bf\u0133\u00e4\u00b9\u0130": 95780, "\u0120grande": 64374, "\u0120durant": 5407, "tero": 42111, "\u0120plump": 70555, "bours": 72481, "\u0120\u00d0\u00bf\u00d1\u0122\u00d0\u00be\u00d1\u0128\u00d0\u00b5\u00d1\u0123\u00d0\u00b0": 88455, "\u00e5\u00bd\u0135\u00e5\u00bd\u0135": 92787, "yeah": 83179, "\u0120coincidence": 42546, "\u0120Though": 15062, "gallery": 45180, "rine": 49856, "\u0120Extreme": 54576, "CZ": 97731, "\u0120pintor": 27750, "HEAD": 26963, "\u0120referring": 17300, "\u00e7\u00a7\u00b0\u00e5\u0131\u00b7": 39441, "\u0120mentally": 36512, "\u00d0\u00b4\u00d0\u00b5\u00d0\u00bd\u00d1\u0124\u00d0\u00b8": 44644, "\u0120Normally": 44818, "\u00e7\u013b\u00bb\u00e5\u00bd\u0137": 48286, "\u0120sencilla": 83003, "Advertisements": 87780, "ought": 1574, "Hind": 93928, "\u00e7\u0140\u00ac": 22456, "\u0120\u00d0\u00bf\u00d1\u0122\u00d0\u00b8\u00d0\u00b5\u00d0\u00bc\u00d0\u00b0": 32589, "\u00e6\u012b\u00b6\u00e6\u012e\u0123": 44040, "mbf": 47973, "\u0120obstin": 76819, "\u00e4\u00b8\u00aa\u00e5\u00b0\u0131": 69983, "SETTINGS": 83260, "\u0120betray": 24676, "})}{": 43113, "\u0120ransom": 56108, "ovan": 34586, "\u00e6\u00b3\u0137\u00e5\u00ae\u013a": 45900, "\u0120yell": 56992, "\u00d1\u0129\u00d0\u00b0\u00d1\u0123\u00d1\u0124\u00d0\u00b8": 13820, "\u0120Militar": 57399, "imbab": 52187, "\u0120conjuntament": 60200, "\u0120boarding": 40714, "\u00e8\u00bf\u0133\u00e5\u00b9\u00b3": 26635, "\u00e6\u0139\u00a5\u00e8\u00ae\u00b0": 63838, "Laura": 65201, "]{": 2680, "Construct": 20164, "\u0120countertops": 68986, "\u00e5\u0131\u00af\u00e4\u00bb\u00a5\u00e4\u00bd\u00bf": 80869, "\u0120telescopes": 70077, "\u0120UNC": 86410, "\u0120\u00d0\u00a2\u00d0\u00be\u00d1\u0122\u00d0\u00b8\u00d0\u00bd\u00d0\u00be": 89849, "\u0120\u00d0\u00bf\u00d0\u00b5\u00d1\u0127\u00d0\u00be": 40909, "drip": 92127, "\u0120Boo": 92885, "opies": 93686, "\u0120capsule": 52658, "\u0120Redirect": 76049, "})();": 93936, "\u00e5\u00bf\u0125\u00e4\u00b8\u0143": 24040, "\u00e5\u012f\u00a4": 62606, "tooltip": 33379, "\u0120debat": 58678, "\u0120deliverance": 77205, "activity": 20518, "itr": 67058, "\u0120Rows": 72490, "\u0120stalks": 81277, "\u0120accomplishing": 74058, "ari": 817, "),\\": 12818, "\u0120CGFloat": 71207, "\u0120ingresar": 56475, "brews": 68462, "abas": 66861, "riumph": 53435, "\u00d8\u00a7\u00d8\u00b1": 68038, "\u0120ikea": 86171, "aspx": 49469, "\u0120concealing": 94865, "\u0120aversion": 69302, "i": 72, "\u00e5\u0123\u013c\u00e4\u00b8\u00aa": 59204, "\u0120axle": 78806, "\u0120abilities": 20552, "\u0120Bid": 57069, "\u0120Anxiety": 97205, "resp": 15912, "\u00e4\u00b8\u0122\u00e4\u00b8\u00aa\u00e5\u00b0\u0131": 42279, "\u0120\u0120\u0120\u0120\u0120\u0120\u0120\u0120\u0120\u0120\u0120\u0120\u0120\u0120\u0120\u0120\u0120\u0120\u0120\u0120\u0120\u0120\u0120\u0120\u0120\u0120\u0120\u0120\u0120\u0120\u0120\u0120\u0120\u0120\u0120\u0120\u0120\u0120\u0120\u0120\u0120\u0120\u0120\u0120\u0120\u0120\u0120\u0120\u0120\u0120\u0120\u0120\u0120\u0120\u0120\u0120\u0120\u0120\u0120\u0120\u0120\u0120\u0120\u0120\u0120\u0120\u0120\u0120\u0120\u0120\u0120\u0120\u0120\u0120\u0120\u0120\u0120\u0120\u0120\u0120\u0120\u0120\u0120\u0120\u0120\u0120\u0120\u0120\u0120\u0120\u0120\u0120\u0120\u0120\u0120\u0120\u0120\u0120\u0120\u0120\u0120\u0120\u0120\u0120\u0120\u0120\u0120\u0120\u0120\u0120\u0120\u0120\u0120\u0120\u0120\u0120\u0120\u0120\u0120\u0120\u0120\u0120\u0120\u0120\u0120\u0120\u0120\u0120": 33868, "\u0120Lancaster": 51485, "\u00e6\u013f\u0122\u00e8\u0131\u012e": 78684, "Alumnes": 15504, "\u0120prospects": 26658, "\u0120Casey": 52391, "\u0109output": 84782, "DY": 64519, "\u0120butt": 38673, "\u00e7\u0133\u0137\u00e7\u0138\u00b5": 84709, "ddots": 62705, "\u00e9\u00b9\u012c": 89529, "\u00c3\u00b1": 5375, "speaking": 37478, "igeons": 66345, "\u00e5\u00ba\u0139\u00e9\u013f\u00a2": 90186, "\u0120square": 7742, "\u0120commands": 9412, "itude": 4011, "\u0120Kerr": 49449, "\u0120lear": 22966, "\u0120irres": 32539, "\u0120now": 1132, "\u0120\u00d0\u013e\u00d0\u00b5\u00d0\u00ba\u00d1\u0123\u00d0\u00b8": 50039, "Bulk": 60326, "tablet": 73343, "Bien": 88815, "\u0120Plymouth": 47558, "ndra": 93828, "Tommy": 96284, "\u0120Championships": 47730, "SEC": 36159, "\u00e6\u00b4\u012d": 11616, "\u00e5\u012a\u00a9\u00e7\u013d\u012c": 16547, "\u0120Bobby": 36365, "Go": 7350, "orphism": 36508, "requests": 43660, "ueres": 59430, "\u0120NUMBER": 62414, "\u00e4\u00b8\u00bb\u00e5\u012c\u013d": 30793, "gil": 68296, "FromRange": 77344, "ewski": 93633, "\u00e5\u0136\u0132\u00e5\u00b1\u00b1": 98922, "\u0120salad": 24678, "\u00e9\u013f\u0140\u00e5\u00b8\u00b8\u00e9\u0122\u0124\u00e5\u0132\u012a": 88842, "\u0120negra": 48203, "\u0120dkms": 73848, "\u0120Nek": 87037, "\u0120sandwiches": 48140, "Joint": 62454, "\u0120uncountable": 70585, "\u0120Sundance": 99354, "veu": 87069, "\u0120requiere": 99502, "endi": 32382, "cling": 51737, "anne": 23761, "\u0120inqu": 9946, "\u00e4\u00bb\u00aa\u00e8\u00a1\u00a8\u00e7\u013d\u013a": 88644, "ordon": 20087, "propertyName": 85416, "\u0120Gloucester": 53807, "\u0120Poll": 32389, "\u0120vandal": 83771, "\u0120pet": 4558, "\u00e4\u00bb\u012f\u00e6\u0139\u00a7": 74833, "\u00e5\u012f\u0130\u00e5\u00b0\u0136": 88498, "rede": 78994, "\u0120Tell": 21677, "\u0120Neck": 42749, "\u0120inferences": 84973, "\u0120Cache": 31064, "sass": 38857, "\u00c2\u0142partits": 52927, "iley": 18249, "\u00e6\u00b2\u00bb\u00e6\u0126\u012a": 39189, "\u0120contempt": 25164, "WF": 60501, "\u00e6\u00af\u013d\u00e5\u00b7\u00be": 61131, "\u0120\u00d0\u0133\u00d1\u0122\u00d1\u0125": 55903, "Amazing": 64857, "\u0120hands": 4054, "fila": 32614, "\u0120slip": 15638, "\u0120Switching": 74456, "\u00e8\u00a2\u0143\u00e5\u0129\u00bb": 64800, "\u00e9\u00b8": 5242, "\u0120distressed": 48810, "\u0120listens": 67232, "\u00e7\u0130\u00bb\u00e7\u0134\u0125": 21990, "\u00e5\u0130\u00bf\u00e7\u013c\u0126": 92154, "lying": 6061, "oconf": 94679, "\u0120Celebr": 33181, "\u0120\u00d0\u00b3\u00d0\u00b5\u00d1\u0122\u00d0\u00bc\u00d0\u00b0\u00d0\u00bd": 31885, "\u0120cialis": 37591, "\u00e6\u0129\u00b5": 77789, "\u0120wire": 6375, "ProgressBar": 95637, "\u0120fractured": 99278, "\u00e5\u0131\u00af\u00e4\u00bb\u00a5": 1876, "\u0120vibrant": 29033, "\u00d1\u0123\u00d0\u00be": 4440, "\u0120saints": 38760, "\u0120\u00d0\u00b0\u00d0\u00bd\u00d1\u0124\u00d0\u00b8": 39293, "\u00e4\u00bd\u0135\u00e7\u0130\u00b0\u00e5\u013e\u00a8": 58575, "\u0120draining": 68854, "\u0120Dress": 31728, "\u00e5\u00a5\u00b3\u00e5\u0143\u00a9\u00e5\u0143\u0132": 53724, "\u0120buyer": 24931, "analytic": 58135, "isco": 23069, "GR": 10080, "\u0120Dod": 45312, "escena": 50610, "\u0120Tau": 73707, "squ": 22177, "identical": 85067, "\u0120Influ": 50220, "utat": 17996, "\u0120joves": 30183, "\u0120swings": 56641, "shelf": 69293, "\u00e6\u0139\u00a5\u00e5\u013f\u0129": 81808, "\u00e8\u0129\u00aa\u00e8\u00a7\u012b": 34193, "\u00d0\u00ba\u00d0\u00b5\u00d0\u00b0\u00d0\u00bd": 44289, "\u0120CHILD": 78124, "\u00e5\u0127\u012a\u00e7\u0136\u0141\u00e7\u013c\u0126": 59535, "\u0120prenent": 83042, "pointed": 51747, "\u00e7\u0124\u0134": 13086, "\u0120Be": 2746, "\u0120True": 10491, "\u0120helper": 30206, "\u00e8\u00ae\u00a4\u00e5\u00ae\u013c\u00e4\u00b8\u00ba": 63296, "\u0120Bills": 70381, "\u0120Chemical": 44735, "\u0120installment": 57465, "\u00e7\u0129\u00a5": 23681, "expire": 91609, "\u0120handwriting": 62460, "\u0120Osw": 56593, "\u00e6\u012b\u012d\u00e5\u012c\u00a8": 48576, "\u00e4\u00bb\u00b7\u00e5\u0122\u00bc\u00e8\u00a7\u0124": 42667, "\u0120dep": 5502, "\u0120gallant": 36792, "\u0120Twice": 82597, "\u00e6\u012b\u012d\u00e8\u00a1\u00a8": 91669, "CONTAIN": 92212, "\u0120pattern": 7937, "\u0120harmony": 23909, "ceres": 82139, "\u00d0\u00bd\u00d0\u00be\u00d1\u0123\u00d1\u0124\u00d0\u00b8\u00d1\u0124\u00d0\u00b5": 58930, "Scal": 22288, "\u0120selling": 12122, "\u00e8\u0126\u013c\u00e8\u00b8\u0131": 86208, "bour": 8134, "ructions": 8064, "FilterChain": 76526, "\u0120tangle": 75433, "\u0120Oswald": 79148, "\u0120muse": 12501, "\u00e5\u00b9\u00b6\u00e6\u013e\u012b": 97341, "\u0120Construction": 25656, "chism": 94111, "\u0120basa": 45636, "\u0120extreme": 12459, "\u0120\u00d0\u00ba\u00d0\u00be\u00d1\u0122\u00d0\u00bf\u00d1\u0125": 99638, "roid": 2565, "aja": 19365, "\u00e8\u012e\u00b8": 99089, "component": 12315, "accompl": 55135, "Bis": 61474, "\u0120'''": 31116, "asg": 31590, "\u00e5\u00bd\u00b1\u00e5\u0135\u012f\u00e5\u012c\u013d": 40024, "\u0120daunting": 54225, "\u00e7\u012a\u00b6\u00e6\u00af\u012f": 9833, "[<": 44277, "\u00e5\u013e\u00a3\u00e8\u00af\u0140": 58466, "\u00e7\u013c\u0126\u00e7\u0141\u00a5\u00e8\u00af\u0128": 66284, "\u00d1\u0124\u00d0\u00b8\u00d0\u00b2\u00d0\u00b0": 73197, "\u0120Cate": 76680, "\u0120Hipp": 80229, "Val": 2184, "tico": 37295, "\u0120Fun": 15381, "urgical": 55760, "\u0120liberty": 18574, "fins": 64002, "\u00e8\u00b5\u00a3": 64791, "\u0120contrasting": 57259, "ono": 49362, "\u00e5\u00b8\u0125\u00e6\u013e\u0139": 86973, "\u00e5\u00b8\u0125\u00e6\u0138\u00af": 87313, "userm": 81491, "Positive": 49342, "\u0120intolerance": 89876, "olym": 78677, "\u0120crude": 36386, "\u00c2\u00b0": 8641, "mist": 24019, "\u00e7\u0132\u0128\u00e6\u0122\u00a7": 40361, "\u0120Bottom": 41518, "\u00e4\u00b8\u012f\u00e5\u00ba\u0136": 49997, "%(": 58995, "\u0120BJT": 48826, "\u00e8\u0131\u00b2\u00e7\u012b\u00b9": 64033, "\u0120PCH": 66122, "\u0120idioms": 83435, "\u0120\u00d0\u00ba\u00d0\u00b0\u00d1\u0126": 91463, "\u00e4\u00bb\u0130\u00e6\u0142\u00b9\u00e6\u013e\u00ac\u00e4\u00b8\u012c": 99310, "\u0120hair": 5539, "klad": 67840, "\u0120optionally": 58133, "\u00e5\u012d\u00bf": 38147, "conj": 30785, "\u0120instantaneously": 93720, "\u0120.$$": 96818, "\u0120Steak": 89022, "\u0120toner": 86266, "\u0120Sob": 33959, "\u00e8\u00b5\u0140": 13551, "\u0120Floating": 80097, "\u0120regimes": 42963, "\u00e6\u0137\u013b\u00e8\u0124\u00b2": 4996, "ilog": 51644, "Speed": 28536, "\u0120usuarios": 36940, "ADDRESS": 39961, "agna": 61016, "\u00e5\u00bd\u0137\u00e5\u0131\u0138": 29670, "\u00d0\u00b7\u00d0\u00b0": 3108, "\u0120aggregated": 58075, "\u0120Winners": 83671, "\u0120CMD": 46409, "iguing": 36642, "\u0120triples": 69422, "\u0120Plut": 65409, "Script": 9056, "Instead": 26312, "\u0120Cray": 92656, "armstadt": 93692, "\u0120Bag": 20578, "\u0120tremble": 60202, "\u0120true": 1927, "\u0120Revenue": 48021, "qr": 55522, "grade": 6139, "\u00d0\u00b5\u00d1\u0122\u00d1\u0125": 78708, "\u0120manus": 19374, "\u00d1\u012b\u00d0\u00b5\u00d1\u0122\u00d0\u00b8": 73699, "\u0120widely": 13587, "\u0120landed": 23831, "\u00e9\u00a1\u00be\u00e8\u013b\u0133": 99786, "\u0120absolutely": 9271, "\u0120}}\">": 98499, "\u0120rinse": 60418, "Getty": 88899, "Reuters": 85302, "\u00e7\u00ba\u00a6\u00e5\u00ae\u013c": 27712, "\u00e9\u00a2\u0126\u00e6\u00a1\u012a": 76459, "\u0120dissol": 21265, "\u00e8\u00be\u00b9": 4244, "\u0120Tac": 48832, "\u0120flu": 13189, "\u0120conectar": 72206, "ictionaries": 31071, "\u0120schedule": 10537, "\u00e2\u0138\u0142": 40531, "there": 7010, "Ap": 3209, "\u0120estudi": 21497, "\u00e4\u00b8\u0143\u00e6\u013e\u0122": 40560, "\u00e5\u0128\u013e\u00e6\u00b0\u0133": 18687, "\u0120corruption": 24557, "\u00e8\u0125\u0128\u00e5\u013d\u00ba\u00e9\u0128\u0129": 53704, "\u0120advisors": 54330, "\u0120PCR": 72219, "\u00e8\u00a1\u0139\u00e9\u0123\u0135": 21942, "[][]": 68696, "\u0120ag": 805, "ecoslov": 71767, "backer": 74925, "Headers": 21739, "\u0120floors": 22693, "\u0120Swe": 38094, "\u00d1\u0124\u00d0\u00b8\u00d1\u0123\u00d1\u0124\u00d0\u00b8": 28025, "card": 9287, "\u0120blouse": 76028, "ANNEL": 57563, "cium": 76495, "instruct": 82482, "\u0120POR": 65213, "\u0120Myth": 52712, "\u0120Clint": 83084, "\u0120sent": 2143, "\u0120ess": 3803, "\u00e5\u00bc\u0124\u00e8\u00ae\u00ae": 59459, "\u0120Hodge": 65825, "DBG": 91519, "\u0120Neumann": 49006, "ical": 739, "\u00e9\u0129\u0133\u00e5\u00b1\u00b1": 59313, "\u00e7\u0139\u0127\u00e7\u013c\u0126": 36482, "\u00d0\u00b2": 424, "\u0120subst": 4896, "\u0120adjunt": 85117, "\u00d1\u012c\u00d0\u00b4": 72617, "indo": 89880, "\u00e7\u013c\u0126\u00e8\u00a1\u012e\u00e4\u00b8\u013c": 86700, "captured": 92271, "\u00e7\u0142\u00b4\u00e5\u013f\u0131": 25304, "VOKE": 60821, "\u0120gaudir": 76096, "?--": 24830, "\u0120\u00d1\u0125\u00d1\u0123\u00d0\u00bf\u00d1\u0131\u00d0\u00b2\u00d0\u00b0\u00d1\u0124": 73445, "\u0120Sick": 83099, "\u0109Expect": 95561, "\u00d0\u00a4\u00d1\u0125\u00d1\u0124\u00d0\u00b1\u00d0\u00be": 34929, "\u0120Lindsay": 54790, "\u0120Starts": 91803, "\u00e5\u0127\u013c\u00e4\u00b8\u0143\u00e5\u00a4\u00ae": 53759, "\u0120bacon": 34574, "\u0120routinely": 50257, "istema": 37854, "\u0120standings": 88713, "\u0120THEM": 97684, "\u0120\u00d0\u00bf\u00d1\u0122\u00d0\u00b5\u00d0\u00b4\u00d0\u00b2\u00d0\u00b8": 78652, "\u00e6\u0141\u00b4": 29081, "Freq": 79159, "hemat": 12080, ")).": 14374, "Quadre": 73019, "KHz": 73355, "\u0120undisturbed": 76454, "Broken": 54782, "\u0120prose": 39375, "\u0120\u00d0\u0133\u00d0\u00b8\u00d0\u00be\u00d0\u00b3\u00d1\u0122\u00d0\u00b0\u00d1\u0126\u00d0\u00b8\u00d1\u0131": 48023, "\u0120risks": 16418, "\u0120demean": 58013, "\\%": 5938, "\u00e6\u00b5\u00aa\u00e8\u00b4\u00b9": 32939, "\u0120permutation": 36258, "clay": 56702, "located": 58297, "\u0120capes": 62429, "\u0120allocation": 25340, "\u0120\u00d1\u0125\u00d1\u0123\u00d0\u00bf\u00d0\u00b5\u00d1\u012a\u00d0\u00bd\u00d0\u00be": 73938, "\u00e8\u00bf\u0136\u00e6\u0142\u00a1": 75525, "oulli": 65873, "\u0120denounced": 78919, "\u0120fixar": 91739, "\u00d0\u00bd\u00d0\u00b8\u00d0\u00bd\u00d0\u00b0": 95287, "\u00e7\u0136\u00a8\u00e6\u00b3\u0137": 76833, "Cursor": 23472, "-------": 39099, "Andr": 71411, "\u0120weariness": 77774, "\u0120less": 2246, "\u00e8\u0129\u00aa\u00e5\u00be\u012d": 64655, "\u0120Jane": 16098, "lectual": 13843, "ok": 544, "Win": 24835, "\u0120privately": 40827, "\u0120shields": 52508, "\u0120Pt": 69408, "\u0120Constantinople": 66459, "\u00e7\u00a5\u0140\u00e7\u00a7\u013a": 35582, "\u0120invertible": 50165, "\u00e4\u00bd\u0135\u00e7\u0130\u00b0\u00e4\u00ba\u0128": 52577, "\u0120SMS": 33711, "\u00e6\u0127\u0130": 22401, "\u0120intra": 36971, "\u0120VE": 59228, "\u0120clocked": 97912, "astrous": 47813, "\u0120GLsizei": 64278, "\u0120carn": 23478, "\u0120biscuits": 61303, "\u0120\u00d0\u00b1\u00d1\u0125\u00d0\u00bd": 62045, "coi": 84785, "\u0120\u00d1\u0123\u00d1\u012c\u00d0\u00b4\u00d0\u00b5": 77257, "\u0120acc": 909, "\u00e9\u00a2\u0128\u00e5\u0141\u0141": 10242, "andy": 15882, "\u0120dissolution": 70123, "\u0120discovering": 35008, "\u00e8\u0129\u00aa\u00e5\u012f\u0133": 75824, "\u0120\u00d0\u00bf\u00d0\u00be\u00d1\u0123\u00d0\u00bb\u00d0\u00b0": 77765, "\u00e7\u013c\u0126\u00e6\u013e\u0122\u00e4\u00bd\u00b3": 60456, "endant": 25897, "\u0120Glacier": 80506, "binom": 25111, "\u0120\u00d0\u00bd\u00d0\u00be\u00d0\u00b2\u00d0\u00b8\u00d1\u0131": 66980, "\u0120Call": 8906, "\u0120Nvidia": 29178, "\u00e5\u012f\u0137\u00e7\u00ba\u00af": 35677, "\u00e5\u00bd\u0135\u00e5\u013e\u00ba": 58941, "itzaci": 7872, "\u00e5\u0141\u0136": 64910, "\u0120phenomenal": 59473, "\u0120paran": 60687, "LR": 27837, "Pg": 71189, "Bride": 93285, "\u0120indicating": 18359, "\u0120camels": 79199, "\u0120demonstrations": 45685, "\u0120\u00d0\u00a1\u00d1\u0124\u00d0\u00b5": 27440, "\u0120filepath": 84045, "Encoded": 26357, "\u0120commas": 45507, "stuff": 43701, "Nomin": 72710, "bigail": 87299, "\u0120Steph": 96921, "\u0120mides": 96350, "\u00e6\u0143\u00a3\u00e9\u013f\u00a2": 41833, "\u0120Champion": 41969, "\u00d0\u00bb\u00d0\u00b5\u00d0\u00b4\u00d0\u00b0": 76895, "\u0120Advisors": 82666, "\u0120prophets": 52456, "\u0120Hab": 28504, "\u00e7\u0136\u0141\u00e6\u0122\u0123": 12161, "\u00e4\u00b8\u0138\u00e7\u00ba\u00aa": 17557, "^{{\\": 41788, "\u0120({": 37721, "\u00e4\u00b8\u013e\u00e9\u0125\u00a8": 44502, "\u0120Arden": 72442, "inventory": 78117, "anon": 70380, "\u00c2\u0142:": 73418, "\u0120sizable": 81347, "\u0120influencers": 85036, "exception": 15676, "\u0120GS": 47633, "]\\,": 96505, "\u00e5\u00af\u012e\u00e7\u00bf\u0123": 99064, "\u0120cultius": 99183, "cole": 51949, "protected": 17871, "\u0120countenance": 28641, "from": 3163, "\u0120Mos": 21989, "\u00e5\u0143\u013a\u00e5\u013e\u00a8": 7777, "\u00e5\u00b0\u00b1\u00e8\u0125\u00bd\u00e5\u00a4\u0141": 64598, "systemd": 29449, "\u00d1\u0123\u00d0\u00b8\u00d1\u0129\u00d0\u00b0": 80498, "\u0120\u00d0\u00bd\u00d0\u00b0\u00d1\u0123\u00d0\u00bb\u00d0\u00b5\u00d0\u00b4\u00d1\u0131\u00d0\u00b2\u00d0\u00b0": 99304, "\u0120\u00d0\u0140\u00d1\u0127\u00d1\u0122\u00d0\u00b8\u00d0\u00b4\u00d1\u0123\u00d0\u00ba\u00d0\u00b8": 84718, "\u0120snack": 35574, "patcher": 26167, "\u0120Fuller": 59822, "\u0120segur": 33425, "\u0120headaches": 50943, "\u0120vehement": 66702, "\u00e5\u0129\u00ba\u00e5\u00b1\u0122": 84519, "Fn": 24889, "\u00e7\u00bc\u00ba\u00e7\u0124\u00b9": 36210, "stics": 23640, "\u0120QB": 63606, "\u00e7\u013d\u00b8\u00e5\u0127\u00b3\u00e8\u00a7\u0126\u00e5\u00ae\u013c": 84827, "JavaScript": 37899, "presumably": 97810, "\u00e7\u013d\u00b8\u00e5\u0132\u012e\u00e7\u013c\u0126": 56441, "Blu": 42490, "\u0120lining": 35589, "Poll": 60043, "bish": 34119, "\u0120todo": 17672, "\u0120Muse": 8326, "\u00e6\u00b5\u00b7\u00e6\u00b4\u012d": 32904, "\u0120CHRIST": 67035, "ouin": 67648, "\u00e5\u012e\u0122": 20193, "\u0120instrumental": 32126, "\u0120overseas": 30159, "\u0120diesel": 40859, "Inter": 5328, "\u0120ul": 18416, "EG": 54418, "*}{": 78783, "Carm": 79740, "\u0120llegat": 84535, "\u0120SSS": 93614, "\u00e9\u0124\u00a3\u00e4\u00bd\u012f": 72356, "!\".": 97847, "chid": 72236, "\u00e8\u0135\u013f": 10718, "[--": 81775, "\u0120lvm": 99456, "\u0120promotional": 35699, "\u0120Salon": 58755, "\u00e4\u00ba\u0128\u00e3\u0122\u012c": 30709, "\u0120Flandes": 60060, "\u00e5\u00b4": 10687, "\u0120Barth": 65017, "headed": 28987, "\u0120Gael": 76256, "____": 4062, "Since": 7094, "\u0120suggestions": 12839, "\u0120ratio": 8590, "landa": 33037, "utad": 62067, "\u0120fibration": 77921, "\u0120\u00d0\u00be\u00d0\u00bf\u00d1\u0124\u00d0\u00b8": 87743, "\u0120Passage": 92711, "Drawing": 29150, "\u0120\u00d0\u00bd\u00d0\u00b0\u00d1\u0123\u00d0\u00b8": 93289, "BOUND": 88197, "instanc": 95723, "\u0120propri": 17159, "\u0120\u00d0\u00ba\u00d0\u00bb\u00d0\u00b0\u00d1\u0123": 53481, "\u0120muddy": 55348, "Hover": 71403, "\u0120discerning": 82102, "Density": 77649, "\u00e8\u00b6\u0127\u00e9\u00ab\u013a": 87283, "\u0120quoth": 75370, "\u00d0\u00b9\u00d0\u00bd\u00d0\u00b8": 22388, "Inform": 44860, "Mapped": 90608, ".):": 65266, "\u00e2\u0122\u00a6\u00e2\u0122\u00a6": 23160, "\u00e8\u0129\u00a3": 25646, "\u0120unilateral": 98226, "ighter": 11266, "\u00e5\u012c\u00b1": 11740, "\u0120haloes": 94662, "\u00e5\u0132\u012f\u00e4\u00b8\u00ba": 31948, "Obama": 68317, "\u0120Rifle": 82940, "\u00e5\u013d\u00bd\u00e5\u013e\u0141": 60109, "\u0120REPLACE": 56072, "Manufacturer": 84404, "\u0120knight": 27605, "\u0120bliss": 39321, "\u0120funeral": 24408, "}=(": 35832, "\u00e8\u00a7\u0123\u00e7\u013c\u0126": 47456, "\u0120madame": 59223, "triple": 71261, "\u0120\u00d0\u00b8\u00d0\u00b7\u00d0\u00bf\u00d1\u012c\u00d0\u00bb\u00d0\u00bd\u00d0\u00b5\u00d0\u00bd\u00d0\u00b8\u00d0\u00b5": 72849, "\u0120leftovers": 79607, "roughly": 86990, "\u0120\u00d0\u00ba\u00d0\u00be\u00d0\u00bc\u00d0\u00bf\u00d0\u00be\u00d0\u00b7\u00d0\u00b8": 38221, "CHILD": 93573, "CHECK": 27388, "\u0120RES": 27844, "\u0120claimed": 16583, "\u0120owner": 8383, "\u00d1\u0124\u00d0\u00b0\u00d0\u00bc": 92109, "\u0120conced": 22430, "Texas": 55689, "\u0120mesures": 42389, "Suc": 63101, "\u0120NEC": 89045, "\u0120possesses": 35816, "\u00e8\u00b5\u00b7\u00e7\u0124\u00b9": 43942, "oest": 11975, "\u0120reasoning": 22834, "\u00e7\u0136\u0141\u00e6\u00b4\u00bb": 3851, "infl": 32185, "\u00e7\u013c\u0126\u00e5\u0131\u00af\u00e8\u0125\u00bd": 32715, "\u0120acknowledges": 41954, "\u0120fict": 35247, "\u00e8\u00b6\u00b3\u00e4\u00ba\u0128": 85692, "tikz": 15695, "\u00ef\u00bc\u012b": 64471, "phil": 79396, "\u00e6\u0122\u00a7\u00e5\u013e\u00b0": 62661, "usage": 25810, "Ratio": 42366, "\u0120downside": 45916, "\u0120cane": 46493, "!\\!": 80582, "\u00e9\u0123\u0129\u00e5\u012a\u00b0\u00e7\u013c\u0126": 86107, "\u0120Usually": 26431, "\u0120Threshold": 96930, "appendTo": 79264, "Svc": 97180, "\u0120Arquitect": 33564, "kx": 83265, "\u00d1\u0122\u00d0\u00b8\u00d0\u00bd": 22345, "\u0120practiced": 43802, "alli": 69827, "\u00e6\u012a\u0133\u00e5\u013d\u00bd": 11224, "\u0120multiplied": 39573, "\u0120surm": 69800, "\u0120disposing": 86498, "\u00e6\u013f\u00a1": 3500, "electrons": 81083, "\u0120assistent": 90302, "\u0120desapareguts": 91764, "\u0120conceptes": 71600, "\u0120conduit": 95295, "\u00e7\u0141\u0143\u00e6\u013c\u0124\u00e7\u013c\u0126": 94311, "\u0120voy": 20485, "\u00e5\u0131\u00af\u00e4\u00bb\u00a5\u00e8\u00af\u00b4": 15340, "\u00e7\u00a9\u00bf\u00e4\u00b8\u012c": 53529, "\u0120screwed": 55785, "Been": 30341, "${\\": 23837, "`;": 59970, "\u0120hosting": 16191, "Five": 38577, "\u00d0\u00bd\u00d0\u00b8\u00d0\u00bd": 40333, "\u00e4\u00b8\u012d\u00e5\u0133\u00a8": 76188, "\u00e8\u0122\u0125\u00e7\u0142\u0136": 56838, "\u00e4\u00b8\u00ba\u00e7\u0136\u00b1": 62199, "MSC": 70449, "\u0120\u00d0\u0134\u00d0\u00b0": 14736, "hed": 874, "\u0120twists": 57193, "\u0120Arc": 12809, "\u00e5\u00ae\u012b": 2220, "\u00e5\u012c\u0142\u00e6\u00b7\u00b1": 68764, "\u0120realms": 73497, "\u00e6\u00b2\u012b\u00e9\u0129\u012f": 81093, "Motion": 49810, "\u00e6\u013a\u00be\u00e7\u013a\u00a6": 82912, "\u0120unital": 93981, "\u0120STDMETHOD": 94667, "\u00e7\u00bb\u013b": 2441, "\u0120acord": 30531, "\u0120scheduling": 31023, "\u0120pads": 31332, "\u0120Exam": 36762, "\u0120Claus": 55592, "\u0120'.": 23923, "\u0120\u00d0\u00a3\u00d0\u00bd\u00d0\u00b8\u00d0\u00b2\u00d0\u00b5\u00d1\u0122\u00d1\u0123\u00d0\u00b8\u00d1\u0124\u00d0\u00b5\u00d1\u0124\u00d0\u00b0": 74516, "\u00e6\u013a\u0137": 59780, "\u0120hacker": 82402, "\u0120Centro": 67233, "\u0120\u00d0\u00bc\u00d0\u00b8\u00d1\u0124\u00d1\u0122\u00d0\u00be\u00d0\u00bf\u00d0\u00be": 46190, "\u0120Basic": 22922, "\u0120Trek": 43631, "\u0120passing": 9989, "\u0120seven": 7960, "\u0120Sussex": 55153, "endres": 64079, "cate": 84439, "arisation": 84748, "\u0120Giron": 94579, "\u00e7\u00a3\u012c": 37588, "\u0120Robbins": 91435, ")`": 64166, "\u0120Cologne": 83366, "\u0120\u00d1\u0124\u00d0\u00b5\u00d0\u00bc\u00d0\u00bf\u00d0\u00b5\u00d1\u0122\u00d0\u00b0\u00d1\u0124": 40248, "bpm": 84346, "\u00e5\u0127\u00a5\u00e7\u013f\u00a1": 75409, "natured": 49671, "Ingressos": 33085, "\u0120ability": 6184, "\u0120lengthy": 35609, "\u0120leadership": 12864, "service": 6412, "meas": 40749, "mh": 77599, "\u00e5\u0131\u0133\u00e5\u00b1\u0137\u00e6\u012a\u013a\u00e7\u0137\u00a5": 92333, "compound": 87330, "\u00e6\u0123\u00ba": 87965, "Andrew": 43996, "opening": 40424, "\u00e3\u0122\u012d\u00e4\u00b8\u0143": 22567, "\u0120enhanced": 19948, "\u00d1\u0123\u00d0\u00b8\u00d1\u0131\u00d1\u0124\u00d0\u00b0": 51326, "handling": 82864, "\u0120rentals": 39084, "Download": 12801, "\u00e6\u013e\u012b\u00e4\u00b8\u0122\u00e5\u00a4\u00a9": 35215, "guer": 71714, "\u00e6\u0138\u00b0": 1404, "shutdown": 48322, "\u0120safari": 60374, "arguments": 25291, "\u0120sketches": 47989, "\u00e5\u0131\u013a\u00e5\u00be\u0139\u00e6\u013d\u00b4\u00e5\u012c\u0142": 64799, "\u00e9\u00a9\u00bf": 73198, "gtr": 38585, "\u0120Tyler": 39448, "herself": 33074, "FileName": 31171, "\u0120Destiny": 71179, "\u00e4\u00ba\u012d\u00e9\u00a1\u00b9": 26211, "\u00d0\u00b4\u00d0\u00b6\u00d0\u00be": 70194, "\u0120\u00d1\u0126\u00d0\u00bb\u00d0\u00b0": 71974, "\u0120Multip": 75462, "\u00e7\u013c\u0126\u00e8\u00a7\u0134\u00e8\u012b\u00b2": 58627, "\u0120\u00d0\u0141\u00d0\u00be\u00d0\u00bb\u00d0\u00b8": 86381, "Combin": 98115, "\u0120mascles": 31399, "\u0120'.$": 77394, "\u00e5\u00a4\u00a7\u00e8\u00a7\u0126\u00e6\u00a8\u00a1": 44820, "\u0120snowy": 59041, "\u0120influential": 35812, "\u0120Header": 41144, "widetext": 81498, "\u0120\u00d0\u00b3\u00d1\u0122\u00d0\u00b0\u00d0\u00bd\u00d0\u00b8\u00d1\u0128\u00d0\u00b8\u00d1\u0124\u00d0\u00b5": 91449, "wb": 40421, "\u00d0\u00b7\u00d0\u00be\u00d0\u00b2\u00d0\u00b0": 22244, "\u0120bib": 65218, "\u00e6\u012b\u00bf\u00e8\u00ae\u00a4": 30201, "\u00e6\u00ac\u00be\u00e9\u00a1\u00b9": 78736, "\u0120\u00d0\u00b8\u00d0\u00bd\u00d1\u0124\u00d0\u00b5": 29563, "\u0120mAh": 81381, "\u0120Gerr": 91353, "\u00e4\u00b8\u012b\u00e6\u013f\u00bf": 97584, "\u0120gamb": 42573, "\u00e5\u0131\u0133\u00e6\u012e\u00a5": 14075, "\u00d1\u0128\u00d0\u00b5\u00d0\u00b2": 92064, "\u0120\u00d0\u00bc\u00d1\u0122\u00d0\u00b0": 81589, "\u00e4\u00bc\u013c\u00e4\u00b8\u012f\u00e4\u00bc\u013c": 41126, "\u00e9\u0135\u00ba\u00e8\u00ae\u00be": 96377, "\u0120Aly": 66632, "\u00e7\u0124\u00b9\u00e5\u0134\u012e": 96227, "active": 5228, "\u0120menys": 11256, "\u0120qu": 445, "---+": 18086, "\u00d0\u00b0\u00d1\u0122\u00d0\u00b4": 26186, "oux": 29378, "Articles": 60524, "$('#": 80489, "\u0120inf": 1635, "\u00e8\u00af\u0126\u00e4\u00bc\u00b0": 26795, "\u00d0\u00ba\u00d0\u00be\u00d0\u00b2\u00d0\u00b0": 30393, "class": 2186, "assass": 39535, "\u0120\u00d0\u00bd\u00d0\u00be\u00d0\u00bc\u00d0\u00b5\u00d1\u0122": 69243, "ernacle": 77321, "rn": 19950, "\u0120Chil": 83785, "\u0120CWE": 47144, "rosa": 58176, "\u0120likes": 14823, "navigate": 93178, "bones": 52590, "\u0120photo": 8072, "\u00e6\u012a\u0133\u00e4\u00bb\u00ac\u00e5\u00b0\u0128": 44520, "Pl": 4752, "\u00d0\u00b2\u00d0\u00b0\u00d0\u00bd\u00d0\u00b5": 3819, "\u00e7\u00bd\u0139": 6761, "\u00e7\u013c\u0126\u00e5\u00b7\u00a5\u00e4\u00bd\u013e": 15982, "\u0120canonical": 19669, "towards": 34459, "bi": 8909, "\u00e8\u00ae\u00a9\u00e6\u012a\u0133": 16339, "\u0120pose": 22700, "TRAN": 39510, "\u00e6\u012a\u0133\u00e5\u0131\u00af\u00e4\u00bb\u00a5": 67513, "([^": 85257, "\u0120wired": 29048, "\u0120hereditary": 56432, "\u0120jargon": 65729, "$~": 17591, "\u00e5\u012a\u013b": 3937, "\u0120climbs": 81439, "\u0120Indiana": 25039, "\u00e4\u00ba\u0128\u00e5\u00a5\u00b9": 81833, "\u0120remain": 4512, "pm": 2559, "igan": 12605, "\u0120darker": 35691, "compressed": 46953, "\u00e4\u00b9\u012d\u00e5\u00b9\u00b4": 74748, "enir": 84552, "?]": 77742, "\u00e5\u0131\u0133\u00e5\u00b8\u0125\u00e7\u013c\u0126": 41708, "\u0120Pele": 94578, "{(": 7865, "\u00e5\u00bc\u0137\u00e8\u00b5\u0126": 97573, "\u00c2\u0139": 99970, "\u00d0\u00b3\u00d0\u00b0\u00d1\u0124\u00d0\u00be": 13871, "Debug": 14498, "source": 1915, "\u0120Query": 21448, "$'": 26149, "\u00e5\u013d\u013d\u00e8\u0124\u00a2": 73268, "rition": 18886, "\u0120\u00d0\u00bf\u00d0\u00be\u00d1\u0123\u00d0\u00be\u00d0\u00ba\u00d0\u00b0": 62956, "\u00e5\u012a\u0128\u00e5\u012a\u00ab\u00e4\u00b8\u00ba": 33786, "\u0120governess": 91037, "\u00e5\u0129\u013f": 19071, "behaving": 99349, "\u0120sum": 2555, "restart": 46785, "\u00e5\u012e\u0138\u00e5\u0143\u00a6": 25057, "\u0120Dinner": 43552, "\u0120prev": 10293, "\u00e4\u00b8\u012b\u00e4\u00b8\u00aa\u00e6\u013e\u012a": 48413, "\u00e7\u00ac\u00ac\u00e5\u012f\u0123": 26620, "\u0120\u00d1\u0123\u00d1\u012c\u00d1\u0124\u00d1\u0122\u00d1\u0125\u00d0\u00b4\u00d0\u00bd\u00d0\u00b8": 55028, "\u00e4\u00b8\u0122\u00e7\u013d\u00b4\u00e6\u00b2\u00a1\u00e6\u013e\u012b": 71998, "\u0120beneficiary": 75297, "\u0120intestinal": 73402, "\u0120Favorites": 95284, "\u0120Fem": 66643, "?,?,": 73255, "\u0120$+$": 95518, "\u00e9\u0123\u00bf\u00e5\u00bc\u0122": 72022, "UnitTest": 96001, "\u0120po": 2327, "Premi": 76468, "berries": 26041, "\u0120Respons": 33180, "\u0120image": 3324, "\u0120fray": 67264, "\u0120\u00d0\u00bb\u00d0\u00b0\u00d0\u00bd\u00d0\u00b4": 84167, "igny": 40118, "\u00e5\u0132\u012e\u00e6\u0143\u00a5": 35483, "\u00e7\u013c\u0126\u00e4\u00ba\u012d\u00e5\u00ae\u0140": 48105, "zca": 49841, "\u0120Vendor": 53844, "Lay": 5727, "\u00d0\u00bc\u00d1\u0125\u00d0\u00bd\u00d0\u00b4": 80089, "\u0120Automation": 63840, "\u0120\u00d0\u00be\u00d0\u00b1\u00d0\u00b5\u00d0\u00b4\u00d0\u00b8": 41456, "diagram": 44413, "\u0120datasets": 16581, "\u00e5\u00be\u0123\u00e6\u00b1\u0124\u00e6\u0126\u0131\u00e8\u00a7\u0123": 93136, "\u0120multidis": 82805, "WARNING": 29562, "\u00e8\u00af\u00b8\u00e8\u0133\u013d\u00e4\u00ba\u00ae": 58193, "Candidates": 88493, "\u0120branded": 47950, "\u0120rx": 50301, "grammar": 70764, "}\\}": 65480, "\u0120Args": 44207, "\u00e4\u00b8\u0122\u00e6\u013f\u00af": 44775, "\u00e4\u00ba\u013c\u00e9\u00a9\u00ac\u00e9\u0122\u012c": 58452, "\u0120crane": 72610, "feas": 73885, "\u00d1\u0123\u00d0\u00bf\u00d0\u00b5\u00d0\u00ba\u00d1\u0124\u00d0\u00b8": 84613, "\u0120pude": 96697, "Outdoor": 94724, "\u0120turtle": 58437, "\u0120tattoos": 74705, "\u00e8\u00b5\u00b0\u00e5\u00bb\u012c": 75514, "Related": 19706, "\u0120objectius": 47842, "\u0120XY": 49538, "\u0120remembered": 16663, "\u00e4\u00b8\u0122\u00e5\u012a\u00bb": 66061, "uitive": 69269, "\u00e9\u00a6\u0138\u00e8\u00bd\u00ae": 98975, "\u0120coco": 93383, "\u0120alto": 64699, "nies": 17076, "\u0120\u00d0\u00b0\u00d0\u00bf\u00d1\u0122\u00d0\u00b8\u00d0\u00bb": 17928, "\u0120Reial": 22308, "\u00e5\u0132\u00b8": 6196, "\u0120Craw": 34369, "Bitmap": 35113, "\u0120framed": 35977, "quickly": 61326, "\u00e7\u00bb\u00bd\u00e6\u0136\u00be": 64858, "\u00c3\u012f": 20251, "terior": 7723, "\u0120ro": 813, ")*": 23348, "\u00e6\u012b\u0122\u00e5\u013e\u00a8\u00e5\u013e\u00b0": 66220, "\u0120Hanover": 66729, "\u0120briskly": 82046, "\u0120Prize": 33559, "\u0120discharging": 66123, "inguished": 41426, "\u00e8\u00bd\u00ac\u00e5\u00bc\u00af": 86867, "\u0120exercises": 22686, "\u00e4\u00bf\u013f\u00e5\u0127\u00bb": 31973, "hears": 96432, "\u0120productor": 44327, "\u0120supplying": 34630, "\u0120Saragossa": 51757, "\u0120Restaurant": 31138, "jmath": 93630, "\u0120Diputats": 51574, "Paragraph": 87271, "githubusercontent": 72445, "ewrite": 43741, "\u0120leuk": 79743, "\u0120seg": 2060, "CT": 2080, "\u0120painted": 16786, "\u00e7\u00a7\u012f\u00e5\u0143\u0132": 37808, "\u00e5\u00be\u012a\u00e5\u00bf\u00ab\u00e5\u00b0\u00b1": 71132, "LLO": 80279, "\u0120baz": 92615, "\u0120Sent": 24960, "\u0120Whites": 99481, "GroupName": 30982, "\u00e9\u00ab\u013a\u00e5\u012a\u0128": 85611, "\u0120advanced": 8947, "\u0120horizons": 74222, "\u00e8\u00ae\u00b0\u00e3\u0122\u012d": 54805, "\u0120dhcp": 43672, "\u0120encounter": 16849, "\u0120Dep": 4803, "\u0120femen": 20777, "\u00e6\u012d\u013b": 82884, "\u0120STR": 26179, "\u0120problems": 4194, "subfloat": 32366, "\u0120logarithmic": 42761, "\u0120gamble": 73380, "\u0120WINDOW": 89650, "\u0120sexuality": 70706, "atars": 67874, "ACHED": 94611, "dash": 22934, "broadcast": 64716, "\u0120HST": 74206, "\u0120focuses": 20771, "\u0120Kerry": 54338, "shifts": 42058, "\u00e7\u013e\u012d\u00e8\u00bf\u0129": 43649, "\u0120folder": 6924, "\u0120Dat": 11675, "\u0120\u00d0\u00a4": 4502, "\u0120Cla": 12894, "\u0120Len": 20069, "\u0120topped": 38376, "\u0120Discuss": 75961, "Edu": 78774, "ACTER": 53261, "asin": 89025, "\u0120contenir": 91909, "\u0120anterior": 14127, "\u0120americk": 33553, "\u00e6\u0138\u00b0\u00e9\u0139\u00bb\u00e5\u0131\u0133\u00e5\u00b8\u0125\u00e4\u00bc\u013c": 96695, "istes": 4204, "ismo": 12834, "sworth": 34230, "\u0120PST": 58048, "\u0120pou": 33262, "gicament": 64922, "\u0109long": 91089, "\u0120trigger": 11144, "\u00e7\u013c\u0126\u00e8\u0124\u00a1\u00e7\u00a5\u00a8": 69925, "\u0120puse": 96040, "bohyd": 44957, "ioni": 50219, "ados": 9360, "\u00e4\u00ba\u00ba\u00e5\u012c\u013d": 35472, "\u0120RL": 36831, "\u0120Ideal": 48525, "\u0120SAS": 57821, "\u0120Pons": 63533, "\u0120pertanyia": 68562, "\u0120garlic": 25711, "ologic": 46513, "\u0120trac": 60738, "\u0120lef": 41388, "\u0120hitch": 64402, "\u00d1\u0123\u00d1\u0124\u00d0\u00b5": 5677, "\u00e4\u00ba\u00a7\u00e4\u00b8\u013c\u00e5\u0131\u0133\u00e5\u00b1\u0137": 42523, "\u00e7\u00bb\u012a\u00e8\u00ba\u00ab": 50008, "\u00e6\u0143\u00a3\u00e5\u00a6\u0124": 42730, "ophys": 74732, "inctions": 53423, "cury": 28251, "\u00e7\u00a8\u0130\u00e7\u0130\u0129": 78601, "\u0120aerial": 44880, "\u0120revers": 17474, "assed": 60625, "videos": 78906, "\u0120\u00d1\u0123\u00d1\u0124\u00d0\u00b0\u00d1\u0122\u00d0\u00be": 63591, "\u0120Lotus": 68211, "BERT": 36841, "\u0120mornings": 48842, "CONDS": 66700, "\u0120fluttering": 85010, "\u0120cometh": 88082, "\u0120convoy": 83947, "ock": 871, "\u0120lenders": 40631, "\u0120\u00d0\u00be\u00d1\u0122\u00d0\u00b8\u00d0\u00b3\u00d0\u00b8\u00d0\u00bd\u00d0\u00b0": 87754, "\u00e6\u00b9\u0138": 6099, "\u00e5\u0128\u00bb": 23443, "\u0120Sequ": 46679, "\u0120shining": 25288, "\u0120CRM": 49721, "\u0120mV": 54455, "\u0120Processes": 73333, "\u0120=)": 88691, "\u0120gregues": 92757, "\u00d1\u012b\u00d0\u00b5": 4056, "\u0120zoomed": 99859, "Static": 26231, "venth": 48065, "\u0120\u00d0\u013a\u00d1\u0123\u00d0\u00bf\u00d0\u00b0\u00d0\u00bd\u00d0\u00b8\u00d1\u0131": 39101, "\u0120?>": 14820, ":\",": 53469, "\u00e3\u0124\u00af": 63907, "\u0120pv": 71231, "Distribution": 46322, "binlog": 95000, "\u0120Polo": 66847, ".\"]": 50117, "\u0120programmes": 35131, "\u0120Pasha": 73784, "volume": 19645, "[]{": 22983, "\u0120glu": 34251, "\u0120Aub": 37913, "\u0120Xubuntu": 41433, "eric": 69699, "Shut": 91448, "\u0120revela": 94482, "iblioteca": 24666, "\u00d1\u0126\u00d0\u00b8\u00d0\u00bd": 97099, "Omega": 3980, "\u0120fictitious": 83505, "\u0120\u00d0\u00bf\u00d1\u0122\u00d0\u00b5\u00d0\u00b2\u00d1\u012c\u00d1\u0122": 68790, "odel": 22023, "Great": 13851, "\u00e8\u0129\u00aa\u00e5\u00b7\u00b2": 90641, "\u0120patrol": 43563, "raci": 48427, "\u0120Kil": 33391, "\u0120Punjab": 72900, "itzada": 15412, "usement": 30723, "\u0120composer": 36133, "ady": 4535, "\u0120mong": 26682, "\u0120setembre": 9294, "Ciclistes": 54197, "\u0120\u00d1\u0125\u00d1\u0123\u00d0\u00bf": 27532, "\u00e5\u00b8\u013a": 42007, "ensional": 7371, "\u0120Hole": 55194, "\u0120monet": 56995, "\u00d1\u0123\u00d1\u0122\u00d0\u00b5\u00d0\u00b4": 58923, "\u0120mosa": 83619, "nosis": 85721, "INIT": 33059, "\u0120Makes": 44051, "?\".": 74257, "\u0120\u00d0\u00b1\u00d1\u0122\u00d0\u00b5\u00d0\u00b3\u00d0\u00b0": 74319, "\u00d1\u0122\u00d0\u00be\u00d1\u0122": 87308, "Calculate": 72001, "\u00e7\u013c\u0126\u00e5\u012a\u013d\u00e6\u0138\u00b0": 90218, "\u0120gymnastics": 98222, "\u00e5\u0132\u012f\u00e9\u00a2\u013f": 69601, "\u0120considerada": 42034, "ands": 3788, "ste": 7532, "\u0120cocktails": 53062, "\u0120Foam": 83769, "ablanca": 76388, "\u0120Operand": 90655, "dependent": 16241, "\u00e5\u0131\u0133\u00e5\u00b8\u0125\u00e4\u00bc\u013c": 41480, "\u00e5\u0134\u012e\u00e4\u00bc\u0123\u00e4\u00b8\u013c": 81517, "\u0120gly": 44197, "\u0120Fur": 45799, "\u0120Tren": 95106, "\u00e4\u00bb\u013a\u00e5\u0129\u00ba": 27587, "\u00e9\u0125\u00bd\u00e6\u00b2\u00a1\u00e6\u013e\u012b": 19869, "CONFIG": 25226, "\u0120atop": 57746, "\u0120Eigen": 77248, "\u0120Constituci": 50274, ")')": 78843, "successful": 32043, "men": 3741, "Cd": 83412, "\u0120permite": 45621, "cpp": 14743, "\u0120popup": 36565, "\u00e4\u00b8\u012f\u00e5\u0129\u00ba": 26188, "\u0120WF": 85412, "\u0120fasc": 14864, "READY": 64847, "\u0120blok": 91381, "\u0120HASH": 94080, "getRoot": 94836, "\u0120Oc": 96894, "Qty": 96974, "abetes": 50824, "trained": 31989, "\u0120narrativa": 82876, "\u0120tasked": 67351, "(&": 9468, "rome": 7288, "\u00e6\u0133\u0129": 20064, "\u0120\u00d0\u0141\u00d0\u00b5\u00d1\u0124\u00d1\u012c\u00d1\u0122": 37061, "\u0120Faith": 27209, "Tuesday": 36345, "\u00e5\u0127\u00bc": 17351, "#!/": 30483, "\u00e8\u0122\u012e\u00e6\u013f\u00a5": 38526, "creation": 46211, "comm": 1980, "\u0120SOL": 47726, "\u0120sonora": 54268, "\u00e7\u0139\u0127\u00e5\u0131\u013a": 57996, "\u00e9\u0135\u00b8": 44776, "IconSuccess": 62631, "otech": 67728, "\u0120prepositional": 69561, "\u0120\u00d1\u0128": 5235, "\u0120CONF": 72173, "Trait": 74293, "\u00e5\u012f\u013c\u00e8\u00a7\u012a\u00e4\u00bc\u013c": 76302, "\u0120faculty": 17795, "\u0120#": 1501, "\u00e7\u00bb\u00bf\u00e8\u012b\u00b2\u00e7\u013c\u0126": 82217, "\u00e8\u00a1\u0122": 4448, "ency": 1918, "\u00e5\u00af\u00b9\u00e7\u013c\u0126": 83144, "\u00ca\u012c": 85275, "ourd": 85927, "\u0120conjectures": 88131, "\u0120scur": 83967, "\u0120efecto": 92751, "\u0120sprayed": 94285, "\u00e5\u012b\u012f\u00e9\u013f\u00a2": 31025, "\u00e8\u0126\u00b1\u00e7\u00a6\u00bb": 50308, "\u0120practise": 52562, "\u0120stimuli": 72885, "\u00e9\u013d\u00aa\u00e8\u012c\u00b1": 94321, "original": 16155, "\u0120Restrict": 62868, "\u0120pilars": 74690, "\u0120Weapons": 91533, "\u0120scissors": 61804, "\u0120flop": 64566, "press": 1483, "\u0120Prof": 21896, "\u00e9\u0122\u0124\u00e7\u0136\u00a8": 27947, "sol": 9584, "\u0120Bent": 32190, "\u0120Es": 5194, "shadow": 17470, "\u00d0\u00bc\u00d0\u00b5\u00d0\u00bd\u00d0\u00b0": 28499, "\u0120patriotism": 62359, "\u0120dimensionality": 64294, "\u00d0\u00b5\u00d1\u0124\u00d0\u00be": 5381, "cloud": 11459, "\u0120inhal": 75719, "\u0120no": 642, "\u0120martial": 46142, "\u0120\u00d1\u0122\u00d0\u00b0\u00d0\u00b7\u00d0\u00b2\u00d0\u00b8\u00d1\u0124\u00d0\u00b8\u00d0\u00b5\u00d1\u0124\u00d0\u00be": 51264, "\u0120turnout": 82781, "\u0120revoke": 89207, "\u0120societat": 23139, "\u00e8\u00a8\u0122\u00e8\u00a1\u012e": 92872, "\u0120mask": 12305, "South": 26003, "\u00e4\u00b8\u012d\u00e6\u00b8\u00b8": 62441, "\u0120Lakes": 37352, "\u0120Seeking": 87730, "\u00e8\u00a7\u0124\u00e7\u0124\u00b9\u00e6\u012a\u0138": 45476, "Diagnostics": 33142, "\u0120tensi": 60020, ":*": 54407, "\u0120jes": 53825, "\u0120princes": 26124, "\u0120tribes": 28283, "\u00e7\u0143\u0138\u00e5\u012a\u0134": 36339, "\u00e4\u00b8\u012f\u00e8\u00bf\u0129\u00e6\u013a\u00af": 62629, "anar": 29102, "\u0120range": 3169, "\u0120farewell": 38152, "BRE": 37442, "\u0120outlines": 41241, "\u0120Given": 16199, "\u0120sq": 18537, "rice": 40740, "\u00e5\u0136\u0132\u00e6\u013e\u013f": 76322, "\u00e4\u00b8\u00a4\u00e5\u00b8\u0124": 80972, "\u0120biol": 56128, "\u00e7\u0136\u00b5\u00e7\u00ab\u013b": 66317, "\u0120Hisp": 92437, "\u0120puff": 32836, "\u00e4\u00bc\u0133\u00e5\u0123\u0129": 89058, "\u00e9\u00a1\u00ba\u00e5\u012c\u00bf": 76810, "\u0120oxy": 93871, "\u0120Martins": 97228, "\u0120DVI": 70083, "\u0120decency": 87352, "pattern": 21602, "\u00e8\u00b4\u00be": 26187, "forEach": 23558, "\u00d1\u0122\u00d1\u012c\u00d0\u00b1": 28215, "downs": 78882, "\u0120plumbing": 34534, "\u00e8\u00b7\u0141\u00e4\u00b8\u012c": 91798, "\u00e4\u00b8\u012f\u00e4\u00ba\u0128": 14749, "\u00e7\u013f\u0122": 1649, "aling": 5818, "\u0120coins": 22273, "\u0120$(": 3309, "Pixel": 36152, "\u0120VII": 19953, "\u0120multiplicity": 42425, "\u0120Dalton": 65372, "PW": 68569, "\u0120combinar": 86447, "\u0120alsa": 50415, "\u00e5\u0135\u0123\u00e4\u00bd\u012f": 91203, "\u0120BUT": 29656, "\u00e5\u0140\u00ae": 72699, "JPG": 77167, "\u00e9\u00a1\u00be\u00e5\u00ae\u00a2": 26903, "\u0120far": 2367, "riven": 19799, "\u00e5\u00bf\u0127\u00e8\u00a6\u0123": 17285, "\u0120kidney": 40319, "ctica": 22442, "\u0120regulate": 35244, "\u0120Pis": 58882, "jna": 36062, "arcgis": 63400, "igens": 68304, "\u0120Wien": 68959, "eco": 67081, "\u0120Level": 16420, "\u00d0\u00b6\u00d0\u00b8\u00d0\u00b5\u00d1\u0124\u00d0\u00be": 70210, "angera": 81470, "\u0120nef": 88516, "\u0120Snake": 67304, "\u0120precursor": 63369, "\u0120altura": 58796, "\u0120homicide": 92822, "Finish": 51408, "\u0120\u00d0\u00a6\u00d0\u00b5\u00d0\u00bd\u00d1\u0124\u00d1\u0122\u00d0\u00b0\u00d0\u00bb\u00d0\u00bd\u00d0\u00b0": 58781, "\u0120Ap": 2360, "\u00e5\u012a\u00b0\u00e8\u00be\u00be": 26639, "\"><?": 63238, "\u0120morter": 90352, "Michelle": 92235, "\u0120intermediary": 92566, "\u00e4\u00be\u00bf\u00e7\u00a7\u013a": 43550, "opengl": 61830, "\u0120thighs": 63033, "\u0120instruccions": 94853, "\u0120SDL": 48183, "\u0120\u00d0\u0142\u00d0\u00be\u00d0\u00b4": 65044, "\u0120humble": 23325, "\u0120calmly": 39190, "\u0120Wubi": 88660, "aventura": 77993, "\u00e5\u013d\u00ba\u00e5\u00ae\u013c": 24714, "\u00e7\u0136\u00b7\u00e5\u00a5\u00b3": 32941, "inent": 10030, "\u0120Coloma": 75808, "\u00e5\u00a2\u0140\u00e9\u0129\u0131": 77908, "\u0120pod": 3204, "\u0120Guarant": 44199, "\u00d1\u0124\u00d1\u0125\u00d1\u0122": 23231, "\u0120\u00d1\u0126\u00d0\u00b0\u00d0\u00bc\u00d0\u00b8\u00d0\u00bb\u00d0\u00b8\u00d1\u0131": 47619, "rput": 55441, "Introduction": 16633, "\u0120vistes": 96223, "intuitive": 89791, "\u0120dissenyat": 56726, "Language": 22286, "\u0120(,": 29588, "\u0120ceramics": 84913, "\u00e6\u013e\u00aa": 3918, "=\"@": 13671, "\u0120unseen": 38098, "\u0120classroom": 21266, "\u0120Ec": 40448, "\u0120Delhi": 26172, "\u00d0\u00bd\u00d0\u00b0\u00d1\u0129\u00d0\u00b0": 25052, "\u00e8\u00a7\u00a6\u00e5\u0131\u012c": 69573, "\u00e6\u012b\u0135\u00e5\u012f\u00a1": 72241, "cords": 90640, "\u00e6\u013e\u00ba\u00e6\u00b2\u00b9": 71898, "\u0120stubborn": 42512, "--+--------": 58233, "Groups": 27895, "\u0120ZIP": 61775, "resse": 54659, "riding": 72065, "\u0120surge": 28049, "xes": 17546, "\u0120netmask": 76045, "\u00e5\u0135\u0123": 1741, "\u00e4\u00b9\u0141\u00e5\u00b0\u0128": 30151, "\u0120elimin": 9027, "\u0120\u00d1\u0123\u00d0\u00ba\u00d0\u00b0\u00d0\u00bb\u00d0\u00b8": 86108, "\u0120nurture": 70026, "\u00e6\u0136\u00b6\u00e5\u0131\u0138": 45787, "ometown": 47185, "\u00e4\u00b8\u0122\u00e7\u0135\u00b6": 90228, "stop": 11100, "ifically": 20352, "\u0120Individual": 32962, "\u0120\u00d0\u013b\u00d0\u00be\u00d0\u00b0\u00d0\u00bd": 56090, "\u0120conveyed": 40678, "\u00e6\u00b2\u00a1": 1671, "\u0120coronavirus": 51777, "eller": 9723, "\u00e5\u012e\u0127\u00e6\u012d\u00ac": 8344, "\u00e5\u0129\u00ba\u00e8\u00b4\u00a7": 52305, "LOAD": 25023, "\u00e6\u0139\u0131\u00e8\u0129\u00aa\u00e6\u00b2\u00bb": 87560, "\u0120estatals": 93437, "\u0120worksheet": 65738, "\u0120Send": 21016, "\u00e6\u00af\u013d\u00e6\u00b3\u00bd": 33195, "}\\,,": 46667, "Wide": 65267, "}(-\\": 88092, "\u0120!==": 10290, "\u0120tomba": 53647, "\u0120portava": 62583, "\u0120trainer": 35177, "onsored": 43384, "electro": 78367, "\u0120cheeks": 26813, "agraph": 10110, "\u0120erg": 28914, "\u0120grouped": 38586, "\u0120Turbo": 59205, "\u00d0\u00b2\u00d0\u00ba\u00d0\u00b0": 44176, "\u00e9\u0135\u00b6\u00e6\u00b2\u00b3": 77147, "\u0120Christendom": 95271, "Builtin": 96075, "rega": 16888, "\u0120Che": 3700, "Ohio": 51438, "Cron": 73672, "\u0120unemployed": 62675, "\u0120realitzades": 71926, "\u0120finance": 17229, "\u0120adjustable": 30391, "\u0120UT": 40489, "\u0120Notice": 23806, "ENG": 50040, "\u0120espa": 52315, "\u0120clumsy": 56751, "\u00e9\u0124\u00a3\u00e4\u00bd\u0142": 73450, "mvn": 92084, "\u00e8\u012d\u0131\u00e8\u00bd\u00bc": 92660, "\u00e5\u00a3\u00ae\u00e8\u00a7\u0124": 95263, "cotton": 97403, "ibn": 66845, "\u00e6\u00b6\u012b\u00e9\u00bb\u0133": 87593, "\u0120ROWSPAN": 99713, "\u00e7\u0141\u00a5\u00e9\u0123\u0135\u00e4\u00ba\u0128": 65779, "\u00e5\u00af\u0135\u00e6\u0126\u0131": 72642, "\u00e8\u0123\u012c": 14345, "\u0120Thunderbolt": 48048, "\u0120fable": 89664, "pires": 25261, "\u00e4\u00bf\u013f\u00e5\u0123\u00a5": 26887, "ale": 1428, "\u0120colleague": 37461, "erex": 75032, "identals": 52436, "\u0120ferm": 20014, "\u0120possibilitat": 42171, "\u00d1\u0123\u00d0\u00be\u00d0\u00b2\u00d0\u00b8": 53922, "\u00e6\u012d\u0143": 55200, "\u0120Fuk": 74933, "\u0120wild": 6763, "scalar": 40021, "\u0120heroin": 73713, "\u0120Jes": 6772, "\u0120Maria": 9667, "Period": 25601, "License": 31676, "\u0120dut": 6766, "\u0120arriben": 63085, "\u0120\u00d0\u00ba\u00d1\u012c\u00d0\u00bc": 7738, "\u00e5\u0133\u00bd": 4413, "willingly": 96387, "noexec": 96966, "\u00d0\u00bc\u00d0\u00b0\u00d0\u00bb\u00d0\u00ba\u00d0\u00b8": 89421, "\u0120Punt": 71972, "Refs": 67911, "\u00e4\u00b8\u00a8": 82779, "\u0120Balance": 52255, "\u0120DCHECK": 41089, "\u00d0\u00bd\u00d0\u00be\u00d1\u0123\u00d0\u00b0": 83490, "\u0120titulada": 66993, "\u0120precisely": 13896, "\u00e5\u00b9\u00b3\u00e8\u00a1\u012e": 70218, "\u00d1\u0131\u00d0\u00b2\u00d0\u00b0\u00d1\u0124": 26076, "\u0120\u00d0\u0132\u00d0\u00bb\u00d0\u00b5\u00d0\u00ba\u00d1\u0123\u00d0\u00b0\u00d0\u00bd\u00d0\u00b4": 23884, "\u00e5\u0133\u0139": 83389, "\u0120??": 36109, "\u00e8\u0129\u00aa\u00e8\u00b4\u00b8": 77135, "\u00e5\u0141\u0130\u00e5\u0142\u00a1": 88113, "\u0120\u00d0\u0132\u00d0\u00bd": 12804, "\u00e5\u0137\u0128\u00e5\u013e\u00ba": 43812, "\u0120pumped": 65388, "dating": 38395, "\u0120identify": 8843, "Errors": 24010, "\u0120sacrifice": 20487, "\u0120Cheryl": 89297, "\u0120alloc": 13577, "}).}": 90872, "Annie": 97207, "\u0120parsed": 31209, "\u00e6\u0122\u0122": 8593, "\u0120Pou": 61294, "\u0120DC": 7950, "\u0120plow": 89790, "\u0120Michelin": 99691, "\u0120\u00c2\u00a7\u0120": 41013, "\u0120busted": 97580, "\u0120continuous": 9344, "\u0109\u0109\u0120\u0120\u0120\u0120\u0120\u0120\u0120\u0120\u0120\u0120\u0120": 98808, "\u0120Hubbard": 59600, "\u0120jumped": 24381, "AppData": 69584, "weather": 30964, "\u0120necesitas": 40432, "ependent": 16458, "\u0120toes": 38551, "Facade": 85089, "\u00d0\u00bc\u00d1\u012c\u00d1\u0124": 24136, "\u0120ej": 6878, "\u0120intestine": 93032, "mand": 3178, "Tuple": 38378, "\u0120Arsenal": 52309, "\u00d0\u013c\u00d0\u0141": 50042, "\u0120paper": 3322, "Paris": 40619, "IOUS": 54446, "\u0120cloak": 38271, "\u0120\u00d1\u0123\u00d0\u00b8\u00d0\u00bd\u00d0\u00b3\u00d1\u012c\u00d0\u00bb": 65391, "\u00e5\u0129\u00a1\u00e6\u013a\u00af": 65537, "monotonic": 97504, "\u0120steer": 42123, "\u0120proclaimed": 47882, "\u00e5\u00b9\u00b3\u00e5\u0134\u012e": 68894, "\u0120contestants": 85308, "\u00d0\u0141\u00d1\u0122\u00d0\u00be\u00d0\u00b8\u00d0\u00b7\u00d1\u0127\u00d0\u00be\u00d0\u00b4": 62982, "\u0120VDC": 94367, "\u0120Enric": 32558, "\u0120carnival": 82438, "\u0120Graf": 38186, "ndum": 40141, "\u00e5\u00a4\u00a7\u00e4\u00bc\u013c": 22947, "\u0120punto": 41722, "hardt": 45957, "\u0120bons": 61127, "\u00e5\u0131\u00a3\u00e5\u0131\u00b7": 66428, "manifest": 31103, "\u0120kins": 71218, "veyard": 80346, "\u0120BAFTA": 78199, "agall": 95012, "\u0120futbolista": 36662, "wished": 78201, "\u00e5\u013e\u00ba\u00e9\u013f\u00a2": 57797, "orthogonal": 91970, "\u00e5\u012a\u0128\u00e7\u013c\u0126": 37555, "mpt": 41171, "WARN": 71363, "\u0120repressi": 72009, "\u0120missing": 7085, "\u0120\u00d1\u0127\u00d0\u00be": 13848, "Tele": 24811, "\u0120cleans": 31093, "\u0120explosive": 48973, "atered": 66187, "?></": 78729, "Invest": 33622, "iddy": 49560, ")\u00ef\u00bc\u013d": 32154, "\u0120oly": 78301, "\u00e7\u00a7\u0133": 2963, "altz": 85220, "\u0120paycheck": 87653, "\u0120Antwerp": 91505, "\u0120Zulu": 99683, "\u0120Divine": 34680, "\u0120Hug": 19124, "\u0120quickly": 5397, "\u00d0\u00b7\u00d0\u00b8\u00d1\u0122\u00d0\u00b0": 13808, "\u0120study": 3437, "\u0120clicks": 34746, "cesi": 33673, "oport": 23531, "\u0120Princip": 34920, "\u0120heavenly": 38154, "\u0120patrimoni": 47482, "\u00e5\u012c\u00a9\u00e5\u0132\u00ac": 74019, "\u00e7\u0136\u00b5\u00e5\u0131\u00b0": 84875, "\u0120harmed": 86486, "unchecked": 68847, "\u00e5\u0131\u00af\u00e4\u00bb\u00a5\u00e8\u00ae\u00a9": 49490, "\u0120Erin": 58389, "\u0120sanctioned": 80119, "\u00e5\u00a4\u0138\u00e5\u0129\u00ba": 39405, "\u00e5\u013e\u00a8\u00e5\u0130\u00bb\u00e5\u00b9\u00b4": 96724, "}%": 13494, "\u0120\u00d0\u00b3\u00d1\u0122\u00d0\u00b0": 4621, "\u0120participation": 21188, "\u00e4\u00b8\u012c\u00e5\u0130\u00bb": 21390, "emor": 27165, "\u0120enabled": 9120, "iris": 42945, "wg": 44970, "\u00e9\u0129\u012f\u00e7\u0136\u0141": 97865, "cology": 50073, "\u0109throw": 35360, "\u0120judicious": 63918, "\u0120Uncle": 22987, "Jul": 20516, "guns": 62659, "\u0120\u00d1\u0125\u00d0\u00bc\u00d0\u00b5": 57571, "\u00d9\u012c": 35047, "vend": 98954, "\u0120extinction": 37670, "\u0120Publisher": 40572, "\u0120Halloween": 27866, "\u00e9\u0129\u0129\u00e8\u00ae\u00bf\u00e6\u0139\u00b6": 52006, "\u0120clase": 15271, "stylesheets": 53245, "wlp": 74225, "damage": 68898, "\u0120\u00d1\u0124\u00d0\u00b8\u00d1\u0124": 33608, "\u0120Informaci": 51782, "\u00e5\u00be\u0139\u00e5\u00a4\u00aa": 60707, "\u0120cra": 10851, "\u00e4\u00b8\u00ba\u00e6\u00b0\u0133": 81338, "\u0120HU": 51468, "\u0120Niem": 87909, "\u0120produces": 14984, "\u0120HDD": 22313, "\u00e6\u00b2\u00b9\u00e8\u0126\u0124": 61154, "\u0120imperson": 55758, "\u0120\u00d0\u00b7\u00d0\u00b0\u00d0\u00bf\u00d0\u00be": 10595, "\u0120Dul": 51417, "\u0120mer": 5746, "\u0120Verg": 55781, "\u0120Toyota": 33444, "\u0120\u00d0\u00b2\u00d1\u012c\u00d0\u00b7\u00d0\u00b2\u00d0\u00b8": 82286, "\u0120docent": 90271, "\u0120skies": 36837, "\u0120ivy": 78797, "ticles": 29073, "\u0120vale": 70140, "\u0120tribut": 38292, "\u0109$": 6047, "\u0120anecdote": 80912, "\u00e4\u00b8\u0122\u00e6\u0140\u013c": 92108, "\u0120dormant": 82706, "oft": 25068, "\u0120\u00d0\u00b8\u00d0\u00bd\u00d1\u0124\u00d0\u00b5\u00d1\u0122": 32493, "\u0120Mot": 12283, "\u0120Sciences": 21596, "\u0120onward": 49202, "axy": 19384, "Preparing": 53565, "\u00e5\u00a4\u012f\u00e5\u00b7\u00a5\u00e5\u00a4\u012f\u00e4\u00ba\u00a7": 54662, "\u0120tractats": 71446, "\u0120\u00d1\u0128\u00d1\u0131\u00d0\u00bb\u00d0\u00b0": 80423, "\u0120whence": 29309, "\u00d0\u00bf\u00d0\u00b5\u00d1\u0124": 43234, "olina": 47908, "\u00e4\u00b8\u012f\u00e8\u00a2\u00ab": 59797, "\u0120fueled": 84333, "\u0120\u00ce\u00bd": 95174, "\u0120granite": 33772, "\u0120Gig": 35971, "\u0120worthless": 51675, "snapd": 84715, "MPI": 97875, "\u0120gen": 4404, "Cre": 15800, "mur": 29551, "manufact": 49526, "\u0120mundials": 89686, "\u0120\u00d0\u00a6\u00d0\u00b8": 53506, "\u00e4\u00bd\u013e\u00e4\u00b8\u00ba\u00e4\u00b8\u0122\u00e6\u00ac\u00be": 94767, "ston": 7659, "\u00e5\u0124\u00a8": 12682, "\u0120LDA": 96542, "\u0120Fever": 80670, "\u0120necessities": 54638, "\u0120farming": 31319, "\u00e6\u012d\u00be": 34114, "\u0120felt": 4749, "\u0120mule": 54313, "\u00e4\u00b8\u0143\u00e7\u00be\u0130": 57546, "ystyle": 38987, "\u0120wrinkles": 52030, "\u0120marge": 54068, "Compilation": 57985, "\u00e9\u013c\u00be\u00e7\u0124\u00b9": 67619, "\u0120despeses": 92824, "\u0120Contractors": 69796, "\u0120HELP": 78655, "image": 5481, ":\\,": 88287, "\u0120React": 18843, "\u0120urgent": 31958, "........": 10024, "\u00e8\u012c\u00b1\u00e7\u0136\u0141": 41893, "establiment": 60187, "\u0120does": 1217, "\u0120publishes": 75146, "\u0120Raspberry": 38775, "\u0120Philly": 86456, "\u0120\u00d0\u0133\u00d1\u0122\u00d1\u0130": 91368, "gren": 64795, "\u00e5\u00b7\u00a5\u00e4\u00bc\u00a4": 43136, "\u0120pitched": 43296, "\u0120opposition": 18164, "Jy": 60065, "\u0120vi": 3245, "\u00e5\u0127\u012b": 3388, "\u00e9\u0125\u012c": 44637, "\u0120\u00d1\u0126\u00d0\u00be\u00d1\u0124\u00d0\u00be": 54945, "\u0120twin": 26900, "Ours": 85987, "profitable": 93359, "ydia": 39490, "\u0120budgets": 42738, "ett": 9829, "\u00e6\u00b3\u0137\u00e8\u00a7\u0126": 29989, "\u0120solitary": 33896, "function": 3361, "\u00e9\u0143\u0127\u00e6\u0139\u0131": 80064, "\u0120CS": 15648, "\u0120Too": 26322, "\u0120disgr": 72267, "\u00e4\u00b8\u0122\u00e5\u0143\u00a3\u00e5\u00ba\u00a6": 67154, "\u0120bald": 51676, "\u0120axial": 47441, "\u0120wish": 4796, "\u0120ankles": 79634, "Jac": 29477, "\u0120assail": 65578, "\u0120vig": 13409, "Sing": 14674, "\u0120parch": 59550, "\u0120seconds": 7661, "whose": 26855, "\u0120Freeman": 55158, "\u00e5\u00ae\u00a4\u00e5\u00a4\u0138": 65862, "\u0120exporting": 56055, "Editorial": 82614, "\u0120rp": 83731, "elihood": 16077, "Vehicle": 64934, "idirectional": 97591, "\u00e5\u00bd\u00b1\u00e8\u00a7\u0128\u00e5\u012b\u00a7": 98947, "\u0120fax": 46148, "perate": 51088, "ODY": 39182, "UIC": 62904, "\u0120Specialists": 88654, "\u0120voted": 23702, "\u0120Fert": 97377, "buttonElement": 72058, "\u00e6\u013e\u012f": 2699, "\u0120passage": 13108, "\u00e9\u00bc\u0142\u00e6\u0142\u0129": 84377, "\u00e5\u0143\u00a9": 2947, "\u0120RESET": 95062, "joy": 3267, "\u0120\u00d0\u00b8\u00d0\u00b7\u00d0\u00ba\u00d1\u0125\u00d1\u0123\u00d1\u0124\u00d0\u00b2\u00d0\u00be\u00d1\u0124\u00d0\u00be": 70498, "flu": 12909, "\u00e5\u0131\u013a\u00e6\u012a\u0132": 18623, "Conversation": 95112, "\u0120factions": 70368, "\u0120DATABASE": 41901, "\u0120joventut": 62287, "\u00e6\u0136\u00b6\u00e9\u013d\u0128": 32917, "\u00e6\u00b5\u0130\u00e5\u012f\u0139": 40798, "\u0120Comments": 20789, "SOR": 75812, "\u00e6\u00b5\u013b": 18132, "\u0120cust": 23230, "\u00b4": 112, "underline": 11254, "rates": 29022, "\u0120mund": 45147, "\u0120usages": 58702, "\u0120\u00d0\u00b8\u00d0\u00b7\u00d0\u00b3\u00d1\u0122\u00d0\u00b0\u00d0\u00b4\u00d0\u00b5\u00d0\u00bd\u00d0\u00b0": 84655, "inset": 93236, "msdn": 95779, "Cls": 92346, "\u0120\u00d0\u00be\u00d0\u00b7\u00d0\u00b2\u00d1\u0125": 81190, ">)": 25129, "\u00d0\u00b2\u00d0\u00b0\u00d0\u00bd": 10230, "oser": 36541, "\u0120\u00d0\u00bb\u00d1\u0130\u00d0\u00b1\u00d0\u00be": 38021, "\u0120Politics": 43534, "substr": 41202, "ercus": 73729, "mathcomp": 68943, "\u0120cita": 69175, "\u00e7\u00bb\u0131\u00e6\u00b5\u0130\u00e5\u00a2\u0140\u00e9\u0137\u00bf": 61520, "\u00e7\u013c\u0126\u00e9\u0129\u0133": 74285, "\u0120\u00d0\u00be\u00d0\u00b1\u00d1\u0122\u00d0\u00b0\u00d1\u0124\u00d0\u00bd\u00d0\u00be": 75165, "AGA": 92651, "cra": 28347, "\u0120Lai": 76620, "\u0120\u00d0\u00b4\u00d0\u00b5\u00d1\u0124\u00d1\u0123\u00d0\u00ba\u00d0\u00b8": 90575, "spoken": 42114, "\u00e8\u00bd\u00a6\u00e5\u0130\u00a2": 78069, "Tools": 30156, "\u0120advant": 5959, "its": 1046, "\u00e9\u0122\u0128": 18068, "\u0120cient": 20329, "RENT": 25622, "umbs": 33226, "\u00e6\u00b9\u0138\u00e4\u00ba\u00ba": 45318, "asset": 32889, "\u00e6\u013d\u00b4\u00e5\u00bf\u00ab": 56937, "\u0109y": 74066, "\u0120trob": 14212, "\u0120Joel": 41016, "\u0120stereotyp": 86603, "\u0120cream": 11116, "\u0120efectes": 33190, "\u0120Json": 27740, "\u00d0\u00bd\u00d0\u00b0\u00d1\u0122": 26726, "\u0120traffic": 9182, "\u00e6\u0143\u012e\u00e6\u012b\u012d": 44879, "\u0120idiot": 47672, "\u00e7\u013d\u00b8\u00e8\u00be\u0125": 69258, "\u0120redireccion": 95132, "\u0120Want": 29366, "joice": 43289, "\u0120REC": 63985, "\u0120reporter": 29405, "\u0120Webb": 59567, "},~\\": 85181, "Adult": 96442, "\u00e5\u0127\u012b\u00e8\u00be\u012b": 97479, "\u0120imparted": 87350, "\u0120impressi": 92873, "ostom": 93325, "\u0120interpreting": 55242, "Thom": 65735, "\u0120murderous": 82665, "\u0120hailed": 56778, "\u0120\u00d0\u00a8\u00d0\u00b0\u00d1\u0122": 65351, "\u0120Spaniards": 41423, "fmf": 83264, "****************************************": 91698, "\u00e6\u012b\u0122\u00e5\u0143\u00a6\u00e6\u0142\u00a1": 98832, "\u0120Wolver": 72458, "\u0120kind": 2447, "\u0120Pers": 15468, "\u0120\u00d1\u0123\u00d0\u00bc\u00d1\u012c\u00d1\u0122\u00d1\u0124\u00d1\u0124\u00d0\u00b0": 27819, "geo": 26664, "asch": 87099, "chin": 42509, "\u0120Executive": 18438, "\u0120unconditional": 68366, "\u00e5\u0128\u0142": 8638, "\u0120ooz": 99536, "\u00e6\u012a\u0133\u00e4\u00b9\u0141": 27884, "\u0120illustrative": 69335, "bugs": 38767, "\u00e7\u00bb\u00b5": 27930, "\u0120located": 6286, "\u0120Box": 14465, "\u00e5\u00b0\u00b1\u00e6\u013a\u00af\u00e4\u00b8\u0122\u00e4\u00b8\u00aa": 39032, "\u00e8\u00af\u0137\u00e7\u013f\u0122": 77477, "\u0120pandemic": 33299, "alumno": 80383, "\u0120BAS": 35477, "Numerical": 58003, "\u00e7\u0131\u0143\u00e7\u00ba\u00a7": 52400, "\u0120reinterpret": 60194, "\u0120tummy": 86671, "\u0120cantons": 96825, "\u0120sobreviure": 62763, "\u0120Republicana": 83296, "\u00e6\u012b\u0135\u00e8\u00bd\u00a6": 93131, "\u0120incline": 79415, "\u0120\u00d1\u0123\u00d1\u012c\u00d1\u012b\u00d0\u00b0\u00d1\u0124\u00d0\u00b0": 35089, "\u00e6\u012b\u00ab\u00e9\u00bb\u0133": 44361, "\u0120tinent": 52847, "\u0120immob": 30931, "\u00e4\u00ba\u012d\u00e4\u00b8\u013c\u00e5\u012f\u0137\u00e4\u00bd\u012f": 41476, "\u00e8\u00be\u0125\u00e5\u00bc\u00ba": 78306, "\u0120\u00d0\u00a1\u00d1\u0124\u00d0\u00b0\u00d0\u00bd": 73408, "animals": 44873, "\u0120Musical": 42623, "\u0120traductor": 82121, "_{[\\": 87038, "\u00d0\u00bf\u00d0\u00b5\u00d1\u0122\u00d0\u00b0": 21427, "\u00e4\u00b8\u0143\u00e7\u013c\u0126\u00e4\u00b8\u0122": 82294, "\u0120grandmother": 28461, "\u0120seated": 21928, "\u00e7\u012d\u00ac\u00e7\u012b\u00b9\u00e7\u013c\u0126": 33639, "jas": 36919, "\u0120\"__": 54581, "raining": 37161, "arxiu": 73541, "\u0120Dependency": 74946, "\u0120assumptions": 17325, "\u0120charge": 5361, "\u0120duplicate": 23619, "\u00d0\u00b6\u00d0\u00b4\u00d0\u00b0\u00d0\u00b2\u00d0\u00b0": 34423, "\u0120feix": 56706, "isement": 91687, "absolute": 34623, "\u0120EPA": 44426, "\u0120misery": 29999, "\u0120ap": 631, "\u0120Massachusetts": 19963, "}$;": 39025, "\u0120separada": 78968, "ave": 1148, "\u0120t": 244, "\u0120Kubernetes": 84285, "laboraci": 34216, "\u00e5\u013d\u013d\u00e6\u013e\u012a": 90482, "rails": 55256, "\u0120atract": 82112, "\u0120maple": 46726, "\u0120emission": 12849, "\u0120PIN": 42437, "apl": 75141, "Sigma": 6391, "\u0120Cervera": 76930, ">&": 6118, "oths": 98527, "\u00d1\u0128\u00d1\u0125": 43241, "\u0120noblest": 71322, "\u0120que": 646, "\u00e8\u00af\u013f": 3082, "\u0120Reynolds": 37925, "\u0120MC": 15363, "ashi": 28534, "\u0120tetra": 56211, "\u0120\u00d0\u00bc\u00d0\u00b0\u00d0\u00ba\u00d1\u0123\u00d0\u00b8": 57868, "\u00e5\u00b8\u013e": 68367, "\u0120Sustainability": 75228, "\u0120intent": 6699, "\u0120adoptar": 52159, "\u00d1\u0129\u00d0\u00b5\u00d0\u00bb\u00d0\u00be": 53080, "\u00e6\u00bc\u0135": 58033, "\u0120filles": 62387, "\u00d0\u00b3\u00d1\u0122\u00d0\u00b0\u00d0\u00bd": 62856, "\u00d0\u00bc\u00d0\u00b0\u00d0\u00bb\u00d0\u00ba\u00d0\u00be": 51076, "\u0120competition": 11105, "\u0120parametrization": 69788, "\u0120silicone": 58689, "\u0120Zn": 92774, "\u0120singles": 24452, "\u0120oily": 63419, "\u0120transformaci": 62019, "\u0120tensor": 13478, "NES": 90493, "USART": 78621, "\u00e7\u013c\u0126\u00e7\u00b2\u012b\u00e4\u00b8\u013f": 84241, "\u00d0\u013d\u00d0\u00b8\u00d1\u0129\u00d0\u00bd\u00d0\u00be\u00d1\u0123\u00d1\u0124\u00d0\u00b8": 59146, "shar": 78471, "Class": 3677, "balls": 34245, "presented": 54086, "\u0120RCA": 81384, "\u0120IND": 67314, "\u0120Neon": 88538, "\u00e4\u00b8\u012f\u00e4\u00ba\u012a": 50295, "existence": 34091, "GetType": 53213, "\u0120bypass": 30320, "itori": 68677, "\u0109\u0109\u0109\u0109\u0109\u0109\u0109\u0109\u0109\u0109\u0109": 36269, "Cheap": 79246, "\u00d1\u0123\u00d0\u00b5\u00d1\u0122": 37410, "\u0120Audrey": 71584, "\u0120completion": 16029, "\u0120bright": 6464, "\u0120personnel": 23071, "\u00e7\u00bb\u0143": 3835, "laboradors": 82390, "\u0120meditating": 99404, "\u00ec\u0140": 48848, "Wo": 88146, "\u0120winery": 81841, "\u0120Alexander": 19010, "ources": 2905, "\u0120delight": 9175, "\u0120vamos": 85031, "ymen": 59654, "\u00d1\u0123\u00d0\u00be\u00d0\u00b2\u00d0\u00be": 52544, "\u0120deterg": 67595, "inement": 38792, "Emily": 70274, "lbs": 61103, "\u00e8\u00af\u012a\u00e9\u00aa\u0139": 32083, "\u0120ipad": 79311, "\u0120barcode": 79413, "\u0120\u00d0\u00b8\u00d0\u00bc\u00d0\u00b0": 6919, "\u00e4\u00ba\u00ba\u00e8\u00a1\u012e": 85369, "\u0120\u00d0\u00bf\u00d1\u0122\u00d0\u00b8\u00d0\u00b4\u00d1\u0122\u00d1\u0125": 94989, "\u0120quickest": 68695, "\u0120judicial": 29721, "vit": 37271, "Compile": 57206, "\u0120\u00d0\u00bc\u00d0\u00b5\u00d0\u00b6\u00d0\u00b4\u00d1\u0125\u00d0\u00bd\u00d0\u00b0\u00d1\u0122\u00d0\u00be\u00d0\u00b4": 66312, "\u0120siendo": 82162, "\u00e6\u012f\u012b": 39835, "urea": 39208, "\u0120LU": 50827, "\u0120Sask": 57712, "\u0120Cape": 22398, "\u00e6\u013e\u012b\u00e6\u0126\u0131": 60724, "\u0120revisit": 61313, "fname": 66630, "\u00e6\u013f\u0133\u00e5\u00b9\u00b2\u00e9\u0125\u00a8": 85157, "\u0120polymers": 88959, "\u00e7\u0127\u00a7\u00e6\u0142\u00b7": 91304, "~~~~~~~~~~~~~~~~~~~~~~~~~~~~~~~~": 98127, "\u00e8\u00a5\u00bf\u00e7\u0135\u013e": 49979, "\u00e8\u00b7\u0141\u00e7\u013f\u0122": 27720, "\u00e4\u00b8\u012c": 816, "\u00d1\u0125\u00d0\u00bb\u00d0\u00b8": 92204, "tfrac": 19676, "\u0120Error": 9293, "\u00e5\u0127\u012b\u00e6\u00bb\u0133": 64474, "\u00e9\u00a9\u00bc": 68812, "\u00e4\u00bd\u0142\u00e6\u0122\u0130\u00e4\u00b9\u012a": 57221, "[]\"": 72346, "\u0120disconcert": 84154, "anea": 85739, "\u0120aptly": 95342, "\u00e7\u00bb\u00a7": 6563, "\u0120challenges": 10694, "*>": 50874, "\u00d1\u0122\u00d0\u00b0\u00d0\u00b4": 54849, "\u0120Vikings": 68899, "\u00e8\u012c\u013b\u00e8\u0135\u012b": 81990, "\u0120contrace": 88844, "\u0120Ether": 99777, "ceph": 47527, "uels": 98599, "ieve": 2471, "aru": 40422, "\u0120margin": 7037, "\u00e6\u0139": 552, "jack": 17839, "\u0120infinit": 33442, "stro": 54766, "ijn": 62084, "administration": 81393, "TIP": 46497, "INESS": 62693, "\u0120banana": 41482, "\u0120googling": 68483, "\u0120aprop": 66279, "\u0120bacterial": 52596, "\u00e7\u0130\u00b0\u00e5\u00ae\u0140\u00e7\u013c\u0126": 83690, "\u0120anthology": 95512, "\u0120Vacc": 81279, "\u0120SMBus": 87028, "\u00e5\u0131\u00aa\u00e8\u00a6\u0123": 9395, "\u00e9\u00be\u013b\u00e6\u00b1\u0141": 46997, "QT": 52383, "stubs": 89621, "\u0120ministres": 81237, "\u0120Monthly": 49771, "\u0120ART": 50608, "loud": 69446, "\u0120Coconut": 72002, "SAM": 65961, "\u0120\u00d0\u00bb\u00d1\u0130": 27122, "\u0120breeds": 51480, "\u0120predictors": 87180, "\u00e4\u00b8\u00bb\u00e5\u00b8\u0127": 77818, "\u0120Quix": 90851, "\u0120confess": 17012, "\u0120brav": 40428, "ayers": 95052, "\u00e9\u0141\u0143\u00e8\u0131\u013e": 63556, "\u00e9\u00a6\u0128": 9037, "\u0120confirm": 9143, "randr": 51058, "\u0120\u00d0\u00b8\u00d0\u00b7\u00d0\u00b1\u00d1\u0122\u00d0\u00b0": 68785, "\u0120encode": 30899, "\u0120Speak": 56240, "\u00e6\u0131\u0132\u00e9\u0128\u0134": 18419, "\u0120Dues": 76920, "\u0120Zoo": 44203, "esqu": 21009, "almirall": 89896, "isNaN": 91654, "\u0120\u00d0\u013b": 10647, "Glyph": 86862, "ourn": 4320, "\u0120Alto": 57867, "\u0120russos": 40503, "\u0120Wellington": 44741, "\u0120Protect": 35625, "\u00e8\u00a7\u0124\u00e5\u0127\u012b": 60676, "\u0120steed": 78530, "\u0120wipes": 82795, "\u0120hanged": 56268, "\u0120indicator": 19405, "\u00e4\u00bf\u00ae\u00e5\u0127\u00bb": 59861, "\u0120dancing": 20501, "jn": 46016, "astres": 62060, "\u00e4\u00b8\u012f\u00e7\u00a8\u00b3\u00e5\u00ae\u013c": 82827, "\u00d1\u0122\u00d0\u00b8\u00d1\u0131\u00d1\u0124": 62296, "\u0120undocumented": 85695, "\u0120shopping": 11429, "\u0120singing": 17003, "\u0120ostr": 86216, "Commerce": 42988, "\u00e5\u0132\u012e\u00e6\u0139\u00b6\u00e5\u013e\u00a8": 87402, "\u00e5\u00b0\u0128\u00e4\u00b8\u0130": 90905, "\u0120tractament": 35690, "\u0120complexes": 39808, "\u0120wreck": 34155, "\u0120emphasized": 44939, "\u0120warranted": 70841, "\u0120riders": 33819, "hopefully": 80343, "Protected": 94732, "\u00e8\u00ae\u00a9\u00e5\u00ae\u013f\u00e5\u00ae\u013f": 99117, "\u0120\u00d1\u0126\u00d0\u00b0\u00d0\u00b9": 79382, "._--": 29724, "\u0120flawlessly": 81606, "CTS": 73521, "\u0120repre": 98360, "\u0120Atkins": 91725, "\u0120chats": 80247, "\u0120unbearable": 91422, "\u0120mama": 64692, "\u0120BlackBerry": 71922, "xec": 93287, "\u0120Judicial": 82163, "/+": 33112, "\u0120Catalogue": 46133, "\u00e8\u00af\u0139\u00e8\u00af\u012f": 68863, "twist": 82968, "\u0120Beef": 62483, "ulating": 13353, "\u0120postage": 61268, "\u0120preservation": 35361, "rington": 34568, "\u0120obstruct": 52580, "\u0120representations": 17603, ")\">": 20004, "\u00e8\u00b4\u00a8\u00e6\u0126\u0141": 51615, "\u00d1\u0124\u00d0\u00b0\u00d0\u00bd": 13994, "sica": 8744, "\u0120Pick": 22982, "\u0120writers": 14778, "\u00e8\u0133\u00ab": 69398, "SZ": 75673, "\u0120edits": 55584, "\u0120orig": 2425, "\u0120Ricky": 82840, "\u0120wildest": 82832, "\u0120curate": 85594, "\u0120estatus": 87141, "\u0120\u00d1\u0123\u00d1\u0124\u00d1\u012c\u00d0\u00bb": 88042, "\u0120\u00d0\u00b3\u00d0\u00b0\u00d0\u00bb\u00d0\u00b5\u00d1\u0122\u00d0\u00b8\u00d1\u0131": 89784, "laughter": 59387, "\u0120nacionalisme": 97418, "\u00e7\u00aa\u0139\u00e6\u012a\u00b7": 57967, "\u0120stationed": 53215, "swear": 97510, "abus": 54718, "\u00d0\u00bb\u00d1\u0131\u00d1\u0124": 19259, "\u0120Known": 56715, "\u00d0\u00bc\u00d0\u00b5\u00d0\u00bd\u00d0\u00b8\u00d1\u0131": 83126, "\u00e5\u013d\u00a4": 91063, "\u00e6\u012a\u0133\u00e4\u00bb\u00ac\u00e5\u00af\u00b9": 69477, "\u0120\u00d1\u0123\u00d0\u00b3\u00d1\u0122\u00d0\u00b0": 28811, "\u0120Squ": 32360, "altColor": 36457, "\u00e5\u0141\u00ba\u00e6\u013e\u00ac\u00e4\u00b8\u012c": 25014, "ORGE": 65098, "Priority": 31599, "bugzilla": 92624, "\u0120eliminar": 29498, "\u0120Soler": 57179, "\u00e8\u012d\u0141": 69306, "\u00e6\u00b4\u00bd\u00e8\u00b0\u012a": 87681, "q": 80, "\u00e7\u00b4\u00ab": 15397, "avian": 49933, "Rev": 9872, "inosa": 74055, "RecordedVote": 84405, "\u00e7\u013d\u00b8\u00e5\u0132\u012e": 22447, "Draft": 85619, "Mov": 30064, "\u0120percentages": 68450, "\u0120lista": 13293, "\u00e7\u00a7\u0123\u00e5\u00ae\u00b6": 89862, "dtd": 36795, "\u00e6\u0142\u00b7": 1912, "\u0120\u00d0\u00ba\u00d1\u0122\u00d0\u00b0\u00d0\u00b9": 13763, "\u0120branc": 13064, "\u00e4\u00b8\u0122\u00e9\u0123\u0135": 42961, "\u0120PRI": 73526, "keep": 18323, "\u0120Trees": 55500, "door": 8569, "}$.}": 58469, "\u00e4\u00b8\u0129\u00e4\u00b8\u00aa": 63703, "\u00e7\u00a9\u00ba\u00e7\u013b\u00bd": 63776, ",..": 85951, "\u00e5\u012e\u00ba\u00e5\u0141\u0141": 12708, "hug": 89550, "\u00e4\u00b9\u0141\u00e6\u013e\u012b\u00e4\u00ba\u00ba": 84695, "\u0120Medicaid": 46197, "\u0120Friendly": 54819, "\u0120parish": 28153, "\u0120walkers": 90233, "UNUSED": 91854, "\u00e7\u00a8": 1730, "\u0120Oro": 62643, "\u0120fran": 47841, "\u00e7\u013c\u0126\u00e5\u013e\u00b0\u00e6\u0138\u00b9": 13503, "\u0120lords": 41785, "\u0120Interaction": 81333, "\u00e7\u012b\u00a2\u00e8\u00ae\u00b0\u00e4\u00bd\u00bf\u00e5\u0133\u00bd": 82569, "\u0120video": 3914, "\u0120Bond": 25588, "Sl": 11235, "\u0120jump": 12717, ">>>": 31077, "_.--": 62424, "\u0120HUD": 72657, "maskFromRange": 78404, "\u0120adequat": 88801, "\u0120electors": 89167, "\u00e4\u00b8\u0143\u00e5\u012f\u0139": 89174, "\u0120AAC": 82857, "\u0120Photo": 19412, "\u00e8\u00b5\u013d\u00e5\u0132\u0130": 80324, "\u0120creating": 6817, "\u0120distraction": 57391, "\u00e9\u00bb\u0126\u00e6\u00b2\u00b9": 89796, "\u0120cryptocur": 37309, "\u00ce\u00b8": 39483, "\u00e4\u00b8\u0143\u00e5\u0140\u012d": 67288, "ttf": 68178, "\u0120enchantment": 80903, "\u0120hammer": 30519, "scula": 91863, "\u0120Milano": 74209, "\u00d1\u0122\u00d0\u00b0\u00d0\u00bd\u00d0\u00b0": 28208, "\u00d1\u0129\u00d0\u00b8\u00d1\u0124\u00d0\u00b5\u00d0\u00bb": 14116, "name": 1531, "constitution": 46986, "\u0120celebrations": 48436, "\u0120Kw": 69209, "Offsets": 87718, "\u0120disapproval": 93538, "Elements": 17719, "\u0120>": 1879, "\u0120perturbations": 31472, "segu": 9353, "\u0120antigues": 40613, "\u0120forces": 8271, "rij": 84820, "\u0120scheduler": 45664, "llat": 61119, "\u0120Mun": 25013, "Organization": 56446, "\u0120Charlie": 24762, "\u0120\u00d1\u0123\u00d1\u012c\u00d1\u012b\u00d0\u00b8\u00d1\u0131": 59517, "itime": 64394, "\u0120\u00d0\u0137\u00d0\u00bb\u00d0\u00b8": 83988, "\u00e4\u00b8\u0143\u00e9\u0122\u0136": 86810, "\u0120diverge": 87536, "\u00e8\u0122\u00b3\u00e9\u00b8\u00a3": 95262, "\u0120\u00d0\u0133\u00d0\u013c\u00d0\u0141": 60728, "\u0120Pediatric": 97003, "\u0120cotxe": 57611, "AML": 44490, "ACING": 38074, "\u0120compiz": 56205, "spatial": 48155, "\u0120plea": 46038, "\u0120Types": 39799, "\u0120popcorn": 66501, "\u0120bargains": 84137, "\u00ce\u00b7": 21317, "NASDAQ": 84687, "\u0120unbound": 94262, "\u00d1\u0124\u00d1\u0122\u00d1\u0125": 16960, ":[": 21871, "transmission": 80882, "ongue": 58018, "\u00e4\u00ba\u00ba\u00e9\u013b\u0127": 68266, "proving": 47797, "\u0120clown": 67878, "Loading": 30853, "\u0120loved": 7130, "\u0120RICH": 92330, "\u00e9\u0135\u00be": 11223, "\u0120Bh": 31020, "\u00e8\u00ae": 640, "\u0120extensions": 17341, "Farm": 68999, "\u0120Janice": 94399, "\u00e6\u0141\u0135\u00e8\u012b\u00b2": 95523, "\u0120mest": 34297, "\u0120Very": 15429, "\u0120maneu": 46854, "\u0120salvation": 32229, "\u0120entiendo": 47902, "\u00e5\u0129\u0142\u00e5\u00b9\u00b4": 18319, "\u00e5\u0130\u012d\u00e6\u012c\u0133": 65934, "\u0120expos": 9931, "\u0120atorg": 30665, "\u0120Seems": 49366, "Del": 12979, "\u00e5\u0134\u012e\u00e5\u00a5\u00b9": 67626, "\u0120vbox": 85340, "\u0120U": 577, "\u0120Clair": 67916, "Hugh": 85873, "\u0120\u00d0\u00b2\u00d1\u0123\u00d1\u012c\u00d1\u012b\u00d0\u00bd\u00d0\u00be\u00d1\u0123\u00d1\u0124": 90154, "DESCRIPTION": 59258, "\u0120\u00d0\u00bf\u00d1\u012c\u00d1\u0122\u00d0\u00b2\u00d0\u00b5\u00d0\u00bd\u00d1\u0123\u00d1\u0124\u00d0\u00b2\u00d0\u00be": 44012, "Armada": 95810, "\u00e4\u00b9\u0136": 22267, "\u00e4\u00be\u013d\u00e7\u0125\u0143": 97702, "\u0120ret": 2642, "TAIN": 51310, "igation": 5218, "UserID": 94135, "\u0120Hearing": 63090, "\u0120Pull": 37589, "\u00e8\u00a3\u0127\u00e7\u00bd\u00ae": 36097, "\u0120Chuck": 44883, "\u0120warranty": 22375, "gpg": 37406, "\u0120hesitate": 27321, "journals": 57210, "\u00e5\u00ae\u00bf\u00e8\u012a\u012f": 44044, "\u0120enjo": 25577, "histori": 60015, "\u0120markets": 12495, "\u0120Gine": 68022, "\u0120Dealer": 78058, "Include": 39191, "Andorra": 66341, "\u00e5\u0134\u012e\u00e6\u013e\u012d\u00e5\u0131\u012d": 86465, "\u00d1\u0129\u00d0\u00b5\u00d1\u0123\u00d0\u00ba\u00d0\u00be": 26054, "Engine": 19542, "\u0120Lead": 13088, "\u0120\u00d0\u00bf\u00d0\u00be\u00d1\u0122\u00d0\u00b5\u00d0\u00b4\u00d0\u00b8": 45853, "\u0120sm": 1161, "balanced": 36353, "\u0120surrogate": 57591, "\u00e7\u012b\u012a\u00e8\u00bd\u00a6\u00e5\u0140\u012d": 83689, "\u0120Mid": 14306, "\u00e4\u00b8\u0122\u00e7\u00b1\u00bb": 80906, "\u00d0\u00b4\u00d0\u00b5\u00d0\u00bd": 4755, "\u0120crou": 51669, "Spatial": 57149, "\u0120recerca": 26469, "\u0120here": 1285, ")}": 2866, "route": 21859, "Hall": 42572, "pkg": 13305, "\u0120dumpsters": 65821, "fuel": 78675, "\u00e5\u0131\u00ab\u00e6\u012a\u0133": 99412, "\u00e4\u00b8\u013e\u00e5\u012f\u0139\u00e4\u00ba\u013c": 66509, "\u0120branched": 84548, "hew": 48908, "\u00e6\u012c\u0139\u00e7\u0138\u00ab": 61084, "\u00e7\u013c\u0126\u00e6\u0138\u00b0\u00e9\u0139\u00bb": 66178, "\u0120digits": 33325, "Actor": 48123, "\u00d0\u00b8\u00d0\u00bc\u00d0\u00be": 56052, "({'": 66946, "\u0120projecci": 75322, "thor": 68365, "\u00e4\u00bb\u0130\u00e4\u00b8\u00a5": 68052, "Screen": 20874, "\u0120inclouen": 33532, "\u0120gfx": 49628, "\u0120mental": 10614, "\u0120sharply": 29731, "\u00e7\u00a6\u00bb\u00e5\u00ae\u00b6": 89543, "solid": 25960, "placed": 28361, "svc": 68626, "\u0120geology": 82303, "becoming": 69776, "\u0120produir": 20626, "Around": 57435, "istor": 34479, "\u0120fabricants": 94412, "\u0120\u00d0\u00b2\u00d0\u00bb\u00d0\u00b5": 75300, "\u00e5\u0132\u0133\u00e5\u00a4\u0138": 78430, "\u00e6\u00bb\u00a1\u00e6\u0126\u0131": 22102, "\u0120Tuesday": 10985, "auses": 17632, "\u00c2\u0143\u0120": 78878, "\u00e7\u0141\u013d\u00e7\u013d\u00be": 23618, "\u0120mechanics": 26473, "\u00e5\u013f\u00a4": 37428, "\u0120ReLU": 90148, "atan": 54211, "\u0120}}\"": 70108, "attention": 29733, "plusplus": 80780, "Titulo": 81721, "bur": 8743, "\u0120\u00d0\u00b7\u00d0\u00b0\u00d0\u00b2\u00d1\u012c\u00d1\u0122": 46516, "\u00e5\u0137\u0128\u00e9\u0129\u0131": 67277, "ene": 3043, "\u0120llave": 83723, "\u0120Bac": 39610, "\u0120upholst": 44198, "\u00e6\u013e\u012b\u00e5\u0131\u00af\u00e8\u0125\u00bd": 30160, "\u00e5\u00a5\u00b3\u00e6\u0122\u00a7\u00e7\u013c\u0126": 54007, "cote": 87739, "\u00e8\u00b6\u012c\u00e5\u0131\u0133": 95899, "\u0120calendar": 16520, "bourne": 21010, "\u00e5\u00a1\u0140": 14686, "\u00e5\u0128\u0127\u00e9\u0125\u00a8": 17843, "Vi": 50530, "\u0109\u0109\u0109\u0109\u0109\u0109\u0109\u0109\u0109\u0109\u0109\u0109\u0109": 64045, "Nik": 69931, "\u0120cip": 41977, "XS": 78656, "\u0120\u00d0\u00bd\u00d0\u00b0\u00d1\u0122\u00d0\u00be\u00d0\u00b4\u00d0\u00bd\u00d0\u00be": 76418, "\u00d0\u0134\u00d0\u00b0\u00d1\u0122": 80446, "HOST": 32327, "usuari": 53117, "\u0120tourists": 30778, "\u0120THAN": 77888, "/$": 27385, "\u0120levy": 76412, "}^*": 14362, "{{": 9623, "ariance": 79854, "lx": 60320, "DOS": 64630, "irable": 14928, "\u0120stripped": 38492, "{}": 8994, "sv": 10459, "\\\",\\\"": 93442, "\u0120supply": 5149, "\u00e6\u0142\u0129\u00e5\u0129\u0128": 7992, "\u0120convict": 55214, "\u0120gastro": 60137, "\u00e6\u0138\u0143\u00e8\u00a3\u0124": 88715, "oph": 4615, "df": 3944, "\u0120brand": 6243, "anean": 26670, "\u0120Wars": 22392, "\u0120von": 11212, "cis": 40972, "\u0120Veronica": 75626, "\u0120aproximadament": 29598, "edly": 14078, "\u00d1\u0129\u00d0\u00bd\u00d0\u00b0": 11141, "Activ": 16158, "\u0120Christians": 20837, "puted": 82457, "\u00e5\u00ba\u0136\u00e6\u00b3\u00a8\u00e6\u0126\u0131": 84131, "\u0120mislead": 94242, "\u0120Resurrection": 98615, "\u0120sings": 48391, "\u0120quench": 76407, "\u0120genealogy": 78988, "\u0120FP": 26321, "\u0120\u00d0\u00bf\u00d0\u00be\u00d0\u00b5\u00d1\u0124\u00d0\u00b8": 73706, "\u0120\u00d1\u0126\u00d1\u0122\u00d0\u00b5\u00d0\u00bd": 23750, "\u0120hammered": 94201, "univers": 28841, "HH": 29012, "\u0120CONTRACT": 64685, "\u0120werden": 81522, "\u00e6\u0122\u00bb\u00e7\u013c\u0126\u00e6\u013f\u00a5\u00e8\u00af\u00b4": 85775, "depth": 15314, "\u0120\u00d1\u0122\u00d0\u00b5\u00d0\u00b2\u00d0\u00be\u00d0\u00bb\u00d1\u0130\u00d1\u0128\u00d0\u00b8\u00d0\u00be\u00d0\u00bd\u00d0\u00bd\u00d0\u00b0": 75490, "\u00e7\u0136\u013e\u00e7\u013c\u0126": 84064, "\u0120rowing": 76258, "Red": 11097, "><!--": 34882, "sof": 35241, "\u0120pronounce": 37610, "\u0120suprem": 33282, "wit": 58218, "Collections": 21662, "\u0120nutritious": 64435, "\u00d0\u00bd\u00d0\u00be\u00d0\u00b2\u00d0\u00b8\u00d1\u0129": 86932, "\u00e9\u00b9": 9369, "unders": 22412, "encion": 32455, "\u0120\\,,": 36053, "\u0120Prepare": 45797, "\u00e5\u00ae\u00b6\u00e9\u0129\u012e\u00e7\u013c\u0126": 52795, "\u00e4\u00b8\u012f\u00e5\u0132\u00ac": 81611, "askubuntu": 76988, "\u00e6\u0130\u00a2\u00e9\u013b\u00a9": 92780, "ould": 472, "Lazy": 59891, "\u0120Thursday": 10967, "\u0120Barton": 59384, "\u0120Whatever": 27760, "dfrac": 16404, "\u0120RK": 90362, "\u0120listop": 38801, "\u0120Apro": 54495, "\u0120angles": 13368, "\u0120Abdul": 60719, "majority": 80262, "ufact": 5010, "\u0120Ell": 12254, "\u0120tones": 21461, "animal": 44396, "\u0109[": 23541, "Reporter": 65521, "\u0120farmer": 25620, "\u0120reunions": 70186, "\u0120Grub": 38282, "\u0120DATEADD": 74318, "\u00e5\u00a2\u0140\u00e9\u00ab\u013a": 89169, "\u0120\u00d0\u00bc\u00d0\u00be\u00d0\u00b3\u00d0\u00b8": 92464, "\u0120crate": 63577, "\u00e7\u0132\u0125\u00e9\u013a\u0141": 16301, "\u0120Pulse": 45774, "\u0120viat": 29414, "Fern": 75475, "\u0120tolerated": 69625, "\u0120represent": 2564, "\u0120Realm": 77084, "\u00e8\u00b5\u0126\u00e6\u013e\u00ac": 15952, "\u0120Against": 37473, "\u0120modes": 11990, "\u0120pogut": 65682, "\u0120furs": 81870, "\u0120spills": 85384, "checked": 19712, "\u0120\u00d0\u0140\u00d1\u0126\u00d0\u00b8\u00d1\u0128\u00d0\u00b8\u00d0\u00b0\u00d0\u00bb\u00d0\u00b5\u00d0\u00bd": 41626, "\u00e4\u00bc\u013c\u00e5\u00bc\u0137\u00e8\u00b5\u00b7": 77414, "\u0120actionable": 80735, "\u0120Spider": 43601, "Descripcion": 68985, "Resource": 7914, "\u0120Engine": 10428, "neg": 11570, "WT": 43565, "eren": 21494, "HOW": 58758, "\u0120Lom": 79694, "\u0120Salam": 48806, "\u00e5\u0128\u0127\u00e7\u00bd\u00ae": 80714, "\u0120Austen": 83764, "\u0120auster": 80427, "\u0120Hulk": 93948, "\u0120\u00d0\u0137\u00d0\u00b3\u00d0\u00b5\u00d0\u00b9": 96132, "\u0120microbi": 70261, "\u00e7\u00ba\u00bd": 23974, "typedef": 20095, "\u0120Bak": 32482, "\u0120Ald": 25373, "\u0120trips": 20926, "asuring": 65913, "locker": 99631, "\u0120tints": 82449, "\u0120Astronom": 85347, "\u0120Clarendon": 97101, "\u0120Tos": 45884, "Paste": 59266, "\u00e4\u00ba\u00a7\u00e7\u0136\u0141": 9309, ")==": 88647, "constrained": 47656, "\u0120Nazis": 95572, "\u0120Minor": 33625, "\u0120senyors": 67219, "\u00e8\u012e\u0125\u00e7\u0137\u00b4": 73397, "\u0109k": 56390, "Forward": 34364, "fted": 67460, "\u0120Filipino": 72449, "\u00e9\u013d\u0137": 22486, "\u00e5\u0128\u012f\u00e7\u0136\u0141": 56190, "\u00e7\u00bb\u0128\u00e7\u00bb\u0128": 75285, "\u0120beaten": 26354, "subscriptions": 77249, "\u0120Monta": 79949, "\u0120Barrow": 92918, "\u0120scene": 8127, "ographed": 82567, "\u00e6\u013e\u012f\u00e5\u012c\u00a1\u00e5\u013b\u00a8": 59828, "\u0120Disorders": 85476, "\u0120Apollo": 42361, "\u0120Suffolk": 62129, "\u00e7\u012a\u00b1\u00e5\u00b0\u0136": 95395, "\u0120staples": 88671, "\u0120released": 7964, "etype": 46810, "\u0120Measurement": 73907, "\u0120doub": 21740, "\u00e4\u00bc\u0142\u00e6\u0130\u012a": 89072, "\u00e8\u00be\u012a\u00e5\u0143\u0132": 29536, "\u0120\u00d1\u0123\u00d0\u00bf\u00d1\u0122\u00d0\u00b0": 71906, "\u0120radiaci": 65325, "\u0120unusual": 15965, "\u00e6\u00af\u0136\u00e5\u0138\u00bb": 72451, "\u0120\u00d0\u00bc\u00d0\u00b0\u00d0\u00b3\u00d0\u00b0": 78365, "prior": 25152, "\u0120agree": 6991, "\u0120shri": 38123, "\u0120fellowship": 40799, "defeq": 90692, "\u00e6\u00af\u0131\u00e6\u013b\u013c": 94215, "INFO": 17911, "\u0120\u00d0\u00ba\u00d1\u0125\u00d0\u00bb\u00d1\u0124\u00d1\u0125\u00d1\u0122\u00d0\u00b0": 46150, "\u0120length": 3973, "\u0120chemicals": 27509, "\u0120Melissa": 50142, "\u00e7\u00ba\u00a2\u00e5\u0128\u013d": 64721, "\u0120')": 44061, "JDK": 70288, "\u00e8\u00bf\u013b\u00e5\u00ba\u00a7": 41520, "\u0120cambie": 85317, "\u0120Koz": 87323, "\u0120file": 1761, "\u00e8\u0132\u00bd": 4744, "\u00e4\u00bc\u0142\u00e6\u012b\u00bf": 29398, "\u0120hil": 38974, "\u00d0\u00b4\u00d1\u0122\u00d1\u0125": 48519, "\u0120cupboard": 55621, "\u0120Jackie": 58050, "\u0120misfortune": 41448, "fifth": 73195, "EventHandler": 47756, "\u0120AX": 58043, "\u00e4\u00b8\u0122\u00e6\u0142\u00b7": 6490, "\u0120fg": 78060, "xiom": 90528, "Balancer": 54996, "\u00e8\u00b4\u00b4\u00e5\u00a3\u00ab": 98817, "\u0120unittest": 98865, "\u00d0\u00b3\u00d0\u00bd\u00d0\u00b0\u00d1\u0124\u00d0\u00b8": 96467, "\u0120willingness": 42200, "\u0120urls": 64288, "\u0120Kemp": 75210, "\u0120aunque": 51248, "inceton": 40430, "mess": 37458, "feelings": 72125, "\u0120\u00d0\u00bf\u00d1\u0122\u00d0\u00b5\u00d0\u00bc\u00d0\u00b8\u00d0\u00bd\u00d0\u00b0": 26042, "otent": 38838, "\u0120degraded": 55933, "\u00e9\u00a6\u013b": 5548, "\u0120Forn": 85320, "\u0120funcional": 41808, "\u0120proximity": 30245, "\u00e5\u00ae\u00a4": 6539, "Trend": 78993, "\u00e7\u00aa\u00a5": 82551, "\u0120campament": 74512, "\u0120phr": 16430, "\u0120depression": 21296, "\u0120managing": 17191, "rives": 32140, "\u00e5\u00b0\u00b1\u00e5\u00bc\u0122\u00e5\u00a7\u012d": 31796, "\u0120VALIGN": 33448, "uple": 14520, "packaging": 71111, "guides": 78504, "\u0120embraces": 71419, "\u00e5\u00a4\u00a9\u00e7\u013e\u0141": 82025, "\u00e5\u0136\u00af\u00e4\u00b8\u0122\u00e7\u013c\u0126": 51185, "\u0120\u00d0\u00b0\u00d0\u00b1": 62172, "illity": 69280, "\u0120masculine": 57481, "\u0120Lay": 16025, "\u00e7\u00bd\u0133\u00e6\u0142\u00bc": 70723, "lac": 93857, "\u0120\u00d0\u00a3\u00d0\u00b8\u00d0\u00bb": 94319, "()>": 90938, "\u0120\u00d0\u00be\u00d0\u00ba\u00d0\u00be\u00d0\u00bb\u00d0\u00be": 12756, "\u0120bad": 3806, "\u0120NJ": 30204, "usercontent": 66626, "\u0120Mars": 20982, "\u0120peus": 45708, "\u0120\u00d0\u0137\u00d0\u00b2": 47139, "\u0120aes": 81171, "\u00d0\u00b5\u00d0\u00bb\u00d0\u00b8": 11184, "\u0109event": 70683, "\u0120Fond": 84956, "Jacob": 63478, "\u0120Pack": 8882, "\u0120warmth": 28739, "mechan": 42618, "mis": 24405, "cd": 2253, "\u00e6\u0132\u0143\u00e8\u00bd\u00bd": 23481, "\u0120objectes": 34873, "\u00e5\u0129\u00ba\u00e8\u00b5\u0126": 46848, "OTAL": 53958, "\u00e6\u00a8\u00a1\u00e8\u012e\u0125": 58387, "\u00c5\u0124": 28509, "\u0120dentists": 78741, "\u0120prescription": 21657, "\u00e4\u00b9\u0141\u00e5\u00af\u00b9": 80136, "\u0120\u00d0\u00b2\u00d0\u00b7\u00d1\u0122\u00d0\u00b8": 87673, "\u0120sem": 3876, "\u00e9\u0124\u00a3\u00e4\u00b8\u0122": 37659, "META": 64689, "\u0120promont": 97662, "\u0120independ": 4568, "model": 5655, "\u0120Scal": 26502, "\u0120repeats": 52940, "\u00e8\u012b\u00b2\u00e8\u00b0\u0125": 65990, "\u0120strength": 6313, "ubes": 57463, "\u0120acompanyar": 78692, "\u0120\u00d0\u00bf\u00d0\u00bb\u00d0\u00b0\u00d0\u00bd": 58428, "\u0120Vou": 85885, "\u0120cipriniformes": 87316, "\u00e4\u00b8\u012f\u00e5\u00a4\u00b1": 95625, "\u0120portat": 59560, "\u00e5\u0143\u0136\u00e9\u013d\u0122": 97384, "\u0120violaci": 97634, "\u0120predictive": 38675, "\u00e7\u00a1\u00ac\u00e7\u013c\u0126": 99398, "ards": 2550, "\u00e6\u013e\u0122\u00e5\u00a4\u00a7\u00e5\u012c\u0141\u00e7\u0130\u0129": 51210, "\u0120\u00d0\u00b1\u00d0\u00b8\u00d0\u00b2": 32437, "\u0120stre": 3251, "\u00e7\u00bc\u00b8": 34198, "\u0120mosfet": 65758, "\u0120dist": 1304, "\u00d0\u00b4\u00d0\u00b8\u00d1\u0124\u00d0\u00b5\u00d0\u00bb\u00d0\u00b8": 59636, "\u0120incomplete": 29444, "\u0120stealth": 48093, "\u00e5\u00ae\u00b6\u00e4\u00ba\u00ba": 18657, "Malgrat": 62826, "\u00e9\u013a\u00b6": 9208, "lab": 14932, "aneous": 13323, "MHz": 20037, "\u00e5\u00b9\u00b4\u00e7\u00ba\u00a7": 41229, "\u00e5\u0131\u012f\u00e6\u0122\u013f": 49921, "\u0120felony": 62416, "\u0120fluct": 15707, "piece": 17175, "TEMP": 34132, "\u0120\u00d0\u00b5\u00d0\u00b4\u00d0\u00b2\u00d0\u00b0": 51331, "\u0120paced": 59373, "ervers": 72066, "\u0120speculation": 37431, "\u0120competency": 82863, "Giving": 89803, "\u00e6\u013a\u00af\u00e9\u013f\u0140": 60642, "\u0120desarrollo": 91976, "\u0120robbers": 69736, "\u00e6\u013e\u0122\u00e5\u0127\u012a": 92290, "\u0120actiu": 44356, "\u00e5\u00b0\u00b1\u00e8\u00b7\u0141": 87007, "ynamics": 26908, "Ne": 10522, "dictionary": 36574, "LINK": 38442, "\u00e9\u013a\u00bf": 7277, "\u0120assuring": 76606, "\u0120structure": 4327, "\u0120elapsed": 39334, "\u0120Forma": 65834, "\u00e4\u00bb\u0138\u00e5\u00b0\u00b1\u00e6\u013a\u00af": 73919, "erect": 83799, "\u0120enlargement": 73171, "\u00e5\u0141\u0130\u00e9\u0137\u0129": 34537, "clamp": 91326, "\u0120newer": 19020, "\u0120Slater": 93575, "azole": 87241, "bearer": 94298, "\u00e6\u0142\u00b8\u00e5\u00bf\u0125": 12257, "\u0120sucking": 72775, "\u0120Twe": 86344, "\u00e8\u00bd\u00a6\u00e8\u00bd\u00ae": 94561, "pand": 70171, "\u00e9\u013a\u00b1": 67041, "\u00e4\u00ba\u012b\u00e5\u0131\u0138": 35135, "ulo": 11046, "ARS": 43365, "ear": 707, "\u0120Bruins": 98696, "\u0120mantingu": 91226, "\u0120Cary": 63836, "\u00e5\u0127\u00ac\u00e8\u00ae\u00a4": 67247, "avin": 69460, "\u00e9\u00b2\u0123": 14583, "\u0120reddit": 96903, "\u00e7\u013e\u012d\u00e7\u013f\u0122": 16802, "Two": 12201, "\u0120Disc": 12688, "\u00e6\u012d\u012f\u00e5\u012f\u0138": 46287, "\u0120hyperbolic": 37657, "\u0120gul": 69288, "\u0120Dear": 38777, "\u0120track": 4184, "\u00e4\u00b8\u0129\u00e4\u00bd\u013b": 60045, "\u00d0\u00bf\u00d0\u00b8\u00d1\u0123\u00d0\u00b0\u00d0\u00bd\u00d0\u00be": 92545, "immers": 94375, "\u00e5\u013e\u00b0\u00e6\u00af\u00af": 98112, "\u0120sham": 66173, "\u00e4\u00ba\u00ba\u00e5\u0131\u0124": 86578, "\u00e9\u0129\u0129\u00e7\u0136\u00a8\u00e4\u00ba\u0128": 28602, "\u0120Counsel": 40066, "\u0120refugi": 65719, "mix": 24387, "\u00d0\u00ba\u00d0\u00b0\u00d0\u00bd\u00d1\u0123\u00d0\u00ba\u00d0\u00b0\u00d1\u0124\u00d0\u00b0": 70658, "strument": 24611, "Polygon": 44647, "\u0120Castle": 21438, "JOR": 75282, "\u0120hipp": 68204, "Click": 8061, "\u0120Hal": 19002, "furniture": 77270, "\u0120determinades": 89239, "\u00e7\u013c\u0126\u00e6\u013e\u012d\u00e5\u0131\u012d\u00e4\u00bb\u00ac": 92068, "\u00e4\u00ba\u00ba\u00e9\u0122\u012b": 98176, "\u0120NAME": 19063, "\u0120cancell": 21619, "\u0120representants": 56971, "UV": 27362, "\u00e6\u00af\u0139": 95898, "\u0120\u00d1\u0124\u00d0\u00b8\u00d0\u00bf\u00d0\u00b0": 66402, "\u0120topological": 22189, "\u0120lifting": 26947, "\u0120Babe": 98441, "\u0120baggage": 42731, "\u00d0\u00b4\u00d0\u00b8\u00d1\u0124\u00d0\u00b5\u00d0\u00bb": 26466, "\u0120Applied": 46257, "ungalow": 77263, "\u0120Colombo": 87680, "RECORD": 93086, "aland": 16479, "\u0120\u00d0\u013c\u00d0\u00b0\u00d1\u0122": 17728, "\u00e7\u00bb\u00bd": 54221, "International": 33361, "uci": 5363, "desert": 73452, "\u00d0\u00b4\u00d0\u00be\u00d0\u00b2\u00d0\u00b8": 49853, "\u0120\u00d0\u00be\u00d1\u0123\u00d0\u00bd\u00d0\u00be\u00d0\u00b2\u00d0\u00b0\u00d0\u00b2\u00d0\u00b0": 53935, "GF": 29206, "\u0120rgba": 20900, "\u00d1\u0123\u00d0\u00b8\u00d1\u0131": 11560, "\u00e5\u00be\u012a\u00e6\u013e\u012b\u00e5\u0131\u00af\u00e8\u0125\u00bd": 68385, "\u0120\u00d0\u00bd\u00d0\u00b0\u00d1\u0122\u00d0\u00b0\u00d1\u0123\u00d1\u0124\u00d0\u00b2\u00d0\u00b0": 84165, "\u0120participant": 29164, "\u0120governador": 27897, "\u0120ACC": 46782, "\u0120Artifact": 92735, "\u0120cridar": 72027, "\u00e6\u012b\u0135\u00e5\u0130\u012d": 78169, "\u0120ByteArray": 78888, "\u00e6\u0139\u0142\u00e6\u012b\u0122": 46107, "\u0120/": 893, "\u0120intu": 33320, "\u0120Lowell": 73271, "\u0120delivering": 22297, "\u0120crowded": 24400, "\u00e9\u013f\u0142\u00e8\u00bf\u0133": 47015, "Evol": 64252, "rising": 48615, "Periodistes": 75042, "emade": 29921, "Area": 19824, "\u0120grandma": 71944, "anni": 26395, "\u0120inspired": 12565, "\u0120modular": 28545, "Lisa": 72982, "\u0120when": 754, "\u0120caught": 9317, "\u0120highest": 7492, "\u00e9\u013d\u0123": 51812, "aporation": 60872, "\u0120Ronnie": 94867, "\u0120meek": 54040, "\u00e9\u00a9\u00ac\u00e4\u00ba\u0133": 51034, "Cass": 52428, "\u0120deserial": 57921, "\u0120volum": 32838, "\u00e8\u012b\u00ba": 5549, "vertex": 26515, "tint": 89922, "\u0120stor": 79394, "\u00e4\u00b8\u012f\u00e4\u00bd\u0130\u00e4\u00ba\u0130": 68927, "\u0120\u00d0\u00a2\u00d0\u00be\u00d0\u00b4\u00d0\u00be": 74113, "\u0120diffe": 51406, "\u0120sergeant": 52735, "Soc": 81124, "\u0120\u00d0\u0132\u00d0\u00bd\u00d0\u00bd\u00d0\u00b0": 39888, "\u0120\u00d0\u00be\u00d0\u00b1\u00d1\u0122\u00d0\u00b0\u00d0\u00b7\u00d0\u00be\u00d0\u00b2\u00d0\u00b0\u00d0\u00bd\u00d0\u00b8\u00d0\u00b5": 45101, "\u0120masks": 35344, "$+$": 87722, "\u0120multit": 68862, "\u0120explicitly": 15063, "\u0120Nearby": 93509, "\u00e5\u0136\u00af": 12778, "\u00e7\u012c\u00b6\u00e5\u0128\u00b5": 19458, "\u0120Tart": 44802, "\u0120introductions": 95133, "MESS": 33256, "Gil": 62828, "\u0120symlinks": 96197, "\u0120mountains": 14499, "\u0120Lloc": 51844, "pwd": 73222, "\u00e5\u012a\u00b0\u00e5\u00ba\u0137": 16096, "\u0120sleeping": 17483, "\u0120china": 36393, "\u0120Chen": 27098, "\u00e7\u0124\u00b9\u00e8\u00b5\u0140": 40336, "\u0120fittings": 62243, "\u0120alc": 71814, "\u00e7\u0137\u0127\u00e9\u0136\u0122": 79996, "\u0120considerate": 82684, "\u0120await": 13238, "represent": 17006, "\u0120Dark": 17514, "\u00e6\u0143\u012e\u00e6\u013d\u00b2": 38532, "\u00e5\u0129\u00ba\u00e5\u013e\u00ba": 45585, "\u0120Benz": 86142, "\u0120deceit": 61706, "\u0120researched": 51598, "\u00e7\u00bb\u00b0": 83303, "\u0120Seven": 32273, "nom": 19843, "NLO": 98928, "\u0120italiana": 38197, "\u0120...": 3564, "extract": 37307, "enterprise": 67632, "\u00e7\u013c\u0126\u00e4\u00bb\u00b7\u00e5\u0122\u00bc": 53327, "grow": 20279, "\u0120Humph": 59094, "\u00e5\u012c\u00a8\u00e5\u012c\u013d\u00e6\u0138\u00b9\u00e9\u013f\u00a2": 64084, "\u0120SharePoint": 68738, "icit": 19890, "\u0120marin": 76070, "\u0120\u00d0\u00bf\u00d1\u0122\u00d0\u00be\u00d0\u00b8\u00d0\u00b7\u00d0\u00b2\u00d0\u00b5\u00d0\u00b4\u00d0\u00b5\u00d0\u00bd": 90790, "\u00e5\u00bc\u0142": 3684, "quar": 14601, "\u0120Xbox": 24702, "shadows": 92074, "Hey": 22522, "\u0120notified": 32637, "sharing": 49245, "\u0120Estocolm": 96952, "\u0120trophy": 50983, "\u0120asparagus": 79585, "\u00e8\u0129\u00b4\u00e6\u0137\u00ac": 70802, "\u0120Hilde": 99227, "\u0120compar": 5177, "ghai": 36409, "\u0120isospin": 90099, "\u0120alot": 52127, "\u0120dysfunction": 55059, "\u0120radeon": 76281, "\u0120Economics": 35903, "\u0120pil": 9999, "}}(\\": 13377, "\u0120Heat": 31252, "achelor": 22236, "ifices": 83353, "\u00e8\u0122\u012e\u00e4\u00b8\u0136\u00e5\u013e\u00a8": 59382, "\u0120fil": 1470, "\u0120With": 2991, "\u00e4\u00bb\u0138\u00e4\u00bc\u013c": 50761, "\u0120Suppliers": 64918, "\u0120iPad": 15603, "atz": 18720, "hered": 9575, "yntax": 12564, "\u00e6\u00b7\u00b1\u00e5\u00a4\u013e": 65321, "\u00e8\u0122\u012e\u00e5\u00af\u00b9": 97551, "\u0120renormalization": 50358, "\u0120techniques": 9281, "\u00e6\u0134\u0143": 7006, "\u00d0\u00bf\u00d0\u00be\u00d0\u00b7\u00d0\u00b8": 28614, "embre": 5681, "\u0120deputy": 40774, "\u0120plural": 18412, "Put": 20236, "\u0120Pete": 35264, "\u00e8\u0132\u00bd\u00e5\u0132\u0130": 40883, "\u00e6\u013e\u00ba": 1626, "\u0120\u00d1\u0125\u00d0\u00bd\u00d0\u00b8\u00d0\u00b2\u00d0\u00b5\u00d1\u0122\u00d1\u0123\u00d0\u00b8\u00d1\u0124\u00d0\u00b5\u00d1\u0124": 17641, "\u0120boundaries": 19186, "Bey": 44614, "printer": 55345, "\u00d0\u0141\u00d1\u0122\u00d0\u00b5\u00d0\u00b4": 57074, "\u0120Armor": 66802, "\u00e5\u0131\u00b6\u00e7\u012b\u0129": 69324, "\u00e4\u00bc\u0142\u00e8\u00be\u0135": 58875, "\u0120subtracting": 75500, "\u0120Belarus": 87273, "\u0120\u00d0\u00a3\u00d0\u00bb": 76404, "DataFrame": 66182, "\u0120pronounced": 21242, "aring": 2728, "\u0120Ashley": 42139, "\u00e5\u00ae\u013c\u00e4\u00ba\u0128": 37896, "\u0120BET": 47750, "abat": 48213, "\u0120manipulations": 99001, "attice": 12521, "\u0120Yus": 84229, "main": 5622, "chants": 81431, "\u0120Julio": 63224, "wara": 90133, "\u0120\u00d0\u0135\u00d1\u0130": 99561, "\u00d1\u0123\u00d1\u0124\u00d1\u012c\u00d1\u0122": 18615, "\u0120\u00d0\u0135\u00d0\u00bb\u00d0\u00b0": 37648, "ego": 46320, "],\\": 55741, "\u0120Would": 14659, "doctoral": 75454, "garh": 99065, "\u0120Ideas": 22247, "\u0120helmets": 76196, "\u00d0\u00ba\u00d1\u0123\u00d0\u00b5\u00d0\u00bb": 91848, "alles": 17617, "\u0120masturb": 88957, "queued": 98119, "\u00e8\u0125\u00bd\u00e5\u012c\u013d\u00e5\u00bc\u00ba": 91438, "\u0120pd": 35338, "\u00e6\u012f\u0141": 7479, "\u0120BIO": 91915, "\u0120brain": 9290, "\u00d1\u0124\u00d1\u012c\u00d1\u0122": 8216, "\u0120interactive": 19389, "\u00e8\u0125\u00bd\u00e6\u00ba\u0132": 14759, "\u0120cheers": 58464, "\u0120PDF": 12408, "\u0120walker": 77527, "TIMEOUT": 43052, "Sol": 19972, "\u0120Plastic": 45217, "\u0120\u00d1\u0123\u00d1\u0122\u00d0\u00b5\u00d1\u012b\u00d0\u00b0": 27318, "stant": 78134, "\u0120dramas": 83095, "\u0120flick": 39501, "\u0120canceled": 48818, "ein": 18855, "abilities": 7550, "ure": 453, "\u0120Turtle": 79539, "\u0120Overse": 95375, "This": 1567, "\u0120ffm": 64890, "ification": 2863, "coming": 7015, "phony": 28195, "\u00e7\u013c\u0126\u00e5\u012c\u013d\u00e9\u0129\u0131": 40348, "\u0120substantially": 27638, "\u0120paradise": 42405, "\u0120Qt": 30157, "relativistic": 56488, "\u0120envair": 77355, "\u00e5\u00bc\u0124\u00e5\u0133\u00b3": 79828, "\u00e8\u00bf\u013b\u00e4\u00b8\u0130": 80003, "\u0120hacer": 7585, "\u0120performers": 42906, "eastern": 78095, "heaven": 61798, "overlap": 79208, "\u0120desea": 88948, "([\\": 87317, "\u00e5\u00a9\u013c\u00e7\u00a4\u00bc": 38167, "\u0120gaire": 17132, "\u0120declining": 46383, "\u0120(!(": 43034, "Alternative": 70239, "\u0120outages": 99230, "Future": 28076, "iament": 48815, "\u0120Saga": 73965, "\u00e6\u0143\u00a3\u00e5\u00b8\u00b8\u00e7\u013c\u0126": 39091, "\u0120Harding": 63293, "\u0120conjugacy": 96609, "\u0120Gar": 11290, "\u0120Cory": 64595, "\u0120Bottle": 69111, "uari": 26674, "\u0120alumnes": 57057, "\u00e8\u0129\u00aa\u00e5\u012c\u00a8": 13468, "\u00e6\u0133\u00a9": 12390, "\u00e4\u00ba\u00b2\u00e8\u0129\u00aa": 35849, "\u0120graft": 50644, "\u0120sync": 12877, "tti": 37011, "\u0120endeavors": 60944, "futbol": 73590, "\u0120\u00d0\u013b\u00d0\u00be\u00d0\u00b7\u00d0\u00b5\u00d1\u0126": 84612, "attain": 91875, "\u0120Lynch": 48075, "Platform": 27472, "\u00e4\u00b9\u012d\u00e6\u0125\u0127": 65499, "\u00e4\u00bd\u00bf\u00e7\u0136\u00a8\u00e6\u013f\u0125": 72270, "associaci": 62922, "\u0120\u00d0\u00be\u00d1\u0123\u00d0\u00bd\u00d0\u00be\u00d0\u00b2\u00d0\u00bd\u00d0\u00be": 47776, "]->": 36453, "\u0120Certificate": 33887, "\u0120PARTIC": 60886, "observable": 75332, "uges": 96756, "\u0120impart": 39505, "\u0120behaviour": 12746, "smen": 41533, "\u00e6\u012a\u0133\u00e5\u00af\u00b9": 49219, "\u00d1\u0123\u00d1\u0124\u00d0\u00b0\u00d1\u0124\u00d0\u00b0": 54780, "\u00e6\u012a\u0138\u00e8\u00ae\u00b8\u00e6\u013a\u00af": 84526, "\u0120Numerical": 88168, "\u0120CFR": 93156, "laborador": 94847, "\u0120piling": 94736, "\u0120scholar": 17492, "azy": 30877, "\u00e6\u0122\u00bb\u00e7\u0132\u0128": 48098, "\u00e4\u00b8\u012f\u00e8\u00a6\u0123\u00e5\u00a4\u00aa": 78296, "\u00e5\u0131\u00b6\u00e5\u0143\u0132": 58908, "\u0120Liberals": 94427, "\u0120NOAA": 95554, "\u00e6\u00b8\u0132": 9357, "abol": 23524, "\u0120Interesting": 60133, "\u0120deference": 79662, "\u0120Win": 13625, "\u0120fins": 4212, "\u0120Jack": 6898, "\u0120misguided": 92137, "getValue": 23228, "\u00e9\u0128\u012b\u00e9\u0127\u0134": 91613, "fx": 18423, "\u00e5\u00ba\u0128\u00e5\u00b9\u00b8": 92480, "(\\|": 94718, "\u0120Moments": 95415, "\u0120scr": 10726, "Dele": 10190, "\u00d1\u0123\u00d0\u00ba": 961, "\u0120bearer": 77080, "\u0120Lunch": 56558, "\u0120significat": 43048, "\u00e5\u0143\u0137": 11737, "\u00e5\u00ae\u0123\u00e6\u00b3\u00a2": 41574, "\u0120license": 11706, "dec": 10207, "\u00e4\u00b8\u00aa\u00e7\u013b\u00be\u00e5\u012a\u0128\u00e7\u0124\u00b9": 47052, "gro": 28966, "\u00e5\u0127\u00bb\u00e6\u012c\u00a4": 59847, "\u0120Interview": 48924, "\u0109that": 90032, "ile": 605, "onic": 8214, "assessment": 86648, "cpufreq": 99634, "\u0120numeric": 34417, "\u0120nickname": 54726, "\u0120?),": 90079, "gings": 49945, "performing": 64621, "forrest": 48272, "\u0120Disabled": 65246, "\u0120Paramount": 83873, "\u00e4\u00ba\u0128": 617, "\u0120excitement": 17200, "\u0120cls": 34437, "\u00e7\u0133\u013e\u00e4\u00bc\u00bd": 55451, "shifted": 77841, "MODE": 21758, "\u0120chroot": 69577, "aeda": 75421, "\u0120\u0120\u0120\u0120\u0120\u0120\u0120\u0120\u0109": 82440, "\u00e2\u0126\u0125": 23633, "\u0120bipolar": 54483, "\u0120voltants": 62949, "nimes": 84151, "\u0120Host": 16103, "\u0120mining": 16782, "\u0120Il": 14395, "ania": 19256, ":-": 23283,
[...]
