{"Due": 19602, "largest": 41465, "concat": 52460, "housing": 45412, "Reddit": 25672, "Tak": 53677, "\u0120furnished": 30179, "\u0120Prepared": 45903, "\u0120deux": 9447, "limited": 10360, "when": 12636, "\u0120Lil": 23380, "\u0120queer": 31609, "\u0120receiver": 16224, "\u0120mezzo": 45079, "\u0120Division": 9952, "mathbf": 30711, "\u0120consultations": 31674, "\u0120suggestions": 9441, "rip": 5559, "\u00c3\u00a9tico": 50148, "\u0120costo": 52618, "ibble": 48980, "\u0120rumors": 23977, "\u0120picking": 11472, "endregion": 53983, "aron": 6193, "\u0120vrai": 34584, "inen": 7744, "dding": 32445, "bio": 39222, "\u0120constexpr": 58388, "gear": 40615, "\u0120sinus": 36856, "\u0120appeals": 23322, "\u0120Knowing": 25256, "hh": 10683, "\u0120Sociology": 50236, "\u0120deem": 47237, "\u0120by": 431, "\u0120SC": 10282, "arket": 1017, "athic": 40511, "spy": 56411, "\u0120Kirche": 61292, "\u0120passe": 24897, "\u00e6\u0142": 4972, "\u0120globally": 15590, "725": 42337, "\u0120imitate": 54467, "\u0120Erfol": 43409, "\u0120llen": 50684, "\u0120unfore": 44989, "\u0120Airport": 11246, "ietal": 59991, "Transition": 51661, "\u0120suivant": 53676, "\u0120likely": 2486, "\u0120rou": 8480, "OLOG": 39108, "\u0120Claude": 41952, "\u0120Bugs": 56800, "erve": 3049, "achsen": 58265, "enabled": 25114, "\u0120Warrior": 34628, "\u0120zag": 37906, "\u0120muff": 20030, "\u0120worm": 34948, "\u0120fool": 11046, "\u0120converge": 61559, "536": 47036, "ensemble": 34097, "\u0120Quelle": 63620, "powiedz": 37034, "\u0120consol": 62430, "\u0120residential": 9708, "Al": 2114, "INA": 31853, "\u00c4\u0125r": 21292, "\u0120Watt": 39379, "\u0120gm": 59913, "\u00f0\u0141\u0129": 40833, "\u0120Established": 51203, "tests": 32126, "\u00c3\u00aam": 33388, "\u0120openings": 26791, "\u0120dw": 16260, "hoff": 47391, "\u0120jargon": 55055, "FER": 26014, "MK": 52280, "\u0120Charcoal": 64337, "\u0120prospects": 14332, "tv": 25080, "\u0120trif": 47073, "]))": 34191, "Collect": 17169, "'))": 24207, "\u0120Rico": 25535, "046": 57531, "++++++++++++++++": 64015, "\u0120FG": 54593, "\u0120alters": 64123, "\u0120taux": 49980, "owych": 18577, "\u00c4\u012fen\u00c3\u0143": 47444, "\u0120christmas": 34652, "\u0120Paddy": 63275, "\u0120Browse": 30915, "\u00cf\u0122": 41668, "\u0120territ": 7961, "\u00e5\u013d\u0142\u00e6\u0143\u00a4": 29307, "\u0120implicit": 25054, "\u0120naughty": 40630, "ukes": 45388, "\u0120gilt": 32136, "\u0120vis": 1101, "\u0120cigars": 62471, "\u0120Pep": 33633, "\u0120Etsy": 35082, "Present": 20372, "\u0120n\u00c3\u00a9g": 41781, "\u0120stale": 45111, "\u0120conceivable": 54602, "\u0120repas": 57493, "\"-": 21863, "\u0120dissent": 46490, "\u0120Factory": 19128, "circ": 23639, "ienta": 35619, "\u0120fibro": 52701, "\u0120experiencing": 10590, "\u0120Conversations": 57765, "\u0120Funding": 30886, "\u0120murals": 58689, "\u0120Bunny": 41365, "IUM": 64854, "\u0120rename": 48509, "activity": 21913, "\u0120nello": 57334, "\u0120Burt": 64571, "\u0120MAC": 25053, "\u0120primo": 27014, "\u0120Before": 7458, "\u0120fragr": 16813, "\u00c3\u00a4nde": 36046, "\u0120great": 914, "\u00e6\u012a\u0133\u00e8\u00af\u00b4": 63675, "page": 6621, "\u0120diary": 30038, "\u0120Est": 4349, "\u0120pending": 19439, "\u0120sprint": 25875, "\u0120chased": 40349, "\u0120depress": 51929, "\u0120consultancy": 36292, "ague": 3726, "\u0120Hess": 56207, "OS": 3200, "omega": 30790, "STOR": 57776, "tel": 40480, "\u0120Folding": 56541, "ertime": 39818, "\u0120Sinai": 52390, "\u0120fleet": 14146, "\u0120MX": 32512, "Christine": 60843, "\u0120algebra": 25585, "\u0120expense": 12010, "Geek": 50355, "\u0120Sax": 35712, "\u0120Jan": 2641, "\u0120Cav": 25757, "\u0120tools": 3435, "\u0120protested": 44446, "\u0120Familien": 46564, "h\u00c3\u00b5es": 63513, "ArgumentException": 46266, "mapping": 50468, "NOWN": 62095, "\u0120Haven": 23627, "\u0120Outlook": 21875, "Cup": 48331, "\u00c3\u00b6p": 58105, "\u0120Mald": 37277, "\u0120votre": 6998, "\u0120launch": 5522, "icum": 39125, "\u0120Dank": 36988, "\u0120bure": 21103, "\u0120CF": 17325, "\u0120obliter": 58159, "etary": 9184, "none": 25075, "\u0120contrasted": 54361, "\u0120plais": 30596, "ivism": 46026, "mud": 49367, "\u0120libertarian": 47256, "\u0120te\u00c5": 24234, "\u0120fries": 30130, "\u0120saddened": 60016, "\u00e4\u00b8\u012d\u00e6\u013f\u00a5": 35356, "Expression": 23405, "oble": 61765, "spectrum": 42973, "Collabor": 49281, "Beach": 54859, "\u0120Skull": 56368, "\u0120Debian": 54265, "bour": 6897, "280": 18322, "\u0120taxpayer": 29015, "Fox": 35640, "\u0120Hick": 49583, "/": 26, "\u0120LO": 8312, "Ar": 2527, "\u0120Sensor": 34407, "amilies": 51442, "\u0120rhyth": 13984, "closures": 31698, "armee": 62637, "\u0120pourra": 37978, "\u0120invitation": 17153, "\u0120mamy": 59030, "Cube": 56569, "Sid": 58768, "\u0120castle": 17450, "176": 19124, "Root": 21784, "\u0120Stor": 64427, "\u0120dont": 7540, "\u0120tiers": 37473, "\u0120sphere": 23479, "doch": 53867, "\u0120colder": 34898, "<</": 49498, "\u0120Gim": 60804, "\u0120Kell": 38997, "\u0120impos": 40158, "\u0120headphones": 22263, "amentos": 32824, "\u0120gently": 12350, "\u00e5\u00ba": 4407, "\u0120coronavirus": 9533, "\u0120implementations": 40687, "\u0120ALL": 12214, "\u0120fishermen": 43122, "\u0120cyclist": 56839, "\u0120fragrances": 53143, "Cong": 13167, "itare": 38473, "THE": 13041, "\u0120end": 991, "messages": 41076, "\u0120oamen": 61069, "\u0120indict": 38061, "morning": 60715, "\u0120commitments": 22639, "Stress": 56038, "\u0120attack": 3033, "\u0120freelancer": 59410, "agonia": 64505, "\u00f4": 185, "\u0120Forbes": 30963, "\u0120Cec": 27827, "\u0120Mill": 8098, "\u0120intermedi": 31295, "\u0120activ": 1580, "965": 56033, "\u0120autoimmune": 43312, "\u0120Ashley": 22927, "ush": 1519, "\u00e9\u0139\u00b4": 10548, "\u0120refrigeration": 55893, "izan": 56279, "acin": 29401, "Suggest": 28676, "SHA": 40853, "enf": 32987, "\u0120LINE": 58447, "\u0120procur": 52238, "\u0120logistic": 52776, "despite": 61624, "\u0120surname": 42571, "Fern": 59728, "nant": 28315, "\u0120abord": 45189, "\u0120Destiny": 39835, "education": 46017, "\u0120neuronal": 55295, "URL": 13583, "questions": 63178, "\u0120uter": 30655, "enta": 9861, "\u0120compel": 56378, "ahs": 56773, "\u0120stickers": 25036, "\u0120Chocolate": 17709, "\u0120General": 4860, "('./": 45891, "Attributes": 30686, "\u00e5\u0132\u0130\u00e6\u013f\u00a5": 45639, "\u0120Melissa": 26548, "\u0120Campaign": 19573, "\u0120thirst": 27136, "\u0120fosse": 27806, "\u0120slic": 11568, "\u0120Zero": 18563, "\u0120Grammy": 38018, "erme": 32479, "\u0120Coco": 46443, "\u0120creativity": 11515, "Prob": 51296, "sender": 50863, "544": 44680, "\u0120Molly": 30800, "\u0120remuner": 49058, "\u0120Kee": 32064, "\u0120interna": 63714, "\u0120Levels": 34763, "\u0120voil\u00c3\u0142": 60532, "\u0120zah": 55925, "\u0120withstand": 23875, "ped": 8566, "lict": 17914, "\u0120abit": 55791, "\u0120int\u00c3\u00a9ress": 49791, "\u0120plane": 9423, "\u0120Blake": 23445, "bound": 11081, "\u0120contenders": 52070, "\u0120Somewhere": 56379, "strateg": 50336, "\u0120LAS": 51800, "nad": 46968, "UTC": 25622, "\u0120yrs": 24049, "\u0120sch\u00c3\u00b6": 35166, "wl": 48613, "\u0120Conservatives": 50424, "gn": 3466, "\u0120Reaction": 57903, "\u0120repeating": 26038, "\u0120Please": 4012, "richtung": 52224, "\u0120chatting": 23282, "\u0120Appalach": 46869, "\u0120uplifting": 40601, "\u0120gor": 31377, "Eq": 43116, "\u0120Tips": 12155, "\u0120Ten": 10791, "\u00e7\u013f\u013d": 46933, "\u0120Guarantee": 31572, "\u0120naive": 35260, "mph": 38208, "IVERS": 53491, "\u0120imb": 34163, "\u0120upgrade": 10179, "\u0120kicking": 24012, "long": 6458, "encil": 15707, "Sending": 60050, "\u0120ranked": 13742, "attribute": 30457, "\u0120Sub": 4365, "\u0120wave": 8564, "\u0120Dover": 51317, "radio": 42890, "azzy": 62716, "\u0120Tara": 39816, "del\u00c3\u0142": 56755, "enced": 3342, "\u0120victories": 30986, "\u0120Beam": 44085, "\u0120Still": 8933, "\u0120Boris": 35839, "\u0120appreciates": 50547, "\u0120supposed": 5873, "\u00d0\u00ba": 16153, "\u0120verdade": 53452, "\u0120wid": 3556, "ELD": 26876, "\u0120bells": 31182, "\u0120priorities": 15524, "\u0120\u0120\u0120\u0120\u0120\u0120\u0120\u0120\u0120\u0120\u0120\u0120\u0120\u0120\u0120\u0120\u0120": 41405, "\u0120lb": 20364, "\u0120observ": 8071, "wave": 24384, "\u0120name": 1536, "\"\");": 54052, "\u0120scars": 28374, "\u0120rebel": 33857, "atif": 31629, "esar": 28236, "\u0120vez": 12175, "\u0120contribution": 10814, "hu": 11481, "Lit": 60822, "\u0120SV": 22328, "\u0120Annie": 26313, "ant": 384, "\u0120Entrepreneur": 41255, "\u0120gait": 43324, "\u0120infections": 11576, "\u0120embroidered": 42760, "\u0120F\u00c3\u00b6rder": 56648, "\u0120tremendous": 14728, "\u0120exception": 5715, "\u0120Device": 20737, "castle": 24026, "\u0120apart": 5658, "\u0120demande": 27378, "OTHER": 42929, "\u0120brides": 20288, "reden": 62486, "tree": 18848, "sugar": 60863, "\u0120structural": 13588, "\u0120bullied": 51043, "\u0120Per": 2403, "\u0120spikes": 38704, "athering": 59992, "\u0120succes": 49341, ":%": 42059, "\u0120dominates": 54417, "\u0120carton": 51041, "\u0120degree": 4376, "\u0120overflowing": 53880, "\u0120Beau": 30764, "\u0120pueda": 44276, "no\u00c5\u013d\u00c4\u0129": 25383, "\u0120Tant": 54977, "\u0120Lec": 54670, "\u0120doctors": 9087, "\u0120anne": 61669, "\u0120alarm": 9956, "\u0120waxing": 62094, "\u0120Harvest": 31891, "ktop": 8756, "chem": 16747, "\u0120Jeremiah": 40435, "\u0120yields": 21512, "\u0120lantern": 35600, "\u0120dreams": 8837, "\u0120conferencing": 47346, "\u0120Ivy": 32110, "\u0120Breed": 48121, "\u0120Mer": 5863, "\u0120seeks": 15709, "biased": 34868, "Headers": 44900, "\u0120repar": 45468, "\u0120Democracy": 32234, "\u0120unconst": 41839, "Wake": 56384, "Road": 33896, "\u0120Combo": 45830, "haupt": 52736, "791": 55282, "fica": 44962, "\u0120programmed": 34455, "Curve": 62938, "\u0120chromosome": 49617, "\u0120gardeners": 57016, "altet": 52145, "\u0120Kopf": 49255, "UID": 21603, "\u0120keer": 50841, "040": 29022, "\u0120chal": 61415, "\u0120primaries": 58876, "\u0120dst": 40356, "uddy": 23394, "mund": 24765, "names": 8553, "\u0120clar": 7026, "enne": 14421, "ployed": 20721, "Bed": 26039, "\u0120eyed": 39097, "\u0120prodig": 46121, "\u0120Played": 62179, "\u0120pouco": 54267, "\u0120Upload": 33466, "\u0120Governor": 13726, "\u0120coolant": 58224, "\u0120steaming": 49841, "\u0120menus": 24869, "\u0120lifespan": 32574, "\u0120additionally": 9850, "\u0120timestamp": 36879, "\u0120tightening": 36813, "NU": 47130, "\u0120Facilities": 29430, "\u0120curry": 27960, "\u0120Goldberg": 52232, "Ott": 64137, "\u0120w\u00c5\u0124a": 32360, "540": 28245, "\u0120FAR": 61451, "\u0120hrs": 26147, "Instagram": 32674, "analysis": 25032, "ista": 5486, "\u0120windows": 6538, "\u0120Poor": 24029, "\u0120LTD": 47168, "\u00e4\u00bb\u0123": 59974, "Tor": 21295, "\u00c3\u0143z": 43296, "lation": 12180, "\u0120inspirations": 57113, "LLA": 51468, "\u0120brus": 59495, "\u0120gle": 16299, "\u0120situated": 16792, "\u00c3\u00a8t": 24155, "Founder": 33603, "ATIONAL": 41825, "\u0120cabinets": 18821, "professional": 32965, "\u0120long": 916, "attoo": 15634, "\u0120marks": 10270, "\u0120evolve": 20388, "\u0120m\u00c3\u00a9mo": 44909, "\u0120safeguard": 22146, "Horizontal": 60020, "gevens": 51337, "\u0120glimpse": 20818, "931": 54749, "\u0120turns": 6870, "\u0120enqu": 37803, "\u0120\u00c4": 18534, "\u0120bargain": 26028, "\u0120Ole": 33651, "\u0120relied": 26469, "}>": 41284, "\u0120embarrass": 12654, "\u0120questioning": 21450, "\u0120skating": 35362, "\u0120actividad": 42762, "\u0120Lif": 16229, "\u0120Ecc": 49768, "\u0120unre": 18929, "\u0120Mango": 43337, "\u0120sent": 2279, "seek": 43998, "ka\u00c5\u0126": 49817, "\u0120Eternal": 49592, "\u0120Mister": 52726, ">\\": 34860, "________________________________________________________________": 43165, "Video": 12880, "\u0120Banks": 22265, "l": 87, "\u00a2\u00e5": 51063, "reader": 27296, "\u0120adults": 6582, "\u0120borders": 16827, "\u0120launched": 7028, "\u0120Sport": 10450, "\u0120activated": 17995, "\u0120profit": 7225, "\u0120roomm": 28878, "\u0120Leisure": 42541, "\u0120Hen": 7319, "\u0120acciones": 53855, "\u0120Dra": 14845, "\u0120Might": 20211, "um\u00c3\u00a9": 50455, "\u0120tribal": 24082, "\u0120oz": 11754, "\u0120sensit": 38504, "ropri": 3623, "\u0120bushes": 38371, "940": 40583, "\u0120mushroom": 30765, "ophage": 41949, "atherapy": 51128, "\u0120Processes": 49887, "padding": 33993, "isia": 33623, "associ": 22019, "\u0120fran\u00c3\u00a7ais": 28962, "\u0120INTO": 31087, "Nonetheless": 51470, "\u00e6\u00af": 6580, "\u0120g\u00c3\u00a9n\u00c3\u00a9ral": 23434, "Later": 27447, "\u0120dri": 1752, "ibili": 31423, "\u0120c\u00c3\u00a9r\u00c3\u00a9": 64703, "\u0120Overnight": 44793, "963": 62271, "grow": 47323, "\u0120ions": 35957, "\u0120conceal": 35692, "Someone": 29364, "\u0120Amb": 13132, "\u0120lanc": 35851, "\u0120creamy": 20078, "\u00c3\u0143cul": 14791, "Ment": 54973, "\u0120HM": 34325, "\u0120starve": 64067, "\u0120SJ": 44248, "general": 30134, "\u0120determined": 6636, "isms": 11912, "\u0120lun": 15928, "\u0120people": 692, "eden": 24245, "\u0120college": 4178, "erton": 24170, "\u0120Dar": 9348, "\u0120thermal": 16487, "ersch": 25030, "before": 18305, "\u0120membership": 9085, "\u0120Regardless": 21093, "\u0120BIG": 28241, "\u0120nond": 53794, "BOOL": 38363, "\u0120readable": 39069, "\u0120chasing": 24579, "\u0120contr\u00c3\u00b4le": 43073, "\u0120QuickBooks": 44930, "LAST": 47408, "isserie": 61676, "icherung": 40547, "\u0120Shops": 41230, "\u0120Serbia": 37562, "roff": 53764, "Us": 5901, "quist": 41799, "\u0120Rooney": 62170, "\u0120differe": 952, "\u0120Surrey": 43506, "weh": 51615, "\u0120styling": 23692, "\u0120Curve": 54915, "America": 26670, "\u0120Celtic": 37586, "antas": 49158, "\u0120Batt": 24695, "\u0120parfois": 33891, "\u0120Millennium": 47609, "Residential": 52253, "\u0120sar": 15293, "placed": 28396, "\u0120dere": 21738, "grid": 18836, "\u0120Coaching": 26713, "\u0120exter": 55405, "},": 3166, "\u0120presencia": 49953, "\u0120nanop": 42663, "buf": 13723, "\u0120Ana": 21358, "\u0120stare": 19784, "\u0120Gener": 3367, "\u0120Kap": 20711, "\u0120docks": 53361, "\u0120kt\u00c3": 8300, "Types": 14046, "quant": 29726, "\u0120incubated": 49313, "Properties": 20929, "\u0120obsess": 32752, "dec": 10129, "\u0120order": 1538, "\u0120exem": 15232, "\u0120igual": 26976, "\u0120Bates": 41843, "\u0120STILL": 53673, "\u00e8\u00bf\u0127": 52916, "\u0120wiping": 41205, "Gru": 56308, "\u0120amusement": 29461, "////////////////": 11517, "pron": 48263, "\u0120processus": 34581, "\u0120vaccination": 16184, "\u0120credentials": 18835, "\u0120pierre": 50325, "\u0120KN": 61298, "\u0120N\u00c3\u00a3o": 40375, "\u0120Educ": 14000, "ile": 558, "\u0120vieux": 60231, "\u0120complaints": 14107, "\u0120Pale": 31215, "\u00e6\u012d\u00a5": 40633, "\u0120tritur": 48231, "ondo": 13417, "\u0120AN": 4536, "Conc": 29140, "Alternatively": 48351, "\u0120originally": 8506, "\u0120Serge": 25925, "\u0120d\u00c3\u00a9couvert": 58781, "pletion": 24126, "\u0120von": 3163, "\u0120damn": 10096, "\u0120Album": 23458, "------": 37057, "\u0120bloated": 62365, "\u00c3\u00a9nero": 54883, "\u0120baj": 42133, "Qu\u00c3\u00a9": 26080, "\u0120snippets": 50764, "\u0120smartphone": 11466, "dule": 4509, "\u0120Tao": 38198, "\u0120visa": 13594, "exit": 26929, "\u0120Recap": 62166, "\u0120weaker": 27803, "\u0120valor": 19431, "\u0120reception": 13443, "\u0120silky": 38827, "\u0120maakt": 50117, "\u0120creatures": 15093, "\u0120Fang": 45163, "]>": 23108, "Relations": 38336, "\u0120informaci\u00c3": 21525, "ixir": 54965, "rules": 38009, "\u0120Crom": 55126, "flowing": 41681, "\u0120bursts": 42999, "\u0120Apr\u00c3\u00a8s": 41018, "\u0120plating": 65000, "\u0120sync": 18362, "\u0120Antique": 48026, "\u0132": 222, "\u0120IMO": 37950, "\u0120alleen": 33501, "ough": 754, "\u0120Ham": 6709, "\u0120Bang": 9772, "\u0120Buc": 28188, "\u0120cover": 2871, "\u0120ranch": 25576, "\u0120tex": 18021, "MODEL": 64319, "\u0120linked": 8076, "\u0120cread": 51653, "compliant": 56550, "\u0120przec": 35200, "\u0120rester": 42346, "checks": 45184, "aktiv": 63843, "JE": 46927, "\u0120ugly": 16990, "olars": 6525, "\u0120gamut": 64566, "lor": 4755, "\u0120couleurs": 46848, "\u0120adm": 3352, "958": 61756, "speaking": 32764, "\u0120Naomi": 40776, "\u0120educational": 7473, "\u0120Similar": 21827, "\u0120Supervisors": 61106, "aber": 55534, "paths": 37705, "\u0120dend": 65015, "529": 39278, "\u0120eas": 1158, "SAGE": 41992, "DAY": 16555, "\u0120bulk": 12546, "UB": 9345, "\u0120band": 4129, "nia": 9832, "\u0120pratiques": 49983, "\u0120Litt": 57727, "\u0120pr\u00c3": 17075, "\u0120auctions": 43968, "\u0120Dr": 2609, "ivided": 52285, "\u0120coverage": 5615, "\u0120responsibilities": 12993, "\u0120Tucson": 37965, "rue": 32567, "\u0120unas": 35157, "\u0120Telegram": 35262, "isements": 43223, "Shel": 48754, "021": 31782, "illi": 29760, "Jeremy": 55894, "\u0120sm": 844, "\u0120grandson": 34700, "uego": 16281, "\u0120eliminating": 21435, "resa": 9941, "\u0120Ari": 23855, "\u0120Regular": 17109, "\u0120anesthesia": 37032, "\u0120Outreach": 41015, "pte": 15608, "rics": 6374, "\u0120poorer": 42077, "bellion": 61471, "\u0120Pauline": 59571, "cot": 29948, "\u0120AE": 44227, "\u00e5\u00bf": 4848, "\u0120Regulatory": 36606, "\u0120Prote": 35587, "fehl": 56230, "\u0120Austin": 12196, "atore": 18108, "\u0120evidenced": 40931, "opedia": 24854, "ginas": 55280, "\u0120ties": 14634, "\u0120incremental": 38617, "orbid": 43290, "\u0120Janet": 29991, "\u0120Poz": 43366, "\u0120Vij": 43872, "\u0120oriental": 59889, "\u0120Functional": 39084, "\u0120Col": 1640, "\u0120epoch": 49157, "\u0120Versa": 49899, "\u0120Guth": 51348, "\u0120Height": 21810, "\u00e7\u00a6\u0131": 28799, "\u0120proponents": 54481, "\u0120Escort": 55967, "jahr": 49978, "\u0120embrace": 13218, "zul": 61111, "\u0120iPod": 24213, "\u0120k": 429, "Control": 13704, "BL": 14961, "\u0120Cone": 37205, "Emp": 33561, "ourced": 31882, "\u0120Cooker": 56813, "\u0120offended": 30140, "\u0120ghosts": 33771, "\u00e8\u0140": 58715, "Santa": 38082, "occup": 20020, "\u0120prehistoric": 64888, "rect": 2451, "ams": 2130, "\u0120chemically": 57497, "weg": 12990, "\u0120optics": 46222, "\u0120nursery": 27561, "\u0120Few": 28762, "\u0120Byrne": 54990, "\u0120immigrants": 18402, "\u0120enquiry": 44372, "\u0120Dropbox": 54449, "\u0120Volk": 63108, "Media": 14811, "\u0120slate": 33026, "\u0120conducive": 46858, "\u0120Taipei": 52671, "uz": 6314, "weise": 17602, "\u0120Nicolas": 39070, "\u0120dott": 64857, "\u0120Franc": 5635, "\u0120fought": 13764, "idth": 6190, "\u0120el": 797, "antic": 5524, "\u0120Dolly": 57479, "417": 36919, "\u0120sidebar": 31765, "\u0120flags": 13238, "ominium": 34611, "\u0120Lace": 42753, "\u0120anonymously": 46795, "\u0120Faux": 62668, "\u0120Meh": 44495, "\u0120solves": 44765, "\u0120Other": 4232, "\u0120crushing": 15451, "\u00e5\u00a4\u00a9\u00e7\u00a5\u0140": 54416, "\u0120Marley": 59499, "hill": 16141, "hour": 10858, "\u0120strateg": 3874, "\u0120abuses": 39746, "gets": 12972, "\u0120eu": 12577, "Executive": 35510, "\u0120MS": 7714, "\u0120Hobby": 56540, "\u0120pourrait": 29128, "\u0120maple": 26829, "Rated": 41174, "bean": 13009, "\u0120niente": 38565, "otic": 7074, "\u0120hue": 30251, "\u0120przed": 20299, "ands": 1874, "\u0120President": 3503, "\u0120picture": 4038, "\u010a\u0120\u0120\u0120\u0120\u0120\u0120\u0120\u0120\u0120\u0120\u0120\u0120\u0120\u0120\u0120\u0120\u0120\u0120\u0120\u0120": 3666, "eding": 9464, "\u0120nearer": 43174, "\u0120maneuver": 29193, "\u0120Ness": 48272, "\u00c2\u00a7": 11805, "\u0120america": 37312, "\u0120desert": 13378, "\u0120tighter": 32850, "identity": 43249, "feedback": 49552, "\u0120year": 649, "\u0120d\u00c3\u00a9velopper": 55258, "\u0120l\u00c3\u00a4": 14719, "itti": 37661, "\u0120Dispatch": 62092, "\u0120fleece": 44554, "\u0120myriad": 27281, "\u0120popularity": 12301, "man": 1342, "\u0120metaph": 29606, "rypt": 7504, "r\u00c4\u0125": 55374, "budget": 49746, "endum": 64607, "\u0120surfing": 27746, "\u0120sy": 3990, "\u00c3\u00a4hlen": 36131, "\u0120kort": 55960, "\u0120match": 3185, "\u0120Olson": 51381, "\u0120dispar": 15957, "===": 10666, "measure": 46750, "\u0120Sitz": 51516, "\u0120sor": 13189, "\u0120OWN": 55182, "\u0120Introduction": 17568, "\u00e5\u0132\u012b": 27846, "\u0120mejorar": 47650, "\u0120psoriasis": 51794, "\u0120thousands": 5780, "\u0120preferences": 13603, "\u0120WoW": 50698, "Cu": 22876, "Residents": 61287, "\u0120sid": 21618, "possibly": 57372, "Bri": 59546, "REDIENTS": 64670, "ration": 1648, "\u0120splend": 26699, "\u0120partir": 16015, "\u0120Oman": 52375, "\u0120Highness": 65004, "\u0120nar": 21072, "\u0120Alright": 59272, "\u0120Him": 9112, "\u0120Leo": 20573, "\u0120cabinetry": 58881, "\u0120nice": 3052, "\u0120northeast": 35584, "\u0120maat": 64694, "\u0120heeft": 16346, "\u00c5\u0124ug": 20423, "\u00e5\u00b1\u012d": 49210, "\u0120NL": 26484, "\u0120P\u00c3\u00a9": 45636, "ging": 2543, "\u0120Apostles": 61349, "but": 3945, "\u0120proteins": 13558, ">,": 15538, "run": 7443, "haust": 8720, "stel": 61970, "\u0120explos": 11294, "\u0120Lori": 33713, "\u0120vra": 13803, "\u0120Mak": 21923, "\u0120induct": 33545, "($_": 51807, "974": 58619, "\u0120extingu": 38859, "\u00e5\u0138": 12935, "\u0120tragic": 22191, "\u0120concurrently": 55859, "\u0120Revolution": 15999, "\u0120whispered": 16439, "odynamics": 45826, "\u0120revolves": 39971, "\u0120teaming": 62291, "\u0120Toxic": 46197, "bringen": 60963, "\u0120cr\u00c3\u00a9\u00c3\u00a9": 61813, "\u0120Recommended": 32222, "\u0120Disk": 30671, "\u0120supply": 4322, "ker": 3956, "oise": 19210, "\u0120onward": 47676, "ptide": 51178, "\u0120Weg": 29145, "\u0120Freel": 52055, "\u0120organizaci\u00c3": 54184, "\u0120astfel": 64129, "\u0120Quilt": 41695, "elage": 62889, "\u0120prednisone": 40320, "\u0120\u00c3\u00a4hn": 56244, "Blessings": 57565, "umn": 3411, "\u0120decisive": 32356, "\u0120hist\u00c3": 32249, "\u0120imagined": 17053, "\u0120scandal": 21548, "ATIONS": 23489, "\u0120Pride": 26063, "\u0120Subl": 63337, "\u0120ornate": 60489, "\u0120detect": 5750, "\u0120Oce": 63653, "\u0120data": 1211, "\u0120ooz": 61397, "\u0120Pole": 36170, "py": 8046, "assion": 11047, "ethyst": 53769, "depending": 48078, "\u0120j\u00c4\u013b": 57786, "\u0120sociop": 58738, "POST": 27065, "\u0120cela": 14131, "\u0120Innovations": 53367, "\u0120hid": 25749, "\u0120vet": 15492, "\u0120pequ": 61616, "\u0120Inspector": 33336, "\u00e3\u0122\u0124(": 8209, "Relation": 59101, "\u0120poppy": 61138, "Visitors": 64380, "asure": 4546, "\u0120Receiver": 57103, "\u0120Unex": 58034, "Smooth": 61079, "\u0120terrorists": 24134, "\u0120Treat": 9274, "SPE": 41698, "\u0120Managed": 37033, "\u0120tiss": 7219, "\u0120Glas": 22429, "BIT": 24010, "\u0120invers": 32915, "\u0120limestone": 37278, "361": 37903, "=\"/": 42975, "rait": 8092, "\u0120Reg": 2636, "Jackson": 37012, "affin": 58007, "\u0120bronch": 35920, "\u0120Chamber": 16508, "cology": 24481, "\u0120Schl": 30383, "bana": 43775, "flip": 58208, "\u0120post": 1106, "oustic": 20114, "dor": 52562, "\u0120lange": 29935, "\u0120progresses": 38737, "-=-=": 45309, "\u0120demost": 53032, "Often": 36460, "\u0120ella": 24472, "Exit": 40654, "hlt": 41739, "imating": 52628, "\u0120audition": 37175, "iderman": 63546, "\u00e2\u0122\u00a6).": 53398, "Respons": 30155, "\u0120explains": 8966, "\u0120numeric": 49027, "\u0120ticking": 50363, "Hannah": 54732, "senal": 20907, "\u0120ballet": 34333, "\u0120Tap": 20302, "\u0120hopping": 48280, "\u0120pipeline": 16520, "look": 6954, "\u0120facilitates": 32352, "\u0120payouts": 34084, "acca": 48213, "\u0120pierced": 48736, "\u0120pol\u00c3\u0143ticas": 58270, "\u0120Fortun": 62763, "\u0120Alexandre": 63455, "\u0120placenta": 64382, "================": 7396, "articles": 34067, "\u0120Tell": 14280, "raulic": 20957, "\u0120False": 15106, "\u0120Telegraph": 42522, "\u0120reproductive": 24725, "704": 39795, "\u0120Claire": 19583, "\u0120corner": 5805, "\u0120HOW": 34695, ">()": 49211, "\u0120Presented": 55966, "\u0120Obi": 64240, "'%": 34741, "ber": 552, "\u0120precious": 11446, "\u0120identifier": 28059, "prob": 35222, "\u0120Yun": 44968, "\u0120merchandise": 18018, "\u0120\u00c3\u00aen": 6116, "\u0120liters": 52302, "\u0120veg": 38790, "\u0120pyram": 55312, "\u0120detailing": 27209, "umpus": 64006, "Build": 7315, ",\u00e2\u0122\u013f": 1296, "\u0120p\u00c5\u013bip": 52384, "\u0120Emer": 10011, "ostante": 49828, "midd": 49620, "\u0120upside": 20563, "\u0120Cars": 16274, "\u0120Parf": 63818, "\u0120applications": 4183, "\u0120Mastercard": 45985, "\u00e5\u012a\u00b0": 4553, "\u0120quartier": 63266, "\u0120quarterbacks": 61961, "\u0120paciente": 55622, "\u0120sneaking": 56110, "\u0120adesso": 46143, "\u0120like": 606, "\u0120Armen": 26473, "\u0120valeur": 38412, "deck": 40639, "<|endoftext|>": 11, "\u0120evaluating": 21164, "\u0120elf": 43314, "\u0120vs": 4893, "hark": 57783, "\u0120him": 801, "\u0120prepares": 29599, "\u0120outta": 61846, "777": 28768, "\u0120Tours": 25061, "\u0120sito": 34150, "operative": 21251, "\u00e8\u00a7\u0126": 32569, "\u0120Rosen": 25461, "\u0120discount": 6094, "\u0120counselling": 37734, "\u0120graph": 4939, "ommen": 11148, "\u0120century": 5594, "\u0120Kick": 24006, "\u0120tees": 63046, "\u0120nouvelle": 23475, "iver": 1805, "\u0120Encore": 63161, "\u0120heirloom": 58554, "\u0120glacier": 57261, "\u0120potion": 57577, "\u0120Ultra": 17768, "alles": 34469, "\u0120homeschooling": 57034, "rots": 18158, "\u0120Nour": 59852, "865": 47493, "nete": 58642, "\u0120Havana": 55039, "\u0120Agreement": 13480, "\u0120Squadron": 56647, "\u0120pozw": 50948, "\u0120doctor": 5032, "Hi": 5516, "ascular": 10098, "\u0120Dess": 36578, "oggles": 35012, "ricos": 54457, "010": 19096, "\u0120hund": 56903, "ORA": 54037, "\u0120astronaut": 59041, "anas": 12994, "\u0120experiencia": 31006, "\u0120dues": 41780, "\u0120Quint": 46501, "umen": 16327, "\u0120Spring": 8077, "Valid": 14733, "Russ": 17848, "\u0120geld": 31290, "\u0120parten": 44795, "\u0120eyeb": 16039, "ocalypse": 34995, "\u0120Clinics": 62328, "alk": 1015, "\u0120scelta": 50522, "ama": 2415, "\u0120Modi": 36756, "ibia": 44559, "\u0120innings": 22692, "\u0120Volkswagen": 35557, "\u0120predicate": 62218, "\u0120usually": 2767, "\u0120cruel": 17405, "\u0120nesting": 48851, "heer": 59522, "\u0120couldn": 3494, "\u0120Both": 6949, "\u0120phenomenon": 16159, "\u0120arrays": 39206, "\u0120silicon": 33224, "stakes": 40468, "Tap": 43849, "multi": 42717, "note": 16906, "\u0120Four": 9157, "\u0120edit": 10329, "Phones": 42819, "\u0120Hailey": 64980, "ystem": 900, "\u0120Optical": 46449, "\u0120nonfiction": 55797, "\u0120Fill": 22280, "\u0120appropriation": 61600, "Hmm": 41153, "\u0120f\u00c3\u0143sica": 63528, "portion": 27220, "Monitor": 27975, "\u0120ghost": 13613, "\u0120pumped": 36780, "Cookie": 45267, "r\u00c4\u0127": 55846, "\u0120CTO": 60734, "\u0120adject": 41102, "Cross": 17269, "\u0120Freund": 49548, "\u0120corpses": 62799, "Craft": 33008, "r\u00c3": 8257, ")\u00e2\u0122\u00a6": 45211, "\u0120devenir": 44437, "sized": 11772, "kos": 48936, "\u0120sling": 54395, "\u00e5\u00a4\u013c\u00e5\u00b0\u0133": 63486, "olves": 11908, "\u0120Activate": 59008, "\u0120Post": 3612, "Funding": 45583, "\u00e2\u0124\u00ac": 6175, "\u0120Verb": 41138, "iom": 48765, "nod": 53472, "\u0120matin": 42691, "Yellow": 43440, "\u0120FREE": 11470, "variant": 54123, "\u0120critical": 4751, "bow": 9103, "andro": 25267, "ionic": 39470, "resso": 18712, "\u0120exting": 35029, "\u0120Sear": 45621, "Cos": 34399, "\u0120Goldstein": 60745, "\u0120unst": 19481, "\u0120Towards": 48977, "endy": 54764, "\u0120Literally": 60844, "\u0120project": 1441, "AF": 19284, "tk": 18707, "\u0120Wonderland": 51094, "\u0120appreci": 4136, "\u0120Roulette": 33018, "\u0120FP": 30298, "\u0120consensus": 17293, "idas": 10428, "\u0120averaging": 34142, "Already": 34740, "strate": 20714, "\u0120continued": 4902, "\u0120Lung": 36644, "880": 35431, "\u0120Democr": 5960, "\u0120intuit": 47262, "\u0120Beef": 30976, "\u0120erase": 34824, "\u0120BJP": 42459, "\u0120bisexual": 51393, "high": 10764, "chsel": 39209, "ilot": 29167, "\u0120Sau": 16053, "Position": 15960, "vres": 48797, "\u0120sounded": 15226, "\u0120probe": 21417, "\u0120Scott": 6875, "\u0120fun": 1041, "\u0120Structures": 54677, "\u0120Lys": 57465, "\u0120ense": 26767, "\u0120dimensional": 34285, "\u0120Baccarat": 52556, "ground": 2788, "\u0120Shelf": 45988, "\u0120Atm": 45370, "\u0120clutching": 57082, "\u0120kills": 20772, "\u0120interes": 23320, "etime": 6173, "\u0120Tigers": 29428, "\u0120civile": 64617, "owel": 48907, "askets": 57904, "upa": 55597, "models": 22154, "\u0120Shower": 33500, "\u0120gut": 8969, "\u0120MSN": 56933, "\u0120siete": 53340, "\u0120poste": 56313, "\u0120layouts": 31064, "isin": 33352, "\u0120Rapids": 36279, "ulsion": 20861, "\u0120Alfred": 25324, "\u0120MOST": 62829, "\u0120indicating": 17061, "\u0120exact": 2709, "\u0120nicht": 4455, "turned": 54167, "\u0120plut": 26555, "590": 35009, "teilung": 54972, "\u0120shoppers": 22522, "\u0120conting": 22463, "hang": 16200, "ui": 2601, "Kh": 45543, "\u00e6\u012c\u0139": 43105, "\u0120soluci\u00c3": 60181, "\u0120Paran": 61403, "varphi": 51069, "\u0120Mp": 50075, "\u0120THEN": 52471, "reed": 21951, "\u0120Ramos": 49438, "\u0120monsters": 23305, "\u0120animales": 62640, "\u0120card": 2315, "\u0120diam": 7047, "closed": 16988, "\u0120path": 2895, "\u0120Dear": 27204, "irse": 37660, "signal": 40206, "nx": 52110, "\u0120gemeinsam": 46872, "\u0120ethically": 55636, "\u0120Nelson": 18148, "064": 51635, "oddy": 58740, "\u0120przes": 43317, "annotation": 32509, "builder": 24540, "gressive": 9982, "\u0120Ich": 16744, "grab": 42299, "\u0120bullies": 62876, "\u0120vivid": 20136, "\u0120stell": 55581, "olithic": 43384, "\u0120exotic": 21019, "\u0120unhealthy": 24847, "\u0120sandwich": 18872, "\u0120complexes": 33566, "\u0120assigning": 51018, "dd": 2034, "\u0120rendre": 34302, "\u0120VIDEO": 42157, "\u0120Municipal": 24390, "\u00e5\u0132\u012f": 11737, "\u0120Series": 6938, "\u0120specification": 23959, "\u0120Tat": 28282, "\u0120rallied": 51884, "\u0120Morris": 19539, "\u0120spectro": 44036, "AFP": 64599, "\u0120MPI": 61982, "endment": 12277, "\u0120new": 627, "blogger": 14222, "ippen": 57586, "\u0120landmark": 27713, "Actual": 47536, "atte": 27306, "pread": 14678, "\u00e9\u0135\u00b6": 41187, "dial": 52122, "Click": 6895, "\u0120Kimber": 38132, "jourd": 26626, "liers": 9733, "hung": 28993, "opa": 26245, "\u0120firmly": 16525, "\u0120arts": 8950, "\u0120Difficulty": 61128, ";/": 64386, "\u0120Introducing": 58648, "\u00d0\u00b4": 24111, "\u0120dominance": 30309, "\u0120Cobb": 51673, "\u0120Preis": 36420, "Dragon": 50681, "\u0120drum": 17714, "\u0120playback": 36344, "\u0120HB": 31702, "\u0120returned": 5887, "\u0120Milton": 32144, "\u0120believes": 9369, "\u0120s\u00c3\u00a4tt": 51156, "\u0120entendu": 50537, "\u0120Nob": 11761, "Receiver": 62945, "\u0120Feedback": 31082, "\u0120wn": 47986, "INE": 9329, "\u0120Notre": 25423, "ved": 1364, "\u0120spong": 54737, "\u0120julio": 59106, "\u0120erkl\u00c3\u00a4rt": 63352, "\u0120corrections": 32622, "\u00f0\u0141\u0136": 51221, "\u0120ofrece": 37650, "\u0120publishers": 21205, "\u0120Raven": 33106, "Serializer": 47447, "\u0120Ernst": 47076, "\u00c3\u00a4h": 10702, "\u0120Liv": 22706, "\u0120Lack": 36602, "basic": 37347, "enthal": 49404, "\u0120happy": 2890, "\u0120debe": 24410, "\u0120strat\u00c3\u00a9g": 42447, "\u0120teachers": 6241, "\u0120\u00c3\u00a9tabl": 50759, "\u0120nominated": 21438, "sub": 5666, "opy": 2630, "VAIL": 49990, "\u0120craze": 62679, "\u0120mod\u00c3\u00a8les": 56420, "\u0120Goodbye": 63386, "conditions": 52226, "\u0120m\u00c3\u00a1ximo": 52022, "\u0120\u00e4": 62116, "pod": 27690, "\u0120Elements": 30316, "\u0120Sacred": 36776, "\u0120Connect": 6707, "\u0120Ergeb": 39515, "eye": 30815, "\u0120Ihrem": 45108, "\u00e2\u0122\u013b)": 37856, "\u0120Schweiz": 57767, "\u0120relish": 50136, "\u0120Passage": 62438, "\u0120Constitution": 15351, "Pinterest": 62850, "\u00e6\u012a": 2061, "\u0120warehouse": 18484, "essa": 12022, "\u00e6\u012c\u013a": 45154, "\u0120mess": 2093, "ternal": 4938, "oured": 11477, "\u0120\u010a\u0120\u0120\u0120\u0120\u0120\u0120\u0120\u0120\u0120\u0120": 29742, "rypted": 21669, "\u0120Lastly": 33394, "\u0120organism": 26816, "Else": 45575, "\u00e8\u00bf\u013b\u00e6\u013a\u00af": 28468, "\u0120hgh": 63514, "\u0120Acad": 6210, "\u0120Prime": 9896, "monds": 26557, "INVALID": 51275, "\u0120zusamm": 62055, "Js": 39486, "\u0120Hyundai": 34029, "bh": 42921, "\u0120imm\u00c3\u00a9d": 48308, "\u0120pit": 7757, "\u0120rede": 16146, "\u0120Ket": 29706, "\u00e9\u013c\u0132": 46899, "\u0120Useful": 49875, ".'\"": 44800, "hower": 57929, "\u0120Gael": 62691, "\u0120urz\u00c4\u0127d": 55886, "\u0120compelled": 28280, "\u0120Refugee": 64492, "\u0120intentional": 25081, "Di": 12630, "uyen": 30598, "\u0120lowers": 39137, "\u00e6\u013e\u0122\u00e7\u00bb\u012a": 62278, "\u0120Pressure": 21849, "\u0120bustle": 56346, "\u00c3\u00a9nd": 49172, "\u0120Boxes": 43724, "\u0120ROS": 47167, "zia\u00c5\u0124": 17988, "\u0120poss": 1224, "\u0120relev": 18100, "\u0120Tate": 42639, "\u0120AT": 7103, "\u0141\u00e6": 40163, "\u0120specialize": 24916, "\u0120both": 1216, "\u0120Topics": 23872, "\u00e8\u00bf\u0132\u00e5\u012c\u00a8": 50551, "\u0120stores": 6260, "\u0120Making": 13519, "\u0120pitcher": 25888, "\u0120Augen": 43633, "\u0120Apostle": 56088, "\u00e7\u00a6": 13327, "\u0120phys": 2272, "numbered": 63494, "mys": 30050, "\u0120tastes": 16313, "\u0120sweats": 64960, "\u0120kissing": 28170, "\u0120excursion": 41917, "Strip": 47250, "\u0120enfin": 40856, "Assignment": 62181, "\u0120viability": 39467, "\u0120wagons": 59197, "\u0120rests": 34135, "\u0120brokers": 24361, "\u0120franc": 27471, "Gay": 49104, "\u0120te": 564, "\u0120orig": 2076, "\u0120forcibly": 58728, "\u0120source": 3178, "\u0120consigli": 61761, "\u00e6\u0134": 21645, "uez": 18591, "\u0120rug": 12181, "\u0120therap": 9453, "300": 4126, "!\"": 4302, "quote": 24220, "\u0120similarity": 33062, "\u0120snel": 40908, "\u0120Sut": 50133, "\u00e4\u00b8\u012c\u00e4": 58138, "\u0120Beginning": 34661, "Mod": 6509, "\u0120recyclable": 49677, "student": 40072, "\u0120podr": 20094, "\u012d\u00e5\u0132\u0130": 24919, "\u0120hopped": 49740, "\u0120pasa": 49731, "\u0120derivative": 31300, "\u0120disagreed": 54115, "\u0120Root": 20193, "\u0120peoples": 18877, "\u0120Interview": 17588, "ilever": 60907, "\u0120donor": 23022, "\u0120rugged": 28664, "\u0120crib": 41701, "\u0120albums": 17968, "\u0120Brun": 22000, "\u0120asymptomatic": 42023, "\u0120Volume": 16841, "\u0120Don": 2848, "urbed": 24829, "\u0120Nit": 29772, "\u0120Kerala": 39128, "\u0120sons": 14566, "Morning": 45797, "\u0120priesthood": 57959, "past": 36290, "aleb": 32381, "\u0120Blessed": 44469, "essential": 31021, "gree": 11242, "\u0120chromosomes": 64680, "FL": 6634, "\u0120chefs": 28253, "\u0120globe": 11748, "\u0120Proxy": 45013, "Miller": 57553, "ieren": 8429, "column": 15560, "\u0120mellan": 59122, "\u0120fearful": 35624, "\u0120Someone": 17236, "\u0120kins": 58830, "\u0120mare": 23557, "Comp": 5982, "\u0120rhetoric": 27492, "\u0120curly": 38769, "\u0120zawsze": 50922, "\u0120filtered": 27671, "LOC": 28848, "\u0120Thur": 49235, "famous": 50836, "\u00e9\u00a9\u00bb": 58165, "====": 2228, "\u00e5\u0130\u0128": 21098, "\u0120Shan": 17761, "345": 29094, "\u0120signal": 7988, "\u0120Switzerland": 16742, "\u00e4\u00b8\u0129": 21653, "ospel": 12143, "zien": 36114, "\u0120nourishing": 48582, "ario": 3876, "arton": 40213, "\u0120convin": 11884, "gmail": 14604, "\u0120mise": 25043, "\u0120Comcast": 57576, "\u0120secular": 24735, "Agency": 62419, "month": 9665, "supp": 23241, "\u0120Opinions": 62778, "\u0120simultane": 11875, "\u0120arc": 14727, "?.": 14008, "\u0120nosotros": 30502, "\u0120Gavin": 42573, "zione": 8608, "\u0120Teatro": 58029, "standen": 57450, "\u0120LDS": 63763, "\u0120education": 3065, "eting": 26271, "Woman": 51074, "\u0120preliminary": 19566, "\u0120Microbiology": 64904, "entlich": 23759, "\u0120tenga": 56065, "\u0120sheet": 8455, "ell": 433, "\u0120orbital": 52078, "\u0120Lad": 16420, "\u0120Attach": 50549, "\u0120haben": 8999, "\u0120unpopular": 50866, "\u0120novo": 42728, "\u0120courte": 38664, "\u0120Nylon": 46061, "\u00e2\u0122\u0132": 11608, "\u0120SAS": 37433, "\u0120tenancy": 64863, "\u0120Cho": 18908, "\u0120cheval": 54936, "sseldorf": 62289, "\u0120whats": 33820, "\u0120Joseph": 9559, "\u00c3\u00a1z": 22380, "\u0120Creates": 42569, "\u0120colouring": 54878, "richt": 14059, "\u0120neurological": 33035, "\u0120Forward": 25761, "\u0120Gluc": 39318, "\u0120erad": 29887, "\u0120Saison": 61497, "ificantly": 57543, "\u0120buon": 55158, "imposed": 54608, "omatic": 12135, "\u0120Hello": 23090, "\u0120most": 758, "Actions": 35078, "\u0120Lt": 36671, "apixel": 54711, "\u0120disliked": 62860, "\u00e5\u00af\u00bb": 39777, "heon": 61249, "\u0120mile": 10018, "ilia": 18686, "Governor": 61561, "\u0120simulator": 38267, "\u0120subscription": 10879, "\u0120enhancements": 32359, "\u0120canv": 54736, "\u0120Senate": 9638, "\u0120Whitt": 59349, "\u00e5\u012c\u0142": 13724, "\u0120Hours": 17673, "\u0120horrors": 47330, "never": 30848, "\u0120Wig": 52995, "\u0120demonstr": 5059, "Repo": 60366, "\u0120Dub": 11458, "\u0120retir": 51569, "\u0120do\u00c5\u013dwiad": 56242, "\u0120Latest": 19528, "\u0120plastics": 31141, "ifi": 11450, "IONE": 54858, "Validate": 56661, "127": 14994, "\u0120loving": 9821, "\u0120comunidad": 50158, "Case": 12953, "\u0120shoots": 28146, "\u0120Gior": 51066, "\u0120streamlined": 34153, "\u0120ganar": 62974, "accomp": 64268, "apur": 48648, "\u0120SB": 23303, "\u0120composing": 39312, "Arguments": 49737, "\u0120Aries": 57570, "uffled": 39717, "\u0120Motivation": 54615, "\u0120Rowe": 56466, "\u0120forged": 36571, "\u0120unexpected": 10489, "\u0120echo": 11501, "ARA": 42398, "\u0120Holly": 26113, "achten": 20974, "\u0120Steele": 45241, "\u0120Dumps": 52519, "Note": 8290, "\u0120friv": 54607, "tb": 58169, "\u0120stand": 1405, "\u0120repetition": 37493, "\u0120Archaeology": 63569, "ickets": 13511, "soever": 21144, "itsu": 41572, "\u0120workplace": 11363, "\u0120lingering": 34368, "\u0120du": 1681, "eral": 2223, "\u0120encountering": 53239, "located": 64102, "cation": 39615, "eared": 13850, "\u0120bleed": 41760, "\u0120avec": 4275, "lle": 18265, "\u0120substances": 15692, "\u0120Butter": 16330, "cco": 28401, "\u0120Totally": 38926, "\u0120Cott": 47878, "\u0120arsen": 60868, "\u0120transgenic": 61847, "\u0120Adri": 34239, "\u0120Dive": 51266, "\u0120murdering": 61531, "\u0120microsoft": 55874, "\u0120certe": 58437, "\u0120Zak": 42339, "\u0120Jour": 19292, "Ian": 46679, "\u0120encrypted": 28409, "\u0120hazards": 25758, "\u0120Mario": 20069, "\u0120resignation": 31964, "\u0120seis": 50947, "\u0120Online": 4047, "aar": 55154, "\u0120dentists": 42933, "\u0120Desc": 46364, "\u0120weakly": 60759, "abulary": 19187, "Boost": 47156, "\u0120Bonuses": 52420, "\u0120Kimberly": 50370, "alan": 30910, "\u0120unlawful": 33536, "wart": 9564, "\u0120overr": 33189, "Trim": 54413, "\u0120stipulated": 58577, "\u0120Forestry": 59765, "\u0120Da": 8048, "ma": 1718, "Unity": 63659, "\u0120message": 3443, "ipeline": 26011, "\u0120tail": 6804, "angular": 18335, "\u00e5\u0127\u0126": 39473, "\u0120Monitor": 14819, "\u0120Estimate": 60408, "765": 46209, "\u0120scegl": 59427, "\u0120Rav": 18177, "Includes": 40387, "\u0120erre": 26762, "\u0120URI": 43456, "\u0120dresses": 17180, "\u0120jackpot": 22891, "\u0120tl": 43757, "\u0120banging": 52216, "\u0120partition": 21488, "\u0120medicinal": 30174, "\u0120SERVICE": 51271, "\u0120pretend": 18463, "\u0120DES": 21315, "\u0120soir": 28026, "verted": 17589, "\u0120toda": 21822, "\u0120prowad": 42297, "\u0120semantic": 43280, "Rick": 43716, "\u0120Minn": 64802, "415": 30137, "Funnels": 24886, "\u0120Shine": 50182, "\u0120forwards": 36763, "\u00e7\u013c\u0126\u00e7\u012a": 60380, "\u0120mindestens": 60502, "\u0120Paragu": 63384, "MIN": 22241, "\u0120pole": 17740, "\u0120cooper": 7861, "\u0120boyfriend": 14350, "Xia": 64855, "\u0120caregiver": 39930, "ux": 1602, "\u0120heres": 60992, "protein": 45071, "\u0120edging": 62793, "\u0120Persons": 41375, "iours": 35788, "\u0120fom": 56404, "\u0120Circ": 11374, "\u0120once": 1960, "\u00c3\u00a9r": 5983, "umatic": 43051, "\u0120adres": 58104, "\u0120equivalents": 60045, "lem": 9054, "\u0120specializing": 29940, "\u0120enzym": 12765, "\u00e6\u00a1\u012a": 34812, "\u0120cellphone": 37981, "inqu": 24473, "swap": 52160, "idays": 8601, "\u0120Scottsdale": 54558, "oche": 10325, "\u0120position": 2524, "information": 15456, "\u0120\u00d8\u00a7\u00d9\u0126\u00d8": 63147, "uelo": 59598, "\u0120Pour": 12039, "\u0120dealerships": 59439, "\u0120setup": 8915, "\u0120hurried": 28388, "629": 51600, "\u0120UL": 29258, "\u0120importantly": 11673, "ovirus": 39892, "\u0120alliances": 45709, "handler": 28649, "\u0120competition": 5867, "\u0120cinco": 39171, "\u0120MAR": 19511, "Relax": 53086, "aqu": 38099, "world": 9091, "\u0120Benson": 45908, "\u0120tournament": 11693, "\u00e2\u0122\u013f\u00e2\u0122\u00a6": 49469, "\u0120slow": 3360, "\u0120resilience": 20524, "\u0120cows": 25797, "\u0120airplanes": 52143, "\u0120Lu": 7906, "istiche": 50859, "\u0120Chr": 51764, "\u0120Apple": 5384, "\u0120Spa\u00c3\u0141": 56348, "\u0120t\u00c3\u00a9l\u00c3\u00a9": 23131, "422": 35767, "\u0120Costume": 49202, "mq": 60339, "\u0120Vass": 63462, "nm": 31301, "\u0120diminishing": 50625, "\u0120thee": 29410, "\u0120PAC": 37490, "ousine": 54594, "players": 56929, "\u0120casual": 9934, "\u0120Sauvignon": 57199, "\u0120preserving": 26550, "\u0120Domin": 14511, "alla": 9702, "urement": 19335, "\u0120changing": 5650, "l\u00c3\u00a4": 16122, "\u0120Contribution": 57400, "\u0120Changes": 20139, "Caroline": 63566, "\u0120seminary": 63699, "\u0120unfolding": 44463, "monitor": 39328, "mers": 18822, "b": 77, "\u0120Kne": 55863, "\u0120reneg": 64390, "\u0120backend": 32537, "\u00c3\u00a9tat": 47847, "\u0120violence": 6789, "ureau": 11179, "Beds": 64683, "\u0120voce": 38146, "\u0120November": 3895, "arella": 32362, "\u0120FAM": 49224, "\u0120Recipe": 20202, "\u0120Laugh": 51941, "\u0120dictated": 52325, "\u0120LIB": 60281, "Solutions": 61738, "\u00e4\u00ba\u0128\u00e4\u00b8\u0122": 18621, "168": 17546, "\u0120prin": 5904, "\u0120alguns": 53731, "\u0120wok": 61396, "Config": 6591, "\u0120purchaser": 44863, "\u0120Universit\u00c3\u00a4t": 54319, "\u0120ingredients": 5651, "\u0120July": 3313, "355": 31871, "\u0120acqu": 3844, "Acc": 4891, "571": 46147, "\u0120Ecology": 47221, "\u0120avril": 42131, "Bruce": 44497, "\u0120warl": 59759, "\u0120speaks": 13229, "[:": 18191, "space": 14078, "\u0120dumped": 35537, "veolar": 53723, "repair": 63094, "\u0120leaping": 62744, "\u0120Child": 5322, "Equ": 7355, "\u0120Nest": 26385, "\u0120Pupp": 29669, "\u0120RAD": 56542, "\u0120effettu": 62300, "\u0120Conclusions": 64611, "oS": 43499, "rizona": 9880, "\u0120Arn": 21167, "\u0120dyn": 5687, "\u0120Manhattan": 18815, "\u0120mane": 34102, "ignty": 30340, "nsic": 27544, "\u0120parece": 28947, "\u0120AUT": 42597, "\u0120comunicaci\u00c3": 50590, "\u0120Plant": 11392, "\u0120pamph": 48967, "\u0120Pinterest": 17046, "\u0120render": 14245, "\u0120impat": 28916, "Se": 2935, "\u0120Legend": 23047, "Whats": 36960, "trigger": 44358, "\u0120humbled": 57731, "IX": 13645, "\u0120stab": 22214, "\u0120apro": 20043, "Phi": 48779, "\u0120crime": 7482, "greg": 15721, "\u0120crowdfunding": 55164, "\u0120mis": 3592, "\u0120wanna": 19671, "\u0120Meng": 56037, "\u0120cap": 1513, "\u0120OP": 11161, "icho": 49497, "LECT": 19863, "inski": 32366, "camera": 35794, "\u0120lg": 59837, "\u0120Residents": 36672, "\u0120duas": 59770, "\u0120Charleston": 29674, "Assessment": 52065, "\u0120Ug": 22623, "\u0120kurs": 60238, "\u0120washable": 45410, "\u0120hor": 2956, "BET": 59454, "\u0120decency": 63696, "\u0120freeway": 59613, "\u0120Vaccine": 39386, "\u0120Relevant": 56792, "\u0120ske": 10048, "Over": 4615, "\u0120Ric": 16497, "\u0120Dazu": 59328, "\u0120scam": 19493, "\u0120Snyder": 41729, "\u0120bite": 12471, "ADS": 47405, "\u0120save": 3425, "\u0120Richard": 8364, "NotNull": 37002, "Mars": 41431, "\u0120Caribbean": 17635, "\u0120Zusammen": 33141, "Summer": 24159, "\u0120Scheme": 29804, "\u0120contacts": 12977, "\u0120compa\u00c3\u00b1\u00c3\u0143a": 50815, "\u0120tecnologia": 60524, "\u0120Bieber": 54096, "Lou": 23140, "\u0120allergic": 23648, "today": 39159, "\u0120obviously": 7670, "\u0120worn": 11995, "\u0120stopping": 12103, "\u0120pob": 21823, "\u0120narciss": 39122, "Eval": 29531, "\u0120Slate": 55083, "ocese": 33411, "\u0120furnish": 26430, "\u0120scaled": 34049, "\u0120passed": 4710, "icated": 2673, "hub": 33410, "\u0120joyous": 53458, "ateral": 12147, "\u0120desp": 14448, "\u0120oats": 36892, "Ster": 49643, "iest": 5952, "\u0120braces": 33499, "KA": 20838, "ENGTH": 45943, "\u0120Nam": 20375, "736": 53090, "g\u00c3": 19513, "\u0120arguably": 25161, "obey": 63428, "RELATED": 31724, "aj\u00c3\u0143c\u00c3\u0143": 60691, "ducation": 4594, "oxin": 41050, "iruses": 36456, "FIT": 59927, "Rabbit": 51383, "\u0120Haw": 7875, "\u0120cz\u00c4\u013bsto": 55783, "\u0120touch": 3404, "\u0120sch\u00c3\u00b6ne": 63722, "\u0120empowers": 44314, "\u0120Arizona": 10769, "\u0120considerably": 17386, "oman": 8002, "\u0120Hub": 12154, "\u0120forn": 43325, "a\u00c3\u00a7\u00c3\u00a3o": 9926, "!</": 61394, "\u0120Av": 4597, "Notes": 23165, "\u0120coco": 49314, "\u0120Stim": 33032, "\u0120odp": 44262, "\u0120haze": 50391, "\u0120stricter": 59631, "\u0120Wij": 51435, "unea": 51656, "\u0120Mog": 46012, "133": 16568, "FROM": 49787, "\u0120replen": 36387, "Inch": 52674, "Charles": 30271, "\u0120besonders": 32749, "wit": 61164, "\u0120skip": 14741, "atro": 19450, "\u0120Unters": 41523, "\u0120Bench": 28504, "\u0120extremism": 60257, "\u0120saves": 17039, "\u0120homestead": 57815, "compass": 17977, "\u0120Blossom": 54575, "WHERE": 44702, "\u0120Wolff": 63128, "\u0120Gateway": 30110, "ument": 1631, "\u0120Recru": 46666, "cin": 13185, "\u0120excluding": 32453, "orough": 7155, "\u0120ers": 34899, "\u00e5\u00b0\u00b1\u00e5\u0125\u0131": 40895, "formatics": 39027, "\u0120biking": 30205, "\u0120AD": 7599, "\u00e9\u0134": 16203, "MA": 578, "\u0120tabl": 55326, "\u0120domic": 34876, "\u0120Ruiz": 57456, "ertos": 42232, "\u0120traced": 31907, "solution": 61245, "____": 1946, "006": 26838, "y\u00c5\u0124": 60024, "\u0120Hall": 4976, "\u0120SOP": 61722, "\u0120overst": 50221, "\u0120Chant": 53341, "\u0120zero": 7528, "\u0120Geme": 41094, "\u0120means": 1877, "\u0120unto": 21476, "grade": 6164, "\u0120paylines": 63259, "\u0120WP": 22709, "\u0120Streaming": 35803, "cash": 39306, "\u0120Chalk": 62912, "kom": 19575, "esque": 42805, "\u0120Heath": 30689, "\u0120cere": 6805, "\u0120partire": 58696, "\u0120downloaded": 15844, "\u0120debunk": 58223, "\u0120Pradesh": 29184, "idades": 10713, "\u0120stew": 18343, "\u00c3\u00a4t": 6191, "\u0120politically": 23174, "\u00da": 160, "\u0120Mechan": 17064, "\u0120types": 3059, "\u0120moods": 51051, "\u0120confront": 11039, "\u0120miej": 31286, "HK": 35064, "\u0120unpublished": 60177, "possible": 57510, "Penn": 45443, "\u0120storefront": 49132, "\u0120crian": 54624, "\u0120Calendar": 19262, "\u0120valid": 4811, "\u0120gek": 23329, "IVES": 54741, "\u0120Polish": 20327, "bon": 3936, "\u0120Brem": 43497, "\u00c3\u00b6lker": 59450, "Leader": 62457, "aci": 13094, "ignon": 29877, "\u0120saints": 35756, "fund": 15942, "binary": 36601, "\u0120ihre": 18728, "\u0120marker": 20415, "\u0120acquiring": 21862, "\u0120comic": 14004, "5": 32, "\u0120Parents": 20851, "{": 102, "common": 15419, "\u0120Helm": 52800, "adjusted": 46846, "\u0120Kitt": 53634, "\u0120incend": 57517, "\u0120trick": 7968, "\u0120Fallout": 58475, "\u00c8\u013d": 4651, "\u0120spring": 5625, "\u0120agencies": 7953, "\u0120pack": 2122, "\u0120payout": 25331, "\u0120clustering": 51096, "\u0120disc": 1080, "ruciating": 62403, "\u00e2\u013b\u00a5": 30683, "\u0120caregivers": 28437, "wasser": 62347, "ality": 1276, "\u0120generational": 60518, "\u0120Enlight": 48126, "\u0120etap": 62124, "\u0120Stones": 36542, "unter": 17551, "Mill": 20776, "\u0120owning": 24823, "tal": 26628, "elson": 14290, "\u0120HIGH": 43145, "\u0120recognises": 62769, "\u00c3\u0143cio": 47047, "\u0120Treasure": 26975, "\u0120os": 5373, "\u0120auditing": 46886, "NODE": 58380, "oine": 36707, "xml": 18391, "\u0120Messenger": 32646, "\u0120CAL": 37341, "\u0120Sharing": 29190, "\u0120inspiration": 8524, "\u0120Gert": 49851, "\u0120plagiar": 33748, "\u0120Nutzer": 63822, "rub": 24294, "\u0120essere": 12152, "\u0120alpha": 17056, "syn": 46539, "\u0120Narrative": 59471, "\u0120\u00e2\u0124\u00ac": 6471, "\u0120producci\u00c3": 45756, "\u0120peril": 41116, "\u0120newspapers": 19070, "\u00e5\u0142": 19343, "Whe": 10368, "\u0120rebuild": 17789, "privile": 53630, "\u0120ahead": 4526, "\u0120clung": 56106, "alto": 49591, "\u0120barefoot": 53788, "\u0120Assert": 21948, "acje": 31844, "ndon": 59595, "?</": 61316, "\u0120Alexandra": 43902, "ocious": 54262, "pex": 26236, "\u0120likewise": 12548, "\u0120anew": 60580, "\u0120prima": 13180, "\u0120enroll": 9875, "\u0120CHF": 45955, "\u0120diplom": 22038, "\u0120smashed": 38144, "\u0120authority": 7594, "alt": 2484, "\u0120wiped": 25623, "\u0120clashes": 50688, "\u0120let": 1253, "uvres": 43910, "\u0120jokes": 20577, "bia": 25503, "\u0120missionary": 40945, "IBM": 57613, "\u0120Perth": 35548, "!.": 18593, "offs": 12947, "\u0120resched": 61936, "\u0120refle": 52744, "\u0120FR": 18139, "Fre": 22567, "ellen": 7973, "Script": 10607, "\u0120Canada": 4332, "\u0120Moll": 57889, "\u0120spacecraft": 43611, "\u0120Pops": 58262, "\u00c3\u00aatre": 12108, "odor": 28129, "\u0120Desert": 26145, "\u0120Hadoop": 59403, "\u0120enth": 47074, "\u0120Moody": 47118, "wagon": 48705, "\u0120spectrum": 12707, "rato": 36570, "\u0120Canon": 22705, "\u0120CCC": 59236, "\u0120Bride": 36192, "\u0120Language": 12413, "\u0120Delphi": 63410, "\u0120hacer": 12127, "\u0120adopting": 25106, "\u0120brows": 36442, "\u0120abund": 11598, "\u0120fortun": 15149, "Sql": 38516, "\u0120musical": 8658, "\u0120contractor": 14598, "peed": 56294, "\u0120created": 2870, "SUCCESS": 39992, "\u0120recomm": 2244, "\u0120mostra": 57490, "izadas": 62409, "\u0120rural": 10088, "\u0120commuting": 49447, "\u0120estr": 26585, "\u00e6\u0129": 47206, "iku": 26916, "\u0120solace": 56759, "\u0120equation": 15192, "uting": 25231, "organ": 8267, ",\u00e2\u0122\u013b": 12120, "\u0120Resistant": 59128, "Capt": 22487, "immel": 41814, "\u0120SAFE": 63823, "owered": 24586, "\u0120guardians": 38183, "\u0120heavier": 24380, "\u0120Pineapple": 58479, "\u0120insecurity": 34827, "\u00e6\u00af\u00ab": 43727, "\u0120rinse": 30076, "\u0120dents": 55971, "\u0120follicles": 56764, "728": 51376, "rid": 5951, "\u00c3\u012a": 35053, "\u0120Worst": 45422, "\u0120Hamilton": 14382, "\u00e9\u00a4": 55300, "437": 43202, "\u0120daughters": 17103, "\u0120desserts": 29329, "\u00c3\u00a1tica": 29608, "\u0120Fischer": 44877, "\u0120Sounds": 21501, "ABOUT": 46272, "\u0120IRC": 54421, "\u0120Henry": 9566, "\u0120Leah": 38108, "\u0120sausages": 58613, "\u0120Op": 7751, "'.": 6304, "\u0120\u00c3\u00banico": 37102, "{};": 31261, "\u0120fulfillment": 26708, "rails": 63200, "ongo": 23512, "\u0120FIN": 29274, "eline": 5035, "acter": 2046, "\u0120experiment": 6100, "\u0120profond": 42079, "\u0120da": 2337, "\u0120\u00c4\u012f": 11004, "reten": 51685, "\u0120\u00c8\u013bi": 8241, "\u00e7\u013c\u0126\u00e5\u00a5": 40402, "Fot": 53382, "\u00c3\u00a2": 3430, "\u0120cadre": 28426, "\u0120Falcons": 44686, "\u0120referral": 21961, "advert": 28358, "\u0120Matching": 54609, "=\\": 20296, "\u0120Sie": 4608, "\u0120distingu": 10961, "\u00e5\u013e\u00a8\u00e9\u0124\u00a3\u00e9\u0129\u012e": 60031, "\u0120endeavour": 51813, "acco": 13188, "\u0120competencies": 42542, "\u00e7\u0130\u012d\u00e5\u013d": 64152, "\u0120Likely": 61971, "113": 15504, "idable": 31210, "\u0120Transfer": 17622, "\u0120incontin": 63489, "028": 45642, "dirname": 44479, "\u0120Utah": 14715, "ng": 904, "abit": 49926, "\u0120waterfalls": 46199, "\u0120shortening": 54980, "\u0120famously": 38991, "ignment": 16325, "\u00e6\u012d\u0127": 37198, "rena": 48824, "Execut": 17935, "\u0120blasting": 49921, "start": 7748, "\u0120campus": 8500, "\u0120Sp": 1489, "\u0120passport": 21168, "burst": 31662, "\u0120McD": 39450, "\u0120degrees": 7578, "SCH": 49168, "normal": 11003, "\u0120pse": 21692, "\u0120lesb": 42225, "\u0120abandoned": 15252, "\u0120Maar": 36734, "Hour": 45009, "\u00c5\u00ab": 41072, "\u00e6\u0132": 26519, "Latin": 49039, "\u0120Ing": 28670, "\u0120Vladimir": 32320, "\u0120lawsuits": 28364, "assembled": 56597, "\u0120pace": 9379, "\u00bd\u00b9": 60902, "artist": 55570, "Du": 22228, "\u0120Evangel": 30987, "grand": 25811, "\u0120panoramic": 39957, "Secondary": 57029, "ican": 7255, "\u0120else": 1845, "\u0120thing": 1510, "${\\": 37471, "RHP": 57540, "\u0120stalls": 39941, "loop": 26421, "cible": 54562, "\u0120sealed": 18456, "\u0120Sasha": 56323, "\u0120Qualification": 61626, "\u0120growth": 3047, "\u0120pledge": 28581, "\u0120LB": 34563, "oce": 32666, "\u0120Affect": 35552, "\u0120reminded": 12907, "merce": 6250, "mf": 63437, "\u0120PMID": 62309, "\u0120size": 2275, "Genesis": 48241, "\u00e4\u00ba\u0128\u00e5": 51405, "\u0120Freud": 41950, "\u0120Parenthood": 50656, "\u0120upward": 22767, "081": 50772, "\u0120pelvis": 59049, "Protection": 59009, "\u0120profil": 46587, "\u0120Ruf": 54070, "\u0120Geek": 47416, "\u0120autom": 2756, "\u0120Jahrhund": 58708, "\u00e6\u0126\u0131\u00e6\u0122\u013f": 57941, "\u0120Beratung": 61326, "\u0120Caldwell": 54470, "\u0120Conduct": 23732, "keye": 50109, "\u0120coined": 50135, "\u0120Pub": 11735, "zar": 35367, "\u0120crawled": 49736, "\u0120defe": 8868, "agg": 7050, "\u0120thanksgiving": 60744, "dre": 63880, "burning": 50388, "tailed": 44154, "BAL": 39573, "Portable": 64811, "\u0120telehealth": 53556, "\u0120Lawyer": 26485, "\u0120partie": 19227, "\u00e6\u013f\u0122": 20312, "\u0120Mansfield": 64725, "\u0120buys": 29200, "antiate": 56660, "omp": 13862, "\u0120merits": 32313, "\u0120originality": 51703, "\u0120benefits": 3194, "\u0120generators": 31263, "035": 48507, "\u0120Tennis": 27091, "\u0120assembled": 21308, "orten": 41492, "arga": 36799, "Prot": 14998, "\u0120condu": 20160, "\u0120nostro": 27190, "\u0120Certain": 16304, "\u0120socialism": 41202, "\u0120Twitter": 5174, "Cursor": 43932, "\u0120NAME": 51898, "....\"": 57892, "rison": 16398, "\u0120identifies": 24094, "\u00c3\u00b6": 1415, "ifying": 4543, "\u0120flap": 37907, "Ont": 48856, "Combine": 47883, "\u0120volatility": 23856, "\u0120Nar": 20729, "\u0120inbox": 21429, "\u0120spyware": 62681, "racial": 34610, "\u0120Int": 2653, "\u0120Fred": 10258, "Fun": 18437, "orne": 35586, "023": 44026, "Jerry": 56321, "ormal": 7144, "\u010a\u0120\u0120\u0120\u0120\u0120\u0120\u0120\u0120\u0120\u0120\u0120\u0120\u0120\u0120\u0120\u0120\u0120\u0120\u0120\u0120\u0120\u0120\u0120\u0120\u0120\u0120\u0120\u0120\u0120\u0120\u0120\u0120\u0120\u0120\u0120\u0120": 31374, "\u0120Pfizer": 32981, "\u0120atheists": 45146, "\u0120ligand": 52464, "\u0120trains": 18129, "At": 3125, "Novel": 57793, ")\",": 36005, "\u0120stup": 33252, "\u0120creates": 8176, "\u0120kunt": 26823, "\u00e3\u0122\u0124\"": 7763, "ainless": 9691, "\u0120Total": 11725, "\u0120oblivious": 52442, "\u0120Aug": 2750, "\u0120OF": 6794, "\u0120Less": 11870, "tershire": 47053, "\u0120Emb": 18886, "\u0120Rena": 25649, "\u0120upgrades": 19471, "\u0120Moving": 22250, "\u0120blacks": 31940, "\u0120n\u00c3\u00a3o": 9434, "\u0120Fert": 44182, "\u0120ordained": 48974, "\u0120Rinse": 58132, "\u0120estas": 23228, "locked": 32562, "rika": 23126, "\u00e5\u00ba\u013b": 53540, "\u0120polynom": 41942, "\u0120hose": 24408, "\u0120suspect": 8784, "\u0120consequences": 9315, "\u0120sixth": 16541, "\u0120arriving": 19669, "\u0120Constant": 25495, "\u0120buffers": 54617, "\u0120nagging": 61006, "pol": 14364, "\u0120suburbs": 33480, "\u0120rider": 23318, "oy": 677, "524": 43887, "\u0120structures": 9051, "\u0120goo": 41338, "\u0120dynasty": 47066, "\u0120forfe": 54243, "\u0120Mono": 53035, "\u0120suppose": 10681, "896": 58863, "\u0120outros": 38863, "\u0120withdrawn": 33309, "Scheme": 60464, "\u00e8\u00b5\u00b7\u00e4\u00ba\u0128": 60982, "\u0120Pier": 12754, "\u0120Yellow": 15442, "\u0120favorable": 20544, "\u0120siglo": 55230, "\u0120leaked": 29042, "aru": 21691, "\u0120latin": 60479, "Ruby": 60687, "\u00c2\u00a6": 40180, "istan": 6048, "ariable": 15534, "\u0120Adventure": 21204, "\u0120aktual": 51382, "\u0120sickness": 26974, "\u0120citations": 34028, "\u0120Scotch": 54210, "\u0120atra": 51356, "\u0120queue": 17885, "\u0120palpable": 58552, "\u0120Ignore": 63862, "\u0120Pent": 17060, "emiconductor": 36771, "ats": 1379, "\u0120tann": 54680, "\u0120Conce": 50470, "\u0120profesor": 62609, "\u0120sweaters": 52291, "\u0120Museo": 56594, "\u0120mucho": 17897, "\u0120principale": 45803, "china": 45188, "\u0120bucket": 16838, "\u0120composer": 24438, "\u0120Yen": 61899, "Team": 18511, "\u00e8\u0126\u00b1": 40336, "\u0120anger": 11101, "\u0120Directed": 52136, "ogno": 32393, "\u0120controlling": 16474, "\u0120Everton": 59847, "\u0120moll": 62888, "ellant": 63098, "\u0120catfish": 64092, "\u0120reacts": 46126, "\u0120ricon": 42218, "\u0120ally": 30206, "\u0120instability": 34999, "book": 2068, "him": 25446, "away": 7203, "\u0120Owen": 30787, "\u0120dildo": 56537, "\u0120quant": 4461, "\u0120subdued": 54943, "byt": 55034, "redited": 37911, "\u0120Biomedical": 52712, "Opens": 60777, "Dallas": 50788, "\u0120combo": 20410, "\u0120Pediatric": 38910, "\u0120containers": 15417, "\u0120conqu": 30371, "\u0120Chronicle": 39437, "\u0120Wines": 61093, "\u0120aprend": 36267, "erna": 24163, "money": 30436, "\u0120Helmet": 62903, "Buy": 13393, "\u0120upwards": 26334, "\u0120screenshots": 37291, "\u0120Diablo": 39202, "\u0120Listings": 42125, "\u0120transitional": 41895, "\u0120Delaware": 22652, "dy": 6764, "vill": 61580, "\u0120meticulous": 48585, "\u0120dieta": 60069, "\u0120centralized": 32522, "\u0120torrent": 25515, "\u0120unidentified": 55681, "\u0120scams": 32219, "\u0120anunci": 50132, "\u0120utmost": 25923, "\u0120depicted": 28860, "ijk": 7149, "\u0120shingles": 42968, "das": 37834, "Legal": 32009, "Secret": 25932, "ties": 3810, "Giving": 45136, "\u0120t\u00c3\u00a4": 50682, "\u0120Attributes": 58704, "\u0120photon": 63204, "\u0120brick": 13842, "Trump": 23043, "inburgh": 23117, "Physical": 30838, "ov\u00c4\u013d": 46763, "\u0120Named": 40510, "\u0120Recording": 41171, "\u0120wise": 11718, "\u0120nintendo": 64461, "aspberry": 23101, "224": 24386, "fig": 3127, "\u0120lucid": 55781, "\u0120Tammy": 56235, "Sum": 38005, "illos": 38091, "\u0120err": 4257, "Deep": 27319, "306": 30132, "\u0120peanuts": 40246, "Cla": 56684, "oras": 44582, "\u0120cursor": 23135, "\u0120contributions": 11343, "\u0120crafted": 19790, "ahi": 39238, "\u0120control": 1873, "Part": 6273, "\u0120releases": 12395, "\u0120couch": 15382, "oden": 44689, "\u0120adrenaline": 38632, "ieli": 41080, "\u0120injecting": 62750, "\u0120PJ": 47226, "\u00c3\u00bablic": 15354, "dig": 11678, "\u0120Es": 5535, "\u0120affords": 53975, "\u0120Mumbai": 20892, "ynamic": 23849, "\u0120eyebrows": 26354, "nite": 36877, "overe": 36726, "\u0120Style": 12652, "\u0120hardly": 10859, "\u0120Fare": 46708, "\u0120cleanliness": 47717, "[": 70, "\u0120Co": 2004, "\u0120czym": 60396, "\u0120Ramirez": 55242, "coal": 21097, "arcia": 63859, "\u0120parasite": 53144, "\u0120Verification": 49382, "\u0120officers": 8053, "\u0120encou": 3590, "imeter": 21302, "\u0120competitor": 25271, "\u0120Albany": 35648, "tw": 8986, "\u0120v\u00c3\u0143": 21510, "\u0120leading": 3736, "\u0120wouldn": 3933, "\u0120Bloom": 15022, "\u0120repaired": 28349, "\u0120resto": 32392, "\u0120resembled": 59816, "\u0120Bone": 31777, "\u0120equilibrium": 28391, "\u0120Plymouth": 42616, "othed": 53434, "!'": 22499, "\u0120CVS": 48489, "\u0120Tbsp": 42378, "rine": 10950, "alese": 60015, "Official": 33280, "\u0120Al": 1031, "\u0120cat": 3327, "\u0120Groom": 56051, "urethane": 45808, "\u0120colourful": 32188, "\u0120hidden": 7905, "\u0120yours": 8761, "alers": 39640, "\u0120households": 17314, "\u0120relieving": 51679, "\u0120kun": 13277, "\u00e5\u012a\u00a4": 38782, "\u0120rollout": 49266, "\u0120alerted": 49305, "LEVEL": 55498, "\u00e5\u00b8\u00a6\u00e7\u013f\u0122": 55608, "\u0120prey": 25269, "\u0120Brack": 62995, "\u0120Belt": 21536, "\u0120Mohammad": 50326, "sz": 11838, "girls": 43281, "Rais": 53719, "intest": 29089, "udd": 4675, "\u0120Monet": 59811, "\u0120okaz": 57170, "ADE": 25784, "\u0120lettering": 54789, "Hair": 31676, "\u0120abiding": 62426, "ges": 2771, "\u0120Europeans": 36219, "\u0120territorio": 40536, "\u0120Bov": 55263, "\u0120paralyzed": 55810, "\u0120overl": 11843, "\u0120irons": 60256, "\u0120pedd": 63612, "pres": 13460, "\u0120Workshop": 19765, "aph": 11445, "\u0120flavored": 41237, "\u0120Pued": 50273, "druck": 54232, "\u0120skincare": 27236, "cancer": 57886, "\u0120Desmond": 62602, "\u0120welfare": 15364, "\u0120opportun": 2095, "\u0120alternate": 18375, "\u0120dishwasher": 28572, "\u0120santa": 59203, "\u0120province": 15296, "Egg": 63314, "\u0120reservation": 20977, "\u0120disk": 13286, "555": 30525, "\u0120uncover": 23071, "\u0120opinion": 5453, "\u0120AED": 50350, "Improve": 59158, "\u0120markup": 50332, "\u0120facil": 35318, "\u0120\u00ce": 8542, "\u0120inicial": 62451, "\u0120Sparks": 54463, "\u0120leva": 56877, "\u0120Subject": 20762, "ynote": 25951, "\u00e9\u013b\u0122": 28343, "\u0120Bier": 58170, "\u0120adaptive": 27618, "authent": 34931, "\u0120situ": 4714, "\u0120brass": 20654, "\u0120foll": 21922, "exchange": 49668, "\u0120venues": 18549, "\u0120Cameron": 21925, "\u00e0\u00b8\u0143": 40661, "ked": 22476, "\u00e5\u0132\u00b8": 46956, "\u0120Glitter": 60406, "\u0120paranoid": 45635, "\u0120praised": 27294, "\u0120penal": 31570, "edish": 57477, "is": 259, "\"\"": 3513, "\u0120premiere": 22992, "oused": 41475, "\u0120Joanne": 59322, "\u0120valuables": 61369, "\u0120issues": 2356, "ABC": 36985, "\u0120posing": 36646, "\u0120anno": 37632, "omi": 12877, "\u0120Belle": 27964, "cket": 31282, "raged": 38163, "McC": 47277, "\u0120chius": 50881, "ummies": 6697, "\u0120horizontally": 46176, "kook": 62448, "Thursday": 16887, "parent": 6440, "\u0120comple": 1605, "giving": 11187, "\u0120Thro": 58235, "ubes": 47169, "\u0120Hannah": 21815, "\u0120\u00e2\u0139\u0131": 55588, "Ts": 38757, "\u0120Throughout": 24235, "alias": 46120, "\u0120professions": 36254, "\u0120Mek": 55157, "\u0120Microgaming": 56529, "\u0120planes": 19834, "\u0120Parallel": 50183, "\u0120ordin": 40421, "\u0120CL": 10271, "\u0120valuable": 7085, "\u0120Patienten": 58510, "\u0120Coord": 14552, "\u0120divent": 37508, "\u0120fonts": 27724, "\u0120Invest": 6518, "\u0120revenue": 6790, "\u00e8\u00a1\u012e\u00e4\u00b8\u00ba": 50781, "Bind": 37130, "\u0120compass": 38179, "\u0120reminisc": 61508, "Tensor": 39377, "\u0120constrained": 41869, "\u0120Naruto": 64785, "vc": 22829, "aat": 25517, "\u0120disabled": 13268, "ologna": 47465, "\u00e9\u013c\u0128": 56591, "\u0120Trusted": 53573, "\u0120insurance": 3386, "oka": 25175, "ointing": 64841, "\u0120cultura": 36480, "\u0120dimin": 14327, "\u0120Ak": 11050, "\u0120milestones": 35800, "cz": 4135, "h\u00c3\u00b6ren": 48727, "\u0120pixel": 25663, "\u0120Rolf": 59639, "\u0120spectacle": 32898, "\u0120lubrication": 64933, "\u0120porno": 30732, "annotations": 59313, "(*": 10625, "\u0120cumbers": 50346, "eryl": 62826, "\u0120heal": 12668, "\u0120idol": 32376, "\u0120Booster": 46919, "\u0120deportation": 61410, "Alright": 49463, "\u0120Gand": 24850, "\u0120possessions": 30342, "\u0120Spark": 21624, "ferably": 51640, "ooks": 6476, "\u0120therapist": 16103, "\u0120Effects": 19514, "ventory": 21003, "\u0120chinese": 44782, "\u0120complementary": 29626, "\u0120seats": 10628, "\u0120Dialog": 47764, "Ct": 53689, "ocumented": 46293, "Shared": 30883, "\u0120re\u00c3\u00a7u": 61671, "\u0120polymorph": 53732, "Ashley": 51796, "\u0120REALLY": 34587, "\u0120Rede": 40939, "eredith": 38781, "\u0120Pool": 17387, "\u0120Heb": 55537, "\u00c4\u0125tor": 49796, "\u0120Network": 6782, "\u0120Jenner": 60120, "\u0120Deze": 39931, "Investment": 56534, "\u0120offers": 2518, "walks": 36154, "\u0120configured": 21651, "\u0120booths": 46699, "\u0120makeshift": 60692, "rench": 4117, "\u0120relative": 8301, "iere": 8617, "\u0120friends": 2153, "\u0120In": 529, "\u0120Implement": 21070, "\u0120vents": 42357, "Perm": 19423, "\u0120precise": 12536, "\u0120mills": 25543, "inate": 4411, "\u0120Space": 9058, "\u010e": 196, "hensible": 43109, "itime": 21711, "prehensive": 27058, "\u00c3\u00a9qu": 15494, "illed": 2258, "nail": 29881, "\u0120damaging": 20782, "\u0120visibly": 44531, "all": 436, "\u0120Counsel": 18307, "\u0120Unic": 34594, "996": 53592, "\u0120Jamaican": 61102, "\u00e7\u00a3\u00a8": 63313, "\u0120Sierra": 22246, "\u0120lesbians": 54828, "\u0120educator": 31112, "\u0120unseen": 39230, "\u0120Acrylic": 48118, "appare": 58963, "\u0120Keystone": 60890, "olulu": 44659, "hene": 35935, "Dick": 46729, "Providing": 52580, "\u0120reassured": 61275, "\u0120broadcasters": 63106, "\u0120Afghan": 11309, "\u0120hovering": 42191, "\u0120claims": 5603, "unsigned": 19754, "d\u00c3": 45286, ")$,": 47547, "\u00e7\u00a6\u00bb\u00e5": 42972, "\u0120iPhone": 7181, "\u0120intimid": 20478, "\u0120pt": 28994, "iban": 21703, "\u0120recover": 9291, "\u0120License": 15171, "\u0120hands": 2813, "56": 5499, "\u0120Babies": 48395, "rlich": 25512, "homme": 28849, "Arizona": 48764, "\u0120paypal": 44060, "roupe": 21874, "\u0120forg": 5489, "\u0120Sussex": 36619, "umbs": 20777, "Var": 15465, "\u0120Aboriginal": 34834, "Lex": 39216, "\u0120Content": 10264, "\u0120feminine": 23443, "\u0120SET": 28961, "\u0120keeping": 5082, "\u0120spear": 30490, "\u0120ubiquitous": 40123, "\u0120G\u00c3\u00b6": 54754, "\u0120anat": 24237, "\u0120angl": 26938, "\u0120ip": 12403, "\u0120pathology": 39103, "als": 851, "UA": 31303, "\u0120quarter": 5273, "\u0120Boolean": 31195, "\u0120circumst": 6424, "olf": 3808, "\u0120Terror": 28533, "ocent": 52851, "\u0120Kit": 7387, "\u0120Dur": 11025, "recorded": 52327, "\u0120Babe": 55127, "\u0120filmmaking": 60914, "homes": 53327, "existent": 43919, "\u0120buyer": 12639, "\u0120vie": 8224, "ayers": 35563, "\u0120CAGR": 51362, "aime": 27208, "\u0120Live": 7232, "\u0120passenger": 15394, "\u0120herramientas": 56854, "\u0120rolls": 16884, "\u0120storms": 24918, "xp": 46267, "About": 6543, "\u0120See": 4946, "\u0120Minneapolis": 25887, "\u0120Dresden": 53395, "deal": 24739, "isec": 37876, "\u0120Zag": 47641, "ujer": 31092, "\u0120kte": 63517, "imation": 13428, "aints": 9023, "icano": 46985, "\u0120foreign": 5427, "\u0120vier": 24231, "Youth": 51333, "\u0120sprink": 27155, "ogn": 2271, "bin": 10638, "\u00c3\u0123": 31418, "\u0120geworden": 50643, "antiated": 57413, "\u0120designer": 9476, "\u00e7\u00ac\u00ac\u00e4\u00ba\u012e": 41410, "\u0120forex": 27916, "\u0120Regist": 11382, "\u0120Pants": 41292, "\u0120LIC": 42738, "\\]": 16314, "acie": 30827, "\u00e5\u0131\u00b6": 47291, "\u0120Fiction": 25850, "\u0120Synd": 22792, "odus": 29318, "Sky": 33145, "\u00e8\u0122\u0125": 27778, "\u0120Overse": 44836, "\u0120nuestros": 26238, "pretty": 47032, "\u0120Superintendent": 40197, "\u0120dagli": 53252, "walt": 53900, "\u0120quiero": 53119, "\u0120abnorm": 54934, "\u0120Oslo": 44539, "\u0120Continued": 57641, "\u0120socket": 22319, "throw": 24238, "\u0120normative": 60014, "\u0120Situation": 36132, "\u0120thoracic": 62724, "tti": 21585, "Totally": 61968, "\u0120mites": 63739, "itudes": 13174, "\u0120glucose": 16705, "105": 11569, "\u0120Bast": 28752, "ellectual": 33535, "\u0120Invent": 50531, "\u0120Respond": 30521, "uart": 23806, "\u0120Dark": 8892, "\u0120composting": 59802, "\u00e8\u00a1\u012e\u00e5\u012c\u00a8": 41951, "ellites": 32204, "\u00e9\u0129\u012f\u00e6\u0138\u00b0": 60435, "ntag": 51849, "hetics": 20552, "\u0120organiz": 3602, "\u0120Crafts": 31505, "\u0120Thinking": 25833, "RET": 28736, "ajas": 36871, "ao": 10041, "\u0120ny": 24611, "haps": 3140, "\u0120bund": 11634, "\u00e5\u012f\u0137": 26804, "husband": 57578, "igeria": 53868, "\u0120daughter": 5195, "\u0120hizo": 39217, "\u0120cryptocur": 11751, "essay": 63808, "oos": 36411, "\u0120mapping": 17179, "\u0120ashes": 36273, "##": 2232, "\u0120ventures": 33398, "resp": 42109, "\u0120brave": 18083, "herst": 57416, "\u0120Brandon": 22491, "\u0120dashboards": 54212, "\u0120Komb": 45032, "vers": 666, "-\"": 37526, "\u0120stirring": 25868, "asco": 44951, "\u0120KR": 60400, "\u0120selfish": 22755, "\u0120bitten": 44773, "\u0120Impress": 45481, "\u00e6\u013f\u00a8": 42347, "\u0120combine": 10836, "\u0120Plasma": 53123, "otor": 52682, "\u0120grids": 52265, "\u0120ade": 62390, "Az": 27181, "\u0120trainings": 42506, "\u0120Bingo": 40110, "\u0120shared": 4641, "\u0120UR": 50041, "\u00e5\u0143\u0139": 18830, "\u0120strutt": 45378, "inic": 44059, "85": 5253, "\u0120fetch": 23894, "\u00c3\u00a2m": 57066, "\u0120Tablet": 32335, "isz": 31615, "\u0120Breat": 38943, "Spread": 63284, "\u0120pre": 634, "springframework": 40609, "versed": 57214, "\u0120annual": 5310, "css": 22781, "\u0120bien": 5539, "\u0120WS": 32820, "notch": 31866, "\u0120sonst": 52948, "rope": 57396, "riture": 49531, "iedzia\u00c5\u0124": 60737, "\u0120enlarg": 18503, "\u0120audiob": 44090, "\u0120Tend": 46575, "\u0120Sunrise": 49301, "\u0120presto": 54901, "Museum": 56277, "\u0120Nepal": 23561, "\u0120Alps": 51410, "ologically": 17067, "607": 45875, "Wise": 61566, "\u0120farewell": 39083, "oner": 14592, "\u0120elders": 31705, "\u0120reag": 41286, "rovers": 49698, "Comparison": 51239, "\u0120constructive": 27749, "\u0120LAB": 55614, "ify": 1888, "Constants": 34258, "\u0120integers": 57230, "ggy": 21218, "\u0120dure": 45812, "\u0120jade": 56494, "\u0120mary": 57096, "\u0120Acc": 3129, "\u0120dress": 4501, "segment": 43012, "\u00e5\u013d\u013d": 14372, "\u0120Invis": 52543, "\u0120referring": 14279, "\u0120hig": 2078, "\u0120bei": 6376, "\u0120Gaza": 31136, "\u0120lightweight": 13906, "335": 30946, "enga": 30892, "ustin": 29686, "\u0120bracing": 63918, "ndice": 58958, "\u0120und": 657, "raison": 49143, "confirmed": 57068, "oarthritis": 55786, "089": 57848, "\u0120Steuer": 58558, "\u00e9\u00ab\u013a": 11661, "ligt": 25100, "\u0120fortress": 45937, "\u0120homosexuality": 37441, "\u0120avocado": 29380, "istles": 33150, "ientes": 16515, "\u0120assistant": 11428, "onnaise": 42781, "\u0120storytelling": 24726, "Looks": 26206, "\u0120sailed": 43758, "osing": 4248, "\u0120THC": 21949, "Tx": 36431, "\u00e8\u00ae\u00a4": 16212, "\u0120ksi\u00c4\u0127\u00c5": 49647, "\u0120prod": 14209, "NH": 42733, "oop": 10843, "\u0120CIA": 22958, "\u0120hunt": 13590, "ijs": 60872, "\u0120Donation": 40859, "\u0120damit": 20052, "\u0120Wel": 19537, "+)": 38942, "\u0120dilute": 61744, "ae": 6991, "\u0120Linen": 60343, "\u0120Rig": 30587, "olog": 856, "ogeneous": 30148, "uy": 2866, "\u0120elevation": 25978, "\u0120renal": 27520, "\u0120outraged": 58090, "\u0120herbal": 21622, "\u0120example": 1945, "rah": 17360, "\u0120Port": 4149, "\u012a\u00e4": 33178, "\u0120Meer": 53352, "\u0120velocidad": 62943, "QUESTION": 30029, "D\u00c3\u00a9": 52000, "poch": 33175, "\u0120photosh": 55216, "\u0120Madrid": 15968, "ceptions": 14297, "\u0120tangible": 25275, "\u0120bombing": 29968, "\u0120LSU": 50686, "\u0120supplying": 25031, "\u0120slowing": 26636, "\u0120Submit": 29219, "KING": 41212, "\u0120lookup": 35606, "oxicillin": 52781, "\u0120auto": 5624, "elingen": 47284, "\u0120cloves": 31852, "\u0120Putin": 19181, "\u00e7\u00a7\u0133": 29075, "\u0120fillings": 61555, "yah": 54896, "\u0120ratt": 30546, "\u0120Fla": 34050, "\u0120improvement": 7750, "roduct": 12646, "telling": 19673, "\u0120Kunden": 26947, "Imm": 27122, "\u0120Clear": 14288, "\u0120Spicy": 61285, "\u0120Steelers": 40177, "JP": 26600, "478": 47479, "agers": 10608, "\u0120Explore": 22563, "\u0120interrupting": 64193, "\u0120Ir": 6878, "\u0120Beckham": 64133, "\u0120countries": 3354, "\u0120reunion": 33666, "\u0120Sharma": 36440, "\u0120Malaysian": 41552, "\u0120CODE": 58454, "\u0120Gesch\u00c3\u00a4ft": 34723, "mock": 25927, "\u0120dine": 41853, "fo": 3170, "\u0120iconic": 14711, "\u0120constitution": 19985, "ifice": 12626, "\u0120exclude": 25540, "\u0120choked": 48920, "\u0120Coun": 4070, "Edited": 54164, "Fitness": 51979, "arios": 8381, "\u0120Doctrine": 59753, "\u0120expertise": 6926, "\u0120stones": 14822, "\u0120Potential": 30702, "auch": 40659, "HL": 12204, "oviet": 15115, "\u0120funct": 64046, "DIS": 23040, "\u0120proceeds": 20005, "async": 28553, "\u0120mik": 60785, "\u0120rubble": 57279, "\u0120during": 1365, "\u0120MET": 41318, "availability": 49470, "\u0120nord": 35742, "jew": 55533, "\u0120receptionist": 59779, "\u0120pleasure": 7834, "elift": 58367, "\u0120esemp": 37212, "\u0120sniper": 58405, "\u0120Voc": 28745, "527": 45148, "\u0120clad": 53580, "oph": 2779, "\u0120shattered": 33377, "\u0120planets": 26009, "\u0120permet": 19374, "\u0120SEE": 48484, "\u00c3\u00aetre": 20999, "\u0120stimulates": 40870, "\u0120swine": 61645, "\u0120sharply": 26679, "\u0120\u0120\u0120\u0120\u0120\u0120\u0120\u0120\u0120\u0120\u0120\u0120\u0120\u0120\u0120\u0120\u0120\u0120\u0120\u0120\u0120\u0120\u0120\u0120\u0120\u0120\u0120\u0120\u0120\u0120\u0120\u0120": 10714, "869": 59453, "\u0120Firestone": 60228, "\u0120quizz": 31875, "\u0120titled": 15026, "urai": 36560, "\u0120werd": 33828, "\u0120Flor": 5235, "\u0120tard": 23094, "\u0120tendon": 46306, "\u0120guarantee": 7462, "\u0120Inhal": 49982, "\u0120consortium": 40673, "Channel": 19939, "\u0120horas": 23260, "ythe": 53608, "Pitt": 56971, "\u0120Snapdragon": 53380, "\u0120Worship": 41718, "\u0120hatte": 22361, "\u0120Issue": 18226, "rats": 18203, "\u0120industrial": 6950, "fledged": 60192, "\u0120bookmaker": 53094, "\u0120brind": 64164, "ars": 1099, "\u0120spoke": 7468, "izo": 24605, "Iron": 33100, "\u0120gev": 49348, "\u0120explan": 8465, "\u0120Pais": 63516, "\u0120Subst": 26241, "\u0120Email": 10457, "\u0120constant": 7377, "Matt": 14240, "\u0120marketer": 43712, "\u0120Anti": 14680, "\u0120Registration": 17778, "\u0120surveillance": 16291, "\u0120sticky": 22086, "\u0120requis": 27889, "\u00e6\u0141\u0132": 32623, "\u0120vielleicht": 45302, "\u0120enthusiasm": 18264, "\u0120ALSO": 46448, "\u00c3\u00a4uf": 26839, "\u0120communion": 48486, "\u0120containment": 48571, "\u00cc": 146, "\u0120unavailable": 29379, "\u0120Requests": 51173, "lease": 1238, "Diese": 51773, "robat": 43224, "\u0120Bl": 1282, "\u0120bl": 671, "\u0120Tun": 17994, "\u0120jeweils": 61064, "\u0120authenticated": 63564, "\u0120required": 2554, "\u0120Jess": 13247, "\u00e5\u0138\u0126": 33729, "nian": 57018, "\u0120homelessness": 38540, "\u0120CASE": 63692, "\u0120suing": 58868, "\u0120colony": 31424, "\u00e6\u012d": 6180, "\u0120PS": 10400, "ocular": 35083, "\u0120Clubs": 38519, "\u0120account": 1709, "\u0120swung": 30408, "Reviews": 15506, "tops": 27093, "\u0120democrat": 47573, "woord": 40077, "estine": 53917, "overflow": 64352, "\u0120comfortable": 4759, "elope": 43826, "\u0120suas": 37682, "543": 44903, "\u00e4\u00ba\u00a6": 36666, "ungeon": 31587, "\u0120shields": 41870, "\u0120pr\u00c3\u00a9f": 46450, "\u00bf\u00e5": 47935, "\u0120litre": 54862, "DOWN": 37385, "\u0120Licensing": 51086, "\u0120kdy": 33647, "rals": 24508, "\u00e7\u0126\u00b6\u00e8\u0122\u012e": 39740, "gain": 42395, "\u0120Alm": 55365, "\u0120Barcel": 16449, "\u0120Samm": 51993, "\u0120halo": 47686, "\u00e4\u00bb\u0138\u00e5": 54400, "\u0120Davis": 11853, "Params": 18444, "ellow": 3651, "\u0120combined": 6725, "\u0120housed": 29693, "\u0120domestic": 8255, "\u0120nationale": 45673, "\u0120preven": 51027, "\u0120prepar": 5030, "Acknowledg": 54133, "\u0120Governors": 54224, "\u0120Activ": 12523, "\u0120endocrine": 60931, "\u0120kidnapped": 42603, "\u0120Guid": 15166, "\u0120landsc": 14936, "\u0120Bhag": 58928, "\u00e7\u012b\u012a": 41759, "\u0120teens": 16432, "\u0120kry": 54097, "uely": 36277, "ippery": 29598, "raise": 36675, "\u0120che": 800, "\u00e6\u00b0\u0131": 41440, "\u0120diffusion": 33477, "REC": 51388, "\u0120Hunts": 51244, "ses": 4644, "\u0120voices": 13046, "NS": 7912, "\u0120Oscars": 52424, "\u0120Nast": 56801, "\u0120preuve": 57743, "\u0120binoculars": 61841, "wno": 24844, "bn": 14113, "\u0120Petition": 55978, "\u0120coworker": 64342, "\u0120Prozent": 36422, "\u0120deve": 22037, "\u0120emer": 3392, "\u0120Apples": 58776, "\u00b9\u00be": 48020, "\u0120bient\u00c3\u00b4t": 55207, "\u0120nons": 17999, "\u00e5\u00ba\u00a7": 30777, "\u0120Sore": 64422, "615": 37873, "\u00e5\u013f\u013c\u00e6\u012a\u013a": 55073, "\u0120bankroll": 52073, "\u0120pry": 46866, "\u0120Willy": 62872, "umer": 6244, "\u0120itiner": 25593, "yond": 3593, "\u0120Ubuntu": 30043, "\u0120Slee": 27980, "\u0120wasnt": 57480, "Material": 14798, "\u0120toner": 51902, "\u0120affirm": 18172, "\u0120litig": 48770, "\u0120toug": 21467, "\u0120packs": 17800, "inaire": 29960, "aniu": 24737, "\u0120neutr": 34360, "\u0120eczema": 52318, "ivent": 31923, "YC": 28577, "\u0120g\u00c5\u0124": 44658, "Jim": 21117, "\u00e7\u0141\u00a5\u00e9\u0123\u0135": 19048, "\u0120serait": 26913, "\u0120FUN": 32193, "\u0120nighttime": 45424, "abytes": 56810, "\u0120Millennials": 60021, "\u0120stimulus": 24978, "O": 58, "\u0120Huang": 40955, "r\u00c3\u00a9t": 44688, "\u0120impost": 58717, "\u0120voie": 49492, "\u0120divided": 11111, "\u0120Alger": 43605, "\u0120bowl": 8216, "\u0120Begin": 14405, "\u0120volunt": 15057, "sterdam": 18227, "\u0120projet": 20267, "029": 50371, "\u0120Shrimp": 52785, "\u0120straighten": 58289, "\u0120isolating": 60557, "\u0120Vand": 64106, "\u0120Lash": 59189, "\u00b4\u00e4": 60799, "\u0120Rise": 27680, "\u0120abbiamo": 31058, "andon": 7080, "phrase": 45982, "\u0120earned": 8870, "\u0120pedigree": 64055, "\u0120szczeg\u00c3": 46153, "azen": 61677, "opping": 3737, "\u0120Wide": 22267, "\u0120mentor": 19196, "\u0120Familiar": 63316, "uous": 8680, "screens": 51889, "\u00e8\u0126\u013c": 32811, "\u00e6\u00a8\u00aa": 55195, "\u0120development": 2138, "\u0120renew": 7543, "\u00c3\u00b6glich": 20894, "\u0120manufacture": 4980, "\u0120si": 1827, "\u0120connaissances": 61520, "\u0120Adapt": 25816, "\u0120thanking": 49227, "\u0120amph": 36905, "\u0120Yin": 48722, "04": 3519, "\u0120Interests": 56840, "uve": 28621, "\u0120fruct": 53133, "\u0120Showing": 51620, "\u0120Code": 6908, "\u0120motivate": 27041, "\u0120GA": 15982, "ELY": 38055, "\u0120symb": 40580, "\u0120wor": 459, "cade": 62832, "\u0120brewing": 31005, "Adapter": 26632, "\u0120ASSERT": 44171, "borough": 21345, "mmm": 22253, "\u0120Bec": 18020, "aul": 10393, "obacter": 38884, "anchez": 36191, "client": 11511, "\u0120Prescott": 60966, "436": 43201, "igkeiten": 38499, "chutz": 44133, "Align": 46046, "\u0120isot": 43276, "178": 16790, "\u0120captured": 12302, "isor": 54169, "Sche": 14485, "ROW": 37912, "ers": 358, "\u0120intimidating": 33657, "atek": 53578, "argon": 45514, "\u00e9\u00ba\u00bb": 53505, "registered": 43838, "\u0120threatens": 36278, "arers": 40056, "\u00e2\u0126\u00a2": 6719, "Welcome": 11302, "velopment": 46988, "\u0120rece": 1477, "\u0120incap": 22823, "seat": 33424, "\u0120rhin": 29932, "\u0120Achievement": 41133, "\u0120russ": 28530, "\u0120album": 5026, "\u0120fave": 40724, "manager": 24716, "ilib": 16748, "\u0120Ma": 4944, "\u00e4\u00bb\u0122\u00e4": 13891, "\u0120culinary": 25410, "\u0120Feet": 34986, "buch": 37214, "\u0120travail": 15754, "\u0120quelqu": 42724, "\u0120molte": 54186, "comm": 5231, "\u0120peninsula": 48538, "czenia": 37260, "\u0120Boyle": 56621, "aliment": 57241, "\u0120questa": 17721, "\u0120prefers": 33716, "\u00e6\u013a\u00a5": 44239, "\u0120Bur": 6797, "\u0120afterwards": 16600, "\u0120Loader": 61060, "\u0120JC": 41358, "\u010a\u010a\u010a\u010a": 29104, "\u0120thoughts": 4303, "Character": 28092, "\u0120formulas": 29418, "traditional": 38852, "Holiday": 44770, "\u0120giorni": 29077, "\u00e2\u0122\u013e\u00e2\u0122\u013a": 53633, "\u0120gentle": 8725, "ativa": 15145, "ogany": 49023, "\u0120seals": 31935, "DNA": 30419, "\u0120starvation": 52732, "\u0120Rudd": 60129, "719": 46669, "\u0120Original": 15109, "\u0120indicators": 17373, "urious": 13861, "\u0120reflects": 14555, "Wonderful": 35027, "\u0120similar": 2661, "olitical": 21378, "\u0120digit": 13734, "\u0120themed": 25496, "\u0120disappears": 39632, "riage": 4685, "Topic": 34928, "\u0120promot": 4014, "vert": 2067, "ortunate": 19225, "\u0120defending": 19946, "\u0120shall": 3480, "\u0120Bug": 22119, "\u0120Ori": 16257, "\u0120apolog": 13212, "\u0120injured": 10600, "CON": 8363, "agher": 43682, "DS": 6703, "\u0120Patricia": 31812, "inion": 26143, "('#": 60741, "\u0120Climate": 16560, "\u0120belonged": 26937, "any": 908, "\u00c2\u00ae": 5375, "It": 1140, "\u0120sotto": 28038, "mean": 21255, "\u0120Purchase": 19464, "order": 3206, "itution": 7393, "\u0120appart": 37537, "\u00e6\u012b\u00a7": 40045, "\u00e9\u013a\u00bb": 55176, "\u0120distribute": 19476, "VING": 57824, "\u0120putea": 60278, "\u0120quite": 2382, "\u0120asylum": 30312, "\u0120hostility": 44944, "\u0120tantal": 59437, "\u0120frequently": 7069, "\u0120amen": 12989, "\u0120partnerships": 16711, "\u0120chin": 17878, "\u0120Promise": 22239, "\u0120abused": 26436, "\u0120divisions": 25002, "erals": 12169, "\u0120platforms": 7146, "awl": 46474, "\u0120fece": 51150, "\u0120Consortium": 43389, "\u0120saber": 23537, "\u0120Thick": 48304, "URN": 28341, "\u0120Liga": 43513, "be": 1039, "662": 45557, "797": 50125, "\u00c3\u00a2tre": 51299, "\u0120slumped": 56692, "\u0120nombreuses": 35007, "Roll": 26282, "\u0120initialized": 58305, "\u0120IMA": 53722, "\u0120delegation": 30182, "877": 33322, "Include": 45429, "\u0120florida": 50508, "giv": 60635, "laus": 32756, "\u0120fleeing": 41083, "zo": 5173, "\u0120Nass": 47531, "\u0120Ad": 1180, "gos": 17918, "\u0120bolster": 41707, "\u00e5\u0136\u0132": 31127, "\u0120Gins": 49938, "\u0120ail": 29821, "\u0120probation": 35456, "esti": 59186, "\u0120celeb": 20479, "\u0120affiliations": 57733, "asp": 5492, "\u0120burnt": 28973, "Gard": 47174, "piej": 56436, "onnen": 48562, "\u0120FEATURES": 63584, "rej": 41546, "finance": 53287, "\u0120button": 4809, "\u0120mornings": 29267, "Information": 15500, "\u0120contained": 10837, "Alpha": 39999, "\u0120conferences": 17687, "\u0120rooft": 30746, "\u0120Security": 6033, "461": 43431, "\u0120notor": 38298, "\u0120ges": 11036, "\u0120bara": 40041, "\u0120alternative": 5647, "\u0120Simulation": 44991, "\u0120spirits": 17428, "ership": 9016, "\u0120modules": 14567, "\u0120Mets": 34916, "\u0120demanded": 18324, "\u0120alcohol": 7185, "\u0120specimen": 38548, "\u0120purposefully": 57966, "sac": 33700, "\u0120Bloss": 44833, "\u0120p\u00c3\u00a1": 24550, "\u0120peering": 61137, "\u0120Anand": 64536, "h\u00c3\u00a4lt": 26301, "\u0120Morning": 18070, "yy": 20901, "\u0120gimm": 47999, "\u0120hormones": 20178, "\u0120mercato": 47649, "\u0120Consider": 10882, "\u0120Illumin": 62203, "Cheers": 27005, "\u0120shelling": 64432, "\u00e2\u012a\u0134": 12384, "\u0120Pills": 16350, "{{": 16135, "\u0120viaggio": 55449, "Picker": 59180, "\u0120boon": 61661, "\u00e9\u013b": 6103, "amiliar": 20123, "\u0120Neg": 21174, "\u0120disappro": 40024, "strings": 32227, "\u0120Screw": 35831, "\u0120IM": 16974, "\u0120yourselves": 30818, "\u0120less": 1499, "\u0120v\u00c5\u00a1echn": 56143, "ripe": 60599, "\u0120Sk": 4200, "\u0120directed": 9009, "\u0120ventil": 27487, "\u0120Amateur": 44251, "Spect": 48192, "cze\u00c5\u013d": 61544, "ms": 1894, "kiej": 37988, "\u0120hottest": 24728, "\u0120lettre": 59058, "sys": 21022, "\u0120assertTrue": 61602, "Nobody": 36049, "\u0120burdens": 36022, "\u0120Comfortable": 48531, "orith": 7353, "\u0120Shampoo": 48526, "\u0120LAN": 35719, "\u00e7\u0136": 3075, "Every": 6066, "\u0120kidnapping": 49342, "\u0120by\u00c5\u0124a": 51038, "gere": 20936, "Big": 12119, "\u0120Doming": 51995, "CCI": 62935, "\u0120Wrap": 33916, "\u0120shallow": 20835, "Online": 12038, "\u0120deficiencies": 40060, "\u0120resulted": 11717, "LT": 40612, "\u0120esa": 22848, "\u0120hoop": 41044, "\u0120Enemy": 55634, "\u0120satisf": 4181, "\u0120paint": 4337, "\u0120comp\u00c3\u00a9t": 36839, "ircon": 52284, "\u0120suivi": 51810, "leitung": 52837, "\u0120Natur": 18000, "\u0120seemed": 4700, "ning": 741, "795": 51021, "\u00c4\u013dt": 17725, "atri": 29844, "\u0120atrocities": 50650, "\u0120nos": 5733, "\u0109\u010a": 19125, "\u00e6\u00ae": 14843, "Models": 37303, "ottes": 40235, "kid": 47091, "\u0120illusions": 56254, "\u0120personas": 15265, "\u0120awarded": 10928, "\u0120filosof": 63656, "iao": 19364, "\u0120Nou": 32157, "\u0120HQ": 36243, "\u00c3\u00a4mp": 38328, "\u00e9\u0122\u0123": 30438, "\u0120vit": 6184, "\u0120successfully": 7818, "\u0120mute": 49169, "\u0120Pyramid": 57724, "\u0120Le": 1135, "\u0120randomly": 20975, "\u0120go\u00c3\u00bbt": 59112, "\u0120parsing": 46419, "080": 26158, "ided": 2563, "\"\u00e3\u0122\u0124": 25918, "\u0120feeling": 3475, "\u0120Italy": 8410, "\u0120Blogs": 41276, "Uri": 33130, "\u0120transparent": 12584, "rawd\u00c4\u013b": 60541, "\u0120Refund": 46718, "heid": 14746, "\u0120carbox": 62508, "\u0120llev": 16629, "\u0120finite": 25665, "\u0120alias": 34467, "\u0120replay": 39511, "\u013c": 232, "\u0120colon": 9420, "\u0120Vacc": 23979, "sf": 26911, "\u0120heartbeat": 33387, "\u0120pumps": 19762, "\u0120calf": 35330, "vo": 3972, "EZ": 59055, "dater": 54435, "\u0120CPS": 58233, "osi": 12961, "921": 45743, "erion": 27933, "\u0120unse": 10916, "\u0120minut": 22004, "uuuu": 31972, "\u0120defeating": 43362, "is\u00c3\u00a9s": 38487, "\u0120piping": 40086, "\u0120Licht": 44754, "Mean": 53440, "call": 10139, "\u0120Directors": 19696, "\u00d9\u012c": 33544, "\u0120RMS": 55128, "\u0120Vac": 15633, "\u0120H\u00c3\u00b6": 27639, "\u0120Intermediate": 42556, "\u0120enjoying": 9224, "nation": 58553, "SM": 16340, "\u0120Thompson": 17579, "\u0120advertiser": 61940, "\u0120fascinated": 28642, "loaded": 24101, "\u0120Announces": 43534, "\u0120IS": 5544, "\u0120Hob": 22651, "\u0120personnages": 64913, "\u0120vener": 39338, "\u0120Prediction": 47598, "\u0120Huck": 64707, "\u0120Ian": 18953, "NG": 17133, "\u0120Gov": 17889, "GS": 12013, "\u0120depends": 7713, "\u0120densities": 63375, "\u0120bleeding": 18756, "\u0120m\u00c3\u00a9moire": 49642, "\u0120MSI": 59888, "\u0120renewed": 21123, "Traffic": 54864, "\u0120dong": 64160, "\u0120pouches": 63388, "\u0120recl": 26132, "\u0120mitochond": 30685, "\u0120libert\u00c3\u00a9": 56965, "\u0120cleanser": 49629, "\u0120donn\u00c3\u00a9es": 25322, "Panel": 19246, "\u00c3\u00a5l": 55873, "additional": 54939, "\u0120protagon": 18546, "\u0120magnificence": 64242, "\u0120pase": 59880, "\u0120Mauritius": 63826, "\u0120recycled": 19807, "ckt": 28384, "\u0120BPA": 51799, "it\u00c3\u0142": 7019, "$\\": 4929, "kh": 19092, "apons": 36179, "ueblo": 33327, "\u0120strap": 19195, "aspect": 63912, "\u0120euph": 44881, "\u0120elabor": 14313, "\u0120Bass": 20796, "icaid": 20897, "\u0120prueba": 51906, "eed": 3287, "fw": 57806, "\u013e": 234, "icios": 20662, "burger": 46897, "\u0120attacker": 32394, "KER": 56492, "\u0120Outfit": 52313, "BLOCK": 56462, "\u0120Dienst": 37330, "a\u00c5\u0124": 43709, "\u0120hil": 40466, "S\u00c3\u0143": 64654, "\u00e5\u012a\u013f": 28127, "\u0120essa": 33913, "\u0120surfaced": 47018, "\u0120Bathrooms": 51499, "\u0120fps": 57447, "\u00e2\u012b": 34241, "\u00c3\u00a9is": 36898, "Ping": 10541, "wheel": 22226, "\u0120folklore": 56516, "Based": 13455, "\u0120tren": 25979, "\u0120stoop": 58543, "\u0120bajo": 30961, "\u0120enorme": 45625, "kreis": 63527, "\u0120marathon": 24311, "\u0120Loom": 62425, "\u00e5\u0132\u012a": 16700, "\u0120kay": 21576, "Krist": 34459, "stop": 12023, "\u0120promotional": 18896, "\u0120exec": 27744, "\u0120Sands": 48859, "ITEM": 58637, "\u0120heats": 45745, "\u0120vitro": 27468, "\u0120lesson": 10074, "\u0120circles": 16599, "\u0120near": 2578, "Fashion": 41430, "\u0120Abe": 40437, "\u0120Dakota": 19723, ",_": 28322, "Little": 22604, "\u0120mehr": 10875, "318": 31407, "\u0120prosecutors": 31415, "?),": 37666, "\u0120absorbs": 46835, "\u0120ct": 44964, "oxone": 62542, "\u0120chill": 16295, "\u0120rationale": 35981, "\u0120breat": 3746, "\u0120Cover": 11393, "\u0120hilarious": 20093, "\u0120probability": 14129, "\u00c3\u00a1rios": 29040, "\u0120skyl": 61618, "\u0120Cabin": 35490, "613": 42707, "\u0120demos": 42909, "\u0120storia": 34674, "ians": 3112, "bundle": 54403, "\u0120testament": 29053, "\u0120\u00d0\u00ba\u00d0": 60038, "\u0120lex": 37448, "wat": 26046, "\u0120clutch": 30214, "\u0120Complex": 20995, "\u0120assignment": 13066, "\u00c3\u00aen": 61289, "\u0120Electronics": 25484, "\u0120recall": 10801, "cluster": 32166, "\u0120diversas": 55517, "ertain": 1362, "\u0120immedi": 3239, "\u0120Lift": 30306, "201": 626, "\u0120hors": 10155, "\u0120depicting": 41661, "\u00e8\u00b5\u0126": 28000, "\u0120uterus": 46008, "\u0120diameter": 14686, "angs": 22754, "\u0120display": 3542, "\u0120coward": 39342, "\u0120antif": 54426, "\u0120Cube": 42872, "@@": 34968, "\u0120replenish": 58539, "\u0120rul": 29705, "\u0120n\u00c3\u00a1m": 56178, "\u0120rubber": 12603, "\u0120bitch": 22055, "\u0120tiempos": 58672, "\u0120gram": 28976, "}": 104, "\u0120convenient": 7562, "ivos": 15993, "\u0120ambitions": 31396, "\u0120lle": 64793, "\u0120Average": 23020, "idates": 23761, "unless": 30544, "\u0120KPIs": 59265, "\u0120urging": 30990, "\u0120guitar": 9556, "\u0120comprehens": 60665, "\u0120which": 585, "\u0120Venice": 27467, "ula": 3871, "lab": 17906, "ollo": 22670, "weed": 27194, "\u0120Agile": 36127, "\u0120Willie": 39398, "\u0120vraag": 56727, "\u0120negotiation": 28806, "atu": 29155, "abili": 34971, "\u0120stav": 56678, "zerw": 50232, "\u00e7\u012b\u00a9": 13622, "\u0120Shields": 60861, "\u0120ovarian": 46637, "\u0120opportunity": 3092, "qui": 34144, "\u0120indec": 44470, "\u0120nostalgia": 35919, "\u0120Congo": 36982, "\u0120AU": 27828, "akers": 4895, "ocity": 14473, "\u0120faits": 57206, "\u0120freak": 26253, "\u0120eye": 3883, "\u0120tom": 4315, "\u0120McInt": 55965, "\u00e4\u00b8\u012f\u00e5": 29842, "\u0120Perspective": 42795, "\u00e7\u013f\u00a1": 45143, "\u0120devise": 52666, "ato": 1892, "FK": 36454, "\u00e2\u0122\u00a6\u00e2\u0122\u013f": 13464, "\u0120locale": 29084, "770": 30642, "\u0120longevity": 28535, "\u0120obscene": 61589, "mx": 34816, "\u0120neighborhood": 7376, "\u0120grain": 13401, "\u0120Becker": 46814, "\u00e8\u00af\u00b4": 5971, "\u0120rail": 9136, "onces": 25025, "\u00e2\u0122\u00a6\u00e2\u0122\u00a6\u00e2\u0122\u00a6\u00e2\u0122\u00a6": 25156, "\u0120Swap": 52063, "\u0120vigil": 32230, "\u0120reason": 1995, "\u0120Convention": 17241, "Mobile": 18616, "\u0120acrylic": 24679, "\u0120Barron": 63205, "\u0120bif": 49880, "pering": 32288, "\u0120Spaces": 36535, "\u00c3\u00a9cole": 52008, "\u0120onto": 4817, "jes": 16400, "\u0120m\u00c3\u00bas": 35323, "\u0120EN": 9065, "\u00e2\u0122\u00ba": 16320, "crest": 47933, "casters": 38598, "\u0120chose": 7233, "\u0120gate": 9822, "\u0120digestion": 28461, "ladesh": 20067, "\u0120Conditions": 19140, "\u0120variance": 31125, "\u0120defender": 26284, "\u0120remodeling": 28823, "\u0120plans": 3618, "Large": 25396, "\u0120folgende": 64979, "Ans": 35278, "\u0120\u00e1": 27171, "iential": 42476, "\u0120l\u00c3\u0142": 16758, "\u0120absurd": 21269, "\u0120aup": 34637, "\u0120excursions": 43075, "\u0120asparagus": 45437, "\u0120Protector": 56602, "\u0120dismissed": 20904, "emo": 64858, "furt": 27892, "\u0120accompaniment": 57745, "\u0120MEP": 64794, "gabe": 35283, "\u0120szt": 47763, "isodes": 42625, "\u0120sins": 21005, "\u0120mobile": 3660, "\u0120rack": 13779, "ppen": 24619, "\u0120leather": 8503, "\u0120\u00c5\u0124": 43305, "\u0120cases": 2913, "kap": 40442, "\u0120Rwanda": 43226, "\u0120organis": 9480, "lder": 46738, "\u0120quirky": 35315, "\u00e4\u00bb\u00b6": 17418, "packages": 55540, "\u0120chees": 24087, "aj": 1139, "\u0120adv": 1298, "ipt": 10371, "\u0120coupling": 34278, "haal": 58374, "shell": 23239, "\u00e6\u012b\u012f": 16528, "\u0120drastic": 35437, "\u0120uniform": 10416, "\u00e9\u0122\u0141": 31471, "IMPORT": 59190, "\u0120arose": 32568, "covers": 51233, "\u0120Silicone": 53712, "Full": 12009, "\u0120goth": 52944, "ieve": 10251, "\u0120blitz": 55976, "\u0120number": 1386, "\u0120suite": 10479, "\u0120timelines": 48076, "\u0120drove": 12644, "ac": 310, "\u00e7\u00a8\u012d": 24535, "Dress": 61579, "\u0120fot": 14761, "\u0120footwear": 31751, "\u0120turbine": 40315, "\u0120giggle": 55253, ")/": 19894, "esse": 13113, "\u0120Doyle": 44920, "\u0120Internacional": 54194, "\u0120supporter": 27948, "\u0120entrepreneurs": 12306, "\u0120kde": 52775, "\u0120swinging": 31622, "\u0120Lutheran": 37685, "urso": 64424, "\u0120se": 385, "\u0120entails": 33598, "\u0120halluc": 40791, "\u0120trustee": 41549, "\u0120decisi\u00c3": 59061, "956": 56084, "anye": 42745, "\u0120mantra": 34764, "\u0120nombreux": 29703, "\u0120walnuts": 45928, "ASH": 16803, "\u0120Harness": 64534, "archar": 60428, "\u0120exhale": 63127, "HAND": 46504, "\u0120pasar": 43272, "Ind": 4049, "\u0120Wiel": 56817, "jad": 58691, "West": 15389, "\u0120Surf": 26508, "\u0120grouping": 42434, "\u0120ervaring": 60576, "earning": 7505, "\u0120tolerance": 19903, "HF": 32364, "\u0120handy": 13206, "\u0120misconduct": 35492, "\u0120Amir": 58078, "ologique": 31982, "oughton": 58774, "\u0120Binary": 38238, "beh": 21214, "\u0120presque": 35923, "\u0120inspires": 31675, "\u00c3\u00aates": 38152, "\u0120befind": 41906, "\u0120fa": 2762, "neg": 18901, "\u0120Naples": 41876, "\u00d9\u0124": 64516, "Socket": 30262, "\u0120tract": 18732, "FIELD": 39320, "\u0120approach": 3213, "\u0120Relay": 57590, "bum": 4241, "Project": 11334, "\u0120pret": 2140, "inance": 16834, "\u0120verz": 34456, "annot": 26172, "\u00f0\u0141\u00a4": 45153, "\u0120corte": 55315, "\u0120perish": 59114, "ECD": 40248, "\u0120skewed": 56473, "\u0120Joined": 60572, "\u0120ord": 3211, "\u0120scream": 10053, "\u0120Active": 14510, "\u0120Mode": 17974, "\u0120MacDonald": 50119, "\u0120gay": 8387, "\u0120pea": 50482, "gaming": 34083, "abei": 17732, "\u0120importing": 43376, "growing": 26198, "Sell": 54622, "\u0120casa": 12614, "\u0120Mang": 31331, "\u0120hydrop": 55481, "completed": 61975, "steps": 20825, "group": 7871, "\u0120evaluated": 16306, "\u0120disse": 14048, "\u0120jsem": 31720, "Nik": 41041, "\u00e6\u013f\u0122\u00e6\u0143\u00bb": 47187, "\u00e7\u013c\u0129\u00e5\u00b8\u013f": 51835, "\u0120Yard": 32924, "\u0120freelancers": 52044, "And": 1940, "\u0120Eat": 21589, "LR": 39188, "ove": 616, "\u0120due": 2159, "\u0120enjoy": 1784, "encils": 30697, "\u0120deficient": 49284, "\u00e5\u0132\u0125": 26931, "\u0120Ask": 10594, "\u0120revis": 15699, "\u0120ATM": 31385, "\u0120periodo": 37860, "\u0120apartments": 16307, "Today": 8240, "\u0120calculator": 21894, "\u00e8\u00b4\u00a3": 34265, "\u0120SPD": 39546, "\u0120Individ": 14241, "\u0120nonetheless": 16873, "\u0120Roads": 44853, "inates": 11950, "\u0120LU": 60735, "iev": 15598, "summer": 52068, "\u0120Strauss": 61392, "\u0120fla": 55977, "\u0120Time": 4690, "arthy": 24683, "/></": 13956, "\u0120interpreting": 40930, "\u0120Deleg": 46954, "\u0120land": 2168, "\u0120Springs": 15370, "\u0120petroleum": 35189, "peak": 36592, "OVER": 54434, "\u0120bigotry": 58921, "\u0120Tristan": 58663, "\u0120inhabitants": 23054, "\u0120boarding": 25956, "mel": 17151, "chet": 17770, "\u0120SER": 17946, "\u0120RR": 38477, "\u0120bestimm": 46586, "ruptcy": 43405, "\u0120innovate": 40913, "\u0120gist": 60883, "h\u00c3\u00b6r": 23765, "TOP": 35850, "\u00c3\u00a4chlich": 44840, "hat": 15639, "\u0120scary": 14750, "\u0120weakest": 54113, "\u0120neck": 5860, "educ": 21840, "\u0120misunderstanding": 39355, "Art": 7083, "\u0120evangel": 22999, "\u0120background": 4359, "\u0120mam": 30111, "occan": 49542, "anded": 20154, "OSS": 35680, "\u0120feedback": 6428, "\u00a3": 108, "brief": 23221, "floor": 26889, "\u0120puzzled": 43798, "rich": 7936, "aii": 44873, "\u0120constituents": 36016, "\u0120doesnt": 29201, "143": 19822, "\u0120resurgence": 58077, "\u0120organising": 45104, "\u0120Pain": 12521, "\u0120infiltration": 54912, "\u0120brownies": 52399, "\u0120decon": 48234, "\u0120Genetic": 50693, "rona": 43005, "\u0120contar": 49173, "\u0142\u00e7\u013c\u0126": 22918, "duino": 38229, "\u0120auth": 6806, "\u0120medicine": 7323, "raft": 2170, "Georg": 32845, "\u0120Jugend": 35804, "\u0120Debug": 39079, "\u0120Learned": 53012, "\u0120inquired": 58229, "Pent": 56322, "\u0120burgl": 35896, "\u0120Harding": 64522, "ronym": 31372, "\u0120liv": 7907, "holz": 60423, "Wrap": 46245, "fr": 3218, "TT": 14074, "Rich": 15080, "\u0120Exercise": 23523, "live": 21250, "\u0120Ryan": 10075, "\u0120zaw": 27389, "BUFFER": 60216, "\u0120famil": 3979, "vered": 34828, "\u0120stip": 23659, "\u0120Jays": 54312, "\u0120assaulted": 44128, "\u0120regi\u00c3": 52545, "urations": 64973, "\u0120tower": 15233, "\u0120ff": 52693, "\u0120SPA": 55442, "interval": 41445, "\u0120Charges": 48367, "\u00d1\u0131": 19898, "\u0120softness": 47728, "II": 5292, "\u0120peroxide": 50993, "\u0120Actor": 33965, "software": 45329, "\u0120Chrys": 34420, "\u0120sint": 39501, "igu": 21509, "n\u00c3\u00a1": 23448, "ilitary": 13920, "Ak": 38830, "\u0120qualifier": 59420, "particip": 51390, "[%": 60300, "\u0120skeptical": 28881, "\u0120Weekly": 20715, "\u0120PV": 31110, "\u0120scheduling": 20564, "\u0120Receive": 39472, "\u0120nudge": 59804, "\u0120perm": 2952, "340": 22996, "\u0120express": 5360, "ruk": 35217, "\u0120marg": 6603, "\u0120motive": 29925, "\u0120pr\u00c3\u00a9c\u00c3\u00a9d": 42015, "\u0120PEO": 48631, "\u0120USP": 51321, "Environmental": 44491, "chemia": 60731, "\u0120visage": 36783, "clos": 59224, "\u0120spotlight": 23353, "\u0120hug": 12157, "\u0120atrial": 56293, "\u0120bp": 50721, "\u0120Simple": 13121, "uyo": 52341, "uggling": 31835, "\u0120Polize": 62603, "\u0120banking": 11222, "raba": 61195, "\u0120lifting": 16442, "\u0120interviewing": 35320, "\u00e5\u0128": 3442, "\u0120daf\u00c3": 30084, "\u0120italiano": 49513, "\u0120senators": 40066, "\u0120edgy": 56879, "\u0120dich": 14731, "\u0120emissions": 11643, "\u0120scalable": 32577, "year": 3113, "\u0139\u00e4": 30615, "\u0120iodine": 64815, "ultura": 60840, "orgeous": 7683, "--------------------------------------------------------------------------------": 62546, "\u0120complained": 26003, "LAND": 47700, "\u0120NRA": 56156, "\u0120opponents": 17108, "ructor": 21289, "ostics": 25223, "glomer": 45703, "sport": 45056, "\u0120AG": 13822, "\u0120penny": 26942, "amt": 20719, "Journal": 22934, "\u0120compart": 23900, "\u0120seriousness": 43900, "Kel": 59895, "\u0120finalmente": 47753, "\u0120flash": 8913, "ifen": 29593, "\u0120trunks": 54946, "\u0120Ying": 55934, "\u010a\u0120\u0120\u0120\u0120\u0120\u0120\u0120\u0120\u0120\u0120\u0120\u0120\u0120\u0120\u0120\u0120\u0120\u0120\u0120\u0120\u0120\u0120\u0120\u0120\u0120\u0120\u0120\u0120\u0120\u0120\u0120": 19296, "\u0120fearless": 52548, "\u0120FE": 15940, "\u0120polyester": 24304, "\u0120anticipating": 42050, "\u0120Presidency": 57814, "\u0120Pirate": 49322, "\u0120ruin": 20053, "\u00e5\u00ae\u00a4": 37195, "\u0120Ecosystem": 55238, "\u0120soooo": 33265, "hoe": 37442, "ository": 11419, "kta": 59857, "\u0120est\u00c3\u00a1s": 52376, "Anonymous": 27234, "\u0120Cop": 17790, "Stra": 38300, "Atom": 53301, "secut": 6822, "\u0120mitochondrial": 42586, "ourn": 2309, "\u0120Dam": 8901, "\u0120momento": 12442, "\u0120humility": 35354, "\u0120pristine": 35481, "\u0120trunk": 21318, "\u0120vial": 59621, "Nic": 28367, "Taylor": 39574, "\u0120Trader": 38495, "\u0120painstaking": 61140, "tasks": 52476, "asury": 18713, "\u0120Kenyan": 59021, "\u0120PIN": 37333, "\u0120coils": 40716, "\u0120Fiscal": 41334, "aja": 15490, "\u0120Niagara": 45778, "\u0120efectos": 57444, "\u0120oper": 1556, "\u00c3\u00b1os": 24774, "Emergency": 42430, "\u0120vein": 27329, "invoke": 63605, "\u0120downs": 22545, "\u0120approx": 5707, "\u0120dermat": 26452, "\u0120GM": 17230, "inders": 26549, "\u0120Rogue": 49385, "standard": 22775, "Dad": 47675, "Although": 8127, "\u0120caut": 10341, "ial": 470, "\u0120complaining": 23145, "\u0120G\u00c3": 29432, "forth": 38007, "\u0120cohesion": 56691, "\u0120spalle": 56528, "\u0120enough": 1713, "\u0120unic": 28934, "\u0120Billing": 51414, "igation": 10059, "\u0120licensed": 11367, "shine": 15571, "\u0120Colin": 25930, "\u0120harms": 51210, "leanor": 33029, "\u0120dozens": 15205, "\u0120patterns": 7310, "meric": 1363, "\u0120born": 4808, "\u0120Year": 4713, "ortex": 35674, "CCESS": 33773, "\u0120reaching": 10255, "\u0120lor": 39031, "\u0120Seas": 41328, "\u0120Publications": 30611, "assertEqual": 30620, "\u0120seal": 13559, "\u00e8\u0122\u012e\u00e6\u013a\u00af": 52829, "\u0120capitalization": 54598, "dress": 52912, "\u0120management": 2579, "\u0120Bond": 16801, "\u0120Calling": 38037, "\u0120opposes": 64661, "\u0120inch": 9463, "\u0120preservatives": 49714, "\u0120Doch": 42818, "infl": 15964, "Created": 29261, "\u0120Permission": 58676, "\u0120twice": 6996, "\u0120Join": 14406, "\u0120residents": 6127, "Regarding": 37128, "\u0120algorithms": 16478, "\u0120diesem": 18932, "\u0120cartridge": 30005, "\u0120mediation": 33810, "lamp": 59162, "fusion": 48245, "istry": 4276, "umming": 29320, "\u0120six": 2972, "licht": 17765, "insky": 35225, "\u0120shortness": 64254, "\u0120Decision": 28136, "\u0120cfg": 54181, "utt": 9987, "\u00e5\u0128\u012f\u00e6\u00ac\u00a1": 57834, "\u0120guts": 37379, "\u0120Texans": 44897, "\u010a\u0120\u0120\u010a\u0120": 34933, "\u0120Catch": 34569, "\u0120commercials": 33440, "\u0120Demon": 22819, "\u0120Stripe": 44876, "emap": 58788, "\u0120software": 2769, "kins": 7102, "LG": 40967, "aney": 30902, "\u0120FT": 22392, "\u0120besteht": 43254, "\u0120neighb": 11624, "\u0120scaff": 39524, "vae": 43302, "\u0120ab": 442, "Pop": 14120, "\u0120Funnel": 47116, "eres": 55611, "Pages": 30442, "Brandon": 56342, "affle": 30622, "\u0120Irene": 46676, "\u0120matrix": 13972, "\u0120projets": 44371, "\u0120Mbps": 59807, "\u0120recol": 33655, "VD": 8423, "fre": 14976, "\u0120Competitive": 42264, "\u0120Supplementary": 57197, "\u0120wired": 29135, "\u00c3\u00a1nt": 40485, "\u0120tess": 64866, "roud": 5314, "\u0120Sass": 63008, "voll": 32334, "\u0120artworks": 43551, "Faculty": 55149, "\u0120przy": 9514, "createElement": 56258, "Right": 11313, "BG": 49066, "ancell": 17854, "\u0120Khan": 17080, "\u0120Buddha": 18925, "\u0120converted": 14913, "\u0120mark": 3640, "\u00e6\u013e\u00ac": 9768, "\"),": 10780, "\u0120buena": 31252, "\u0120lots": 4587, "oho": 27711, "\u0120sorry": 6893, "\u0120pinned": 36494, "\u0120Elaine": 46641, "\u0120scrubbing": 62989, "\u0120Terminal": 30604, "\u0120Bi": 6154, "\u0120harmful": 13142, "anchester": 13249, "\u0120armor": 21377, "\u0120Jax": 44494, "Sr": 63802, "\u0120drill": 19065, "policy": 33758, "Gil": 53081, "quer": 9967, "\u0120break": 2162, "\u0120senza": 16925, "sus": 54887, "Sports": 24177, "\u0120chocolates": 44547, "\u0120Kitty": 31483, "\u0120seniors": 17390, "\u0120Indians": 19783, "]()": 44739, "NZ": 46863, "\u0120Farben": 61089, "rits": 36658, "ottesville": 60901, "card": 10006, "pain": 50257, "\u0120taxation": 31413, "\u0120dramatically": 17164, "flakes": 60586, "\u0120schizophren": 38958, "lect": 769, "\u0120patients": 2634, "fiction": 23045, "\u0120panel": 6172, "\u0120entertain": 5318, "\u0120puppet": 40025, "\u0120thermometer": 46256, "\u0120Treatments": 51226, "ymour": 54441, "bsite": 6550, "\u0120layoffs": 61919, "\u0122\u00e4\u00ba\u0128": 57858, "\u0120bug": 11336, "\u0120crops": 18334, "\u0120yawn": 62721, "umption": 27013, "\u0120recollect": 55657, "Guide": 36735, "\u0120Hir": 31294, "\u0120mannequin": 54307, "om": 279, "\u0120comparison": 8268, "STER": 26072, "rength": 18633, "isoft": 60146, "\u00c4\u0125t": 24604, "Pin": 27402, "\u0120backing": 17561, "hedral": 19728, "\u0120quasi": 21440, "\u0120Basil": 30235, "\u0120scop": 35386, "\u0120Collaboration": 38000, "\u00c3\u00a1\u00c5\u013b": 47798, "\u0120Idol": 44955, "\u0120Treaty": 36024, "ifest": 7994, "\u0120happ": 1186, "\u0120str": 987, "928": 49517, "Rice": 64159, "Automatic": 50067, "\u0120Southwestern": 62564, "tracks": 56338, "\u0120unequal": 61706, "\u0120oversight": 25007, "\u0120dismissing": 63551, "\u0120construction": 4474, "Bel": 11613, "\u0120fig": 2646, "\u0120Store": 8331, "\u0120cab": 4741, "backed": 30674, "uts": 4992, "\u0120Ent": 5797, "\u0120\u00e2\u0140": 64736, "\u0120husbands": 33104, "\u0120amid": 14837, "\u0120nullptr": 29490, "Man": 4527, "InputStream": 40785, "\u0120hormone": 16548, "Foot": 25490, "\u0120cracked": 22533, "Making": 21521, "\u0120Taxes": 41437, "?\",": 57132, "idential": 5969, "quart": 27233, "\u0120Chun": 60293, "\u0120chauff": 37093, "\u0120tornado": 34575, "igung": 20757, "catch": 31085, "arina": 52228, "\u0120Wii": 33423, "710": 33654, "\u0120ano": 38237, "\u0120mugs": 49964, "onso": 41874, "ianos": 54701, "codec": 62184, "setzung": 59006, "Human": 23431, "\u0120darn": 33611, "\u0120kale": 34161, "\u0120usb": 47227, "\u0120networking": 13343, "\u0120infringement": 36559, "\u0120arg": 2764, "\u0120Monty": 53272, "\u0120Shim": 39056, "Slow": 32260, "\u0120Main": 6489, "\u0120nieuwe": 30277, "ientas": 48808, "expand": 54209, "\u0120Employer": 43113, "\u0120visto": 24392, "\u0120blogging": 14583, "Jan": 9059, "\u0120diversification": 46553, "teen": 8628, "\u0120flirt": 37485, "\u0120discerning": 52230, "\u0120Sting": 61644, "\u0120woken": 63475, "izzati": 58900, "\u0120seeing": 4374, "\u0120uno": 9454, "\u0120Nil": 47690, "BS": 6894, "ichtig": 17907, "\u0120Similarly": 19252, "\u0120participants": 6381, "itag": 53266, "Aware": 60173, "\u00e5\u0130\u0127": 62568, "\u0120Dangerous": 50300, "\u0120weet": 53397, "CESS": 48332, "\u0120Ads": 23099, "\u0120conquest": 50359, "puted": 61193, "\u0120rif": 14805, "tools": 24971, "\u0120substrates": 51215, "\u0120Pascal": 50513, "preview": 54630, "iked": 7352, "criptive": 25332, "\u0120Dram": 57380, "\u0120heartbreaking": 44681, "\u0120chuckled": 32278, "\u0120multiplying": 62587, "u\u00c3\u0141": 63827, "\u0120positive": 3508, "irmation": 35159, "882": 54951, "\u0120Address": 13577, "\u0120ambiente": 39045, "\u0120Viking": 42387, "\u0120sh": 421, "\u0120kost": 33011, "date": 3860, "\u00e8\u0134\u012d": 30736, "PY": 23641, "\u0120ign": 4557, "udio": 15216, "oops": 51872, "\u0120myster": 13052, "\u0120one": 532, "\u0120unusually": 39423, "RAW": 48287, "\u0120invented": 21886, "\u0120\u010a\u0109\u0109\u0109\u0109": 22902, "\u0120vig": 11967, "\u0120person": 923, "Dans": 27210, "ittees": 21673, "\u0120prestigious": 20652, "\u0120Essays": 45509, "\u0120scal": 12378, "\u0120dev": 1612, "batch": 23699, "\u0120Brothers": 20149, "\u0120war": 2694, "\u0120annually": 15595, "ori": 6846, "\u0120mais": 4544, "club": 25760, "gif": 47964, "\u0120imperfections": 49350, "Vs": 31467, "\u0120vill": 5118, "\u00e5\u0122\u013b": 20107, "afka": 36920, "\u0120rollers": 41697, "bell": 9905, "\u0120ms": 12213, "\u0120zombies": 39741, "\u0120tek": 37154, "Published": 15510, "\u0120regroup": 58596, "semb": 5645, "\u0120Ih": 9147, "\u0120zdj\u00c4\u013b": 52260, "\u0120Promote": 51194, "\u0120argument": 6494, "752": 41508, "oue": 58465, "\u00c4\u00b1n": 62379, "Put": 18066, "\u0120knew": 3018, "\u0120encompass": 19799, "\u0120Gosp": 56628, "ormais": 39608, "bbing": 21410, "\u0120varios": 37507, "irming": 52634, "\u0120fire": 2858, "Lastly": 33454, "\u00f0\u0141\u0135": 54740, "\u0120Committees": 58136, "ilers": 23315, "\u0120Rye": 64573, "\u0120Machines": 26574, "\u0120Coordination": 55193, "\u0120phony": 62490, "\u0120Transport": 11073, "521": 40948, "\u0120costru": 50858, "HOW": 37826, "IFICATION": 63648, "International": 18219, "\u0120Produkt": 33841, "\u0120annoyed": 28750, "\u0120judge": 8390, "peer": 31642, "\u0120wied": 48985, "\u0120signific": 2329, "\u00c2\u00b1": 21343, "they": 10947, "kok": 26440, "\u0120persever": 37990, "\u0120commencer": 55793, "undi": 33050, "\u0120bou": 12466, "\u0120frown": 17342, "\u0120Beds": 38589, "\u0120cortisol": 44179, "hered": 7202, "hpp": 27376, "d": 79, "environnement": 62575, "\u0120wives": 23721, "\u0120Astro": 53390, "\u0120overt": 15179, "\u00c4\u012fe": 41620, "\u0120Afro": 51081, "\u0120directement": 42646, "\u0120tack": 8339, "\u0120worries": 18223, "\u0120folks": 6980, "\u0120excels": 62994, "\u0120FPS": 47439, "\u0120Compared": 33033, "\u0120true": 2031, "Safety": 32862, "\u0120Optimization": 33114, "\u0120obsession": 28850, "\u0120zrobi": 58504, "\u0120fifty": 16847, "phalt": 23746, "aset": 13290, "\u0120Certified": 15830, "\u0120awarding": 57089, "\u00c4\u0129": 3120, "coles": 46333, "\u00c3\u00a4chst": 40418, "\u0120Project": 5010, "\u0120NBC": 22127, "overline": 49833, "ption": 950, "\u0120Ske": 31311, "\u0120mush": 15183, "\u0120abuse": 7783, "\u0120unfortunate": 20452, "pr\u00c3": 26445, "\u00e5\u0128\u013b": 21750, "Baby": 27712, "bom": 61641, "\u0120fingertips": 30479, "566": 48340, "\u0120boutiques": 53989, "\u0120hockey": 17652, "\u0120AAC": 61948, "resolve": 32256, "*=": 48533, "ow": 307, "\u0120Visitors": 32504, "ockey": 11591, "\u0120tiger": 31697, "\u0120d\u00c3\u0143": 56377, "oker": 10883, "\u0120hospitalized": 34478, "\u0120Aging": 40104, "\u0120Tampa": 21416, "icans": 31539, "\u0120Ireland": 9226, "\u0120Conscious": 43235, "\u0120izquier": 64477, "El": 5337, "\u0120Maker": 25242, "volt": 35601, "\u0120lawns": 54302, "\u0120m\u00c3\u00a9dias": 62329, "\u0120autop": 50996, "\u0120neighbourhood": 27605, "735": 49764, "\u00e8\u00b4": 6461, "yster": 21504, "\u0120picked": 7173, "\u0120grie": 18652, "709": 49018, "';": 5883, "elected": 53142, "defense": 41109, "\u0120m\u00c3\u0143": 26283, "\u0120Paige": 49044, "\u0120Cubs": 38820, "REQUEST": 50053, "Definitely": 47747, "compl": 20606, "alth": 937, "\u0120min": 977, "\u0120Brit": 3875, "\u0120hook": 8384, "\u0120pairs": 14910, "Generally": 33433, "\u0120uncanny": 64168, "act": 511, "Church": 45371, "\u0120recap": 31588, "Civil": 45492, "\u0120rel": 804, "\u0120innocent": 15909, "Sha": 27218, "at\u00c3": 29225, "catching": 35995, "\u0120albo": 59594, "\u00c3\u00a8le": 23604, "\u0120Good": 4127, "\u0120snapped": 20805, "\u0120nipp": 26324, "\u0120FIL": 47207, "\u0120Singing": 64241, "\u0120Enh": 15196, "\u0120Reve": 31371, "\u0120c\u00c3\u00a9l\u00c3\u00a8": 58828, "\u0120regex": 57505, "\u0120clen": 49244, "\u0120sait": 41754, "&": 17, "\u0120Xia": 25801, "382": 38579, "stuff": 44180, "\u0120sinister": 46495, "agascar": 54453, "inspired": 25077, "\u0120spreads": 26476, "\u0120myth": 11040, "ta\u00c5\u0124": 51406, "\u0120fundament": 6941, "\u0120redefine": 61774, "\u0120Computational": 59707, "\u0120scratches": 33357, "\u0120meno": 29827, "Old": 17603, "Fax": 61612, "\u0120convened": 60347, "\u0120unsatisf": 46579, "\u0120adhesive": 30117, "\u0120Hert": 48986, "ssel": 47702, "ipes": 5409, "\u0120Eli": 21052, "\u0120Obesity": 59366, "ickers": 37568, "urgy": 43433, "\u0120wzgl": 58058, "\u0120cependant": 50790, "\u0120Chartered": 54771, "uva": 59610, "\u0120host": 2597, "\u0120Combat": 38072, "\u0120conserv": 8334, "329": 34787, "\u00e6\u0137\u00b0": 13349, "\u0120bonnet": 64779, "\u0120IL": 12290, "\u0120computers": 10877, "\u0120immediately": 4193, "\u0120abroad": 12459, "\u0120Shows": 28557, "\u0120governo": 44439, "\u0120erf": 24148, "\u0120sei": 19380, "\u0120unite": 34113, "\u0120Thanksgiving": 15720, "\u00e4\u00ba\u013c\u00e6\u012d\u012b\u00e6": 62205, "Among": 18911, "\u0120coop": 43443, "\u0120Sodium": 39164, "\u00e9\u013d\u0128": 23694, "\u0120Git": 21261, "\u0120incur": 36878, "\u0120Vie": 38359, "\u0120grieving": 43868, "\u0120intuitive": 19791, "\u0120BAS": 38702, "lek": 48257, "ublik": 61026, "eft": 15201, "\u0120bail": 18180, "\u0120accounting": 11284, "\u0120bowed": 37043, "\u0120\u00c3\u00aentr": 49362, "\u0120fungus": 42870, "\u0120nuit": 34111, "rais": 17948, "kown": 55180, "\u0120seating": 18793, "otton": 7855, "\u0120confuse": 34313, "\u0120refer": 4059, "\u0120wood": 3616, "\u0120Doing": 23230, "\u00cb": 145, "\u0120locals": 18241, "r\u00c3\u0143a": 32595, "\u0120representative": 11093, "ioni": 6529, "\u0120dice": 14919, "\u0120proc\u00c3\u00a9d": 55347, "pping": 4270, "Img": 59626, "\u0120costly": 15935, "friend": 4530, "\u0120wax": 16514, "\u0120Acute": 47115, "\u0120depleted": 50574, "\u0120Neo": 33638, "hopefully": 54917, "rasz": 61518, "Wat": 28398, "ronique": 64777, "\u0120Electric": 11319, "Creat": 14378, "PRE": 17202, "int": 602, "\u0120imag": 3412, "ainment": 57809, "\u0120disponibile": 61888, "\u0120Sm": 2668, "\u0120expansions": 60002, "ger": 1548, "ris": 3024, "\u0120coloc": 52895, "Islam": 53362, "\u0120pick": 2421, "\u0120almonds": 36643, "\u0120Elegant": 55417, "\u0120hosts": 12905, "\u0120niew": 50227, "\u0120configurable": 62626, "\u0120buffer": 13534, "271": 31758, "Neil": 39569, "\u0120Debut": 65002, "\u0120disagree": 14203, "\u0120calend": 26029, "\u0120Thailand": 16029, "\u0120Ohio": 9489, "\u0120Partnership": 24188, "\u0120Ace": 25418, "aco": 11171, "\u0120worsen": 48543, "\u0120noting": 17857, "Forms": 26099, "\u0120replaces": 35444, "\u00e5\u0132\u00a7": 17963, "NEY": 60138, "838": 50425, "\u0120Employment": 22518, "\u0120SOME": 63043, "\u0120Ill": 6888, "\u0120junk": 18272, "\u0120nouveau": 21306, "hou": 11000, "\u0120Bak": 20649, "hos": 25652, "\u0120uranium": 47516, "\u0120paprika": 51611, "\u0120dirig": 28382, "\u0120criticize": 40619, "\u0120chronological": 52688, "phe": 51023, "\u0120Belgrade": 62902, "\u0120etched": 53247, "\u0120Psych": 9275, "\u0120stubborn": 24942, "\u0120Simply": 14339, "\u0120governments": 10894, "uj\u00c3\u0143": 32013, "ructure": 5302, "sl": 6300, "\u0120Dire": 30678, "iable": 4578, "\u0120fiery": 39052, "\u0120Alejandro": 50854, "\u0120cooks": 36894, "\u0120jalap": 62188, "\u0120racing": 11421, "\u0120dimensions": 12971, "\u0120ett": 15028, "\u0120Certainly": 27391, "Career": 41685, "community": 37934, "\u0120aplic": 20254, "\u0120standout": 42049, "Francis": 64853, "\u0120unanswered": 51493, "\u0120counc": 31080, "\u0120heads": 8630, "\u0120extinct": 47302, "\u0120hist": 1690, "\u0120PPC": 41670, "\u0120conserve": 34744, "('../": 62969, "jection": 26209, "\u0120arthritis": 23073, "\u00e5\u00a2\u0140": 40312, "\u0120Polski": 61214, "ULL": 6843, "acion": 18895, "riched": 30932, "\u00e6\u00ac": 8505, "\u00e2\u0128\u0134": 26121, "iazza": 39494, "\u0120Rajas": 41277, "\u0120wiser": 51836, "mom": 27535, "ccan": 64105, "\u0120Ghost": 17891, "\u0120Cavaliers": 63707, "\u0120rational": 14653, "\u0120edad": 46172, "\u0120raisons": 55550, "\u0120vocal": 15189, "categories": 48387, "\u0120singer": 12452, "MB": 10746, "hawk": 51500, "cheon": 38762, "\u0120Damien": 55763, "\u0120consoles": 34192, "ig": 318, "Labels": 28076, "\u0120custody": 17585, "\u0120soff": 40105, "calls": 57394, "\u0120tramite": 60264, "uch": 718, "\u0120desk": 8851, "\u0120portion": 8091, "icana": 48111, "\u0120Catering": 48302, "\u0120scientific": 6963, "\u0120broken": 6444, "\u0120transferred": 13996, "\u0120corporation": 17348, "kr": 25134, "\u0120Saved": 61856, "Bottom": 29078, "Na": 17340, "\u0120relationships": 5438, "VAL": 15427, "\u0120anal": 1851, "cloud": 19677, "\u0120spectra": 44563, "\u0120Yosh": 53116, "\u0120Wh": 882, "\u0120rewarding": 18626, "?;": 54637, "ujeres": 30823, "ensibly": 57741, "\u0120enormous": 12726, "Introduction": 20668, "\u0120dv": 49142, "\u0120Educators": 63583, "\u00e5\u00a9\u0128\u00e7": 31822, "\u0120Landscape": 31359, "\u0120Initialize": 52233, "\u00e9\u00a2\u013a": 19633, "\u0120tailored": 16983, "rosse": 27441, "\u00e2\u0122\u00a6\u00e2\u0122\u00a6\u00e2\u0122\u00a6\u00e2\u0122\u00a6\u00e2\u0122\u00a6\u00e2\u0122\u00a6\u00e2\u0122\u00a6\u00e2\u0122\u00a6": 55196, "\u0120Mart": 4666, "storm": 16501, "Good": 7073, "Joined": 51622, "\u0120Wester": 50084, "\u0120briefs": 56590, "\u0120Lors": 43803, "\u0120multis": 58684, "\u0120fug": 41740, "rior": 7397, "\u0120pr\u00c3\u00a1ct": 61103, "\u0120laquelle": 31013, "\u00a2": 107, "efined": 14749, "cesso": 51056, "\u0120GOP": 19142, "\u0120chol": 14594, "\u0120Building": 9414, "Eastern": 51907, "\u0120brainstorm": 37482, "\u0120Todd": 18586, "\u0120Wander": 54793, "\u0120comida": 54455, "\u0120ARM": 43650, "\u0120Engl": 52794, "\u0120managers": 9723, "riv": 974, "\u0120Pack": 6632, "\u0120dealt": 16773, "\u0120Terms": 12185, "\u0120whoever": 22084, "\u0120cul": 9740, "\u0120curiously": 57691, "\u0120Pere": 23988, "\u0120plaats": 36176, "rians": 29901, "\u0120palate": 36525, "Tomorrow": 48018, "\u00c3\u00a9riences": 60776, "\u0120inquis": 61319, "\u0120responding": 17651, "\u0120Bent": 23582, "\u0120Fry": 29980, "\u0120sof": 45777, "\u0120notoriously": 50852, "\u0120kite": 54203, "Winning": 61730, "ion": 280, "\u0120CPC": 52885, "vast": 50825, "653": 50566, "Tre": 25292, "venirs": 38545, "\u0120ken": 36457, "\u0120hosp": 10397, "\u0120Luna": 33909, "419": 38490, "\u0120Three": 9004, "\u0120joue": 59052, "derr": 32045, "Make": 9576, "ained": 2424, "Hill": 41584, "\u00e9\u00a6\u0128": 47028, "\u0120wrongdoing": 59288, "\u0120lax": 46003, "\u0120yield": 8220, "yen": 64389, "\u0120sill": 48961, "\u0120Fri": 23547, "\u0120Lite": 27551, "\u0120Wal": 6886, "ording": 1824, "\u0120Boone": 31693, "absolute": 47631, "aton": 13843, "\u0120confident": 8272, "Simply": 29229, "Included": 51927, "\u0120insign": 31211, "\u0120screaming": 20242, "Brazil": 48802, "\u0120kids": 2862, "\u0120pere": 52725, "\u0120Eint": 60770, "urre": 39732, "\u0120Clement": 37722, "\u0120consul": 44113, "\u0120percor": 45460, "\u0120Athletes": 57749, "\u0120sweeteners": 64864, "\u0120Solomon": 29458, "\u0120shr": 11969, "\u0120Index": 12034, "\u0120\u00c3\u00aent": 21505, "ablement": 55907, "\u0120THIS": 18891, "flags": 26449, "Runner": 39844, "\u0120nasal": 31003, "Tiny": 61721, "\u0120afterlife": 64393, "purpose": 27615, "\u0120respond": 3869, "\u0120rogue": 41731, "sam": 28802, "\u0120dissolution": 48468, "\u0120protesting": 45696, "\u0120Rhode": 29700, "\u0120impar": 64824, "cil": 3697, "\u0120Stadt": 23248, "\u0120moteur": 64814, "\u0120often": 1764, "\u0120flashlight": 46422, "\u0120knuckles": 57216, "\u0120steam": 13007, "mano": 48405, "EVENT": 44589, "\u0120Marc": 11715, "\u0120pertains": 51247, "\u0120bitte": 46300, "inite": 16481, "\u0120parents": 3300, "mani": 37228, "emos": 10523, "\u0120ballpark": 60361, "\u0120exh": 21893, "\u0120m\u00c3\u00a8re": 36320, "\u0120TOUR": 63451, "inoff": 63657, "\u0120bonds": 13563, "234": 25847, "me": 1275, "ixa": 52653, "\u0120fertility": 24629, "\u0120hepat": 26058, "term": 4279, "\u0120Spe": 5468, "\u0120sean": 46098, "\u0120succ\u00c3\u00a8s": 48382, "\u0120appearance": 6668, "omo": 11138, "\u0120hacen": 42761, "\u0120derri\u00c3\u00a8re": 43967, "\u00bc\u00b9": 45708, "\u0120pain": 1765, "sq": 22587, "\u0120Randy": 28920, "BOOK": 39373, "\u0120HVAC": 23517, "cturn": 47742, "\u0120sha": 52190, "Nos": 40188, "\u0120Restoration": 34596, "REL": 24425, "ttar": 41511, "bund": 51720, "ups": 5679, "verting": 39169, "\u0120outright": 26432, "\u0120rij": 49096, "\u0120Beaumont": 63213, "\u0120focusing": 10588, "\u0120Gom": 60028, "\u0120possibilit\u00c3\u00a9": 48330, "\u0120dragon": 16821, "\u0120rgb": 51075, "\u0120Ariel": 45667, "\u0120performer": 27966, "\u0120Asus": 59554, "\u0120fills": 27088, "Crystal": 49252, "zieh": 55323, "\u0120frances": 56940, "alypt": 45517, "\u0120singing": 11968, "\u0120visceral": 52821, "anj": 52248, "\u0120BL": 15995, "\u0120inspection": 13403, "Victor": 58334, "ttes": 53755, "\u0120Medien": 48336, "580": 31901, "\u00c3\u00a9r\u00c3\u00a9e": 51380, "Sir": 29871, "\u0120Shepard": 59536, "sea": 12853, "\u0120allemaal": 61378, "\u00c2\u00bb,": 9549, "People": 9978, "\u0120ion": 20010, "amental": 22543, "\u0120cyan": 51082, "\u0120Balloon": 61651, "overed": 2872, "\u0120micro": 4468, "Bra": 21507, "\u0120isnt": 39811, "....": 2497, "\u0120gesch": 17636, "\u0120potentially": 8538, "mix": 34071, "Wy": 38501, "\u0120delet": 13143, "umbing": 14066, "jsiegel": 60709, "\u00c3\u00a4re": 23310, "\u0120differentiate": 29662, "\u0120hav": 64391, "uploads": 38836, "\u0120answ": 2427, "\u0120laughing": 14969, "\u0120mour": 29492, "jp": 47235, "\u0120bland": 31515, "Solo": 58931, "Com": 2349, "\u0120ballot": 21537, "\u0120Wheel": 19027, "\u00c2\u00b5": 52188, "\u0120nick": 15129, "LB": 52553, "\u0120Requirements": 19463, "\u0120ears": 11583, "\u0120Chester": 30185, "od": 349, "________________________________": 15244, "Hu": 33137, "\u0120mean": 1726, "voor": 30322, "ahlen": 31402, "ENABLE": 57289, "\u0120Manager": 6809, "\u0120cup": 3676, "\u0120Arist": 29117, "\u0120crucial": 7530, "scribe": 12777, "\u0120stumbling": 48260, "\u0120marm": 55881, "\u0120tooth": 10426, "\u0120form": 1052, "\u0120Her": 2783, "\u0120resting": 20853, "TB": 25794, "\u0120programa": 31577, "\u0120reasonably": 16630, "\u0120imagery": 22677, "\u0120remov": 3507, "ors": 644, "\u0120scent": 15867, "\u0120sadness": 24428, "leyball": 26972, "cko": 42682, "\u0120volver": 45417, "\u0120manier": 48773, "\u0120sip": 29122, "\u0120AIR": 42366, "viron": 1900, "972": 46108, "tor": 13513, "\u0120alerts": 21889, "\u012d\u00e5\u00a4\u0138": 57988, "742": 54760, "\u0120widget": 22554, "\u0120Barrier": 59514, "\u0120Proposed": 59693, "Integration": 58982, "Luxury": 59907, "\u0120Moj": 56658, "agate": 61537, "\u00c4\u0125ri": 23844, "\u0120was": 398, "\u0120undue": 56181, "coffee": 64714, "ruf": 64922, "Offic": 32154, "Maximum": 41535, "\u0120told": 2276, "Revision": 46649, "urses": 55551, "\u0120Norwegian": 27263, "\u0120gdzie": 43016, "cht": 6309, "Variables": 64178, "\u0120refract": 59334, "and": 373, "ceans": 25553, "\u0120trailers": 30656, ")\u00e2\u0122\u013f": 34891, "\u0120Hull": 43183, "ftime": 40429, "\u0120Ware": 25731, "\u0120aleg": 51951, "\u0120FCA": 63503, "\u0120slu\u00c5": 64481, "\u0120pianist": 47625, "\u0120soaring": 38896, "omegranate": 45979, "\u0120grind": 21757, "\u0120CMS": 24295, "\u0120Rang": 55404, "\u0120Nile": 40493, "Ups": 57333, "\u0120bran": 54005, "Chief": 28056, "IFT": 30246, "\u0120reminds": 15395, "\u0120chapel": 39192, "anda": 5368, "\u0120Curry": 32463, "coach": 49229, "Euro": 15459, "ulatory": 19448, "\u0120supernatural": 29350, "\u0120longe": 25877, "etimes": 2639, "gesetz": 62436, "\u0120notified": 21298, "\u0120curd": 64840, "upro": 57757, "\u0120production": 3146, "znych": 38226, "\u0120td": 57568, "\u0120Gre": 14447, "glio": 29443, "\u0120skeletal": 45354, "nah": 17000, "\u0120Moscow": 18564, "Yep": 37221, "adia": 31574, "\u0120rotten": 43714, "\u0120hummus": 62583, "tedg": 58320, "\u0120occasion": 6861, "Real": 13944, "\u0120fascist": 56424, "\u0120Pair": 31849, "\u0120sharing": 4427, "\u0120postal": 31412, "auge": 31771, "\u0120sque": 10534, "Cer": 54886, "cji": 28876, "\u0120Vienna": 25555, "\u0120Friend": 8777, "\u0120vain": 27552, "\u0120Enter": 6606, "\u0120PCR": 26148, "\u0120Mother": 10228, "\u0120Assembly": 13749, "nos": 27397, "\u0120canopy": 35257, "ikely": 10677, "Dash": 42265, "iew": 720, "\u0120Whis": 28224, "\u0120reboot": 30022, "\u0120Dock": 36993, "\u0120empt": 25986, "\u0120belongs": 17181, "\u0120territories": 27581, "\u0120monk": 37528, "btn": 24837, "\u00e9\u0129\u0130": 37639, "RIBUT": 47603, "\u00e6\u0137\u0127\u00e4\u00ba\u012d": 53394, "\u0120inwest": 63865, "\u0120shell": 9341, "grad": 6024, "HB": 34807, "\u0120Gerald": 36469, "Walter": 64636, "\u0120trustworthy": 23441, "Attend": 52211, "\u0120encrypt": 45341, "\u0120revoked": 57878, "\u0120Inches": 58819, "\u0120bragging": 60213, "\u0120lure": 32873, "WHAT": 34382, "\u0120recruit": 11237, "Account": 16010, "\u0120pass": 1285, "\u0120POST": 34694, "wanda": 38886, "646": 44405, "\u0120explique": 59127, "\u0120freel": 17356, "\u0120intr": 14840, "811": 46054, "\u0120Cart": 12118, "\u00e4\u00bb\u012c\u00e5\u00a4\u00a9": 48925, "\u0120Kansas": 13100, "\u0120paper": 2856, "Fr": 5137, "\u0120mode": 5521, "\u0120pathway": 20081, "\u0120Spons": 22675, "\u0120vitamin": 11965, "ition": 638, "\u00e9\u00a3\u0140": 29816, "\u0120NPC": 42539, "\u0120TRA": 33506, "\u0120Loose": 55376, "blind": 38866, "\u0120victoria": 65023, "\u0120Sympt": 29052, "osome": 63233, "\u0120revolving": 50654, "ermann": 49622, "\u0120ka\u00c5": 21200, "itung": 26392, "\u0120mids": 54802, "\u0120fixation": 52813, "\u0120kter": 14461, "\u00c3\u00a4nner": 34453, "\u0120APS": 63983, "Chunk": 51136, "238": 27767, "em": 357, "\u0120positioning": 20441, "546": 48803, "br": 1162, "\u0120Whats": 13882, "\u0120invari": 35662, "\u0120foreground": 46849, "\u0120vyt": 60803, "\u0120Safari": 25431, "\u0120Experiences": 48238, "logo": 29486, "\u0120pancakes": 35281, "\u0120respecto": 43760, "tol": 64856, "Gl": 7624, "\u0120movie": 3756, "\u0120traveling": 10087, "represent": 20568, "\u0120redd": 14753, "\u0120lumps": 59745, "\u0120Hy": 6957, "\u0120foreclosure": 35632, "\u0120hasta": 13589, "\u00e6\u0130\u00a2": 48032, "Setting": 24808, "\u0120misrepresent": 51863, "Billy": 52927, "charg": 12474, "\u0120uint": 12759, "\u0120Jake": 19808, "Sh": 2374, "JS": 23927, "eder": 5606, "\u0120altro": 26978, "\u0120bleach": 37365, "\u0120lasts": 20471, "\u0120purpos": 6548, "Stack": 18464, "\u0120LY": 63986, "\u0120Calculator": 39356, "\u0120scooped": 62223, "ouch": 8399, "\u0120corners": 15938, "\u0120Fraud": 39642, "Super": 12595, "Oliver": 62704, "Jac": 27211, ".\u00e2\u0122\u013e": 19116, "\u0120Et": 7755, "\u0120scope": 9746, "\u0120worth": 2729, "\u0120ache": 28069, "\u0120Jeb": 54582, "uscript": 14690, "\u0120HDD": 60831, "\u0120Nieder": 64910, "\u0120Kettle": 64125, "uba": 17460, "\u0120pil": 7390, "omini": 41880, "\u0120\u00d0\u00b1": 48077, "\u0120Strip": 24858, "\u0120pow": 3720, "\u0120contr\u00c3\u00b4": 53977, "\u0120metri": 61956, "\u0120intermediary": 61428, "\u0120barley": 44002, "\u0120hammer": 19045, "wa\u00c5": 34138, "struct": 6807, "ilig": 23874, "\u0120napkins": 64175, "wning": 47775, "\u0120aversion": 57680, "\u0120chick": 16275, "\u0120Dean": 15104, "\u0120defect": 11959, "\u0120patrol": 25640, "\u0120Sheila": 52071, "\u0120breached": 56122, "NN": 19466, "Barn": 50238, "vitra": 28645, "\u0120broker": 14012, "kot": 61244, "\u0120doub": 17950, "\u0120THAT": 21700, "\u0120Pins": 50010, "\u0120wes": 46836, "n\u00c3\u0143ho": 36353, "\u0120marin": 35977, "\u0120tart": 25243, "\u0120Kah": 42974, "\u00e6\u00b1": 8405, "ugen": 44537, "essage": 4576, "/**": 3853, "\u00e1\u00bb": 19768, "affected": 35942, "\u0120migrated": 50861, "\u0120halftime": 50057, "Jr": 56266, "\u0120irresistible": 44935, "\u0120apocalypse": 61237, "\u0120trophy": 30831, "\u0120Ashton": 51078, "\u0120Client": 15119, "Inspired": 46602, "\u0120Centers": 19315, "ku": 6399, "\u0120f": 261, "\u0120YOUR": 16545, "\u0120lacks": 23508, "\u0120pudding": 34134, "\u0120exists": 8810, "\u0120Views": 20457, "\u0120harshly": 64745, "after": 10276, "\u0120boolean": 10742, "\u0120Slic": 64907, "gegen": 57870, "\u0120straightened": 43428, "\u0120NGO": 26235, "ritical": 56210, "\u0120Else": 29179, "\u0120issuing": 29911, "\u0120pharm": 6854, "angling": 36632, "\u0120pharmacist": 45026, "\u0120respite": 53449, "\u0120clean": 2246, "\u0120regulation": 11506, "diff": 21475, "\u0120Definitely": 27494, "\u0120\u0120\u0120\u0120": 296, "\u0120Presidents": 50394, "\u00b2\u00b3": 16345, "\u0120Vari": 26084, "ENT": 929, "cock": 27067, "\u0120Det": 4209, "\u0120MLB": 27414, "\u00e5\u0140": 23214, "\u00e9\u013b\u012f": 40988, "\u0120Therm": 41104, "\u0120organic": 7464, "unique": 27699, "\u0120chart": 8882, "\u0120sympathy": 26744, "\u0120Ibrahim": 49254, "\u0120recycl": 10056, "oby": 29349, "\u0120grains": 22496, "utilisation": 41381, "\u0120marvel": 21294, "\u0120lobe": 55788, "obic": 18759, "\u0120navigation": 15059, "\u00e9\u0125\u00a8": 11570, "\u0120Dhabi": 35882, "\u0120heater": 22681, "\u0120inside": 2708, "fielder": 31387, "\u0120Orig": 14856, "\u0120use": 745, "\u0120particular": 2057, "\u0120Towers": 43984, "\u0120Rechts": 45046, "\u0120commit": 5067, "\u0120fou": 29255, "pak": 35593, "?": 42, "\u0120Hide": 33071, "bags": 24912, "\u0120scored": 10893, "\u00c3\u00a7o": 21172, "\u0120rights": 3673, "\u0120tensor": 39149, "\u0120tears": 10649, "\u0120m\u00c3\u00a9can": 52031, "amped": 21765, "\u0120sporty": 52898, "\u0120upholstery": 43067, "flix": 11696, "nothing": 34942, "Overall": 18298, "\u0120awaits": 41527, "\u0120Preservation": 45299, "\u0120grateful": 10292, "\u0120anci": 30387, "\u0120endure": 24289, "ineries": 60101, "\u0120McCoy": 56934, "\u0120towing": 45217, "\u0120faith": 4921, "\u0120sidewalk": 31167, "\u0120Shortly": 46139, "emic": 2738, "\u0120blending": 31548, "ZZ": 33563, "\u0120avis": 36027, "\u0120accountability": 20511, "\u0120schaffen": 61273, "imagin": 43479, "\u0120procession": 48404, "\u0120turnovers": 54552, "\u0120trademark": 20767, "tag": 10717, "halb": 21697, "\u0120Apparently": 21516, "regex": 51614, "\u0120endured": 33172, "\u0120submerged": 52267, "745": 49393, "\u0120regret": 13256, "ainted": 16387, "oufl": 41176, "\u0120Gay": 18260, "ourable": 29313, "ermaid": 37486, "\u00d0\u00b0": 6279, "\u0120gioc": 39618, "\u0120\u00c3\u00b6": 12492, "\u0120inserting": 45484, "\u0120Tud": 49213, "\u0120Smaller": 62269, "\u0120Popular": 19624, "\u0120Mayor": 15973, "woo": 45727, "\u0120S\u00c3\u00a9": 52130, "\u0120thromb": 40482, "\u00e4\u00b8\u012f\u00e5\u0131\u00af": 36787, "\u0120ext": 1050, "\u00ef\u00bf": 13112, "ADs": 64186, "\u0120stop": 2663, "\u0120represented": 10336, ".\"\"\"": 36088, "naire": 18763, "\u0120stati": 35962, "\u0120substitute": 15725, "\u0120Prima": 48274, "\u0120Kung": 61779, "cery": 10632, "ucker": 16300, "\u0120remnants": 47917, "\u0120material": 2047, "\u0120automobiles": 38253, "Library": 28073, "Early": 24511, "Admin": 26977, "\u0120stack": 10034, "\u0120porter": 37862, "\u0120analysis": 3549, "\u0120Well": 3760, "\u0120Structure": 25301, "\u0120alright": 28650, "\u0120alla": 7434, "\u0120asi": 44741, "\u0120HAL": 54547, "\u0120birthdays": 40964, "\u0120captions": 52115, "imientos": 28292, "\u0120tama\u00c3\u00b1o": 59221, "Africa": 51045, "\u0120anticip": 8005, "\u0120Joshua": 24059, "\u0120Grant": 12571, "\u0120Tue": 39549, "\u0120inund": 54709, "\u0120abnormalities": 37348, "\u0120manuscripts": 37718, "\u00e6\u0139\u0131": 15015, "Gro": 34430, "zyn": 54260, "esthetics": 57146, "\u00c3\u00b6l": 24329, "TW": 32353, "\u0120glyph": 50644, "\u0120Hence": 15164, "\u0120bay": 14697, "ffe": 16698, "protocol": 35496, "\u0120Disable": 59570, "\u0120game": 1404, "\u0120sprinkled": 50255, "Viewer": 51048, "\u0120annoying": 16175, "\u0120march\u00c3\u00a9": 35247, "\u00e9\u013b\u00a4\u00e4\u00ba\u0128": 49945, "iast": 36006, "\u013f\u00a4": 19899, "\u0120ASEAN": 64493, "\u0120securities": 20073, "\u0120prochain": 53904, "\u0120Libert": 35430, "\u0120Distribution": 27480, "\u0120coolest": 40281, "addle": 18849, "PART": 44300, "Behind": 45266, "\u0120meld": 48593, "\u0120Requ": 9612, "\u0120kidn": 22769, "iolet": 19033, "\u0120implying": 41557, "\u0120Tow": 21547, "\u0120ser\u00c3\u00a1n": 60223, "\u0120displaying": 23277, "\u00e6\u00bf\u0122": 34415, "\u0120Idaho": 24027, "\u0120controllers": 31133, "\u0120Winter": 11451, "Y": 68, "\u00c3\u00b6n": 5824, "Why": 4479, "\u0120following": 1863, "\u0120asshole": 30009, "42": 4821, "\u0120glimpses": 62154, "044": 50712, "Hook": 42881, "\u0120pkg": 60063, "\u0120poll": 5847, "\u0120appeared": 6248, "\u0120rooftop": 36073, "\u0120dinero": 34715, "874": 59233, "\u0120Adder": 60659, "lip": 37976, "\u0120STAR": 41804, "\u0120infinite": 19605, "\u00e5\u0129": 3813, "Spider": 64928, "\u0120handicapped": 65009, "\u0120downt": 9180, "\u0120grill": 16992, "\u0120mens": 13154, "Sant": 64918, "\u00e9\u013f\u0142": 36331, "\u0120aqu": 8137, "\u0120Wiki": 26990, "Polit": 39904, "ipher": 13462, "pecia": 45633, "Allow": 35865, "\u0120Six": 12732, "Aff": 24962, "/%": 57094, "ringen": 55926, "\u0120sculptures": 31715, ":+": 63398, "inte": 6266, "\u0120gt": 58580, "\u0120Neural": 55173, "\u00e6\u0122\u00a7": 15445, "\u0120garden": 5919, "overnment": 17754, "\u0120quo": 28717, "\u0120expos": 34952, "\u0120scooters": 56468, "\u0120Brah": 60747, "\u0120isn": 2414, "\u0120Magical": 59572, "\u0120Purchasing": 47709, "\u0120Barnett": 56073, "CAST": 49369, "Endpoint": 38973, "\u0120cups": 10855, "\u0120logo": 9167, "\u0120disparity": 51895, "\u0120fond": 9094, "Cro": 40629, "\u0120ajust": 41537, "interno": 42685, "\u0120treffen": 59144, "\u0120Advocacy": 44995, "\u0120CLICK": 44393, "\u0120scrape": 47496, "backs": 11140, "appen": 28596, "\u0120horizon": 20214, "\u0120Pf": 16692, "otherapy": 15837, "\u0120Portugal": 19540, "LET": 27824, "sup": 31634, "\u0120sost": 28815, "\u0120Wei": 36259, "\u0120qualquer": 47113, "\u0120MIS": 47722, "\u0120Fathers": 48623, "INSERT": 33604, "ympt": 21623, "IPPING": 50237, "\u0120RS": 18416, "\u0120Winery": 51251, "\u0120cartilage": 47385, "reichen": 53195, "\u0120irre": 13917, "becca": 19888, "\u0120authors": 7761, "\u0120\u00d0\u00b7": 55175, "rompt": 58889, "\u0120cm": 6401, "\u0120effort": 4023, "\u00e9\u0141": 19011, "\u0120Handle": 27908, "\u0120poss\u00c3\u00a8de": 63742, "\u0120def": 984, "\u0120Aware": 25279, "uawei": 28320, "clock": 16793, "\u0120plantation": 45060, "\u0120camoufl": 50116, "\u0120construcci\u00c3": 51905, "\u0120Maths": 62183, "\u0120bitterness": 41541, "\u0120indexed": 43746, "\u0120blinded": 55346, "cell": 7802, "\u0120Ve": 5187, "\u0120Franz": 35907, "\u0120dull": 18874, "\u0120subpoena": 63017, "\u0120Rew": 19845, "\u0120libido": 37890, "\u0120hesitated": 35782, "\u0120jurid": 53806, "widget": 22971, "unal": 23019, "\u00e5\u012b": 6644, "\u0120beneficial": 9573, "\u0120apre": 29166, "\u0120seminar": 24215, "\u0120Commission": 5935, "\u00e5\u00b8\u00a6": 17997, "tch": 56769, "\u0120beb": 47795, "\u0120Kir": 17658, "\u0120cathedral": 41051, "\u0120outils": 53741, "\u0120NS": 12495, "ontal": 13010, "\u0120DeFi": 43845, "\u0120pope": 47392, "fail": 33517, "\u0120sabe": 38571, "\u0120debugging": 43637, "\u0120dent": 8069, "\u0120\u00c3\u012a": 26642, "ope": 1419, "\u0120impe": 19298, "\u0120stata": 25367, "\u0120Expand": 48470, "\u0120soph": 9979, "\u0120Linear": 40720, "045": 49127, "\u0120Mater": 51873, "Autumn": 63389, "\u0120salon": 20600, "ifty": 27315, "\u0120thinking": 3187, "099": 52149, "\u0120Miet": 63024, "\u0120lifes": 25325, "Approx": 39408, "o\u00c5\u013dci": 43889, "technic": 58363, "Hay": 31307, "NL": 28643, "melon": 36004, "\u0120exist": 2327, "\u00e4\u00b8\u0122\u00e4\u00b8\u00aa": 9265, "\u0120Putting": 41427, "\u0120punches": 42794, "Start": 7556, "\u0120fundamentally": 27245, ".--": 61798, "\u0120Photography": 17282, "OLS": 63409, "\u0120d\u00c3\u00a9couv": 27584, "happy": 38351, "psons": 61172, "\u0120enam": 63360, "\u0120origen": 58638, "\u0120back": 743, "\u0120Warner": 23555, "\u0120stellt": 47706, "Sand": 30773, "\u0120batt": 9606, "olog\u00c3\u0143a": 23839, "\u0120novembre": 35111, "\u0120browsers": 26044, "\u0120communications": 9795, "\u0120reminiscent": 31925, "\u0120malgr\u00c3\u00a9": 50485, "\u00e8\u00a7\u0123": 11691, "\u0120reportedly": 17685, "\u0120custard": 57852, "\u0120Corinth": 29164, "itis": 8394, "\u0120Presbyterian": 45638, "\u0120anatomy": 35351, "\u0120komb": 44050, "\u0120oblivion": 64568, "\u0120m\u00c3\u00a9": 17088, "\u0120streak": 23014, "lingen": 40470, "\u0120tooling": 58222, "WAYS": 40691, "\u0120sizzling": 61445, "\u0120antibiotics": 23889, "\u010a\u010a\u0120\u0120\u0120\u0120\u0120\u0120\u0120\u0120\u0120\u0120\u0120\u0120\u0120\u0120\u0120\u0120\u0120\u0120\u0120": 32967, "\u0120Lup": 42053, "\u0120luck": 4524, "\u0120Jackets": 61159, "Bol": 47472, "\u0120stats": 15897, "heim": 13073, "\u0120gracious": 38929, "Featured": 26953, "Mah": 29148, "capt": 33110, "\u0120forbid": 48852, "\u0120situation": 3289, "lambda": 19686, "\u0120Og": 30876, "warning": 40458, "\u0120soldiers": 10902, "\u0120Saturdays": 38172, "\u0120palace": 22928, "Ky": 47684, "\u0120retros": 25966, "\u00e6\u00b0\u00b4": 14283, "\u0120exited": 48617, "\u0120successes": 27032, "\u0120Knee": 53892, "idad": 4017, "boxing": 56097, "\u0120Either": 17691, "244": 28598, "\u00c3\u00a1rio": 19945, "\u0120utilise": 36795, "\u0120CSS": 19977, "ricted": 26732, "aju": 47384, "\u0120Compassion": 57151, "stav": 61320, "\u0120Quart": 24680, "Moreover": 25792, "\u0120tyres": 41664, "\u0120Privacy": 11391, "\u0120spraw": 17208, "anical": 28304, "\u0120mortal": 31694, "\u00e7\u00b1": 13375, ".+": 51489, "Begin": 24129, "\u0120certaines": 33349, "aires": 8141, "mble": 20836, "\u0120Sauce": 27508, "\u0120similarly": 19194, "\u0120chambers": 35110, "\u0120Thrones": 40702, "\u0120gearbox": 55686, "](#": 12542, "225": 17570, "\u0120Knowledge": 17411, "\u0120halted": 42851, "venue": 4255, "wirtschaft": 53847, "affeine": 54865, "\u0120Company": 4927, "\u0120NASCAR": 40434, "assin": 39445, "\u0120formulation": 28313, "Express": 36053, "fallen": 53467, "\u0120Den": 6361, "\u0120WI": 23450, "\u0120Surve": 32533, "solid": 47057, "\u0120geht": 20698, "ivit\u00c3\u00a9": 54527, "odil": 63762, "\u0120exploring": 11551, "\u0120GDP": 20203, "Normal": 25306, "\u0120streams": 16770, "\u0120ZIP": 47799, "\u0120wear": 4600, "\u0120lining": 18991, "\u0120alten": 59897, "ifer": 7429, "\u0120drawn": 9655, "\u0120powerful": 4452, "\u0120avesse": 61740, "\u0120fork": 20145, "amba": 27731, "\u0120election": 6675, "\u0120Cause": 27199, "nico": 19581, "\u0120creams": 36502, "\u0120Preliminary": 62135, "Officials": 62633, "\u0120noviembre": 56776, "\u0120mins": 18293, "release": 24888, "\u0120Present": 10797, "\u0120adversely": 45578, "\u00c3\u00a9l\u00c3\u00a9": 16209, "index": 7090, "........": 9343, "\u0120iets": 40843, "\u0120pr\u00c3\u00a9": 10220, "\u0120pi\u00c3": 6730, "\u0120modification": 20183, "\u0120Roger": 18451, "\u0120Gli": 41339, "\u0120importancia": 52866, "\u0120flesh": 13818, "\u0120circular": 17084, "\u0120fruit": 6568, "\u0120vant": 48646, "Keith": 53501, "\u0120recycle": 35915, "\",\"": 20163, "\u0120foi": 18566, "\u0120disable": 20976, "\u0120premiums": 24950, "ailable": 1337, "\u0120spez": 60624, "\u0120freight": 26157, "\u0120Wass": 51762, "\u0120gestione": 58946, "\u00c3\u00a4tten": 51032, "911": 19407, "(#": 25858, "\u0120ferro": 57880, "\u0120Deer": 34549, "\u0120cynical": 43059, "\u0120entreprise": 41016, "osed": 1884, "\u0120Crochet": 64487, "\u0120discl": 8764, "TRUE": 44551, "\u0120hurdles": 39242, "\u0120PowerShell": 56486, "oga": 6142, "\u0120Vampire": 48320, "\u0120transgender": 31249, "\u0120outbound": 54376, "\u0120indifference": 52925, "\u0120basket": 8102, "\u0120namely": 18428, "\u0120Indoor": 31602, "\u0120Handmade": 49449, "\u0120Iain": 64938, "\u0120cancelled": 20843, "\u0120nightly": 45748, "(@": 8186, "\u0120tray": 17863, "Contribut": 46410, "\u00e7\u0135\u00a6": 53212, "\u0120Pierre": 23636, "artisan": 36708, "\u0120genie": 49217, "\u0120sadd": 39454, "importance": 56834, "FAULT": 20436, "Complex": 48598, "\u0120abducted": 64581, "?).": 29264, "\u0120Loans": 23562, "\u0120Mothers": 51155, "stores": 47082, "\u0120Measurements": 53290, "\u0120Laura": 15761, "\u0120convicted": 21652, "\u0120Om": 12946, "\u0120XXX": 36843, "ielle": 19295, "NET": 15450, "\u0120AND": 6915, "mn": 19495, "ingale": 63591, "\u0120fotos": 41111, "tracking": 51029, "\u0120courage": 12341, "\u0120softly": 22977, "ien": 1423, "\u0120fij": 56079, "\u0120Respect": 39812, "zia": 11757, "ournals": 50601, "express": 43193, "\u0120mixes": 32585, "\u0120academically": 61065, "\u0120moderately": 39082, "\u00e8\u00b6": 11614, "\u0120werken": 44094, "\u0120erwart": 48939, "\u0120sommes": 26578, "digit": 33159, "thodont": 35823, "\u0120semana": 27268, "agent": 22143, "readable": 56469, "\u0120regarding": 4451, "Association": 47127, "\u0120nudity": 64284, "\u0120annex": 38989, "\u0120blaming": 38141, "\u0120Clarke": 30175, "nych": 12562, "\u0120read": 926, "\u0120RELEASE": 59213, "\u0120Dee": 35123, "uzioni": 52972, "\u0120maximize": 16507, "\u0120amino": 20601, "\u0120Century": 17422, "Gef\u00c3\u00a4llt": 51682, "\u0120queens": 53907, "\u0120allows": 3258, "\u0120opinions": 10185, "\u0120btc": 41588, "\u0120Additionally": 9706, "embed": 49031, "\u0120Challenge": 13591, "\u0120deviations": 56535, "list": 3684, "\u0120thankful": 17016, "\u0120Alternative": 24327, "\u0120umbrella": 25402, "\u00c3\u00a7as": 35191, "ACE": 12999, "\u0120reproduced": 38911, "\u0120Jeanne": 50440, "\u0120trou": 3653, "\u0120Nathaniel": 61409, "\u0120lacking": 17937, "\u0120Experts": 25594, "\u0120patt": 50414, "\u0120Children": 7838, "\u0120crush": 22390, "\u0120baptized": 48692, "issued": 56544, "\u0120Molecular": 33493, "\u0120encompassing": 52636, "\u0120Powerful": 37225, "uent": 17119, "\u0120Volunteer": 30590, "\u0120Crem": 60733, "\u00e6\u012e": 7557, "\u0120portable": 13002, "Maintenance": 58981, "\u0120Sys": 56586, "isted": 8691, "\u0120\u00c3\u012btats": 46297, "Dal": 46538, "stdio": 61683, "Unknown": 29411, "\u00e5\u012f\u012a": 57000, "amo": 10401, "\u0120uniqu": 17204, "llt": 53611, "\u0120Advance": 32269, "\u0120perspective": 6457, "\u00b2\u00be": 22826, "\u0120Admin": 25546, "\u0120shocks": 36082, "plash": 56830, "\u0120Fotos": 55465, "\u0120Searching": 57142, "\u0120lounging": 64343, "\u00e3\u0123\u012e": 51249, "\u0120genuinely": 17722, "Lie": 31166, "\u0120repeal": 48165, "\u0120Herald": 28355, "\u0120reacted": 35793, "\u0120guideline": 36517, "\u00c3\u00a8que": 50285, "derived": 35023, "\u0120voit": 48142, "\u0120Kensington": 61780, "n\u00c3\u0143m": 32085, "\u00e8\u0143\u00a6": 44842, "\u0120gets": 3418, "\u0120breeze": 20743, "\u0120disrupted": 39047, "\u0120negocio": 49712, "Tips": 25038, "stelle": 53243, "\u0120Messi": 54601, "\u0120healthiest": 58615, "\u0120blatantly": 61475, "\u0120Krish": 28751, "\u0120todas": 18291, "death": 39491, "\u0120terrified": 28607, "ifi\u00c3\u00a9e": 64632, "\u0120Render": 55457, "xtures": 17791, "\u0120barn": 17887, "\u0120simplement": 34482, "\u0120nossa": 55475, "\u0120embark": 22737, "\u0120quint": 35405, "\u0120recognize": 7696, "\u0120niveles": 62576, "Columns": 47068, "\u0120futures": 22719, "\u0120early": 2304, "\u0120UT": 23207, "\u0120Maximum": 28154, "\u0120devastation": 50813, "convert": 36759, "\u0120Edgar": 39189, "ocratic": 29611, "\u0120ausp": 46354, "icrobial": 39970, "\u0120encoder": 55573, "Johnny": 56331, "\u0120sails": 56570, "\u0120navig": 6907, "\u0120burge": 58917, "const": 4323, "\u0120plein": 33752, "\u0120stretched": 20095, "\u0120mixer": 24187, "\u0120decree": 41766, "riend": 1169, "\u0120Clinical": 15269, "\u0120Campus": 18941, "\u0120Cathy": 42319, "neys": 9437, "\u0120staggered": 53778, "\u0120Article": 10495, "\u0120Stru": 35694, "\u0120acquire": 11165, "\u0120Wire": 13070, "chester": 23312, "\u0120pathogens": 35688, "iliar": 5152, "Wait": 17849, "\u0120Pace": 54753, "Wind": 8591, "\u0120sharper": 56458, "\u0120eventos": 58079, "\u0120nodes": 14529, "\u0120orchestrated": 64099, "\u0120escalation": 51198, "\u0120upfront": 29860, "\u0120Simone": 45206, "\u0120m\u00c3\u00aames": 49155, "\u0120wage": 14730, "\u0120Kau": 56574, "\u0120lactose": 56622, "attachment": 61284, "elves": 58611, "testing": 22285, "\u0120L\u00c3": 27324, "\u0120Material": 9003, "Birth": 36882, "ocz": 44860, "\u0120Stick": 22296, "eps": 13841, "\u0120Klein": 28098, "aturated": 37501, "/${": 61351, "\u0120touring": 25681, "\u00e5\u0143\u00a6\u00e4": 50462, "\u0120veter": 7959, "\u0120basics": 16386, "\u0120Hats": 55031, "Talking": 45361, "\u0120suffit": 57292, "Job": 13670, "double": 13533, "\u0120reproduction": 25211, "\u0120Pont": 27643, "issen": 17632, "\u0120approximate": 32029, "643": 49757, "\u00d0\u00b0\u00d1\u0124": 36377, "\u0120kwal": 52467, "done": 23469, "Crazy": 56687, "\u0120click": 3093, "\u0120totalement": 55762, "\u0120Sold": 18351, "\u0120standards": 5466, "\u0120completing": 13508, "\u0120tirelessly": 51126, "Beauty": 46393, "\u0120washers": 63256, "range": 11424, "asonable": 26002, "eren": 2790, "Battery": 51425, "Ide": 34711, "\u0120respected": 17978, "ti": 5732, "\u0120gro\u00c3\u0141en": 34375, "enses": 4979, "=$": 34280, "\u0120Eco": 23097, "256": 12739, "BUR": 53859, "\u0120Dun": 19063, "\u00e7\u013c\u0126\u00e4\u00ba\u012d": 28953, "PLAY": 32152, "\u0120abortion": 13988, "\u0120curtain": 25141, "\u0120Ren": 8730, "oline": 12667, "\u0120listen": 5541, "iza": 12458, "596": 52971, "\u0120campaigning": 48570, "\u0120Hill": 6355, "\u0120unavoid": 45394, "\u0120ubic": 48130, "\u0120braid": 57861, "\u0120anni": 16505, "\u0120emulator": 49966, "\u0120Newfoundland": 56163, "created": 26779, "\u0120going": 1089, "phants": 32132, "sk\u00c3\u00a1": 41030, "\u0120Km": 51649, "\u0120workflow": 19847, "\u0120challenged": 17600, "\u0120organizational": 17701, "\u0120thous": 4231, "\u0120woke": 19105, "ingungen": 43204, "\u0120alum": 36956, "\u0120CRO": 46881, "\u0120capturing": 23672, "\u0120Chern": 63952, "ithub": 11482, "\u0120horizont": 40354, "\u0120Qin": 60908, "continental": 57331, "\u0120Detect": 49388, ".$$": 57915, "\u0120alignment": 18672, "\u0120\u00e2\u013f\u00a4": 28008, "\u0120Electrical": 21947, "\u0120susp": 5729, "\u0120Arkansas": 19875, "\u0120canon": 24458, "\u0120did": 826, "priority": 54521, "\u0120bouquet": 36126, ":).": 38914, "\u0120appraisal": 38020, "\u0120Act": 2875, "\u010a\u0109\u0120": 5986, "\u0120compl": 2339, "\u0120praising": 54291, "\u0120carriage": 25340, "Controls": 38879, "answer": 46617, "\u0120gal": 10212, "\u0120Technologies": 16583, "inds": 13547, "\u0120Rank": 16091, "\u0120dur\u00c3\u00a9e": 51049, "sto": 19835, "\u0120dad": 7991, "\u0120torn": 11816, "vio": 47500, "\u0120convection": 64527, "\u0120wiel": 26641, "\u0120Cuban": 29884, "\u0120MP": 8875, "phones": 9736, "\u0120shells": 26595, "\u0120McCl": 37549, "\u0120okay": 7977, "\u0120requirements": 4029, "\u0120Robotics": 47349, "\u0120Berger": 45483, "\u0120texte": 48453, "\u00e6\u0136\u00bb": 26429, "rowd": 5266, "\u0120leftovers": 40298, "\u0120Raymond": 28757, "\u012d\u00e4\u00b8\u0143": 54340, "\u0120Food": 5555, "\u0120abdomen": 33927, "\u0120Posts": 14310, "strategy": 61621, "\u0120proyecto": 32098, "urgeon": 59606, "\u0120fois": 12987, "\u0120cars": 5889, "otted": 10150, "\u0120Kurt": 27924, "\u0120refusing": 27075, "\u0120mathem": 35599, "\u0120experiential": 49830, "\u0120visuals": 29112, "GROUND": 51834, "\u0120uczest": 62741, "\u0120friendly": 6350, "\u0120menc": 44246, "\u0120DJ": 13060, "\u00d8\u00a7\u00d9\u0126": 31254, "otyping": 37468, "\u0120Jag": 19229, "\u0120Af": 2924, "output": 12236, "learn": 33767, "Upon": 29340, "\u0120Philips": 43430, "\u0120Sachs": 44890, "\u00c3\u00b6hn": 57529, "\u0120Journalism": 40296, "\u00c3\u0143v": 44887, "\u0120controle": 63493, "\u0120rejo": 31317, "ranet": 63482, "\u0120Foot": 9663, "OL": 4010, "maybe": 23910, "095": 57138, "\u0120Voyage": 62703, "\u0120\u00c5\u013d": 10675, "\u0120transported": 24807, "ters": 1233, "\u0120Secret": 7206, "\u0120Combination": 55748, "\u0120vamp": 16612, "\u0120Merit": 53699, "\u0120Latvia": 52506, "\u0120waist": 13029, "\u0120Crim": 16450, "\u0120Laf": 34507, "Jesus": 22464, "\u00e7\u00ba\u00b8": 58240, "\u0120Yemen": 31240, "\u00e8\u00b4\u0141": 40417, "\u0120Species": 41383, "\u0120byte": 18109, "\u0120K\u00c3\u00b6rper": 42222, "oming": 4060, "valuation": 59258, "apsed": 17706, "javascript": 47985, "\u0120beds": 13383, "\u0120Venture": 36368, "\u0120Ferdinand": 55124, "\u0120actor": 10601, "et": 289, "\u0120desperately": 21135, "zes": 8413, "\u0120sweets": 34145, "\u0120breakup": 48085, "uly": 2041, "\u0120worldly": 50096, "reduction": 61252, "\u00e6\u0130\u00a7\u00e5\u012a\u00b6": 48560, "\u0120Arrival": 62984, "\u0120motioned": 64069, "\u0120Test": 4886, "%;": 14926, "\u0120l\u00c3\u0143": 18948, "\u00e8\u00b0\u012a": 35528, "\u0120Wikimedia": 53000, "\u0120Ess": 8085, "oure": 33658, "\u00b0": 120, "pause": 54161, "\u0120crystalline": 59389, "ulators": 27709, "503": 32414, "\u00c4\u0127\u00c4\u0129": 54222, "\u00c3\u00a4lp": 60962, "\u0120bicy": 16266, "\u0120waren": 20530, "rities": 19997, "xo": 39645, "\u0120Owner": 24600, "inner": 10197, "\u0120intoler": 28378, "\u0120postgraduate": 49338, "\u0120altern": 3694, "\u0120\u00c3\u00a9crit": 35108, "\u0120enfermedad": 56103, "as": 277, "\u0120arrivals": 45220, "\u0120co\u00c5\u013d": 52947, "\u0120pilot": 11558, "Fried": 54867, "ranking": 51584, "\u0120capelli": 56738, "\u0120Aut": 2942, "CRIP": 32825, "\u0120adecu": 43134, "gado": 40249, "\"?": 23698, "\u0120Infantry": 46621, "construct": 33787, "\u0120extensions": 19016, "\u0120Zone": 17097, "\u0120surpass": 22797, "\u0120pregnancy": 10354, "\u0120ampl": 10642, "\u00e6\u012d\u00bf": 30720, "\u0120accol": 41704, "\u0120consist": 3607, "\u0120Sean": 18422, "\u0120capture": 8700, "\u0120Cra": 10471, "port": 610, "ardon": 26836, "assing": 45348, "ioso": 28737, "\u0120ware": 13777, "\u0120Cruises": 58706, "=\"\"></": 64812, "048": 55866, "\u0120grapes": 28770, "\u0120Var": 12973, "comed": 16786, "Gel": 61017, "\u0120Hait": 25753, "\u0120\u00c3\u00a9vo": 57436, "\u0120facts": 7698, "\u0120pk": 62385, "\u0120Pipeline": 43853, "\u0120On": 1440, "seven": 37264, "\u0120al\u00c3\u00a9m": 54844, "\u00e5\u012a\u0122": 45915, "\u0120moons": 50050, "\u0120hamper": 59977, "Spl": 42328, "\u0120old": 1442, "\u0120Parking": 22101, "\u0120pier": 10486, "\u0120deven": 37520, "\u0120Bay": 5680, "\u0120Talbot": 62221, "orauss": 54346, "\u0120Obtain": 55133, "\u0120graveyard": 61808, "\u00e3\u0124\u012e": 60610, "bero": 26597, "ablishing": 50700, "\u0120Teaching": 19490, "vency": 46883, "\u0120cau": 54407, "\u00e8\u00b5\u00b0": 14872, "\u0120glee": 51334, "\u0120c": 253, "\u010a\u0120\u0120\u0120\u0120\u0120\u0120\u0120\u0120\u0120\u0120\u0120\u0120\u0120\u0120\u0120\u0120\u0120\u0120\u0120\u0120\u0120\u0120\u0120\u0120\u0120\u0120\u0120\u0120\u0120\u0120\u0120\u0120\u0120\u0120\u0120\u0120\u0120\u0120\u0120": 38652, "imony": 59760, "\u0120regulars": 64108, "anza": 11088, "\u0120Web": 4143, "\u0120lapt": 8096, "810": 33200, "\u0120phishing": 44238, "\u0120Feather": 44613, "\u0120Pr": 1700, "\u0120Haupt": 35130, "angle": 7667, "\u0120signify": 53984, "\u0120last": 1143, "urent": 32768, "osomal": 62176, "Luck": 39357, "\u0120mec": 62086, "\u0120Flav": 47328, "celand": 22834, "Fo": 59266, "\u0120region": 4145, "Business": 13475, "\u0120toothbrush": 44838, "\u0120Gul": 39634, "\u0120stated": 6293, "\u0120downtown": 11885, "\u0120veux": 38365, "\u0120internal": 5788, "\u0120extermin": 48567, "\u0120revelation": 25397, "\u0120physiology": 44087, "\u0120hat": 4650, "\u0120knock": 9169, "\u0120satur": 18840, "{$": 40125, "haus": 17961, "\u0120recomb": 40019, "\u0120intracellular": 51467, "\u0120ler": 55489, "uden": 51603, "\u0120euth": 57569, "\u0120Direct": 3541, "\u0120Abram": 54748, "\u0120wholeheartedly": 57401, "\u0120testim": 11638, "synt": 26151, "Equal": 12049, "\u0120Distance": 32350, "\u00e7\u00a4": 12062, "\u0120met": 1345, "lection": 1613, "\u0120Prest": 23007, "\u0120Hav": 29631, "idelberg": 57615, "\u0120preserve": 13908, "Audio": 24261, "\u0120gamblers": 35820, "Browser": 46776, "istra": 54391, "paration": 19396, "\u0120info": 5112, "umin": 5836, "\u0120Prag": 26133, "Correspond": 62077, "Outstanding": 62584, "Stars": 41688, "isexual": 42706, "\u0120parach": 49984, "\u00e6\u0139\u0142\u00e8\u00ae\u00ba": 53402, "com": 994, "iqu": 1968, "estown": 59142, "\u0120disp": 5465, "\u0120isso": 25703, "uned": 35532, "\u0120Finished": 49184, "online": 20763, "MAP": 25180, "\u0120Andr\u00c3\u00a9": 38796, "tant": 28317, "\u0120Prosecut": 40405, "obi": 18395, "\u0120upbeat": 44167, "\u0120Stall": 46358, "808": 31279, "\u0120DIY": 15098, "\u0120art": 1076, "\u0120dre": 24766, "\u00c5\u0124am": 26196, "channel": 18688, "\u0120subconscious": 31378, "\u0120lady": 8188, "Expr": 33017, "\u0120compensated": 35582, "olta": 26686, "\u0120Cat": 8637, "uro": 1635, "\u0120czy": 14981, "\u0120Mic": 8355, "\u0120ning": 26781, "\u0120breeds": 28765, "vit": 13636, "annie": 34141, "CAN": 42181, "\u0120catheter": 43080, "\u0120Emil": 53570, "\u0120Clean": 8430, "\u00a6": 111, "\u0120cautious": 23937, "\u0120squads": 62359, "=\"../": 64066, "\u0120queries": 16946, "\u0120Plugin": 35754, "Tasks": 43859, "\u0120Plants": 29929, "WM": 34249, "rique": 19031, "\u00e2\u0122\u013f/": 32658, "\u0120reacting": 42013, "\u0120N\u00c3": 58987, "\u0120kwargs": 59120, "\u0120Kyle": 21063, "\u0120Speed": 12952, "Get": 2951, "\u0120bookmark": 23610, "\u0120Ultr": 57764, "Hab": 43339, "ensity": 6751, "\u0120crunch": 21595, "iya": 41753, "\u0120undermined": 61104, "\u0120volled": 62830, "\u0120accelerator": 49485, ".|": 49792, "\u0120allergies": 23048, "\u0120native": 7863, "630": 29230, "\u0120JS": 29578, "\u0120Mean": 30989, "transfer": 33721, "\u0120api": 25946, "\u0120Orth": 32330, "\u0120Enable": 34481, "\u0120analyzer": 51329, "\u0120Londres": 61277, "\u0120ales": 63969, "\u0120Thanks": 3573, "Ce": 15367, "\u0120rolling": 11219, "termilk": 44352, "shift": 25726, "Kernel": 53254, "\u0120Diagnosis": 51597, "\u0120inquir": 12829, "\u0120inefficient": 41677, "\u0120rake": 54550, "iton": 50168, "\u0120dedic": 30034, "\u0120Gluten": 40953, "Pow": 57392, "ITH": 15309, "\u0120Laure": 19517, "\u0120continent": 20525, "\u0120pr": 659, "\u0120bullpen": 55603, "\u0120teenager": 21391, "\u0120convey": 12672, "\u0120hoe": 24272, "\u00e7\u0123\u00b5\u00e9\u0143\u0124": 55844, "\u0120installers": 59559, "\u0120expand": 4725, "rones": 16453, "270": 18003, "changed": 22377, "\u0120tras": 15663, "\u00c3\u00a9cur": 24733, "\u0120difficulties": 12944, "\u0120membres": 35663, "\u0120hijos": 50717, "\u0120gad": 16094, "ahr": 7058, "\u0120Curt": 23251, "acas": 45555, "\u0120escrow": 63481, "\u0120Generic": 21229, "Disclaimer": 31591, "akis": 37554, "\u0120Carlisle": 58254, "NB": 30896, "\u0120Wonder": 16196, "\u0120lead": 1210, "\u0120Proced": 21550, "\u0120referencing": 43128, "\u0120methods": 4300, "\u0120adaptations": 47124, "\u0120Gl": 2477, "inois": 10072, "ellation": 32886, "\u0120meisten": 43879, "\u0120bends": 60970, "[:,": 42648, "Head": 14975, "enches": 37295, "\u0120AMA": 26899, "517": 43001, "\u0120Ave": 11290, "\u0120microbes": 49693, "attering": 18082, "June": 11483, "\u0120Yah": 40337, "\u0120usdt": 57489, "\u0120PDT": 56046, "\u0120tractors": 60756, "\u0120propriet": 25507, "\u0120Motorola": 45016, "Ex": 1939, "\u0120slowly": 6916, "########": 7949, "\u0120appe": 3528, "\u0120hebben": 18300, "ittel": 64163, "\u0120rate": 2804, "\u0120silicone": 25424, "\u0120Lip": 19978, "\u0120Astron": 37618, "\u0120rates": 4214, "\u0120XIII": 64500, "\u0120foss": 15369, "\u0120MU": 27834, "\u0120irradiation": 55259, "\u0120Milan": 23703, "\u0120JE": 44848, "\u0120administering": 49288, "anus": 54869, "\u0120Chief": 7825, "\u0120piss": 18182, "\u0120przypad": 37145, "\u0120shin": 52520, "remember": 45290, "KL": 55271, "\u0120bumped": 49051, "\u0120Pathology": 59261, "055": 53615, "\u0120gene": 10591, "anguard": 34992, "\u0120castles": 52763, "\u0120contracting": 29918, "\u0120hideous": 59371, "\u0120tangled": 43046, "\u0120minute": 5614, "\u0120tonight": 8789, "\u0120naszych": 62469, "\u0120captivated": 62632, "\u0120Eval": 16781, "\u0120To": 1472, "\u0120TODAY": 36804, "member": 20949, "\u0120loops": 28293, "\u0120Aber": 19590, "\u0120Output": 24673, "\u0120Wenn": 26135, "\u0120tr": 478, "\u0120inadvert": 38928, "neutral": 44373, "\u0120noodle": 55194, "imes": 1127, "\u0120D\u00c3": 39737, "\u0120perk": 49688, "\u0120tuck": 45930, "\u0120Hayes": 32495, "\u0120forecasts": 29654, "\u010a\u0109\u0109\u0120\u0120\u0120": 53929, "\u0120eing": 21399, "gui": 35480, "\u0120AH": 40992, "\u0120Norris": 49134, "\u0120angle": 10771, "\u0120Rocky": 26848, "iplier": 57803, "\u0120bour": 28213, "\u0120Ann": 5142, "\u0120Behind": 24631, "\u0120Sad": 15839, "\u0120OLED": 56157, "aleigh": 30397, "\u0120coded": 42119, "\u0120Savage": 41189, "\u0120IU": 50969, "\u00e6\u00b7\u00b1": 22404, "\u00e6\u0131\u00a1": 51596, "\u0120Microwave": 46771, "induced": 20108, "\u0120Caes": 56880, "\u0120\u00f0\u0141\u013a\u013d": 59435, "\u0120Hawai": 12705, "\u0120quotas": 64095, "\u0120big": 1403, "\u0120Would": 9618, "\u0120briefing": 32894, "Scroll": 30412, "\u0120agendas": 48324, "\u0120offic": 2125, "\u0120vene": 32840, "$,": 12074, "\u0120pajamas": 55237, "\u0120Urdu": 55671, "\u0120ries": 24228, "\u0120Geometry": 59501, "\u00e6\u012c\u012c": 11476, "\u0120luckily": 44344, "\u0120apport": 52297, "\u0120Andre": 31324, "ramed": 60078, "ampoo": 19542, "\u0120refuses": 28540, "Regards": 41036, "\u0120Starts": 52921, "\u0120Dame": 25335, "\u00e5\u013f\u0129": 53181, "\u0120moe": 53750, "\u0120copp": 62765, "mbl": 42536, "\u0120accused": 12270, "\u0120PE": 17265, "\u0120Maple": 28858, "\u0120Loved": 36244, "definition": 39555, "oway": 56292, "istent": 9358, "\u0120Spain": 10391, "\u00e7\u013e\u0123": 33086, "\u0120distract": 12111, "\u0120r\u00c3\u00b4le": 37653, "upunct": 28661, "\u0120honored": 17755, "\u0120cheer": 14326, "identifier": 42551, "aroo": 48970, "\u0120sell": 3385, "DEC": 34528, "?:": 16232, "adena": 43512, "ierre": 31943, "\u0120miejsce": 49786, "\u0120OT": 28089, "arantine": 64299, "ited": 1029, "\u00c5\u00a1\u00c3\u0143m": 45420, "\u00e5\u0131\u00aa\u00e8\u00a6\u0123": 46227, "ndra": 50218, "\u0120Appreciation": 62274, "\u0120bride": 15480, "\u00e8\u00a7\u00a3": 16045, "\u0120esc": 3735, "\u0120biomark": 46727, "\u0120Basel": 48058, "\u00e5\u012f\u00b7": 33312, "things": 38192, "\u0120molds": 48108, "ury": 1847, "\u0120Blvd": 25959, "---------": 47541, "wed": 13427, "\u0120annat": 62815, "\u0120Deutschland": 24078, "\u0120picturesque": 35102, "\u0120slots": 7253, "\u0120Lynch": 27062, "\u0120buff": 7945, "\u0120renamed": 34564, "Dto": 45827, "\u0120Honda": 20285, "\u0120quir": 27325, "\u0120plung": 28481, "\u0120ostat": 41538, "\u0120HD": 7602, "\u0120bios": 32771, "\u0120agrees": 21265, "\u0120Poi": 43225, "\u0120Drill": 46675, "aming": 3868, "\u0120discrete": 33428, "\u0120sock": 33179, "\u0120ambiguity": 48742, "Additionally": 20960, "ul": 338, "\u0120Joy": 13983, "ruary": 3773, "\u0120WC": 33955, "\u0120later": 2185, "CONFIG": 33806, "Stephen": 35036, "\u0120governance": 15532, "FIL": 41047, "\u0120propia": 44269, ">=": 14242, "\u0120otra": 22260, ":<": 39109, "\u0120wys": 41567, "\u0120EG": 50703, "olite": 59282, "\u0120kios": 45249, "\u0120planet": 7712, "\u0120coarse": 35618, "rib": 936, "<>(": 61265, "Ale": 39529, "\u0120Flex": 16848, "esterol": 14853, "vm": 21000, "\u0120Gord": 59934, "049": 58838, "193": 6128, "\u0120communaut\u00c3\u00a9": 56314, "\u0120Document": 13938, "owi": 29063, "ractor": 34169, "\u0120espera": 52316, "ricting": 32525, "(&": 9301, "inished": 37305, "\u0120Isa": 16712, "generation": 22443, "\u0120chilly": 35436, "\u0120f\u00c3\u00a9vrier": 47133, "#!/": 36865, "\u0120climat": 52118, "\u0135\u00e5": 52346, "elect": 14945, "frist": 50733, "\u0120pestic": 25676, "\u0120immunization": 53640, "\u0120Fifth": 30332, "\u0120AUTH": 62068, "`);": 64218, "\u0120functions": 5697, "constructor": 64429, "\u0120reviews": 4272, "\u00e5\u0131\u00aa": 9465, "Party": 33706, "\u0120neutrality": 50070, "ostasis": 59917, "\u0120junto": 31537, "\u0120Pregn": 30629, "\u0120wake": 9810, "\u0120v\u00c3\u00a5ra": 58150, "Instant": 45351, "\u0120approve": 20074, "sleep": 32183, "('\\": 55964, "\u0120concluding": 44892, "\u0120masturbation": 55868, "\u0120Burns": 30875, "zels": 63781, "\u0120animals": 5632, "\u0120Moh": 13300, "\u0120No\u00c3\u00abl": 62143, "\u0120RC": 21570, "\u0120populate": 53387, "is\u00c3\u00a9e": 33682, "\u0120strengthening": 22114, "\u0120Leicester": 41272, "\u0120parmi": 43654, "Finder": 48643, "\u0120Tube": 30492, "\u0120Redd": 49345, "\u0120triggers": 23717, "\u0120medieval": 24050, "\u0120Blogger": 35887, "\u0120Show": 6243, "\u0120appropriately": 20590, "\u0120Technique": 45758, "g": 82, "\u0120wears": 23049, "\u0120Lynd": 40138, "esc": 16802, "\u0120Compet": 13025, "[...]": 13190, "eb": 1704, "\u0120AJ": 32972, "\u0120Gee": 44592, "\u0120Qualit\u00c3\u00a4t": 50569, "Kill": 57165, "oned": 13711, "\u0120UV": 15583, "\u00e4\u00ba\u00ae": 38936, "\u0120staying": 9391, "\u0120anxiously": 61160, "luke": 63753, "\u0120fuller": 43863, "\u0120hopefully": 11856, "\u0120highlights": 11186, "\u0120Wimbledon": 54592, "\u0120critiques": 43539, "ende": 5866, "\u0120guilt": 17597, "\u0120adjacent": 18766, "\u0120Siber": 42381, "spe": 9331, "Atl": 29444, "irea": 40226, "\u0120nour": 17048, "safety": 62066, "\u0120Hotel": 7536, "\u0120yard": 10485, "\u0120haste": 58003, "976": 63751, "\u0120concerted": 61945, "\u0120anemia": 45932, "\u00e1": 167, "ossible": 5963, "\u00e8\u0129\u00aa\u00e7\u0126\u00b6": 54090, "\u0120Member": 11103, "ICLE": 50963, "ovich": 32528, "setlength": 47374, "\u0120evolutionary": 27345, "\u0120Yorkers": 58975, "anguages": 8529, "\u0120appro": 1551, "\u0120it": 334, "\u0120Hazel": 42912, "\u0120stir": 10480, "\u0120nella": 11993, "\u0120booming": 39985, "opausal": 58281, "acj\u00c4\u013b": 37418, "\u0120blasts": 58246, "\u0120Didn": 28257, "shelf": 64995, "\u0120dissolve": 39669, "ascar": 44151, "bestos": 37735, "So": 2282, "\u0120Euchar": 55223, "Z\u00c3\u00a1kladn\u00c3\u0143": 60088, "\u0120organically": 49546, "\u0120Plaza": 23195, "\u0120verschiedene": 45333, ":'": 31386, "???": 15089, "\u0120Edited": 57802, "\u0120powering": 55479, "gypt": 8825, "\u0120Quran": 42609, "\u0120instructor": 17799, "\u0120mistress": 42926, "previous": 45431, "\u0120soldier": 19151, "ysis": 2745, "\u0120mindful": 25817, "\u0120chatter": 47476, "\u0120shares": 7642, "\u0120ramps": 55354, "\u0120aligning": 56753, "\u0120libraries": 15611, "pred": 14429, "\u0120Ihrer": 36256, "aging": 2949, "NJ": 53326, "\u0120Acts": 27436, "\u0120Chol": 48273, "\u0120prosecut": 11939, "\u0120submitting": 21479, "Series": 24982, "\u0120Cosmetics": 51044, "\u0120foil": 24461, "\u0120grass": 8344, "\u0120Age": 10374, "\u0120videos": 5094, "\u0120Iss": 10349, "csv": 32378, "\u00e5\u0131\u012d": 27946, "leine": 52989, "\u0120unver": 52275, "amina": 23968, "\u0120VO": 31365, "\u0120rocks": 13923, "\u0120pec": 38649, "Pas": 47519, "\u0120DOES": 48449, "\u0120Typ": 15977, "\u0120unaware": 25405, "\u0120Georgetown": 36864, "\u0120commemorate": 46926, "\u0120dic": 28299, ">>SUMMARY<<": 3, "\u0120relatively": 6976, "PD": 11787, "leb": 11500, "\u0120Daten": 24954, "robi": 48335, "highlight": 55891, "\u0120Arduino": 46516, "ovir": 56480, "\u0120Spiel": 16050, "Alan": 45000, "igate": 59080, "Dub": 46009, "\u0120Chevrolet": 32033, "\u0142\u00e5": 55375, "\u0120Rio": 18580, "\u0120reproduce": 29896, "\u0120paradox": 29596, "cake": 40441, "\u0120technique": 7380, "\u0120antic": 46664, "TA": 6506, "\u0120envie": 43058, "\u0120Complete": 14437, "gens": 24504, "\u0120Kate": 13333, "\u0120Levine": 52915, "\u0120ils": 14591, "\u0120fingerprints": 55545, "essages": 25028, "442": 37817, "chunk": 45335, "\u0120Troy": 29057, "\u0120potentials": 54345, "resh": 2456, "EC": 3301, "oshop": 20651, "\u0120prescriptions": 35203, "Lite": 50977, "\u0120Maintenance": 19999, "\u0120appeal": 8625, "veux": 44870, "ICEF": 49179, "chain": 8294, "\u0120pouvez": 20271, "\u0120vibration": 24925, "\u0120supervis": 26380, "Imp": 21400, "aster": 1732, "\u0120stressors": 60387, "\u0120Skate": 52053, "oing": 33527, "\u0120sampled": 44937, "Skip": 45005, "\u0120pleasurable": 52030, "bind": 16782, "orna": 34667, "\u00d4": 154, "\u0120hospitals": 11742, "\u0120greens": 21937, "\u0120ora": 28261, "\u0120vocation": 51821, "\u0120signifie": 54856, "etable": 37809, "\u0120Moses": 19388, "\u0120f\u00c3\u00a9": 41491, "lnie": 59076, "\u0120Californ": 47294, "Experts": 55257, "\")]": 26954, "uerto": 17894, "\u0120ani": 26141, "w": 98, "\u0120meg": 24607, "Clone": 55160, "(!": 7296, "\u0120accuse": 43918, "\u0120shoes": 6936, "aning": 11258, "\u0120Listen": 21714, "\u0120Sheffield": 42765, "\u0120likeness": 54275, "\u0120Nor": 7148, "\u00e6\u0131\u00b4": 56503, "\u0120Zusammenarbeit": 62097, "\u0120nephew": 32632, "\u0120unseren": 31613, "\u0120price": 2073, "\u00e6\u012c\u00a4": 27050, "\u00e5\u00a7\u012d": 16581, "\u0120collectors": 28706, "!\");": 55625, "\u0120Rip": 32452, "\u0120district": 7484, "\u0120Assisted": 63261, "\u0120Bedeut": 63906, "us": 359, "specific": 12352, "\u0120censorship": 41891, "\u0120tv\u00c3\u00a5": 56261, ".?": 28854, "\u0120familiarize": 61175, "\u0120Mort": 12377, "case": 5858, "\u0120cider": 31360, "\u0120Marian": 33832, "ccion": 49593, "ellect": 8729, "Ist": 56015, "\u0120meine": 28522, "\u0120Rupert": 59263, "\u00e5\u0127\u00b6": 7981, "Files": 23176, "\u0120conna": 17187, "\u0120Denmark": 22849, "Samsung": 34623, "\u0120Thess": 51628, "\u0120Extensions": 52643, "\u0120pi\u00c4\u013b": 43181, "\u0120refuse": 14540, "\u0120cancellation": 21560, "Todd": 50435, "\u0120athlete": 20336, "\u0120Axis": 50776, "VEL": 23440, "Coord": 33143, "\u0120Alloy": 52655, "\u0120nave": 41220, "eron": 15679, "sche": 12848, "\u0120graphical": 37456, "\u0120Jonas": 40010, "seits": 61614, "\u0120copyright": 12978, "\u0120sequel": 24452, "\u0120yielding": 49856, "\u0120Maybe": 5922, "\u0120evento": 38877, "adors": 36194, "\u0120odor": 26997, "ibles": 10224, "bai": 33725, "tcp": 56151, "FUN": 30539, "sole": 7024, "actic": 19607, "\u0120twists": 32258, "\u0120\u00d1\u0123": 24299, "Ver": 9357, "uala": 46445, "772": 49989, "androl": 60961, "\u0120limo": 61727, "\u0120spectrom": 62106, "\u0120Mentor": 52833, "\u0120attempting": 13648, "ially": 1381, "\u0120grassy": 60697, "ptune": 48908, "agger": 13727, "bens": 21958, "coin": 5710, "ING": 3184, "orable": 7622, "\u0120multiplayer": 30221, "\u0120photo": 4609, "\u0120py": 13115, "\u0120antim": 34544, "\u0120Now": 2784, "bly": 34913, "\u0120PLUS": 46592, "\u0120Agr": 12426, "\u0120monarch": 35337, "\u00e6\u0130\u00a5": 14431, "UNE": 52268, "\u0120semi": 11145, "\u0120SNAP": 63001, "Comm": 5546, "\u0120spielt": 61389, "\u0120Long": 5820, "\u0120erupted": 44456, "CS": 7563, "\u0120encryption": 21805, "\u0120per\u00c3": 32485, "orkshire": 30913, "\u0120Movies": 22120, "\u0120Cod": 24809, "Kn": 30142, "\u0120Scene": 36000, "\u0120resentment": 40683, "too": 23510, "\u0120beyond": 4150, "\u0120nearly": 4253, "antes": 8000, "\u0120arbitrary": 24009, "\u0120UE": 27953, "\u0120Robbins": 53079, "\u0120purification": 39367, "Leadership": 53871, "\u0120global": 3247, "\u0120Poems": 57249, "\u0120hurd": 26658, "\u0120crabs": 62373, "\u0120doom": 39831, "\u0120Hayden": 50177, "\u0120Traditional": 24055, "\u0120volont": 31138, "\u0120stroller": 48169, "ooh": 32484, "\u0120Hur": 13875, "\u0120firm": 3791, "\u0120kommer": 29775, "\u0120weiter": 19707, "\u0120inher": 13747, "environ": 36235, "\u0120cort": 12632, "\u0120Kal": 14394, "Star": 13270, "\u0120modifications": 19560, "cludes": 11407, "lav": 20307, "\u0120prosper": 16003, "pots": 33030, "\u0120SIL": 56816, "\u0120helps": 3398, "\u0120CLASS": 49525, "mass": 27355, "\u0120Trailer": 28422, "\u0120flore": 64291, "\u0120bounty": 42959, "\u0120researc": 6769, "________________": 7004, "ton": 1294, "\u0120confess": 23481, "\u0120responsible": 4762, "\u0120wom": 1390, "\u0120strings": 15915, "\u00e8\u0123\u0136": 26593, "mail": 4346, "\u0120inflated": 46353, "\u0120respondents": 20019, "\u0120Fi": 26878, "794": 56136, "Straight": 60578, "\u0120encounter": 10766, "\u0120wurde": 12843, "acci": 28715, "solving": 39616, "\u0120laminated": 64301, "\u0120myths": 29849, "\u0120Skip": 36139, "\u0120acceder": 64205, "\u0120permitted": 13266, "\u00c3\u00a4tz": 23860, "\u0120indie": 27835, "QUAL": 48409, "INGTON": 33273, "Linear": 49537, "\u0120Vive": 59541, "\u0120employs": 29317, "\u0120Alzheimer": 23782, "\u0120meanwhile": 27971, "Zero": 29298, "\u0120county": 8990, "ific": 756, "\u0120Cons": 3286, "\u0120coveted": 41302, "\u0120altogether": 17991, "\u0120replacements": 39432, "Dates": 50593, "\u0120aquel": 58560, "\u0120appare": 34726, "tered": 5428, "\u0120per\u00c3\u0143": 49418, "Go": 7762, "hidden": 27503, "\u0120summons": 55112, "\u0120jeu": 26388, "\u0120pregn": 6188, "\u0120areas": 2698, "Once": 7107, "QUI": 33217, "loo": 35821, "HOST": 44078, "venir": 18772, "Oops": 63194, "\u0120nast": 27198, "\u00e8\u012d": 9268, "\u0120requiring": 13964, "ch": 327, "242": 26627, "Agent": 28796, "\u0120roommate": 37761, "\u00e6\u0143\u00a3\u00e6\u013a\u00af": 59890, "\u0120frightened": 31944, "\u0120GDPR": 33257, "Pres": 11871, "\u0120\u00c3\u0124": 35827, "\u0120verme": 51259, ".):": 56307, "\u0120Riley": 32298, "\u00e2\u0122": 283, "\u0120fis": 26110, "few": 43022, "\u0120deb": 2426, "\u0120incor": 5306, "\u0120disponibles": 35848, "\u0120MON": 32325, "asaki": 36747, "Daily": 25283, "\u0120luke": 51686, "ilda": 28943, "21": 1868, "etera": 50665, "Iter": 23179, "danger": 56250, "\u0120Handy": 56959, "ichannel": 62287, "phot": 31516, "\u0120alg": 5532, "\u0120pediatric": 22576, "\u0120Oaks": 38187, "\u0120outer": 13140, "\u00e9\u0124\u00a3": 5495, "650": 17684, "\u0120Electronic": 20380, "omics": 30196, "\u0120illustrations": 22640, "\u0120urban": 8738, "\u0120defer": 37941, "\u0120heartfelt": 38401, "\u0120Meadows": 44130, "\u0120Exhibit": 50225, "\u0120righteous": 21662, "\u0120utils": 50297, "\u0120Foreign": 14401, "\u0120Orders": 27517, "\u0120granted": 10629, "\u0120kil": 9174, "chief": 25277, "\u0120Cic": 50791, "\u0120Trent": 24172, ")}": 17443, "\u0120localization": 44775, "\u0120vend": 7096, "\u0120evolved": 17026, "etchup": 48760, "\u0120bullet": 15174, "control": 15303, "\u0120denies": 42600, "zn": 10719, "\u0120muss": 16953, "oro": 8878, "Utilities": 53365, "\u0120commute": 31146, "\u0120VC": 33384, "healthy": 19960, "\u0120triumph": 23149, "'<": 31781, "indi": 12371, "\u0120tummy": 40855, "\u0120fleeting": 50669, "\u0120ouv": 26287, "\u0120proche": 54698, "\u0120dividend": 26377, "\u0120hoof": 40608, "\u0120Hundreds": 50878, "\u0120Fu\u00c3\u0141": 44769, "\u0120inhib": 9409, "rived": 21929, "\u0120sanitation": 39585, "Lots": 37263, "\u0120dest": 2619, "\u0120soy": 14851, "SU": 14723, ".),": 15483, "\u0120avenue": 36356, "fection": 50577, "\u0120unchecked": 60094, "ocol": 3482, "ungal": 30239, "overty": 38109, "synthesize": 39972, "\u0120skills": 3199, "\u0120Lavender": 46631, "\u0120Designs": 24820, "\u0120traff": 20965, "159": 20429, "\u0120contingent": 35939, "rollment": 40318, "\u0120Clim": 62307, "\u0120En": 1800, "\u0120jealousy": 39297, "\u0120greedy": 39335, "OM": 5803, "\u0120giggled": 60562, "\u00e5\u0136\u00af": 57046, "shirts": 24938, "\u0120CDC": 19860, "\u0120watt": 43247, "\u0120Planet": 18987, "\u0120Deaf": 59497, "BM": 41905, "elong": 21421, "\u0120markings": 43476, "\u0120middle": 4345, "\u0120Sene": 52362, "\u0120systems": 2876, "rati": 53523, "roid": 3901, "xf": 27110, "\u0120pharmacies": 34171, "eas": 60990, "INESS": 40275, "\u0120humble": 20148, "\u0120beasts": 41048, "{-": 53255, "\u0120hung": 7234, "paying": 42574, "asis": 16857, "\u0120Java": 9273, "\u0120tagged": 27164, "\u0120ergonomic": 41536, "VP": 13878, "\u0120Fail": 50702, "\u0120proto\u00c5": 62701, "\u0120mas": 6115, "tings": 63688, "\u0120virtuous": 61404, "igkeit": 17317, "\u0120exclaimed": 34095, "\u0120derechos": 45244, "\u0120halten": 47735, "\u00e2\u0139": 27118, "Dem": 16591, "\u0120authoritarian": 42941, "\u0120expanding": 12793, "\u0120sprouts": 43056, "understand": 58177, "\u00e5\u0131\u0139\u00e5\u012a\u00b0": 40503, "\u00c3\u00a7\u00c3\u00b5es": 13662, "ugu": 32229, "uration": 4018, "updated": 38573, "\u0120museum": 9427, "\u0120Gene": 14148, "\u0120Satellite": 37118, "Encoder": 57369, "\u0120remotely": 18376, "Newsletter": 60047, "\u0120Senegal": 63294, "\u0120Blackberry": 54401, "\u0120witty": 42061, "\u0120trajectory": 29782, "ARDS": 47218, "roffen": 62386, "enders": 8802, "KG": 53241, "\u0120treaty": 27832, "ommend": 18325, "\u0120Lambert": 45426, "Neck": 60306, "\u0120\u00c3\u00a9lect": 24105, "ERS": 8494, "\u0120bro": 1475, "\u0120outcome": 8887, "\u0120alongside": 9381, "\u0120m\u00c3\u00b6": 11674, "stage": 15870, "\u0120photograph": 7433, "htaking": 24536, "\u0120i": 836, "\u0120przypadku": 46873, "rden": 48400, "Supply": 56944, "\u0120mobiles": 59020, "\u0120Pilates": 45109, "cially": 25870, "\u0120edits": 38590, "ibr": 2500, "\u0120campuses": 33961, "\u00e8\u0130\u00ab": 35544, "^*": 53631, "\u0120Lawyers": 26868, "Classes": 44120, "\u0120increments": 51580, "\u0120moose": 60719, "\u0120Schroeder": 62478, "shade": 64559, "\u0120contributor": 27925, "\u0120legislation": 9500, "vera": 60638, "giore": 53842, "oosevelt": 28079, "pees": 47339, "\u0120downward": 27371, "ncia": 14760, "\u0120specialty": 17038, "\u00e9\u013b\u0122\u00e7": 49846, "ENDS": 61416, "\u0120Robb": 38139, "oller": 48465, "\u0120obey": 25468, "\u0120behaviour": 11390, "\u0120doen": 26659, "sipa": 40133, "vor": 13877, "\u0120Annabelle": 61288, "\u0120imbalance": 37475, "\u0120campground": 41706, "\u0120NP": 34231, "erous": 59715, "bah": 49947, "45": 2617, "MP": 5475, "\u0120Walgreens": 62972, "ofen": 51276, "\u0120soaked": 32863, "\u0120begins": 7370, "\u0120PlayStation": 26173, "\u0120Siri": 52042, "\u0120Somehow": 37177, "\u0120statistically": 28911, "uctive": 46684, "\u0120Brewing": 33042, "\u0120Lar": 24771, "\u00e2\u0133": 50511, "\u0120Everywhere": 52462, "essen": 24973, "\u0120looming": 41642, "\u00e9\u0125\u00a8\u00e9\u013a\u0141": 57027, "\u0120mounted": 15472, "\u0120exclusion": 27292, "\u0120verbally": 51754, "\u0120diners": 58432, "\u0120Mackenzie": 60834, "\u0120bullish": 45134, "introdu": 43917, "\u0120creating": 3957, "ntil": 11932, "\u0120activities": 3204, "mack": 59697, "\u0120Downloads": 37478, "\u0120arrang": 8576, "Ps": 14623, "warz": 25855, "z\u00c4\u013b": 24208, "\u0120ribs": 27038, "283": 32417, "\u0120wohl": 36034, "Expected": 41343, "romycin": 48700, "\u0120Administ": 7025, "zzo": 18288, "\u0120arrests": 36195, "owship": 16416, "\u0120Kak": 58857, "\u0120sexuality": 25083, "\u0120Missouri": 15428, "\u0120literal": 23983, "\u0120subset": 30095, "uckles": 44990, "\u0120Amen": 25994, "\u0120Afric": 3686, "\u00c3\u00a9volution": 53826, "40": 1738, "\u0120barred": 47515, "\u0120https": 21555, "\u0120diplomatic": 28143, "\u0120\u00c3\u00a9galement": 14675, "\u0120discarded": 34208, "\u0120Patrol": 33934, "\u0120vessels": 16399, "CC": 4724, "\u0120serpent": 42817, "\u0120richness": 41674, "\u0120Cunningham": 46663, "cu": 11505, "\u0120lines": 4261, "legant": 40471, "\u0120fences": 41722, "\u0120conscient": 46206, "\u0120Representation": 61363, "\u0120Koch": 32814, "==": 1038, "\u0120cal": 1921, "Stock": 25780, "\u0120Unknown": 30856, "\u0120Wom": 41979, "wend": 16128, "\u0120energet": 18006, "\u0120psyched": 38133, "ugno": 51861, "means": 58871, "\u00c8\u013diei": 60612, "\u0120FLA": 64974, "\u0120clients": 3319, "\u00c4\u013b\u00c5": 36230, "\u0120compensation": 10398, "::::": 35165, "Freedom": 52045, "\u0120prenatal": 54918, "\u0120collectibles": 61057, "\u0120filtering": 26342, "\u0120entice": 47110, "rrrr": 64399, "Ball": 28941, "\u0120possibly": 5870, "\u0120feminist": 27291, "\u0120Authorization": 53111, "ctx": 13159, "frame": 9998, "\u0120grim": 22079, "\u0120solver": 48393, "olith": 32079, "isce": 28525, "wegen": 41636, "\u0120teraz": 57337, "volle": 49615, "\u0120nuevos": 39036, "backend": 47642, "\u0120naz": 25644, "\u0120Locations": 37831, "Ton": 37532, "\u0120Lig": 52413, "\u0120Gottes": 64915, "celain": 29714, "\u0120Hor": 8139, "\u0120linger": 29997, "\u0120Mare": 37940, "\u0120handicap": 38350, "\u0120sudo": 48114, "\u0120Bhutan": 57455, "\u0120vib": 11873, "\u00e4\u00bb\u0138\u00e4\u00bb\u00ac\u00e7\u013c\u0126": 32285, "356": 38680, "\u0120n\u00c3": 38491, "\u0120Friedrich": 47016, "lift": 33115, "ili": 2211, "\u0120cope": 18995, "\u0120Applying": 51513, "brand": 17112, "\u0120propri": 11200, "\u00e8\u00ae\u00a1": 20550, "\u0120dietro": 54518, "\u0120analyzing": 21698, "\u0120quotation": 36537, "\u0120complic": 45081, "eter": 2083, "\u0120wirk": 29160, "\u0120backups": 33976, "\u0120metre": 54713, "nder": 3056, "alone": 19842, "\u0120anecdotes": 52790, "\u0120Emmy": 36058, "zyk": 51650, "olec": 7615, "\u0120Trop": 55052, "\u0120hp": 29629, "\u0120Clan": 52231, "\u0120concentrations": 18683, "sito": 51427, "\u0120blem": 50003, "\u0120clerk": 30517, "launch": 51372, "\u0120Franklin": 19504, "\u0120gas": 3903, "xid": 9914, "\u0120equipo": 27478, "\u0120partisan": 41847, "\u0120Watching": 37962, "\u0120cancell": 17667, "Marc": 22708, "\u0120alarmed": 53641, "\u0120opts": 34122, ";\"><": 37635, "ahrenheit": 40253, "worn": 64769, "\u0120newsp": 8952, "inet": 12333, "\u0120Silent": 40573, "asmine": 29421, "\u0120journals": 20967, "\u0120experi": 2502, "\u0120\u00c3\u00a9v": 15937, "\u0120Women": 6084, "a\u00c3\u00b1a": 19694, "\u0120Eh": 43241, "\u0120Operating": 23926, "individual": 54657, "\u0120food": 1655, "\u0120sooo": 48878, "\u0120borrowers": 28551, "\u0120souten": 54543, "\u0120stock": 3801, "\u0120shiny": 21166, "\u0120mach": 2388, "TON": 20690, "\u0120Serial": 25774, "Pixel": 49619, "hips": 4791, "\u00e5\u0132\u00ab": 54913, "\u0120Shawn": 36561, "\u0120ur": 2832, "973": 52094, "\u0120discovery": 12070, "Facebook": 19821, "adelphia": 11862, "fonso": 64912, "\u0120completamente": 38268, "\u0120akty": 64747, "\u0120rout": 3446, "aki": 10824, "\u0120los": 1817, "Fully": 52475, "king": 3658, "Pan": 14019, "\u0120version": 2684, "\u0120lig": 16384, "\u0120shred": 29212, "\u0120tra": 817, "\u0120glove": 32207, "\u0120lighted": 58031, "verified": 39891, "lookup": 52356, "\u0120Career": 18696, "idere": 59111, "\u0120scrum": 48233, "erte": 37045, "\u0120push": 4637, "\u0120projekt": 32997, "consumer": 47394, "Hop": 41838, "\u0120botanical": 50714, "\u0120reactor": 39480, "issima": 43388, "\u0120gods": 16263, "\u0120GSM": 57581, "joining": 43420, "036": 53960, "\u00c9\u0133": 44186, "astro": 45567, "\u0120asleep": 15630, "\u0120character": 2655, "MRI": 59361, "\u0120ports": 15889, "icket": 9862, "\u0120Sponsor": 44105, "\u0120feeder": 37747, "\u0120saturation": 39485, "ordeaux": 41103, "women": 36090, "\u0120Workers": 22903, "\u0120Shopify": 32499, "\u0120supervising": 62369, "\u0120Result": 18190, "\u0120vibe": 22077, "\u0120Communities": 30398, "\u0120candidates": 7674, "\u0120chiropract": 49898, "\u0120rect": 12208, "\u0120dispositivo": 54270, "\u0120panelists": 63109, "\u0120specifies": 39609, "\u0120informations": 28242, "\u0120bois": 34104, "\u0120Gast": 22890, "\u0120players": 3005, "\u0120rowing": 61973, "Player": 16943, "\u0120Illustr": 27299, "\u0120lymphocytes": 60878, "\u0120purs": 7634, "\u0120bra": 4569, "[\\[": 27365, "\u0120timp": 33325, "itudinal": 34539, "rank": 15336, "\u0120\u00f0\u0141\u013b": 40388, "\u0120Nadal": 58937, "\u0120convain": 58548, "\u0120bol": 9438, "ecost": 50524, "iedad": 25530, "Survey": 64037, "\u0120meses": 28545, "\u00e5\u0131\u00a4": 18507, "\u0120reconna": 30900, "nung": 24375, "\u0120bourgeois": 54198, "\u0120MUCH": 45007, "Assembly": 46214, "\u00e2\u012b\u00a4": 63846, "\u0120boss": 9744, "ippi": 14574, "\u0120flakes": 35334, "\u0120addictive": 31061, "\u00e6\u013f\u013e": 49968, "\u0120saving": 9211, "Sup": 45444, "\u0120Karen": 19086, "burn": 13063, "ILED": 59123, "\u0120sitting": 5944, "\u0120Purpose": 29687, "\u0120boca": 57431, "bed": 3572, "\u0120rab": 16617, "ArrayList": 42179, "production": 29226, "nez": 26441, "\u0120bonus": 5430, "osa": 6787, "\u0120temporal": 27839, "\u0120miserable": 26302, "ypse": 34283, "\u0120published": 4002, "':": 6061, "\u0120branches": 13411, "\u0120vor": 6475, "\u0120scrolling": 35094, "\u0120ester": 43121, "Jessica": 41815, "BH": 64303, "png": 17033, "\u0120ignited": 64590, "impression": 42336, "\u0120ask": 1383, "\u00e3\u0123\u00af": 46610, "\u0120hehe": 45907, "\u0120Taiwanese": 60298, "\u0120ases": 58935, "\u00df": 165, "\u0120Patent": 33509, "\u0120aerobic": 50176, "\u0120electrons": 40083, "English": 19656, "\u0120Hook": 23958, "\u00e6\u013a\u0130\u00e7\u013b": 62296, "\u0120Pentagon": 35980, "\u0120ruolo": 64093, "cled": 36886, "\u0120cott": 44106, "\u0120Archer": 47327, "pling": 11532, "img": 9671, "\u0120called": 1964, "\u0120cambios": 53933, "\u00d2": 152, "\u0120McKenzie": 56580, "cols": 56483, "\u0120construct": 5859, "industrie": 53275, "\u00e8\u00ae\u00a8": 40682, "\u0120lose": 4735, "gex": 24746, "\u0120Teddy": 41124, "\u0120constra": 12418, "quit": 55972, "\u0120crafty": 57969, "\u0120discoveries": 31559, "\u0120shielding": 61823, "\u0120sket": 27173, "\u0120erfahren": 50814, "agles": 19359, "\u0120emerges": 37738, "\u0120Changed": 44716, "\u0120deton": 52479, "\u0120lion": 22410, "colonial": 57938, "terson": 34003, "\u0120Yi": 46213, "organized": 35502, "iem": 5254, "\u0120Latina": 43667, "ierte": 18135, "aluronic": 50279, "\u0120vocalist": 50496, "orghini": 60089, "\u0120autof": 63902, "wealth": 21060, "\u0120contributors": 26428, "236": 29987, "\u0120generous": 13469, "\u0120KY": 35951, "\u0120Rhe": 41800, "enough": 58622, "\u0120alarms": 39225, "vascular": 56196, "675": 42763, "HECK": 22337, "bomb": 58657, "\u00e8\u00a7\u012b": 17688, "elier": 27259, "\u0120Django": 59157, "Annot": 28290, "\u0120Hanson": 56074, "\u0120Trails": 47970, "\u00e9\u013a\u00b6\u00e7\u00ba\u00a7": 61840, "Labor": 48829, "minist": 2643, "\u0120props": 23506, "\u0120epitome": 62064, "\u0120Severe": 49660, "cc": 516, "\u0120volcano": 33738, "\u0120ward": 13433, "roduction": 9067, "^^^^": 54689, "\u0120testa": 31335, "\u0120watching": 5034, "Initial": 23635, "\u0120hotspot": 53770, "Tracker": 48061, "\u0120Ge": 2697, "\u0120Leigh": 39716, "ISBN": 31459, "\u0120Pett": 63829, "\u0120kittens": 44256, "\u0120celu": 62644, "937": 51885, "QUEST": 20837, "\u0120aortic": 53421, "\u00e6\u00af\u0131": 21382, "\u0120despair": 25548, "\u0120ye": 9116, "heiten": 37061, "\u00e7\u00ac\u00ac\u00e4\u00b8\u012b": 56426, "Cash": 32216, "\u0120terraces": 58840, "\u0120revamped": 62971, "\u0120retaining": 28085, "\u0120mem": 1160, "\u0120tit": 2743, "\u0120Fate": 46141, "\u0120G\u00c3\u00a4": 50596, "\u0120destino": 53908, "\u0120jun": 8989, "\u0120judges": 16469, "\u0120Acknowled": 64198, "\u0120undertaken": 24404, "lung": 15612, "\u00e4\u00bb\u012f": 33762, "tile": 43147, "\u0120predecess": 24883, "\u0120Oss": 61950, "fficient": 6006, "Poss": 64530, "\u0120cafeteria": 50679, "ensor": 10652, "\u0120Sovereign": 64039, "\u0120ve": 1488, "605": 37977, "utane": 64551, "include": 5442, "\u0120Govt": 56716, "lear": 5325, "\u0120dome": 32851, "\u0120prz": 10060, "athom": 41806, "d\u00c3\u00a9": 51464, "\u0120originates": 55311, "\u0120Artem": 52004, "\u0120Nec": 55076, "\u0120refuge": 11903, "Getty": 35005, "\u0120potuto": 60054, "\u0120Region": 13881, "ocio": 43394, "\u0120FAQs": 33935, "\u00c4\u0127ce": 51739, "199": 1840, "\u0120nonex": 57760, "\u0120Coin": 21857, "venant": 22122, "oples": 15706, "\u0120Kubernetes": 43491, "Research": 16575, "iene": 6521, "minded": 17840, "Cette": 35849, "ographics": 24671, "\u0120coffees": 57766, "Nut": 27177, "\u0120Cut": 11015, "\u0120Quantity": 40094, "\u0120aluminium": 31514, "\u0120Hassan": 41658, "TRY": 51914, "\u0120Morrison": 31737, "esthes": 21734, "different": 35285, "\u0120waking": 24617, "\u0120Vul": 28863, "\u0120Pict": 12522, "\u0120tego": 20916, "NR": 26207, "\u0120Choose": 11790, "wiad": 28912, "UUID": 53484, "\u0120trump": 24545, "\u0120m\u00c3\u00a9dic": 64261, "\u0120trio": 25095, "\u0120packets": 29803, "aines": 16976, "\u0120pend": 34126, "grees": 37157, "\u0120comply": 13876, "\u0120Orn": 50758, "\u0120Norte": 53315, "\u0139\u00e7\u00ba": 51670, "\u0120Writers": 30141, "\u0120ancient": 8245, "\u0120shelter": 14515, "ieme": 26386, "\u0120dub": 14662, "\u0120Loyalty": 61084, "\u0120lamps": 26604, "\u0120hobby": 19214, "\u0120holidays": 10966, "\u0120heals": 54297, "\u0120Perse": 56124, "da": 4239, "\u0120surveying": 58561, "REAT": 23081, "\u00ea": 176, "\u0120whim": 37687, "\u0120OnePlus": 50937, "yz": 36120, "ution": 11077, "lv": 46093, "Enumerable": 57667, "stral": 50390, "\u0120Hodg": 65010, "\u0120mog\u00c4\u0127": 39593, "worms": 52108, "\u0120miscon": 21519, "352": 32716, "\u0120Independence": 26530, "hey": 22020, "worm": 26774, "fabet": 60316, "\u0120J": 462, "\u0120venue": 12020, "\u0120packaging": 10543, "\u0120Rapid": 27373, "heren": 47904, "\u0120prank": 58962, "\u0120traitor": 59763, "gr\u00c3": 29116, "\u0120magnets": 43209, "\u0120receipt": 14105, "deep": 27174, "NK": 49848, "\u0120\u0120\u010a\u0120\u0120": 33791, "gicos": 57008, "\u00c5": 139, "\u0120Prosper": 60764, "atus": 4477, "\u0120materials": 3887, "restrial": 39520, "ller": 30774, "affles": 36902, "Async": 22354, "bolt": 42911, "isel": 50226, "\u0120Petty": 63643, "\u0120inherit": 21675, "\u0120hyp": 6552, "\u0120Finder": 45496, "awk": 33928, "\u00e5\u00ae\u0125": 11954, "\u0120Randolph": 53522, "\u0120convenience": 11842, "\u0120Ferrari": 27327, "\u0120potrebbe": 41609, "anged": 6086, "\u0120Ti": 22520, "Filter": 13285, "\u0120wherein": 24431, "\u0120admits": 29702, "\u0120kur": 31457, "\u00e5": 171, "chner": 49752, "\u0120Associated": 22906, "\u0120Au\u00c3\u0141erdem": 58228, "powered": 19866, "ikipedia": 39011, "cutting": 43884, "\u0120almeno": 45680, "\u0120waits": 43577, "\u0120Ellis": 28845, "\u0120marketplaces": 49346, "expert": 53957, "\u0120Midtown": 61821, "\u0120metropolis": 49854, "\u0120Lum": 27860, "unches": 37350, "\u0120Neptune": 55342, "\u00c5\u00a5": 30461, "tot": 41587, "\u0120Emirates": 32560, "\u0120weddings": 24601, "\u0120railroad": 30657, "\u0120DRM": 56914, "\u0120spac": 53581, "\u00e8\u012a\u00ac": 20655, "\u0120insight": 9239, "\"})": 30775, "\u0120Discord": 39843, "\u0120spell": 12784, "\u0120kat": 45728, "\u0120morph": 20234, "\u0120pic": 7382, "\u0120Ven": 10409, "\u00e5\u00bf\u00a7": 58471, "\u0120Olympics": 20591, "SK": 13781, "ukh": 63677, "\u0120Doom": 46072, "\u00e7\u012a": 11801, "rik": 14413, "Dit": 64304, "\u00e7\u00a7\u00a6": 32778, "orneys": 13483, "\u0120lost": 3208, "\u0120Commissioner": 19578, "\u0120hash": 16886, "\u0120ta": 11516, "\u0120graders": 50263, "BIG": 61503, "rage": 3752, "Availability": 35906, "\u0120TWO": 43327, "treme": 46080, "ursing": 55539, "\u0120damaged": 11014, "\u0120abandonment": 52747, "\u0120Sow": 60566, "\u0120priorit": 15105, "\u0120offence": 35759, "\u0120liberation": 36403, "amoto": 42258, "\u0120Galleries": 56724, "\u0120at\u00c3\u00a9": 26466, "\u0120sheriff": 30374, "t": 95, "\u0120Arbeit": 24421, "\u0120insieme": 33254, "wered": 8525, "UTE": 36761, "ouverte": 52901, "\u00e6\u012b\u00ac": 59961, "shaw": 43475, "OUR": 38731, "\u0120vergang": 61514, "\u0120Glasses": 60487, "\u0120premio": 61553, "\u0120Calcium": 50666, "\u00e4\u00b8\u012f": 2734, "erc": 1983, "\u0120faster": 6104, "leur": 21658, "\u0120undoubtedly": 18460, "\u0120Garlic": 39848, "\u0120Xu": 44413, "\u0120humming": 44879, "ilateral": 30751, "\u0120v\u00c3\u0143ce": 51452, "\u0120Site": 8365, "\u0120Sears": 54437, "\u0120Gaussian": 65007, "\u0120tir": 23051, "\u0120thesis": 15635, "\u0120check": 1683, "\u0120MN": 24160, "eches": 26356, "Tec": 55392, "\u0120Pantry": 60263, "rete": 5993, "\u0120torque": 25940, "\u0120Makeup": 37556, "\u0120lifestyles": 37648, "[](/": 47572, "\u0120nicer": 37171, "\u00c3\u0143tulo": 38131, "\u0120st": 324, "ciences": 41860, "\u0120prou": 52510, "\u0135\u00e7\u0126\u00b6": 45263, "phal": 24581, "\u0120Cas": 4846, "\u0120Graduate": 20884, "rator": 27069, "\u0120Tay": 38700, "\u0120suspected": 16065, "\u0120arist": 38525, "\u0120paddle": 27880, "\u0120Strand": 45574, "ides": 1910, "enth": 12334, "\u0120partes": 48137, "\u0120cuisine": 17051, "\u0120isolation": 16111, "Franc": 39942, "arb": 23408, "pour": 37226, "\u0120Appropri": 43874, "\u0120puedan": 54165, "\u00e5\u012a\u013c": 29206, "\u0120Group": 3814, "\u0120dificult": 57404, "yers": 9190, "\u0120realt\u00c3\u0142": 42298, "\u0120revelations": 45525, "\u0120boxes": 9253, "\u0120Bihar": 60058, "\u0120AMC": 57669, "\u0120minded": 33152, "\u0120Valent": 14557, "\u0120Pap": 18086, "\u0120sessions": 7787, "\u0120Stand": 5891, "heden": 41724, "making": 8537, "\u0120dtype": 56689, "\u0120Ansch": 44001, "isas": 51672, "Computer": 33289, "moi": 50286, "\u0120preparations": 25222, "\u0120grieve": 61493, "\u0120Infinite": 42791, "\u0120replacing": 15951, "\u0120Routledge": 61494, "zin": 23036, "hearted": 28275, "ure": 458, "\u0120w\u00c5\u0124as": 45593, "conom": 1905, "toire": 28223, "Technology": 32652, "\u0120valley": 17855, "\u0120boasting": 53968, "ubernetes": 56295, "\u0120cuz": 54875, "ipelago": 61562, "\u00e5\u00a6\u0124\u00e6\u0140\u013e": 19816, "\u0120cavalry": 51815, "implement": 44015, "\u0120ledger": 47200, "\u0120EXT": 61406, "\u0120fuels": 23865, "wier": 43455, "\u0120Sulf": 59786, "\u0120YMCA": 56118, "\u0120puede": 11175, "Append": 29214, "========": 3982, "\u0120illustrated": 21451, "\u0120Chris": 7911, "\u0120solitary": 30584, "\u0120Newest": 60932, "\u0120disapp": 4825, "\u0120shoot": 4646, "\u0120se\u00c3\u00b1al": 44012, "poll": 40043, "Called": 50607, "\u00e8\u0124": 12274, "\u0120Version": 12703, "RU": 51304, "\u0120assigns": 58574, "\u0120emoc": 33910, "\u0120Entire": 55801, "Fair": 30511, "\u0120portraying": 61125, "432": 32433, "\u0120surviv": 15346, "\u0120Names": 26248, "\u0120unquestion": 48884, "Tut": 41691, "bst": 12031, "\u0120sehr": 13074, "\u0120Added": 18999, "\u0120Configuration": 28926, "\u0120wykon": 41053, "kee": 13849, "\u0120JSON": 19338, "\u0120poter": 46507, "headed": 24004, "\u0120noir": 31333, "\u0120deren": 40920, "Hugs": 41478, "\u0120leak": 14561, "franch": 60057, "\u0120Geb\u00c3\u00a4": 58994, "\u0120lute": 55101, "zaam": 53171, "\u0120mascara": 46018, "\u0120Mount": 6035, "\u0120depressed": 22822, "aditional": 25626, "\u0120Retreat": 39699, "\u0120wholly": 26522, "\u0120Terrorism": 62519, "\u0120Chapman": 39499, "\u0120onwards": 36819, "\u0120Opportunities": 27863, "\u0120Niem": 54234, "android": 32473, "\u00bd": 133, "\u0120tiempo": 14512, "orah": 51314, ",)": 41468, "\u0120Bern": 10000, "advantages": 52197, "\u0120takes": 2869, "\u0120Plaint": 37174, "\u0120dermatitis": 63877, "addr": 20425, "\u0120sweetheart": 39545, "\u00e4\u00bf": 6832, "\u0120reversal": 39442, "rs": 2439, "\u0120exchange": 6003, "\u0120until": 1725, "\u0120goods": 7238, "tap": 53026, "\u0120EBITDA": 62081, "extract": 52278, "\u0120cumbersome": 50559, "\u0120legislative": 19503, "\u0120evening": 5631, "\u0120Instructor": 38808, "\u0120sushi": 34505, "\u0120towering": 47662, "\u00c3\u00a4llt": 30430, "shake": 42331, "\u0120registers": 36924, "\u0120dl": 42135, "Jill": 56555, "\u0120prompted": 20673, "\u0120Beans": 45103, "\u0120movimento": 61272, "incinn": 21964, "\u00c3\u00a6": 49963, "\u0120animation": 15278, "Limited": 46173, "\u0120Ore": 29305, "\u0120lista": 32552, "\u0120rub": 6029, "\u0120Ret": 4341, "\u0120buttons": 12685, "Together": 36959, "\u0120Ferg": 28256, "\u0120\u0120\u0120\u0120\u0120\u0120\u0120\u0120\u0120\u0120\u0120\u0120\u0120\u0120\u0120\u0120\u0120\u0120\u0120": 46191, "\u0120presumption": 61347, "538": 48796, "\u0120curbs": 54411, "\u00e6\u0125\u0127": 11562, "\u0120frag": 9593, "\u0120orange": 10021, "abet": 6416, "\u0120Discover": 19046, "Everyone": 17445, "\u0120tones": 18785, "hre": 23589, "ples": 2253, "\u0120sketches": 37865, "ografie": 61005, "\u0120Canadian": 8083, "\u0120agar": 61781, "\u0120Jian": 63099, "\u0120Claims": 34016, "\u0120NA": 15958, "\u0120fathers": 25374, "\u0120rectangular": 34247, "\u0120Truck": 16785, "pet": 4884, "Michael": 15045, "\u0120moan": 48871, "worthiness": 49974, "787": 40084, "\u0120Northern": 10536, "\u0120Thema": 33456, "\u0120diferent": 19218, "\u0120psychic": 32348, "\u0120Sports": 8020, "\u00e6\u012a\u013a\u00e6\u0138\u0139": 36790, "DH": 45401, "\u0120proven": 8147, "Component": 12524, "Ghost": 43840, "bells": 48220, "\u0120left": 1786, "NER": 22608, "\u00e4\u00b8\u0122\u00e5\u00ae\u013c": 42642, "\u0120farms": 18795, "\u0120Psycho": 63703, "\u0120associate": 13155, "\u0120staan": 46023, "\u0120facilitate": 12980, "\u0120mio": 21777, "lod": 62258, "\u0120expensive": 5678, "oren": 11042, "Err": 27811, "\u0120Verd": 38068, "\u0120melhor": 34706, "\u0120sources": 5331, "\u0120pac": 14538, "nof": 51507, "\u0120truc": 53405, "iena": 42104, "paste": 29716, "\u0120authenticity": 28416, "\\,": 27001, "\u0120highlight": 6896, "\u0120classification": 17873, "\u0120compose": 30301, "!(\"": 43573, "\u0120enrolling": 52713, "\u00d0\u00b6": 59455, "rystal": 33188, "GH": 22956, "\u0120Bolt": 42694, "legen": 23507, "\u0120dialog": 16909, "\u0120blij": 30113, "\u0120Bea": 30549, "\u0120What": 1634, "wa\u00c4\u0129": 41425, "\u0120days": 1522, "\u0120renting": 28634, "\u0120Budd": 8477, "*_": 32529, "\u0120Cialis": 27763, "\u0120scripting": 52451, "\u0120crate": 28541, "\u0120Rogers": 22990, "\u0120commentator": 55107, "\u0120sunk": 44232, "partial": 26264, "\u0120Lovely": 37740, "\u0120Eligibility": 51625, "\u0120press": 2091, "\u0120AGE": 63828, "\u0120foregoing": 55512, "orter": 5964, "byter": 37973, "\u0120cos": 4916, "\u0120fiat": 45037, "\u0120proporc": 54573, "\u0120uneven": 30217, "\u0120ile": 42587, "lla": 9597, "\u0120Sons": 33332, "\u0120emulate": 48104, "please": 26052, "Unter": 52523, "\u0120forge": 40950, "COME": 50170, "\u0120undet": 54700, "yll": 18425, "\u0120pseudo": 34665, "Into": 47839, "\u0120displayed": 10687, "\u00d0\u00b8\u00d0\u00b5": 56696, ",\"": 1311, "Unfortunately": 16301, "\u0120complimentary": 20245, "\u0120Du": 6299, "Bat": 42030, "\u0120Stub": 64064, "\u0120hundred": 4437, "\u0120memor": 19729, "\u0120camb": 18850, "\u0120finances": 17920, "\u0120exceptional": 11189, "\u0120Object": 9765, "071": 48768, "\u0120intimate": 15043, "consult": 57546, "\u0120running": 2932, "LAS": 58324, "\u0120dialysis": 49672, "\u0120Evil": 27654, "\u0120criminal": 7866, "Mar": 7960, "\u0120Hak": 52084, "\u0120Rec": 2737, "ection": 2885, "\u0120tempted": 24902, "\u0120evid": 28435, "\u00c3\u00a1v": 13485, "\u0120Dana": 29907, "\u0120Picks": 46851, "\u0120dentures": 57694, "\u00e6\u0139\u00b6\u00e4\u00bb\u00a3": 45250, "nl": 24084, "\u0120Draw": 14987, "\u00e8\u00a7\u0124": 24892, "ached": 2969, "954": 48547, "\u0120synthetic": 16940, "\u0120thaw": 43258, "URCE": 29815, "\u0120wszystko": 50434, "update": 11966, "\u0120chilling": 40018, "\u0120Chains": 55459, "\u00e9\u0124\u00a6": 52254, "ienti": 59256, "211": 21522, "Trou": 55063, "\u0120squeez": 20176, "\u0120podob": 45892, "\u0120HE": 12740, "CSF": 56779, "277": 31823, "\u0120leverages": 63756, "\u0120assisting": 22698, "\u0120Mormon": 28094, "three": 20878, "\u0120RX": 36350, "violent": 49401, "\u0120relationship": 2392, "\u0120Tulsa": 42198, "Degree": 58617, "Dynamic": 35770, "ipl": 6702, "\u0120microwave": 21896, "less": 1222, "\u0120cables": 19261, "\u0120lakes": 22309, "Tuple": 55593, "\u0120solo": 6522, "\u0120urgently": 42803, "\u0120fict": 22516, "\u0120Upt": 49243, "sent": 19638, "930": 40621, "macro": 63286, "Compl": 36045, "\u0120aligns": 51042, "starts": 45057, "\u0120Ka": 15214, "\u0120greetings": 52335, "VERSION": 31077, "rabble": 60812, "\u0120geben": 31956, "\u0120Hond": 43441, "\u0120ethics": 18101, "\u0120sulf": 19871, "\u0120insulated": 37878, "though": 2347, "isc": 1895, "\u0120ihren": 27859, "\u0120hell": 6332, "\u0120solic": 22453, "\u0120Taliban": 25813, "MEM": 44759, "ach": 554, "\u0120blanc": 29189, "obile": 2566, "\u0120Tre": 7435, "\u0120cottages": 57716, "nal": 34915, "\u0120dat": 2964, "\u0120master": 5099, "\u0120cherries": 41955, "\u0120Eric": 10986, "big": 13657, "\u0120china": 24378, "uint": 13382, "\u0120requirement": 9790, "ini": 3909, "\u0120fraternity": 59512, "\u0120zones": 16445, "SP": 4652, "\u0120Excellent": 19792, "\u0120NV": 27193, "Terms": 43629, "\u0120raz": 15316, "\u0120pushing": 10907, "ologue": 41911, "\u0120cereal": 31678, "jamin": 18025, "\u0120arriv": 4218, "\u0120Gabriel": 25021, "quot": 39140, "\u0120typography": 64207, "\u0120advising": 33768, "developed": 39173, "\u0120loan": 4785, "otin": 50864, "\u0120nu": 4196, "\u0120tactic": 29691, "\u0120DC": 8366, "\u0120consultation": 11260, "\u0120loi": 39554, "\u0120Skype": 29926, "Times": 30290, "getInstance": 41997, "Decoder": 62586, "\u0120miembros": 58251, "\u0120sc": 641, "\u0120Charger": 44626, "\u0120implication": 39647, "\u0120stil": 50083, "\u0120Procedure": 34081, "indo": 26797, "\u0120process": 1200, "\u00e7\u012d\u00ac": 33321, "\u0120Mes": 23323, "\u0120closing": 9774, "\u00c3\u00a8g": 32058, "\u0120fossil": 20582, "\u0120cucina": 54666, "\u0120Lama": 55992, "\u0120repeat": 10885, "\u0120bows": 42806, "alignment": 60349, "\u0120ministro": 59247, "444": 32153, "\u0120wolf": 18669, "\u0120Increasing": 39091, "\u0120babe": 28662, "\u0120Chem": 11041, "\u0120gem": 10900, "\u0120samples": 9041, "\u0120Businesses": 27804, "\u0120doors": 7267, "\u0120ASD": 64469, "\u0120optimisation": 56232, "\u0120resigned": 30617, "\u0120worksheets": 29945, "icester": 36522, "igh": 712, "alda": 51015, "Nation": 47474, "Slots": 59861, "\u0120Tutorial": 31502, "\u0120Bazaar": 54465, "\u0120Office": 4966, "\u0120Cats": 30449, "\u0120schizophrenia": 46478, "\u0120substance": 11216, "COLOR": 43030, "\u0120Julio": 60522, "\u0120MUST": 29071, "\u0120lado": 24937, "\u0120posted": 5637, "\u0120resonance": 34158, "\u0120butterflies": 34883, "Waiting": 51962, "rape": 9572, "IME": 15009, "$.": 10375, "\u0120Hospitality": 43007, "\u0120upheld": 47886, "\u0120Watson": 21786, "\u0120Sty": 30282, "645": 45887, "\u0120coherence": 58832, "\u0120Toni": 53258, "\u0120fail": 2672, "\u0120respecting": 40963, "\u0120another": 1382, "\u0120Indones": 14415, "\u0120seiz": 22209, "Tra": 9628, "\u0120offensive": 12750, "\u0120herein": 30801, "\u0136\u00e7\u00a9\u00b6": 35396, "\u0120Outline": 59940, "\u0120Huh": 62596, "\u0120Revol": 54583, "\u0120Miner": 63788, "leaf": 32018, "\u0120mes": 5163, "\u0120oriented": 24864, "\u0120Celebrity": 46084, "\u0120outsiders": 50212, "\u0120lua": 52990, "\"].": 38026, "\u0120boost": 6034, "\u0120Crush": 55928, "\u0120Dai": 51190, "\u00c3\u013eber": 54120, "\u0120tracked": 26233, "\u0120meal": 6879, "\u0120Winners": 40564, "\u0120regimes": 41000, "\u0120Phen": 34251, "\u0120humain": 55743, "gran": 30020, "\u0120sake": 13733, "\u0120truck": 7044, "\u0120Script": 12689, "\u0120Jav": 64232, "\u0120redeem": 27894, "\u0120Canc": 40279, "ablo": 17050, "vine": 21854, "acks": 5210, "\u0120Photographer": 45061, "emn": 13400, "\u0120vigorous": 41471, "\u0120conductor": 29547, "Two": 9558, "\u0120terminal": 14600, "\u0120Several": 14776, "\u0120entra": 30763, "Fore": 17100, "219": 26310, "\u0120citiz": 5592, "\u0120cer": 10240, "\u0120superf": 30145, "\u0120Fool": 46032, "\u0120births": 46103, "\u0120unnatural": 47924, "entary": 56995, "nature": 59564, "\u0120Liefer": 45398, "\u0120speechless": 59370, "\u00c3\u00a9taient": 56209, "\u0120repeated": 8554, "hole": 14506, "untos": 39380, "acking": 8654, "\u0120mocked": 55462, "blob": 46057, "IRC": 58434, "\u00e9\u013a\u0141": 15684, "925": 35112, "\u0120Pry": 56996, "\u00e5\u00ae\u012d\u00e6\u00b1\u0141": 62775, "\u0120charge": 4189, "\u0120Noise": 36785, "\u0120Leg": 6929, "\u0120variant": 16066, "\u0120accelerating": 37075, "749": 49363, "\u0120bree": 16098, "\u0120interior": 7862, "\u0120Rh": 9344, "arnaast": 61080, "att": 1207, "oid": 1361, "CTV": 40825, "\u00e9\u013f\u0140\u00e5\u00b8\u00b8": 33058, "\u0120Craig": 18906, "shop": 23554, "\u0120discontent": 64537, "\u0120Buhari": 60796, "\u0120bleu": 62219, "\u0120Cont": 2019, "\u0120Sudan": 29041, "\u0120Econom": 7211, ">>ANSWER<<": 5, "assadors": 39596, "\u0120Scouts": 42775, "\u0120rikt": 63012, "\u0120Berkshire": 54884, "o": 90, "IGH": 22598, "ritic": 55696, "\u0120JP": 38795, "\u0120Precision": 37550, "Shield": 58080, "\u0120Winston": 30571, "iven": 1633, "ajo": 18194, "det": 10965, "\u0120gaz": 25608, "\u0120encycl": 41206, "\u0120security": 2806, "\u0120therapy": 6030, "\u0120consumption": 8984, "\u0120fits": 10007, "Default": 14239, "foot": 8163, "\u00e6\u013a\u00af\u00e4\u00b8\u0122\u00e4\u00b8\u00aa": 53771, "apes": 6985, "\u0120Schritt": 50617, "internal": 23449, "\u0120subtly": 50708, "\u0120AFTER": 54179, "\u0120Easier": 63498, "\u0120Winnipeg": 43275, "\u0120casualties": 35495, "Sleep": 30643, "\u0120Soc": 3157, "\u0120weeping": 55752, "ne": 579, "\u0109": 192, "\u0120Cuando": 41101, "\u0120appears": 5741, "\u0120Amish": 45847, "illin": 27431, "\u0120l\u00c3\u00a2": 52541, "\u0120Pin": 13451, "usted": 32958, "avec": 52607, "\u0120Featuring": 33010, "\u0120Reason": 30446, "\u0120amendment": 21071, "\u0120backup": 11728, "\u0120reass": 16476, "\u0120Baseball": 21696, "\u0120thats": 20720, "\u0120bottled": 40486, "\u0120HOL": 60219, "\u0120Generated": 42693,
[...]
