{"\u2581foremost": 25506, "\u2581handful": 15377, "\u2581exercises": 14531, "\u2581Definitely": 34076, "osite": 8389, "\u2581Ton": 19712, "manage": 37457, "}}$": 19452, "\u2581Davis": 12626, "\u2581Tooth": 57398, "\u2581flash": 10442, "Esc": 26941, "\u2581richest": 39181, "\u2581Gin": 33955, "COPY": 43079, "\u2581\u064a\u062a": 30994, "\u2581ancestral": 45707, "\u2581limbs": 33156, "stro": 49607, "\u2581mark": 2649, "\u2581Walnut": 56947, "\u2581c\u00e9": 26833, "obb": 14954, "\u2581Horiz": 43919, "\u2581personagem": 51833, "\u2581nuestro": 17092, "\u2581independence": 16429, "\u2581Nvidia": 51702, "<|reserved_720|>": 1236, "Via": 39730, "\u2581oui": 45899, "\u2581Romero": 48983, "\u2581France": 6491, "\u2581Sch": 4740, "\u2581implementation": 8894, "\u2581WHERE": 24419, "\u2581positivity": 41606, "ologically": 18441, "\u2581frais": 34222, "\u2581solemn": 44880, "\u2581incon": 17029, "\u2581Odds": 51456, "\u2581Laos": 57513, "\u2581\u00f3tima": 61059, "\u05db\u05d5\u05ea": 28565, "\u2581Feature": 29042, "\u2581box": 4487, "itational": 40826, "\u2581valign": 40453, "Additionally": 23847, "\u2581ergonomic": 54121, "\u2581lengths": 23377, "\u2581divulg": 29533, "\ud0a4": 64613, "<|mask_374|>": 378, "\u2581differ": 15451, "\u2581indeed": 9170, "\u2581batches": 38527, "\u2581\u05d4\u05d5\u05d0": 16834, "\u2581easing": 40236, "osing": 6727, "]\\": 38763, "\u2581espero": 52905, "\u2581doesn": 3486, "\u2581distinguished": 22683, "\u2581devenir": 41754, "\u2581gamble": 34073, "ready": 3257, "\u2581releases": 13943, "locfile": 47755, "\u0451": 63975, "\u10e0": 65226, "\u2581Newcastle": 26404, "\u2581Wid": 35895, "\u2581hive": 51204, "economic": 22393, "\u2581resolver": 33932, "utterstock": 54414, "\u2581Confederate": 44695, "\u2581ROCK": 58354, "\u2581lat": 4010, "\u2581breat": 6355, "\u2581TIM": 37276, "pathetic": 30290, "\u2581veut": 33509, "neau": 47078, "\u2581petty": 45410, "arman": 41549, "\u2581Lu\u00eds": 58531, "\u2581understatement": 55992, "raz": 4939, "haha": 58758, "\u2581Orig": 16210, "\u2581prote": 3081, "\u56e2": 64799, "train": 15313, "may": 14430, "\u2581dosage": 26295, "\u00eddio": 61185, "\u2581Doc": 17419, "\u2581Marriage": 33447, "}}</": 35653, "icable": 41272, "journal": 28212, "Ret": 8533, "\u2581pobre": 46743, "\u2581Halifax": 47103, "\u00d7": 63159, "ocate": 14922, "\u2581Constitution": 14410, "\u2581XR": 58966, "\u2581marca": 19216, "\u2581Developed": 62717, "\u2581Zona": 53526, "\u2581compares": 30241, "izards": 32129, "\u2581archives": 29328, "\u2581belongings": 33611, "$^{-": 54869, "lista": 59047, "prev": 24491, "\u2581LE": 14706, "ctrine": 39594, "\u2581called": 3368, "\u2581cottage": 21867, "\u2581pourrait": 31093, "eous": 21217, "\u2581Science": 7955, "\u2581wards": 50946, "\u2581Ticket": 32939, "assy": 20348, "ESCO": 31962, "\u2581Buckley": 59289, "petto": 37709, "fas": 30578, "\"...": 44821, "grove": 51636, "\u2581clinic": 16675, "\u2581gi": 8636, "\u2581culmination": 55542, "\u05d2\u05d4": 44242, "Cache": 15009, "\u2581Dino": 60543, "i\u00f3": 8802, "\u2581gut": 13128, "closes": 41023, "suffix": 56287, "\u2581government": 3615, "\u8a2d": 64100, "\u2581eliminating": 24404, "\u2581domest": 34933, "\u2581tri": 2873, "\u2581Orth": 22534, "\u2581Urs": 42016, "\u2581GPS": 17761, "\u2581Inquiry": 56911, "<|mask_236|>": 240, "\u2581adequ": 10818, "\u2581snap": 13248, "\u2581dubbed": 30580, "\u2581borderline": 58751, "Find": 12234, "Five": 27025, "\u2581aproveitar": 61634, "\u2581Dia": 23163, "\u2581Ong": 59011, "<|reserved_50|>": 566, "\u2581duplic": 15099, "\u2581intelligence": 10390, "Elim": 56901, "\u2581gli": 14095, "\u2581cellulose": 55695, "\u2581Gene": 16536, "swith": 51059, "istry": 5539, "\u2581prec": 4546, "\u2581Tarot": 61314, "\u2581r\u00e9gul": 37959, "\u2581disappointment": 24029, "iales": 37324, "war": 9858, "\u2581passion": 7269, "informed": 40272, "\u2581semelh": 60939, "\u2581cerr": 33271, "\u2581furthermore": 39308, "\u2581weights": 20520, "uck": 3086, "\u2581scrapped": 61631, "\u2581necessario": 62580, "\u2581locale": 26680, "<|reserved_733|>": 1249, "MP": 5861, "\u2581alpha": 17722, "\u2581Bald": 25602, "shaped": 19715, "interval": 34015, "\u2581smartphones": 19665, "\u2581dwelling": 29064, "\u2581sandstone": 62530, "\u2581Riv": 28673, "\u2581POT": 62694, "necess": 14029, "pps": 37838, "\u2581Lors": 43893, "NECT": 26418, "Twitter": 22048, "steller": 53938, "\u2581Mos": 17865, "\u2581dreams": 11207, "homme": 35909, "ivot": 43664, "\u2581bulletin": 47521, "\u2581Chapel": 29290, "\u2581implication": 43703, "\u2581cracks": 26883, "Trust": 27665, "<|mask_431|>": 435, "Ab": 5154, "\u2581reve": 5056, "\u2581m\u00e9t": 16031, "\u2581girlfriend": 14766, "\u2581luminos": 41264, "\u5f84": 64067, "isent": 46502, "ovirus": 50835, "*:": 51506, "\u2581hacia": 22539, "\u2581iP": 10625, "Push": 33682, "iveau": 60683, "\u2581Nort": 18457, "\u2581Saturdays": 41711, "i\u00f3d": 52068, "alta": 13656, "\u2581Fiona": 55340, "<|reserved_541|>": 1057, "Along": 26691, "\u2581victory": 9181, "\u2581mesure": 29949, "<|mask_224|>": 228, "\u2581posting": 11806, "\u2581particulars": 48185, "\u2581chron": 18931, "\u2581nurture": 39521, "\u2581mus": 3018, "platform": 18417, "\u2581antagon": 27799, "\u2581culprit": 37787, "encia": 6135, "\u2581Mask": 24643, "\u2581reasonable": 9114, "\u2581bekannt": 53389, "\u2581objectif": 51831, "\u2581abusing": 54213, "\u2581Went": 40262, "\u2581cramps": 54683, "\u2581Cert": 11888, "\u2581Canadians": 30286, "\u2581infiltr": 37098, "\u2581odors": 61166, "azers": 46961, "\\^": 52472, "\u2581disrupt": 14540, "<|reserved_691|>": 1207, "\u2581confusion": 16324, "\u2581Reyn": 25710, "\u2581gasoline": 26939, "\u2581embora": 46224, "lp": 37387, "\u2581Mortgage": 32601, "jest": 58092, "iliar": 6618, "CONF": 56535, "acl": 42346, "\u2581NU": 50630, "odio": 53548, "\u2581Blood": 15773, "\u2581cousins": 31642, "Context": 6625, "lang": 9579, "\u2581Instructor": 55540, "\u2581safest": 36444, "\u064a\u0631\u0627\u0646": 57077, "inant": 60020, "commission": 46735, "\u2581aup": 31413, "expected": 9578, "\u2581\u062a\u0631": 53691, "\u73af": 63938, "((": 7380, "n\u00e3o": 48673, "\u2581fascination": 40067, "\u2581r\u00e9cup": 48892, "\u2581lifting": 20562, "becca": 24682, "\u2581Liberal": 27267, "Polit": 40834, "\u2581Leg": 8590, "\u2581sind": 10383, "sterdam": 18499, "\u2581README": 56242, "\u3079": 64865, "\u2581\u05d1\u05e2": 14188, "quin": 20289, "\u2581Cependant": 52101, "\u2581Sisters": 35810, "X": 63036, "\u25c6": 64639, "registered": 39728, "\u2581internships": 55520, "\u2581cos\u00ec": 32541, "\u2581signalling": 52559, "itin": 51532, "uitary": 62195, "used": 3920, "arl": 45367, "\u2581marketplaces": 58344, "\u2581Cannon": 46010, "h\u00e9s": 36787, "\u2581paramed": 50953, "\u2581Zur": 33354, "\uac12": 64123, "advant": 15196, "\u7537": 65252, "\u2581popping": 30896, "\u2581sid": 24062, "\u2581flor": 25482, "Cyber": 52547, "abh": 43136, "\u2581engineer": 16226, "\u2581enjoying": 11221, "\"));": 16410, "ear": 2048, "\u2581Spiele": 47838, "luence": 54089, "\u2581lighter": 17993, "ockey": 12709, "\u2581Rules": 20219, "\u2581Dok": 52205, "\u2581Honor": 24789, "\u2581trat": 14239, "\u2581Gilbert": 31189, "\u2581dancer": 32635, "\u2581respectively": 8609, "Steel": 51058, "\u0639\u064a": 27680, "\u2581fishes": 60937, "\u0632": 63112, "\u2581Falcons": 40867, "h": 62944, "\u2581Allan": 38185, "\u2581instrument": 9640, "\u2581unwind": 46283, "arly": 2834, "Tags": 20797, "\u2581diffraction": 59331, "\u0648\u0631": 9247, "\u2581uneven": 32998, "apk": 40100, "\u2581Areas": 40664, "\u0660": 64332, "\u2581vacc": 6681, "bx": 34226, "juvant": 52743, "maker": 14432, "\u2581liabilities": 36313, "Techn": 19977, "\u2581briefing": 32441, "\u2581grupos": 26664, "\u2581banda": 27259, "\u2581similarities": 27169, "\u2581unnoticed": 47091, "NM": 40504, "<|reserved_988|>": 1504, "\u2581handwriting": 53204, "\u2581identifiable": 40150, "\u2581Enter": 8928, "\u2581shirts": 21842, "\u2581purchased": 9252, "\u2581Occupational": 56177, "\u2581themes": 13339, "George": 27786, "\u2581Internation": 59571, "erm": 2370, "Har": 21553, "\u2581spheres": 48495, "\u2581ho": 6786, "plicity": 19659, "iour": 31837, "virt": 56049, "\u2581mayonnaise": 58630, "\u2581\u25ba": 62921, "\u2581memorandum": 49737, "urtles": 36426, "\u2581religion": 10615, "trad": 31787, "\u05db\u05e0\u05e1": 57354, "\u2581m\u00e9th": 34244, "weeney": 57397, "\u0ab0": 65058, "\u2581FN": 56013, "Gun": 55943, "Mus": 15637, "\u2581spas": 46452, "\u2581Opt": 13640, "\u2581Managing": 27112, "\u2581vicious": 31584, "bre": 3063, "<|mask_451|>": 455, "enium": 37074, "\u2581installations": 25797, "\u2581border": 8655, "\u2581Wax": 51158, "constexpr": 52419, "\u2581Brake": 52184, "\u2581tricky": 20511, "coding": 47571, "=\"$": 45930, "Home": 11601, "<0x93>": 1691, "_)": 31767, "\u2581twisting": 47105, "\u2581Gerry": 56567, "\u6b3e": 64729, "\u2581pr\u00e9vu": 60584, "\u2581playing": 4622, "\u2581grip": 17158, "\u2581Brits": 62867, "AP": 4113, "Ill": 22881, "\u2581mindful": 29095, "\u2581normalized": 33987, "AGO": 52639, "\u064a\u0646": 5931, "\u2581consumers": 8337, "\u0628\u0631": 15084, "\u2581cavern": 50697, "inher": 27791, "Term": 17048, "\u2581Struct": 29971, "prepared": 53064, "\u2581Feet": 49218, ".*]{}": 59180, "\u2581ti": 14052, "warz": 32208, "Any": 7755, "econom": 17901, "\u2581Elementary": 24518, "\ub418": 63794, "\u2581equipo": 18352, "\u2581Starbucks": 30757, "\u2581iCloud": 54711, "\u2581deployments": 54142, "arela": 56539, "\u2581maioria": 30813, "phant": 21762, "ROS": 35615, "\u2581C\u00e9": 56275, "\u2581Josh": 13162, "\u0131": 63160, "\u2581Joe": 8962, "\\.": 51240, "military": 57650, "RV": 51017, "\u2581Delhi": 15047, "asking": 53358, "\u2581paiement": 58171, "\u2581gymnastics": 58838, "\u2581buildings": 9014, "\u2581Mediterr": 21057, "cuador": 30511, "\u0635\u0648\u0644": 38802, "VERSION": 20618, "xx": 11253, "Imp": 24451, "\u2581progressive": 15243, "terror": 35753, "\u2581timeline": 21806, "interno": 52574, "\u2581practically": 17777, "\u2581Wend": 25456, "</": 2365, "\u2581refresh": 19571, "\u2581Optimization": 48601, "\u2581promos": 62240, "\u2581grandmother": 18905, "roupe": 17695, "\u2581wave": 9596, "rex": 26155, "vero": 40374, "rito": 14129, "attle": 5155, "ceptor": 31324, "aring": 3437, "\u041f": 63378, "anze": 40515, "\u2581respeito": 36747, "\u2581Any": 6197, "\u2581Indy": 41453, "\u05d9\u05d5": 8525, "\u2581format": 6321, "\u2581\u2581\u2581\u2581\u2581\u2581\u2581": 3179, "\u2581tenemos": 26011, "r\u00e9s": 31536, "<|reserved_1008|>": 1524, "\u2581Soccer": 27761, "Pane": 35197, "\u2581rents": 46406, "\u2581HDD": 55524, "\u2581ab": 2007, "\u2581donc": 13877, "\u2581repertoire": 40148, "\u2581Aston": 40059, "\u2581Fried": 20689, "\u2581attitudes": 21483, "unction": 6814, "\u2581martyr": 58100, "\u2581stere": 15733, "\u2581establishes": 36656, "igeon": 41703, "station": 19316, "<|reserved_31|>": 547, "\u2581socio": 21661, "\u2581lamps": 30901, "\u2581Journey": 27820, "lias": 38049, "\u2581useState": 48264, "\u2581Tribal": 60874, "\u2581Fantastic": 42292, "\u2581LIN": 48325, "\u2581TW": 38774, "\u2581Gracias": 55283, "\u2581diagnoses": 49314, "riad": 28366, "unding": 42886, "\u2581him": 2435, "SHIP": 56310, "\u2581spite": 20285, "\u2581spell": 15584, "\u2581Qui": 44894, "\u2581gymn": 38311, "Cong": 21855, "Distribution": 43132, "\u2581knees": 18857, "\u2581Wrong": 40313, "\u2581Thema": 55157, "Forest": 48978, "players": 47945, "\u0637\u0641\u0627\u0644": 62498, "\u2581vragen": 43922, "\u2581fans": 5882, "ister": 3356, "\u2581inscri": 31889, "\u2581Birds": 35545, "\u2581Selena": 60873, "\u2581penetrating": 58084, "<|reserved_214|>": 730, "\u2581shifted": 21576, "\u2581amist": 55067, "\u2581OPEN": 46566, "decision": 62521, "bread": 23438, "\u2581proves": 23018, "\u2581corner": 7536, "\u2581tortilla": 56817, "\u2581Giovanni": 42433, "case": 5372, "\u2581eased": 48919, "satisf": 62398, "\u2581sch\u00f6": 60206, "<0xB2>": 1722, "\u2581serene": 50395, "\u2581siblings": 21695, "\u2581indict": 30797, "\u2581SV": 22455, "\u2581Rena": 27271, "Allowed": 52983, "\u2581Diseases": 46331, "\u0437\u0430": 26681, "\u2581momentos": 27324, "\u0627\u0631\u064a": 25480, "\u2581turnover": 25465, "Kath": 57945, "dig": 12724, "ky": 5304, "\u2581flaws": 27488, "\u2581Loop": 32874, "\u2581domingo": 24703, "Provide": 46009, "\u2581Ber": 7187, "\u2581prostate": 24493, "versible": 41875, "ming": 4782, "<|reserved_831|>": 1347, "\u2581INS": 35957, "\u2581Priv": 31383, "\u2581\u05e0": 8834, "urais": 48466, "\u2581metros": 27188, "\u2581Body": 15524, "\u2581afet": 51343, "\u2581developers": 10739, "\u2581sightings": 58177, "\u2581Movement": 25774, "amps": 11418, "\u2581Sr": 23715, "OWER": 33542, "\u2581chamber": 16482, "\u2581Dale": 24684, "BACK": 30761, "\u2581Bos": 18393, "\u2581Wik": 38308, "hmen": 51114, "\u2581interven": 19679, "andre": 56481, "\u00e1s": 3768, "/'": 23290, "\u2581Alegre": 59739, "\u2581Das": 15061, "azar": 22651, "\u05d9\u05e8\u05d5\u05ea": 22208, "<|reserved_642|>": 1158, "rios": 39517, "aiser": 31026, "\u2581bande": 36524, "\u2581derivatives": 30973, "\u2581Tru": 13994, "\u2581complains": 57307, "\u2581traces": 24154, "\u2581Matthew": 16076, "\u2581Ferry": 45132, "\u2581presumably": 25213, "\u2581Styles": 40402, "\u2581diff\u00e9rents": 28281, "\u2581graduates": 21992, "\u2581guiding": 28423, "\u2581m\u00e1quina": 39372, "enne": 14723, "jor": 3204, "\u2581customization": 34773, "\u2581Stud": 4934, "\u2581overseeing": 43609, "\u2581Cash": 16459, "\u2581Mines": 50349, "\u2581pineapple": 37594, "\u2581\u0627\u0644\u0644\u0647": 33022, "\u2581obsessed": 26884, "\u2581bundles": 34183, "draft": 39908, "dez": 51748, "stem": 46128, "\u2581energie": 58543, "ICENSE": 14520, "competitive": 58548, "CAL": 50387, "EXP": 22622, "\u2581Yosemite": 59777, "we": 2245, "\u2581acho": 42855, "atement": 31872, "None": 11793, "doctor": 36033, "\u2581Asus": 54243, "\u2581Al": 2564, "\u2581genu": 10061, "\u2581capacit\u00e9": 45922, "\u062f\u0645\u0629": 54468, "LIB": 29493, "\u2581Cultural": 21976, "Un": 4045, "Et": 16802, "shell": 21395, "ROP": 36412, "\ub2a5": 64266, "\u2581cambios": 39753, "ass": 2039, "\u2581claws": 49373, "\u2581tout": 5805, "\u00e1ria": 14916, "\u2581Exclusive": 42632, "\u2581sleek": 27740, "\u2581divent": 54137, "\u2581HAR": 55675, "Demo": 43241, "\u0635\u0631": 24670, "\u2581Bron": 15761, "\u2581Rubin": 57176, "Tur": 25429, "ielsen": 41903, "constants": 46035, "size": 4933, "links": 18669, "\u2581spreading": 19057, "\u2581stimulating": 34090, "Positive": 46969, "Employees": 61830, "\u0440\u0430": 15107, "\u2581mim": 16284, "\u2581Twist": 51740, "(:": 17337, "\u2581unterst": 57589, "\u2581VIS": 57258, "\u2581orig": 3449, "ulet": 61213, "\u2581verb": 14440, "communications": 28354, "\u2581Bou": 16296, "\u2581presumption": 52011, "phase": 26208, ":{": 43496, "\u2581mm": 9042, "\u2581\u0638": 52425, "\u2581storing": 22585, "uela": 14736, "amination": 17272, "embros": 40005, "\u2581tastes": 19243, "\u2581r\u00e9alis": 24205, "=\\": 11256, "\u2581STD": 51535, "\u2581Natal": 21964, "\u2581Audit": 40156, "\u2581questionnaires": 52848, "\uc810": 64532, "\uc5f4": 64531, "Dest": 19076, "IGHTS": 52430, "Key": 5847, "avit": 33525, "cancer": 48190, "ode": 2332, "add": 3316, "\u2581qualifier": 53900, "lt": 3756, "\u2581Concert": 35368, "\u2581cac": 59432, "\ud560": 63741, "Fixture": 55580, "\u2581wow": 30422, "GROUP": 42155, "\u2581partial": 14536, "abase": 5726, "<|reserved_45|>": 561, "Includes": 52778, "ctx": 11451, "\u2581diffus": 45171, "helle": 54634, "\u2581Bend": 29717, "\u2581breweries": 56818, "\u2581realising": 62284, "}_\\": 62785, "\u2581container": 9727, "Rep": 8115, "\u30ad": 63990, "\u2581ofrec": 41832, "\u2581thym": 62762, "\u2581mates": 32788, "IVERY": 56234, "\u2581leather": 12050, "\u00e9gorie": 28627, "\u2581Highly": 31920, "Pointer": 23727, "\u2581celebration": 12861, "\u2581yours": 13351, "\u2581convince": 18274, "updated": 26913, "\u2581Anglo": 38782, "\u2581least": 3505, "\u2581Charg": 22616, "\u2581reserve": 14688, "identity": 33679, "\u2581Anast": 57923, "\u2581righteous": 25075, "\u2581streets": 10285, "\u2581expresses": 37087, "\u2581influencer": 44362, "\u2581Hanoi": 56973, "ARGS": 61014, "\u2581Alumni": 41588, "\u2581kannst": 57181, "\u2581elf": 53664, "\u2581lining": 22982, "\u2581landscaping": 36532, "\u2581shifts": 19753, "wich": 12649, "\u679c": 63343, "flare": 46400, "ALL": 8510, "\ud83d\ude0a": 64279, "ea": 14802, "\u2581knocking": 31929, "\u5f03": 65535, "\u2581Hosp": 30465, "\u2581patrimoine": 61268, "IAN": 34171, "Ian": 52791, "tn": 13789, "\u2581Nazis": 41993, "\u2581knitting": 34852, "\u2581\u062f\u064a": 52427, "\u2581Jae": 53640, "\uff08": 63296, "\u0927": 65117, "\u2581flavor": 10439, "<|reserved_899|>": 1415, "ificate": 17382, "\u2581Europeans": 38216, "\u2581mundane": 41580, "AY": 7721, "\u2581lle": 15361, "opol": 19232, "\u2581Holden": 59691, "\u2581shorter": 15075, "\u2581Cox": 25691, "hive": 59649, "\u2581restitution": 60234, "\u2581geven": 39132, "\u2581Moz": 22520, "\u2581Zod": 50924, "<|reserved_571|>": 1087, "ktor": 60368, "\u0434\u0438": 39581, "\u2581pregnant": 12506, "\u2581Enhanced": 55968, "\u2581bishops": 45555, "\u2581licensed": 13737, "<|reserved_714|>": 1230, "\u2581\u0644\u064a": 37820, "Lin": 18895, "\u2581Veget": 30663, "\u2581CARE": 54029, "\u2581thou": 29969, "lie\u00df": 35807, "LI": 16020, "ighter": 8523, "\u2581Alexa": 30753, "Gary": 46980, "SYSTEM": 58697, "\u2581constantly": 8797, "\u2581instance": 5858, "\u2581Manchester": 13911, "\u2581Read": 6569, "\u2581rd": 61481, "<|reserved_252|>": 768, "ussion": 14386, "\u00edstica": 23839, "\u2581Laboratory": 25132, "\u2581gem": 11358, "\u2581hike": 17633, "\u2581phrases": 19498, "ita\u00e7\u00e3o": 37946, "\u0632\u064a": 21898, "\uc120": 64098, "esi": 30393, "despite": 62610, "\u2211": 64555, "dn": 21945, "endet": 50224, "lag": 20033, "\u2581prevented": 21811, "FO": 9681, "\u0627\u0642": 51807, "\u2581partes": 29833, "\u2581Hamilton": 15547, "\u2581backend": 29399, "\u2581observation": 16342, "\u2581p\u00fablicas": 40130, "Jerem": 48158, "ciples": 9913, "\u2581dries": 56834, "\u25a1": 64706, "\u2581cms": 60405, "\u2581Madrid": 13558, "\u2581rock": 5767, "\u0442": 63113, "rien": 24313, "<|reserved_259|>": 775, "\u2581Sylvia": 53429, "\u2581decimal": 31264, "\u2581homogeneous": 46315, "\u2581poured": 26066, "\u7a7a": 63660, "\u2581arriver": 58070, "ASHINGTON": 35588, "\u2581reggae": 62340, "\u2581crowned": 43740, "\u2581nu": 9344, "\u2581configuring": 58840, "private": 4921, "Medium": 50251, "uem": 40163, "\u062f\u064a": 9583, "\u662f\u5426": 48850, "inted": 61189, "\u2581waiver": 33098, "\u2581equals": 26751, "\u2581Mateo": 59185, "\u2581Display": 20637, "\u2581vid": 32430, "\u2581visitar": 42611, "Sex": 25352, "mar": 5172, "r": 62942, "\u2581security": 4538, "\u2581mise": 21903, "\u2581apport": 50815, "IRST": 30842, "\u2581Lin": 7490, "\u2581pursued": 30691, "\u2581theories": 18024, "\u2581Resistance": 38872, "\u2581\u064a\u0642": 44739, "ccaneers": 61431, "\u2581postseason": 39269, "\u2581Amazing": 28954, "\u2581tra": 2363, "ospital": 4737, "uffle": 22228, "\u2581Fiber": 42679, "']);": 25936, "ogical": 56970, "Minutes": 60413, "\u2581mk": 41569, "\u2581regulator": 27929, "\u2581(<": 29794, "\u2581Audi": 23887, "Ric": 52735, "kov": 33780, "\u2581Tensor": 42795, "\u2581skis": 61051, "\u2581rains": 34211, "\u2581bullpen": 52195, "obili": 34871, "Spark": 48589, "uscular": 60125, "\u2581practise": 51564, "\u2581provision": 13218, "Select": 8647, "\u2581Script": 16485, "\u2581Mog": 49427, "\u2581\\[": 5893, "\u2581meat": 8447, "\u2581erm": 42965, "\u2581Standard": 12707, "Assign": 48529, "\u2581volunteered": 40394, "Atlantic": 50354, "\u2581Pan": 8587, "\u2581kunst": 50458, "\u2581rebate": 56524, "\u2581February": 6092, "\u2581advice": 6549, "\u2581gathering": 14376, "\u2581anivers": 45575, "\u2581LIB": 49661, "igroup": 61350, "cosa": 39484, "Suppose": 34530, "\u2581\u062e": 11679, "\u2581reach": 5463, "aped": 8536, "Nat": 45806, "\u2581Ages": 34019, "<|reserved_568|>": 1084, "\u0648\u0627\u0644": 51362, "\u2581tied": 12654, "\u092a": 63904, "\u2581im": 2066, "Automation": 59418, "\u2581MAG": 36629, "Bul": 38475, "rieve": 41158, "soc": 51734, "circuit": 54090, "\u2581measles": 58680, "tent": 59548, "\u2581):": 57453, "\u2581comed": 18919, "\u2581follows": 7940, "\u2581Wisconsin": 14926, "ilem": 24831, "\u2581Everybody": 35290, "\u2581nesting": 44625, "\u2581//": 5990, "After": 5112, "your": 13869, "\u2581symptoms": 7741, "\u2581Bran": 42790, "\u2581LH": 60778, "\u2581vide": 3157, "\u2581Norris": 52857, "\u2581volled": 50864, "\u2581employers": 14151, "<|reserved_234|>": 750, "uana": 55644, "\u2581Flying": 35337, "\u2581companionship": 62451, "balanced": 34339, "\u2581symmetric": 41125, "\u2581las": 3264, "Forward": 36131, "\u2581depicting": 39002, "\u2581cDNA": 56016, "\u2581tro": 6132, "\ubc88": 64363, "\u2581spouse": 16073, "\u2581AUTHOR": 61711, "\u2581B\u00fc": 52792, "blocking": 49668, "IMG": 58661, "\u2581ACT": 23272, "Dash": 53234, "\u2581LAW": 59877, "\u2581Investments": 45538, "\u2581M\u00e4rz": 61382, "\u2581billed": 39688, "\u2581ah": 22546, "\u2581Brisbane": 30437, "\u2581abnormalities": 39410, "\u2581Hue": 53575, "bn": 12750, "\u2581wearing": 8619, "\u2581theorem": 34184, "\u2581Levi": 37173, "\u2581Olympic": 14851, "kom": 16111, "\u2581Pers": 13195, "\u2581saver": 59771, "earchers": 26143, "\u2581torn": 10309, "\u2581bowl": 9654, "\u2581REC": 24918, "\u2581trend": 6329, "n\u00ed": 55492, "guas": 61703, "ORM": 27215, "\u2581detaine": 54592, "\u2581iceberg": 57152, "ocy": 12789, "\u2581Este": 17170, "ipps": 51020, "Atom": 57193, "'=>'": 37855, "\u2581hindsight": 53251, "aser": 13878, "isiones": 50139, "\u2581Warwick": 51857, "asm": 13481, "<|reserved_132|>": 648, "ategy": 24080, "asha": 20417, "\u2581ultra": 15628, "\u2581journ\u00e9e": 29429, "\u2581immersion": 43339, "\u2581memes": 49549, "\u2581terceiro": 52654, "\u2581validator": 59115, "\u2581earliest": 19555, "\u2581ally": 30693, "rip": 7072, "ativa": 10252, "\u2581ofertas": 41196, "\u2581rodents": 53012, "\u2581Boom": 44354, "=='": 59207, "ills": 3492, "Which": 14044, "ucible": 61531, "\u2581remaining": 8278, "\u2581Coc": 25861, "({{\\": 57390, "\u2581Brother": 13848, "\u2581Stand": 8441, "Memory": 21962, "<0xC0>": 1736, "\u2581\u0915": 61772, "\u2581supposed": 7718, "nasium": 51296, "however": 47728, "\u2581UNESCO": 37286, "rij": 8360, "\u2581dies": 7847, "\u80cc": 64647, "\u2581deficiency": 25207, "\u2581partnership": 10248, "\u2581GD": 29415, "\u2581Anniversary": 31552, "<|mask_276|>": 280, "\u2581going": 2673, "beeld": 32227, "\u2581Rift": 62862, "\u2581lesson": 12040, "\u2581resolving": 37024, "\u4f18": 64085, "Nowadays": 56343, "\u2581Gamb": 49012, "\u52a9": 64236, "\u2581m\u00e1xim": 22017, "opes": 14296, "r\u00f3leo": 59736, "\u2581delete": 11657, "\u2581Down": 6860, "\u2581flower": 12267, "\u2581dine": 43678, "\u2581espiritual": 53798, "\u8d85": 64165, "\u8ba2": 64460, "App": 4698, "\u2581pump": 8709, "\u2581Hort": 39579, "\u2581De": 2604, "Justin": 46089, "\u2581Power": 7257, "\u2581Manila": 35124, "\u2581retry": 48391, "\u2581peacefully": 41315, "STATIC": 61746, "\u2581Min": 3895, "\u2581tablespoons": 26927, "\u2581underpin": 61234, "\u2581electronic": 8981, "\u2581decomposition": 42037, "\u2581hin": 44895, "<|reserved_630|>": 1146, "<0x0C>": 1556, "\u2581mal": 5680, "qq": 48702, "\u2581Courtney": 44445, "\u2581eCommerce": 41236, "<|mask_442|>": 446, "\u2581medal": 19242, "\u2581balloon": 27140, "\u2581Pacific": 11594, "\u2581outlook": 19795, "\u2581coalition": 22043, "Energy": 34470, "\u2581Estr": 38183, "\u2581coord": 7429, "ilers": 25914, "Protect": 49466, "\u2503": 64648, "\u2581large": 3406, "\u2581successfully": 9213, "uals": 13406, "\u00fchr": 31218, "\u2581\u0645\u0646\u0630": 53260, "Oper": 11318, "\u2581nova": 19315, "\u2581relegation": 61572, "\u2581Wass": 57175, "avy": 14381, "ushima": 54398, "ORTS": 61732, "\u2581VB": 51937, "Exp": 11254, "\u0631\u0628\u064a\u0629": 34416, "\u2581margin": 13916, "\u202b": 65005, "\u2581Robertson": 35901, "Nobody": 42382, "ia\u00e7\u00e3o": 38565, "\u2581coolest": 42958, "\u2581dwarf": 45217, "\u2581disappear": 17909, "RON": 43781, "guide": 28192, "\u2581TAG": 53519, "\u2581jeopardy": 59199, "<0xE1>": 1769, "\u2581d\u00favida": 52412, "\u2581exclus": 11123, "\u2581Woody": 47155, "\u2581encoding": 20475, "ifen": 41546, "\u2581lipids": 60314, "xA": 56098, "\u2581reader": 9745, "\u2581heute": 40862, "\u201d)": 13110, "\u2581bure": 52025, "packet": 35296, "\u2581reposition": 62213, "\u2581premiere": 21222, "\u2581hockey": 18198, "Sue": 60709, "\u2581contemplation": 61903, "\u2581inhib": 9892, "\u2581dop": 33885, "slip": 55467, "\u2581insider": 34591, "\u2581swirl": 48412, "nie": 12949, "\u2581cluster": 13095, "\u2581Linda": 22707, "\u2581fluorescent": 36850, "\u2581RuntimeException": 57808, "zu": 23981, "\u2581Vladimir": 33556, "quartered": 34269, "\u2581senators": 39774, "\u05e6\u05d4": 26478, "\u2581polarized": 57533, "Between": 29731, "\u2581select": 4009, "<|reserved_184|>": 700, "<|reserved_1003|>": 1519, "als": 2404, "\u2581Spielberg": 57993, "\u2581receptions": 52372, "\u2581paid": 5747, "\u2581lack": 5315, "cheduled": 29528, "\u2581Ner": 44931, "\u2581apertura": 60880, "\u2581seas": 24533, "aca": 13886, "\u2581Afghan": 13683, "\u2581persistence": 35238, "\u2581Orleans": 17673, "\u2581Swedish": 21129, "\u2581Amb": 15378, "\u2581Fighting": 42101, "\u2581Eleanor": 50671, "Ask": 22715, "<0x40>": 1608, "\u2581memberships": 57279, "\u00e1ticas": 26377, "listing": 43185, "\u2581Ext": 8287, "fighting": 51640, "bley": 55357, "appropri": 17546, "intellig": 46050, "Ver": 10573, "\u2581Pen": 10809, "<|reserved_477|>": 993, "\u2581believe": 3971, "onds": 13516, "impl": 15732, "rics": 9069, "cells": 30583, "\u2581Stem": 60179, "<|reserved_780|>": 1296, "\u2581programme": 9927, "Autom": 30227, "\u2581Pitts": 18350, "\u2581\u00e9norm": 58157, "minute": 14000, "\u05e8\u05d5\u05ea": 32609, "\u2581preferable": 40343, "\u2581Agents": 41296, "\u2581declaring": 33075, "\u2581caregiver": 47565, "\u2581socioeconomic": 49216, "models": 15404, "\u2581peor": 62396, "\u2581amazon": 31208, "\u2581choreography": 56726, "<|reserved_200|>": 716, "\u2581smashed": 41046, "aan": 11383, "chelle": 59184, "ibrary": 5187, "\u2581Viz": 54343, "coaster": 62270, "\u2581cadre": 24731, "ymph": 12360, "\u2581volont": 34973, "\u2581chiff": 35784, "\u2581amused": 50293, "\u2581Stroke": 59378, "\u2581re": 1852, "navbar": 23960, "\u2581exposition": 47763, "\u2581culpa": 53868, "\u2581funk": 40370, "icy": 3823, "\u2581depicted": 27869, "\u2581Kunden": 47266, "\u2581r\u00e9d": 52933, "oglobin": 45218, "ailing": 12025, "amb": 3291, "iola": 50025, "dim": 10749, "\u2581Monday": 5924, "\u2581stash": 40497, "explicit": 54253, "\u2581active": 5589, "Trib": 60646, "\u2581GER": 60715, "\u0dc0": 65138, "\u2581rituals": 34802, "\u2581often": 3351, "\u2581principais": 27390, "\u2581k\u00f6n": 15115, "\u2581Grape": 57026, "\u2581derecha": 58832, "parallel": 43284, "\u2581Only": 8290, "<|reserved_687|>": 1203, "\u8de8": 65351, "\u2581pronoun": 49214, "\u2581offend": 56467, "clave": 47814, "\u2581dynamically": 34975, "\u2581agente": 54183, "\u2581Equal": 41780, "\u2581apolog": 16116, "WHERE": 31390, "\u2581ruling": 14318, "\u2581habl": 41409, "\u2581mediator": 48335, "\u2581suited": 18319, "yll": 23890, "ivre": 36668, "complete": 17044, "hyd": 10784, "\u2581negatively": 26080, "\u2581reputed": 54996, "KES": 59907, "\u8981": 63241, "\u2581Chill": 52051, "\u2581Conrad": 47545, "vale": 45368, "\u2581Meditation": 54576, "\u2581inheritance": 31176, "\u2581distortion": 37827, "npm": 21768, "\u2581intrusive": 59865, "\u2581dress": 6798, "Preview": 38212, "\u2581Euros": 51572, "\u2581influ": 4977, "custom": 12513, "Pal": 13255, "\u2581Ride": 30056, "\u2581comparatively": 41010, "\u2581quindi": 35935, "bers": 2925, "ettes": 15141, "\u51c6": 64296, "\u2581cabo": 28497, "otype": 10045, "olecular": 27394, "frag": 57481, "\u2581payoff": 58332, "ogle": 4030, "\u2581comprendre": 40562, "\u2581amiga": 46571, "\u2581Loud": 52020, "rieben": 52276, "\u2581stati": 44384, "ameda": 61874, "<|reserved_77|>": 593, "px": 4577, "screens": 52647, "\u2581courant": 58855, "\u2581addict": 19370, "\u2581Opportunity": 40656, "\u2581Theore": 58954, "\u2581Cot": 21176, "\u2581Placement": 62251, "orbit": 49722, "\u2581Anders": 35366, "\u2581antibacterial": 53440, "\u2581fades": 57492, "\u2581heaps": 56835, "Text": 5587, "vin": 6619, "\u2581communicated": 35032, "\u0631\u0627\u0641": 52452, "FilePath": 44104, "\u2581became": 4882, "\u2581parsed": 40591, "Bytes": 17765, "\u2581evaluate": 12060, "\u2581pulls": 23827, "\u2581speech": 8630, "annot": 12231, "<|mask_379|>": 383, "\u2581repair": 8394, "\u2581bicycle": 23065, "\u00f3nica": 31380, "cv": 25515, "cgi": 46841, "\u2581madeira": 58893, "Money": 31307, "\u2581Seah": 40536, "\u2581\u0441": 13809, "\u2581\u2581\u2581\u2581\u2581\u2581\u2581\u2581\u2581\u2581\u2581\u2581\u2581\u2581\u2581\u2581\u2581\u2581\u2581\u2581\u2581\u2581\u2581\u2581\u2581\u2581\u2581\u2581": 5779, "\u2581$_": 25467, "drew": 39786, "\u2581Spar": 33879, "\u2581Athlet": 19484, "\u2581Griff": 21492, "verning": 13849, "column": 11519, "rijk": 29889, "\u2581unreliable": 46243, "\u0e2b": 63932, "BAR": 39710, "\u2581First": 5563, "\u2581\u0627\u0644\u0623": 7739, "\u2581Unable": 52878, "\u2581Milano": 39018, "\u2581obtains": 55834, "\u2581spies": 59772, "\u062c\u0632": 59904, "eted": 19297, "essed": 15531, "\u2581complement": 12443, "ounty": 32575, "<0x18>": 1568, "\u51cf": 64719, "\u2581shines": 36746, "erground": 37580, "-.": 31995, "\u2581\u0627\u0644\u0646": 14527, "\u2581mainstream": 16358, "\u2581Hyper": 26222, "\u2581Authors": 33259, "\u2581Psal": 35133, "\u2581Fringe": 62613, "<|reserved_34|>": 550, "ies": 1984, "\u2581sober": 28384, "\u2581fauna": 43861, "\uc800": 64137, "<|mask_444|>": 448, "\u2581yeux": 39991, "codes": 28663, "\u2581renewed": 22788, "\u2581Aviv": 47170, "\u2581Islanders": 57106, "\u2581twentieth": 33723, "\u2581upgr": 16477, "\u2581philosoph": 20717, "\u2581method": 3380, "asco": 44148, "Mod": 4755, "calcul": 51411, "\u2581Bonds": 54907, "(['": 25471, "alten": 61643, "\u2581Gesch": 26205, "\u2581athlet": 9607, "\u2581catcher": 46749, "auge": 34010, "\u2581sobret": 60103, "<|mask_179|>": 183, "awa": 12073, "\u2581distributes": 59266, "\u0631": 63051, "\u2581cream": 7638, "\u2581colleague": 23799, "\u2581enjoyed": 7670, "\u2581Argentine": 43318, "\uc99d": 64599, "sein": 38927, "\u2581morphology": 41127, "yles": 7279, "\u2581charges": 8348, "\u2581toch": 38989, "\ub3d9": 63953, "\u2581EPUB": 40167, "\u2581lud": 44991, "\u2581flesh": 18295, "\u2581zu": 6511, "\u2581Pict": 14339, "\u2581myths": 32467, "\u2581content": 3799, "\u2581draped": 61224, "ODY": 42704, "\u2581PARTICULAR": 28231, "\u2581DET": 44534, "ursday": 6196, "n\u00e9e": 38219, "\u2581MTV": 34449, "acchar": 43245, "MENT": 13505, "\u2581slightest": 38205, "uvres": 41509, "\u2581BG": 45660, "Ford": 46843, "\u2581Merci": 52157, "\u2581comienza": 60767, "\u2581embrace": 15995, "Expl": 20722, "\u2581vinc": 35253, "\u2581cuz": 62595, "\u2581silicon": 28483, "\u2581unpredictable": 30342, "\u2581parfait": 31338, "\u2581Serra": 48710, "\u2581sw": 3240, "]+": 31017, "interactive": 59610, "\u2581passou": 36564, "\u2581tur": 8001, "\u2581Titan": 24485, "\u2581prelim": 17437, "\u2581seguran\u00e7a": 24551, "Cuando": 40465, "iever": 53522, "\u2581lockdown": 18034, "utilis": 58359, "etry": 22002, "<|reserved_102|>": 618, "zh": 30539, "badge": 34229, "ietet": 43602, "\u2581tous": 10764, "Application": 13224, "\u2581POV": 55525, "\u2581\u0627\u0644\u0645\u062d": 31518, "udo": 7347, "\u2581ensuing": 46014, "APS": 52970, "mand": 21377, "\u2581Chron": 22109, "\u2581wedges": 58705, "\u2581TC": 32253, "\u2581gewe": 58913, "\u2581moradores": 60229, "\u2581ulcer": 52921, "<0xA7>": 1711, "Risk": 49942, "\u2581antics": 52134, "blood": 31227, "ply": 3778, "irth": 11272, "\u2581Diam": 15413, "Custom": 11705, "ountain": 22375, "amd": 45518, "\u2581acidente": 58626, "idung": 62362, "\u4e0b": 63255, "\u2581$('#": 43677, "assadors": 42858, "RED": 22641, "\u13cd": 65256, "\u2581churches": 16627, "\u2581mecan": 46269, "\u2581rac": 7719, "\u2581come\u00e7": 18652, "fra": 33394, "<|mask_192|>": 196, "Evidence": 55555, "\u2581bush": 24504, "bl": 2982, "\u2581Semi": 44786, "erella": 45216, "\u2581husbands": 37407, "\u2581cic": 23037, "bill": 37738, "\u2581enroll": 17872, "\u2581instructional": 37317, "\u2581Indic": 58040, "\u2581carers": 55281, "ECTION": 41883, "orse": 13394, "places": 22294, "\u2581Canad": 8167, "\u2581imprim": 46651, "aterials": 52575, "ombo": 40858, "\u2581Focus": 19556, "ynchron": 24142, "jee": 39202, "\u2581classroom": 13246, "achment": 18043, "\u2581plata": 22117, "asks": 18182, "rake": 38889, "\u2581Crystal": 22417, "\u2581concert": 11618, "agraph": 13186, "zaam": 43325, "\u2581toget": 3358, "\u2581zest": 39716, "much": 33865, "Intel": 42989, "\u2581condoms": 60667, "\u00b9": 63922, "\u2581cooler": 20292, "\u2581Cec": 29568, "\u2581refine": 39847, "\u0631\u0641\u0629": 57810, "\u2581allergies": 27980, "\u043a\u0438": 31633, "\u2581fuse": 33564, "\u2581payout": 31560, ".&": 59839, "\u2581spa": 14717, "\u2581exploration": 16248, "\u2581injury": 7515, "\u2581Simply": 17308, "agar": 19561, "\u2581gout": 52529, "preg": 59844, "\u00ae": 63138, "\u2581Burger": 38097, "bins": 38343, "\u2581angular": 27260, "\u2581stupid": 13198, "\u2581Dut": 43147, "\u2581Oktober": 45978, "\u2581Nico": 52432, "\u2581decorations": 26968, "\u2581fresh": 5295, "Car": 8952, "\u2581seized": 25878, "eden": 12167, "\u2581chopped": 19389, "\u2581Metropolitan": 28346, "\u2581demanda": 37643, "\u2581extensive": 9886, "\u2581Kemp": 50050, "\u2581playa": 52699, "\u2581Alexand": 24524, "\u2581indexing": 54161, "\u2581briefs": 54732, "\u2581oste": 22021, "\u2581characteristic": 17183, "\u2581reduzir": 62207, "\u2581Editors": 56142, "Session": 13841, "\u2581Bru": 12081, "awks": 37127, "\u2581positivo": 43639, "\u2581Gambling": 38028, "\u2581Meaning": 31562, "\u2581decisions": 7507, "juana": 13071, "\u2581FIT": 23459, "<|reserved_1012|>": 1528, "\u2581breeze": 24455, "\u2581french": 32823, "\u3054": 64887, "\u2581livraison": 51580, "\u2581Camden": 47883, "\u00e8tement": 47756, "\u2581Halloween": 15138, "una": 7306, "\u2581v\u00e1l": 44665, "\u5218": 65329, "\u2581appar": 16697, "\u2581Config": 15850, "\u2581costume": 19182, "\u00e9tico": 27872, "\u2581criticised": 49917, "\u2581incomes": 36017, "\u2581scissors": 44417, "\u2581lomb": 51720, "Sep": 21093, "\u2581Har": 5004, "\u2581notre": 11508, "\u2581Ich": 26766, "\u2581awake": 25229, "Invalid": 19583, "tracks": 44709, "\u2581enormously": 52866, "\u2581decisive": 33800, "\u2581spices": 23911, "\ub41c": 63926, "<|mask_414|>": 418, "\u2581alongside": 10489, "\u2581concerned": 8331, "rows": 9601, "amba": 25953, "\u2581Adri": 33840, "untos": 22565, "\ud83d\udca5": 65452, "\u2581vont": 24925, "characters": 61397, "\u2581Jerseys": 30773, "\u2581banners": 40087, "\u0442\u044b": 60887, "Mine": 46001, "\u2581$\\": 4588, "\u05de\u05df": 22245, "\u2581upt": 17926, "\u2581edema": 60097, "\u2581Hemp": 31887, "\u2581domin": 10580, "median": 60348, "\u00edcias": 32611, "conserv": 53163, "\u2581cho": 2951, "owa": 12901, "\u2581attracts": 31625, "\u2581Shadows": 53706, "iley": 12534, "\u2581quality": 3696, "\u2581Philosophy": 34849, "Bras": 55945, "\u0c32": 65444, "\u2581r": 1951, "\u2581Accommod": 59385, "\u2581Bei": 39457, "}:": 34640, "\u2581Scientific": 23602, "\u2581Eden": 31565, "\u2581Regional": 14963, "\u05e0\u05df": 56381, "\u2581restrictions": 11481, "<|mask_464|>": 468, "\u2581Tory": 45354, "JavaScript": 51988, "As": 3146, "\u2581scream": 13207, "\u2581acrylic": 32265, "\u2581Key": 9439, "\u2581Voir": 61127, "\u2581anno": 43657, "\u2581cheers": 52777, "hours": 30617, "\u2581casually": 43409, "\u2581Origin": 34511, "\u2581snacks": 20185, "\u2581Adv": 10251, "allen": 28704, "\u00e4uf": 45403, ".\\[[@": 62826, "\u2581Hes": 60744, "\u2581Funding": 38464, "\u2581Collect": 18079, "\u2581Syrian": 24388, "\u6211\u4eec": 41155, "\u2581Arr": 56076, "aching": 4471, "\u2581locally": 14037, "different": 32897, "Organization": 52066, "azor": 62897, "\u2581Global": 9325, "\u2581Mast": 44683, "\u2581FL": 13838, "jado": 47739, "\u2581caliber": 40088, "<|reserved_273|>": 789, "\u2581chairs": 17304, "other": 2488, "\u2581advancements": 40566, "\u2581hobby": 22056, "\u2581Ly": 12098, "\u2581Cardiff": 40300, "\u00fastria": 45508, "ignant": 22481, "Gra": 41799, "BY": 20800, "udging": 56884, "\u2581salsa": 34199, "Algorithm": 51608, "hin": 25135, "UTO": 32048, "initial": 20192, "\u2581Cabernet": 62714, "\u2581innings": 18966, "Desde": 33230, "\u2581ruled": 16647, "ibia": 35442, "\u2581presso": 47238, "\u2581LAST": 60839, "\u2581Borg": 35616, "\u2581serenity": 61296, "etable": 37723, "cash": 40229, "Wenn": 58321, "\u2581kittens": 50725, "\u2581alternativas": 57879, "<|reserved_395|>": 911, "edge": 11944, "\u0153": 63174, "\u02b9": 65159, "\u2581foray": 62093, "\u2581characterize": 36105, "SK": 24341, "\u2581Few": 33551, "\u2581testim": 11875, "<|mask_99|>": 103, "\u2581occasion": 8242, "\u2581Taxi": 57514, "\u2581spoke": 9488, "\u05d7\u05d9\u05d3": 60801, "\u2581indign": 50294, "JV": 45196, "\u2581restore": 13293, "Serializer": 30872, "ENN": 55268, "\u2581DU": 33103, "\u2581Walls": 58229, "\u75c5": 64944, "\ud83d\udd34": 65353, "\u2581amended": 24886, "gray": 31452, "\uc2dc": 63496, "\u2581retain": 14877, "\u2581pathogen": 49895, "Alors": 53330, "\u2581quantification": 58865, "\u2581motive": 32372, "\u2581nonex": 57733, "regation": 18548, "rong": 21960, "\u2581Mr": 4948, "\u2581\u05d1\u05d5": 34442, "\u2581AV": 17500, "\u2581Pharmacy": 26053, "nous": 43080, "<|mask_502|>": 506, "baz": 42777, "\u2581Zel": 31041, "\u2581->": 6223, "\u2581undefined": 16918, "\u00eater": 53025, "Linda": 58384, "oplus": 58667, "\u02c8": 63880, "olare": 33377, "\u2581\u0648\u0644\u0627": 42060, "\u2581Kensington": 61597, "\u2581fifth": 11583, "nob": 50218, "\u2581veil": 41640, "\u2581leisurely": 55197, "cente": 33768, "\u2581hepat": 26839, "\u2581notwithstanding": 48269, "\u2581prognosis": 38641, "\u2581tocar": 52310, ".\u2026": 43629, "<|reserved_387|>": 903, "\u2581aumentar": 34318, "Natural": 35705, "\u2581engineers": 16310, "\u2581balm": 53606, "Attribute": 12844, "chaften": 38859, "<|mask_292|>": 296, "ecd": 31706, "pts": 27634, "voc": 20543, "\u2581thread": 7675, "+-": 39940, "IRO": 56012, "\u2581significado": 55702, "<|mask_234|>": 238, "chall": 32286, "\u2581leaking": 35512, "\u2581demos": 45117, "\u2581Subway": 62808, "\u2581philanth": 32079, "\u2581Outside": 31083, "activ": 12604, "\u2581whining": 57652, "\u2581Divid": 60249, "local": 7900, "----": 2301, "\u2581facilities": 8081, "False": 12502, "anhas": 61552, "\u2581Ramos": 40666, "\u2581army": 11660, "converter": 60625, "\u2581\u0623\u0641": 59003, "ANO": 47074, "\u2581commande": 41233, "\u2581bead": 40716, "lw": 59868, "\u0161": 63228, "\u2581\u00e8": 6262, "\u2581hym": 40052, "\u2581offers": 4350, "\u2581Drop": 21162, "\u2581Mason": 21185, "een": 9728, "Sl": 12866, "\u2581enh": 5785, "\u2581abused": 26224, "\u2581Miche": 34682, "\u2581encrypt": 42590, "\u2581battered": 48561, "Marshal": 49948, "\u05de\u05d7": 55993, "\u200a": 63285, "\u2581\u0627\u0644\u062f\u0648\u0644": 51082, "\u6790": 64053, "\u2581utilise": 35071, "ofi": 60298, "achable": 35053, "follow": 27849, "Germ": 30841, "\u2581stagn": 36845, "\u2581Monterey": 53781, "gem": 21248, "RODUCTION": 57624, "ox": 3513, "template": 11821, "\u2581bore": 25582, "\u2581ajout": 42288, "\u2581punctuation": 50827, "\u2581Videos": 24564, "\u2581Politics": 29581, "\u2581mulher": 24858, "Recycl": 56313, "woods": 45783, "\u6863": 64219, "\u2581\u05d4\u05e4": 18394, "medi": 4274, "<|reserved_263|>": 779, "Sol": 25763, "\u2581equity": 13027, "\u2581Res": 3382, "\u2581answ": 4154, "\u2581Ghost": 21421, "\u2581touring": 25159, "\u2581\u2581\u2581\u2581\u2581\u2581\u2581\u2581": 1897, "\u2581shaped": 16673, "Categories": 29592, "\u2581linux": 33433, "\u2581Hamm": 27585, "isty": 57076, "ales": 3958, "\u2581israel": 51854, "\u2581aut": 2546, "lor": 5927, "\u2581cler": 34133, "\u2581lose": 6813, "mer": 2308, "\u2581metro": 24070, "izable": 14076, "<|reserved_318|>": 834, "\u2581Zambia": 51703, "\u2581discontin": 26951, "GD": 32043, "\u2581ASAP": 44510, "Ps": 11365, "\u2581sidebar": 38111, "Foreign": 37310, "\u2581crick": 55303, "trace": 24558, "\u2581\u0628\u0627\u0644\u062a": 55364, "\u2581Yorker": 47591, "\u2581Ph": 3178, "\u2581graduate": 11423, "\u2581Additional": 19620, "\u2581brace": 18785, "\u2581axe": 44264, "\u2581pitches": 33442, "\u2581producto": 27196, "\u00f4": 63108, "\u2581play": 2387, "\u2581desaf": 27368, "\u2581Copyright": 10867, "\u2581Eclipse": 33778, "\u2581mei": 60175, "estamp": 15411, "\u2581bout": 14175, "\u2581Military": 20622, "icar": 29335, "Parameters": 17642, "Formatter": 38814, "\uc608": 64243, "\u2581vegas": 48096, "\u2581injection": 16948, "\u2581ICE": 40961, "\u2581utterly": 25052, "\u2581Myth": 39788, "\u2581rejection": 24523, "++++": 37486, "\u2581viv": 12194, "\u2581Fasc": 58256, "`": 63035, "\u2581drawings": 21411, "\u2581\u0648\u0627": 34302, "\u05d5\u05dc\u05d5\u05ea": 57169, "\u2581rejecting": 46975, "\u2581timeframe": 45463, "<|eom|>": 518, "merc": 34187, "\u2581cl\u00e1s": 42574, "Score": 25742, "September": 20910, "\u2581R": 1955, "\u2581rewards": 15683, "\u2581WAS": 32191, "\u2581wallet": 15915, "\u2581empowered": 35292, "\u2581Tail": 36570, "\u2581comply": 16923, "\u2581christ": 20548, "\u2581claro": 23446, "\u2581Creator": 31393, "\u2581fatto": 32938, "Why": 7177, "culation": 42237, "\u0628\u0629": 25392, "\u2581M\u00e9t": 53000, "\u2581Pos": 20782, "\u2581bieten": 56295, "been": 34312, "\u2581Street": 5960, "ugi": 40452, "\u2581epid": 15222, "\u2581executed": 15240, "\u2581horns": 39886, "Dream": 35471, "\u2581lawmakers": 23034, "\u2581organizational": 22304, "\u2581Legion": 35136, "\u2581plague": 36133, "<|reserved_182|>": 698, "<|mask_362|>": 366, "faces": 14764, "forum": 36441, "\u2581Abr": 23058, "blo": 21541, "uesto": 16258, "\u2581prevailed": 53797, "apos": 37424, "\u2581Gr": 3343, "Resource": 11761, "\u2581melt": 14907, "omas": 6826, "\u2581Hampshire": 23408, "\u05d9\u05dc\u05ea": 55295, "\u2581recibi\u00f3": 57129, "Therefore": 23153, "\u2581automate": 35272, "ate": 1930, "\u2581vast": 9298, "\u2581Mercury": 30161, "\u00edda": 25067, "sz": 36798, "\u2581populations": 14157, "\u2581Espa\u00f1": 44812, "\u2581puppies": 31635, "\u2581bet": 2276, "\u2581AFC": 39496, "\u2581WORK": 35084, "acterial": 36282, "ross": 2825, "\u2581digital": 5043, "\u2581Eis": 37479, "\u2581aggrav": 27348, "\u2581earth": 6925, "\u0628\u064a\u0629": 41972, "\u2581recognise": 25993, "\u2581shielding": 61471, "notch": 39052, "\u2581Claude": 39681, "\u2581ample": 23232, "\u2581clean": 3979, "ivas": 10283, "\u2581McGregor": 53561, "\u753b": 64124, "\uc54a": 64262, "\u2581/*": 13117, "]):": 48287, "\u2581Android": 7135, "listener": 39041, "\u2581int\u00e9gr": 44582, "\u2581mong": 52155, "\u1e0d": 64956, "<0xC8>": 1744, "\u2581cookies": 10911, "\u05e1\u05d8": 34309, "index": 5697, "ArrayList": 31108, "done": 17850, "\u2581linha": 31290, "\u2581rifles": 40875, "ACCESS": 50664, "\u2581infancy": 55074, "\u2581Cone": 31271, "terrorism": 55905, "Shopping": 55584, "Quem": 47361, "quet": 14975, "\u2581Wil": 8017, "\u2581zombies": 36646, "\u2581Buddy": 37779, "\u2581attenu": 37847, "\u2581appartement": 43779, "Position": 13600, "uentes": 31623, "\u52a0": 63341, "of": 2871, "ology": 2954, "\u2581Nearly": 34363, "stasy": 58036, "itutas": 23239, "Bus": 22817, "intent": 37076, "\u0431\u043e": 39553, "\u2581THERE": 52052, "Rele": 41693, "\u2581devil": 25603, "\u2581Don": 4606, "stat": 14200, "\u2581XV": 33152, "\u2581simulate": 35109, "\u2581Schro": 59689, "\u2581gold": 5294, "\u2581forma": 7710, "phin": 25486, "minent": 32927, "\u2581tresp": 52407, "\u2581suppl\u00e9ment": 42901, "\u89c9": 64774, "\u2581whimsical": 56225, "\u2581Ex": 3016, "video": 16601, "definitions": 61335, "\u2581Rough": 45201, "\u2581lovers": 17225, "\u2581buffers": 48317, "ou": 1817, "\u2581sexes": 58260, "LY": 13288, "\u2581user": 4065, "Gl": 9963, "\u2581credits": 15488, "\u2581liv": 7953, "Whit": 54050, "Ray": 24183, "\u00d2": 65233, "\u2581princes": 43227, "\u2581g\u00e9": 21136, "\u2581Wells": 24704, "ilation": 12822, "\u2581Stories": 21258, "\u2581PLA": 53419, "\u2581lobb": 35745, "eas": 56923, "\u0435\u043d": 15122, "\u2581\u0623\u0643": 29860, "\u2581VER": 42512, "\u2581Atl\u00e9tico": 56151, "\u2581pals": 33309, "\u2581toasted": 42732, "\u2581excited": 7190, "lated": 29447, "\u2581wearable": 45175, "\u2581Shack": 54295, "\u2581aperture": 40613, "\u2581zou": 27673, "\u2581${": 11933, "\u2581realistic": 15442, "<0xED>": 1781, "\u2581viajes": 61391, "\u2581Belf": 34736, "\u2581(_": 24508, ";}": 26601, "\u2581exams": 22563, "eners": 32533, "\u2581broader": 17971, "\u2581boundary": 17975, "----------------------": 54925, "\u2581Baden": 62129, "\u2581consequently": 27149, "Statistics": 36312, "\u2581diamonds": 28041, "\u2581Elk": 51815, "Pat": 10918, "bors": 35320, "anian": 52073, "itic": 32792, "\u2581Neon": 55335, "avoid": 36334, "\u2581asserting": 55316, "\u2581advancing": 27009, "\u2581Boo": 57575, "\u2581forgetting": 36935, "stim": 39555, "\u2581solicitar": 52293, "\u2581cessation": 53345, "\u2581Skype": 31045, "ANA": 27763, "Magn": 43771, "\u2581cheek": 24815, "\u2581September": 5359, "\u2581Associa\u00e7\u00e3o": 51354, "aries": 5475, "\u2581enabling": 16726, "\u2581driveway": 27999, "\u2581jouw": 38398, "\u2581Humph": 44056, "\u2581proceed": 7547, "\u2581comportamento": 53230, "ut": 1877, "ureau": 10420, "\u2581Venetian": 62246, "spaces": 56938, "\u2581bamboo": 34503, "\u2581c\u00e9l\u00e8": 45941, "\u2581vois": 59053, "Rom": 27535, "\u2581Elisabeth": 62574, "ymour": 58353, "Observ": 35673, "\u2581rented": 28720, "\u2581Preheat": 61098, "chemical": 31763, "\u2581Posted": 23270, "\u2581admire": 21657, "ipelago": 56417, "scribed": 55091, "\u2581styl": 21973, "\u2581Ross": 13808, "\u2581privately": 26832, "\u2581Basketball": 27662, "\u2581sos": 62695, "Nut": 44179, "\u2581ruas": 53981, "\u2581recette": 56575, "ymbol": 11466, "\u2581Aan": 57606, "\u2581Among": 13445, "\u2581Series": 8844, "Euro": 15401, "getting": 35514, "\u2581was": 1954, "\u2581Dracula": 61000, "\u05d5\u05dc": 6298, "\u00e9ct": 33586, "GE": 11359, "pletion": 22500, "ention": 3113, "\u2581Default": 19189, "\u2581advertised": 29329, "\u2581wanneer": 47950, "vable": 27320, "\u2581dentist": 24600, "aff": 3686, "\u2581agua": 21341, "akov": 56513, "ussi": 9045, "\u2581los": 2881, "laub": 48676, "\u2581unserer": 46016, "\u2581normally": 9289, "\u2581Anatomy": 60067, "broadcast": 59484, "\u5bdf": 65245, "\u2581referrals": 38030, "\u2581exempl": 13533, "lung": 27824, "\u2581rich": 6841, "\u2581eagle": 36037, "oggles": 43574, "\u2581precisam": 50913, "\u2581recomm": 3961, "Own": 19318, "\u2581devi": 36643, "iva": 5416, "flies": 28524, "sheet": 22335, "\u2581shri": 51873, "\u2581catered": 61463, "\u2581Honolulu": 53925, "\u2581cartilage": 46670, "\u2581drunken": 43605, "\u2581compared": 5473, "\u2581Azerbaij": 39996, "\u2581natives": 45993, "\u2581capture": 10146, "\u2581eg": 24129, "<|mask_326|>": 330, "asc": 5398, "intendent": 26521, "\u2581pickle": 46492, "\u2581arrested": 11338, "\u2581Nav": 8470, "\u2581sistema": 12427, "\u2581irresist": 42477, "construct": 12784, "\u21cc": 63756, "fac": 21519, "fresh": 45353, "emb": 19002, "\u2581\u2581\u2581\u2581\u2581\u2581\u2581\u2581\u2581\u2581\u2581\u2581\u2581\u2581": 4830, "\u2581propriet": 25827, "orias": 25390, "morning": 58651, "\u2581facil": 18107, "\u2581sells": 19827, "\u00e7\u00e3este": 46141, "\u2581\u05d0\u05d3\u05dd": 60895, "\u2581Table": 9536, "\u2581PROF": 43119, "tele": 30398, "\u2581rept": 41488, "Calculate": 32200, "\u2581HEAD": 44770, "startsWith": 58959, "\u2581nerd": 50117, "\u2581mitochondrial": 36712, "Living": 36111, "\u2581Harr": 11704, "\u2581coinc": 14950, "\u05d0\u05d5\u05ea": 24436, "\u0327": 64816, "\u2581verm": 46857, "<|mask_503|>": 507, "aires": 8163, "<|reserved_379|>": 895, "\u2581w\u00fcrde": 58127, "\u2581CET": 59731, "auch": 50222, "\u2581Service": 6215, "coverage": 49248, "\u2581debemos": 55404, "\u2581input": 5739, "\u2581additives": 41604, "\u2581ph": 2373, "\u2581\u2581\u2581\u2581\u2581\u2581\u2581\u2581\u2581\u2581\u2581\u2581\u2581\u2581\u2581\u2581\u2581\u2581": 7397, "sd": 11998, "\u2581index": 6263, "\u2581radical": 13681, "understand": 52332, "Categorie": 34522, "\u2581Mori": 59652, "\u2581CONDITIONS": 20866, "<|reserved_793|>": 1309, "\u2581Petition": 62412, "<0x30>": 1592, "\u2581Doe": 55876, "\u2581unfair": 20193, "\u2581mismas": 61429, "\u00dfen": 20517, "gradle": 41490, "\u2581Flickr": 45243, "sudo": 34214, "\u2581Syn": 21853, "\uae30": 63377, "\u2581deals": 8742, "\u2581d\u00e9cou": 17131, "\u2581sten": 56285, "\u2581injunction": 43045, "ards": 3154, "\u2581armed": 15385, "\u2581LOOK": 56484, "Endpoint": 30217, "\u2581inici": 16325, "\u2581verder": 38966, "\u2581inherently": 34639, "\u2581accessible": 9701, "tom": 29654, "\u2581Agencies": 59693, "\u2581Sign": 9436, "\u2581\u0648\u064a": 27776, "\u2581safety": 5389, "\u2581Steak": 49372, "Target": 14227, "\u2581Werner": 53165, "\u1ecd": 64395, "\ud835\ude74": 65472, "mission": 6668, "genic": 40933, "\u2581Constitutional": 43010, "\u2581trunk": 24981, "\u2581motivo": 29404, "\u2581reboot": 31168, "engono": 50137, "\u2581Unlike": 17245, "\u2581joven": 34709, "\u2581ayant": 33660, "\u2581Abs": 15935, "\u2581Warehouse": 40719, "\u2581borrow": 11215, "({\\": 35065, "zn": 44365, "ructor": 28741, "\uff0e": 65101, "\u2666": 63785, "\u2581option": 4345, "\u2581majority": 6697, "\u2581d\u00e9c": 11593, "\u2581Apart": 18477, "\u4f01": 64882, "\u2581podr\u00e1n": 51441, "\u2581Gym": 30768, "chien": 46714, "\u2581Plays": 62090, "\u0dd2": 64912, "\u2581Belgian": 32360, "colored": 30512, "offer": 41960, "\u2581Shi": 34196, "\u2581magnets": 45249, "\u2581conjug": 31614, "\u2581Sara": 24475, "\u2581delinqu": 48433, "\u2581ench": 38633, "\u2581\u0625\u0644\u064a": 61077, "\u2581Tarant": 61256, "li": 2313, "\u2581penet": 16433, "\u2581conseil": 43796, "ULL": 6735, "IR": 5575, "\u2581drained": 34239, "\u2581LV": 37957, "\u5f0f": 63339, "\u2581Koch": 35453, "\u8ba8": 65295, "related": 8025, "Length": 12405, "\u2581custody": 17717, "].[": 45199, "\u2581ranger": 59319, "\u2581definite": 27190, "\u2581homestead": 53827, "\u2581texto": 25008, "\u2581commission": 8879, "\u2581technicians": 27073, "\u2581compl\u00e8te": 52489, "\u2581Dest": 16207, "issue": 4088, "cean": 8178, "ogg": 19274, "\u2581Mayor": 15436, "\u2581obra": 20434, "\u2581submarine": 44672, "irtual": 9945, "\u2581b\u00e9n\u00e9": 26082, "\u2581Verd": 47671, "\u00c2": 63194, "\u5143": 63640, "\u2581Larson": 56718, "FOUND": 59627, "ixas": 50422, "<0x6B>": 1651, "requ": 3583, "paths": 31130, "\u2581inks": 56283, "MRI": 53546, "\u2581resil": 17797, "ja": 5119, "\u2581Departments": 62346, "\u2581laten": 36353, "ruly": 46096, "\u2581haben": 16145, "xy": 6342, "Furthermore": 26705, "radio": 26916, "is\u00e9e": 31853, "idan": 35586, "udades": 44342, "\u2581viruses": 20923, "\u2581floors": 17624, "ritt": 46900, "cp": 13260, "\u2581custod": 37461, "\u2581Byte": 34662, "\u8be2": 63827, "Pho": 62687, "ensing": 15566, "Ro": 25279, "\u2581escenario": 56095, "**": 2330, "\u2581Bollywood": 34065, "LEX": 36799, "\u2581estuvo": 47389, "\u2581Napa": 58970, "meaning": 32646, "\u2581gek": 26961, "<|reserved_633|>": 1149, "\u2581Buy": 9972, "\u52d5": 64023, "\u2581vs": 6732, "\u2581Rodgers": 39163, "\u2581Bab": 16546, "\u2581Optim": 23825, "ClickListener": 37977, "increment": 50211, "kin": 7922, "i\u00e3o": 13014, "each": 19053, "rile": 34228, "opathy": 28536, "un": 1907, "\u05db\u05dc": 12639, "\u00e9tences": 45242, "\u2581inter\u00e9s": 38224, "<0x56>": 1630, "eq": 11920, "emporary": 9174, "\u2581fertil": 18010, "acket": 46207, "{\"": 11340, "\u2581Fil": 6918, "\u2581caffeine": 27862, "Stub": 46610, "\u2581adored": 52648, "Middleware": 49051, "\u2581glo": 42710, "\u2581economia": 41091, "\u2581a\u00f1os": 9684, "\u0649": 63106, "hya": 53690, "\u2581markup": 48614, "\u2581dividends": 34250, "\u2581nooit": 57680, "\u05d2\u05d9\u05e2": 41681, "\u2581SM": 15990, "\u2581encounter": 12148, "\u2581Offices": 52652, "\u2581entrada": 24625, "cest": 41988, "\uf06c": 64548, "\u2581indef": 27403, "\u2581hooked": 24740, "\u2581CLA": 38093, "\u2581end": 2541, "\u2581poder": 10616, "\u2581chunky": 54566, "\u2581deserts": 61464, "\u2581disband": 62168, "rera": 18032, "jp": 39977, "\u2581comprend": 22610, "commended": 23208, "\u2581Gold": 6064, "ieron": 13312, "\u2581frag": 8959, "\u2581\u05d1\u05e4": 32924, "umbr": 56679, "arei": 56798, "\u2581distinct": 8593, "\u2581audi": 24863, "\u2581calculator": 28640, "\u2581yielded": 37541, "\u2581Cryptocurrency": 59360, "\u2581Condition": 23811, "\u2581illusion": 28286, "\u2581brings": 7776, "se": 1879, "\u2581Contest": 31825, "ellant": 13835, "\u2581Lloyd": 28040, "iments": 8693, "aros": 49078, "\u2581alot": 31969, "Depart": 61983, "\u2581screenshot": 29998, "\u2581resear": 7762, "Configure": 47891, "pr": 2467, "\u2581go": 2038, "aty": 40854, "\u00e7u": 27044, "\u2581mostra": 29733, "\u2581Menschen": 34064, "\u2581courtesy": 19293, "\u2581idiot": 32672, "keleton": 54857, "\u2581eyeb": 23965, "\u2581forgiven": 41403, "\u2581preferred": 11241, "Control": 11887, "Member": 20995, "\u2581Teatro": 41967, ":$": 50340, "nement": 16576, "\u00e9s": 3070, "///": 4702, "\u2581fluids": 31252, "\u2581nichts": 58129, "query": 7693, "<|reserved_507|>": 1023, "\u2581bede": 54729, "\u2581demolition": 40240, "zzo": 22950, "Neill": 40994, "rait": 9977, "\u2581cents": 18954, "\u2581Shared": 38272, "\u2581Wester": 52748, "\u04af": 64927, "\u2581Opportun": 27726, "\u2581ribbon": 25791, "\u2581Liv": 20339, "\u2581compression": 20920, "\u2581redund": 26398, "Types": 12596, "branded": 45615, "\u2581erg": 19068, "\u89a7": 65402, "\u2581rockets": 48048, "r\u00e9al": 42485, "\u2581wide": 5263, "\u2581predomin": 19903, "\u2581Done": 31506, "arca": 48652, "\u2581Morris": 20106, "UGE": 39632, "\u2581criticized": 27410, "\u2581WEEK": 56031, "atique": 17276, "\u2581Alexander": 15553, "Static": 31074, "\u2581p\u00e9": 30131, "\u05d9\u05dc\u05d4": 32528, "\u2581haz": 12904, "\u05d7\u05d6": 61771, "hest": 5742, "erk": 11061, "\u2581allevi": 26199, "\u2581Chip": 27357, "\u2581signatures": 27431, "\u2581Definition": 34204, "\u2581Mitchell": 20503, "MCA": 44188, "\u2581withhold": 60455, "\u2581van": 3460, "Awards": 58389, "awl": 60080, "Justice": 51205, "ked": 30188, "ClassLoader": 62070, "\u2581Carmel": 51660, "\u2581voc": 5894, "\u2581Kit": 10871, "\u2581presidente": 13907, "\u2581possible": 3326, "\u2581inject": 15355, "\u2581exige": 49388, "\u7684": 63125, "\u2581hp": 31123, "\u2581ammon": 38220, "tox": 54370, "States": 37450, "Nic": 33593, "\u2581enrichment": 37987, "markt": 52246, "\u2581Chamber": 19774, "\u2581nodes": 14467, "\u2581verk": 31361, "\u2581blat": 39130, "\u2581aplica\u00e7\u00e3o": 44600, "taking": 33107, "\u2581greatness": 39135, "ead": 3401, "\u2581deploy": 10965, "\u2581anatomy": 36517, "\u2581camel": 44843, "\u2581vooral": 48045, "\u05db\u05d9\u05dd": 33506, "\u4fe1\u606f": 43011, "\u2581Fuck": 52274, "iggins": 60810, "ool": 2380, "vu": 38387, "\u2581cr": 2674, "\u2581removes": 25855, "\u2581touching": 19700, "\u0bc8": 65118, "\u2581plaza": 38336, "\u2581rear": 10600, "\u2581habilidades": 50322, "\u2581matrimonio": 56507, "\u043b\u043e": 29301, "etch": 8605, "\u2581\u0627\u0644\u0645\u0639": 38731, "\u2581AO": 53977, "\u2581gran": 8942, "ulgence": 57295, "bolic": 60304, "\u2581titanium": 41152, "\u2581ser\u00e1n": 41476, "abul": 17665, "\u2581sip": 36751, "\u2581enzymes": 26074, "XXXX": 41748, "PAT": 49383, "\u2581cavalry": 56602, "\u05d9\u05dc": 9048, "\u2581membres": 31828, "\u76f4": 63739, "\u2581sib": 16775, "\u2581Goat": 60052, "operators": 56663, "\u2581Natalie": 34913, "\u2581Renee": 62197, "\u2581co\u00fb": 50028, "\u2581interacted": 61145, "\u2581weld": 57640, "elijke": 18709, "\u2581SSL": 24774, "o": 62938, "\u4e1c": 64372, "\u53c2\u6570": 47166, "\u2581adapter": 21175, "\u2581Is": 3078, "\u2581savoir": 20048, "\u2581diagnostics": 42948, "\u2581Leave": 22718, "\u2581Mari": 20221, "\u2581circa": 29428, "\u2581sequence": 9514, "bew": 49762, "\u2581________________": 53597, "edades": 52306, "posto": 59762, "\u2581independ": 5529, "\u2581espa\u00f1": 21514, "\u2581simulated": 31829, "gotten": 46802, "\u2581campaign": 5340, "Entre": 30752, "REQUI": 50609, "\u2581comunidade": 39812, "\u2581denote": 34452, "<|reserved_320|>": 836, "rata": 41244, "Stand": 17474, "Disc": 16524, "\u2581you": 1876, "ILED": 43094, "der": 2486, "\u2581Yeah": 16039, "\u2581chick": 18930, "writ": 8182, "\u2581setback": 51728, "MN": 52814, "aled": 5386, "\u2581Sonic": 35202, "\u2581Attack": 33536, "\u2581agenda": 13392, "\u2581neglect": 15976, "\u2581buffalo": 47934, "\u2581Neighborhood": 42465, "\u2581dend": 50536, "\u2581\u05de\u05d7": 20178, "\u0446": 63259, "<|mask_293|>": 297, "\u2581strangely": 45801, "Ll": 61274, "Eight": 44181, "\u2581Poverty": 55136, "haft": 48032, "\u2581inund": 47135, "M": 62971, "ulatory": 27675, "\u53d1": 63340, "\u2581nominations": 32182, "\u2581GS": 33351, "\u2581swore": 58538, "<|reserved_283|>": 799, "\u2581Silicon": 31133, "\u2581trailed": 54160, "\u2581traged": 18349, "catalog": 43993, "\u2581now": 2437, "oddsidemargin": 48284, "\u2581Ming": 39275, "\u00e9tiques": 55344, "\u2581muff": 23838, "Off": 9695, "\u2581materially": 47988, "[*": 57943, "\u2581defiant": 60592, "Fred": 36939, "\u2581hype": 27193, "\u2581retrou": 22041, "<|reserved_788|>": 1304, "\u2581brightest": 45154, "\u21b5": 65110, "phasis": 35994, "\u2581Took": 60989, "\u2581dam": 4213, "\ub9cc": 63772, "mbra": 56014, "ennial": 38087, "\u2581conversational": 52218, "\u2581AIS": 55976, "\u2581individuality": 54494, "\u2581Cary": 55707, "\u2581makeover": 50897, "\u2581arbitrarily": 60193, "\u2581Intent": 37177, "\u2581tuin": 60613, "\u2581atom": 25531, "\uac1d": 64890, "adj": 61806, "\u2581Coco": 45532, "\u2581internationale": 40195, "writers": 32673, "\uc601": 64474, "\u2581\u00fatil": 37877, "<0x80>": 1672, "\u2581shake": 17883, "yaml": 26279, "\u2581directing": 27241, "DI": 10091, "\u2581traders": 17669, "\u2581wardrobe": 25489, "\u05d3\u05dd": 31275, "\u2581cuis": 15057, "\u2581\u0627\u0644\u062c\u0645": 54552, "\u2581swift": 21290, "\u2581l\u00e1": 19630, "\u2581piss": 25959, "Diagn": 34156, "\u2581bathing": 39675, "\u2581dare": 21018, "\u2581premature": 27085, "\uc678": 64679, "\u2581underlying": 12431, "\u2581IBM": 21237, "coles": 32010, "\u2581Z": 2835, "ESSION": 34565, "\u2581minuto": 49264, "prefix": 20235, "Park": 27325, "\u2581LIMITED": 28086, "\u2581dug": 27970, "\u2581deleting": 38302, "DUCTION": 46369, "\u2581Consequently": 25494, "\u2581Petroleum": 42387, "Comments": 17202, "pres": 11717, "athing": 47835, "Bang": 48056, "\u2581thickness": 17701, "\u2581denim": 37059, "\u2581F": 1947, "\u2581privat": 35093, "\u30e0": 64005, "\u2581Percent": 42698, "\u2581congressional": 31363, "\u2581mandate": 22775, "\u2581Chu": 48033, "\u064a\u0634": 46957, "\u2581Adams": 18528, "\u2581medial": 57208, "\u2581igual": 20297, "\u2581fried": 21493, "\u2581\u05dc\u05e1": 39745, "\u2581elevation": 24952, "\u2581relat": 16545, "\u2581Votre": 56314, "\u2581termina": 57562, "Definition": 17886, "March": 18289, "\u2581SMART": 57585, "leine": 51293, "\u2581fought": 15405, "geq": 27269, "boot": 12277, "\u2581edific": 34086, "\u2581pencils": 46284, "\u2581devez": 40557, "\u2581curtains": 33454, "\u2581Kathleen": 42385, "lavery": 58915, "\u00d1": 63405, "\u2581Princ": 15768, "\u2581nuestra": 17650, "\u2581Talks": 55368, "rijf": 57457, "ensuremath": 47011, "\u2581mills": 26740, "Soph": 45911, "}+": 32460, "\u2581synthesis": 20563, "schedule": 38789, "\u2581california": 59226, "\u2581Orioles": 56219, "\u2581mon": 2498, "istro": 14564, "\u2581C\u00e9sar": 58039, "\u2581Inner": 35637, "\u0d28": 65064, "china": 52643, "\u2581Bars": 36635, "\u2581confident": 8562, "onte": 14666, "TB": 27683, "\u2581volte": 42863, "\u2581lumi\u00e8re": 42914, "\u2581grasses": 49842, "\u2581stigma": 36825, "<0xF8>": 1792, "Flight": 49174, "\u2581spent": 5622, "\u2581velocidade": 56175, "\u2581north": 7603, "\u2581medium": 7282, "\u2581\u0641": 4470, "\u2581subscriber": 34271, "acci\u00f3n": 27532, ">{{": 35274, "<|reserved_420|>": 936, "\u2581destru": 39173, "\u2581Tow": 28604, "\u2581illumin": 36459, "\u2581smith": 62708, "\u2581Lois": 51294, "\u2581woods": 18731, "\u2581monastery": 42614, "\u0643\u0648": 59697, "\u30ce": 64875, "\u2581October": 5444, "\u2581Wings": 36975, "\u2581Hash": 19878, "\u2581pics": 20627, "\u2581Init": 14626, "iels": 25034, "\u2581Kear": 60343, "\u8907": 65113, "\u2581Luis": 18909, "\u064a\u0631\u0627": 58612, "bi": 7738, "Comme": 51268, "information": 17557, "\u2581romp": 62127, "\u2581Son": 8450, "\u2581Equipment": 20423, "\u2581Brace": 48238, "\u2581reasoned": 52843, "erd": 8686, "\u2581ANOVA": 60093, "\u2581Ball": 10893, "Fee": 58526, "\u2581Victor": 14656, "\u2581actually": 3302, "\u2581location": 4889, "\u2581Takes": 44329, "\u2581depended": 50060, "\u2581pelvis": 61030, "\u2581Track": 21487, "asList": 61882, "\u2581minuten": 61930, "\u2581happened": 5817, "\u2581introduction": 10917, "\u2581password": 8996, "\u2581S\u00fcd": 61344, "\u2581Zealand": 11176, "oji": 28374, "\u2581Substance": 62252, "\u2581affaires": 61961, "\u2581flowing": 21308, "igators": 48904, "\u2581Static": 49179, "More": 7781, "Company": 26509, "\u2581Stores": 36197, "\u2581Cassandra": 60036, "rugu": 30053, "fib": 58584, "\u2581Humanities": 49576, "\u2581depressing": 42026, "token": 11941, "\u2581Twenty": 28615, "\u2581University": 3747, "\u2581states": 5212, "\u2581scoop": 32751, "\u2581children": 3310, "\u2581door": 4512, "Di": 15839, "dup": 32789, "\u09cd": 64398, "\u2581assist": 4283, "legate": 21184, "clam": 19654, "ARG": 30850, "plit": 10635, "\u2581feder": 28546, "\u2581cv": 23560, "oyer": 25384, "\u2581Caso": 61875, "former": 19693, "\u045a": 64104, "\u2581Israelites": 57938, "STRU": 38618, "\u8f09": 65313, "\u2581Gordon": 18138, "\u2581settled": 13487, "\u2581darkness": 16734, "\u2581Soci": 25524, "\u2581offline": 19944, "\u2581dumpster": 15345, "\u2581irresponsible": 49285, "\uc740": 63517, "\u2581gym": 12013, "\u2581JSON": 14905, "\u2581Silent": 47930, "porte": 22620, "disc": 15989, "\u2581soaked": 36115, "ternal": 5339, "\u2581achieve": 5662, "\u2581__": 7994, "\u2581grosse": 44114, "sements": 50696, "\u2581trafficking": 27818, "estrian": 57329, "\u2581Cult": 32856, "\u2581suburbs": 33182, "\u2581await": 9519, "\u2581characterized": 16705, "Ik": 35600, "\u2581\u0625\u0644\u0649": 13048, "\u2581Daniels": 40537, "\u2581reluctant": 28136, "\u2581motivates": 55288, "lene": 27258, "\u094b": 63994, "\u2581ahead": 6066, "\u2581treasurer": 59356, "\u2581teach": 8546, "\u2581\u03b2": 26528, "\u2581\u05d4\u05e0": 22679, "adapter": 35843, "\u2581ABA": 60303, "\u2581paso": 27396, "Th": 2392, "\u2581migr": 11831, "\u2581bere": 18810, "\u2581authored": 43178, "\u2581intention": 11843, "vermectin": 47702, "\u5355": 63464, "\u2581ampl": 9631, "\u2581increasingly": 10395, "\u2581surgeons": 38204, "Yeah": 15534, "\u2581Minh": 61981, "\u2581Whereas": 33663, "icrosoft": 5967, "\u040e": 65161, "\u2581MAC": 27157, "iese": 37102, "\u2581bedrij": 27936, "\u2581fif": 7862, "\u2581volum": 61822, "earance": 36683, "\u2581Difference": 45337, "Rock": 25715, "\u2581fam\u00edlia": 24283, "\u2581chain": 8013, "\u2581Suk": 59579, "\ub610": 64645, "\u2581APR": 44768, "\u2581controversies": 60270, "\u00e9r\u00e9s": 52045, "\u2581subtitles": 49508, "\u2581constraint": 28471, "\u2581Freder": 23363, "Scan": 30505, "Com": 3184, "fax": 34235, "rss": 60274, "\u2581derby": 54619, "\u2581silly": 18509, "\u2581clam": 42737, "\u2581\u0440\u0435": 55078, "\u2581capt": 5236, "\u2581Tennessee": 15796, "\u2581sequel": 22813, "i\u00e1n": 58413, "orial": 6296, "unlock": 48019, "\u2581main": 2832, "\u2581faded": 34236, "\u2581rigid": 24420, "\u2581Racing": 20943, "ibus": 27611, "\u0302": 64590, "\u2581Indonesian": 38004, "<|reserved_141|>": 657, "Template": 15431, "intelligence": 59169, "Engine": 17802, "Bu": 18169, "\u2581armour": 50739, "\u2581precise": 14150, "\u2581recentemente": 58814, "decl": 24049, "Ren": 25962, "\u2581statute": 19471, "\ud604": 64409, "\u2581faculty": 12952, "\u2581pent": 30175, "\u2581Adds": 56256, "<>();": 33106, "\u2581policym": 40636, "\u2581num\u00e9rique": 48384, "\u2581mustard": 32098, "\u2581woes": 50561, "\u2581burnout": 53735, "\u2581exact": 4352, "\u2581backyard": 21079, "\u2581preach": 42715, "\u2581sentences": 18878, "Nom": 31196, "\u2581slump": 52457, "\u2581cuerpo": 28082, "\u0639\u062a": 25986, "para": 21886, "ivered": 8466, "\u00facle": 49292, "\u2581SAF": 45861, "\u05d3\u05d9\u05dd": 19873, "\u2581Kurd": 38876, "this": 3585, "\u2581manufactures": 44854, "\u2581exposed": 10850, "\u2581plantas": 38558, "\u2581jumper": 45891, "\u00b1": 63148, "\u2581exped": 18260, "\u2581artesan": 62025, "communication": 38446, "engagement": 53897, "\u2581gratis": 14260, "jury": 30329, "\u2581Cooper": 14264, "coli": 46639, "\u2581Byrne": 53496, "lington": 21658, "gary": 22265, "~~~~~~~~~~~~~~~~": 61727, "sharp": 37114, "\u2581voulez": 46575, "\u2581Resume": 43709, "\u2581compat": 9609, "uw": 46674, "\u2581adhere": 26129, "\u2581BET": 38092, "\u2581Karachi": 54623, "\u2581r\u00e9guli\u00e8rement": 55148, "\u2581combinations": 19519, "\u2581Sample": 28089, "\u2581sparing": 56789, "\u2581dab": 36984, "\u2581passwords": 27246, "\u2581Territory": 39893, "fragment": 40405, "\u2581bail": 17705, "\u2581torne": 52028, "\u7ae0": 64072, "\u2581adopts": 54586, "\u2581hairstyles": 55701, "\u2581Hits": 50271, "\u2581m\u00e9can": 47879, "\u2581herald": 52672, "\u2581esos": 34071, "\u2581Gew": 32081, "\u2581tractor": 34432, "\u2581manpower": 62248, "\u2581bott": 4549, "\u2581couch": 18429, "otional": 25230, "\u2581psic": 30598, "analyse": 54834, "\u2581Dr": 4114, "\u8fde": 63875, "avait": 50491, "defense": 39889, "\u2581\u0645": 3387, "\u2581atu": 32698, "Follow": 16597, "\u2581goodbye": 26892, "\u2581gir": 28842, "\u2581aerop": 42182, "\u2581swapping": 50299, "\u2581Respond": 33686, "\u05d9\u05d0": 35129, "Locale": 43666, "included": 58200, "\u2581Iceland": 25851, "\u2581guides": 15682, "\u2581Jonas": 41574, "\u2581Scholars": 23980, "friendly": 11106, "evaluate": 40718, "Singapore": 60491, "feitura": 33324, "\u2581G": 1968, "\u2581enthusiast": 36957, "\u2581degradation": 25739, "noise": 36697, "\u2581neural": 23224, "\u2581clearing": 23324, "<|mask_196|>": 200, "\u05de\u05d9\u05dd": 20456, "\u2581mole": 9304, "\u2581mesma": 25302, "\u2009\u00b1\u2009": 28823, "ahs": 58662, "todo": 46205, "<|reserved_205|>": 721, "\u2581juillet": 32502, "isser": 26661, "\u2581reception": 15529, "Files": 16987, "intest": 33081, "\u2581pessoas": 11668, "\u2581bueno": 37577, "\u2581acne": 25802, "\u2581arre": 59212, "ernen": 44370, "\u2581HIS": 49332, "ATH": 13087, "yan": 8139, "\u2581laboratory": 15760, "\u2581sin": 6219, "\u2581murdering": 62915, "\u2581statewide": 32959, "\u2581traveller": 53509, "ialect": 27928, "\u8ddf": 64646, "noticed": 44046, "ahu": 22130, "\u2581redistribute": 38466, "Some": 6688, "eredith": 46270, "\uac01": 64282, "\u2581concret": 36518, "\u2581wallpaper": 27268, "intro": 47628, "itory": 51750, "\u2581roasting": 45476, "buy": 22255, "\u0964": 64760, "\u8303": 64390, "\u2581childbirth": 55319, "Clos": 57883, "\u2581burial": 34148, "essions": 7913, "\u2581woo": 53788, "\u2581invested": 16727, "utation": 35365, "\u2581internal": 7226, "\u2581Bringing": 60764, "\u2581fillers": 59481, "enegro": 53240, "<0x83>": 1675, "\u2581Benjamin": 22493, "assador": 18241, "\u2581her": 2174, "avin": 28011, "\u2581broth": 28110, "LINK": 38686, "\u2581conseils": 38941, "param": 4658, "\u2581confess": 27628, "\u2581Designs": 39216, "\u2581appraisal": 42563, "\u2581comforts": 49791, "recogn": 28468, "\u2581conhecida": 56170, "\u05e1\u05d8\u05d9": 56383, "\u2581London": 5799, "\u2581crumble": 58166, "enciones": 58742, "\u044b": 63162, "\u2581Mes": 14958, "ongs": 26647, "\ud83d\ude0e": 65415, "nex": 18846, "ongo": 15717, "\u2581lookup": 32647, "\u2581Hors": 62192, "\u2581pets": 15592, "\u2581\u05e9\u05dc\u05d5": 39354, "\u2581strlen": 56810, "<|reserved_611|>": 1127, "\u2581switch": 6696, "<|mask_246|>": 250, "\u2581traditions": 17133, "\u2581BT": 21704, "\u2581larva": 37402, "\u2581SIN": 59786, "\u2581Gust": 28317, "MIN": 20005, ")\r": 6454, "Texas": 34976, "\u2581dip": 14483, "\u2581Programme": 24948, "\u2581Joint": 23488, "pcs": 54103, "\u2581wherein": 22082, "\u2581hashtag": 38832, "\u2581Metals": 40921, "Skin": 48996, "Parser": 16979, "\u2581VA": 17857, "\u00e9cn": 13021, "seed": 26847, "olid": 10692, "\u2581Manit": 39923, "\u2581kosher": 60999, "f\u00fchr": 37204, "\u2581chi": 17523, "\u2581inhal": 42457, "\u0631\u0633": 51589, "\u2581bib": 15438, "adie": 25690, "\u2581uomini": 54382, "\u2581RF": 22315, "nections": 28692, "\u2581suffer": 12068, "\u2581pi\u00f9": 11444, "\u2581Govt": 57978, "\u2581immersive": 34305, "\u2581unimagin": 50701, "\u2581\u0645\u0642": 53662, "\u2581lending": 21200, "checkout": 53317, "neut": 62081, "Could": 21523, "PARAM": 35703, "Since": 8563, "kit": 12274, "hig": 31128, "\u2581cama": 41376, "\u2581Connector": 54542, "\u2581simul": 55069, "\u2581donation": 17674, "\u0102": 64894, "\u2581Mord": 45396, "\u2581Rust": 28481, "\u2237": 63573, "alth": 2587, "\u2581Swan": 29984, "\u2581generosity": 34620, "\u2581bridging": 57036, "\u2581positive": 5049, "coun": 59006, "Bel": 14521, "\u2581opened": 6646, "\u2581Canvas": 38645, "<|mask_388|>": 392, "lation": 5796, "\u2581WARRANTIES": 16555, "<0x11>": 1561, "\u2581mint": 22385, "\u2581psychedelic": 55460, "marked": 39054, "\u2581Sleeve": 48711, "<|reserved_590|>": 1106, "<|mask_372|>": 376, "\u2581versi\u00f3n": 34814, "\u063a\u064a": 58636, "\u2581Leopard": 62276, "izabeth": 12290, "IL": 4589, "\u2581periphery": 58899, "\u2581Investing": 50729, "\u2581fulf": 22549, "\u2581intervene": 39243, "\u2581canonical": 42859, "\u2581relic": 42713, "\u2581conservation": 15681, "<|reserved_644|>": 1160, "not": 3349, "ild": 2203, "\u2581Vic": 22407, "agit": 26302, "\u2581Residence": 44206, "\u2581dentists": 48815, "abor": 3764, "imas": 18271, "\u2581cudd": 46681, "\u00d4": 63911, "acamole": 61387, "<|reserved_761|>": 1277, "\u2581Presidente": 32921, "\u2581feud": 42815, "ball": 3730, "\u2581Wiley": 49564, "Beck": 59517, "osen": 7252, "\u2581Martha": 28776, "\u2581Hermione": 62410, "Grab": 54105, "\u2581Bulgar": 26167, "\u2581heav": 4758, "\u2581decide": 6955, "\u2581rs": 29261, "Challenge": 55141, "\u2581aplic": 13517, "\u2581From": 5241, "euro": 48143, "<|reserved_670|>": 1186, "<0x12>": 1562, "\u2581ferramentas": 53995, "\u3058": 64427, "\u2581review": 3637, "\u2581Magento": 47745, "\u2581juros": 57207, "\u2581seus": 11134, "\u2581Realty": 43200, "\u2581Knight": 19820, "\u2581Waiting": 48431, "\u2581herramienta": 55169, "Fair": 39401, "Ec": 55292, "\u2581ledger": 47633, "ctrl": 34717, "\u2581Congo": 36035, "Jess": 37516, "ially": 7756, "rain": 3502, "\u2581niveles": 48066, "MON": 33823, "\u2581protection": 6370, "\u2581consists": 10664, "\u6b7b": 64664, "Album": 46097, "\u2581\u0648\u0639": 38716, "\u2581revered": 50894, "\u2581won": 3534, "\u2581Osw": 54002, "\u2581theoretical": 19212, "\u2581Stainless": 23043, "![": 9201, "\u2581Hilton": 29820, "measure": 35922, "\u2581esteemed": 56722, "\u2581zona": 18119, "\u2581installs": 50017, "\u2581delights": 47223, "\u2581leveling": 57990, "acking": 9152, "itut": 15795, "\u2581Bax": 43219, "\u2581prosecutor": 29991, "irectional": 59487, "\u2581remainder": 18791, "jeto": 40568, "\u2581anthology": 45558, "\u2581brands": 8951, "adata": 9884, "ccion": 22893, "\u2581\u0627\u0644\u0635\u062d": 57267, "\ubcc4": 64996, "\u2581analyze": 15174, "\u2581acidic": 40703, "SP": 5846, "Sort": 25591, "\u2581compost": 23862, "\u05d5\u05e0": 39271, "isos": 48586, "\u2581veget": 7476, "tras": 12462, "wed": 14980, "fits": 20912, "Wie": 51218, "\u2581Brooks": 25762, "Bold": 55234, "\u0647\u0648": 58608, "respect": 25768, "\u2581interv": 35045, "users": 14595, "\u2581prevail": 41448, "fond": 46823, "annes": 52642, "\u2581sete": 49927, "boats": 53060, "\u2581countertops": 56772, "blr": 29344, "anders": 58511, "Pack": 11563, "\u2581Romans": 28812, "\u2581PPE": 61775, "\u2581bonding": 32137, "\u2581nom": 5559, "\u2581trailers": 33431, "\u2581kiln": 62797, "\u2581demand\u00e9": 61229, "\u2581beet": 26523, "zer": 8433, "ishi": 26790, "\u2581endeavor": 31303, "\u2581Outer": 49832, "\u2581advisors": 31801, "objet": 50925, "\u2581fict": 22179, "\u2581Wal": 8443, "\u2581singer": 12444, "\u014c": 64566, "sic": 41609, "\u05d7\u05d4": 23717, "uttering": 40759, "<|reserved_717|>": 1233, "\u00edvel": 10466, "\u2581Mead": 25971, "atorio": 30533, "br": 2793, "\u2581oysters": 58984, "\u2581butt": 11085, "\u2581JR": 45608, "Visitors": 62206, "Minister": 58827, "\u2581Major": 14137, "\u2581Matters": 40560, "\u2581obtainable": 39708, "css": 9331, "\u2581incredibly": 10676, "\u2581dinosaurs": 47030, "onian": 32054, "\u2581impro": 3355, "\u2581starter": 19031, "\u2581kopen": 53793, "\u2581Univ": 59401, "\u2581III": 11149, "\u2581Upload": 39063, "\u2581september": 46055, "=%": 29803, "texture": 46310, "\u2581Grim": 50812, "hel": 4625, "ellee": 32934, "avera": 55892, "\u2581watered": 58857, "\u2581strict": 9898, "Azure": 26554, "\u2581Notice": 23142, "\u2581snake": 25701, "\u2581Things": 13957, "\u0081": 64379, "\u2581lodged": 51604, "\u2581ment": 7463, "\u2581roads": 12120, "\u2581dunge": 38576, "\u1d0f": 65445, "span": 4100, "\u2581\u0627\u0644\u0648": 20940, "\u2581then": 2390, "<|reserved_116|>": 632, "Scott": 28440, "\u2581Coupon": 30937, "ullie": 53283, "\u2581suite": 11589, "Sab": 36998, "\u2581caminh": 50516, "utz": 21469, "\u2581popcorn": 35980, "UE": 7970, "Mur": 30379, "Sets": 42449, "\u2581god": 9191, "\u2581themed": 27810, "cip": 43873, "elho": 24065, "\u30fc": 63201, "\u09b2": 64990, "\u2581lengua": 45945, "\u2581brute": 58395, "\u2581complexe": 62847, "\u2581palabras": 35237, "\u2581entrepreneurship": 37037, "hall": 27270, "\u2581intracellular": 40871, "mdat": 31542, "\u2581Recipes": 35951, "Recommended": 37452, "\u2581gu": 2473, "\u2581mobil": 17973, "URE": 12884, "\u2581cleaning": 8961, "izumab": 58881, "\"/": 27642, "\u0648\u0639": 24191, "Mand": 47466, "\u2581Ring": 19061, "\u2581infantry": 43399, "\u2581\\>": 41869, "arriv": 42636, "\u2581Elijah": 49874, "\u2581opci\u00f3n": 37395, "\u0633\u0645": 19168, "\u2581cooperation": 14746, "PH": 14753, "ure": 2018, "\u2581IE": 25477, "\u2581Gand": 24689, "\u2581peroxide": 53370, "ogram": 18593, "pesar": 41533, "\u2581despl": 47742, "\u2581neat": 16920, "\u2581Kanye": 44029, "Packages": 61499, "\u2581Fal": 17157, "\u2581counsel": 9876, "\u2581protections": 31530, "SL": 10562, "\u5c40": 64164, "selector": 39226, "Internal": 20971, "rapeut": 13473, "\u2581overlap": 27244, "Neg": 32465, "\u2581cuad": 35106, "Pt": 56606, "\u79c1": 64707, "\u2581sud": 7309, "hadow": 48075, "writer": 12989, "<|mask_369|>": 373, "\u2581greens": 23448, "\u2581sociology": 48516, "\u2581Candidate": 51173, "\u2581LOV": 19400, "\u2581iOS": 11732, "blog": 11330, "\u2581devem": 29730, "\u8fd4\u56de": 44507, "\u2581nesta": 21211, "\u2581promoter": 32100, "\u2581aulas": 44686, "\u2581cubes": 34636, "\u2581boredom": 48212, "\u2581MF": 49482, "\u2581Bundesliga": 52337, "\u2581polynomial": 43379, "\u2581convoy": 56262, "\u2581overcrow": 56349, "\u2581nat\u00fcrlich": 56223, "\u2581extend": 11259, "\u2581signe": 55711, "\u2581Wahl": 48207, "\u2581Premiere": 39876, "\u2581mot": 3555, "onder": 4069, "single": 23481, "cind": 54341, "surface": 40947, "\u00e9e": 3802, "\u2581elemental": 53250, "\u2581Strategic": 31914, "docker": 20855, "Resume": 56713, "\u2581unlike": 13546, "Operation": 17820, "akan": 49269, "\u2581Ide": 12734, "\u2581Sentinel": 51088, "PUBLIC": 53775, "Mate": 61605, "Construction": 44549, "\u2581Cus": 57198, "\u2581innovation": 10413, "\u2581minced": 53479, "ERE": 10286, "\u2581regenerative": 61376, "\u2581Af": 4421, "<0x32>": 1594, "\u2581rollers": 46867, "\u2581cataly": 32613, "LU": 48285, "\u2581assays": 36077, "\u2581ears": 14893, "\u2581intrigued": 34483, "\u0669": 65408, "\u2581declines": 36979, "\u2581venc": 51976, "qr": 50386, "\u7968": 64991, "\u2581movimiento": 43848, "\u2581grocer": 31253, "\u2581lind": 50940, "ctr": 53904, "\u2581\u05d4\u05e6": 23771, "\u2581paral": 49808, "\u2581hypertension": 29173, "\u2581accomplishing": 51530, "scoring": 57179, "\u2581lure": 36891, "\u2581servic": 59661, "kreis": 61915, "olysis": 62050, "\u2581Nguyen": 54710, "\u2581fav": 3494, "VC": 13810, "\u2581Restoration": 45580, "ogh": 40567, "\u2581\u05d6\u05de\u05df": 57949, "Failed": 23878, "\u2581phil": 25362, "Moder": 60470, "\u2581Term": 11017, "\u2581includ": 2383, "\u2581agency": 7783, "entries": 36264, "\u2581;-)": 53080, "entities": 43481, "\u2581ofe": 43945, "\u2581ajuda": 31790, "hta": 49350, "\u2581ding": 44413, "\u2581dimension": 13265, "\u2581wieder": 23554, "NES": 62353, "rounded": 36453, "\u2581Changed": 56691, "<|reserved_615|>": 1131, "\u05db\u05d5\u05dc": 20324, "\u2581cuanto": 34496, "\u255a": 64771, "\u2581Invest": 9005, "technology": 43882, ":-": 22147, "inished": 40140, "\u2581vieux": 54505, "etheless": 12567, "dled": 46544, "\u2581cla": 32951, "\u2581derni\u00e8re": 28748, "bike": 31499, "\u2581tecnolog\u00eda": 35888, "\u2581Watch": 10062, "\u2581contr\u00f4le": 37768, "\u2581Lift": 41258, "DEN": 41621, "valho": 54242, "\u2581immigr": 13912, "Bridge": 39346, "linked": 26089, "\u2581Speakers": 54044, "holes": 40544, "\u2581cemetery": 33183, "Sara": 62540, "\u2581Relations": 16841, "\u2581auteur": 59964, "\u2581significantly": 7208, "objects": 25166, "\u2581excursions": 47424, "\u2581diagnose": 31777, "\u2581steal": 19152, "\u2581chances": 10105, "SB": 28629, "\u2581ora": 42264, "\u2581martes": 47916, "\u2581strategist": 55788, "\u2581whatsapp": 59641, "\u2581flatten": 34063, "requires": 46145, "\u2581shove": 59443, "better": 33553, "particularly": 42173, "vt": 20992, "Likewise": 56891, "unting": 16217, "\u2581gathers": 51352, "\u2581Cristina": 45909, "\u2581thought": 3217, "\u2581Aug": 4701, "<|reserved_418|>": 934, "\u2581grote": 28093, "\u2581dumping": 44061, "\u2581pointer": 18464, "quiet": 37250, "\u2581inquire": 37336, "\u2581poke": 46614, "\u2581Sitting": 52989, "\u2581ICT": 38520, "\u2581Houston": 12974, "\u2581digestive": 27909, "\u2581Appendix": 42756, "<|endoftext|>": 2, "\u2581overcome": 12837, "\u2581impactful": 47284, "BH": 60531, "\u2581fb": 61669, "\u628a": 63933, "IUM": 60172, "ough": 2323, "\u2581schedules": 22332, "\u2581descubrir": 61761, "\u0626": 63133, "mie": 48306, "batch": 17942, "\u2581hurricanes": 57501, "iki": 9493, "\u2581continuum": 44505, "\u0646\u0633": 46111, "ucion": 30820, "oblast": 46803, "\u2581bloggers": 24658, "\u2116": 64373, "\u2581ded": 5379, "\u2581Wa": 20741, "\u2581construcci\u00f3n": 38873, "irable": 15219, "\u2581mids": 55362, "\u2581cloned": 52384, "\u2581wordpress": 53320, "\u2581Well": 6041, "\u2581\u0627\u0644\u0631": 17823, "\u2581lowering": 27416, "bite": 59620, "h\u00f4tel": 49161, "\u00e4nder": 52378, "\u5237": 64792, "\u2581rect": 12995, "\u2581incend": 47456, "\u062d\u0627\u062f": 56511, "\u2581GT": 16081, "\u2581ssh": 45322, "\u2581prisons": 39564, "\u2581fond": 10266, "\u2581Strings": 61434, "consin": 14115, "bred": 35112, "\u2581iron": 8373, "\u00edna": 43821, "\u2581distances": 23070, "Aware": 52207, "\u2581viewed": 13615, "\u2581chauffe": 48259, "Squ": 52042, "\u2581volts": 59504, "\u7ec7": 65214, "\u680f": 64796, "\u2581grap": 23367, "<|reserved_342|>": 858, "\u0433\u043e": 27031, "\u2581considerar": 57774, "\u6e32": 64978, "\u2581bookmarks": 56352, "blogger": 57900, "\u5386": 64272, "\u2581pelos": 19806, "\u2581School": 4668, "\u2581revival": 33178, "\u2581pools": 21728, "<|reserved_634|>": 1150, "\u2581pantalla": 40593, "\u2581apprentice": 52810, "\u2581paired": 20675, "\u2581N": 1969, "\u2581Vader": 62554, "\u2581FOX": 34985, "\u2581divine": 19477, "Complete": 24549, "agy": 48339, "\u2581Guardians": 53508, "==\"": 56202, "\u2581equally": 11772, "Star": 14252, "\u05e8\u05db\u05d6": 42904, "\u2581keeps": 9146, "\u2581sections": 11052, "Elizabeth": 46751, "\u0648\u062d": 49288, "\u2581wa": 6383, "\u2581LLP": 43723, "\u2581tom": 6116, "\u2581Champions": 8804, "\u2581Vac": 21808, "permission": 38369, "\u6309": 63908, "\u2581Anchorage": 55454, "\u2581like": 2191, "\u2581banc": 21833, "auto": 14197, "\u2581primeiros": 43422, "ht": 1948, "\u2581Torres": 32940, "\u2581festivities": 39409, "Collection": 14778, "\u2581airborne": 46704, "\u2581altas": 54784, "aaaa": 36230, "insic": 25112, "\u2581Hawaiian": 35668, "\u2581peptides": 40785, "Norm": 28309, "[(": 32452, "Hall": 34404, "<|reserved_866|>": 1382, "\u2581Ske": 36546, "\u2581Tickets": 23652, "ISTR": 35940, "\u8bfe": 64915, "ername": 4286, "\u2581relevant": 7025, "ACH": 18388, "TRUE": 33644, "\u2581false": 4709, "\u2581CI": 17830, "usually": 29905, "\u2581Beyond": 21628, "duction": 35076, "\u2581Lt": 37272, "\u2581cosa": 24390, "\u2581carts": 46859, "availability": 47148, "ER": 2581, "\u2581mans": 32739, "\u2581r\u00ea": 36434, "\u2581southeastern": 53881, "\u2581Coat": 49944, "\u2581Composition": 62583, "\u2581Growth": 23583, "igen": 5986, "chem": 39413, "EXEC": 57253, "\u2581Kod": 47383, "ral": 3005, "\u2581aest": 14519, "isce": 35919, "CONFIG": 30722, "cum": 33727, "\u2581congratulate": 51913, "\u2581edad": 33246, "\u2581recor": 46092, "\u8ddd": 64938, "\u2581Latina": 35358, "<|reserved_505|>": 1021, "\u2581sacred": 20814, "\u2581headset": 35529, "\u2581usados": 53848, "wm": 44529, "ADS": 49903, "\u2581stands": 9365, "\u2581goal": 4923, "\u2581born": 6012, "\u00eatements": 47774, "\u2581\u0642\u062f": 34927, "Decl": 44306, "dock": 47395, "\u2581likeness": 55751, "em": 1911, "\u2581inh": 27160, "\u2581arrests": 34533, "\u2581odd": 11586, "\u2581\u00e1reas": 25820, "\u2581debit": 26587, "\u304a": 63973, "rived": 22941, "\u2581hashtags": 52121, "\u2581el\u00e9t": 48724, "\u2581scarcely": 59064, "itez": 23206, "\u2581stretching": 25527, "\u2581Botan": 39189, "\u2581vu": 17553, "\u2581tilted": 54358, "\u2581Chak": 55209, "tight": 35688, "\u2581sched": 7424, "\u2581TG": 48070, "\u2581phenomen": 13242, "\u2581LOS": 43889, "\u2581Units": 40935, "\u6b21": 63506, "\u2581Vale": 29523, "lever": 39213, "ump": 3118, "\u2581Humb": 60436, "\u2581cheating": 28800, "\u2581amea": 53002, "\u2581vine": 14515, "\u2581Nether": 16390, "\u2581recreation": 22292, "\u2581vive": 23418, "\u2581obser": 12291, "Australia": 35262, "\u2581Alloy": 48641, "ordan": 11630, "\u2581outlining": 48884, "\u2581suggestive": 57833, "\u2581Auditorium": 61174, "\u53ea": 63588, "\u2581Denmark": 23499, "\u2581quilts": 53040, "\u2581portes": 50498, "qt": 43886, "\u2581cuc": 24780, "\u2581untreated": 39523, "\u2581intimate": 17410, "\u2581flu": 6209, "\u2581terrorism": 22070, "\u2581oferta": 34431, "<|reserved_391|>": 907, "\uc624": 63982, "\u2581bekan": 44933, "\u2581Rajas": 43726, "\u2581Rae": 57723, "\u2581Isle": 34737, "\u2581trust": 5247, "\u2581ton": 6189, "Cover": 29585, "forcer": 52981, "ed": 1830, "\u2581outburst": 57276, "\u2581PID": 59758, "\u2581Martial": 57125, "\u2581inn": 8381, "\u2581regulate": 21412, "\u2581moderate": 15341, "derrel": 46222, "\u0e21": 63764, "\u2581section": 5132, "Healthy": 59343, "\u2581scen": 6415, "\u2581communaut\u00e9": 47295, "Disney": 45215, "\u2581Kov": 59624, "\u2581fr": 2650, "\u2581Theodore": 49343, "\u2581Ang": 5143, "ir\u00e3o": 52088, "\u2581se\u00f1al\u00f3": 53194, "horn": 26753, "\u2581al\u00e9m": 17773, "\u2581draft": 8787, "Charlotte": 61960, "\u88ab": 63621, "complicated": 48181, "\u2581dietary": 19931, "\u2581Charter": 34055, "\u2581Shot": 32765, "\u2581Lud": 27548, "\u2581desperately": 23948, "\u2581cn": 55296, "\u2581crunchy": 43267, "fileName": 44881, "\u2581seguro": 26981, "\u2581settling": 29122, "\u2581brewery": 41045, "\u2581pizza": 14113, "pletely": 36563, "hada": 51077, "\u2581byte": 17152, "\u2581fortress": 48496, "\u2581fig": 4194, "\u2581Rack": 40685, "\u2581thieves": 40953, "\u2581parade": 23306, "\u2581departed": 36257, "\u2581Arsenal": 24273, "\u2581herd": 33060, "\u2581\u03c0": 60640, "\u2581Alleg": 34121, "\u2581star": 5436, "mg": 11710, "Area": 23358, "iring": 5903, "Node": 7262, "\u2581cheque": 49436, "Unlock": 55126, "\u2581Stella": 39751, "riber": 23926, "\u2581groove": 32359, "\u2581Code": 8050, "\u2581access": 3181, "\u2581Ch\u00e2teau": 60619, "\u2581casinos": 10724, "\u2581VARCHAR": 55138, "\u62ff": 65014, "operative": 20233, "\u2581serait": 31705, "gone": 27492, "\u2581Dre": 42003, "\u2581'<": 17230, "\u2581delight": 9875, "\u2581Chase": 22752, "\u2581avan\u00e7": 42889, "\u2581Polic": 29904, "Ali": 24531, "\u2581destacar": 54790, "Insert": 28557, "wiki": 21138, "\u2581isla": 55300, "\u2581drastic": 36275, "\u2581gebied": 52258, "\u2581Mechanics": 61662, "\u02cc": 65473, "hour": 12296, "\u2581certo": 30629, "\u2581reluctantly": 54895, "\u2581Auto": 12112, "KA": 28723, "\u2581Uganda": 30845, "\u2581nieuwe": 23286, "\u2581nombreux": 24813, "\u2581bif": 49678, "\u2581brill": 10225, "\u2581xmlns": 36916, "\u2581reopen": 32426, "\u2581/></": 46417, "\u2581customize": 20985, "\u2581Biology": 30535, "\u2581emple": 25708, "sometimes": 35647, "\u2581obvious": 6210, "Publicado": 43315, "\u2581KP": 47057, "\u2581ech": 40606, "iesa": 53573, "\u2581HCC": 58253, "hun": 62326, "\u2581elementos": 28253, "\u2581apk": 37828, "teries": 58392, "ListItem": 55831, "vera": 50109, "gh": 2073, "EDI": 62754, "\u2581Rep": 4440, "\u2581edged": 49947, "\u2581braking": 41276, "ouds": 15827, "\u2581eventually": 7319, "Planning": 51120, "rock": 14390, "\u2581Yah": 47271, "\u2581subway": 34175, "\u2581Tammy": 60383, "Ul": 49316, "\u2581phen": 8862, "\u2581shouts": 58130, "\u2581rech": 45866, "\u2581oft": 30389, "\u2581Fun": 10095, "aras": 24452, "\u2581gleich": 42099, "primary": 20455, "\u064a\u0633": 19378, "\u2581ultimately": 10047, "\u2581Start": 8596, "\u2581conoce": 50777, "\u2581Felix": 37548, "=\"'": 49883, "oliberal": 60907, "\u2581zig": 58694, "\u2581Block": 13309, "\u2581yearly": 24024, "vertex": 41948, "\u2581nog": 14616, "\u2581shown": 5344, "\u2581Dipl": 30261, "\u2581Doctors": 36040, "cn": 9938, "actly": 24868, "\u4eba": 63338, "ue": 2019, "Chart": 26855, "wis": 53933, "\u2581Peer": 43974, "\u2581minim": 5002, "rename": 53450, "SIZE": 17799, "tool": 17182, "\u2581chakra": 61824, "client": 8067, "Louis": 34753, "released": 36846, "\u2581screw": 12335, "\u2581differentiate": 31488, "\u2581PPC": 52297, "\u2581Jo": 6649, "\u2581unse": 16061, "\u2581Luke": 17122, "aliment": 47156, "\u2581m\u00e9d": 10775, "\u2581Sau": 22577, "\u2581partager": 47552, "\u2581Filters": 54807, "\u2581jonge": 59403, "\u2581ignore": 12666, "Attachment": 60559, "\u793e": 64310, "\u2581impressions": 30428, "\u2581DOC": 44492, "illy": 9546, "beiter": 57323, "\u2581slope": 24676, "\u2581saut": 43388, "\u2581Dys": 50113, "\u2581substit": 23274, "\u2581chance": 4846, "Winter": 40508, "arn": 2651, "\u2581hug": 13723, "cro": 21099, "<|reserved_225|>": 741, "\u2581ster": 10753, "\u2581sucked": 32213, "\u2581downloadable": 44649, "\u2581overst": 52486, "paragus": 43089, "\u2581serrure": 57744, "\u2581notamment": 22906, "\u2581Huffington": 61034, "Often": 38985, "CH": 5176, "\u2581Annie": 28033, "\u2581heater": 25191, "crypto": 40546, "\u2581freedoms": 41755, "Universal": 48382, "\u2581cot": 11250, "\u2581adolescence": 53049, "\u2581intim": 14862, "\u2581Booster": 59131, "\u2581Electric": 14928, "\u2581fluor": 30917, "\u2581Beach": 8755, "\u2581infil": 27804, "\u2581copyright": 11865, "\u2581Bengaluru": 61329, "\u89c2": 64689, "\u2581PCA": 62222, "\u2581VW": 40334, "Whats": 43519, "wrapped": 54299, "\u2581Gateway": 32757, "\u2581quantidade": 41082, "\u2581chica": 57431, "\u2581split": 9382, "\u2581blues": 22202, "Active": 17312, "\u2581Deuts": 18881, "\u2581s\u00e9jour": 40746, "}}\"": 44448, "strategy": 49469, "assa": 38123, "version": 7390, "EF": 29875, "\u2581praises": 53707, "\u2581Blackberry": 59749, "\u2581revolution": 11524, "\u2581jeu": 20490, "\u2581cytotoxic": 50704, "\u2581Gam": 19525, "\u2581fourn": 27115, "\u2581Lit": 25487, "\u2581:-)": 31733, "\u2581Thames": 48861, "\u2581unmist": 53270, "comprom": 54585, "\u0007": 65513, "]]": 11950, "\u2581coin": 14300, "<|reserved_620|>": 1136, "geme": 42396, "<|reserved_258|>": 774, "\u2581cris": 6797, "\u2581parad": 16250, "ivity": 4462, "\u2581programma": 37434, "\u2581Bullet": 32732, "uca": 31102, "isely": 59735, "for": 2947, "ocker": 10743, "\u4fe1": 63387, "oyal": 6842, "\u2581sensational": 42243, "\u2581arrives": 19762, "\u2581Fairy": 46552, "\u2581wrapped": 15495, "\u2581dispenser": 60633, "\u2581aggreg": 13486, "Pol": 8621, "\u2581\u00e9tude": 55606, "\u2581Grupo": 32146, "\u2581receb": 34705, "\u2581precisa": 23313, "\u2581utilize": 11737, "\u2581zich": 20227, "\u2581Response": 17767, "iza\u00e7\u00e3o": 12135, "packages": 19725, "Entry": 13617, "\u2581busca": 21809, "boa": 29705, "rection": 15264, "yrus": 52822, "\u2581conven": 6939, "\u2581temporarily": 20697, "enment": 34574, "Sen": 19186, "garde": 48621, "\u2581fixture": 27030, "ocalypse": 37581, "\u2581nome": 16490, "\u2581aj": 19956, "\u2581Einstein": 36498, "produced": 39519, "typically": 60263, "\u00f3rico": 54521, "................": 18481, "atures": 6501, "\u2581tightened": 50731, "\u2581pid": 40260, "\u2581Romney": 25805, "\u2581tr\u00e1": 34208, "P\u00e1": 44909, "\u2581connector": 25217, "zed": 11108, "\u2581Officer": 12643, "achelor": 15445, "\u2581dazzling": 43583, "\u2581quartet": 51959, "\u2581rechargeable": 53633, "\u2581crammed": 60550, "\u2581manipulate": 29520, "casting": 31174, "\u2581regular": 4551, "\u2581Warner": 23310, "deen": 38958, "\u2581frying": 40222, "\u2581Nickel": 45585, "\u2581Platform": 19046, "Wal": 25361, "arto": 30622, "\u2581ating": 36820, "\ud83d\udc64": 65188, "\u2581Pi": 18440, "\u2581disrupting": 57473, "rick": 9455, "\u2581hij": 10908, "\u2581psoriasis": 45763, "\u2581childish": 59605, "ension": 4219, "pecial": 3256, "\u2581quantities": 20340, "uno": 13287, "\u2581Salary": 48209, "\u2581July": 5177, "tet": 50900, "\u2581out": 2058, "\u2581visible": 10145, "\u2581prosperity": 27250, "Temp": 31202, "Her": 12990, "\u2581factual": 32015, "\u2581transmitted": 22381, "\u2581Rico": 25193, "Sk": 15492, "\u2581Edmond": 57764, "3": 62992, "\u2581peace": 6522, "\u2581demeanor": 59351, "\u0622": 63200, "<|reserved_688|>": 1204, "\u05d6\u05e8": 35572, "icycle": 42711, "\u2581Til": 46235, "\u2581Hispanic": 30668, "\u2581church": 6269, "\u2581empl": 40012, "itting": 4273, "omen": 5424, "Dark": 30493, "\u2581\u064a": 6204, "\u2581abnorm": 53220, "\u2581Supplies": 48696, "representation": 40594, "\u2581d\u00e9velopp": 19238, "Rather": 40428, "heiros": 46550, "<|reserved_952|>": 1468, "\u2581c\u00e1": 24633, "\u2581beneficial": 12390, "air": 2549, "whel": 10327, "\u2581dishes": 12552, "nal": 29829, "\u2581luckily": 47027, "\u2581Hands": 32652, "\u2581employs": 29132, "\u2581photovolta": 57384, "chl": 37514, "\u2581Sort": 27738, "\u2581meds": 41075, "<|mask_472|>": 476, "mare": 20325, "glob": 38432, "\u53f0": 63896, "ACE": 12870, "\u2581balloons": 41283, "\u2581lindo": 55370, "\u2581yo": 18782, "\u2581spectacle": 32103, "\u2581na": 3542, "\u2581inversion": 54770, "\u2581recursive": 54892, "rance": 19181, "\u2581sitting": 7711, "\u2581trail": 9834, "\u2581Illustrator": 61007, "Ad": 3628, "\u2581Drugs": 38938, "\u2581Pool": 23235, "\u2581impede": 57794, "\u2581Justicia": 62065, "note": 15133, "\u2581diversion": 49418, "\u2581docks": 53730, "\u2581munic\u00edp": 25933, "\u2581Lind": 18763, "\u2581Verona": 55987, "\u2581s\u00e9rie": 16105, "\u2581unsupported": 59392, "<|mask_136|>": 140, "\u2581Firm": 25129, "\u2581footwear": 35928, "\u2581posteriormente": 55006, "\u2581BEST": 34047, "Negative": 51929, "Chef": 54470, "ammad": 41572, "\u2581Infinite": 51196, "\u2581Nano": 41718, "\u2581ferry": 28187, "\u2581libro": 24272, "\u2581Claus": 39837, "program": 15858, "\u2581mob": 9338, "\u2581tenant": 23244, "\u2581Conversion": 46895, "\u2581temps": 11273, "\u2581CGI": 52402, "\u2581Heil": 62264, "Pacific": 31992, "etal": 22055, "Fab": 30219, "Lib": 19361, "stead": 31571, "\u2581Full": 9928, "\u2581discs": 34345, "\u9078": 64470, "ortion": 12166, "\u2581doel": 55361, "\u2581Art": 5070, "\u2581Esper": 46045, "\u2581wrestle": 60360, "\u04bd": 64705, "\u2581lleg": 12456, "ments": 2422, "\u2581warrant": 9711, "iya": 46185, "\u2581Sik": 50404, "\u2581heavens": 41823, "Box": 8803, "\u2581Vikings": 31951, "Will": 11055, "\u2581Wise": 41803, "\u2581armor": 24539, "blasts": 54705, "\u2581prostitutes": 50020, "\u2581prolific": 36043, "\u2581Venezuel": 57687, "\u2581fixtures": 27518, "\u2581Roth": 25693, "\u2581pg": 35251, "\u2581Baton": 60441, "\uac83": 63895, "\u2581explorer": 37914, "\u2581Amendment": 20155, "\u2581Alf": 17425, "itivo": 58666, "\u2581+=": 8664, "\u2581GPL": 51919, "MO": 9082, "agma": 27859, "andel": 31294, "\u2581lait": 58558, "aghe": 33738, "\u2581Spir": 46004, "\u2581meeste": 61925, "\u2581bipolar": 40850, "\u2581pir": 20724, "\u2581Another": 9117, "\u2581%)": 48479, "\u2581meta": 15813, "\u2581Segment": 48812, "\u2581ingredientes": 49055, "acional": 7300, "\uaca9": 65200, "Wheel": 58529, "\u2581/><": 31838, "\u2581fung": 34028, "\u2581or": 1944, "\u2713": 63367, "iliated": 41523, "RAW": 45032, "\u2581Incre": 19919, "\u2581estudantes": 50360, "\u2581titles": 11137, "\u2581sig": 13519, "\u2581NCAA": 21608, "\u2581Coy": 43069, "\u2581bonheur": 58831, "\u2581pulp": 37711, "\u2581three": 2808, "ARCHAR": 42518, "ZX": 58553, "\u2581Antarctica": 52809, "\u2581Sah": 28221, "ertos": 29977, "\u2581actuar": 59253, "\u2581NFC": 37446, "\u2581asserted": 33649, "ALK": 42115, "\u2581wonder": 4665, "\u2581smoothly": 20649, "\u2581desap": 33804, "\u05d1\u05d5\u05d4": 49697, "\u2581fel": 12314, "\u2581grooves": 52959, "\u2581Myrtle": 58740, "intel": 47082, "\u2581Carn": 23020, "bras": 24839, "ao": 9243, "\u2581reconcil": 55118, "\u2581\u2265": 38240, "\u2581Madden": 54300, "resp": 5505, "wagon": 53115, "\u2581Geoffrey": 53877, "\u2581asked": 4192, "\u2581Strauss": 55748, "ETH": 17049, "\u2581stata": 34456, "\u91ca": 64381, "\u2581Maroc": 61056, "ichten": 28307, "\u2581duo": 19537, "ingers": 52502, "\u2581Section": 11541, "Deze": 53804, "keeping": 21817, "DMA": 62186, "\u2581accredited": 27641, "\u2581recorder": 46053, "Arrow": 48949, "eters": 5427, "\u9f99": 65004, "\u2581son": 3394, "\u2581permis": 37749, "\u2581vac": 5976, "\u2581Alfa": 62013, "\u2581Pants": 56490, "\u2581Revolution": 17189, "\u2581sond": 32864, "olvency": 59773, "\u2581tee": 28314, "\u2581hist": 3109, "urt": 5060, "factor": 26688, "\u2581necklace": 29986, "\u2581Ultra": 21096, "\u2581encode": 34584, "desktop": 45397, "\u2581petit": 18114, "\u2581require": 3613, "OG": 14507, "\u2581renewable": 18718, "added": 22951, "atan": 33380, "\u2581\u00e9vent": 59505, "\u2581externally": 47460, "\u2581Gain": 51455, "\u2581connections": 10695, "\u2581berth": 56942, "\u2581Noir": 33614, "\u2581firsthand": 50000, "\u2581Mastercard": 58782, "\u2581perfil": 36124, "objectif": 58570, "\u2581Horm": 58192, "\u2581freshman": 23402, "Nob": 34109, "\u2581Lar": 25737, "\u2581KNOW": 39966, "\u2581Excel": 18899, "huile": 51654, "endo": 4530, "ins": 2485, "ambia": 34552, "\u2581\u05e9\u05e0\u05d9": 49237, "\u2581tandem": 38460, "\u2581desen": 13946, "ium": 3120, "\u2581promote": 8330, "icillin": 60124, "\u2581effortless": 37353, "\u2581cardinal": 43865, "\u2581sexual": 6753, "\u2581adulthood": 36397, "\u2581Mur": 8913, "\u2581SPA": 61640, "\u2581reconcile": 49363, "\u2581\u05d6": 10124, "\u2581sel": 10359, "Finding": 33783, "\u2581malf": 36636, "\u53cd": 64089, "\u2581successful": 5693, "\u2581Gloria": 43262, "\u2581Bret": 31833, "\u2581Ephes": 60811, "\u2581Exhibit": 56599, "\u2581far": 3307, "\u2581BMI": 38589, "olute": 22349, "\u2581grassroots": 40563, "rire": 40398, "cous": 54421, "\u2581infectious": 25625, "\u2581avali": 45888, "\u2581Tunisia": 49454, "\u2581workout": 15690, "\u2581Bruno": 29696, "\u2581ang": 5407, "\u2581Dear": 32094, "\u2581Educaci\u00f3n": 51685, "\u2581slammed": 36519, "\u2581var": 3496, "\u2581categorical": 59229, "\u2581appointments": 21624, "\u2581retire": 8977, "\u2581laid": 11547, "\u2581curso": 22022, "filing": 62164, "<|reserved_919|>": 1435, "\u2581crian": 19779, "\u2581beast": 24457, "\u2581Les": 7090, "\u2581Boone": 53160, "ouble": 7168, "\u2581s\u00f3l": 52690, "edges": 53723, "SY": 23035, "\u2581viewing": 14030, "obi": 18389, "\u2581deal": 3570, "\u2581devotion": 32900, "\u2581encompassing": 52812, "\u2581stricter": 60527, "Track": 23748, "\u2581Shake": 51276, "named": 21486, "\u2581magazine": 10563, "\u2581pari": 59550, "\u2581wishing": 25427, "\u2581violating": 34108, "\u2581Nou": 34550, "\u2581newfound": 61107, "\u2581counterfeit": 53902, "\u2581entries": 13851, "\u2581Hardware": 35404, "\u2581Reporter": 39043, "\u2581vc": 49941, "\u2581ring": 7979, "\u2581McC": 10212, "\u2581MEM": 38554, "\u2581burnt": 30424, "\u2581recycle": 37859, "<|reserved_138|>": 654, "\u2581Improve": 24790, "ISC": 47810, "komst": 50855, "\u2581Generate": 41893, "\u2581commuters": 56503, "\u4ee4": 63829, "orce": 32655, "ANG": 16958, "\u2581McCarthy": 33960, "tty": 57691, "\u767a": 64653, "\u2581sincere": 21785, "\u2581pavement": 39619, "SO": 12973, "\u2581merging": 38833, "f\u00fcr": 42038, "\u2581Disclaimer": 50462, "\ucc3e": 65268, "\u2581entitlement": 49421, "\u2581prisoner": 32196, "conc": 25275, "\u2581slippers": 59110, "utsche": 33693, "ibilidades": 54362, "../../": 9091, "\u2581valuable": 9220, "worth": 10418, "\u2581bonded": 42649, "worms": 58764, "\u2581recovery": 8543, "\u2581Join": 17752, "raints": 35729, "%);": 53395, "board": 4826, "\u2581SEN": 57839, "\u544a": 64094, "\u2581lev": 14782, "\u2581encontr": 10878, "Fac": 23982, "\u2581volgens": 61500, "\u2581SN": 15918, "ivalent": 32387, "\u5bf9\u8c61": 53715, "Relative": 40215, "meta": 12940, "util": 6769, "\u2581Reds": 27524, "\u2581cytok": 30249, "\u2581Kr": 18677, "\u2581documented": 18863, "\u2581mower": 55804, "\u2581seab": 58452, "nbsp": 10391, "\u0642\u064a\u0642\u0629": 62593, "\u2581talk": 3432, "\u2581Bore": 57638, "\u2581Sov": 14988, "user": 4771, "\u2581dece": 18646, "\u2581anticipate": 23174, "riend": 2727, "bc": 17834, "favorite": 55556, "\u2581oude": 57980, "\u2581citations": 36956, "\u2581policymakers": 45226, "\u2581gare": 60022, "\u2581ordinary": 13010, "\u05e5": 63199, "\u2581Bernardo": 62748, "\u2581bart": 38033, "<|reserved_440|>": 956, "iran": 61976, "fortune": 54037, "<|reserved_762|>": 1278, "\u2581fals": 23603, "\u2581turned": 5279, "\u2581alternative": 7129, "Codec": 58477, "\u2581Aluminium": 57037, "Env": 25825, "\u2581stabilize": 41756, "\u2581\u05db\u05d5\u05dc": 52429, "<|reserved_848|>": 1364, "\u2581wrapper": 27958, "<|reserved_211|>": 727, "First": 7389, "\u2581discounts": 17317, "\u2581Incred": 44403, "ancy": 5515, "\u2581Previous": 28870, "ap\u00e9": 57757, "\u2581furniture": 11021, "\u5c0f": 63457, "\u2581NE": 14456, "ockets": 14658, "esia": 41096, "\u2581Presley": 59450, "iris": 50582, "\u2581Fashion": 19300, "vendor": 31708, ")}$": 37955, "\u2581hungry": 16795, "\u2581oversees": 46198, "\u2581daytime": 34177, "\u2581username": 18900, "ders": 12543, "aggio": 19997, "\u2581asserts": 37349, "\u062f\u064a\u0645": 46305, "\u05bc": 63589, "\u2581ger": 15644, "\u1edf": 64873, "transfer": 29222, "\u2581deveria": 57033, "\u2581overwhelm": 55697, "\u2581noticeable": 25179, "guards": 33901, "\u2581Transaction": 39086, "\u2581Human": 9209, "\u0627\u0628": 9784, "\u2581Clarks": 46439, "\u2581enjoyable": 14709, "\u2581photos": 5681, "although": 21611, "\u2581expansive": 34815, "\u0173": 64577, "\u2581logistic": 48396, "\u2581Rober": 13322, "\u2581acquired": 11480, "\u2581wing": 14703, "\u6839": 63835, "\u2581Cob": 26387, "\u2581npm": 36066, "<|reserved_63|>": 579, "\u2581riche": 50932, "\u8cbb": 65215, "\u2581drowning": 45923, "Thumb": 54824, "Accordingly": 60363, "\u2581interess": 18072, "\u2581pequena": 47241, "\u2581Environmental": 17247, "\u2581Firefox": 23882, "\u2581Mutual": 46617, "\u2581oblig": 10348, "Tests": 24467, "tip": 19162, "\u2581subtract": 42866, "AMENTO": 42517, "\u2581draw": 4852, "arf": 37533, "webs": 41496, "iable": 21325, "\u2581ESP": 16970, "arie": 39731, "\u2581lads": 56828, "menes": 60574, "<|reserved_766|>": 1282, "\u0627\u062e\u0644": 51509, "\u2581CER": 60467, "ifndef": 24942, "\u2581coaching": 14256, "\u2581especific": 40488, "\u2581sampled": 37926, "reflect": 29564, "\u2581Sask": 34630, "\u2581M\u00e1": 42934, "\u2581Doesn": 37807, "\u2581werkt": 54560, "\u2581incompatible": 44601, "\u2581penal": 28678, "\u2581reminder": 17808, "\u2581Kuala": 53885, "\u2581publica\u00e7\u00e3o": 59456, "\u2581feeds": 24176, "\u2581stems": 24963, "\u2581capitalism": 31195, "\u062e\u0631": 21584, "\u2581{}": 10592, "Jen": 45805, "\u2581therap": 12512, "ltre": 31934, "itize": 59521, "\u2581mit": 5564, "\u2581automation": 17888, "setValue": 59892, "\ud83d\udcf1": 65122, "\u2581banho": 61951, "\u2581wind": 3781, "sq": 12895, "Character": 26962, "cents": 24919, "\u2581Johns": 32916, "\u2581laminate": 56168, "asant": 10361, "\u2581manual": 9103, "io": 2221, "\u2581shall": 5544, "\u2581empezar": 50623, "\u0e20": 65043, "\u2581purchase": 5464, "ners": 3950, "\u2581inviting": 22282, "\u2581Lyrics": 51298, "\u2581Luigi": 55895, "mouse": 28001, "Workspace": 62882, "\u2581congestion": 34563, "Ok": 11656, "<|reserved_365|>": 881, "CSF": 62110, "\u2581Sto": 15301, "hov": 44987, "Pont": 55356, "rawl": 43428, "\u2581chrome": 28869, "\u2581annoyance": 57564, "\u2581normative": 61762, "bou": 54467, "\u2581Dakota": 20611, "gies": 61909, "\u2581HQ": 38091, "\u2581ha": 1942, "Per": 7336, "\u2581curse": 30193, "\u2581figuring": 27580, "\u2581treacher": 52995, "rens": 32075, "\u2581viel": 21579, "\u2581Tales": 37673, "amenti": 32037, "\u2581Barrett": 39356, "ynom": 28487, "\u2581filles": 42797, "<|reserved_124|>": 640, "<|mask_367|>": 371, "\u2581governor": 15319, "\u2581vista": 19301, "ATIONS": 27808, "\u2581carriers": 21549, "$(\".": 52398, "rical": 8125, "\u2581\u0432\u044b": 48372, "\u2581afic": 40892, "\u2581mini": 9700, "\u2581semicon": 26329, "\u2581contam": 26252, "\u2581spelen": 55282, "\u2581female": 7375, "\u2581aque": 26723, "\u2581marble": 26285, "\u2581Output": 26564, "\u2581reducing": 10778, "sil": 27823, "\u2581fisheries": 50442, "\u2581Fur": 32060, "igar": 37388, "\u9a71": 64995, "eds": 6119, "lambda": 11513, "\u2581fluct": 20408, "\u2581Una": 21305, "linking": 62403, "/~": 59979, "\u2581proporcionar": 59299, "\u00e2nia": 51844, "ami": 11337, "\u2581synergy": 61628, "\u2581Zo": 24716, "\u2581impeccable": 45693, "ertes": 39528, "<|mask_357|>": 361, "phas": 8112, "<0xF7>": 1791, "\u2581nm": 24141, "ited": 2550, "\u2581collision": 22231, "\u2581ethn": 38988, "\u2581seize": 35713, "\u2581enfrentar": 55663, "\u2581extract": 8835, "\u2581unchecked": 60796, "veyard": 54555, "\u2581margins": 25242, "\u3066": 63312, "\u2581pasta": 16328, "Sample": 24548, "envolv": 48039, "\u0645\u0648\u0639\u0629": 49369, "jourd": 18865, "itra": 43274, "\u2581Rash": 39486, "\u2581teamwork": 43269, "-*": 48819, "ilen": 38945, "\u2581antib": 10125, "*.": 30231, "\u2581returning": 10897, "Batch": 30133, "\u2581BUY": 57143, "\"></": 7110, "\u2581plat": 26971, "clusive": 6959, "\u0648\u0647": 54743, "\u00edan": 13518, "\u2581tense": 28370, "<|reserved_954|>": 1470, "\u2581chefs": 28197, "isman": 47347, "\u2581\u0627\u0644\u062a\u064a": 15946, "\u2581Manifest": 46773, "\u2581brain": 6228, "\u2581herb": 21094, "\u6df7": 65393, "\u2581admiring": 62247, "\u2581Pakistani": 33387, "roph": 9943, "\u2581\u05dc\u05d3": 35405, "acker": 16947, "agt": 37784, "\u2581impoverished": 61699, "\u2581attain": 19280, "\u2581national": 4743, "\u2581pillows": 32222, "\u2581fingert": 34955, "\u83b7": 63459, "\u2581tyres": 41862, "avascript": 12859, "\u2581emphas": 8998, "\u2581raz\u00e3o": 48173, "\u9053": 63769, "\u2581betre": 57206, "\u2581serious": 5005, "\u05e7\u05d5\u05ea": 40242, "\u2581vertical": 12714, "Strip": 32406, "\u7ba1\u7406": 57663, "\u2581parmi": 37566, "enabled": 21891, "bate": 24053, "\u2581pumpkins": 56375, "isters": 8577, "\u2581intuition": 37655, "(**": 55942, "hence": 61738, "\u2581\u0644\u0644\u062d": 62733, "\u2581poss": 2715, "reens": 7836, "\u2581Readers": 38790, "ssa": 38820, "\u2581carre": 37211, "\u2581descri": 47818, "inka": 60679, "\u2581prochaine": 56224, "OV": 10536, "Ger": 43383, "aporation": 53560, "\u2581much": 2463, "\u2581Valent": 16464, "\u2581tool": 3857, "\u2581Farmer": 42141, "\u2581ast": 8220, "uscript": 16672, "\u2581impressed": 14038, "\u2581disposit": 20442, "\u2581depleted": 47822, "ilho": 60241, "OTC": 62001, "cul": 3716, "\u2581features": 4000, "\u2581banco": 34888, "\u0932": 63861, "\u2581consequence": 18453, "\u2581fool": 14934, "\u2581ambiguity": 47374, "\u2581Ave": 18583, "\u2581cellul": 33195, "Nevertheless": 36062, "\u2581Hen": 8854, "as": 1833, "ptic": 21241, "\u2581cose": 45701, "Moh": 52612, "\u2581macOS": 40280, "\u2581biom": 20330, "\u2581sphere": 25538, "OSE": 25347, "\u2581atroc": 38410, "uche": 35822, "\u2581Organizations": 44675, "\u2581\u0623\u0641\u0636\u0644": 62333, "\u2581Pl": 2904, "\u2581FC": 15624, "\u2581range": 3948, "\u2581containers": 16633, "Rows": 31537, "\u2581filmmaker": 33854, "\u2581rese": 3213, "<0xE0>": 1768, "*\u2009=\u2009": 46234, "\u2581fund": 4742, "Rober": 20504, "\u2581monitors": 25514, "umas": 48386, "dream": 34559, "\u2581MasterCard": 61722, "\u2581Torrent": 57299, "\u2581Organ": 8597, "\u2581built": 4885, "\u2581Barton": 45390, "\u2581\u05e2\u05dc": 9804, "\u2581Como": 17270, "\u2581Planning": 18870, "\u2581candidato": 37224, "\u2581loading": 14466, "\u2581wrist": 19915, "\u2581belongs": 18383, "\u2581snippets": 50770, "\u2581ell": 8322, "Order": 13592, "\u2581spelled": 46534, "<|reserved_698|>": 1214, "prompt": 51223, "KY": 51239, "\u2581explique": 44780, "CTION": 18465, "\u2581hipp": 26754, "\u2581solicitation": 61726, "\u2581innovate": 48598, "\u2581Mb": 40514, "\u2581Rd": 24955, "\u2581\u05d5\u05e9": 46430, "\u2581Thorn": 55158, "*~*": 58086, "\u5e93": 63643, "\u2581doen": 19012, "\u2581imagery": 25879, "\u2581happening": 8694, "\u2581conception": 25857, "\u2581Personal": 14360, "Mir": 29957, "\u2581erred": 42140, "hat": 11972, "<|mask_286|>": 290, "leg": 3334, "\u2581p\u00fablica": 26715, "mathbf": 14268, "\u2581\ud83d\ude09": 34715, "\u2581provincial": 21934, "BOOST": 43231, "organized": 37624, "DOWN": 41530, "\u2581plazo": 45166, "<|mask_283|>": 287, "ITH": 27421, "**/": 36390, "\u2581Monkey": 42818, "\u2581HB": 30686, "Supporting": 59514, "\u2581truncated": 58342, "\u2581Cogn": 33690, "ouring": 47816, "\u2581assertThat": 32890, "Resources": 23850, "\u2581familie": 39597, "(--": 35954, "adone": 53953, "ais": 3408, "\u2581Theresa": 44172, "\u2581Generic": 36528, "\u2581Pew": 54425, "\u2581Chor": 60435, "pill": 32308, "fields": 15273, "\u2581Neil": 22284, "\u2581Workers": 27534, "rent": 2232, "\u2581vontade": 41140, "\u2581UAE": 27228, "trend": 53133, "\u2581Bosnia": 53794, "zona": 11708, "\u5e97": 64805, "\u2581\u0642": 8965, "<|mask_187|>": 191, "\u2581hook": 9120, "\u2581bandas": 62873, "igree": 48253, "\u2581mocked": 56017, "\u2581appelle": 54158, "\u2581Oracle": 21957, "\u2581Seller": 37235, "aving": 4122, "Metric": 41271, "Recently": 24565, "amount": 23900, "\u2581VI": 20211, "annels": 9084, "flat": 24132, "\u2581viewpoints": 50527, "\u2581prayer": 12938, "\u2581interacts": 48817, "\u2581program": 2824, "\u2581Temple": 16973, "\u2581tratt": 44934, "Air": 18644, "\u2581Purchase": 28018, "\u2581Justi\u00e7a": 38201, "\u00e1cter": 50975, "Or": 5096, "<|reserved_310|>": 826, "\u2581Mah": 11066, "\u2581adjustment": 19511, "uros": 18566, "\u2581eccentric": 35847, "atured": 21381, "resolve": 22593, "\u89c1": 64192, "\u2581a\u00e7\u00e3o": 29391, "\u2581kindly": 26473, "\u2581Rid": 31465, "\u05d5\u05e8\u05ea": 40766, "langle": 25885, "ilia": 19802, "\u2581vaccinated": 24073, "\u2581installed": 7986, "\u2581ela": 13779, "\u2581hereditary": 61402, "\u2581Squ": 9294, "\u2581symptom": 27742, "endale": 42885, "<|reserved_464|>": 980, "\u2581firefighter": 62290, "\u2581tendr\u00e1": 41721, "\u2581happy": 4775, "\u2581molecule": 27858, "\u2581n\u00e9g": 41071, "\u2581Ministries": 53592, "LEY": 42758, "\u2581LDL": 55598, "\u2581espresso": 33883, "widehat": 52625, "\u2581voted": 14107, "aking": 2460, "enso": 23387, "\u2581MUST": 32076, "\u2581trending": 34241, "\u2581Surprisingly": 55592, "\u2581liberated": 58078, "\u2581even": 2408, "\u2581firef": 24959, "\u2581Wand": 39053, "\u2581contributing": 17240, "\u2581t\u00e9m": 42117, "_*": 50679, "\u2581Vir": 7472, "\u2581Evening": 39839, "\u2581werd": 20801, "\u2581Portfolio": 45462, "\u2581ver\u00e3o": 60412, "\u2581accept": 4346, "$.": 26443, "\u2581poisoning": 36421, "registry": 34980, "\u2581signify": 53987, "\u2581diagrams": 35263, "rees": 7484, "Working": 24864, "\u2581Department": 5674, "uron": 50327, "\u2581falar": 29633, "\u2581t": 1800, "Colors": 43405, "HOST": 33772, "\u2581brewing": 33574, "<0x6C>": 1652, "empty": 11784, "Au": 23189, "\u2581citt": 28392, "agn": 3528, "sem": 7007, "\u2581Muslims": 18803, "\u2581talks": 10429, "aken": 3602, "bling": 6205, "hetics": 25947, "astery": 32486, "\u2581secluded": 46018, "zas": 22744, "\u2581analytic": 47620, "anoi": 50553, "\u2581spong": 60181, "\u2581incre": 2919, "\u2581nod": 11109, "\u2581Radi": 59156, "\u2581heavenly": 38356, "today": 37377, "\u2581shoulders": 16338, "\u2581Eaton": 61254, "\u2581CIO": 52586, "\u2581Huntington": 46793, "\u2581Stan": 11651, "isten": 23713, "sam": 30045, ".\")": 24870, "vang": 26731, "accounts": 52460, "\u2581Strand": 53192, "(\".": 28139, "\u2581stamped": 35665, "inate": 5699, "\u0432\u0435": 57416, "\u2581Cree": 61192, "\u2581Trade": 13961, "\u2581grape": 26079, "<|reserved_375|>": 891, "\u2581complex": 5072, "hm": 25142, "\u062e\u0644": 28038, "\u2581spacing": 35394, "acci": 37375, "Output": 11854, "\u2581frutas": 59348, "gid": 61040, "\u2581]": 7930, "\u2581buyers": 12748, "DOT": 55293, "lad": 15465, "pples": 57785, "\u521d": 63976, "<0xFB>": 1795, "\u2581Universidad": 26428, "\u2581hop": 5550, "\u2581Prom": 9807, "\u2581pounding": 43062, "<|reserved_457|>": 973, "\u2581Hawks": 37067, "\u0627\u0631": 5417, "\u2581strides": 42865, "\u2581Twain": 60096, "\u2581archae": 25053, "\u2581govt": 56782, "launch": 36112, "\u2581am\u00e9li": 37747, "\u0647\u0631": 23785, "\u2581conc": 3188, "\u2581forks": 57897, "hthal": 30645, "\u2581ig": 13922, "\u2581Travis": 28301, "\u2581Mp": 52109, "\u2581yummy": 34005, "\u2581pursuits": 43624, "\u2581yellow": 9690, "\u2581implies": 16626, "\u2581Rank": 20093, "\u2581Hillary": 24110, "line": 2497, "\u2581probiotic": 61964, "angles": 27724, "\u2581Wine": 21188, "tee": 5741, "\u2581Monk": 54031, "ero": 3926, "\u2581result": 2672, "hort": 18063, "Progress": 24215, "\u2581Lego": 42440, "goto": 31491, "\u2581labore": 57526, "ui": 4563, "letters": 29569, "\u2581relations": 3754, "\u2581electro": 12368, "teacher": 44834, "\u2581bi": 4902, "\u2581Alien": 42335, "ondere": 56937, "\u2581disruptive": 38714, "\u2581workaround": 41912, "\u2581Bentley": 45817, "temperature": 40342, "\u2581Cod": 33315, "\u2581acompanhar": 54658, "\u2581delta": 26890, "\u2581blending": 34900, "\u6388": 64789, "\u2581overriding": 56304, "forest": 29101, "\u2581throws": 11020, "\u2581constit": 12675, "iren": 33794, "\u2581nostro": 39462, "ismic": 38893, "\u2581saturated": 30700, "\u2581Navigation": 34433, "\u2581traced": 34666, "\u2581Portuguese": 26152, "\u2581concent": 6142, "<|reserved_944|>": 1460, "<|reserved_801|>": 1317, "\u2581Jensen": 49589, "ye": 6534, "\u2581NL": 33327, "\u2581Construction": 19440, "IFA": 23417, "WhatsApp": 56786, "Info": 6666, "\u2581passage": 13093, "\u2581sabemos": 43998, "{{\\": 24798, "\u2581courte": 41109, "\u0e34": 63937, "\u2581Rick": 14546, "\u2714": 63468, "\u2581consommation": 51835, "Nov": 23767, "\u949f": 64901, "\u2581Topic": 43860, "\u2581interna": 48138, "\u5927": 63305, "\u2581\u05d4\u05e1\u05d9": 56131, "FUN": 27351, "\u8fdb\u884c": 52426, "\u2581Gay": 19837, "\u2581indicado": 62650, "\u6740": 65529, "\u2581northern": 12712, "<|mask_147|>": 151, "tops": 39505, "ah": 2618, "\u2581Gos": 40908, "\u2581poss\u00e8de": 51756, "\u2581forwarded": 44962, "\u2581issue": 3947, "\u2581Jonah": 51461, "Route": 16486, "\u2581fazem": 36168, "\u2581mangan": 50840, "\u2581ponder": 39501, "\u2581dudas": 56943, "error": 4935, "LAND": 41267, "\u7b56": 64553, "Supp": 12912, "\u2581protein": 7172, "During": 10205, "\u2581Maz": 25203, "\u2581satisfying": 19550, "jax": 59332, "thel": 42531, "<|reserved_929|>": 1445, "\u2581gest\u00e3o": 33392, "\u2581monarchy": 58341, "\u2581Coun": 5851, "\u2581wi": 40091, "chk": 49364, "\u2581gelatin": 51884, "\u2581USER": 55732, "Impact": 51115, "\u2581ole": 38717, "\u2581theolog": 55966, "\u2581playground": 24512, "post": 6107, "\u2581courses": 8937, "\u2581radically": 40729, "quest": 5040, "ror": 4020, "reli": 28103, "\u2581Had": 16407, "\u2581eletr\u00f4n": 51150, "dor": 49233, "\u2581discusses": 21838, "\u2581bedside": 53795, "music": 30801, "month": 10094, "\u2581hates": 35575, "\u2581Garfield": 59809, "\u2581trabalhos": 42395, "\u2581imposition": 61302, "\u2581lemonade": 60420, "\u0631\u0642": 28630, "dog": 16348, "\u987b": 64083, "\u2581mediante": 27317, "\u2581travellers": 32849, "\u2581shaping": 27445, "\u2581targeted": 12778, "ennessee": 15007, "<|reserved_219|>": 735, "\u2581leite": 55279, "USED": 41736, "tasks": 33809, "\u2581Walker": 16997, "recy": 46156, "Hu": 48633, "\u2581newsp": 10049, "\u2581intel": 10279, "\u2581Tou": 33035, "oth\u00e8que": 59251, "\u2581Auburn": 38753, "\u2581Boulder": 40142, "\u00edrus": 55875, "\u2581r\u00eave": 59435, "zero": 19123, "\u2581Appalachian": 53392, "\u2581cout": 39910, "\u2581Hi": 16634, "jq": 60078, "\u2581responsable": 31783, "Constants": 27005, "\u2581Jasmine": 54765, "gna": 55412, "\u2581Christianity": 20388, "\u2581Actually": 20391, "\u2581paperback": 50625, "FUL": 53514, "nan": 18180, "\u5e27": 65304, "<|reserved_945|>": 1461, "\u2581Poison": 58331, "incorpor": 55610, "REF": 25563, "\u2581Gobierno": 28352, "\u2581Investigation": 37065, "\u2581Professionals": 43272, "\u2581SSD": 28285, "\u2581entirety": 30710, "\u2581misconduct": 33288, "cot": 23832, "\u2581repetition": 37638, "\u2581ergonom": 53851, "<|reserved_427|>": 943, "<|mask_498|>": 502, "\u2581instinct": 20137, "\u2581changer": 32745, "\u2581aantal": 35692, "\u2581j\u00f3venes": 37130, "\u5175": 65328, "STOR": 54500, "CAS": 58087, "itian": 51537, "\u2581){": 54223, "ana": 3676, "ulk": 20858, "\u2581Synd": 28109, "\u2581Vaccine": 54888, "\u2581ceremony": 12346, "\u2581outward": 33415, "nton": 40080, "\u2581granddaughter": 47340, "\u2581entrusted": 49419, "Care": 18894, "\u2581airway": 51146, "\u2581Supplement": 32967, "\u2581transmitter": 43381, "juven": 33057, "Lovely": 61529, "\u2581Shame": 62268, "ATOR": 30541, "\u2581Xia": 27021, "ok": 2011, "isure": 17521, "<|reserved_564|>": 1080, "Logging": 43088, "\u00d9": 65007, "human": 17952, "\u2581scaling": 26147, "Newsletter": 51172, "\u2581oriental": 59416, "\u2581EAR": 59703, "\u2581\u05d8": 16514, "\u2581vastly": 36594, "avor": 12075, "\u2581Metall": 37651, "\u2581upkeep": 50396, "Xiv": 52867, "fro": 47851, "\u2581path": 4211, "lied": 5361, "\u2581sporty": 56863, "licenses": 17234, "\u2581bible": 34606, "would": 24031, "\u2581Nobody": 27932, "\u2581Panasonic": 49655, "later": 41935, "\u2581locked": 14389, "\u2581GSM": 61611, "\u2581none": 7383, "CLK": 54438, "\u2581Wash": 26077, "\u2581along": 3306, "\u2581stretches": 30116, "entionally": 53563, "\u2581molecules": 18596, "\u2581outline": 19439, "\u2581theatrical": 34170, "igu": 8919, "ivar": 39414, "amsmath": 46685, "itori": 47327, "<0xE6>": 1774, "\u2581bekend": 49667, "\u2581spying": 59662, "\u2581Holidays": 43925, "illin": 34518, "avel": 13356, "forcement": 9800, "\u2581Purch": 40824, "\u2581intest": 20207, "\u2581faults": 37970, "\u2581dams": 46248, "\u2581Fol": 22686, "\u2581(=": 46608, "\u2581req": 21287, "\u2581([": 11667, "\u094d": 63490, "\u2581deve": 12181, "iro": 4870, "\u2581Disk": 39335, "async": 20522, "logo": 16426, "\u2581ensuring": 12735, "\u2581flav": 6683, "ching": 14579, "\u2581segment": 10239, "\u2581obsession": 29835, "COUNT": 31724, "\u2581triun": 48743, "omer": 12842, "\u2581ag": 2167, "\u2581Pierre": 22013, "ci\u00f3": 34837, "\u2581Physical": 24696, "lies": 6953, "Notes": 20575, "blings": 55682, "\u2581Modeling": 60700, "close": 9929, "<0x9A>": 1698, "alu": 5226, "\u2581Thous": 30795, "ifier": 7029, "otec": 37228, "\u2581corpo": 22495, "Closed": 46942, "\u2581saison": 25077, "lier": 4484, "Cer": 60330, "\u2581gradual": 31058, "\u2581Herb": 48574, "\u05d9\u05d5\u05d7\u05d3": 45846, "\u2581locating": 39891, "<0x81>": 1673, "expectedly": 32872, "\u2581semif": 30367, "guns": 49922, "<|reserved_884|>": 1400, "\u2581loved": 5966, "\u2581\u00b1": 14844, "\u2581LOC": 41879, "hesia": 31090, "\u2581unethical": 55459, "Marker": 42074, "\u2581heterosexual": 58495, "\u2581Allison": 39162, "csv": 19649, "stones": 31891, "\u2581steht": 41925, "\u2581Absolutely": 36259, "bourg": 24405, "\u044a": 64001, "\u4ee3": 63419, "\u2581immobili": 61962, "\u2581designed": 4759, "erous": 56710, "Guide": 40753, "\u2581instability": 32117, "historic": 45332, "\u2581lawyer": 11763, "Completion": 47846, "\u2581statutory": 24447, "\u2581Fellows": 54648, "\u2581cerve": 43247, "\u2581Spin": 27555, "\u2581orthodox": 62414, "\u2581event": 3187, "\u2581han": 10779, "Conference": 57105, "medium": 32155, "\u2581CU": 32393, "might": 51245, "\u2581killing": 11866, "\u2581escuch": 60220, "ophon": 58324, "reads": 38805, "Community": 28527, "=>": 10343, "amacare": 41795, "f": 62951, "\uce58": 64077, "\u2581nominate": 54256, "\u2581artigos": 59322, "\u2581widespread": 16643, "\u2581reconna": 59220, "\u2581housekeeping": 62494, "altern": 35728, "\u2581Liqu": 26566, "\u2581estrel": 57705, "\u2581someone": 3798, "HttpClient": 59089, "uchen": 44575, "\u2581deliberate": 30448, "\u2581aplica": 30474, "\u2581biodiversity": 34077, "xico": 18808, "session": 12152, "\u2581inclination": 45269, "\u2581chasing": 26565, "\u2581competency": 49577, "\u2581ability": 4811, "\u5904\u7406": 59574, "\u2581mother": 4673, "esque": 38934, "\\\":\\\"": 47648, "Tai": 58843, "stroke": 30005, "jud": 8779, "\u2581\u2581\u2581\u2581\u2581\u2581\u2581\u2581\u2581\u2581\u2581\u2581\u2581\u2581\u2581\u2581\u2581\u2581\u2581\u2581\u2581": 24297, "\u2581ideological": 37443, "-------": 22101, "next": 9358, "ooter": 22044, "ateur": 9826, "\u2581Tab": 17239, "\u2581assumed": 14630, "\u2581Richards": 35187, "y": 62952, "\u2581Pia": 35541, "\u2581Representatives": 27781, "sufficient": 46992, "\u2581torque": 24206, "sch": 13030, "\u2581llega": 43114, "maybe": 26835, "\u2581ADC": 57838, "\u2581hip": 11828, "IBILITY": 49567, "normal": 11205, "ancouver": 17212, "orda": 41175, "\u0645\u0627\u0621": 61379, "\u2581rival": 14602, "igi": 27343, "Cop": 45541, "\u65e7": 65246, "vict": 51042, "\u2581relating": 14719, "\u2581Logan": 26663, "\u2581foul": 26675, "\u2581s\u00fb": 29418, "\u2581Leader": 20353, "\u2581clust": 31021, "ARCH": 19992, "\u2581phosphory": 35309, "\u2581muffin": 46663, "wolves": 60902, "\u2248": 63846, "\u2581rm": 46842, "\u2581Judge": 14271, "Similar": 33887, "\u2581Medic": 9242, "\u2581scratching": 40513, "koop": 47115, "\u2581drop": 6391, "Demand": 56590, "\u2581pennies": 61394, "jah": 38192, "Sales": 34322, "\u2581gate": 11576, "\u2581affront": 52704, "\u2581ern": 56904, "**]{}": 24430, "\u2581commune": 25719, "attend": 51045, "\u2581bringing": 8517, "\u2581selves": 44465, "\u0648\u0641": 21839, "\u2581provoke": 51053, "\u2581Unternehmen": 43423, "\u2581detained": 33082, "\u2581nephews": 49492, "\u2581peuple": 61461, "\u2581directors": 15824, "\u2581requested": 11750, "Tw": 14269, "\u2581commonly": 10080, "LEVEL": 47604, "\u2581mad": 9128, "\u2581Wuhan": 59077, "\u2581notably": 22470, "nel": 6181, "\u2581Offset": 55582, "\u2581toes": 24527, "\u2581nause": 27430, "climate": 51877, "ensi\u00f3n": 51899, "\u2581Ebay": 59500, "\u2581Basket": 22660, ".\"\"": 25757, "\u2581navig": 19277, "quette": 33741, "ody": 2697, "\u2581zeal": 50494, "\u2581Billy": 19236, "Jud": 33709, "\u2581raised": 7118, "rive": 5821, "\u2581Photoshop": 25706, "product": 8708, "\u2581recover": 10801, "\u2581sessions": 9993, "\u2581Performance": 16189, "\u2581pancreat": 37368, "\u2581third": 4254, "Development": 39737, "\u2581rotated": 48318, "MSC": 56962, "welcome": 51104, "\u2581admon": 58513, "\u2581Tumblr": 54885, "\u2581Randy": 29712, "\u2581truck": 8763, "\u2581Breed": 39405, "adox": 27007, "oum": 49920, "\u2581chute": 52185, "\u2581Freel": 61055, "\u554a": 65323, "\u2581public": 2975, "Micro": 32258, "akistan": 9904, "\u2581Anne": 15163, "\u2581ERR": 26539, "\u2581molding": 43672, "\u2581Animal": 18339, "\u263a": 64519, "\u2581Mandela": 54211, "\u2581strange": 10626, "\u2581kidding": 33539, "\u2581dividend": 25909, "hait": 34059, "\u2581GW": 37707, "\u2581Ensemble": 48764, "\u2581espaces": 60731, "\u6df1": 64660, "\u4f17": 65257, "\u2581n\u00e3o": 4392, "\u2581rising": 10677, "\u2581Led": 25692, "\u2581hac": 16405, "crop": 53181, "eslint": 53884, "\u00e4ren": 56731, "\u0634\u0627\u0631": 58868, "religious": 49376, "\u2581boards": 13742, "\u2581Alternative": 31089, "\u2581hypoc": 54268, "\u2581Liberals": 52805, "\u2581Lawrence": 18696, "Chain": 28159, "\u2581anomal": 44386, "ove": 2202, "\u2581brutally": 49914, "\u2581forwarding": 50486, "\u2581prescription": 14047, "\u2581ir": 5183, "\u2581Vaughan": 62311, "\u00e9ri": 8644, "<|reserved_294|>": 810, "\u2581Sigma": 40046, "\u2581pardon": 48808, "\u2581Plant": 14145, "\u2581Italians": 59896, "<|mask_328|>": 332, "\u2581sua": 6337, "vres": 54871, "did": 24380, "\u2581bishop": 38426, "\u2581vengeance": 50573, "\u2581fist": 28544, "\u2581Egyptians": 56024, "\u2581\u05dc": 3427, "Crist": 60609, "\uae08": 64989, "\u2581botan": 35912, "\u2581Workplace": 55615, "ibilidade": 32296, "\u2581cheesecake": 54216, "bh": 47037, "\u2581remand": 55931, "\u2581objet": 11335, "\u05d0\u05d5": 29593, "\u2581televis": 22894, "\u2581compile": 22814, "\u2581weed": 24958, "Sequ": 51689, "\u2581Exp": 13430, "\u2581temas": 28586, "\u2581monsoon": 61829, "Industry": 56526, "\u2581barely": 13054, "epen": 48605, "\u2581pri": 3691, "\u2581skill": 9782, "merce": 9624, "\u2581scientifically": 46673, "FUNCTION": 47368, "gow": 23144, "\u2581filler": 41996, "\u2581totale": 43075, "\u9ede": 64422, "awi": 33624, "\u2581Blocks": 55713, "Manifest": 45443, "\u2581societal": 32568, "\u2581fps": 57341, "mv": 34252, "\u2581epoch": 36263, "intendo": 16827, "\u2581Sprint": 36987, "\u2581resisted": 47681, "\u2581diretamente": 48283, "\u2581ind": 2329, "\u2581Wagner": 33958, "\u2581August": 5303, "\u2581estes": 42383, "\u2581Scanner": 56166, "<|reserved_870|>": 1386, "\u2581damn": 17962, "\u2581roles": 9822, "ties": 4927, "\u2581\u05d1\u05e6": 37669, "isoft": 51270, "oche": 8436, "\u2581culp": 27891, "\u2581steeds": 38831, "ustr": 6115, "biology": 55712, "yi": 39623, "\u2581wetenschappelijke": 57809, "G": 62990, "\u2581Advant": 33784, "\u2581ter": 4017, "\u2581connected": 6943, "UNT": 20250, "\u2581arcade": 35173, "\u2581Paulo": 14336, "\u2581affiliate": 15593, "\\<\u2009": 48567, "\u2581\":": 51688, "\u2581McG": 18109, "kappa": 35416, "\u2581confortable": 54283, "\u2581Ansch": 61883, "\u2581Gour": 44400, "\u2581Win": 10405, "\u00f3rio": 17282, "viation": 21295, "\u2581OG": 54817, "appoint": 30735, "\u2581logos": 32052, "MS": 5896, "\u2581Match": 17730, "Screen": 21072, "\u2581swinging": 35257, "Eq": 41128, "\u2581rpm": 42724, "mis": 27899, "\u2581corr": 39827, "\u2581delve": 46420, "\u2581princ\u00edp": 49456, "\u2581M\u00e9d": 32644, "\u2581refugee": 31631, "\u2581Arabs": 47513, "pase": 57047, "\u2581Dialogue": 58710, "\u2581Updated": 26714, "<|reserved_408|>": 924, "\u2581pragmatic": 48123, "Style": 12209, "\u00efve": 54306, "\u5c3d": 64849, "\u2581retains": 33555, "\u2581invention": 13357, "\u2581scholars": 10815, "\u2581pie": 3972, "\u2581literal": 24612, "\u2581duties": 14429, "\u2581hunter": 31521, "tage": 31796, "\u2581pris\u00e3o": 55251, "\u2581fry": 27501, "\u2581Maj": 21482, "\u2581psychologist": 35606, "\u2581squadron": 61569, "\u2581Jal": 41571, "\u2581Santos": 23975, "enere": 50556, "\u2581photons": 56841, "\u00e9ments": 39099, "drawing": 60518, "\u2581gioco": 52187, "\u2581Evaluation": 31805, "Albert": 62799, "\u2581altri": 31949, "\u2019": 62999, "\u2581earm": 55503, "\u2581opge": 56485, "\u2581\u05db\u05df": 51939, "\u2581rencont": 9780, "Appellant": 46215, "errno": 54373, "\u2581Chong": 62130, "\u2581descriptions": 20952, "\u2581SPR": 59680, "\u2581Lobby": 60964, "\u2581\u05e8\u05d9": 48522, "\u2581escalation": 54867, "spra": 60804, "\u2581midday": 56523, "\u2581Affordable": 34859, "\u2581Students": 13523, "\u2581streak": 22522, "ONLY": 56512, "\u2581Shakespeare": 22273, "\u2581amaz": 4855, "yen": 60642, "\u2581dips": 55336, "Device": 16131, "\u2581Augustine": 43254, "\u2581Hole": 38022, "\u2581\u0648\u0643\u0627\u0646": 62602, "WT": 24331, "\u2581\u05d1\u05e8": 24514, "Acknowled": 52755, "\u547c": 64738, "\u2581Hawai": 14218, "DK": 60272, "pet": 7689, "\u2581disappointed": 15038, "\u2581implements": 18270, "reta": 29967, "<|reserved_488|>": 1004, "!\"": 12704, "\u00e9g": 7337, "\u2581freshly": 25941, "\u2581'')": 39432, "\u2581iniz": 58193, "\u2581?": 5936, "\u2581I": 1857, "\u2581Jefferson": 23824, "\u2581comeback": 28727, "Phil": 27219, "\u2581prevention": 14920, "\u2581decided": 4850, "Donald": 17163, "\u2581Harold": 33237, "bott": 55416, "av\u00edrus": 60579, "\u2581peers": 18375, "\u2581UE": 25079, "\u2581ting": 48038, "\uac04": 64101, "etimes": 4280, "\u2581competing": 15894, "\u2581Tang": 31163, "\u2581m\u00e1xima": 43538, "odynamics": 49912, "\u2581Macau": 54400, "\u2581mouth": 7488, "\u5c4b": 65140, "\u2581Brittany": 51195, "\u2581apresenta": 40720, "\u2581Union": 7897, "\u2581enzyme": 23156, "Write": 11573, "Roman": 43372, "\u2018": 63083, "\u2581purposeful": 60425, "\u2581hopes": 11187, "\u2581transporte": 29385, "\u5047": 64649, "\u2581Capitol": 22379, "\u2581n\u00f3s": 22488, "NIC": 60079, "Selected": 20704, "\u2581exotic": 22930, "\u2581Adventure": 25131, "\u2581pagina": 39001, "\u2800": 63698, "_->": 37612, "giving": 13514, "org": 3581, "\u2581exclusion": 27419, "\u2581alb": 47831, "\u2581presente": 19666, "som": 15780, "\u2581daddy": 34971, "\u2581trigger": 12207, "werpen": 57551, "\u2581rightly": 35080, "\u2581partidos": 36965, "\u2581benefici": 17869, "\ud559": 64676, "\u2581mouse": 11639, "\u2581emb": 5161, "\u2581Capital": 12436, "ostas": 38591, "\u2581majestic": 41169, "ense": 2695, "\u2581pricey": 35367, "timeout": 25413, "armac": 41778, "ANCH": 62538, "\u2581flexibility": 13319, "\u2581Deal": 19065, "service": 9263, "\u2581tril": 24738, "\u2581Avalon": 61955, "\u2581Booking": 43420, "\u2581municip": 10261, "ets": 2622, "origin": 26756, "\u2581vino": 45284, "views": 13855, "\u2581scrum": 48661, "\u2581pd": 25028, "\u2581Directory": 25836, "\u2581Bundes": 29103, "amsfonts": 48393, "gallery": 39317, "\u2581janvier": 29576, "\u2581occupies": 47476, "\u2581organizar": 60795, "HAS": 58469, "rag": 16178, "<|reserved_743|>": 1259, "\u2581prosper": 17814, "Delay": 42298, "\u2581trouver": 22094, "\u2581scr": 8729, "\u2581trajectory": 31211, "\u2581turf": 33769, "\u2581vielen": 51679, "\u2581Enable": 39304, "\u2581m\u00e9dias": 51084, "\u2581llegada": 55749, "\u2581enclosed": 31015, "\u2581Mongolia": 58601, "rom": 1957, "\u2581Rapid": 32012, "\u2581knowledgeable": 20730, "\u2581pain": 3526, "\u2581husband": 6237, "\u2581defesa": 47252, "\u2581plum": 25711, "\u2581pattern": 5508, "\u2581Hard": 10275, "\u2581extender": 52289, "\u2581hunts": 61423, "\uac8c": 63802, "quoise": 41334, "\u2581Crime": 21737, "Correct": 50314, "\u2581aprove": 23956, "\u2581discovery": 13165, "\u2581Understanding": 28359, "oday": 5828, "\u2581imp": 2837, "<0x5E>": 1638, "\u2581escrito": 42372, "rost": 31011, "\u2581organisers": 53687, "\u2581lantern": 42994, "ayed": 21714, "\u2581echt": 33922, "\u8d26": 64507, "\u2581denn": 39815, "Sources": 34811, "\u2581Andy": 16619, "\u65e0": 63681, "\u2581horrible": 17290, "\u2581Oasis": 55112, "\u2581catalogue": 29922, "\u2581Thrones": 38647, "\u2581pottery": 47984, "\u2581toilets": 36171, "\u2581md": 35863, "\u2581Saul": 41319, "\u2581pancreatic": 44325, "\u2581\u064a\u0645\u0643\u0646": 31925, "irem": 60499, "^[@": 19222, "assembly": 36875, "\u2581spoon": 23159, "authored": 56811, "Specification": 60564, "\u2581emerges": 38265, "FAIL": 40135, "\u2581Sinclair": 53945, "\u2581biking": 33785, "\u2581builder": 16569, "\u2581bitters": 53758, "Ki": 53414, "\u2581gearbox": 57905, "\u2581CRO": 53747, "\u2581shield": 18020, "izz": 7442, "\u3068": 63336, "\u2581attraction": 18994, "Cluster": 25452, "\u2581senate": 54209, "\u2581profond": 56498, "<|reserved_711|>": 1227, "\u2581serving": 8437, "\u2581grilling": 56898, "mistry": 20145, "\u2581staining": 30304, "\u2581ultimate": 11417, "(&": 9905, "\u2581marathon": 23939, "\u2581Damage": 43980, "Grid": 15362, "\u2581commands": 15418, "\u2581bats": 26221, "\u05d5\u05e3": 27609, "\u2581selecion": 50784, "\u2581spotting": 51171, "downs": 43244, "sequent": 51064, "\u2581timeless": 28636, "\u2581tray": 20231, "\u2581Economist": 59224, "\u2581beers": 26321, "\u2581Corporate": 24417, "\u2581Meanwhile": 16609, "\u2581Minas": 45022, "\u2581Jimmy": 19748, "Blog": 20868, "lord": 21451, "\u2581pregunta": 50728, "\u2581Memory": 21242, "scher": 42748, "lotte": 16171, "\u5b58": 63347, "\u2581panel": 7622, "isme": 16128, "<|reserved_303|>": 819, "\u2581Womens": 53962, "\u2581tient": 55860, "\u00e1nico": 49827, "\u2581corp": 22597, "imar": 35902, "\u2581obliv": 43578, "\u2581\u00ad": 45381, "\u2581sled": 50430, "insula": 23301, "Product": 12461, "\u2581spree": 52437, "\u2581ATT": 49825, "hah": 58999, "\u2581funniest": 61694, "instagram": 49250, "\u2581Champion": 22438, "reibung": 60253, "\u2581vener": 42163, "ecia": 62856, "\u2581appe": 4803, "\u2581Employ": 16905, "\u2581remedy": 20133, "\u2581mall": 22068, "\u2581Nassau": 60817, "\u2581protecci\u00f3n": 43941, "\u2581Louisiana": 18749, "odel": 41070, "mi": 11105, "<<": 17606, "\u05e7\u05e8\u05d4": 56776, "rength": 22576, "\u2581!=": 5370, "\u2581acteurs": 50414, "\u2581virtually": 13250, "\u2581ischemic": 57933, "\u2581crowdfunding": 53632, "\u2581contentious": 52731, "bered": 11549, "\u2581Dj": 30515, "\u0648\u0646": 7864, "\u2581pulse": 20493, "Unlike": 26371, "\u2581bottled": 41166, "\u2581milliards": 54100, "\u2581Rails": 42414, "autom": 26189, "\u2581outlet": 17470, "ames": 2630, "\u2581establishments": 30650, "inent": 9890, "\u2581Bears": 26283, "\u05d9\u05e7": 29786, "\u2581nights": 12317, "exist": 34702, "\u2581specialize": 33845, "\u2581sean": 39029, "orange": 40006, "rapie": 49446, "\u2581wished": 21388, "\u2581Beginning": 36896, "\u2581maestro": 57128, "\u2581underlined": 61510, "\u2581aim": 5556, "\u2581Baron": 34774, "\u2581silica": 41997, "\u2581Cam": 6121, "\u2581accelerating": 40133, "\u2581About": 9206, "oubt": 17067, "\u2581papa": 51618, "\u2581clues": 27163, "\u2581deterior": 21431, "\u0631\u0643\u0627\u062a": 50972, "\u5973": 64358, "\u2581Light": 8374, "\u2581spinach": 30074, "XR": 45878, "tas": 57570, "Party": 41814, "\u2581energized": 54598, "\u2581carcin": 23604, "\u2581cyst": 28050, "\u8207": 65319, "\u2581veteran": 15187, "erglass": 48136, "\u200a=\u200a": 45272, "$(": 12781, "novation": 34953, "\u2581Finish": 36076, "\u2581ridic": 14457, "jar": 10232, "\u2581Toyota": 17316, "\u2581Page": 10184, "uckle": 37161, "\u2581Bankruptcy": 48248, "WP": 28651, "\u00eames": 39146, "\u2581Crafts": 43437, "\u2581PARTIC": 26495, "reports": 46789, "\u2581\u05e2\u05d5\u05d1": 53081, "Cancel": 30747, "angers": 9501, "\u2581Cette": 21797, "\u2581austral": 28693, "\u2581Arte": 40213, "\u2122": 63147, "Char": 10274, "\u63a5": 63342, "\u2581Mg": 42672, "requently": 29881, "\")))": 59982, "\u2581roller": 18206, "Panel": 15923, "\u2581Mozart": 45871, "<|mask_339|>": 343, "ith": 1888, "\u2581Univers": 9540, "isas": 20657, "\u2581looming": 41436, "\u2581Leaf": 25184, "\u2581terminate": 30537, "\u2581disclaimer": 35345, "azzi": 35697, "\u2581d\u00e9couverte": 55840, "\u2581handshake": 61111, "\u2581vanaf": 43853, "\u2581prostitution": 44164, "fung": 50167, "\u2581shin": 58355, "\u2581leafy": 50796, "\u2581docs": 26384, "Leb": 53932, "\u2581Saskatchewan": 44586, "estic": 7537, "oho": 57388, "\u0e37": 64353, "<|reserved_39|>": 555, "\u2581recip": 11801, "rencies": 15571, "\u2581d": 1821, "\u2581detectives": 45948, "\u2581diciembre": 33436, "\u2581opens": 11939, "\u2581Familie": 61687, "\u221a": 64076, "\u2581ret": 2524, "augur": 25912, "unge": 16052, "?:": 13532, "\u00a3": 63118, "\u2581medic": 6280, "\u2581Stir": 25335, "\u2581ire": 41900, "fb": 21160, "isset": 30681, "\u2581algu\u00e9m": 35060, "Band": 35357, "olving": 55554, "anth": 17185, "\u2581Maxwell": 39191, "\u2581Blade": 35617, "\u2581licking": 53105, "\u2581jard": 21748, "Execute": 30385, "\u2581passando": 54071, "pute": 56928, "ugo": 51241, "TON": 18836, "uled": 7012, "\u2581\u00c1l": 52126, "lox": 29883, "temps": 35363, "\u2581corrections": 33432, "\ucee4": 65081, "Re": 2790, "\u2581royal": 17863, "\u2581everlasting": 55147, "\u2581wolf": 28400, "\u2581Redistributions": 53488, "\u2581ropes": 38515, "\u2581rare": 6659, "\u2581charg": 5039, "Het": 21125, "literal": 37589, "\u2581blossoms": 52364, "\u2581phantom": 58573, "\u2581plena": 61221, "zone": 13497, "\u2581popularly": 58900, "Interface": 15242, "ogr\u00e1fico": 52330, "gif": 28382, "ants": 2713, "\u2581goth": 48527, "\u2581mattered": 50214, "\u2581encourage": 8833, "IT": 3172, "\u2581aven": 25547, "<|mask_71|>": 75, "ON": 2719, "serial": 27239, "\u2581Flam": 46693, "providers": 48714, "\u2581gracias": 25734, "\u2581align": 11104, "THER": 20157, "aciones": 6750, "\u2581justices": 58923, "ates": 2289, "\u2581mostly": 7074, "forEach": 26410, "\u2581representations": 27876, "aine": 6361, "\u2581trouverez": 51911, "\u2581asign": 57702, "songwriter": 43193, "\u2581stories": 5737, "\u2581scooter": 35577, "\u2581Ambiente": 53224, "last": 7936, "\u2581decay": 24838, "amp": 2547, "\u2581TM": 28613, "\u2581tras": 13088, "pirit": 33047, "nelles": 43561, "ataire": 46568, "<|reserved_871|>": 1387, "youtube": 23816, "\u2581stadiums": 61004, "\u2581Bose": 49779, "\u2581tread": 24038, "\u2581Network": 9218, "\u2581fizeram": 58833, "\u2581parse": 15777, "\u0924": 63761, "\u2581Kop": 59876, "\u2581resolutions": 27405, "\u5bf9": 63273, "\u2581shoot": 5952, "\u2581transit": 18434, "omnia": 36818, "\u2581resultado": 20254, "Paint": 37240, "\u2581Maur": 21102, "\u2581deterioration": 42345, "\u2581toast": 25533, "\u2581Seoul": 35014, "\u2581setups": 54156, "\u2581multiplic": 60885, "\u2581tuck": 53335, "\u2581withdrawn": 33762, "SELECT": 16268, "\u2581remembers": 30674, "\u2581Puzzle": 55861, "\u2581publicity": 29343, "\u2581volunteering": 33261, "\u2581Steven": 18885, "generation": 22927, "\u2581\u0627\u0644\u0628\u064a": 45885, "\u2581scalability": 52447, "\u2581Kann": 55124, "\u2581Whole": 28170, "vault": 61614, "OST": 14665, "Statement": 22159, "\u2581restless": 48942, "\u2581Mariners": 58545, "\u2581bit": 3254, "\u2581Pitch": 44098, "chapter": 40467, "jur": 50790, "\u2581superheroes": 61801, "ouses": 13750, "\u2581gra": 4296, "orna": 42364, "\u2581SC": 11663, "aje": 20896, "\u2581standing": 8229, "\u2581ensemble": 19835, "mob": 44212, "waiting": 54731, "\u2581archivo": 59193, "Eth": 37818, "\u2581completion": 13247, "\u2581galaxies": 37100, "density": 38096, "ENCES": 58383, "\u103a": 64974, "expensive": 20546, "\u2581concealed": 34482, "\u0e33": 64605, "\u2581conventions": 31933, "firebase": 53272, "\u2581mildew": 62238, "\u2581Kab": 32298, "\u2581Rosen": 27612, "\u2581expres": 28712, "\u2581caregivers": 35223, "\u2581raffle": 52720, "otive": 14347, "\u2581filosof": 48332, "\u2581spor": 39789, "\u2581Adventures": 34962, "\u2581Tucson": 38557, "\u0455": 63321, "\u2581devient": 39629, "ancellation": 39849, "\u2581Honestly": 38916, "Mi": 29246, "oka": 25430, "tot": 32111, "\u2581seine": 29403, "MAS": 59544, "\u2581pedal": 28878, "<|reserved_72|>": 588, "\u2581stay": 3720, "FFFF": 31547, "\u0633\u064a\u0629": 33350, "\u2581Ratio": 47753, "\u2581Curry": 35746, "\u2581Fergus": 30789, "\u2581persuaded": 42946, "ude": 4027, "\u2581lien": 27873, "istema": 29658, "ViewModel": 32383, "\u2581enrich": 21540, "oga": 8932, "\u2581telephone": 13786, "Cre": 46655, "\u2581Jupiter": 35108, "\u2581CNN": 20237, "\u03c3": 63351, "<|reserved_867|>": 1383, "\u2581composto": 56577, "\u2581%>": 30328, "\u2581taxi": 20275, "\u2581\u05dc\u05e4\u05d9": 56159, "\u2581Kl": 18987, "\u2581Charleston": 32405, "\u2581autom": 4329, "\u2581oil": 4554, "atri": 29072, "\u2581intermitt": 35008, "zado": 54127, "\u2581honor": 9376, "\u2581studied": 10762, "\u2581terceira": 58311, "\u2581Valley": 8776, "\u2581Coordinator": 30759, "Sensor": 46599, "Fact": 25818, "\u2581Cornell": 36588, "\u2581nd": 49606, "wijl": 57574, "\u2581sinc": 29925, "<|mask_454|>": 458, "\u0644\u0627\u0645": 39495, "ierta": 42573, "\u0ccd": 64954, "\u2581insecurity": 39085, "\u2581soprattutto": 50384, "i\u00df": 33401, "\u2581buddy": 23927, "\u2581based": 3430, "\u2581douche": 45041, "ANE": 42930, "izens": 21882, "\u2581pou": 6715, "\u2581breakdown": 19789, "\u2581granular": 46833, "\u2581extremists": 59941, "\u2581Natur": 25195, "medicine": 53482, "\u2581numero": 36526, "\u2581realiz": 9872, "ensed": 8681, "\u2581unmatched": 46894, "\u2581Deluxe": 37579, "\u2581phenomenal": 32524, "rupt": 5902, "rect": 8076, "InstanceState": 42114, "\u2581Conselho": 47204, "\u2581Vogue": 48557, "\u2581Cisco": 30046, "\u2581transformative": 45950, "\u2581Ernst": 51515, "\u2581wx": 45481, "Peace": 53749, "\u2581Capricorn": 61469, "\u2581solids": 47657, "\u2581intens": 13833, "<|reserved_101|>": 617, "\u064a\u0632": 54019, "\u2581informing": 38385, "<0xC9>": 1745, "\u2581Trustees": 44628, "alid": 15921, "\u2581nickname": 32769, "tenham": 29893, "\u2581contingent": 37225, "Variables": 43903, "olor": 39898, "<|reserved_121|>": 637, "\u2581opposition": 12045, "\u2581fen": 24856, "\u2581\u05d4\u05e0\u05d5": 50285, "\u2581Kyr": 53720, "\u673a": 63554, "ressing": 19595, "\u2581Vamp": 37026, "\u2581Wife": 38607, "\u2581Arizona": 12588, "\u2581clips": 20217, "\u2581Guid": 20907, "ellites": 34030, "\u2581dont": 9663, "YS": 18203, "ographs": 31656, "ding": 3929, "\u2581betrayal": 45206, "\u2581bags": 11363, "\u2581aptly": 59439, "\u2581supers": 31759, "\u2581thwart": 47316, "roy": 6394, "---------": 24296, "\u2581idade": 35976, "\u2581blog": 4089, "\u2581march": 11425, "\u2581whiskey": 38498, ".')": 49848, "NOW": 50217, "\u2581sine": 61312, "\u2581companies": 4109, "ensa": 24428, "\u2581Thankfully": 30983, "\u2581Reliable": 62715, "\u2581embedding": 46182, "\u2581torno": 40084, "again": 23059, "\u2581forecasts": 29498, "list": 4344, "PG": 12827, "KEA": 56073, "\u2581renters": 58275, "\u2581Clothes": 61849, "auer": 19035, "\u2581hone": 28217, "groupId": 30586, "\u2581t\u00e9cnico": 31551, "CAST": 57282, "\u2581Define": 40511, "\u2581conductor": 30685, "<|mask_268|>": 272, "\u2581Molly": 34477, "\u2581Morm": 34468, "ributing": 45292, "performing": 37886, "\u2581Aw": 19904, "\u2581Pied": 48639, "haus": 21088, "\u2581Num": 21535, "\u2581Helper": 50393, "Also": 9043, "ENG": 24103, "\u2581an\u00e1lisis": 43529, "\u2581unlucky": 56983, "rio": 5156, "\u2581poly": 8333, "<|mask_202|>": 206, "\u2581inspector": 36258, "\u65e2": 65184, "stderr": 37662, "\u2581Krishna": 43312, "\u2581PACK": 61615, "reject": 46964, "\u2581Ron": 10819, "\u2581scare": 27377, "intern": 20510, "\u0084": 64609, "\u2581Afghanistan": 16350, "\u2581HS": 23126, "\u2581cross": 4962, "\u4e91": 64468, "\u2581disting": 40549, "\u2581heated": 18998, "\u2581fui": 40245, "\u2581Nouvelle": 59533, "\ub530": 64699, "\u2581Archbishop": 46110, "\u2581lb": 27375, "til": 3587, "\u2581ging": 31318, "\u2581Holocaust": 32563, "\u2581fibro": 37796, "ayas": 44391, "\u2581Poder": 54880, "\u2581tuo": 40873, "\u2581palabra": 47143, "\u2581Swift": 23393, "\u2581carga": 36882, "\u2581haunting": 42603, "rors": 14981, "\u2581phased": 58199, "ostic": 12465, "\u2581cil": 35188, "lif": 31974, "\u2581disciplined": 43871, "arse": 9604, "\u2581comic": 15114, "Host": 13828, "Stephen": 39315, "\u2581Lear": 8218, "\u2581dot": 15425, "\u2581ville": 18790, "meld": 58788, "\u2581Musik": 46787, "\u2581resources": 5442, "\u2581acceler": 10736, "Management": 28984, "\u2581centered": 21595, "\u2581suerte": 52749, "Accueil": 54678, "Prom": 17771, "eating": 54580, "\u2581degli": 21174, "\u2581Addiction": 48011, "WM": 27370, "\u2581esfor": 44252, "<|mask_91|>": 95, "andi": 34254, "\u2581Epstein": 52908, "\u2581arose": 32617, "\u2581banana": 25617, "opa": 27201, "\u2581Meetings": 54914, "oulos": 47487, "Wir": 43721, "Scheme": 46338, "\u2581retired": 13733, "\u2581Siemens": 48790, "\u06c1": 64230, "\u2581Nashville": 22827, "itted": 4121, "habilitation": 18625, "\u2581per\u00ed": 20756, "\u2581divorced": 30871, "\u2581Rus": 26490, "<0x62>": 1642, "\u2581vit": 7583, "\u2581term": 3099, "master": 10242, "\u2581Rs": 12696, "\u2581Kevin": 12791, "\u2581Estado": 16028, "employment": 38248, "\u2581plantations": 56307, "\u2581Embassy": 37521, "estro": 32730, "fund": 20021, "atson": 20505, "velopp": 50588, "\u2581Hemingway": 61369, "SIM": 38143, "\u2581praia": 53777, "\u2581namoro": 62840, "\u2581contradict": 27608, "\u2581reverse": 12498, "\u2581Dark": 12123, "\u05dc\u05ea": 28283, "\u2581Provider": 32273, "TRY": 48322, "\u2581cand": 4716, "\u2581first": 2288, "contains": 21206, "\u2581contribuir": 58837, "WC": 26506, "\u05e8\u05d9\u05dd": 14858, "\u2581nieces": 51440, "\u2581belts": 33966, "\u2581\u05e9\u05dc\u05e0\u05d5": 48872, "ustom": 2803, "wer": 7176, "feet": 49959, "\u2581vidas": 44039, "\u2581sew": 25554, "greSQL": 56936, "\u2581unparalleled": 39695, "Vis": 9562, "\u2581schnell": 47576, "Uk": 40218, "Scene": 30851, "\u0644\u0628": 28622, "\u2581prost": 12728, "oit": 24698, "\u2581tel\u00e9f": 37451, "bodied": 55476, "ix": 2411, "urger": 34821, "\u2581Schwartz": 45335, "\u2591": 64259, "\u2581themselves": 4757, "\u2581attacking": 21715, "<|mask_370|>": 374, "\u2581acerca": 37287, "\u2581Parmesan": 58711, "\u2581merchandise": 18719, "itoneal": 60997, "\u8bc9": 65460, "\u2581popularity": 13846, "iramente": 56624, "route": 20004, "\u2581tough": 8102, "Compart": 54934, "\u2581Treatment": 21444, "\u2581openings": 30123, "\u2581expiry": 58619, "\u2581Sear": 49626, "\u2581implanted": 55936, "\u2581fiets": 58768, "\u2581Cada": 42299, "\u2581unprecedented": 21054, "\u2581calculating": 31553, "\u2581keys": 10962, "\u2581Fans": 29692, "Profile": 20473, "yson": 28923, "chsel": 50884, "\u2581ervoor": 61428, "\u2581benef": 3537, "ilians": 24287, "utral": 26555, "happy": 43665, "aira": 47228, "mers": 14689, "\u2581pea": 54822, "\u2581anal": 3284, "\u2581comma": 42843, "ETER": 49385, "IRD": 54305, "\u2581Oyster": 62558, "allas": 12198, "\u2581fle": 8051, "\u2581needless": 55908, "\u2581steadfast": 51962, "IsNull": 49545, "feed": 20459, "\u2581alcan": 23197, "ILLE": 36553, "\u2581NYC": 20719, "\u2581halt": 21846, "\u2581investigation": 8712, "idence": 3695, "\u2581Armor": 53551, "\u2581accessibility": 22212, "\u2581memories": 11118, "TPS": 39220, "\u2581termine": 45946, "\u00e1rio": 7482, ":%": 33400, "blems": 23046, "\u2581elders": 35099, "\u2581cylinders": 45296, "\u2581pien": 57981, "\u2581erano": 60993, "\u2581posse": 61424, "\u2581Angelina": 62448, "\u056b": 65269, "\u2581bride": 18971, "compliance": 55194, "eph": 41858, "\u2581scouts": 54763, "\u2581Czech": 22677, "\u2581commodity": 27335, "\u2581zullen": 46493, "\u3069": 64132, "\u2581neuroscience": 58901, "WA": 18312, "\u2581browsers": 26172, "\u2581hoof": 34915, "\u2581Cell": 15700, "\u2581v\u00e9hicule": 54328, "lator": 46658, "avirus": 9915, "\u2581sait": 42999, "\u2581prot\u00e9ger": 54691, "\u2581Mongo": 41501, "\u2581Roe": 50686, "\u2581Roll": 11004, "OMS": 58817, "special": 22334, "\u2581snapshot": 27126, "\u2581push": 6218, "Const": 13100, "\u2581qualidade": 21455, "asing": 4005, "llo": 38972, "\u2581Drum": 32882, "\u2581malign": 41230, "\u2581cites": 44330, "\u2581cop": 6718, "\u0623": 63082, "\u2581Parl": 47043, "hk": 61700, "\u2581numa": 26902, "liers": 10885, "aille": 18950, "\u2581NPR": 41468, "\u00a1": 63182, "\u2581bouncing": 41566, "l": 62943, "\u064c": 64308, "lb": 24953, "\u2581rester": 44041, "\u2581instala\u00e7\u00e3o": 56921, "\u2581flick": 22604, "Tweet": 55846, "\u2581Tec": 27723, "\u2581phy": 54084, "\u2581indic\u00f3": 62711, "\u2581programm": 32343, "\u2581Filter": 23282, "\u2581Mickey": 34392, "rous": 13484, "gico": 61244, "\u2581tiger": 36003, "\u2581seamless": 24160, "\uff01": 63750, "Browse": 40083, "\u2581Insights": 42917, "\u2581\u0630\u0627\u062a": 62792, "\u2581pony": 34258, "ito": 3679, "sten": 11832, "\u2581aston": 23874, "\u2581hate": 9476, "<0x1E>": 1574, "\u2581Cycl": 26598, "CK": 10400, "\u2581geme": 26765, "\u2581amenities": 17968, "\u2581reflecting": 23868, "\u2581Plenty": 42910, "\u2581Graz": 45486, "DOC": 47908, "\u2581d\u00e9cl": 57489, "\u2581update": 5760, "\u30d3": 64221, "iev": 16846, "\u2581i\u00e7": 60536, "ARC": 32236, "\u2581intentional": 28907, "\u2581baise": 48660, "\u2581Eagles": 21551, "reader": 22386, "\u2581kit": 5460, "\u2581Stay": 17195, "\u2581Candy": 33470, "\u2581array": 5916, "\u2581purchaser": 43556, "\u2581Ava": 47923, "\u2581Thess": 61132, "\u2581honors": 25241, "\u2581consolidate": 44749, "\u2581\u05d4\u05e9\u05d9": 46384, "Messages": 31751, "\u2581vortex": 56089, "\u2581punitive": 50357, "cdn": 29859, "\u2581binocular": 55003, "\u2581languages": 11814, "opard": 21780, "\u2581discontinued": 39418, "\u2581CH": 8750, "\u2581coerc": 45189, "urations": 55864, "\u2581syndrome": 16364, "\u2581Population": 35476, "chel": 31586, "\u2581Piece": 33647, "\u2581im\u00e1genes": 38499, "\u2581Particip": 19559, "<|reserved_363|>": 879, "<|mask_68|>": 72, "Kit": 21778, "ById": 14712, "IDER": 60402, "\u2581selection": 6642, "\u2581civilians": 27437, "HL": 12984, "\u2581Tiger": 22771, "\u2026\u2026": 19473, "controls": 41852, "\u2581multiples": 44016, "\u2581executives": 19374, "\u2581complexity": 15548, "\u2581ait": 59650, "\u2581Career": 26123, "\u2581Fir": 61245, "also": 15210, "\u2581darkest": 48417, "\u2581Frequency": 53092, "\ud83e\udd14": 64826, "\u2581Crimson": 51981, "ensch": 22611, "\u2581expl": 2918, "obiles": 31483, "\u2581relentless": 38994, "\u2581Examin": 50207, "\u2581cuya": 58094, "\u2581\u200b\u200b": 30897, "quick": 31178, "\u2581language": 5008, "Initialize": 41514, "\u2581outside": 4431, "\u2581skys": 53406, "\u6761": 63776, "\u2581Foundation": 7808, "asonic": 29529, "\u2581\u05de\u05dc": 62357, "\u2581MOV": 43032, "\u2581tired": 11098, "\u2581COMP": 20854, "\u2581upright": 28386, "\u2581rehe": 23776, "\u2581personaje": 55837, "\uff1a": 63198, "<|reserved_249|>": 765, "\u2581embod": 20399, "\u2581tack": 9639, "\u2581asbestos": 38349, "mera": 43692, "\u2581Revelation": 48303, "Vac": 48604, "\u2581entail": 51470, "\u2581Psychiat": 52780, "\u2581rem": 2397, "\u2581Promo": 35364, "ores": 3544, "\u2581Ivan": 29315, "\u2581Thursday": 6476, "\u2581Song": 14049, "retval": 52253, "\u2581custo": 45473, "\u2581wel": 4899, "\u2581remove": 6232, "\u2581disturbing": 25600, "\u2581timely": 16984, "nummer": 50586, "applications": 53229, "\u2581Cameron": 21266, "\u2581zoek": 27666, "\u2581ministre": 36173, "\u2581patiently": 43007, "\u2581totaled": 52707, "\u2581doomed": 42626, "\u2581swam": 61281, "\u2581mitochondria": 57474, "S": 62961, "eko": 62756, "\u2581Quarterly": 52060, "<|reserved_350|>": 866, "Ther": 45954, "\u2581Bowman": 59530, "\u2581Skin": 23881, "\u2581Hyg": 60430, "\u2581perda": 53702, "\u2581[\r": 57545, "\u2581Brighton": 34038, "\u2581preserves": 46955, "\u2581Dyn": 14989, "zir": 51508, "\u2581stumble": 45193, "\u2581obsessive": 53372, "\u2581women": 3546, "\u2581argument": 7859, "Emb": 31616, "\u2581hedge": 25500, "\u2581Bahia": 43308, "\u2581essas": 33037, "\u2581parece": 20777, "\u2581\u05dc\u05d0": 9458, "\u2581graduating": 27588, "\u2581sharper": 61230, "\u5f55": 63556, "\u2581warriors": 34947, "\u2581Featuring": 37370, "\u2581cringe": 61890, "\u2581al": 1900, "family": 14036, "\u2581whereabouts": 58378, "\u2581quilt": 23103, "\u2581Attribute": 45641, "\u2581pharmacy": 20181, "\u8ffd": 64499, "\u2581ignor": 17423, "arios": 8384, "WIT": 56991, "\u2581travers": 20421, "\u2581height": 7451, "\u2581VM": 21343, "artifact": 27829, "entric": 28933, "\u00e1lez": 42411, "wicklung": 48540, "\u2581Vide": 57427, "\u2581Malibu": 62305, "}})": 54545, "\u2581v\u00eda": 51490, "winner": 50929, "<|reserved_220|>": 736, "\u2581ardu": 55064, "\u2581devrait": 39371, "\u2581pasture": 46604, "\u2581PCs": 32570, "\u2581empleo": 54531, "\u2581veio": 49627, "\u2581alarm": 12992, "\u2581unexpected": 13673, "\u2581Aside": 30771, "\u3063": 63706, "\u2581Cialis": 32422, "\u2581Sain": 40662, "\u2581Pax": 54611, "\u2581Chrome": 17017, "\u2581reprodu": 11792, "\u2581\u03b4": 61544, "bble": 59756, "\u2581professionnels": 35880, "\u2581energetic": 24093, "\u2581r\u00e9pond": 28252, "\u2581Guarantee": 43999, "agement": 5099, "\u2581r\u00e9serv": 45148, "ophy": 10291, "Owner": 31715, "\u2581solvent": 32896, "\u2581exile": 43001, "\u2581honored": 20194, "\u2581depths": 29244, "\u2581mansion": 33023, "\u2581Pinot": 55277, "<|mask_86|>": 90, "\ub798": 64066, "\u2581collar": 22028, "\u2581Smy": 59759, "Q": 63031, "\u2581Township": 27294, "\u2581entropy": 43005, "atural": 3928, "\u2581tortillas": 59168, "CCESS": 28475, "Rew": 33979, "\u2581steril": 42302, "\u2581bring": 3828, "\u53bb": 63811, "\u2581fart": 22770, "\u2581validating": 61698, "\u2581messenger": 36738, "\u2581municipio": 39307, "\u2581Grande": 18303, "typen": 26588, "an\u00e7aise": 28731, "\u2581interpreter": 41638, "\u2581execut": 10877, "\u2581Bek": 43837, "\u2581HAS": 42825, "\u54ea": 64580, "stress": 41992, "\u2581acknowledges": 36166, "Lost": 44134, "\u00e9conom": 48755, "pag": 30255, "Sem": 27925, "fixture": 50352, "\u8868": 63274, "\u2581diarrhea": 35878, "prus": 31448, "\u2581Alejandro": 48398, "\u2581CENT": 55601, "\u2581Zus": 36191, "\u2581bathrooms": 26788, "\u2581transmitting": 45968, "\u2581journalist": 17175, "\u2581conduct": 7143, "\u2581happiness": 13598, "\u2581Singh": 18377, "\u2581musica": 44869, "\u2581definir": 50780, "hardware": 49550, "\u2581Tell": 18924, "\u2581Russell": 17432, "vez": 8993, "\u2581Nest": 26804, "\u2581exceeded": 26982, "\u2581acronym": 52488, "\u2581puzzle": 19302, "\u05db\u05df": 26468, "\u2581gallons": 33844, "\u2581Activation": 61006, "\u2581Fav": 34743, "ango": 11907, "YOU": 48105, "\u2581Enterprises": 43885, "\u2581conquered": 45839, "\u2581Fetch": 59337, "\u2581steam": 14585, "\u2581Lore": 31937, "\u2581Affect": 59802, "\u2581cara": 25868, "\u2581alphabet": 28128, "\u2581elecciones": 48013, "shire": 22437, "iosis": 41976, "\u2581onstage": 56197, "\u2581momentum": 15496, "\u2581multim": 40106, "unes": 8344, "\u2581instruction": 12183, "\u2581tends": 16386, "?>": 20287, "emplates": 22256, "\u2581signal": 8039, "\u2581rotor": 37793, "Dirty": 54196, "\u2581lied": 34822, "\u2581Od": 16094, "<|reserved_453|>": 969, "\u2581prematurely": 60914, "ercio": 36023, "mx": 32355, "\u2581expressly": 35049, "\u63d2": 64106, "lea": 50151, "\u2581spit": 38624, "\u2581Costs": 43827, "\u2581terrible": 12300, "\u00f6rper": 52872, "\u0648\u0631\u0629": 29583, "\u2581intends": 27329, "Gui": 43567, "ubro": 31412, "\u2581indicators": 19625, "algia": 47081, "depth": 14946, "Average": 35620, "\u2581meditation": 18874, "\u05d2\u05d5\u05e8": 59618, "\u2581Forest": 13098, "<|reserved_967|>": 1483, "ences": 5244, "\u2581powdered": 43832, "\u2581wisdom": 14079, "\ubbf8": 64039, "BYTE": 56386, "\u2581unint": 28652, "\u2581fiscal": 13107, "ounds": 5547, "illian": 43696, "\u2581instruments": 14077, "\u2581bitcoin": 15475, "\u2581Develop": 7049, "getString": 30178, "naissance": 32187, "\u2581preferences": 16640, "Channel": 18656, "\u2581altijd": 32659, "\u2581biggest": 6540, "\u2581Medal": 31106, "\u2581pr\u00e9sente": 33371, "education": 42509, "Fern": 51429, "Sn": 16560, "\u2581qui\u00e9n": 55427, "\u2581Stub": 55474, "\u2581oktober": 61101, "Rio": 61906, "\u03ce": 64766, "\u2581scene": 6637, "\u653e": 63734, "\u05e8\u05d7": 58141, "\u2581tut": 7179, "\u2581jaw": 14283, "\u2581root": 7538, "aptic": 41610, "rho": 17267, "\u2581|=": 37545, "\u2581Web": 6437, "\u2581bird": 11300, "cod": 21231, "\u00eats": 39799, "\"<": 43600, "adas": 4780, "\u2581\u0648\u062d": 39516, "\u2581anticipation": 28020, "aliation": 45816, "oenix": 16534, "\u2581viu": 56966, "\u2581NMR": 54173, "\u2581Mein": 54702, "\u2581Cind": 27860, "\u2581Chau": 55798, "Danny": 59954, "lehem": 50170, "omega": 16520, "\u2581threat": 5701, "\u2581urine": 24259, "\u2581cornerback": 59227, "\u2581sway": 31507, "\u2581chill": 20161, "<|mask_380|>": 384, "\u2581noct": 42862, "\u2581labeled": 22039, "subset": 26798, "\u2581b\u00e9n\u00e9ficier": 60635, "\u2581stagione": 54072, "\u2581Branch": 24573, "\u2581Bare": 45714, "\u2581familial": 49753, "\u2581muita": 30470, "\u2581southwest": 32353, "\u5c1d": 65400, "\u2581weekends": 20851, "\u2581playoff": 22922, "\u2581AU": 32392, "df": 6030, "\u2581cob": 18192, "\u2581leases": 47315, "Dos": 58690, "\u2581oportun": 18150, "iew": 2297, "\u2581sui": 41013, "stelling": 44075, "\u2581route": 7722, "\u2581condens": 58132, "\u00e1culo": 43445, "\u2581Ralph": 26608, "\u2581distressed": 45072, "\u2581ds": 38477, "\u2581coche": 44953, "\u2581tiene": 10652, "BU": 15603, "\u2581libert": 16440, "vote": 42450, "ASF": 58998, "\u2581implant": 20460, "\u3067": 63282, "\u2581slot": 8845, "\u0939": 63878, "\u2581Relative": 55514, "CBS": 48090, "\u2581polar": 15382, "\u2581advis": 10464, "\u2581dusk": 53666, "\u2581sisters": 16471, "Trad": 29716, "\u2581[])": 48130, "f\u00fch": 48635, "\u5ba1": 64958, "][": 7511, "\u2581JM": 58381, "\u2581Gaines": 52280, "\u2581Hollywood": 11781, "\u2581diver": 20345, "\u05d5\u05d2": 16366, "worthy": 18643, "\u2581Seu": 53837, "\u2581forging": 61002, "GBT": 17318, "\u2581d\u00e9pend": 49323, "\u2581horizontal": 17634, "\u2581tempo": 9770, "POST": 16191, "\u2581jeopard": 35177, "solete": 35738, "igner": 35067, "neq": 44213, "Orientation": 53390, "\u2581avoid": 4931, "CNN": 49058, "compliant": 58238, "lip": 40670, "rpc": 40889, "\u2581hostname": 58836, "\">(</": 61487, "ANI": 42645, "Managed": 50948, "\u2581almonds": 42650, "\u2581quickest": 44942, "\u2581schon": 25780, "argas": 43013, "\u2581lider": 29242, "\u2581suo": 23587, "an\u00e7as": 29426, "\u2581nuestras": 33206, "\u2581unresolved": 53799, "\u907f": 64922, "\u2581pept": 22580, "\u00f3stico": 44314, "\u2581bladder": 31097, "\u2581Orion": 50763, "\u2581Europea": 60788, "hog": 35678, "leground": 60257, "\u2581leaving": 6951, "\u2581semestre": 56269, "\u2581Gonz\u00e1lez": 43965, "\u2581Burns": 32947, "\u2581Mare": 42940, "\u2581NFT": 26247, "\u2581CB": 8174, "iller": 6244, "\u2581Lessons": 46771, "icity": 52693, "\u2581Latin": 12702, "\u2581Walking": 27473, "ivals": 51185, "\u2581Fer": 16322, "aman": 13609, "\u2581Professor": 11661, "okane": 50171, "\u2581usu": 15955, "\ucd9c": 64084, "\u2581downloaded": 16510, "\u2581ripe": 31457, "ASP": 50734, "\u2581grammar": 24339, "\u2581inert": 37348, "ropic": 26657, "()).": 20687, "\u2581spotlight": 24460, "<|mask_490|>": 494, "\u2581Tip": 23923, "\u2581zero": 8718, "\ud83d\udc99": 65254, "\u2581procession": 49476, "ented": 11212, "\u2581Licht": 61282, "\u2581Retreat": 50209, "\u2581acknowled": 12253, "\u2581\u200e": 56044, "\u2581goodness": 20640, "iam": 4401, "\u2581apresent": 13637, "\u2581rapidly": 11535, "\u2581able": 3032, "\u2581salir": 37588, "\u2581visionary": 48440, "\u2581Dir": 29911, "\u2020": 63391, "\u2581vary": 8706, "\u2581continue": 4294, "\u2581deployed": 19003, "zk": 51332, "\u05b8": 63694, "\u2581campanha": 40027, "ordered": 24775, "\u2581made": 2570, "\u2581together": 3361, "\u2581Times": 8383, "\u2581Chocolate": 23770, "\u2581avalia\u00e7\u00e3o": 48083, "\u2581cannon": 45987, "\u2581resolution": 9364, "\u2581promulg": 62482, "\u2581widgets": 42798, "\u2581Proper": 43057, "'])": 16580, "ione": 4434, "files": 11595, "HC": 17904, "\u2581stolen": 16406, "\u2581Crawford": 35765, "\u2581Atlanta": 14363, "\u2581Montr\u00e9al": 48436, "\u2581sang": 16241, "\u2581countryside": 25601, "\u2581swaps": 62836, "visibility": 45498, "compl": 26656, "\u2581cool": 4888, "uras": 11083, "lst": 43782, "rines": 45713, "\u2581Highlands": 47283, "\u2581regardless": 10710, "\u2581DES": 20199, "Assistant": 59086, "\u2581D\u00edaz": 62502, "\u2581bios": 29162, "\u2581b\u00e9b\u00e9": 53914, "\u2581check": 3270, "stackoverflow": 61115, "DM": 20315, "\u2581\u0647\u064a": 30737, "Utility": 44866, "\u2581Antes": 56783, "\u2581hass": 20265, "\u2581concess": 23697, "rimin": 54826, "\u2581Nice": 21275, "\u79bb": 64369, "\u2581saut\u00e9": 49809, "\u2581spac": 45867, "bes": 12480, "\u2581dumb": 21210, "\u2581import": 2636, "\u2581flavored": 45996, "\u2581charge": 5619, "\u2581Coca": 39015, "\u2581shocked": 18162, "iceerd": 52697, "features": 23798, "\ud83d\ude80": 64691, "\u2581Myanmar": 33731, "\u2581Dash": 34257, "Virtual": 29030, "\u064a": 63030, "\u2581Arena": 21365, "\u2581Restore": 54649, "\u2581Ethiopian": 53015, "Typed": 58447, "\u2581fate": 17615, "\u2581Blu": 13866, "\u2581hormones": 24385, "Validate": 42144, "\u5f80": 64779, "\u2581interoper": 52234, "\u2581Look": 8105, "\u2581sulfate": 49894, "<|reserved_753|>": 1269, "ghai": 20620, "learn": 24199, "\u2581selfish": 26593, "\u2581Sirius": 46948, "\u2581Upt": 61943, "\u2581Opinion": 45043, "<|reserved_75|>": 591, "\u2581Minute": 47914, "\u2581aesthetically": 58550, "\u05d9\u05d4": 8917, "enten": 53604, "<|reserved_833|>": 1349, "\u2581Von": 28535, "Ins": 13608, "\u2581tipped": 43021, "contrib": 44999, "\u2581competencies": 49859, "\u2581Heroes": 31601, "\u2581traumatic": 31350, "\u2581pued": 6590, "oscope": 32710, "\u2581namelijk": 56866, "\u03cd": 64433, "\u2581monopoly": 43253, "\u2581peeled": 40476, "\u2581noticed": 8581, "\u2581Patch": 32170, "\u2581Agency": 13345, "\u2581albums": 17271, "\u2581Franklin": 19746, "sson": 24950, "\u2581bakery": 35300, "\u2581engra": 28210, "\u2581cages": 50944, "\u2581wish": 5641, "\u65bd": 65183, "INTER": 22774, "<|mask_45|>": 49, "Saturday": 25557, "\u2581resposta": 41853, "blockList": 43023, "\u2581aesthetics": 34000, "Quad": 57139, "\u2581Scholarship": 33167, "\u2581hosp": 11687, "\u2581carrera": 33348, "\u2581f\u00edsico": 44441, "\u697c": 64806, "\u2581Mall": 18533, "\u2581fam": 2573, "ESC": 55995, "\u2581Nam": 18028, "heits": 48653, "living": 36418, "\u2581thyme": 47004, "\u2581hus": 5953, "\u2581jump": 7130, "\u2581self": 3055, "\u2581experiments": 12969, "\u2581cleavage": 49362, "}_{": 14089, "\u2581Fax": 50711, "Leg": 24222, "\u2581);": 8670, "\ucd5c": 64517, "Martin": 30510, "assi": 43050, "\u2581ej": 15312, "Prof": 17211, "\u2581Hamb": 28369, "caps": 31018, "\u2581Way": 9388, "\u2581Oncology": 57963, "Db": 23490, "\u2581Cemetery": 28558, "Gold": 18886, "nector": 27321, "rido": 47976, "\u2581EUA": 43105, "\u2581boas": 46267, "\u2581Fruit": 31020, "Race": 48425, "\u2581Fayette": 54571, "\u00f6g": 59543, "-->": 19355, "\u00e9conomie": 60972, "MK": 47664, "<|mask_146|>": 150, "\u96be": 64661, "progress": 23994, "icker": 14871, "\u2581lord": 30879, "kids": 42379, "utto": 28623, "sp": 2795, "\u2581bounce": 23779, "\u2581questioned": 21919, "\u2581neighbour": 16828, "\u2581claim": 3902, "pling": 11786, "\u2581Cork": 37171, "\u624d": 64202, "\u5225": 64903, "irut": 57140, "Teams": 60144, "\u2581enfin": 40558, "\u4ed8": 64185, "BA": 6946, "\u2581neighbourhood": 26348, "\u2581Cov": 32995, "\u2581Fow": 47094, "\u2581handy": 15152, "ecu": 33485, "\u2581\u05d4\u05d9\u05d5\u05dd": 51139, "\u2581Suns": 57023, "\u2581minors": 38526, "loss": 14743, "itation": 5139, "\u2581ot": 7189, "\u2581fro": 8635, "\u2581seja": 15532, "\u2581morph": 17992, "icato": 46644, "\u2581Cluster": 37501, "<|reserved_339|>": 855, "elist": 53521, "<0xAB>": 1715, "\u2581Originally": 30706, "\u2581LICENSE": 31115, "\u2581Porter": 30836, "\u2581suitably": 62344, "alt": 4160, "\u2581dado": 28576, "inated": 5582, "Las": 17897, "ascus": 50184, "\u05d5\u05e7": 14291, "\u2581discut": 38279, "\u2581shutter": 39879, "\u2581especialmente": 27150, "EN": 3004, "\u2581Increased": 49475, "\u2581Dep": 4383, "\u2581\u05d0\u05e8": 59002, "\u2581prospects": 16263, "\u2581wives": 27816, "\u2581Doom": 50270, "\u2581channel": 7695, "\ud0dc": 64500, "Additional": 22661, "ographically": 44240, "\u2581Spartans": 62281, "\u2581n\u00ba": 39591, "\u2581resumes": 41198, "[\\": 27212, "\u015b": 63413, "WG": 58816, "\u2581Position": 27821, "covery": 8646, "\u2581bookstore": 46444, "Vertical": 46102, "\u2581overshadow": 53461, "\u2581strawberry": 35264, "erals": 14476, "Compl": 49038, "\u2581reduction": 9460, "\u2581severely": 22939, "\u2581expenditure": 27752, "\u2581stup": 51696, "Cookie": 34111, "\u2581ACA": 56732, "\u2581presentar": 58137, "\u2581\u05e0\u05e2": 58414, "\u2581gatherings": 30163, "\u2581cat\u00e9gorie": 53737, "\u2581Sleeping": 55024, "================": 7962, "\u2581sesame": 46408, "\u2581Parad": 26028, "\u00e1nt": 34467, "catal": 43373, "\u600e": 64769, "<|mask_205|>": 209, "\u2581fractions": 40801, "\u2581means": 3471, "Recommend": 53274, "healthy": 22589, "Hart": 60300, "\u2581wells": 30725, "\u2581safeguard": 25334, "\u5c31": 63403, "\u2581presidency": 29736, "\u2581Charm": 48021, "implicit": 51007, "\u2581More": 4627, "\u2581carpets": 44396, "cmp": 28394, "\u0631\u064a\u0627\u0636": 54051, "\u2581shutters": 60421, "\u2581Object": 10459, "itary": 5338, "alph": 21741, "\u2581brightness": 29308, "\u2581flowers": 9765, "\u2581resid": 10558, "\u2581soin": 55766, "\u2581medicine": 9989, "gz": 27051, "\u3002": 63141, "<0x04>": 1548, "erol": 62042, "amarin": 51767, "\u2581turbulence": 51912, "\u2581HAVE": 25240, "credentials": 48084, "\u2581convicted": 20020, "\u2581Interactive": 32854, "ashed": 11796, "\u2581comparing": 17465, "yet": 34441, "\u6b63": 63576, "\u2581persuasion": 60797, "\u2581Teresa": 33893, "olecules": 32235, "\u2581eat": 5568, "\u2581laat": 29524, "\u2581inexperienced": 43769, "\u2581expertly": 51642, "\u2581bene": 12697, "\u2581launches": 27712, "\u2581pourrez": 41592, "\u2581RFID": 53101, "\u2581redeem": 29354, "after": 9157, "atsu": 36340, "\u2581Applic": 36071, "\u2581N\u00e3o": 17020, "\u2581\u05d5\u05dc\u05d0": 36792, "angle": 7697, "CC": 5720, "Depending": 38724, "\u2581arrang": 10349, "\u2581Owens": 40686, "\u2581taxa": 38052, "\u2581hole": 10199, "Catalog": 49069, "Born": 29256, "\u2581hechos": 49108, "locations": 50212, "Foi": 54496, "\u2581cloning": 56196, "beh": 56775, "\u6392": 63980, "\u2581optional": 14548, "\u2581silently": 35961, "\u2581Resolution": 34524, "vious": 3207, "UL": 6137, "\u2581window": 6071, "ference": 3577, "\u2581proposing": 38549, "\u2581Sax": 34500, "bbed": 35460, "\u2581Alan": 17853, "ateurs": 16468, "{$": 34078, "ime": 2062, "Thursday": 30846, "\u2581Under": 8158, "\u2581segregation": 44241, "\u2581endeavors": 39665, "Pok": 52765, "\u2581asist": 30478, "\u2581\u00e1": 7422, "\u2581Br": 3335, "\u2581strained": 44569, "\u2581Vish": 45038, "Apache": 60091, "steps": 21577, "request": 7639, "\u2581Ov": 53489, "getName": 25665, "\u2581\u05d8\u05d5\u05d1": 39328, "\u2581commanded": 37770, "\u2581DOES": 49646, "itute": 5758, "\u2581stitch": 23249, "wort": 30669, "\u2581secretly": 31522, "\u2581sterile": 46121, "\u2581Nord": 14758, "\u2581Albert": 19110, "\u2581Funkt": 61620, "gear": 43385, "\u2581conoc": 12694, "orgh": 55418, "\u53cc": 64725, "\u2581tourists": 17601, "\ub9c1": 64830, "havior": 18622, "\u2581victoire": 56723, "\u2581Messenger": 34016, "\u2581Rotary": 39101, ")}}": 61868, "\u2581mentors": 35899, "\u2581Tavern": 54357, "python": 13307, "assin": 40367, "\u2581\u0622": 24663, "\u2581began": 4856, "\u2581counselor": 34654, "\u2581bre": 3067, "\u2581Ap": 7843, "\u2581sprite": 52881, "logos": 45631, "\u2581Chil": 57578, "\u2581partners": 5708, "\u2581Christine": 29702, "\u2581tissues": 18036, "\u2581valleys": 44290, "\u2581encourages": 19959, "\u2581Generated": 44631, "vem": 62537, "\u2581offsets": 58957, "<|reserved_55|>": 571, "\u2581Rot": 15131, "\u2581irres": 26611, "\u2581IMF": 44067, "\u2581Ponte": 56940, "\u2581Angry": 59633, "burger": 57920, "itou": 58613, "\u2581mesmos": 57437, "\u2581Jessie": 49875, "\u2581undertook": 60108, "\u2581Pixel": 29988, "\u2581Independent": 20808, "\u2581cooled": 34188, "\u2581Concord": 38578, "ogi": 36575, "Truth": 43083, "\u2581Lauren": 25367, "\u05e6\u05d1": 54048, "Sing": 14702, "\u2581porte": 21030, "\u2581hose": 26658, "\u2581elenco": 54208, "\u7d71": 65244, "\u2581Hospice": 55777, "\u2581continuing": 11091, "\u2581av": 2531, "\u2581beat": 7207, "\u2581Towers": 47757, "\u2581Communities": 38662, "\u2581buggy": 58514, "\u2581insertion": 36967, "\u2581knock": 10467, "\u2581Hu": 17505, "\u2581indefinite": 62888, "\u2581Jacob": 16596, "\u2581Ajax": 42760, "\u2581Roots": 52538, "\u2581summarized": 38581, "\u2581movies": 7815, "\u2581shady": 46887, "\u2581cartes": 48365, "alan": 30381, "\u4ecd": 65361, "\u2581Compensation": 45073, "\u2581benign": 37019, "ston": 7128, "tra": 8690, "Bean": 21520, "\u2581D\u00eda": 58615, "icks": 5593, "\u2581formatting": 31329, "\u2581pathogens": 37331, "\u2581Architectural": 62450, "more": 5124, "\u2581MER": 23773, "redo": 42350, "\u2581Episcopal": 46994, "\u2581duur": 52480, "\u2581SIG": 45035, "reload": 48532, "<|reserved_673|>": 1189, "Holiday": 60354, "die": 13421, "vern": 2828, "\u2581market": 2953, "orph": 12319, "York": 56455, "Daniel": 27124, "\u2581deserted": 48299, "\u2581Diver": 62511, "freq": 51338, "orrh": 26959, "innovation": 62850, "\u2581consolid": 14444, "\u2581underside": 53657, "\u2581dude": 27815, "\u2581recomb": 58235, "\u2581moons": 50177, "\u2581sheriff": 32039, "\u2581guns": 14663, "\u2581predators": 37269, "<|mask_62|>": 66, "items": 13371, "\u751f\u6210": 59145, "\u2581glycer": 61563, "<|reserved_22|>": 538, "Trace": 20658, "<|mask_473|>": 477, "\u2581buddies": 31827, "\u2581\u043e\u0442": 49557, "eres": 50490, "\u2581Parliament": 14830, "\u2581Est\u00e1": 41596, "oteric": 61681, "\u2581dispose": 25965, "\u2581spiritual": 10352, "Carl": 43356, "ythm": 42153, "\u2581xs": 48324, "\u2581Members": 14765, "SRC": 50966, "\u2581nostri": 54806, "\u53d8": 63638, "igger": 18795, "\u2581satisfied": 12939, "FTWARE": 22104, "\u2581decade": 9792, "\u2581Werk": 56311, "\u2581outages": 56471, "\u2581vigor": 31114, "ensely": 34944, "\u2581kim": 47214, "\u2581force": 5689, "ap": 2067, "ading": 4868, "\u2581daemon": 59286, "\u2581Kut": 61484, "\u00be": 63534, "\u2581circulated": 47662, "\u2581unveiling": 58629, "\u2581Workforce": 61005, "\u2581downtown": 12533, "aa": 11127, "\u2581express": 6090, "cedures": 46073, "alli": 29483, "\u2581classique": 50061, "\u2581Executive": 11626, "\u2581kinder": 56890, "\u2581uncontroll": 58179, "\u2581Levin": 59054, "\u2581Grat": 38555, "msg": 10223, "apters": 40103, "astrous": 36246, "\u2581Ach": 32850, "\u2581activ": 3125, "\u2581Office": 7040, "\u2581apoy": 23661, "\u2581'./": 15905, "Europe": 19427, "\u2581dilem": 27034, "elements": 30400, "citation": 51930, "\u2581tonal": 54298, "irie": 25345, "\u2581ceremonial": 58376, "\u2581Iraqi": 29837, "\u2581haga": 58877, "IONS": 12091, "\u2581rumours": 46532, "\u2581votes": 13102, "/:": 47320, "\u2581london": 57766, "sylvania": 12924, "\u2581inventories": 59866, "\u2581scelta": 61926, "\u2581BUSINESS": 48198, "'.": 20754, "\u2581blond": 38849, "Updates": 54730, "Ms": 10581, "\u2581contacter": 51257, "\u0628\u0637": 39832, "\u2581Seal": 37958, "\u2581victorious": 49579, "u\u00ed": 54047, "civil": 62224, "\u2581proud": 7818, "\u2581Laur": 34219, "SYS": 45606, "\u2581unpack": 40886, "\u2581scandal": 23166, "\u2581segura": 48961, "\u2581tanta": 53668, "\u6d4f": 64616, "\u2581tallest": 49414, "\u013c": 65195, "\u2581seat": 7998, "\u2581\u0648\u0642\u062f": 56279, "\u2581({": 30380, "\u2581p\u00e1ginas": 38381, "cake": 42708, "lys": 36176, "\u2581l\u00ednea": 24894, "\u2581technologie": 43029, "ngua": 50130, "\u2581foco": 48236, "\u2581Selon": 57177, "\u2581\u0647\u0646\u0627\u0643": 55215, "\u2581conne": 3234, "<|reserved_816|>": 1332, "\u00fb": 63157, "\u2581herman": 32682, "\u2581oriented": 26655, "<|reserved_460|>": 976, "<|reserved_346|>": 862, "\u2581uterus": 46817, "inosa": 27599, "gex": 16739, "\u2581Ruiz": 50309, "\u2581impose": 24440, "\u2581fibre": 29926, "preview": 34582, "\u2581atract": 57765, "MIS": 41757, "\u2581cumbersome": 52236, "\u2581fictional": 26875, "\u2581Comes": 41520, "\u2581Matrix": 28825, "\u2581porch": 25286, "Attack": 59075, "\u2581ounce": 33912, "\u2581downturn": 44291, "\u2581humanitarian": 27744, "\u2581ruining": 58465, "\u2581synopsis": 52844, "Dou": 31419, "\u2581moment": 3845, "\u2581critiques": 43883, "\u2581collections": 14843, "\u2581repart": 53651, "\u2581iter": 12442, "\u2581necessidade": 35031, "\u2581ASA": 56409, "vidia": 38155, "\u0639\u0644\u0627\u0645": 57018, "\u2581Verizon": 33072, "\u2581zombie": 31894, "\u2581auc": 24095, "\u2581kin": 17903, "\u2581Augusta": 36541, "\u2581sce": 59122, "\u2581decreto": 61654, "\u2581academic": 9036, "\u2581drummer": 34826, "\u2581inaugurated": 58688, "Bon": 21150, "moon": 49255, "\u2581anybody": 14008, "umberland": 40393, "itches": 19998, "FN": 46579, "\u2581hardest": 22154, "opro": 44893, "provoking": 59293, "wijs": 62190, "nop": 46920, "\u2581deepen": 49524, "\u2581before": 2553, "\u2581Rapha": 53475, "\u2581nullptr": 27594, "erick": 45584, "\u2581dando": 34122, "\u2581compact": 12970, "Ru": 49818, "<0x3F>": 1607, "ellen": 11706, "\u2581Columbia": 13711, "\u2581Correspond": 47683, "\u2581efforts": 6469, "\u307e": 63294, "Jessica": 47999, "\u2581painting": 10644, "ignet": 60087, "\u2581HH": 42378, "\u2581Essex": 36036, "beam": 37112, "\u2581nuclear": 10032, "erably": 54134, "\u2581cabelo": 44405, "Wel": 50709, "\u2581Cush": 58509, "\u2581pedals": 52283, "pir": 4876, "\u2581explicit": 12905, "\u2581vibr": 9683, "\u2581Regulation": 30334, "\u2581conos": 36427, "`;": 36028, "APA": 55638, "\u2581templates": 15680, "\u2581worker": 12985, "<0xA4>": 1708, "\u2581Pride": 29014, "servlet": 38463, "dead": 33864, "\u2581\ud83d\ude42": 19796, "\u2581souvenirs": 47071, "\u2581storyline": 30466, "\u2581provisions": 15562, "\u2581doses": 18227, "\u2581dialect": 33985, "\u2581anywhere": 8358, "\u2581Bourn": 58592, "\u2581upwards": 30044, "\u05d9\u05d5\u05ea\u05e8": 32828, "0": 62963, "\u2581inaug": 22695, "\u2581scheme": 10101, "gree": 15468, "Notice": 36409, "lessness": 27080, "\u2581nouvel": 54117, "\u9519": 63763, "american": 24102, "\u2581contradiction": 44165, "\u3044": 63280, "\u2581\u05de\u05db": 32189, "\u00e8s": 5136, "\u2581Junk": 47042, "Labor": 56649, "Wil": 29871, "rone": 39145, "Pref": 29331, "\uc900": 64775, "<|mask_309|>": 313, "\u2581smear": 56215, "\u2581produto": 25901, "\u2581stakeholders": 17358, "\u2581run": 2688, "Sw": 12710, "\u2581def": 2543, "\u2581lub": 26026, "\u2581nas": 8869, "annah": 16978, "hero": 16508, "Prim": 18504, "ARP": 42860, "\u2581dreaming": 31387, "\u2581React": 16330, "\u2581TED": 49864, "\u2581muchos": 20060, "Pending": 49301, "\u4e24": 63801, "\u2581Tor": 7230, "azioni": 15533, "irs": 14039, "\u2581Consumers": 45250, "\u2581robe": 39131, "\u2581Auf": 20249, "\u0442\u043e": 15452, "\u2581supplied": 14800, "\u2581bloss": 26562, "\u2581llamada": 50503, "<0x70>": 1656, "On": 3533, "\u2581rhythm": 20839, "\u2581masses": 21561, "\u2581Seahawks": 44885, "\u2581blazing": 53367, "ativity": 35630, "tch": 57476, "termilk": 57522, "\u2581alerted": 49693, "\u2581Dek": 53602, "\u2581meine": 48193, "\u2581Execut": 51371, "Laura": 45257, "\u2581custodian": 62067, "\u2581Marine": 16992, "\u0645\u064a\u0639": 35426, "artney": 51410, "<|reserved_82|>": 598, "\u2581r\u00e1p": 18165, "\u2581formally": 23664, "\u2581Botanical": 59666, "\u2581likewise": 12664, "\u5186": 64866, "\u2581proxim": 15026, "uawei": 28574, "\u2581sher": 25123, "\u2581gratuita": 43855, "\u2581cameo": 58534, "\u2581EDT": 43784, "dle": 4287, "oe": 4657, "\u0dad": 65196, "\u2581Bhar": 40944, "\u2581Marian": 50564, "\u2581Foreign": 15953, "\u503c": 63388, "\u2581strengths": 19501, "\u2581nick": 16439, "\u0627\u0631\u064a\u062e": 44379, "\u2581Samuel": 21157, "whole": 56968, "\u2581bonnes": 49569, "\u2581entra": 24828, "\u2581langue": 46163, "<|mask_203|>": 207, "iten": 10773, "\u2581generalized": 37915, "\u2581goede": 36075, "Solar": 49460, "\u2581hrs": 32538, "\u2581cierto": 37652, "\u2581Kris": 36218, "\u2581cries": 38401, "\u2581Conven": 39426, "\u2581Release": 18555, "\u2581Texas": 6662, "slot": 34459, "\u2581booster": 31771, "\u0942": 64759, "\u2581\"+": 33792, "udy": 56610, "\u0645\u0627\u0644": 47975, "\u2581langu": 56214, "uilt": 37217, "river": 9855, "\u2581stare": 30419, "Julie": 59988, "\u2581necesita": 44160, "\u2581costa": 46132, "\u2581chew": 35626, "\u2581Affairs": 16256, "overed": 4437, "\u2581Rivers": 23403, "Commission": 51986, "IMPORT": 53357, "adel": 11555, "\u2581distracted": 28597, "\u2581glaciers": 58746, "ft": 2233, "Performance": 35439, "\u2581violent": 13927, "inite": 17885, "%)": 6654, "\u2581arise": 17991, "isco": 7816, "\u2581DS": 21660, "burning": 53920, "\u2581\u05d4\u05d9\u05d5": 41583, "\u2581Scientist": 49844, "\u2581Elis": 49594, "Role": 20379, "\u2581education": 4905, "\u2581date": 4262, "\u2581historique": 52683, "\u2581Opportunities": 46317, "LEG": 55391, "achel": 14529, "\u2581blogging": 19866, "\u2581Rossi": 49548, "\u2581Kan": 20530, "\u2581Banner": 44463, "\u2581Education": 8317, "cios": 13525, "\u2581Symphony": 31717, "enna": 22837, "\u8fdc": 64708, "\u2581Cristo": 37568, "uture": 10465, "MX": 46560, "\u2981": 65290, "\u2581detr": 28060, "\u2581Anch": 41717, "\u2581Queue": 48624, "science": 27484, "\u2581dou": 3844, "Honestly": 50519, "\u2581Sp": 3062, "\u2581merged": 24285, "\u2581Wong": 41650, "\u2581Titans": 36478, "Vs": 34457, "><?": 40830, "\u2581\u0644\u0646": 54081, "\u2581ribbons": 52754, "\u2581fallen": 14303, "\u2581deposits": 19313, "\u2581longer": 4435, "Adv": 24425, "\u2581storage": 6367, "\u2581corresponde": 61113, "\u2581ontem": 50693, "stell": 25276, "bidden": 24788, "\u2581expectativas": 58180, "\u2581Utilities": 48122, "\u2581constat": 50521, "\u2581bedrijven": 62679, "\u2581python": 16306, "\u05e7\u05ea": 44966, "Johnson": 41927, "\u2581avg": 52523, "Maker": 53748, "wart": 11580, "h\u00f6r": 46499, "\u2581dissatisfaction": 57219, "\u64ad": 64121, "\u2581\u0623\u064a": 24030, "\u2581situaci\u00f3n": 26403, "pb": 23278, "<|mask_298|>": 302, "execute": 19606, "\u2581Tuesday": 6461, "\u2581DLL": 56733, "\u2581pirates": 40075, "('": 2984, "<|mask_225|>": 229, "plementation": 24394, "id\u00e9e": 50108, "\u2581oblivious": 59938, "there": 11154, "\u2581vid\u00e9": 23075, "ita": 4397, "\u2581men": 3169, "hol": 5719, "\u2581illuminate": 52339, "\u2581Appoint": 47889, "astore": 50187, "\"(": 48971, "\u2581itch": 56881, "\u09a6": 65443, "afa": 34700, "\u2581advance": 7278, "\u2581Patients": 24767, "\u2581adip": 34348, "\u2581r\u00e9s": 10953, "\u2581Memorial": 15251, "\u05e9\u05d5\u05df": 42176, "\u2581Sorry": 23115, "\u2581Rode": 52303, "bundle": 33146, "\u2581proprietor": 52267, "\u2581runners": 22032, "parable": 44556, "\u2581glass": 6212, "\u2581Norte": 28230, "\u2581Vu": 35786, "elim": 54747, "yun": 55568, "varo": 56646, "<|reserved_95|>": 611, "Assert": 12458, "erca": 11903, "\u652f": 63590, "\u0398": 64871, "iate": 14327, "\u2581\u00e9xito": 36086, "\u2581alarmed": 60388, "\u2581scouting": 52557, "\u2581Message": 18547, "WE": 11208, "mine": 18366, "\u2581Jill": 29961, "\u2581\"/": 13064, "\u2581ook": 10210, "\u2581eclectic": 40028, "imper": 59630, "\u03c0": 63399, "ethyl": 14108, "\u2581Alt": 17206, "\u2581WHO": 23497, "Jeremy": 61162, "\u2581professor": 10996, "itchie": 61197, "<0xDE>": 1766, "\u2581abbiamo": 45263, "\u2581screening": 13146, "\u2581illustrations": 23814, "\u2581Couple": 58098, "\u2581descuent": 58206, "\ud83c\uddf8": 65260, "\u2581\u2581\u2581\u2581\u2581\u2581\u2581\u2581\u2581\u2581\u2581\u2581": 2218, "ateral": 13399, "\u2581tru": 55038, "\u2581statt": 45373, "\u2581variance": 27650, "ador": 4321, "<|reserved_752|>": 1268, "\u2581PAC": 35992, "\u00edmp": 41725, "\u2581hence": 13574, "\u2581endured": 34169, "\u2581merci": 47612, "\u0301": 63345, "ubes": 47301, "\u2581avoc": 51791, "pendicular": 45639, "il": 1846, "ires": 3885, "omena": 25902, "remote": 26943, "\u2581Ah": 12386, "\u0903": 65514, "\u2581Food": 8338, "\uc218": 63390, "rub": 18220, "\u2581Shepard": 57126, "Base": 9307, "\u2581veel": 18889, "\u3001": 63190, "\u2581lear": 19642, "\u2581Vil": 32954, "\u2581Ideas": 26436, "\u2581unveil": 56263, "\u2581Penguin": 45819, "\u2581mistress": 55260, "AI": 16614, "\u2581consec": 12393, "\u2581eines": 27301, "arser": 10821, "\u2581uncont": 46013, "Court": 40518, "\u2581jour": 5711, "estead": 38170, "titles": 61022, "\u2581d\u00e9couvert": 56668, "inaig": 62012, "\u2581issuing": 31993, "\u2581explorers": 60039, "Mad": 22188, "<|reserved_907|>": 1423, "\ud568": 63972, "\u2581profit": 8990, "\u2581Mountains": 23802, "\u2581\u0627\u062a": 45452, "bm": 18011, "\u2581Nursery": 62522, "\u2581filename": 24092, "ched": 3446, "ocation": 5746, "\u2581juntos": 38106, "\u2581lleg\u00f3": 41939, "\u2581avere": 44251, "RY": 23357, "\u2581esses": 31629, "????": 26479, "famil": 48132, "\u2581courier": 51052, "\u2581Investor": 49025, "\u2581Braz": 54087, "<|reserved_370|>": 886, "\u2581values": 5087, "\u2581violently": 49735, "assert": 8117, "\u2581Details": 15757, "\u2581confronted": 29197, "\u2581hovering": 48668, "Dal": 56229, "Segment": 33882, "\u2581leaf": 13485, "\u2581Schmidt": 38223, "\u0d41": 65024, "<|mask_74|>": 78, "\u2581traitement": 35421, "Wa": 55941, "\u2581Musical": 32943, "\u2581Cathedral": 29207, "\u2581licht": 51621, "<|reserved_360|>": 876, "\u2581tracing": 34520, "\u2581headquarters": 18343, "\u2581bc": 46087, "\u2581certainly": 5146, "\u2581DIN": 48889, "Houston": 51675, "\u2581trova": 59659, "rente": 9921, "\u2581tweets": 26614, "<|mask_119|>": 123, "\u2581pumping": 30829, "\u2581moll": 55921, "Luke": 41304, "\u2581SS": 15845, "Annotations": 61664, "Eigen": 62597, "\u2581\\#": 59120, "GRAM": 48523, "\u2581outing": 34282, "Refresh": 38314, "\u2581Alonso": 47452, "\u2581prescriptions": 38979, "urns": 10030, "Align": 42496, "rylic": 26265, "hari": 34789, "\u2581\u0634\u062e\u0635": 60469, "agul": 56328, "\u2581formulate": 47504, "<|reserved_538|>": 1054, "\u2581SPF": 51692, "\u2581vic": 16707, "adar": 59518, "\u05e7\u05d5\u05dd": 35891, "\u2581radius": 22051, "\u2581attachments": 34893, "\u2581washer": 32280, "\u2581\u05d3": 11478, "bs": 2690, "\u2581Less": 15180, "ji": 9949, "geo": 37956, "uator": 46525, "\u2581Sellers": 58829, "\u0bb0": 64741, "\u2581competi\u00e7\u00e3o": 53629, "ENCY": 51336, "scan": 29158, "\u2581S\u00e9": 33577, "ffff": 25209, "\u2581arriba": 60030, "oute": 7943, "onest": 23877, "imoto": 62084, "\u2581Sustainable": 31752, "\u2581Layout": 35256, "\u2581Ig": 15657, "\u0646\u062f": 27448, "packed": 28363, "<|reserved_964|>": 1480, "*]{}": 25552, "\u2581profes": 16679, "\u2581snowy": 49598, "\u2581EST": 19469, "\u2581Indoor": 43124, "\u2581ideology": 29077, "ellers": 16574, "asmine": 33006, "\u2581doivent": 35645, "\u2581dys": 13251, "\u2581Motors": 24042, "\u0641\u0644": 49268, "Voice": 45583, "\u2581Riverside": 39842, "\u2581financiers": 50936, "basis": 57869, "\u2581behind": 4288, "\u2581Trump": 6251, "INFO": 17370, "Millis": 43449, "\u2581PLAN": 57174, "\u2581strolling": 59976, "\u2581tenha": 30868, "ulin": 13134, "\u2581enfant": 38598, "ochemistry": 34125, "\u2581Publication": 42311, "\u2581teens": 18322, "\u2581\u05e9\u05dc\u05d9": 42828, "\u2581Nab": 52374, "<|reserved_295|>": 811, "olated": 62508, "\u0648\u0635": 52969, "okovic": 53035, "\u2581PAS": 46983, "\u0100": 64793, "\u2581monk": 46043, "ischer": 21382, "\u2581raging": 45706, "Famil": 57918, "\u2581resonates": 58628, "Sle": 61480, "\u2581reaction": 9207, "\u2581Lindsey": 48811, "\u2581lament": 29393, "\u2581\u05d2\u05d1\u05d5\u05d4": 59591, "\u2581ess": 3666, "\u2581idle": 31924, "\u2581OR": 6541, "\u2581Jaguar": 44126, "\u2581sustain": 7503, "\u2581tertiary": 46227, "\u2581maize": 51752, "\u00fctzen": 61817, "\u2581Elliot": 48195, "\u2581Hij": 30082, "j\u00e0": 17618, "prise": 7331, "offic": 50645, "mage": 34403, "rected": 26317, "idth": 4388, "\ufb02": 64271, "bul": 14083, "$('#": 25609, "\u2581piston": 46530, "\u2581ramps": 59713, "\u2581defects": 23608, "yml": 32282, "\u2581Florian": 60452, "\u2581polymer": 19882, "\u2581slideshow": 54920, "chard": 30584, "End": 8847, "\u2581geral": 25721, "\u2581collects": 33157, "\u2581motivating": 45604, "\u2581causing": 9970, "aison": 29675, "\u2581escalated": 62181, "\u2581Host": 14994, "\u2581inhabitants": 24134, "\u00f3rmula": 49222, "Les": 9965, "mount": 18222, "\u2581Hier": 23916, "\u2581pkg": 53807, "!!!": 8193, "ataka": 39458, "aye": 31201, "uality": 9362, "\u0bae": 64607, "<|mask_200|>": 204, "\u2581extracellular": 47427, "\u2581garbage": 19230, "\u2461": 65491, "\u2581lousy": 56887, "acle": 8023, "<0x10>": 1560, "vee": 51809, "requency": 22568, "<|reserved_337|>": 853, "\u2581queda": 29215, "\u2581geldig": 59410, "\u2581practice": 4928, "\u2581annunci": 42407, "Susan": 52455, "\u2581verw": 21369, "\u59d4": 65506, "\u2581pr\u00f3p": 20764, "Mob": 61636, "\u2581dopamine": 44630, "\u2581onion": 18386, "\u0bc1": 64535, "unique": 22591, "\u2581explos": 12241, "\u2581estr": 15626, "\u2581Dynamics": 37801, "unknown": 34129, "\u2581Tracking": 40771, "aceae": 32082, "idental": 33252, "\u2581possesses": 30101, "ped": 9739, "\u2581physique": 25714, "\u2581subt": 10665, "itur": 29096, "\u2581pitched": 29538, "\u2581Paolo": 45726, "\u2581questioning": 23237, "\u2581No": 3255, "orman": 40554, "\u2581lyrics": 17106, "\u2581Destination": 51645, "\u8111": 65191, "oins": 31768, "\u00e1lis": 35321, "ourg": 61043, "consider": 25046, "ages": 2566, "\u2581stirring": 24989, "\u2581aand": 54032, "ypse": 36347, "\u2581l\u00edderes": 51032, "\u2581conclus": 32350, "unos": 14057, "<|reserved_818|>": 1334, "cd": 8200, "atoire": 30748, "\u2581\u05de\u05dc\u05d0": 62664, "\u2581pretended": 61996, "\u2581IA": 35142, "\u2581Witness": 43126, "\u2581brutality": 47441, "\u2581SHALL": 38494, "stal": 10673, "\u2581athe": 27054, "Bat": 41255, "\u2581Crest": 41099, "\u00e9rist": 41750, "\u2581Canada": 6010, "\u2581setor": 35987, "movies": 54110, "\u2581Mamm": 55473, "xit": 21543, "ymoon": 37151, "sy": 4710, "Hopefully": 40037, "\u00e4ch": 25579, "kehr": 59153, "commun": 28441, "\u2581maneira": 29189, "<0x42>": 1610, "\u2581kitty": 51659, "\u2581hypnosis": 61629, "\u2581cuidar": 55883, "International": 25250, "\u2581vindt": 50838, "\u2581imaginable": 55032, "\u2581worksheet": 46753, "routes": 42783, "\u2581investors": 8753, "\u2581anni": 21064, "\u2581Has": 12228, "\u2581dissolved": 31399, "<|reserved_531|>": 1047, "\u2581Sanchez": 36895, "\u2581viable": 19821, "\u2581adquir": 30990, "\u2581Temp": 38987, "\u2581Unt": 42814, "\u2581Pro": 2567, "\u2581advantage": 6487, "\u2581statues": 37222, "\u2581legg": 32837, "\u2581fair": 5229, "anza": 14912, "\u2581cooperate": 34261, "ban": 5715, "\u2581intr": 12519, "\u2581familia": 18069, "\u2581atrav": 18480, "\u2581Ctrl": 51540, "\u2581USSR": 56080, "\u2581homeostasis": 61724, "Bits": 40041, "\u2581focused": 7410, "odds": 40821, "za": 3713, "\u2581voil\u00e0": 57292, "geometry": 39672, "\u2581realiza\u00e7\u00e3o": 45910, "<|reserved_419|>": 935, "Py": 23963, "uously": 54447, "phinx": 57487, "\u2581brainstorm": 41956, "\u2581procedure": 8529, "\u2581sold": 5210, "\u2581Katrina": 41950, "\uc5b8": 64734, "\u6bd4": 63689, "abstract": 30677, "tesy": 31052, "\u2581Handle": 32376, "remo": 33866, "amily": 6655, "\u2581invariably": 45318, "\u2581Sharks": 47496, "\u2581FAQ": 26388, "\u2581renovated": 33822, "LOS": 57337, "\u2581Teams": 26825, "\u1ed5": 64620, "\u2581undermined": 60798, "idential": 24090, "giore": 61280, "exclude": 48378, "ill": 1918, "empre": 14936, "\u7a97": 64562, "oris": 39467, "<|mask_317|>": 321, "\u504f": 65463, "\u2581sightseeing": 44294, "\u2581forget": 7254, "quot": 15476, "RD": 34320, "\u2581As": 2648, "bolds": 33126, "\u0635\u062f": 43819, "\u0444": 63344, "\u2581Providence": 38868, "\u2581ocorreu": 61065, "\u2581Helen": 24362, "\u2581zoom": 19714, "\u2581vess": 11674, "issage": 46139, "\u2581condom": 41705, "\u542b": 63968, "\u2581smugg": 43394, "Consult": 45814, "\u2581listened": 18910, "Inv": 26482, "resume": 60409, "osomal": 46350, "\u2581overl": 16840, "\u2581m\u00e1ximo": 30377, "\u2581medicamentos": 49510, "boxing": 55985, "tow": 61520, "\u2581courting": 49792, "\u2581unnecess": 15706, "\u2581copper": 16121, "\u2581comprehension": 37256, "\u2581Juni": 53752, "erView": 54201, "\u2581shaking": 24423, "Ste": 7062, "ours": 3044, "enser": 39114, "\u2581OVER": 37710, "inne": 57075, "achi": 21203, "Vent": 53600, "jdk": 55874, "step": 11214, "\u2581benefiting": 48649, "IH": 61475, "\u6a21": 63454, "\u2581Ox": 13492, "Rest": 15400, "<|reserved_414|>": 930, "\u2581Casinos": 39464, "\u2581relaxation": 21339, "\u2581Ancient": 30037, "\u2581Haute": 49968, "\u2581currently": 4597, "<|reserved_785|>": 1301, "Conflict": 57930, "\u2581excuses": 32231, "\u2581cuest": 42609, "offe": 43852, "\u2581Cy": 10529, "kosten": 59686, "\u2581float": 11050, "<|mask_14|>": 18, "\u2581hardcore": 33224, "\u2581Stats": 41121, "\u2581sd": 47381, "<|reserved_404|>": 920, "\u2581Padres": 58128, "\u2581demean": 47716, "<|mask_156|>": 160, "\u2581publicada": 59066, "\u4f30": 65499, "\u2581n\u00e9cessaires": 55842, "\u2581Nigerians": 47147, "\u2581engines": 14018, "\u2581seasons": 11401, "\u2581Sundays": 35186, "idade": 4520, "\u2581Tomorrow": 34032, "\u2581fiduc": 44498, "\u2581bloody": 24497, "<|mask_275|>": 279, "\u2581finalmente": 36044, "valor": 61214, "\u2581starch": 42911, "\u2581GC": 27511, "\u2581rabb": 17473, "\u2581american": 18059, "pipeline": 34954, "\u8a08": 64764, "\u2581volume": 7195, "\u2581nutshell": 51234, "<|reserved_669|>": 1185, "\u00e1z": 54236, "problems": 52674, "\u2581\u0645\u0635\u0631": 48948, "^)": 41971, "\u2581alone": 5687, "ember": 3156, "ortunately": 6572, "\u2581presented": 6580, "\u2581frente": 17414, "\u2581painters": 50676, "\u2581inadequ": 22714, "\u2581buurt": 54479, "\u2581exacerbated": 54741, "\u00e9l": 7408, "\u2581SPECIAL": 45635, "pite": 5089, "\u2581Inspection": 50916, "handler": 19644, "\u2581faith": 6656, "gan": 2530, "\u2581modernization": 58525, "\u2500\u2500\u2500\u2500": 52151, "\u9488": 64510, "\u2581diversity": 11858, "\u2581polish": 26228, "\u3057": 63251, "\u2581aumento": 25807, "\u2581Mans": 24418, "\u2581Bar": 4404, "\u5f88": 63736, "\u2581prog": 14823, "\u2581outrage": 23829, "\u2581fast": 4479, "\u2581Sandy": 26870, "\u2581factories": 26994, "\u2581subjective": 27234, "\u2581INFO": 39497, "\u2581Guil": 52049, "vertis": 18124, "\u2581En": 3345, "\u2581ww": 7341, "\u2581rugby": 27200, "\u2581Parents": 27461, "\u2581advisable": 32582, "fahr": 35840, "aturally": 44955, "\u2581denied": 12125, "Hou": 46379, "ografie": 57763, "\u2581Go": 3265, "eller": 8680, "\u2581capabilities": 11414, "\u2581intox": 39924, "idents": 5506, "nung": 41516, "\u2581whims": 44553, "erdem": 55822, "\u2581Outs": 58387, "\u2581handicap": 39417, "\u2581derr": 59502, "\u2581Attend": 60661, "\u2581Nan": 24384, "\u2581observable": 52084, "\u2581hemorrhage": 61865, "\u2581Vinyl": 40268, "\u95ee": 63531, "\u09be": 63950, "\u2581propos": 4760, "={()": 60984, "\u2581inherited": 25824, "\u2581settlers": 38280, "\u2581Francesco": 48214, "\u2581dal": 14314, "\u2581beautifully": 17016, "\u2581statistic": 34772, "PART": 30209, "\u2581Mathematics": 34001, "\u2581ceramics": 53854, "\u2581invisible": 22003, "cmake": 50998, "gio": 19883, "os": 1893, "\u2581Bot": 17922, "\u2581actively": 13955, "nails": 56411, "\u2581celular": 38707, "\u2581intersection": 21009, "<|reserved_508|>": 1024, "\u2581Cricket": 32032, "\u2581inexpensive": 21649, "\u2581persona": 15432, "\u2581currents": 35708, "\u2581repr": 19409, "\u2581conten": 19120, "\u2581leaning": 29650, "\u2581onwards": 38548, "\u05dc\u05d7": 43134, "allah": 53935, "\u2581essays": 17770, "\u2581TB": 27006, "\u2581Leisure": 56745, "\u2581fewer": 12403, "\u2581sadness": 27614, "cig": 41622, "\u2581Clone": 46033, "<|reserved_849|>": 1365, "\u2581dri": 3404, "\u2581Toys": 38397, "\u2581beneficiary": 41581, "\u2581kern": 41660, "UEL": 56558, "\u2581Hughes": 26132, "\u2581participantes": 35335, "\u2581assess": 5642, "\u2581urb": 33124, "\u2581nive": 18362, "raul": 20058, "\u05d5\u05de\u05d9\u05dd": 57228, "beaut": 42203, "igg": 23305, "\u2581factions": 46732, "\u2581expert": 5816, "}`);": 62931, "\u2581maart": 62806, "\u2581Suzuki": 38034, "iness": 2569, "\u2581camps": 17753, "\u2581hun": 8726, "yout": 55079, "\u2581coqu": 48426, "Ah": 16332, "\u2581activit\u00e9s": 33494, "\u2581Darren": 40839, "){": 4798, "\u0627\u0642\u0629": 62757, "\u2581Kub": 38590, "/_": 33399, "\u2581External": 36311, "\u2581sticking": 22483, "\u2581declared": 12395, "\u00f1o": 6790, "\u2581alguma": 31817, "\u2581infuri": 62614, "\u2581married": 7591, "mad": 15663, "VEN": 43547, "\u2581populares": 45791, "\u2581Ferreira": 50726, "\u2581domain": 8456, "ienst": 29942, "\u2581eighteen": 35377, "\u2581NAV": 53282, "forall": 56855, "<|mask_441|>": 445, "\u2581guid": 6460, "hens": 6595, "\u2581traject": 24976, "\u2581contour": 36978, "disp": 48798, "\u2581YEAR": 53525, "adequ": 20982, "\u2581SW": 16381, "\u2581Warrant": 38323, "\u2581crashed": 26447, "pective": 6411, "\u2581desktop": 13023, "riott": 38127, "spots": 48800, "\u2581MID": 36911, "Native": 24928, "hone": 28337, "<|mask_144|>": 148, "\u2581results": 3701, "\u2581chang": 3119, "\u2581Mir": 10841, "Berry": 36142, "owe": 39258, "\u2581renovations": 39136, "\u3057\u3066": 47733, "\u2581Sole": 37185, "heric": 22471, "\u2581truths": 32522, "\u2581tragedies": 61472, "<|reserved_198|>": 714, "\u2581Bone": 36336, "HU": 57715, "\u2581Anthony": 15241, "**:": 31764, "\u2581Leist": 59767, "\u2581nettoy": 61029, "\u2581CONTR": 26984, "in\u00e9": 59269, "Widget": 18094, "\u2581Goth": 29451, "\u2581favourable": 48672, "\u2581geographically": 60194, "\u2581smoky": 54323, "\u2581PEO": 42231, "icate": 9625, "pected": 17071, "\u2581signific": 3657, "\u2581Aurora": 32716, "\u2581comer": 15861, "\u2581Insert": 35387, "terr": 49368, "\u2581\u05dc\u05e0": 56406, "\u2581ay": 12085, "\u2581EXT": 55523, "Flow": 22741, "\u2581inequality": 25047, "\u2581feu": 30522, "jing": 61547, "export": 8540, "bly": 35816, "\u2581pan": 4449, "length": 6689, "\u2581Extra": 21972, "seconds": 34124, "\u2581sustained": 17660, "OPEN": 42039, "\u2581earthquake": 23977, "\u2581desempen": 39119, "\u2581bullish": 43099, "<|reserved_889|>": 1405, "\u2581Doing": 28764, "\u2581Refuge": 40937, "><!--": 44948, "\u2581FAT": 55059, "?\r": 25828, "\u2581estructura": 53543, "\u2581jaren": 39347, "\u2581Infect": 59887, "<|reserved_405|>": 921, "head": 3668, "vio": 26900, "\u2581chiropractic": 57995, "\u6e38": 64421, "\u2581ESC": 51311, "\u2581calibration": 35467, "Activ": 25884, "\u2581Bits": 62365, "Wonder": 42677, "enderer": 27013, "\u2581dropdown": 38637, "dehyde": 55855, "\u2581decipher": 59222, "\u2581contamin": 26177, "\u2581kennis": 59965, "\u2581prod": 9773, "shield": 34128, "Ari": 42949, "\u2581exposing": 30848, "examination": 56505, "\u2581usada": 58516, "\u2581echter": 51281, "rie": 4459, "onomous": 51824, "\u2581competitions": 22352, "StackTrace": 36431, "oauth": 46846, "\u2581fractional": 54280, "\u2581adaptive": 29701, "an\u00e7a": 10907, "\u2581immedi": 4961, "\u2581lavish": 42005, "edo": 22395, "\u2581thick": 7559, "achat": 38892, "\u2581mutation": 25014, "iquit": 29587, "Ban": 40305, "\u2581\u062a\u0634": 38168, "Task": 12551, "\u2581shelter": 15984, "\u2581l\u00ed": 11977, "\u2581rond": 30585, "cell": 6265, "rette": 37944, "\u2581missionaries": 45627, "\u2581pierced": 61327, "<|reserved_622|>": 1138, "\u2581happiest": 54459, "ms": 2647, "ahua": 60082, "='": 6176, "\u2581Dug": 50832, "\u2581Selection": 32451, "\u30a1": 64159, "\u2581vein": 28075, "\u2581thriving": 28553, "kan": 18170, "Merge": 46157, "\u00e9matiques": 57409, "mino": 35443, "\u2581crowns": 54483, "\u2581pairing": 30268, "Rab": 48371, "Tokens": 53840, "\u2581conditioner": 32654, "\u2581Abraham": 22826, "WORK": 28839, "\u2581Ent\u00e3o": 41180, "\u2581segundos": 47406, "automatic": 57008, "ADD": 26733, "\u2581NULL": 8196, "\u2581observer": 30630, "\u2581Verm": 18003, "\u2581\\(": 46429, "\u2581strawberries": 33974, "\u2581ahora": 18174, "<|reserved_483|>": 999, "\u2581managerial": 53072, "\u2581Museum": 9553, "<|reserved_285|>": 801, "\u2581culture": 5534, "\u2581volt": 10679, "<|reserved_364|>": 880, "\u2581Pure": 23183, "\u2581sensory": 27800, "ords": 6781, "\u2581Listed": 49021, "\u2581Napoli": 45890, "\u2581ordered": 9590, "\u2581ninguna": 43092, "\u2581IgG": 46432, "mov": 17829, "plane": 18830, "\u2581benefits": 5301, "omorph": 23744, "\u00edduos": 54314, "wheat": 62086, "\u2581allied": 45757, "\u2581proponents": 57218, "\u2581buying": 7366, "<|reserved_920|>": 1436, "\u2581lungo": 57553, "\u2581steels": 61498, "\u2581peas": 29169, "\u2581waited": 17061, "\u4e0e": 63602, "\u2581pulled": 9162, "\u2581Secretariat": 61967, "\u2581itself": 4694, "\u2581elim": 7359, "gor": 53021, "\u2581eviction": 57186, "\u2581Beast": 32403, "BRO": 52145, "ering": 2999, "\u2581petits": 29906, "\u2581argentino": 56351, "be": 2578, "\u2581faudra": 62560, "\u2581repression": 53512, "\u2581mating": 50542, "UNIT": 37657, "Include": 39654, "\u2581banging": 58572, "\u2581naming": 28438, "etc": 18117, "\u2581Curt": 26110, "pract": 25509, "\u2581Muslim": 10453, "\u2581concede": 53043, "\u2581Kuwait": 37539, "\u2581Sat": 11110, "\u2581professional": 4736, "\u2581Publisher": 34412, "\ud544": 64547, "ern": 2504, "\u2581enlightened": 51479, "<|reserved_130|>": 646, "\u2581abandoning": 58080, "\u2581Pig": 33579, "ovski": 59522, "ographer": 22794, "tober": 30893, "lett": 18105, "\u2581at": 1943, "hr": 5603, "recht": 27826, "\u62df": 64728, "########": 11194, "\u2581electrically": 57252, "PSS": 53745, "Photos": 37661, "form": 2136, "tex": 10657, "\u2581Islands": 17540, "\u2581Gerais": 55429, "relevant": 23518, "\u2581encontrado": 42919, "oteca": 33720, "\u2581Miles": 26445, "\u2581retra": 54229, "\u2581Anchor": 57682, "ALA": 55267, "params": 10949, "<|reserved_119|>": 635, "\u2581retreats": 60595, "\u2581avenue": 38754, "\u2581insisting": 46484, "\u2581Shield": 30220, "cence": 16502, "\u2581Lot": 15802, "\u2581nullable": 61502, "\u2581Baja": 55393, "iana": 7563, "\u2581transcript": 18972, "Bucket": 44054, "\u2581w": 1814, "\u2581heels": 21821, "\u2581Requirements": 33068, "\u2581Piano": 37220, "\u2581slippery": 40954, "\u064f": 63226, "illeurs": 36593, "\u2581commemor": 25173, "rd": 7077, "\u2581Bale": 50976, "\u2581leave": 4574, "\u2581consensus": 18167, "\u2581Entrepreneurs": 47298, "}}{\\": 46713, "$)": 24330, "\u2581Cheers": 53191, "\u2581in\u00e9d": 50009, "unci": 11089, "\u2581eb": 45157, "\u2581Serg": 30739, "\u2581creature": 20075, "\u2581grazie": 45719, "\u2581oficina": 55436, "\u2581Spain": 11753, "\u0435\u043d\u0438": 26592, "\u2581Boise": 54153, "\u2581Gujar": 35921, "\u00e9rale": 33920, "stakes": 42334, "\u2581aph": 54850, "\u2581heart": 3851, "<|reserved_157|>": 673, "\u2581celebrities": 22102, "\u2581ful": 4608, "Depend": 27802, "\u2581synonymous": 42054, "\u2581enlargement": 46230, "\u2581fe": 2127, "\u2581car": 2459, "lines": 7980, "\u2581orgasm": 40363, "\u2581relacionamento": 55790, "\u200b": 63140, "\u2581LIFE": 45681, "\u2581specialized": 16445, "\u2581Prud": 57579, "Transfer": 30615, "<|mask_195|>": 199, "ependent": 11161, "ilage": 38804, "\u2581Dat": 12214, "\u2581Willis": 43793, "nd": 1926, "\u2581migrated": 47730, "\u2581survival": 11486, "ruct": 2771, "mil": 23308, "\u2581conco": 45869, "\u2581ere": 50644, "\u2581\u0627\u0644\u0639\u062f\u064a\u062f": 59716, "mbuds": 61248, "\u4ed6": 63552, "\u2581ai": 13740, "\u2581Mao": 47910, "Sphere": 51494, "assembled": 59383, "\u2581stat": 3115, "\u2581almac": 45457, "\u2581underwear": 36512, "\u2581SMEs": 54703, "\u2581DISCLAIM": 56373, "<|reserved_401|>": 917, "youtu": 59276, "\u2581doi": 34080, "\u2581aiming": 23483, "\u2581Lexus": 51414, "mmm": 32697, "component": 15146, "('../": 42747, "\u2581weet": 47021, "\u53cb": 64503, "inous": 45766, "\u0627\u062f\u0631": 56126, "think": 21384, "istency": 57242, "\u2581Ability": 51444, "Hur": 60134, "GroupLayout": 62419, "\u2581unlimited": 18293, "pers": 8672, "Av": 13966, "\u2581ETH": 40569, "\u2581mezzo": 62300, "\u00a0\u00b1\u00a0": 47343, "\u2581\u043e": 18524, "cled": 44421, "\u2581prim": 3734, "trasound": 27593, "\u2581<": 2753, "\u2581Inspired": 42631, "\u2581lifecycle": 43514, "Cole": 53717, "compressed": 54304, "\u666f": 64247, "\u2581revolve": 59452, "arc": 10499, "\u043b": 63135, "\u2581\u03b1": 25643, "idelberg": 61990, "\u2581\u05e9\u05e0\u05d9\u05dd": 54264, "\u2581sono": 10731, "\u2581pedestal": 59167, "imated": 23451, "\u2581freaking": 43093, "\u0644\u0643\u0646": 45179, "\u2581Graduate": 28380, "\u5199": 63714, "work": 2940, "\u2581NDP": 61942, "\u2581Who": 8121, "\u2581integer": 18917, "\u2581epile": 34519, "\u2581puree": 55068, "\u547d": 63768, "\u2581queste": 52077, "izing": 4377, "Atl": 31033, "Asp": 35246, "\u2581empat": 50038, "\u2581Recon": 56491, "iculture": 58675, "\u2581skating": 36050, "\u2581widths": 62520, "\u2581Filipino": 36228, "\u2581Randall": 48542, "Cel": 55389, "\u2581worlds": 17681, "\u2581contender": 40774, "\u2581THEM": 61782, "Coin": 39577, "\u2581Angels": 27722, "\u2581backstage": 56067, "\u56fe": 63460, "\u2581dB": 45737, "\u2581tengan": 60665, "\u2581passionate": 14677, "\u2581Luther": 21500, "dess": 17711, "\u2581brownies": 60492, "\u2581field": 4075, "born": 9063, "\u2581lamp": 20366, "\u2581scorer": 43727, "\u2581IMO": 45255, "\u0643\u062b\u0631": 62758, "lex": 3834, "\u2581dependence": 23812, "\u2581TypeError": 57752, "Employee": 43494, "\u2581reluct": 20474, "\u7f29": 64530, "\u2581phenomena": 28202, "\u2581\\": 2731, "getElementById": 22402, "<|mask_318|>": 322, "\u2581Word": 8069, "edad": 29647, "\u2581reserva": 49788, "\u2581surpr": 4945, "aturday": 5530, "\u2581''": 9260, "\u2581Zap": 30680, "<|reserved_672|>": 1188, "lebr": 4579, "\u2581scary": 17483, "\u2581Marie": 18132, "\u2581appellant": 21517, "\u2581sangue": 47981, "\u2581ridge": 34842, "<|mask_505|>": 509, "**(": 47750, "ginx": 50791, "Gap": 57717, "\u2581stride": 36210, "<|reserved_965|>": 1481, "upy": 14990, "requests": 41865, "tensorflow": 50125, "\u2581aller": 26233, "\u2581blueprint": 45177, "etermined": 35007, "\u2581Directed": 55143, "\u2581Blanche": 55747, "<0xA9>": 1713, "\u2581points": 4112, "hood": 4704, "\u2581vier": 20909, "\u2581TNF": 45433, "\u2581Crom": 49386, "\u2581celles": 42384, "\u2581migrant": 40906, "\u00eame": 8464, "\u2581p\u00e1gina": 23407, "\u2581plaintiffs": 25015, "VO": 23578, "\u2581realiza": 39010, "\u2581elusive": 39151, "\u00f6ffent": 46526, "\u2581Added": 24501, "\u2581hatch": 28106, "\u2581exhilarating": 57387, "\u2581\u0643\u0627\u0646": 21840, "MSG": 39796, "\u2581patches": 22928, "\u2581Vo": 12332, "\u2581actividad": 30473, "APTER": 31979, "\u2581php": 26105, "\u2581metastases": 60636, "\u2581fra": 6601, "]--": 30234, "\u2581remod": 21784, "MET": 32216, "\u2581adherence": 37524, "\u2581Eins": 40731, "\u2581Joomla": 62767, "\u2581imagem": 33569, "AS": 3289, "\u2581Hoe": 46115, "Unis": 33953, "\u2581GDP": 22748, "\u2581microscopic": 44964, "\u2581madness": 35821, "base": 6761,
[...]
