{"SQL": 12810, "\u2581society": 6330, "\u2581Jos": 13353, "Tax": 27753, "\u2581gin": 35659, "Expand": 35182, "Conc": 32516, "\u2581Fle": 16600, "<|reserved_788|>": 1304, "\u2581considerably": 18194, "<tool_definitions>": 526, "DataSource": 37419, "\u2581Danielle": 44302, "\u2581EMP": 41737, "\u05d3\u05ea": 35033, "\u2581delect": 58703, "\u2581partnership": 10248, "Scroll": 24833, "\u2581Saf": 10690, "\u2581([": 11667, "\u2581cattle": 21854, "\u2581memorabilia": 58660, "IBUT": 30876, "\u2581observed": 7949, "\u0e17": 63820, "<|reserved_994|>": 1510, "\u2581reveal": 11551, "\u5728": 63205, "\u2581pr\u00f3p": 20764, "arca": 48652, "\u2581Caso": 61875, "\u2581mil": 3294, "estate": 43917, "babel": 45047, "\u2581arom": 15599, "\u2581Struct": 29971, "Spl": 39179, "iffel": 60866, "\u2581dent": 8479, "zoom": 41361, "\u2581projects": 5313, "\u2581scams": 36903, "stars": 10277, "ns": 7071, "connection": 16395, "rolls": 33872, "\u05de\u05d9\u05d3": 46446, "\u2581Kuala": 53885, "\u2581incar": 31893, "\u2581Portable": 32377, "\u2581enl": 16892, "\u2581GTA": 42494, "\u2581inversion": 54770, "\u2581Manuel": 24805, "\u1ee3": 64277, "cheduled": 29528, "\u2581Spr": 11437, "\u2581Etsy": 42031, "\ud5a5": 65042, "\u00edvel": 10466, "\u2581\u05e9\u05e0": 34716, "\u2581Colon": 59688, "\u2581Zac": 52454, "\u2581Rai": 53355, "Lost": 44134, "\u2581devis": 60481, "<!--": 10630, "\u2581shingles": 57159, "\ud83c\udffc": 64554, "\u2581OW": 48752, "WITH": 45230, "\u2581acquisition": 13870, "agon": 5865, "\u00e7os": 12658, "\u2581OC": 33373, "\u2581sky": 9969, "phony": 40437, "\u2581\u0641\u0631": 61731, "diff": 21993, "amazonaws": 56693, "\u2581existence": 10221, "\u2581calculate": 15793, "uction": 16833, "\u2581ovar": 33155, "\u2581Cin": 17581, "\u2581president": 4912, "\u2581jacket": 16511, "Mot": 41049, "Exc": 41700, "[])": 42922, "PE": 7045, "\u2581chain": 8013, "\u2581CLAIM": 55111, "\u2581unsettling": 57309, "\u00a0\u00a0": 15052, "\u2581Employ": 16905, "configuration": 23256, "\u2581aumento": 25807, "fasterxml": 34007, "\u2581Nicar": 39828, "\u2581unfav": 44099, "unnen": 17005, "\u2581Gomes": 51347, "clos": 9143, "\u2581vermel": 44744, "\u0644\u0627\u0641": 62389, "\u2581heavenly": 38356, "\u5b9f": 64252, "bestos": 32817, "\u2581dis": 2132, "\u2581Goat": 60052, "graded": 16329, "Very": 18866, "\u2581card": 4095, "\u2581sun": 5109, "\u2581religion": 10615, "\u2581tough": 8102, "\u2581\u05d3\u05e8\u05da": 61944, "opf": 39776, "\u2581mejorar": 35699, "\u0639\u064a": 27680, "\u2581obter": 43920, "\u2581leaves": 7242, "\u2581incons": 20624, "Bid": 56774, "<|mask_400|>": 404, "\u2581DR": 16896, "\u2581Remote": 26140, "ips": 3818, "overview": 46212, "operators": 56663, "\u56f4": 64455, "\u2581reper": 23818, "burning": 53920, "days": 12266, "\u2581Imagine": 23524, "\u2581alloys": 56088, "\u2581olig": 31572, "\u2581platinum": 32385, "\u043c": 63142, "\u2581golpe": 44036, "\u2581Ministry": 12523, "Wait": 19569, "\u2581Bor": 15707, "mod": 3539, "\u5217": 63427, "\u2581Holy": 12126, "\u2581Se\u00f1": 51894, "\u2581faculties": 56171, "Entry": 13617, "\u2581Deputy": 20819, "\u2581Berl": 54903, "\u2581impartial": 44376, "ampion": 9827, "ellas": 42736, "\u2581fostering": 44000, "EMP": 33243, "\u2581cuyo": 57342, "\u2581curator": 47575, "itt": 2261, "\u2581confronting": 50182, "\u2581utilizado": 40277, "\u2581monte": 47492, "Disclaimer": 42309, "\u2581cr\u00edticas": 57010, "\u1ec3": 64201, "\u2581continually": 20298, "Perfect": 34446, "arked": 59923, "\u2581Yelp": 60900, "uates": 33218, "\u2581Byte": 34662, "\u2581telling": 8434, "Console": 22648, "hemian": 53609, "\u2581pytest": 59190, "icable": 41272, "eyer": 60240, "coup": 16457, "\u2581convenc": 49775, "OTH": 38617, "\u2581Macau": 54400, "Over": 5706, "\u2581thank": 6380, "zelf": 32779, "\u2581Vick": 38768, "\u2581strlen": 56810, "orna": 42364, "\u0631\u064a\u062f": 46756, "\u00e7\u00e3o": 2847, "\u2581bur": 5606, "OPEN": 42039, "OBJ": 61406, "Size": 7154, "igree": 48253, "\u2581demonstrators": 62587, "\u2581Randall": 48542, "\u2581combat": 11303, "\u2581bankruptcy": 18234, "\u2581galvan": 37983, "\u2581ech": 40606, "igns": 58640, "\u5f84": 64067, "mbox": 31765, "\u2581realiza\u00e7\u00e3o": 45910, "\u2581vida": 8406, "\u2581Byr": 44136, "\u2581\u05d5\u05dc\u05d4": 45971, "\u2581se": 1933, "\u2581Nobody": 27932, "osphere": 32818, "\u2581prostitution": 44164, "\u2581exclusive": 10093, "\u2581belonging": 21356, "Creating": 31278, "Storage": 16411, "\u2581ephe": 60438, "\u2581\u0627\u0644\u0625": 13149, "\u2581actor": 10457, "\u2581Galvan": 56087, "\u2581criticizing": 57311, "Legacy": 59124, "\u2581Action": 11604, "\u2581chill": 20161, "\u2581moon": 13285, "\u2581Kubernetes": 43868, "\u2581belang": 27568, "\u2581childbirth": 55319, "\u2581eagerly": 37549, "luc": 44229, "clin": 28937, "Concept": 45908, "\u2581Guy": 19135, "square": 22535, "\u2581ensuring": 12735, "\u2581personality": 11355, "apor": 13418, "\u2581stub": 19584, "\u2581followers": 13214, "\u2581Maur": 21102, "\u2581Basket": 22660, "\u2581Cuomo": 49930, "itness": 6996, "\u2581visuals": 32877, "MF": 50216, "\u2581enters": 21313, "\u2581conspic": 52926, "*:": 51506, "\u2581homogeneous": 46315, "\u2581\u0644\u0625": 55442, "OU": 8936, ".\");": 28733, "ilde": 14367, "\u2581wc": 59270, "\u2581veg": 42059, "\u2581cele": 31456, "OW": 6608, "\u2581magnesium": 31719, "\u2581Sick": 53421, "\u53e3": 63598, "\u00e3este": 28519, "NaN": 49134, "\u2581\"+": 33792, "\u2581stochastic": 56533, "\u2581Acts": 35341, "\u2581sperm": 30918, "\u2581Lana": 62296, "<|mask_210|>": 214, "<0x16>": 1566, "\u2581arranged": 15510, "\u2581visc": 36209, "\u2581Pom": 23930, "\u2581daf\u00fcr": 53776, "\u2581enfrentar": 55663, "unity": 14892, "hentication": 20894, "\u2581mosquitoes": 47624, "\u2581chewy": 62165, "\u2581activities": 5117, "\u2581financ": 15559, "\u2581trim": 11906, "\u2581hd": 34180, "veyard": 54555, "<|reserved_252|>": 768, "Phones": 42952, "Moz": 54338, "legate": 21184, "weet": 8048, "\u2581Mortgage": 32601, "oxygen": 48389, "\u2581\u2581\u2581\u2581\u2581\u2581\u2581\u2581\u2581\u2581\u2581\u2581\u2581\u2581\u2581\u2581\u2581\u2581\u2581\u2581\u2581\u2581\u2581\u2581": 4427, "XX": 14488, "native": 18925, "\u2581prevalence": 21001, "RF": 32332, "Re": 2790, "\u2581hacking": 32798, "\u2581Gupta": 52796, "obl": 18888, "\u2581\"": 1988, "ronicsystems": 58810, "\u2581espa\u00f1ol": 32626, "\u2581margins": 25242, "\u2581Barack": 22057, "kten": 47828, "\u2581Wow": 29845, "LEG": 55391, "zzles": 52377, "<0xE3>": 1771, "\u2581\u05d5\u05d1": 24021, "\u7de8": 65108, "another": 32244, "rique": 15595, "room": 3820, "\u2581recycling": 19702, "\u2581prova": 33545, "\u2581BH": 49778, "\u05e7\u05d8": 59670, "\u2581council": 11675, "\uac1c": 63957, "mv": 34252, "\u2581pragmatic": 48123, "\u2581recipients": 24185, "\u2581atyp": 53404, "\u2581thicker": 32023, "\u2581twins": 28206, "\u2581robber": 52721, "\u2581Harper": 25478, "\u2581fulf": 22549, "\u273f": 65017, "?;": 54695, "\u2581Pale": 34336, "EW": 8361, "\u2581osteoporosis": 55461, "\u05e6\u05d9\u05dd": 42484, "iente": 7174, "tti": 24045, "\u2581cosy": 40619, "eq": 11920, "\u8bf7\u6c42": 60171, "\u2581Older": 46467, "\u2581\u05e8\u05d0": 35035, "\u2581Ahora": 47799, "\u2581made": 2570, "\u2581proceedings": 17983, "\u2581exclaimed": 51629, "ico": 3359, "hours": 30617, "Snow": 40288, "\u2581HDD": 55524, "\u2581bieten": 56295, "\u2581Mais": 12742, "\u2581cared": 24439, "ENTER": 40311, "\u2581gab": 37001, "Email": 12678, "\u2581partially": 17315, "\u2581immediately": 5883, "\u2581stature": 51423, "\u2581rele": 3688, "\u0e23": 63504, "\u2581Dino": 60543, "\u2581destinations": 19321, "science": 27484, "\u2581sympt": 7018, "iliary": 27871, "emu": 62453, "\u2581GBP": 49624, "\u2581\u0648\u0644\u0643\u0646": 48312, "\u2581Bristol": 25134, "\"\\": 31510, "\u2581albums": 17271, "\u2581model": 3633, "\u2581Ellen": 28211, "\u2581laisse": 50277, "\u2581praia": 53777, "\u2581anom": 37742, "\u2581Gravity": 56143, "\u2581yogurt": 25167, "\u2581iceberg": 57152, "\u2581kidneys": 40748, "dk": 19392, "td": 4142, "\u2581scheme": 10101, "\u2581Vega": 47783, "\u2581stud": 2452, "\u2581Independ": 23500, "\u2581appell": 28521, "\u2581Rud": 23907, "<|mask_0|>": 4, "<|mask_231|>": 235, "\u2581api": 19095, "\u697c": 64806, "\u2581coronavirus": 11748, "\u2581psychiat": 30019, "\u2581appe": 4803, "nten": 28116, "\u2581clarity": 18672, "\u2581compressed": 30808, "anova": 49643, "\u2581Camel": 53036, "Treatment": 52100, "ders": 12543, "\u2581dropdown": 38637, "uber": 21669, "\u2581resid": 10558, "SA": 7327, "\u2581dirige": 40863, "\u2581burns": 28814, "\u2581blitz": 55769, "\u2581Uni\u00e3o": 49782, "\u2581reggae": 62340, "M\u00e1s": 49695, "\u2581sorts": 13313, "\u2581ofrece": 27243, "\u2581dirett": 54451, "omac": 57357, "\u2581escuchar": 61232, "sm": 6514, "jpeg": 47601, "\u0644\u064a": 8828, "cong": 40243, "\u2581Ly": 12098, "\u2581Doctrine": 54689, "\u2581D\u00e9": 23141, "jected": 34112, "\u2581desperate": 18497, "\u2581lys": 38361, "\u2581nest": 10454, "contres": 57434, "ogra": 51786, "fico": 17058, "\u2581contender": 40774, "\u2581Crist": 16806, "\u2581renda": 50776, "\u2581fame": 19234, "\u2581preventive": 37528, "Magn": 43771, "\u2581unveiled": 24693, "\u2581Handy": 58976, "\u3067": 63282, "\u2581pastoral": 41300, "\u00a4": 63870, "\u2581encounters": 23690, "\u2581Marcelo": 44882, "vig": 59842, "<|reserved_1011|>": 1527, "\u2581readonly": 25199, "importance": 52886, "\u2581immersion": 43339, "\u2581Diagram": 44595, "\u2581Royale": 48258, "\u2581stretching": 25527, "\u2581grad": 5038, "\u2581parten": 33943, "ingle": 26728, "\u2581Ross": 13808, "\u2581seniors": 19603, "\u2581gays": 48679, "wicklung": 48540, "\u2581c\u0153ur": 34738, "gene": 37296, "\u2581recess": 40717, "\u2581Mayer": 49086, "\u2581siti": 59711, "\u2581Sharp": 34462, "GD": 32043, "UC": 14941, "John": 10683, "\u2581refuge": 13892, "ouver": 15332, "\u2581Blanc": 33234, "\u2581Chess": 46883, "oxin": 54928, "\u2581fondo": 36756, "\u2581elimination": 27770, "\u2581negligence": 26761, "\u2581discreet": 39502, "\u2581way": 2412, "\u00eda": 3680, "\u2581suffer": 12068, "Expl": 20722, "above": 36864, "ylie": 39431, "V": 63005, "emis": 50469, "\u2581hoy": 18630, "<|reserved_501|>": 1017, "\u2581BASIS": 21123, "She": 5318, "\u9886": 64979, "\u2581Won": 32511, "\u2581Dimit": 61253, "\u2581upbeat": 43964, "\u2581pisc": 25895, "\u06ba": 64780, "\u2581precisely": 14474, "\u2581choices": 8209, "\u2581invest": 2971, "\u2581brind": 46660, "Xml": 22949, "\u2581mama": 37163, "\u2581Sasha": 54559, "\u2581ABA": 60303, "\u2581loot": 49521, "\u2581PLUS": 50368, "imm": 10392, "\u2581imprensa": 55538, "\u2581Whatsapp": 61566, "<|reserved_224|>": 740, "\u2581ritmo": 42637, "\u2581yours": 13351, "olerance": 44956, "\u2581Nutrition": 28816, "\u2581Paid": 53214, "\u2581Dump": 22559, "\u2581violates": 44430, "weeney": 57397, "\u2581nickname": 32769, "gh": 2073, "<|mask_33|>": 37, "MRI": 53546, "\u2581paras": 19643, "\u2581Iranian": 22459, "unused": 54034, "<|mask_378|>": 382, "\u2581installing": 16787, "\u2581chickpe": 57212, "\u2581brownies": 60492, "authorization": 54333, "\u2581cam": 4070, "\u2581boy": 4973, "\u2581imb": 58874, "ologna": 43433, "\u2581yearly": 24024, "\u2581Linear": 38913, "\u05d2\u05d5": 61515, "\u2581Everybody": 35290, "\u2581Mets": 32986, "\u2581ejecut": 40264, "\u2581\u05e8\u05d9": 48522, "\u0412": 63261, "\u2581resc": 10579, "onymous": 12358, "\u2581gratu": 18797, "Hel": 9253, "\u2581rect": 12995, "_'": 61834, "\u2581Rabbi": 45200, "operation": 23636, "\u2581docket": 57297, "image": 6793, "\u2581assignment": 14675, "\u2581grap": 23367, "\u2581acne": 25802, "\u2581dye": 28306, "\u2581personal": 3618, "friendly": 11106, "\u2581situaci\u00f3n": 26403, "zie": 18188, "razil": 10293, "ctomy": 29774, "Embed": 45408, "<|reserved_180|>": 696, "\u2581Oz": 24837, "\u2581song": 4486, "\u05d7\u05d5\u05dd": 50968, "FL": 7105, "conduct": 38674, "\u2581Intervention": 62918, "icl": 30356, "\u2581Clayton": 38952, "Bank": 23132, "\u2581heroic": 39250, "\u2581interior": 9085, "\u2581Guth": 59587, "\u82e5": 64514, "\u2581converted": 14861, "\u2581wholeheartedly": 62752, "\u2581utility": 13232, "\u2581Katherine": 37339, "\u2581Renewable": 58173, "\u2581nib": 43081, "\u2581relates": 18221, "\u2581Bowman": 59530, "Alternatively": 48338, "\u2581spotlight": 24460, "\u2581mucho": 15645, "Fac": 23982, "\u2581outil": 57644, "<|reserved_138|>": 654, "\u2581newcom": 30204, "\u9690": 64961, "\u2581Communities": 38662, "\u062d": 63079, "\u2581inde": 4897, "\u2581paved": 35914, "\u2581textured": 44758, "<|reserved_378|>": 894, "><!--": 44948, "ivalent": 32387, "\u2581rins": 46100, "insk": 56388, "\u2581sp\u00e9cial": 20860, "\u064a\u0631\u0627": 58612, "ometry": 12624, "................................": 32833, "metric": 18413, "igi": 27343, "\u2581prisons": 39564, "\u2581chromosome": 36483, "\u2581friends": 3758, "\u2581Tokyo": 17077, "shared": 18823, "WEITER": 59281, "\u2581linhas": 56862, "bikes": 61247, "\u61c9": 65416, "rest": 2617, "\u2581dezembro": 36737, "color": 5994, "\u2581Filter": 23282, "\u05d7\u05ea": 23501, "\u2581\u0627\u0644\u0646\u0627": 44453, "\u2581divid": 7549, "\u2581pine": 18296, "\u2581duplication": 54949, "\u2581Stanton": 59562, "\u2581THEN": 39423, "\u2581sexta": 30634, "\u2581ribbons": 52754, "\u2581tourn": 9054, "generation": 22927, "\u2581protecci\u00f3n": 43941, "\u2581colours": 15257, "\u2581annih": 49087, "\ubcf4": 63690, "Built": 38748, "\u2581tyr": 34564, "mesh": 31293, "\u2581adaptations": 46721, "sky": 23651, "Spring": 23896, "\u2581Archive": 28706, "\u2581risk": 4222, "enna": 22837, "AV": 8395, "\u2581magazine": 10563, "\u2581blast": 19032, "\u2581WP": 29884, "bouw": 61211, "\u2581tests": 6802, "\u2581concerts": 22915, "\u2581TN": 21459, "\u2581International": 5782, "\u2581contends": 35055, "cript": 4420, "\u2581implication": 43703, "<|mask_265|>": 269, "uana": 55644, "Nested": 55016, "\u2581Jacqu": 47800, "umberland": 40393, "\u2581cited": 17098, "\u2581ken": 40740, "\u2581Sellers": 58829, "\u2581Sen": 5665, "\u2581crashes": 26520, "lux": 30357, "ibal": 38540, "\u2581dinosaurs": 47030, "upgreek": 48147, "\u2581slog": 44513, "\u2581treacher": 52995, "\u2581doctors": 11011, "\u2581plum": 25711, "r\u00edguez": 44425, "ugo": 51241, "\u2581tinnitus": 60167, "lou": 61149, "Insp": 36658, "\u2581Doctor": 14211, "aset": 12070, "asts": 10374, "acey": 29192, "\u2581Texans": 44142, "\u2581maneira": 29189, "Conv": 42872, "\u2581adicional": 43730, "las": 10206, "\u2581mistake": 11695, "\u2581gearbox": 57905, "tml": 12731, "\u2581influx": 40298, "\u2581count": 2692, "dropdown": 27292, "\u98de": 65299, "\u2581appropriately": 22342, "\u2581\u0630\u0627\u062a": 62792, "ishi": 26790, "Pointer": 23727, "vang": 26731, "\u2581Accept": 28577, "\u2581envision": 27338, "ellery": 28027, "\u2581mentoring": 36293, "za": 3713, "\u2581Kylie": 53424, "\u2581Trad": 16988, "\u2581nerves": 26581, "\u2581Akt": 38795, "g": 62950, "\u2581established": 6481, "\u2581caused": 6530, "Summary": 19461, "tenham": 29893, "\u2581dildo": 57924, "\u2581Applic": 36071, "\u062c\u0646": 56639, "\u2581harness": 23240, "\u2581r\u00e9": 4261, "\u2581Fernandes": 58492, "\"{": 43169, "arten": 14598, "encoding": 34567, "bero": 38208, "\u2581strings": 14692, "\u2581Philosophy": 34849, "\u2581decreto": 61654, "mask": 17214, "\u2581mul": 13061, "typeof": 25285, "\u2581propuesta": 50045, "\u2581tonne": 60309, "\u2581tor": 7774, "IGH": 24653, "\u2581stemming": 53203, "velope": 48682, "hil": 42633, "\u2581circumstance": 28876, "<0x54>": 1628, "\u2581Austin": 14203, "\u2581aucun": 34332, "\u2581salle": 26390, "\u2581toll": 17395, "raid": 10021, "\u2581track": 4097, "\u2581Bust": 46032, "\ub9c8": 64091, "\u2581gameplay": 19949, "\u2581Compet": 18409, "\u2581soft": 3561, "\u2581spare": 15659, "\u2581\u00e9": 2660, "\u2581importa": 47104, "\u2581range": 3948, "\u2581desired": 10428, "\u2581promised": 14059, "uldades": 51879, "\ud83d\ude01": 64861, "\u2581Packaging": 48336, "\u2581pays": 10843, "\u2581opens": 11939, "\u7f29": 64530, "\u2581Cel": 19845, "\u2581humble": 22512, "\u2581ASC": 35200, "\u2581saute": 51699, "\u2581Spir": 46004, "\u2581horrifying": 57448, "atitis": 57729, "||||": 62430, "\u2581objects": 8160, "amin": 6774, "border": 10296, "\u2581conversations": 13029, "<|mask_426|>": 430, "itical": 22615, "why": 25259, "\u2581Conv": 38986, "\u2581theatre": 16648, "imo": 7587, "\u2581astron": 18459, "\u2581whistle": 30059, "\u2581widget": 26229, "\u2581alcal": 44952, "\u2581newsp": 10049, "\u2581amis": 37498, "stellen": 37781, "\u2581sought": 11652, "\u2581strong": 3704, "\u2581quantidade": 41082, "\u2581impost": 48538, "\u2581Pot": 10402, "rope": 61016, "\u75c5": 64944, "izan": 46522, "bard": 35686, "\u2581where": 2419, "aro": 11740, "<0x6B>": 1651, "\u2581Yield": 60933, "<|mask_475|>": 479, "\u2581Baden": 62129, "Unity": 56779, "igeon": 41703, "\u2581Jardim": 54641, "\u2581Alberto": 33582, "\u2581\u043f": 12875, "\u2581WR": 22972, "\u2581Stras": 50228, "\u2581crafts": 22429, "\u2581Staff": 14627, "Zo": 54604, "\u2581reinterpret": 58784, "\u2581provincia": 31593, "\u2581bu": 2324, "<|reserved_889|>": 1405, "\u2581emails": 11987, "\u00a2": 63364, "\u2581Wine": 21188, "\u2581fined": 42941, "\u2581ki": 55997, "\u2581Clothes": 61849, "\u2581Ain": 58145, "Hay": 32615, "\u2581blasts": 59855, "minent": 32927, "retval": 52253, "\u2581voyages": 59513, "\u2581lied": 34822, "\u2581materials": 5808, "lished": 3847, "resolved": 33888, "\u2581Booth": 39570, "ocarcin": 61352, "\u95e8": 64322, "Aunque": 59436, "\u2581slowing": 28775, "MX": 46560, "<|mask_473|>": 477, "pieza": 55918, "impse": 22234, "ty": 2285, "\u2581completes": 36617, "WEITERLEITUNG": 59540, "\u2581Rac": 35894, "\u2581*_": 60569, "\u2581gener": 2714, "Src": 42871, "\u2581substitution": 37930, "\u2581mill": 5273, "\u2581shaved": 51299, "lando": 16667, "\u2581'@": 20540, "ivas": 10283, "\u2581wra": 9581, "hour": 12296, "<|reserved_818|>": 1334, "TT": 19219, "\u2581biomark": 38079, "\u2581papers": 10862, "icrobial": 41690, "\u2581Machines": 36101, "ark": 2200, "\u2581sensitive": 10935, "margin": 10072, "\u2581Religious": 40727, "\u2581has": 2047, "\u0905": 64670, "\u2581methane": 45873, "\u2581Dropbox": 50231, "\u2581Juni": 53752, "\u2581coverage": 7728, "hopefully": 56814, "Document": 14248, "cold": 45544, "\u2581bunk": 31091, "fatal": 60926, "\u2581Sq": 52148, "itely": 61489, "\u2581IDE": 28074, "Accounts": 56525, "itez": 23206, "\u2581offence": 33598, "\u2581NEXT": 53449, "\u2581Adidas": 34917, "\u2581altamente": 58991, "\u2581mattress": 12923, "\u2581although": 5626, "\u2581beautifully": 17016, "measure": 35922, "\u2581BO": 15509, "\u2581Reserve": 16803, "framework": 13143, "\u2581Canadians": 30286, "\u2581\u05d5": 4495, "Sat": 29104, "\u2581Vog": 45662, "reon": 47382, "\u2581attractive": 11305, "living": 36418, "\u2581d\u00e1": 27380, ";&": 15756, "report": 14715, "\u2581Nadal": 51319, "\u2581booming": 42505, "\u2581Herbal": 54935, "\u2581polarized": 57533, "\u2581neonatal": 51803, "\ud83e\udd23": 64897, "<|mask_132|>": 136, "\u2581deficiencies": 41404, "\u2581Rating": 25376, "Inspired": 56342, "\ub7a8": 65510, "\u2581noted": 7883, "\u2581frog": 41779, "\u2581accreditation": 41067, "\u2581Mobil": 51543, "kins": 8396, "osomes": 45237, "olini": 53154, "iez": 21826, "\u2581cm": 9321, "\u2581tolerant": 47682, "\u2581aerop": 42182, "<|reserved_598|>": 1114, "\u2581membr": 13898, "\u2581passages": 29000, "chunk": 34287, "\u2581Words": 26599, "\u2581sos": 62695, "\u2581professionally": 25155, "\u2581printed": 11835, "\u2581buildings": 9014, "\u2581sulph": 47817, "\u2581baise": 48660, "\u2581thinks": 11434, "\u2581Title": 17393, "\ud83e\udd70": 65439, "olog": 2448, "\u2581Vanessa": 42982, "\u2581Ahead": 48785, "\u2581Brief": 27495, "\u2581Thomson": 45070, "cept": 2749, "\u2581pharmacological": 62385, "\u2581Je": 4872, "hered": 27251, "\u2581sheet": 9767, "ACTION": 36342, "\u2581endure": 26525, "\u2581moi": 19729, "supplementary": 30361, "iding": 5166, "\u2581shipments": 37203, "\u2581noses": 55371, "\u2581Taiwanese": 60391, "unction": 6814, "Bre": 17499, "\u2581Buy": 9972, "\u2581stays": 15750, "Bright": 48725, "Measure": 34085, "\u05ea\u05d9\u05d9\u05dd": 50267, "\u2581ciudadanos": 53740, "\u2581Multiple": 25333, "clear": 11173, "\u2581stellar": 26118, "Solid": 49404, "\u2581\u00b1": 14844, "\u2581gangs": 46528, "\u2581jeans": 18957, "habi": 36232, "\u2581witty": 43646, "\u2581advisor": 22447, "\u2581\u05d5\u05d4": 12909, "undefined": 29362, "\u2581Ine": 54929, "\u02cc": 65473, "\u2581RSA": 54849, "\u2581\u0627\u0644\u0645\u0648\u0627": 58196, "Asian": 50329, "\u2581remarks": 20519, "\u2581Factory": 21318, "\u2581viewpoints": 50527, "rett": 12366, "\u2581Lack": 47258, "third": 24580, "\u2581ruined": 30265, "\u2581Flash": 17603, "\u2581Bloss": 56737, "\u2581unpublished": 54493, "\u2581Pants": 56490, "Junior": 58914, "\u2581ido": 56232, "\u2581pr\u00f3ximo": 20322, "anging": 6356, "\u2581relocate": 41644, "\u2581rela\u00e7\u00e3o": 23867, "\u2581Portal": 27347, "\u2581copying": 31811, "\u2581Chine": 46728, "\u2581Quality": 14479, "\u2581bolt": 27310, "episode": 54856, "\u2581jong": 56237, "\u2581Kennedy": 18178, "\u2581sections": 11052, "\u2581HDMI": 32985, "\u2581resisted": 47681, "\u2581carta": 37232, "\u00edo": 17302, "\u2581'%": 31197, "\u2581Poker": 24253, "\u2581Relief": 32887, "avage": 37688, "Nous": 24822, "\u2581Presidency": 59225, "\u2581mano": 25085, "\u2581elong": 39559, "\u2581lifestyles": 40379, "Do": 5383, "\u2581socialism": 48473, "\u2581Snapchat": 38325, "\u2581entrada": 24625, "\u2581moet": 18536, "\u043c\u043e": 42688, "\u0d2e": 65433, "\u2581flawed": 33796, "Lex": 41800, "\u2581espect": 29435, "\u2581provoke": 51053, "\u2581scaling": 26147, "\u2581Perse": 58977, "wealth": 19637, "INST": 27057, "\u2581\u05de\u05e4": 40976, "ifica\u00e7\u00e3o": 25358, "\u2581memorial": 21052, "\u2581Hot": 6243, "\u2581civil": 7042, "plots": 53186, "\u2581vain": 30652, "\u7a2e": 65358, "\u2581longitudinal": 35701, "\u2581pena": 29462, "\u2581meals": 10936, "\u064a\u0646\u0629": 32367, "\u2581nouv": 28100, "\u2581rotation": 16225, "itect": 6025, "\u2581photographers": 26148, "\u2581Seller": 37235, "Julie": 59988, "Family": 21593, "\u2581contempor": 24990, "^^^^": 51041, "han": 8251, "\u2581horrified": 57162, "\u2581Document": 16617, "\u2581twitter": 23123, "\u2581waking": 27341, "Pero": 39089, "\u2581Mining": 20721, "\u2581metals": 18515, "\u2581trabalha": 59486, "\u2581recognise": 25993, "\u2581Ged": 49740, "schild": 58767, "\u2193": 63927, "=/": 36851, "\u2581purely": 21037, "\u2581caution": 18642, "\u2581Maven": 58300, "i\u00e3o": 13014, "\u2581rendered": 21488, "\u2581Krishna": 43312, "\u2581scenes": 11188, "\u2581anxious": 20594, "<|reserved_247|>": 763, "\u2581Gab": 14317, "cit": 24143, "patterns": 60822, "Publisher": 40018, "<|reserved_903|>": 1419, "\u2581bitcoins": 43252, "\u2581todav\u00eda": 40984, "\u2581subt": 10665, "\u2581Segundo": 36309, "Anyway": 21938, "\u2581an\u00e1lisis": 43529, "\u2581idx": 30769, "\u2581slightest": 38205, "platz": 44860, "\u2581Dead": 13448, "Working": 24864, "\u2581lifes": 29590, "<|reserved_365|>": 881, "\u2581antigo": 61287, "\u2581beans": 15072, "\u2581Cad": 20479, "\u2581Solar": 19447, "\\)": 44080, "earth": 28718, "\u2581$\\{": 47977, "\u2581impres": 31386, "ate": 1930, "iss\u00e3o": 29156, "token": 11941, "\u2581Ub": 18968, "\u2581VIII": 42217, "\u2581circunst": 53068, "\u2581pr\u00e8s": 26367, "\u2581ahor": 45282, "\u2581advice": 6549, "\u2581IST": 46281, "\u2581controlled": 10531, "Among": 20212, "ArrayList": 31108, "\u2581Show": 8254, "\u2581Casual": 36237, "vre": 27900, "\u2581treaties": 60227, "\u2581stations": 12044, "\u2581Extract": 34603, "\u2581monarch": 39550, "Bo": 11377, "\u2581leggings": 52864, "\u2581resumed": 38880, "<0xFC>": 1796, "\u2581Researchers": 38386, "brother": 40466, "\u67d0": 64258, "\u2581Rates": 35674, "\u2581Service": 6215, "\u2581Kimber": 41063, "\u2581Shenzhen": 62674, "ju": 8613, "leden": 61841, "\u2581Anders": 35366, "\u2581Carlos": 16099, "eredith": 46270, "\u00baC": 60237, "\u2581Apple": 6832, "\u2581autom": 4329, "\u2581method": 3380, "\u0635\u062f": 43819, "Sequence": 28682, "\u2581permettant": 42281, "Teen": 62929, "\u2581savage": 60357, "\u2581mieux": 23213, "\u2581torment": 42602, "\u2581gave": 5091, "\u2581glor": 34159, "\u2581Howell": 58798, "\u2581McCoy": 55710, "\u2581malfunction": 44732, "\u2581Council": 6707, "\u2581father": 5262, "\u2581Dee": 38072, "\u2581Flint": 42841, "\u2581Component": 25377, "Clark": 61124, "\u5e0c": 64834, "\u2581Bran": 42790, "\u2581wall": 4833, "\u2581provided": 4422, "\u2581erg": 19068, "\u2581molecular": 15625, "\u2581Playing": 30717, "aments": 15343, "\u2581categ": 5426, "\u2581ampli": 56290, "\u2581jaren": 39347, "\u2581number": 2836, "<|reserved_642|>": 1158, "\u2581Ass": 4015, "<|reserved_801|>": 1317, "\u2581fleeing": 41941, "\u2581thunder": 24443, "lag": 20033, "medium": 32155, "ISE": 21786, "inz": 30293, "\"(": 48971, "vilupp": 41475, "\u2581m\u00e1quinas": 52758, "iqu\u00e9": 27142, "\u2581\u00e9taient": 32753, "\u2581subdivision": 44446, "\u2581tempor": 9818, "Solve": 50331, "\u2581disregard": 38867, "=[": 24659, "\u2003": 63233, "rench": 5671, "li\u00e9": 42933, "lict": 19765, "born": 9063, "\u2581Appe": 18291, "\u2581kleinen": 62278, "\u2581cyt": 16385, "\u2581overwhelmingly": 44712, "\u03a6": 64116, "\u2581Re": 2318, "\u0131r": 58285, "\u0408": 65075, "dyn": 35502, "\u2581vim": 58254, "ativas": 17227, "\u2581Tee": 47911, "\u2581monsters": 24486, "bet": 11147, "\u2581markings": 46285, "\u2581foi": 6414, "\u2581Falk": 50154, "branded": 45615, "contain": 8311, "ilidade": 53004, "\u2581recordar": 61467, "\u2581popup": 43036, "\u2581societies": 23198, "\u2581JU": 59235, "llib": 61910, "\u2581derrota": 62524, "\u2581Protective": 55564, "\u2581rolling": 13223, "\u2581professionalism": 35633, "\u836f": 65496, "ifndef": 24942, "\u2581niche": 20007, "\u2581Disk": 39335, "\u2581Sight": 54248, "\u2581kilometer": 57657, "\u2581regional": 9156, "\u2581oven": 11393, "Destination": 41171, "ductor": 22116, "Because": 11460, "\u2581Argent": 13200, "\u2581denunci": 43377, "\u2581ip": 14166, "\u2581WD": 53515, "\u2581ley": 26633, "dL": 56794, "\u2581ticket": 10132, "pine": 23600, "\u2581Portsmouth": 46838, "\u2581ko": 29040, "\u2581hers": 29175, "\u2581Seas": 53524, "em\u00e1tica": 60062, "Growing": 45286, "\u2581partout": 54539, "reb": 18864, "\u2581relaxing": 16975, "\u2581summon": 28884, "\u2581unauthorized": 33240, "Ideal": 60176, "goers": 48590, "xies": 50606, "\u2581riusc": 62707, "\u2581Estim": 46453, "Credentials": 41845, "\u2581AV": 17500, "assic": 43220, "\u2581McD": 40920, "\u00f3metros": 51065, "loten": 55081, "trial": 45114, "\u2581forty": 19973, "\u2581Psal": 35133, "isin": 39732, "\u2581Alien": 42335, "\u2581Fern": 13963, "_": 62988, "\u2581noticia": 55347, "\u2581dates": 9839, "Type": 3871, "spin": 34166, "\u2581probabil": 46081, "magic": 42083, "\u2581\u05dc\u05e2\u05e9\u05d5\u05ea": 53650, "\u2581signals": 12960, "\u2581dest": 3832, "\u2581Gmail": 36194, "\u2581library": 7283, "\u2581hackers": 29508, "\u2581pracht": 52193, "\u2581trembling": 60529, "<0xC2>": 1738, "\u2581comfortably": 24779, "ilo": 11428, "Sum": 12397, "\u2581proposta": 35870, "nullable": 46951, "\u2581bits": 12796, "reject": 46964, "\u2581investors": 8753, "typescript": 60004, "osing": 6727, "\u2581pr\u00eat": 40911, "\u2581d\u00e9fin": 35641, "\u2581Francis": 17141, "<|reserved_1002|>": 1518, "rea": 9556, "loved": 48655, "\u2581bitter": 19091, "\u2581hass": 20265, "Axis": 29787, "<0x8A>": 1682, "\u2581firmly": 19709, "\u2581instructed": 25192, "\u2581Bangkok": 32636, "death": 39343, "\u2581promulg": 62482, "\u2581phosphat": 62571, "\u2581Roth": 25693, "last": 7936, "\u2581asshole": 50520, "\u2581merger": 26827, "\u2581Monte": 16462, "\u05e4\u05ea": 23179, "\u00cb": 65093, "\u2581notified": 22330, "\u2581Edinburgh": 24699, "\u7acb": 63965, "aja": 20545, "\u2581Tampa": 23558, "eye": 30077, "\u2581Brunswick": 41664, "eu": 20616, "\u2581disruptions": 47426, "\u2581Dalton": 46587, "\u2581automaker": 61570, "\u2581AIS": 55976, "\u2581parody": 52835, "Auth": 14924, "\u2581viral": 16741, "\u2581d\u00e9g": 50006, "\u5730": 63443, "\u2581drie": 42452, "\u2581synonymous": 42054, "\u2581meaningless": 39919, "\u2581loneliness": 36731, "\u2581psic": 30598, "proved": 32277, "\u2581legal": 5160, "\u2581friction": 28339, "Guy": 57167, "\u2581pans": 32632, "\u2581deix": 13776, "\u2581Bibli": 35058, "\u2581Late": 24511, "\u2581comenz": 25287, "SPEC": 42274, "lysis": 53697, "\u2581toi": 42572, "\u2581png": 49205, "inha": 9306, "\u2581Reid": 28848, "\u2581specialised": 45926, "\u2581appointment": 11242, "reta": 29967, "HAS": 58469, "\u2581Vol": 6947, "\u2581Nexus": 38878, "\u2581mariage": 43900, "\u2581blob": 45066, "\u2581Uttar": 51822, "\u2581Says": 39028, "ut": 1877, "\u2581granular": 46833, "Ay": 46426, "\u2581microbes": 52198, "\u2581regex": 34529, "\u2581Administration": 12682, "\u2581sue\u00f1o": 55220, "\u2581Polk": 56161, "\u2581sheer": 21109, "\u05d9\u05e8\u05ea": 42138, "\u2581Chin": 30930, "\u2581bespoke": 39510, "\u2581noct": 42862, "\u2581India": 5251, "Stmt": 58443, "\u2581news": 4137, "mington": 44299, "\u2581levant": 29258, "\u2581varios": 26128, "\u2581coherent": 33065, "<|reserved_135|>": 651, "\u05dc\u05d0": 13986, "Fran": 32219, "joint": 24727, "procedure": 55142, "bath": 27434, "dance": 56235, "auw": 49761, "Mich": 16160, "ulously": 23255, "CONF": 56535, "<|reserved_0|>": 516, "\u2581journey": 6644, "\u2581gaze": 22624, "\u2581headphones": 25379, "RESULT": 40121, "iri": 20172, "\u2581dishonest": 42959, "hah": 58999, "\u2581pubs": 36417, "Ratio": 49500, "onest": 23877, "\u5f80": 64779, "\u2581infertility": 47906, "oltre": 46854, "regs": 52585, "Sing": 14702, "\u2581topped": 21757, "\u2581wars": 18759, "\u2581cler": 34133, "UME": 56585, "\u2581Addison": 60187, "<|mask_54|>": 58, "\u2581seemingly": 15844, "\u2581shock": 8329, "<|reserved_503|>": 1019, "istry": 5539, "\u2581rated": 14718, "Ability": 45524, "\u2581tim": 5621, "\u2581rollers": 46867, "\u2581horizons": 52884, "\u2581starvation": 53462, "\u2581kwal": 43658, "Cont": 3854, "\u2581Enhanced": 55968, "\u2581Cancer": 15650, "\u2581formulas": 34652, "ermont": 58533, "\u2581intelig": 30972, "\u2581fich": 29310, "olicies": 49177, "============================": 50243, "umin": 7573, "\u2581spills": 51376, "ude": 4027, "\u2581Cr": 5844, "ificar": 20122, "shirts": 26826, "Say": 35532, "\u2581adopts": 54586, "\u2581Kun": 38838, "\u2581prepar": 6346, "\u2581streamlined": 38698, "classes": 19633, "\u2581Today": 8062, "Market": 29947, "\u2581Voc": 42127, "iad": 59575, "\u0142": 63242, "\u0d41": 65024, "TCP": 49232, "Promise": 36691, "\u2581envie": 39791, "lua": 31626, "<|mask_307|>": 311, "\u2581cleanliness": 51401, "\u2581ethos": 51769, "Hack": 60712, "ometers": 21360, "\u2581puedan": 42142, "\u2581sistema": 12427, "isiones": 50139, "Football": 50057, "\u00fasica": 54054, "acio": 18650, "Shape": 29364, "\u2581ringing": 38002, "\u2581verz": 29352, "stra\u00dfe": 52744, "sizing": 55365, "geom": 57074, "links": 18669, "sensitive": 33463, "olf": 5946, "\u2581exp": 2701, "ission": 3108, "\u2581d\u00e9p": 26573, "\u2581London": 5799, "strategy": 49469, "\u2581deteriorated": 60979, "connect": 11979, "assist": 61420, "\u2581nail": 16586, "\u2581fian": 38769, "\u5b58": 63347, "acan": 57779, "\u2581finalized": 43338, "\u2581legacy": 14747, "\u2581eternity": 38068, "\u2581om": 6318, "tails": 21011, "\u2581clothing": 11115, "Log": 6220, "axy": 11399, "\u2581restrict": 6556, "\u2581Mos": 17865, "Chinese": 34029, "informatics": 61372, "Notice": 36409, "quot": 15476, "<|reserved_384|>": 900, "ialog": 7171, "\u2581\uc788": 43612, "\u2581realms": 52284, "\u2581duplicates": 52064, "\u2581anteriormente": 56227, "\u2581Kle": 18710, "Founder": 52311, "to": 2078, "\u2581religious": 8569, "uko": 59461, "\u2581mismo": 14644, "\u2581crimes": 14265, "\u2581crypto": 14162, "\u2581edit": 10974, "\u2581leva": 46474, "Managed": 50948, "\u2581calam": 46765, "\u2581...)": 52325, "MOESM": 53400, "\u2581acces": 42770, "\u2581bombers": 59108, "\u4ed6": 63552, "ari": 2591, "\u2581dialogue": 14082, "amation": 42121, "\u2581POR": 39156, "ably": 3098, "\u2581intellect": 12046, "ciones": 23879, "\u0636\u0627\u0641": 52495, "\u2581Environment": 11688, "\u2581Zy": 59981, "\u2581SE": 9613, "\u2581electrically": 57252, "oya": 28658, "\u2581bird": 11300, "\u2581Ven": 12292, "\u2581bib": 15438, "\u2581combining": 20165, "Handler": 10240, "\u2581dad": 10414, "mit": 3945, "lamic": 13960, "open": 6762, "\u2581seminar": 28879, "\u2581cell": 3452, "alles": 24956, "ucher": 52618, "\u2581conformity": 57164, "\u2581Am\u00e9rica": 29116, "storage": 19419, ")^": 21197, "multiple": 39058, "\u00e1rez": 60649, "posable": 35299, "pix": 42837, "\u2581accord": 10959, "\u2581\u0648\u0639": 38716, "acula": 52017, "\u2581kicker": 62060, "\u2581Sprint": 36987, "ruct": 2771, "Coll": 20953, "ianos": 33868, "\u2581Rip": 37874, "Tracker": 47311, "inese": 6295, "\u2581Capricorn": 61469, "au": 2110, "\u2581nou": 9008, "\u2581ent": 2331, "\u2581petit": 18114, "\u2581Ga": 13747, "selves": 4050, "\u2581ery": 38653, "\u2581n\u00ba": 39591, "idu": 43857, "\u2581sexually": 22810, "\u00eate": 14511, "explicit": 54253, "\u2581[<": 62589, "\u0643\u062b\u0631": 62758, "Fe": 8454, "\u2581Blog": 11031, "\u2581Positive": 36565, "\u2581messenger": 36738, "ogical": 56970, "\u2581\u05db\u05df": 51939, "\u2581running": 4309, "\u2581diocese": 61325, "<|mask_288|>": 292, "oned": 16562, "\u2581embed": 13141, "<|reserved_192|>": 708, "\u2581preferable": 40343, "Q": 63031, "\u0ccd": 64954, "\u2581Wealth": 38278, "\u2581cac": 59432, "\u2012": 64641, "\u2581grandes": 13616, "OM": 5772, "fection": 7277, "\u2581Edit": 22405, "Receive": 39792, "\u2581Zwe": 46811, "hyd": 10784, "\u2581sacr": 11095, "<|reserved_733|>": 1249, "tically": 30324, "Request": 6466, "\u2581cervical": 32320, "\u2581\u0643\u0645\u0627": 35149, "ractor": 27071, "\u05d6\u05d4": 18489, "\u2581seeds": 11913, "linked": 26089, "parsed": 44457, "\u2581:)": 11510, "\u2581valign": 40453, "sk": 9031, "<|reserved_953|>": 1469, "\u2581goalie": 51049, "Second": 14104, "geois": 45183, "\u2581cash": 5754, "-)": 19330, "MG": 25908, "\u2581SY": 24006, "\u2581playback": 34904, "\u2581replay": 38577, "\u2581detecting": 31417, "loading": 22602, "\u2581privileged": 30792, "<|mask_85|>": 89, ")^{": 36389, "\u2581neural": 23224, "\u2581electronics": 19211, "\u51c6": 64296, "ualmente": 18367, "\u0627\u0631": 5417, "\u2581Ko": 20869, "\u2581Fury": 44355, "frey": 45275, "\u2581silly": 18509, "\u2581advertisements": 25688, "<|reserved_440|>": 956, "\u2581Salad": 36881, "\u2581landmark": 26362, "note": 15133, "\u2581freezes": 58274, "ultane": 12394, "\u2581indicative": 38550, "seeking": 58563, "otive": 14347, "corp": 44858, "\u2581n\u00e9cessaires": 55842, "\u2581reusable": 38266, "\u2581barcode": 56813, "\u2581Gael": 55180, "cape": 39989, "\u2581clinicians": 36619, "\u2581warmed": 41821, "\u2581institutes": 48421, "<|mask_11|>": 15, "Whether": 15299, "ounces": 21191, "\u2581silica": 41997, "\u2581len": 10824, "\u2581rosto": 59634, "\u2581trunc": 38827, "........": 10487, "\u2581accelerate": 24830, "\u2581Pilot": 34048, "\u2581bois": 28049, "\ud5c8": 65497, "<|mask_371|>": 375, "Structure": 41167, "bond": 40023, "\u0416": 65432, "\u2581epithe": 60820, "iple": 4153, "svc": 61668, "}_\\": 62785, "\u867d": 65412, "len": 6989, "iere": 9706, "Query": 9198, "\u2581brut": 15173, "\u0bc8": 65118, "\u2581hitch": 40201, "\u2581endorsement": 32087, "\u2581doub": 20328, "\u2581beneficiaries": 34194, "\u2581ground": 4463, "God": 15818, "Serialization": 48124, "\u2581condos": 49245, "\u0432\u0402": 27706, "\u2581\u05d9\u05d4": 35311, "\u2581Emerald": 46807, "\u2581fogo": 53607, "vl": 31056, "cutting": 44723, "\u2581ailments": 43541, "\u2581Gregory": 30965, "\u2581hugged": 52833, "\u2581numpy": 28163, "\u00f4te": 37056, "\u2581Gail": 53790, "\u2581ergonom": 53851, "\u2581Pend": 46762, "\u2581propensity": 58864, "<|reserved_603|>": 1119, "<|mask_208|>": 212, "\u2581Rick": 14546, "oblast": 46803, "\u2581Ning": 61876, "ado": 2477, "\u2581spraying": 47905, "\u2581Boss": 26192, "\u2581actual": 5443, "\u2581coherence": 56631, "\u2581compiling": 44078, "\u2581casts": 46729, "\u2581Salvation": 50550, "\u2581consolation": 53254, "/~": 59979, "\u2581distinctive": 18197, "otional": 25230, "\u2581haul": 28643, "\u2581Originally": 30706, "\u2581yielded": 37541, "\u2581payouts": 41824, "\u73ed": 65437, "\u2581mating": 50542, "Crit": 23334, "\u2581wiring": 24237, "Nor": 32276, "\u2581voluntarily": 35397, "\u2581uniforms": 34876, "\u2581confian\u00e7a": 54864, "\u2581res": 2093, "\u2581rin": 25530, "concert": 57927, "\u2581darn": 39158, "erman": 10702, "mirror": 60655, "allel": 10857, "\u2581asleep": 18761, "\u2581Dental": 29673, "\u2581papier": 42579, "\u2581junio": 33214, "ettle": 28061, "\u2581veh\u00edculos": 57249, "IVO": 58691, "\u2581Want": 18867, "formin": 62700, "izards": 32129, "ERAL": 40117, "waiting": 54731, "<0x04>": 1548, "Ukraine": 60123, "Williams": 41080, "azas": 46899, "\u2581Bath": 18868, "\u2581menstrual": 46424, "\u2581skills": 5397, "yrics": 15170, "act": 2088, "\u2581devastating": 21885, "burst": 32645, "Kernel": 48953, "\u2581adam": 46801, "ocene": 51271, "ab": 1921, "\u2581Agency": 13345, "iron": 3182, "\u2581dark": 5170, "\u2581forex": 25606, "posium": 29234, "\u2581predators": 37269, "ito": 3679, "\u2581Lomb": 36449, "apple": 20483, "Rou": 58030, "\u2581ME": 15258, "acement": 6611, "CODE": 23424, "Bed": 29499, "\u2581Pulse": 46626, "IDENT": 32512, "\u2581interchange": 32379, "wolves": 60902, "\u2581sofa": 22095, "vest": 5449, "\u2581cock": 9689, "\u2581dictionary": 20978, "\u2581overly": 23682, "\u2581Jahren": 32020, "\u2581teaspoon": 23304, "es": 1815, "\u2581Fate": 49139, "\u2581Chilean": 62275, "\u5237": 64792, "\u2581vocals": 21296, "Pi": 31660, "\u2581Morton": 47547, "\u2581resulted": 12005, "fy": 19850, "Audio": 22757, "\u2581dece": 18646, "commons": 31648, "\u2581jogadores": 41343, "\u2581personnages": 53595, "\u2581WV": 49059, "\u2581audiobook": 45603, "\u2581FIG": 23375, "Success": 19177, "\u2581formula": 11077, "\u2581cardiac": 21752, "<|mask_148|>": 152, "\u2581Silicon": 31133, "\u2581stacking": 52948, "ressant": 60935, "Reply": 29167, "<|reserved_864|>": 1380, "ingo": 12585, "\u2581apoio": 31014, "\u2581programmed": 35838, "place": 5281, "rophy": 22829, "\u2581pointed": 11294, "\u0644\u0645": 24135, "\u2581gamers": 19552, "adas": 4780, "AD": 4079, "solution": 47773, "\u2581officers": 8925, "\u2581strikes": 18715, "\u2581keine": 29525, "\u2581sizing": 43454, "\u2581evaluate": 12060, "icycle": 42711, "\u2581Aj": 21892, "\u2581ACC": 23107, "ims": 14932, "\u00e8ves": 42746, "\u2581OUT": 19381, "\u2581escaping": 38383, "\u2581Jong": 40011, "matching": 57874, "\u2581\u0645": 3387, "\u2581pepper": 13131, "Girl": 30248, "\u2581always": 2946, "\u2581keyp": 56735, "\u2581Items": 28445, "avir": 50938, "\u2581enquiry": 56661, "\u00a0=": 44983, "\u2581agente": 54183, "\u2581Triumph": 62242, "\u2581sinister": 45556, "\u00c9": 63120, "\u2581bite": 14978, "\u2581functioning": 17323, "\u2581gra": 4296, "\u2581Stewart": 19372, "rox": 52684, "\u2581Burma": 55505, "\u2581Volt": 52091, "\u2581Gonz\u00e1lez": 43965, "\u05d5\u05e7": 14291, "\u2581ethical": 17913, "\u2581attacker": 34044, "als": 2404, "\u2581HOLD": 37172, "thren": 43403, "iete": 51569, "\u2581publi\u00e9": 52032, "\u2581learn": 3473, "\u2581accused": 12324, "\u2581saddened": 60035, "\u2581sp": 2149, "cling": 41847, "\u00e3": 63033, "Ser": 6695, "\u2581EN": 9474, "\u2581consisted": 22377, "oure": 28896, "\u2581railing": 62244, "Conn": 18680, "\u01d0": 64360, "\u05d5\u05df": 9419, "\u2581What": 3489, "\u2581species": 6702, "\u2581poss\u00e8de": 51756, "\u2581normative": 61762, "\u2581mediator": 48335, "\u2581HUD": 50246, "\u2581legisl": 10470, "itzerland": 18139, "\u2581Prel": 42546, "\u2581Eck": 49863, "\u2581architects": 30404, "\u2581dominates": 49229, "\u2581housing": 8628, "\u957f": 63783, "ITION": 27173, "\u2581pony": 34258, "\u2581Pace": 56029, "\u2581lower": 4593, "\u00f4nio": 40309, "\u2581Pocket": 35923, "\u2581other": 2154, "\u2581INFO": 39497, "\u2581weren": 10500, "\u2581definitely": 5452, "acional": 7300, "\u2581\u0627\u0644\u062b": 23029, "\u2581escorts": 33370, "loan": 39724, "\u2581cosmetic": 26417, "\u2581conocido": 42581, "Sav": 54518, "reat": 2157, "QU": 10255, "\u2581targets": 11725, "\u2581\u0627\u0644\u0645\u062a\u062d\u062f\u0629": 45026, "Would": 20676, "\u2581staying": 10810, "ree": 2168, "<|reserved_164|>": 680, "\u2581grate": 49451, "<|reserved_635|>": 1151, "\u2581valeur": 35203, "\u2581Warwick": 51857, "\u2581celebr": 4917, "\u2581leads": 7593, "\u2581desempen": 39119, "\u2581flawlessly": 62887, "\u2581sport": 6754, "Attributes": 22732, "rijf": 57457, "\u2581misinformation": 49095, "\u2581Naval": 31034, "Colorado": 62712, "\u2581fluent": 46932, "Compile": 48758, "<|reserved_143|>": 659, "\u2581soap": 17190, "\u2581embarrassing": 30817, "....": 4380, "Eval": 32394, "\u2581tried": 5032, "\u2581Cette": 21797, "ens\u00e3o": 37049, "\u2581catch": 6149, "\u2581awarded": 11492, "\u2581stimulating": 34090, "\u1ed1": 64149, "blog": 11330, "\u2581como": 3592, "\u2581stripes": 35487, "\u2581plus": 3743, "\u2581Sophie": 31744, "\u2581cleaners": 37267, "/\u2212": 55101, "\u2581Retrie": 21034, "\u2581dust": 10535, "\u2581superintendent": 46396, "INGLE": 62083, "\u2581volatile": 27240, "\u2581integrations": 51836, "raiser": 52434, "\u2581Gir": 31062, "\u2581criminal": 8911, "pecific": 8410, "athing": 47835, "\u2581Swing": 42195, "\u2581Schema": 42894, "\uc608": 64243, "\u2581labels": 13931, "\u2581leakage": 40252, "phil": 40308, "useppe": 50858, "ues": 2492, "\u2581Assemble": 54843, "\u2581stim": 8359, "venous": 41849, "conf": 10129, "daughter": 30920, "abb": 43613, "i\u00e7os": 57141, "jeuner": 61313, "yn": 3034, "\u2581downloads": 22424, "\u2581Interest": 15142, "\u2581destac": 20009, "\u0111": 63435, "\u2581investigating": 18661, "\u05d3\u05d5\u05ea": 30610, "\u2581Sleeping": 55024, "\u2581objets": 57849, "BS": 6988, "\u2581pissed": 39032, "\u2581packaging": 13790, "slow": 41036, "\u2581Aero": 56331, "\u2581book": 2791, "\u2581homemade": 20926, "\u2581audiences": 16286, "\u2581Advertis": 41565, "\u2502\u00a0\u00a0": 58787, "\u2581workloads": 60169, "\u2581Virginia": 9788, "\u2581candidates": 9515, "\u2581Worse": 60932, "\u2581Amount": 49568, "\u2581Nvidia": 51702, "\u2581cantante": 53989, "\u2581antid": 55986, "\u2581Philippines": 16488, "\u2581travaille": 56899, "\u2581retained": 22909, "\u2581Dallas": 14097, "chef": 53445, "imiento": 10086, "j\u00e4hr": 55975, "eding": 9270, "\u2581rightly": 35080, "esa": 18443, "src": 8276, "\u2581postpartum": 59228, "\u2581rece": 2950, "arant": 15572, "\u2581density": 12019, "THER": 20157, "\u2581Spart": 33751, "\u2581mascot": 47771, "uration": 4946, "Americans": 38579, "\u2581vigilant": 46654, "\u2581desarrollar": 52891, "Ut": 31292, "ustain": 17536, "aines": 16808, "\u805a": 65422, "\u2581Kabul": 57117, "\u2581bailout": 56893, "\u2581Tour": 9475, "\u2581briefs": 54732, "\u2581neurons": 23840, "\u2581diff": 7704, "\u2581quanto": 18110, "\u2581candidato": 37224, "rolley": 46466, "<|reserved_683|>": 1199, "\u2581pleading": 47952, "\u2581Ponte": 56940, "\u2581Stand": 8441, "\u2581fence": 17683, "Men": 19534, "ables": 3751, "acked": 10483, "\u2581academ": 52799, "Mother": 36436, "\u2581psoriasis": 45763, "\u2581Speed": 15877, "mage": 34403, "\u2581Orchestra": 28132, "\ud6c4": 64631, "coated": 42966, "\u2581Devin": 59473, "ilder": 54241, "\u2581PL": 12757, "Resource": 11761, "xff": 37515, "\u2581tidy": 32475, "orde": 16352, "\u2581empleo": 54531, "reven": 46524, "\u2581Brace": 48238, "ependant": 31036, "rol": 2827, "\u2581btn": 18084, "\u2581obrig": 30303, "\u2581boxes": 11375, "<|reserved_831|>": 1347, "\u2581underwent": 27870, "\u2581Serious": 54536, "\u2581gama": 46504, "comfortable": 15904, "along": 30186, "uth": 4402, "\u2581niveles": 48066, "\ucd9c": 64084, "\u2581pequenos": 52005, "\u2581MQ": 62390, "\u2581merchandise": 18719, "Tur": 25429, "vend": 51157, "fusc": 61734, "\u2581Friends": 17203, "\u518d": 63850, "\u2581sincer": 47200, "\u2581upon": 4536, "IAA": 55007, "Republic": 37636, "\u2581dodge": 50292, "it\u00e4t": 25068, "\u2581Insights": 42917, "\u2581reptiles": 61720, "\u2581tackle": 14460, "\u2581endeavor": 31303, "ARM": 30179, "\u8f7d": 63721, "\u2581indigenous": 23820, "ibernate": 51905, "Bet": 13674, "\u2581leased": 48379, "Featured": 38690, "\u2581usually": 4409, "\u2581Universidad": 26428, "\u2581profesionales": 36139, "\u2581paint": 6309, "\u2581kat": 62499, "\u0645\u0631": 21300, "\u2581atract": 57765, "techn": 18482, "\u2581mercy": 23281, "\u521d": 63976, "breaking": 17345, "\u2581reflections": 34454, "\u2581noodles": 29842, "\u2581Contemporary": 31778, "\u2581establishes": 36656, "\u2581detr\u00e1s": 58012, "\u2581wrapper": 27958, "<|reserved_902|>": 1418, "\u2581Ang": 5143, "\u2581quebr": 59404, "\u2581\u0648\u0647": 24660, "\u2581disconnected": 37295, "\u2581horrible": 17290, "\u2581Laboratory": 25132, "\u2581\u0627\u0644\u0645\u0627\u0636": 57614, "---|": 42707, "\u2581lecturer": 43744, "\u2581Yellowstone": 59539, "aty": 40854, "\u2581squat": 41193, "ACP": 49738, "IENCE": 57021, "\u2581Confidence": 61665, "\u2581escolha": 40128, "?!?": 60329, "\u2581blooming": 52724, "\u5220\u9664": 59458, "coat": 35489, "\u2581panties": 49342, "<0x94>": 1692, "\u2581negoti": 10161, "everything": 42421, "\u2581ideias": 56808, "\u2581Fru": 45302, "\u2581conhecimento": 35378, "\u2581towel": 22832, "\u2581Surgeon": 50058, "\u2581voire": 60660, "p": 62949, "\u2581\u0628\u0627\u0644": 12006, "\u2581PT": 18210, "anka": 18128, "egg": 48913, "\u2581shred": 22181, "\u2581USP": 51634, "\u2581noved": 54676, "oquine": 61495, "batch": 17942, "\u2581Passport": 59745, "enthal": 52571, "\u2581eing": 32266, "isse": 8509, "\u2581shade": 16093, "\u2581USD": 14556, "\u2581spac": 45867, "poons": 21437, "\u2581drawing": 10694, "elseif": 59795, "\u2581Lind": 18763, "BSD": 46290, "\u2581Gentle": 37492, "pour": 28832, "\u2581Whether": 9856, "\u2581administrators": 24802, "\u2581Lighthouse": 55631, "AU": 29282, "usted": 33689, "\u300e": 65139, "\u2581assass": 20150, "Selected": 20704, "<|mask_145|>": 149, "alph": 21741, "gcc": 52565, "\u2581Sherlock": 42111, "\u2581\u064a\u0642": 44739, "\u2581teil": 55504, "\u2581pulls": 23827, "\u2581Tous": 48375, "\u2581volume": 7195, "<|reserved_276|>": 792, "\u00edlia": 17816, "\u2581IL": 13230, "\u2581dout": 61194, "\u2581metaph": 35234, "<0x46>": 1614, "osaic": 36092, "\u2581consumidor": 53374, "\u0415": 63821, "urations": 55864, "\u2581intimid": 26738, "\u2581Pric": 31900, "stat": 14200, "\u2581sog": 27392, "Hy": 23523, "\u2581criticize": 46752, "\u2581sch": 5421, "\u2581toilets": 36171, "\u2581slender": 44117, "critical": 35161, "$": 63011, "forge": 39234, "leader": 35401, "\u2581subsidies": 35293, "addy": 14403, "\u8d39": 64287, "\u2581Constit": 36509, "\u2581anniversary": 13167, "\u2581astronom": 47144, "\u2581chromosomes": 53412, "\u2581aumentar": 34318, "Whenever": 36384, "\u2581andar": 52982, "filename": 9127, "\u2581spicy": 24458, "\u2581Seminar": 53894, "\u2581Ramos": 40666, "\u2581Vijay": 52254, "\u2581Although": 6620, "ringes": 58825, "\u2581Watching": 44546, "\u2581Hammer": 31612, "<|reserved_904|>": 1420, "\u2581AIDS": 27971, "\u2581offerings": 17648, "\u2581spike": 28268, "elas": 29867, "\u2581NF": 32835, "<|reserved_459|>": 975, "\u2581widow": 34267, "\u2581\u0645\u0633\u062a": 36533, "\u2581rh": 10023, "\u2581Coconut": 43563, "\u2581consequent": 56725, "\u2581auditor": 30697, "\u2581liberated": 58078, "\u2581expansions": 59358, "\u2581French": 6484, "bras": 24839, "\u2581FCC": 37437, "\u2581crunchy": 43267, "faite": 52526, "\u2581deft": 61645, "\u2581third": 4254, "\u2581readers": 8465, "\u2581Strong": 21910, "VIS": 25055, "\u2581Rescue": 28834, "\u2581lawsuits": 32293, "\u2581suspense": 33655, "a\u00e7\u00f5es": 8500, "\u7fa4": 64125, "Saturday": 25557, "sys": 18035, "prone": 61047, "\u2581Syrian": 24388, "\u2581partie": 17900, "<|reserved_707|>": 1223, "\u2581localizada": 58244, "Pixel": 39867, "\u2581d\u00fb": 56102, "<|mask_76|>": 80, "esan": 30667, "anze": 40515, "Practice": 59480, "Pipeline": 34490, "feet": 49959, "ajo": 27028, "\u2581legends": 32179, "\u2080": 65008, "bert": 5612, "\u2581beta": 14454, "\u00edda": 25067, "otes": 10794, "\u5170": 65347, "\u2581ww": 7341, "\u2581plead": 41401, "\u2581Bills": 36726, "ATIONAL": 40797, "\u2581eben": 41279, "\u2581broader": 17971, "<|mask_169|>": 173, "\u2581component": 7586, "\u2581lesqu": 47450, "\u2581Gent": 23001, "RG": 37729, "ucion": 30820, "\u2581discusses": 21838, "b\u00e9": 31700, "URI": 24907, "\u8fdb\u884c": 52426, "\u2581Sean": 19426, "\u2581sulfate": 49894, "\u2581Campus": 24308, "phon": 40767, "\u2581supplementation": 45107, "ax": 2621, "Alloc": 43171, "\u2581acquiring": 22783, "Elements": 26254, "$(": 12781, "\u2581throw": 5162, "\u2581alg": 5249, "olation": 22295, "\u2581reel": 31095, "\u2581organizer": 36500, "\u2581perfected": 54919, "input": 6084, "block": 7645, "\u2581AN": 4756, "\u2581encyclopedia": 59613, "\u2581banho": 61951, "\u2581Themes": 41164, "\u2581Capt": 12601, "\u2581Score": 24000, "IRST": 30842, "asc": 5398, "\u2581repeal": 47088, "\u2581alteration": 44209, "<|mask_213|>": 217, "\u2581competition": 7088, "Sil": 20679, "\u2581Territory": 39893, "Flow": 22741, "\u2581PUBLIC": 45053, "\u2581fibrosis": 45852, "\u2581vomiting": 34827, "pon": 3173, "Guide": 40753, "$^{": 47579, "\u2581Winning": 51252, "func": 7546, "\u2581bells": 33523, "<|mask_341|>": 345, "\u2581doctorate": 51566, "print": 4403, "\u2581destination": 10043, "\u2581spectacle": 32103, "\u901a": 63414, "\u2581Activities": 34103, "uring": 2490, "\u2581alignment": 19602, "\u2581muchas": 22503, "\u2581\u05d8": 16514, "wart": 11580, "\u2581Supervisor": 45840, "\u2581\u00e0": 2599, "\u2581Joanna": 51623, "\u8986": 65174, "\u2581Travel": 13202, "\u2581replace": 8407, "\u2581\u062c\u0645\u064a\u0639": 47834, "\u2581Violet": 43508, "\u2581nodded": 21212, "\u2581multicultural": 47578, "<|reserved_229|>": 745, "Contin": 26641, "grain": 54983, "draw": 7958, "\u2581tyre": 45523, "\u2581PO": 20595, "\u2581coincidence": 34484, "Wallet": 49084, "\u2581Apost": 31057, "\u2581planej": 44348, "\u2581ness": 46903, "\u30c8": 63289, "\u2581advant": 5474, "ISS": 23431, "\u2581Budapest": 42876, "\u2581Winchester": 47254, "wrong": 42749, "Task": 12551, "vacc": 42092, "El": 5428, "\u2581destaque": 49266, "<|reserved_505|>": 1021, "BB": 17875, "\u2581depende": 50952, "vention": 6574, "\u2581calidad": 21141, "<|mask_389|>": 393, "flex": 16354, "\u2581conforto": 55561, "\u2581Zhu": 56359, "\u2581tucked": 31901, "\u2581Short": 12815, "\u2581frameworks": 30967, "\u2581erre": 34210, "\u2581Ph": 3178, "Pop": 16498, "\u2581CG": 29940, "\ubc0f": 64748, "\u2581negative": 6706, "\u2581ulcers": 56660, "\u2581thermometer": 49714, "taking": 33107, "\u2581premise": 25874, "\u2581renal": 26546, "\u2581eggplant": 60073, "\u2581objective": 10945, "\u2581Gon": 42154, "\u2581awarding": 53318, "\u2581Borg": 35616, "irrel": 31735, "\u2581discret": 57213, "Separ": 31984, "ottes": 41225, "\u2581Dot": 31453, "INESS": 37426, "\u2581Organ": 8597, "\u2581adult": 5456, "\u2581Tavern": 54357, "\u2581handheld": 38029, "FLO": 46244, "<|mask_170|>": 174, "rec": 6008, "\u2581exceeds": 30475, "\u2581scrolling": 35999, "\u2581update": 5760, ".[@": 28304, "actual": 26434, "\u2581Hyundai": 33064, "\u2581enthusiast": 36957, "\u2581Saint": 10235, "anus": 57668, "\u2581Broad": 12717, "\u2581\u043f\u0440\u043e": 40082, "\u2261": 64549, "\u2581Minutes": 38866, "\u2581a\u00e7\u00e3o": 29391, "\u2581Unknown": 35594, "\u2581fifteen": 21233, "MOD": 21879, "\u2581uphold": 37901, "\u00e9t\u00e9s": 38836, "iais": 13974, "\u0633\u0628": 15419, "\u2581ignorance": 28671, "\u2581athlete": 21147, "\u2581annoyed": 33411, "<|mask_217|>": 221, "\u2581disparate": 50193, "rah": 19257, "\u2581hatch": 28106, "<|mask_31|>": 35, "\u2581Shirt": 42370, "\u2581Backup": 42739, "\u2581latter": 10493, "oulder": 31164, "$/": 53598, "\u2581collected": 9391, "acts": 11326, "ton": 2746, "though": 3779, "\u2581NSW": 27353, "Rever": 51096, "aughter": 5839, "\u2581False": 14559, "\u2581Stay": 17195, "TOD": 37872, "\u2581sweat": 17832, "Content": 9129, "\u2581crop": 16359, "released": 36846, "\u2581not": 1975, "\u2581testified": 20632, "\u2581zusammen": 41733, "\u2581ing": 5141, "\u2581gera\u00e7\u00e3o": 54273, "ic": 1835, "\u2581counseling": 23513, "ologies": 6550, "mani": 39864, "Jur": 61478, "\u2581shin": 58355, "\u5225": 64903, "\u2581robbed": 44359, "agan": 13626, "\u2581RTX": 59578, "\u1f76": 65516, "Questions": 39858, "enic": 34357, "\u2581neph": 55801, "\u2581Bulgar": 26167, "\u2581CJ": 44704, "<|reserved_87|>": 603, "\u2581investigators": 23321, "\u2581stalled": 48280, "\u2581pubblic": 26577, "\u2581quoting": 41250, "\u09a8": 64471, "\u2581planos": 53063, "\u2581shipped": 18048, "Gl": 9963, "\u2581retail": 7052, "++++": 37486, "CONTENT": 61283, "\u2581Christie": 33890, "overed": 4437, "ocial": 3036, "\u2581lub": 26026, "\u2581Earl": 28747, "\u2581Inspection": 50916, "webs": 41496, "\u2581kinds": 8286, "\u2581KY": 37640, "abl": 26915, "\u2581Kauf": 41428, "acon": 11219, "\u2581obama": 62607, "still": 28160, "threshold": 41675, "\u2581digits": 27719, "\u2581spikes": 40938, "level": 7672, "categ": 20769, "---------------------": 52638, "\u30ba": 64567, "\u9047": 65298, "\u2581Theresa": 44172, "\u2581BDS": 52614, "\u2581select": 4009, "icode": 30733, "\u2581mortar": 36307, "Apple": 21357, "pb": 23278, "\u2581admittedly": 49155, "restore": 50513, "\u304a": 63973, "\u2581Desde": 32272, "\u2581miscon": 22365, "\u2581Begin": 18638, "MCA": 44188, "\u2581brain": 6228, "\u2581creatively": 49443, "\u2581GO": 14244, "zt": 12934, "\u2581utilizz": 54359, "\u2581gastronom": 54073, "\u2581similar": 4147, "\u2581marrying": 44174, "\u2581afet": 51343, "\u2581typical": 8715, "akening": 57899, "\u2581mailing": 25951, "\u2581aquarium": 37870, "\u2581command": 5801, "\u2581Value": 13268, "\u2581WordPress": 13515, "\u2581except": 6277, "\u2581travelling": 17868, "\u2581defens": 46805, "\u0627\u0645\u0639\u0629": 61308, "\u30ab": 63978, "<|reserved_321|>": 837, "\u4f73": 65500, "orden": 25546, "\u2581miser": 23322, "\u2581Sense": 34344, "\u2581praised": 25355, "\u30b2": 65084, "\u2581feasible": 22185, "ToList": 61053, "Maps": 52915, "\u2581saf": 4641, "\u2581Raymond": 29084, "Sur": 14210, "ordered": 24775, "\u2581Nil": 45096, "\u2581Opening": 30441, "\u2581nossa": 19125, "\u2581conferencing": 60565, "\u2581Active": 16234, "\u2581mesa": 31229, "\u2581bamboo": 34503, "\u2581Regulations": 36858, "hub": 26204, "=\"${": 43303, "DS": 8022, "\u811a": 64651, "Mass": 25415, "Ctrl": 39852, "\u2581Pokemon": 28887, "\u2581omdat": 35969, "ULE": 31554, "\u2581organizaci\u00f3n": 40669, "\u2581gratuite": 42541, "\u2581Diff": 46715, "ospel": 14206, "\u2581radiant": 47007, "\u8ff0": 63946, "ippy": 53491, "\u30fc": 63201, "<|reserved_757|>": 1273, "\u2581m\u00e1": 13074, "\u2581Days": 17508, "\u2581Design": 7766, "\u2581asking": 7365, "\u2581Might": 34625, "\u03c9": 63605, "\u2581redu": 3541, "\u2581places": 5471, "vertices": 59969, "\u2581Dolby": 58882, "\u2581Pri": 9168, "\u2581augmentation": 46672, "<|mask_402|>": 406, "\u2581strang": 28989, "compute": 35592, "\u2581portfolios": 40099, "\u2581angel": 21405, "\u2581Diet": 16805, "\u2581cot": 11250, "\u2581wir": 14970, "Knowledge": 54276, "queda": 38961, "\u2581*": 2197, "\u2581fel": 12314, "\u2581JSON": 14905, "\u2581impos": 21775, "cine": 46638, "\u2581subpo": 51600, "\u2581Randolph": 54360, "cro": 21099, "\u2581knocked": 21967, "\u2581crow": 7136, "maker": 14432, "CONT": 22868, "oise": 52016, "Binary": 31044, "cra": 41329, "\u2581vier": 20909, "\u2581Spartans": 62281, "\u2581ESC": 51311, "omitempty": 35764, "\u2581DOC": 44492, "\u2581SPECIAL": 45635, "\u5f53": 63488, "Sony": 46959, "\u2581Cabin": 48827, "\u671f": 63667, "EMAIL": 15781, "xion": 52821, "\u9488": 64510, "arious": 42727, "adone": 53953, "\u2581Parser": 58264, "file": 4338, "\u2581seul": 28196, "\u2581rollout": 48646, "\u2581pencil": 26474, "cx": 45479, "TOKEN": 43693, "\u2581Does": 9751, "\u2581Excell": 18494, "LR": 23905, "\u2581Epstein": 52908, "\u2581POSS": 53771, "\u2581Bits": 62365, "\u2581Sass": 56413, "Free": 11709, "estim": 41975, "GUI": 46202, "\u064a\u0646\u064a\u0629": 61277, "\u2581archival": 51860, "\u2581summarizes": 57502, "\u2581\u05e2\u05dd": 15453, "\u2581moviment": 61106, "Elect": 27172, "\u2581tendon": 47842, "News": 13834, "\u2581Bare": 45714, "ergus": 28342, "\u2581hacked": 38828, "\u2581flea": 52874, "\u0631\u0628": 13707, "\u2581nurse": 16004, "TOR": 38699, "\u2581lasts": 23155, "\u2581setback": 51728, "embro": 17078, "heit": 18956, "ALK": 42115, "iamo": 15467, "\u2581r\u00e9el": 41340, "JE": 47463, "\u2581psychologically": 60741, "peria": 62697, "\u2581Rubber": 43419, "\u2581haunted": 34638, "\u2581Fiber": 42679, "\u2581Michelin": 47619, "\u2581Qt": 38708, "<0x10>": 1560, "man": 2757, "ichever": 29485, "Ann": 19514, "MQ": 44147, "\u2581shortcuts": 44729, "improve": 50617, "\u2581puzz": 20508, "matches": 34502, "\u2581Einstein": 36498, "\u2581Helsinki": 48178, "nb": 31906, "f": 62951, "\u2581compromiso": 49656, "plate": 27161, "\u2581code": 3780, "CSF": 62110, "\u2581Click": 7972, "\u2581decides": 18390, "\u2581norms": 27875, "Recogn": 38399, "\u2581Minist": 23507, "\u2581Bou": 16296, "\u2581plan": 2903, "ng": 2444, "\u2581Wil": 8017, "\u2581cells": 5078, "\u2581flavor": 10439, "\u2581oral": 12747, "\u2581femmes": 21243, "\u2581Comcast": 54434, "\u5171": 64160, "\u2581ben": 3133, "\u2581revival": 33178, "\u2581funky": 41576, "\u2581Say": 17578, "\u05d1\u05e8\u05d9": 43691, "<|mask_171|>": 175, "isma": 39378, "\u2581convenience": 14103, "Must": 30900, "\u2581r\u00e9v": 46799, "\u2581Voting": 55988, "izaje": 58587, "\u2581belts": 33966, "\u2581suggested": 8637, "\u05e8\u05db": 15255, "\u2581toler": 11726, "\u2581PLAY": 40031, "\u2581tick": 5877, "<|reserved_243|>": 759, "\u2581Systems": 12922, "\u2581Cooperative": 50552, "\u2581thrift": 49748, "said": 36715, "itere": 61840, "\u2581San": 4900, "\u2581abundance": 18890, "\u2581Theatre": 14345, "\u2581optical": 15267, "\u05de\u05e6": 23848, "\u2581Phillips": 24932, "yer": 7777, "aisse": 27832, "\u2581K\u00fc": 51810, "power": 11962, "oodle": 30060, "ogether": 10387, "\u2581cocaine": 30678, "\u2581presumed": 42012, "\u062b\u0629": 44228, "\u2581Sauv": 56030, "\u2581helper": 30212, "r\u00e9c": 59364, "\u2581:(": 48127, "\u0648\u0631\u0629": 29583, "will": 12240, "\u2581Gram": 20034, "Lam": 62425, "Roy": 40381, "\u2581\u0634\u0631\u0643\u0629": 52769, "\u2581lanzamiento": 62889, "\u2154": 65026, "yo": 11124, "\u2581Waters": 31613, "\u05d5\u05e8\u05ea": 40766, "\u2581Murphy": 21229, "ndef": 23050, "\u2581Parameters": 45623, "\u2581cultivated": 36919, "\u2581slightly": 7216, "utan": 41186, "\u2581hoje": 17261, "\u2581stabil": 15410, "\u2581CCTV": 49162, "\u2581Leaf": 25184, "inging": 30084, "\u2581tard": 24007, "ucks": 9274, "issive": 49523, "\u2581whereby": 28606, "Obviously": 31273, "\u2581crise": 30181, "~~~~~~~~": 35243, "\u2581SPF": 51692, "\u2581pole": 18732, "\u2581Wayne": 19142, "\u2581arqu": 21380, "\u2581parc": 22205, "phones": 11076, "encent": 58356, "protocol": 26744, "<|reserved_278|>": 794, "\u2581correcting": 50463, "\u2581Carn": 23020, "\u2581clouds": 18997, "\u552f": 64672, "\u2581rapport": 17161, "ophon": 58324, "\u2581ah": 22546, "\u062b\u0631": 26213, "AR": 2912, "\u2581Body": 15524, "i\u00e7o": 42660, "\u2581thumbnail": 52964, "\u2581desped": 62023, "stage": 15576, "seau": 23510, "\u2581Volume": 22485, "\u2581centrally": 47162, "\u6ce8": 63538, "<|reserved_42|>": 558, "I\u00d3N": 23609, "\u2581Municipality": 58246, "Mix": 27318, "\u2581darle": 56002, "Physical": 38042, "\u2581liberals": 42684, "\u2581Gloss": 50930, "Chris": 23857, "merged": 35679, "\u2581NU": 50630, "\u2581sentir": 26075, "\u00edsticas": 19681, "Agr": 55054, "\u2581cr\u00e9dit": 55483, "\u6210\u529f": 60601, "\u2581Lama": 60928, "\u2581Z": 2835, "Vue": 52815, "\u0921": 64712, "problem": 34932, "\u2581axis": 15574, "\u2581CHAR": 35828, "\u2581claro": 23446, "thm": 54021, "\u2581share": 3862, "\u2581expands": 32845, "Segment": 33882, "<0x36>": 1598, "\u2581Casey": 30176, "\u2581Ple": 22343, "ishing": 5419, "endent": 20359, "\u2581beaut": 3822, "atas": 27088, "\u2581resolving": 37024, "\u2581Notification": 40162, "\u2581lipid": 31919, "\u2581exemple": 23855, "\u2581hallway": 32501, "urate": 44193, "\u2581connot": 53778, "'));": 23258, "\u2581thirsty": 55313, "\uac74": 65040, "frastructure": 25356, "\u2581clears": 54761, "ventory": 25236, "\u2581in\u00e9d": 50009, "ReadOnly": 56424, "\u8fd0": 63791, "\u0648\u0627\u0646": 35130, "Rules": 33625, "mund": 28818, "\u2581Compan": 16714, "ienst": 29942, "<|reserved_184|>": 700, "<|reserved_466|>": 982, "\u2581testify": 35047, "<0x4A>": 1618, "oeg": 47736, "\u2581Brent": 28983, "\u2581UFO": 43467, "\u2581WO": 35944, "\u2581\u00ad": 45381, "\u2581Copp": 60506, "\u0639\u0631": 34009, "\u2581cohesion": 61231, "\u2581stepping": 22815, "\u2581Shift": 40014, "unc": 12408, "\u2581hypoc": 54268, "\u2581Plumbing": 58240, "\u2581Between": 19166, "\u00f1a": 9197, "\u2581microscopic": 44964, "\u2581threads": 19099, "\u2581nullptr": 27594, "\u2581Shine": 56366, "Qu": 4323, "\u2581emiss": 58536, "about": 11870, "\u2581sworn": 38161, "\u2581Informationen": 45590, "mails": 32176, "CTRL": 46127, "img": 7747, "\u2581expressing": 22187, "\u2581stabilization": 48548, "ao": 9243, "\u2581contenders": 46021, "\u2581estudi": 40864, "tbl": 29459, "chains": 43087, "\u00e8s": 5136, "\u2581depos": 13180, "\u2581snug": 34910, "amina": 27367, "<|reserved_1013|>": 1529, "perm": 18249, "\u2581narrower": 55380, "<|reserved_198|>": 714, "\u2581inside": 4299, "\u2581linha": 31290, "\u2581cohort": 21590, "deme": 39526, "\u2581flute": 50372, "\u064a\u0631\u0627\u0646": 57077, "\u2581Farn": 59048, "\u2581magg": 43679, "<|reserved_455|>": 971, "\u6240\u6709": 54816, "ront": 10304, "\u2581grit": 29946, "\u620f": 64811, "\u2581appoint": 6779, "\u2581intest": 20207, "\u2581scientist": 20852, "\u2581Small": 12600, "\u2581Content": 13685, "deen": 38958, "orith": 8336, "TH": 6575, "\u2581cowboy": 45087, "\u2581Counter": 27426, "Rot": 27610, "\u2581Evolution": 29711, "npm": 21768, "NODE": 44621, "\u2581bombard": 56894, "edores": 44401, "\u2581hectic": 40677, "Honey": 55153, "\u2581vertices": 37361, "\u2581discipline": 16556, "\u2581Anyone": 20766, "\u2581Tuc": 33140, "Spr": 34126, "\u2581rica": 62631, "\u2581v\u00e3o": 28402, "\u2581shoulders": 16338, "\u2581talked": 10040, "\u2581ponder": 39501, "\u2581Projekt": 59083, "\u2581level": 2990, "\ud83d\ude26": 64918, "\u00eas": 9891, "\u2581help": 2424, "Steel": 51058, "\u2581decided": 4850, "\u2581bladder": 31097, "\u00e7on": 41760, "\u2581Consc": 50291, "If": 3074, "\u00edveis": 18747, "\u5c3e": 64904, "\u2581hubs": 39188, "\u2581Daten": 41399, "\u2581appreciated": 13564, "\u2581metastatic": 47014, "\u2581________________": 53597, "\u2581seulement": 26727, "\u2581EVERY": 30306, "\u2581generally": 6156, "\u2581Olympics": 18739, "\u2581goth": 48527, "MAR": 48155, "\u2581Korea": 11309, "\u8bdd": 64015, "\u2581passa": 34899, "\u2581equipamentos": 43801, "Fall": 34154, "slice": 28885, "\u2581Ace": 29648, "\u2581inexpensive": 21649, "\u2581noticing": 34075, "\u00e9rcito": 44538, "\u2581roadway": 51706, "\u2581Lynch": 28149, "itles": 30607, "Backup": 47193, "\u2581recognizable": 38794, "\u2581Creator": 31393, "\u2581facilitates": 36760, "\u2581uncont": 46013, "Parser": 16979, "ativ": 34807, "\u2581regained": 54715, "\u2581replied": 15464, "\u2581esteem": 49223, "\u2581suele": 58515, "chu": 35769, "ahs": 58662, "\u2581student": 5337, "\u2581meaningful": 14015, "ghai": 20620, "\u2581whichever": 36009, "\u2581indicado": 62650, "nn": 16710, "\u2581\u05d4\u05d5\u05d0": 16834, "\u2581sar\u00e0": 33282, "\u2581SX": 50919, "\u2581ruin": 24510, "\u0e22": 63832, "Matches": 62303, "obe": 7478, "brance": 39639, "\u2581Honor": 24789, "\u2581args": 11885, "\u2581Id": 7869, "CMS": 49444, "inig": 56128, "Lite": 47626, "enso": 23387, "filePath": 62563, "\u2581accompanying": 23555, "\u2581iv": 27052, "\u2581Peterson": 33087, "hank": 58846, "interface": 15997, "\u2581Broadcasting": 48519, "\u2581Rwanda": 48001, "\u2581Table": 9536, "\u2581Hotel": 9052, "Style": 12209, "\u2581warnings": 22669, "\u2581CFO": 49117, "\u00e9gorie": 28627, "\u2581counselling": 42375, "\u2581estudos": 48065, "\u2581Bureau": 15590, "\u2581reflex": 22524, "<|mask_472|>": 476, "WHAT": 42329, "\u2581Estamos": 58486, "NAS": 25792, "derive": 56185, "\u2581Florence": 26036, "\u2581paradigm": 30081, "\u2581powerless": 56819, "\ud83e\udd37": 65308, "\u2581Tommy": 24675, "\u2581victories": 30310, "\u2581discovers": 30491, "\u2581NSA": 37447, "\u2581dataset": 18838, "odel": 41070, "patrick": 44878, "ivable": 32228, "\u2581identifiable": 40150, "\u2581validating": 61698, "\u2581horse": 9492, "should": 12620, "\u2581feast": 28489, "\u2581adjoining": 51526, "\u2581arrays": 27657, "\u2581basin": 34560, "\u0e19": 63434, "\ud3b8": 65431, "----------------------------": 58754, "\u2581programme": 9927, "ibrary": 5187, "FLAGS": 36121, "yy": 23579, "Kam": 61479, "\u2581operaciones": 60952, "\u2581garments": 35081, "\u2581anthology": 45558, "\"){": 48583, "\u2581Star": 7111, "\u2581britann": 54591, "\u2581ARC": 50131, "erner": 32534, "\u2581apont": 50119, "<|reserved_461|>": 977, "clare": 34173, "\u2581validity": 24480, "\u2581todd": 22543, "\u2581dragons": 40623, "\u2581Bootstrap": 50237, "scala": 32664, "\u2581;)": 28786, "\u221a": 64076, "\u2581Guidelines": 30602, "\u2581Charl": 39669, "\u2581rheumatoid": 61899, "\u2581std": 7053, "\u2581curtains": 33454, "\u2581less": 3084, "getContext": 61661, "ometric": 16523, "\u2581biedt": 51029, "\u2581trees": 7884, "\u00ad": 63139, "\u2581possible": 3326, "\u2581torno": 40084, "\u2581Bhar": 40944, "\u2581STOP": 55649, "\u2581$-": 53951, "\u2581sash": 60118, "volve": 60684, "\u2581Finder": 47860, "\u2581Butter": 22242, "\u2581Port": 5291, "\u2581gaining": 17420, "uttle": 41097, "Opp": 42106, "widet": 39950, "\u2581Zh": 41084, "\u2581wounds": 24071, "^{": 5431, "\u2581capital": 5571, "\u2581Alexandra": 45364, "\u2581colleg": 13863, "\ub828": 65521, "\u2581community": 3576, "\u2581inmate": 49276, "\u2581Conversely": 45982, "\u2581dictatorship": 60109, "agn": 3528, "\u2581four": 3171, "\u2581Sheffield": 34506, "\u2581rm": 46842, "\u2581fran\u00e7aise": 31946, "\u2581stormed": 60319, "James": 20065, "\u2581moisture": 16425, "heastern": 24382, "\u2581animated": 19701, "\u2581special": 3331, "omers": 30892, "\u062b\u064a\u0631": 34805, "\u2581nucleotide": 53109, "\u2581safeguarding": 58549, "\u2581davon": 60057, "\u2581pushes": 29563, "\u2581prosper": 17814, "\u2581prep": 4718, "\u2581dump": 9510, "\u2581Authorization": 53544, "\u2581Lankan": 62057, "\u2581Plot": 39128, "isez": 45677, "\u2581destruction": 15440, "\u2581overlooking": 29482, "bum": 5028, "\u0418": 63646, "\u2581Dim": 17478, "MEN": 55792, "health": 13752, "\u2581studying": 12157, "\u0434\u0438": 39581, "\u2581hostility": 50705, "\u2581tantas": 52750, "Cluster": 25452, "\u2581stylish": 17974, "\u0141": 64246, "\u2581bug": 12293, "wendung": 59345, "\u0c3e": 65168, "({{\\": 57390, "\u2581behind": 4288, "borah": 38620, "\u2581effective": 5127, "\u2581dozens": 16800, "delen": 52245, "\u2581Cade": 58935, "\u2581trat": 14239, "Aud": 29561, "\u2581trou": 5206, "page": 6729, "\u2581phy": 54084, "GM": 20053, "std": 8904, "\u2581Four": 10506, "\u2581keto": 26748, "\u2581subtle": 15730, "\u2581Urban": 19159, "uesto": 16258, "|\\": 18133, "Observ": 35673, "\u2581Byrne": 53496, "\u2581F": 1947, "HF": 33208, "negoti": 53867, "\u2581boven": 48625, "\u2581Press": 8303, "\u2581Grove": 25948, "\u2581firefighter": 62290, "\u2581mechanism": 11156, "news": 14771, "\u2581fermentation": 37646, "\u2581triangles": 47128, "\u2581cfg": 47994, "\u2581Non": 9734, "\u2581attentive": 35570, "\u2581offenders": 33235, "rile": 34228, "\u2581Killing": 52161, "\u017e": 63281, "playing": 29423, "orically": 38915, "\u2581Media": 8716, "SI": 8866, "\u2581elevation": 24952, "\u2581borrower": 39448, "\u2581princes": 43227, "cloth": 45680, "\u2581Lauderdale": 49954, "\u2581especiales": 54331, "biology": 55712, "\u9879": 63628, "\u2581INT": 23223, "}{": 7263, "\u2581pulse": 20493, "rijk": 29889, "\u2581fb": 61669, "\u05d5\u05e8\u05d9\u05dd": 30625, "\u2581helpful": 7570, "\u2581consuming": 19021, "L": 62979, "\u2581sweep": 24739, "<0x67>": 1647, "\u2581ao\u00fbt": 37082, "quote": 25218, "istiques": 59258, "olla": 28680, "\u2581realiza": 39010, "<|reserved_62|>": 578, "<|reserved_457|>": 973, "()[": 38284, "\u2581culturally": 39631, "pers": 8672, "+)": 27695, "\u2581operations": 6881, "Taking": 28223, "\u2581renaissance": 59141, "\u2581rods": 35372, "xls": 58610, "\u2581regimens": 60882, "jections": 15094, "\u2581amendments": 30476, "\u2581imme": 59019, "vide": 60714, "<0xB0>": 1720, "\u2581blank": 10642, "container": 11765, "enberg": 37017, "\u2581presidents": 37316, "pretty": 39872, "\u2581rack": 17117, "\u2581velocidad": 48027, "\u2581specifies": 37013, "\u2581braking": 41276, "hlen": 55270, "\u2581bare": 9442, "\u2581fitting": 16883, "eight": 30776, "\u2581thunderstorm": 45194, "cedores": 47493, "\u2581lamin": 54035, "\u2581Diss": 41977, "\u00bd": 63202, "\u2581Center": 5268, "\u2581influ": 4977, "atic": 2783, "\u2581???": 47690, "ili": 3650, "agment": 17335, "\u2581Teaching": 31007, "\u2581ERA": 30370, "\u2581peque\u00f1os": 43607, "\u2581Operating": 28513, "\u2581seres": 49909, "\u2581answer": 4965, "uffer": 7731, "\u2581Alexander": 15553, "\u2581unpre": 18728, "\u2581Chemistry": 32523, "\u2581Two": 7752, "renowned": 59891, "speed": 15776, "\u2581photographic": 35974, "eta": 5264, "\u2581demos": 45117, "aped": 8536, "\u2581Builder": 24973, "food": 19975, "\u2581Bened": 29026, "\u2581reversal": 36499, "\u2581route": 7722, "\u2581bicycle": 23065, "\u2581city": 3705, "\u2581Everton": 43164, "\u0644\u0627": 8870, "\u2581conceived": 30746, "\u092a": 63904, "izable": 14076, "\u2581brilliance": 50485, "\u2581wins": 11312, "\u2581dive": 17620, "mr": 41744, "yz": 61304, "\u2581agr\u00e9able": 48320, "\u2581Extended": 39298, "\u2581TYPE": 44771, "picked": 48377, "\u2581lobster": 42408, "qi": 43133, "ocol": 5086, "\u2581articulate": 39641, "\u2581Die": 7014, "orithm": 26979, "\u2581Le": 2681, "\u2581Nor": 8495, "Vision": 43949, "\u2581broadcaster": 47868, "intellij": 46135, "itions": 3186, "\u2581betray": 24198, "adapter": 35843, "\u2581japan": 38136, "\u2581deprivation": 45319, "fters": 51969, "\u2581lut": 35958, "\u00e9rica": 22716, "\u202a": 63995, "\u2581sott": 47003, "\u304f": 63713, "\u2581hecho": 18463, "\u2581presupuesto": 60042, "\u2581England": 6957, "\u2581row": 6405, "\u2581humanity": 15537, "\u2581rings": 16608, "\u2581pseudo": 32447, "\u2581cultural": 7846, "\u2581d\u00edas": 16937, "\u2581fans": 5882, "ein": 52767, "Environmental": 57041, "\u2581challenge": 6192, "\u2581\u0627\u0644\u062a\u0646": 50204, "\u2581Trying": 38244, "incarn": 55802, "quete": 43520, "\u2581businessmen": 54693, "omm": 25152, "AS": 3289, "\uc744": 63297, "\u05e2\u05dd": 51450, "\u2581favourable": 48672, "\u2581glasses": 16782, "\u2581represents": 9386, "\u2581Holder": 38798, "\u2581Sports": 9952, "\u2581querido": 62170, "Settings": 14976, "\u2581photograp": 11487, "\u2581Opportun": 27726, "\u2581boundaries": 15685, "\u2581situa\u00e7\u00f5es": 53227, "\u2581hose": 26658, "\u2581five": 3863, "etect": 18788, "\u2581keys": 10962, "\u2581Psychiat": 52780, "\u0d28": 65064, "imen": 17344, "wartz": 41584, "STATUS": 28393, "\u2581eyew": 49462, "\u2581tidal": 49631, "\u2581Classroom": 54232, "\u2581Passenger": 61172, "\u2581PhD": 18354, "\u2581degraded": 56984, "\u2581functions": 6653, "\u2581squirrel": 36607, "Ur": 28702, "\u2581\u0627\u0644\u0645\u062a\u062d": 39733, "\u2581tax": 3973, "\u2581parcel": 26517, "\u2581kostenlos": 45208, "\u2581Finger": 46011, "lishes": 35229, "Fn": 33531, "Literal": 43115, "\u2581qualit\u00e9": 19459, "development": 23496, "\u2581Elect": 8091, "\u2581Speaker": 23288, "\u2581visceral": 52233, "\u2581UC": 24056, "\u2581Long": 7705, "\u2581Shane": 32439, "\u2581dernier": 21297, "\u05e1\u05ea": 40793, "\u2581det": 2590, "\u2581choice": 4890, "SB": 28629, "\u2581HI": 41714, "Validator": 34185, "DG": 55441, "\u2581Sn": 10090, "itty": 14551, "\u2581IVF": 59431, "\u2581pesky": 62373, "\u2581Earn": 36547, "\u2581bullied": 51421, "(\"#": 18871, "\u2581eventually": 7319, "\u2581Ebola": 44685, "\u2581Database": 21912, "\u2581peptides": 40785, "\u751f\u6210": 59145, "\u2581competitions": 22352, "umps": 9720, "\u2581choose": 4553, "\u2581deja": 41668, "\u2581depuis": 13766, "\u2009\u00b1": 28803, "orneys": 17154, "Gar": 29608, "Behavior": 44255, "isValid": 62640, "\u2581Compare": 28928, "closed": 9768, "\u2581Europe": 4141, "intel": 47082, "\u2581chap": 12877, "coni": 49851, "\u2581Oil": 11170, "ENV": 28261, "\u2581minimalist": 41093, "(\"\"": 47734, "\u2581nig": 62294, "\u2581krijgen": 42462, "\u2581ser\u00e1n": 41476, "\u03bf": 63324, "lle": 20149, "\u2581costs": 5292, "Ign": 24582, "\u2581mL": 36552, "\u65f6\u95f4": 44602, "\u2581Amp": 47583, "\u2581Sets": 29100, "\u2581spelen": 55282, "\u2581fifth": 11583, "urement": 56888, "umm": 13728, "\u2581lending": 21200, "mc": 26467, "\u00e8che": 46677, "\u2581Isles": 55734, "\u2581homosexuality": 45227, "\u2581Sai": 57421, "\u2581crap": 22194, "\u2581Soap": 49120, "toplas": 41555, "Race": 48425, "\u2581avanc": 62739, "\u2581convid": 43995, "\u2581fluctuations": 32391, "\u2581Rub": 12032, "\u2581Ritz": 57084, "\u2581Nonetheless": 25368, "js": 5094, "\u2581ruta": 59434, "\u2581Garage": 35831, "\u2581vaccinations": 42126, "\u2581ora": 42264, "\u2581Negative": 49128, "\u2581replicated": 50265, "\u2581Historically": 61375, "\u2581queen": 19084, "\u2581tiled": 61198, "banner": 45787, "gie": 13521, "INFRINGEMENT": 56551, "arguments": 34756, "\u2581hosted": 12467, "\u2581beauty": 8011, "\u2581Chloe": 40247, "\u2581Damn": 59277, "\u2581volcan": 34513, "Benz": 38408, "\u2581;": 5698, "\u2581pregnancy": 12108, "\u2581Neuro": 27779, "Dispatcher": 50785, "\u2581pattern": 5508, "\u2581Jard": 32545, "\u2581mitochondria": 57474, "\u2581ARM": 39025, "aysia": 50472, "ummy": 13273, "\u2581Challenges": 46333, "\u30cb": 64380, "\u2581conservatives": 34095, "expectedly": 32872, "\u2581convin": 14240, "\u2581woon": 57549, "\u2581shortest": 37570, "\u2581experimented": 58689, "established": 31982, "\u2581cheddar": 53966, "thirds": 32679, "\u05e0\u05d9\u05ea": 17584, "Winter": 40508, "isms": 8934, "glomer": 41805, "<0x21>": 1577, "CAST": 57282, "target": 10142, "\u2581JM": 58381, "\u2581Bench": 34508, "oden": 44023, "\u2581disabling": 51380, "embed": 24280, "\u2581venta": 31728, "\u2581Binary": 36693, "\u2581vouchers": 42543, "IBILITY": 49567, "\u2581bore": 25582, "\u2581responsive": 19672, "altro": 59466, "\u2581balls": 14071, "\u2581to": 1831, "\u2581Plenty": 42910, "tershire": 44980, "\u2581Lips": 59588, "\u2581namely": 18579, "lighting": 59890, "aintiff": 8989, "\u2581plaintiff": 11574, "\u2581greenery": 55026, "azionale": 54733, "\u2581untreated": 39523, "\u2581Officer": 12643, "\u2581sculptures": 33724, "Share": 10768, "\u2581sevent": 12888, "asin": 38422, "Excel": 39390, "law": 10682, "\u2581Emperor": 27897, "\u2581flee": 35759, "vote": 42450, "\u2581checker": 51445, "\u2581zen": 52112, "\u2581podem": 15775, "\u2581neces": 11324, "\u2581immerse": 54811, "\u2581Bedford": 43455, "\u0643": 63075, "\u2581OF": 5658, "\u2581squeez": 26906, "\u2581lobb": 35745, "\u0645\u0627\u0631": 51889, "\u2581Camden": 47883, "ilho": 60241, "Way": 28506, "\u2581Imm": 14031, "\u2581arteries": 42974, "\u2581Product": 9029, "\u2581smelling": 49110, "\u2581moot": 59470, "But": 3682, "\u2581Lombard": 62479, "nie": 12949, "\u2581Niger": 10565, "\u2581promise": 10169, "\u2581beats": 22823, "\u2581vanity": 40704, "\u2581Minute": 47914, "\u2581cannabin": 42898, "\u2581Loire": 60991, "robe": 20139, "<|reserved_677|>": 1193, "\u2581enthusiasm": 20393, "\u2581Partido": 45618, "\u2581reliable": 9230, "\u2581modify": 12979, "\u683c": 63603, "ions": 2098, "\u2581passengers": 14526, "\u2581threatened": 17174, "riu": 50967, "ADDRESS": 57402, "\u2581crowds": 22344, "\u2581oportunidades": 38191, "\u2581concentration": 11304, "\u2581soluble": 40353, "\u2581Her": 5129, "\u2581Lily": 28179, "Nel": 52014, "Created": 24178, "\u2581troublesh": 31534, "\u2581Guinea": 37078, "\u2581arist": 39292, "\u2581Lucas": 20613, "\u6301": 63572, "\u2581vamos": 23419, "\u2581li": 2111, "////////": 9878, "\u2581millionaire": 56325, "Princ": 32337, "\u2581exhilar": 47354, "combe": 50405, "\u2581Simone": 43921, "\u2581Character": 24112, "annonce": 51557, "\u2581aans": 56516, "dump": 27771, "\u2581ecology": 39472, "AMP": 19538, "\u2581precisamente": 57661, "\u2581signe": 55711, "\u2581Augusta": 36541, "quarters": 14853, "\u2581vegetables": 12298, "ido": 3442, "\u2581compromet": 48967, "\u2581Dann": 60960, "\uc900": 64775, "\u2581tense": 28370, "naments": 40779, "\u2581newly": 10814, "After": 5112, ";<": 32623, "ull": 2379, "\u2581opponents": 17013, "\u2581saturation": 38239, "\u2581abertura": 49934, "\u2581hect": 29366, "\u0e14": 63770, "\u2581economies": 22870, "\u2581stark": 27037, "ALS": 27653, "ortium": 28208, "<|mask_72|>": 76, "\u2581hing": 35857, "unting": 16217, "\u2581sitcom": 47918, "\u0332": 65240, "\u2581technicians": 27073, "\u2581alerted": 49693, "\u2581Planning": 18870, "fur": 44378, "Interesting": 49936, "Price": 17545, "\u0446": 63259, "\u2581END": 31779, "ESSAGE": 40742, "abouts": 44454, "\u2581multiple": 4875, "\u2581answering": 22540, "ac\u00e9": 51531, "Arg": 13018, "VS": 29457, "\u2581Coll": 10108, "\u2581Challenge": 17405, "\u2581speak": 5266, "higher": 56440, "\u2581MUST": 32076, "uttered": 57523, "Nat": 45806, "\u2581concret": 36518, "\u2581Penal": 55426, "<|reserved_881|>": 1397, "\u2581Seahawks": 44885, "\u2581SHOULD": 59555, "ot": 1860, "\u2581nuevo": 15980, "\u2581emotional": 8747, "analysis": 22872, "\u2581negro": 36281, "\u2581Grass": 33036, "\u2581priv\u00e9e": 61988, "\u2581Species": 46253, "ruk": 44856, "\");\r": 20674, "\u2581course": 3346, "\u00e9st": 32414, "izumab": 58881, "\u2581individual": 3438, "\u2581pend": 31070, "\u2581Moy": 37355, "<0x80>": 1672, ".)": 4258, "\u2581unable": 9273, "ERROR": 15755, "\u2581variance": 27650, "\u2581techno": 55019, "orgetown": 38840, "\u2581deutschen": 62381, "\u2581correr": 53890, "\u2581richest": 39181, "Iss": 25125, "\u2581Walker": 16997, "\u2581smokers": 38017, "\u2581multiplic": 60885, "\u2581Disco": 62634, "\u2581cope": 20488, "\u2581craftsmanship": 46777, "reno": 26186, "\u2581formado": 56896, "\u2581Mercury": 30161, "\u2581atheros": 59027, "\u2581Segur": 35373, "\u2581pellet": 44977, "\u2581Sand": 8190, "\u7b2c": 63569, "\u2581corr": 39827, "oz": 10823, "\u2581churches": 16627, "\u2581robots": 23122, "\u011b": 63374, "\u2581neg\u00f3cio": 40915, "\u2581photons": 56841, "mie": 48306, "\u2581gro\u00dfen": 53269, "holder": 11311, "\u2581prohib": 12349, "\u2581organizations": 7267, "\u2581cic": 23037, "mens": 36233, "warm": 37994, "\u2581bestselling": 37147, "ibly": 5106, "\u2581thous": 5878, "\u2581SIG": 45035, "\u2581offices": 12114, "\u2581\u064a\u062c": 41484, "\u2581subsidi": 20142, "\u2581Fo": 26142, "\u2581anthrop": 26457, "\u2581nonsense": 29667, "\u2581Dynamics": 37801, "\u2581encrypted": 30205, "\u2581opposition": 12045, "\u2581Cort": 22566, "\u2581bev": 34558, "ffen": 30494, "gitlab": 62507, "\u2581pute": 41246, "\u2581Salis": 55880, "\u2581Exclusive": 42632, "<|mask_188|>": 192, "stasy": 58036, "\u2581UV": 18423, "\u2581owed": 30095, "\u2581\u0628": 4303, "\u2581Future": 15012, "\u2581Italia": 24059, "\u2581BP": 27312, "\u2581QString": 52576, "\u2581tul": 43959, "\u2581muitos": 23294, "cal": 5823, "\u2581\u0444": 45929, "=='": 59207, "\u2581unstable": 30031, "Generic": 21723, "\u2581demonstration": 22361, "\u2581inov": 41331, "<|reserved_592|>": 1108, "\u2581descending": 39067, "\u2581Shel": 16723, "ifax": 36981, "fra": 33394, "\u2581refor": 36613, "\u2581stroller": 53858, "\u266a": 63491, "\u0e49": 63555, "<|reserved_212|>": 728, "\u2581cores": 24559, "\u2581offending": 52887, "icture": 21781, "\u2581Kaj": 57866, "agine": 14752, "\u2581salted": 50620, "edu": 15655, "\u2581activate": 20552, "\u2581shop": 6518, "\u2581Allow": 25280, "\u2581bowed": 55532, "\u2581num\u00e9rique": 48384, "\u2581circul": 15696, "ecause": 5192, "\u2581cerr": 33271, "\u2581Boulder": 40142, "\u2581Mongo": 41501, "\u2581eloqu": 50206, "\u2581Syracuse": 39534, "<|reserved_131|>": 647, "\u2581configured": 19697, "thew": 13440, "\u200e": 63411, "\u2581stand": 2976, "\uc6b4": 64508, "undra": 56540, "\u2581elephants": 43270, "\u2581Tac": 35993, "materials": 41983, "\u2581termine": 45946, "\u2581dever\u00e1": 48984, "\u2581feu": 30522, "ilton": 11408, "\u2581Moto": 32935, "\u2581Oval": 48206, "\u2581separator": 42171, "\u2581parap": 34304, "cence": 16502, "\u2581Swansea": 58772, "imper": 59630, "ivirus": 53528, "\u2581enseign": 62815, "\u00e8nes": 43957, "<|reserved_116|>": 632, "unct": 15952, "\u2581PG": 26809, "oshi": 28265, "\u2581Polar": 38848, "\u2581nearby": 9836, "PAR": 16319, "\u2581historical": 8905, "uge": 4360, "BF": 35751, "Wie": 51218, "\u2581caucus": 61061, "\u2581RO": 15829, "Foo": 46085, "\u2581appar": 16697, "\u05d2\u05ea": 62452, "\u2581longue": 33385, "tour": 45750, "\u2581Vincent": 23292, "\u2581Log": 7690, "\u2581china": 22139, "\u2581terme": 35462, "\u2581consensus": 18167, "\u2581strands": 38569, "\u2581mises": 62301, "\u2581insisted": 22968, "\u2581Packet": 54404, "Relation": 62241, "\u0637\u0627\u0639": 58757, "Tomorrow": 51607, "GroupName": 49635, "marked": 39054, "ashi": 21711, "weights": 35603, "<|mask_504|>": 508, "\u2581unnecess": 15706, "\u2581nuovo": 34589, "\u2581IPO": 42988, "\u2581Selected": 43398, "ordinate": 25991, "available": 17277, "nous": 43080, "\u2581actionable": 45877, "san": 29959, "ppling": 34398, "KT": 51838, "<|mask_59|>": 63, "URS": 49822, "Steven": 52181, "\ub9e4": 64424, "Exp": 11254, "\u2581shack": 49300, "downloads": 58019, "<0xD1>": 1753, "\u2581crosses": 32195, "\u2581INST": 46296, "\u7d71": 65244, "iken": 29432, "ask": 3332, "\u2581lessons": 11059, "\u2581estamos": 21647, "\u2581Nuclear": 33959, "\u2581Sele": 46174, "\u2581rx": 49173, "\u2581mammalian": 53972, "\u2581majestic": 41169, "enough": 54553, "<|reserved_482|>": 998, "allocate": 56141, "\u5272": 64818, "\u2581Heights": 26603, "\u2581glare": 48787, "\u2581everybody": 11479, "\u2581moments": 8691, "<|reserved_605|>": 1121, "yarn": 51843, "omena": 25902, "andes": 31679, "\u2581geometric": 32684, "\u2581serving": 8437, "\u2581migrate": 35429, "\u2581Arch": 7899, "SAM": 54517, "\u2581wonder": 4665, "Place": 21017, "\u2581rifle": 24614, "\u2581dismin": 57331, "\u2581sustent": 39141, "\u2581vari": 3232, "inement": 25421, "\u2581influencers": 39590, "\u2581osc": 19854, "\u2581Shea": 58297, "\u2581ICE": 40961, "arded": 18664, "\u2581fd": 49516, "alone": 20755, "\u2581Chrys": 33923, "\u2581Ne": 4087, "\u2581passing": 9319, "\u2581aer": 11445, "meric": 35092, "\u2581weave": 42319, "\ubd84": 64030, "\u2581fase": 24753, "\u2581tubs": 61818, "\u2581dependency": 23675, "\u2581coorden": 42255, "NI": 22735, "\u5b89": 63711, "\u2581refunds": 42079, "\u2581confirming": 32312, "\u5047": 64649, "\u2581ready": 4651, "\u2581subsc": 7643, "\u2581g\u00e9n\u00e9": 17594, "\u2581mir": 7192, "ethylene": 42123, "hive": 59649, "sv": 11299, "\u2581entidad": 57852, "sed": 39144, "<|reserved_502|>": 1018, "production": 26624, ";'": 60497, "\u2581eng": 3198, "\u2581linda": 49597, "\u2581NET": 36576, "enment": 34574, "\u2581januari": 61625, "\u2581contenido": 37593, "\u2581promin": 28927, "eah": 8026, "\u2581feelings": 9418, "\u2581\u05dc\u05e4": 21880, "\u2581Proceed": 31327, "\u2581v\u00edt": 39949, "\u2581Liam": 35248, "MO": 9082, "Dry": 49977, "nero": 26301, "\u2581jury": 12473, "argas": 43013, "\u2581setup": 9741, "\u2581Parkinson": 35682, "CL": 6194, "uteur": 25760, "<|mask_416|>": 420, "\u2581Bek": 43837, "\u00e4nde": 61380, "events": 20413, "\u2581deixa": 45962, "Attachment": 60559, "<|reserved_470|>": 986, "\u2581aumenta": 53010, "Psi": 33926, "\u2581funcion\u00e1rios": 48442, "\u2581offended": 39176, "\u2581facing": 9301, "\u2581lago": 37004, "numbers": 44919, "\u0e33": 64605, "\u2581Bett": 49065, "\u2581__": 7994, "\u2581dist": 2712, "aan": 11383, "Court": 40518, "\u2581proposals": 17651, "ifies": 9666, "cipline": 46491, "\u2581\u05d0\u05d7\u05d3": 34959, "spread": 51116, "cker": 21812, "\u2581PHP": 16692, "\u2581manifold": 42560, "\u2581comprehens": 8796, "\u2581Staples": 61716, "\u2581enabled": 12931, "\u2581Investors": 38660, "lete": 5721, "\u2581Zen": 24500, "\u2581contra": 8484, "Different": 34569, "<|reserved_557|>": 1073, "\u2581brighter": 29680, "\u2581Exped": 41887, "\u064a\u0646\u064a": 47708, "\u2581remand": 55931, "\u00b0": 63121, "]:": 11153, "claimer": 20436, "roads": 28053, "\u2581En": 3345, "\u2581dentro": 13930, "\u2581Already": 38584, "\u2581warrior": 31217, "******/": 61534, "greater": 62339, "\u2581domaine": 33364, "\u2581rich": 6841, "\u2581proto": 26911, "\u1eed": 64985, "\u2581scripted": 61503, "WAY": 26745, "\u2581Tinder": 30613, "\u2581Emerging": 47618, "\u6539": 63566, "\u2581Massachusetts": 15178, "intern": 20510, "\u2581illustration": 23957, "\u2581trenches": 59111, "\u2581Aless": 41491, "amt": 33910, "\u2581Rav": 21304, "endet": 50224, "\u2581Walter": 20281, "API": 12730, "\u2581conoce": 50777, "\u2581larva": 37402, "\u2581tasked": 34626, "\u2581retrieve": 22200, "\u2581Metall": 37651, "\u2581gods": 21144, "\u2581navy": 31546, "\u2581Whats": 20914, "Hyd": 40853, "ITO": 48369, "\u2581observer": 30630, "rich": 9366, "\u2581inhibit": 27027, "\u2581illumin": 36459, "heading": 29270, "pole": 47874, "\u2581shield": 18020, "\u2581comunidades": 43369, "\u2581Costume": 57031, "\u7136": 63687, "official": 42185, "\u26a1": 64782, "has": 6600, "Build": 7246, "\u2581prof": 2748, "\u2581SSL": 24774, "\u2581plants": 6909, "\u2581M\u00e9xico": 22415, "Reporter": 59933, "\u2581experimenting": 35064, "\u2581scrib": 42519, "\u2581semelh": 60939, "ordable": 27921, "\u2581laser": 12957, "mers": 14689, "\u2581Sons": 36288, "\u2581\u0627\u0644\u0628\u062d": 49684, "chen": 4207, "\u2581repart": 53651, "ITIES": 56588, "TING": 58416, "en\u00e7\u00e3o": 25743, "\u2581Australian": 9308, "\u2581DD": 32807, "bn": 12750, "\u05e8\u05d4": 26300, "aternal": 34991, "ibilities": 8924, "\u2581Ped": 12655, "\u2581medicines": 21376, "\u2581beaux": 59376, "reactive": 52462, "\u2581Lynn": 28739, "ecost": 57637, "Area": 23358, "bit": 5353, "\u2581Kent": 11937, "istle": 20921, "\u2581accusations": 32676, "\u2581hurry": 27483, "\u2581Conf": 11275, "Reason": 36470, "\u2581manageable": 38342, "LESS": 56407, "getItem": 57345, "\u2581boiler": 23596, "\ubc15": 65202, "\u2581acad\u00e9m": 50436, "\u2581Pills": 30488, "fm": 30594, "Deb": 13349, "\u2581voucher": 34023, "list": 4344, "ownt": 8789, "\u2581sant": 20863, "ologically": 18441, "reja": 36129, "\u2581endors": 27762, "\u2581Spiele": 47838, "\u2581trouble": 8411, "\u2581amino": 21194, "\u2581permission": 10761, "None": 11793, "\u2581chambres": 40791, "uele": 45277, "<|reserved_348|>": 864, "\u2581fost": 28383, "\u2581keu": 44436, "<|reserved_413|>": 929, "\u2581Detail": 46616, "atrix": 41085, "\u2581mum": 21556, "\u2581Blacks": 54403, "\u2581Damascus": 57009, "\u2581sleepy": 44317, "\u2581seam": 14672, "eing": 19757, "\u2581participar": 30480, "issances": 51209, "\u2581inev": 13872, "<|mask_58|>": 62, "]])": 50488, "\u2581aparece": 37189, "nin": 46779, "<|mask_477|>": 481, "\u2581produit": 23674, "\u2581streamline": 39784, "\u2581shifting": 20846, "\u2581mistakenly": 53437, "^-": 41483, "\u2581Veterinary": 49189, "\u2581Berlin": 13944, "\u2581lately": 15498, "\u2581faucet": 38339, "arding": 18561, "\u2581SB": 27344, "Overview": 32173, "blogspot": 38697, "red": 2000, "\u2581Salz": 50390, "<|mask_408|>": 412, "\u2581impl": 6917, "antom": 27926, "implicit": 51007, "sidered": 62556, "\u2581Section": 11541, "\u2581proportion": 14921, "Yesterday": 28511, "scene": 30002, "Except": 44773, "\u2581Clone": 46033, "\u2581sangue": 47981, "\u2581OPEN": 46566, "\u2581prou": 58973, "\u2581compet": 3727, "ystem": 2432, "secondary": 33488, "\u2581contemplation": 61903, "namese": 29266, "\u2581La": 3631, "\u2581suggests": 9215, "\u2581Jacqueline": 58375, "assium": 27384, "onna": 9840, "\u2581morb": 41518, "\u2581conte": 25718, "\u2581Hait": 26449, "\u2581rye": 55106, "Ao": 39108, "zzle": 11932, "dc": 18004, "\u2581Politics": 29581, "\u2581Training": 13648, "\u2581Arist": 33115, "palette": 58700, "\u2581specs": 28198, "\u2581classes": 6839, "rose": 17377, "\u2581biom": 20330, "tot": 32111, "itement": 12331, "geons": 46401, "\u2581Canadian": 9316, "\u2581Other": 6216, "\u2581pd": 25028, "\u2581t": 1800, "rd": 7077, "my": 3629, "\u2581sq": 18701, "washing": 47656, "Partial": 54679, "\u2581Abril": 59249, "\u2581inward": 38787, "\u2581sensational": 42243, "\u2581OP": 17356, "\u2581Cake": 26861, "\u2581rept": 41488, "\u2581gramm": 42197, "\u2581sorte": 29187, "\u2581meses": 16204, "\u2581Botswana": 62485, "acer": 7185, "\u2581pred": 4524, "Ever": 29295, "\u2581Be": 2917, "beatable": 60488, "\u2581translate": 17441, "\u2581Flyers": 55961, "\u2581Vine": 28790, "\u6c99": 65392, "BUS": 56871, "before": 10874, "\u2581giorno": 39493, "\u2581\u0627\u0644\u0630\u064a": 23639, "\u2581Estonia": 44349, "mare": 20325, "\u2581reass": 18648, "\u2581Act": 4595, "\u2581animals": 7078, "Prov": 9389, "\u2581sword": 18598, "\u2581recl": 25620, "illeurs": 36593, "\u2581exhaustive": 47035, "\u2581corona": 47535, "\u2581Herrera": 59026, "\u2581Doris": 61081, "\u2581roupas": 61140, "\u2581unh": 21274, "\u0445": 63235, "\u00f3ri": 19412, "\u2581androidx": 46705, "ina": 2742, "\u2581AG": 14957, "\u2581d\u00e9s": 16297, "Default": 10396, "\u2581Intelligence": 19790, "\u2581lively": 24825, "<0xA9>": 1713, "NotNull": 26396, "\u2581civilization": 25943, "\u2581Monument": 39611, "\u2581toujours": 15752, "\u2581Wifi": 51764, "isible": 19138, "\u2581pessim": 46442, "nox": 52242, "\u2581Zusammen": 53067, "\u2581morph": 17992, "\u2581sicher": 45670, "\u2581conglomer": 50703, "\u2581esquer": 52800, "\uc6cc": 64916, "\u2581termina": 57562, "\u2581Examples": 25607, "\u2581dams": 46248, "\u2581Lecture": 52840, "\u2581show": 2526, "<|reserved_242|>": 758, "\u2581silhouette": 40194, "\u2581node": 8314, "\u2581Frances": 24167, "\u2581observable": 52084, "vision": 5595, "\u2581lifted": 18541, "\u2581debemos": 55404, "rika": 27643, "\u2581melanch": 48896, "\u2581doubt": 7339, "ustral": 16397, "com": 2148, "\u2581cuent": 35691, "umbo": 33666, "emplates": 22256, "]-": 37238, "Senior": 37231, "\u2581Corinthians": 35370, "used": 3920, "\u2581Il": 6377, "\u2581Combo": 57517, "\u2581barefoot": 61539, "too": 25090, "\u591c": 65330, "\u2581relocated": 37584, "\u2581backend": 29399, "\u2581wie": 13315, "\u2581wealthy": 19671, "\u2581crews": 28833, "\u2581ruling": 14318, "\u2581clustering": 41153, "\u2581Atlantis": 53825, "\u2581berth": 56942, "\u6761": 63776, "\u2581Bengaluru": 61329, "Aug": 14754, "\u2581Aston": 40059, "\u00edfico": 29278, "\u2581rubbed": 39518, "\u2581Merci": 52157, "\u2581por": 2814, "\u2581Was": 11703, "\u2581Montr\u00e9al": 48436, "\u2581overlooked": 25561, "Figures": 52922, "\u2581We": 2296, "\u2581rise": 7443, "Inside": 31726, "\u2581fran\u00e7ais": 20469, "\u03bc": 63170, "\u2581exclusively": 15620, "\u2581blockbuster": 44363, "wes": 31637, "TIMEOUT": 59885, "\u2581learned": 6500, "F\u00fcr": 61120, "oris": 39467, "\u2581Carolyn": 48963, "enders": 10799, "\u2581availability": 12283, "\u2581populated": 29463, "utton": 29548, "\u2581extrav": 33930, "\u2581execution": 13294, "\u2581pinned": 41590, "\u2581intimidating": 37667, "Limit": 25537, "\u2581initialize": 30588, "\u2581trending": 34241, "\u2581vervol": 62772, "gredients": 26312, "\u2581ACTION": 40234, "\u2581chaos": 19253, "\u2581Coupe": 39900, "\u00e9nd": 45659, "paralleled": 38639, "\u2581Tech": 12819, "\u2581BOOST": 53529, "\u2581mirror": 12987, "\u2581Optim": 23825, "boy": 11090, "\u2581Volunte": 27728, "Fort": 30171, "\u2581Presidente": 32921, "InstanceOf": 37637, "lers": 11100, "\u2581PRODUCT": 51744, "\"@": 53349, "\u2581stranded": 39755, "\u2581vm": 42673, "\u2581certified": 13136, "\u2581lamps": 30901, "\u00f4mica": 52223, "\u2581marcar": 52987, "\u2581perimeter": 36618, "\u2581apa": 44472, "\u2581condoms": 60667, "sil": 27823, "\u2581Senate": 10340, "\u2581bloggers": 24658, "\u2581Justicia": 62065, "\u2581softened": 46181, "inos": 6049, "\uc0dd": 63947, "aughters": 16503, "\u2581baff": 43761, "\u00f3p": 35938, "Launch": 44249, "remove": 12369, "ently": 3142, "pu\u00e9s": 14504, "\u2581attracting": 28276, "acute": 35285, "\u2581quantification": 58865, "\u2581arrange": 18939, "\u2581Dairy": 45049, "aying": 22510, "\u2581stri": 4808, "\u2581WAS": 32191, "\u0631\u0643\u0632": 43183, "\u2581Haw": 9188, "\u2581longs": 60689, "\ub2c8": 63417, "ovak": 29232, "<|reserved_896|>": 1412, "\u2581Banking": 34162, "Human": 26886, "('": 2984, "\u2581Curso": 62737, "\u2581impaired": 28619, "\u2581ML": 15807, "\u2581Jaguar": 44126, "\u2581Bow": 9574, "\u2581completamente": 31598, "\u2581officials": 7404, "\u2581escuch": 60220, "\u2581membership": 11236, "rtle": 51290, "Industry": 56526, "\u2581Sco": 32112, "INA": 26969, "\u2581Lit": 25487, "\u2581shifted": 21576, "\u2581Roc": 25684, "\u2581Emb": 25729, "\u2581\u00c4": 43770, "\"][\"": 48424, "mandu": 56160, "\u2581examined": 14177, "ogs": 18659, "Premium": 54639, "\u2581chairs": 17304, "\u2581dismay": 46931, "ollow": 2576, "\u2581nose": 12273, "laub": 48676, "\u2581Smoke": 41192, "abc": 31772, "markdown": 39009, "\u2581tom": 6116, "\u2581citing": 25267, "\u2581Bankruptcy": 48248, "\u2581alegria": 55486, "\u05d7\u05dc": 54952, "\u2581retorn": 57494, "\u9898": 63485, "wach": 59873, "\u2581unplug": 49994, "den": 3202, "\u2581razones": 62746, "inputs": 32331, "identally": 36410, "credentials": 48084, "\u2581Afro": 48902, "oir": 6853, "\u2581\u00ednd": 37922, "dia": 41360, "\u2581McDonald": 23932, "\u2581original": 4368, "\u2581granting": 32133, "\u0627\u0628": 9784, "\u2581Cambodia": 35779, "\u2581flight": 8150, "\u2581Deep": 16662, "gex": 16739, "adamente": 20958, "aler": 23211, "\u2581KC": 37596, "Position": 13600, "\u2581parallel": 13311, "odynamic": 33530, "\u2581crear": 31941, "\u2026..": 26037, "\u2581lift": 9473, "\u2581BRO": 43971, "jur": 50790, "gun": 17110, "\u2581\u05ea": 8315, "\u2581respeito": 36747, "\u2581concerne": 50955, "\u2581aver": 13009, "aleigh": 35610, "icz": 37964, "Lat": 18508, "teil": 34819, "\u2581stretch": 10152, "\u2581rests": 36070, "\u73a9": 65012, "cleanup": 61167, "Engine": 17802, "\u2581extreme": 10627, "ributors": 35644, "\u2581prostit": 39254, "azione": 8113, "\u2581\u0627\u0644\u062c": 12661, "blocking": 49668, "\u2581PSD": 45010, "\u2581minha": 16447, "\u2581applause": 48697, "typed": 22049, "\u0631\u0627\u062c": 49113, "IDA": 35796, "\u96fb": 65034, "\u2581manufacturers": 11362, "Batch": 30133, "\u2581consiste": 34667, "\u2581Beast": 32403, "unicip": 7950, "\u2581CAM": 33467, "\u2581equilib": 25439, "\u2581Collector": 54164, "pieces": 32592, "Maybe": 15611, "Green": 18442, "worker": 24931, "\u2581oe": 42000, "\u2581b\u00fasqueda": 44871, "\u2581setTimeout": 52516, "Fel": 45983, "\u6ce2": 65185, "\u2581Ranger": 35449, "\u2581chassis": 30955, "eca": 18720, "Another": 8770, "\u2581Dominique": 62250, "\u2581Ag": 4624, "\u2581paddle": 30425, "\u2581antic": 41294, "\u2581conhecida": 56170, "\u2581Corona": 37824, "\u2581view": 3185, "\u2581Donald": 12237, "\u2581classics": 29395, "application": 14009, "\u2581refrigerate": 62421, "\u00a0\u00b1": 47130, "olas": 14026, "\u2581newsletters": 40802, "\u2581contributors": 25312, "\u2581baseman": 51170, "\u2581Government": 7539, "\u2581Particularly": 48833, "Or": 5096, "\u2581Nets": 43278, "\u2581architecture": 11135, "\u2581Expression": 31060, "\u2581humour": 31602, "\u2581fala": 43976, "\u2581Provider": 32273, "\u2581plausible": 39266, "\u2581dispos": 11251, "\u2581trusted": 13959, "\u2581Laos": 57513, "\u2581aspirin": 58830, "racht": 40416, "cedent": 60287, "\u2581paid": 5747, "\u2581AU": 32392, "OP": 6185, "igators": 48904, "annt": 50283, "\u2581restaurantes": 46470, ")=\\": 33052, "\u2581prophets": 44872, "Events": 21086, "\u0646\u064a\u0629": 32834, "\u4e0d": 63214, "<|reserved_585|>": 1101, "Salt": 48030, "\u2581Stream": 16042, "\u5fd7": 64214, "\u2581finden": 31798, "Ingredients": 37705, "\u2581Dollars": 54454, "\u2581fellowship": 30581, "\u2581Para": 11322, "BN": 13935, "\u2581wake": 11598, "\u2581lance": 39560, "bh": 47037, "\u2581linked": 9432, "\u2581adversary": 55195, "\u2581Gam": 19525, "decor": 25819, "\u2581entren": 28449, "\u2581Istanbul": 33939, "\u2581celestial": 55784, "\u2581fades": 57492, "\u2581Stephanie": 31619, "<|reserved_800|>": 1316, "\u2581enjoyed": 7670, "\u2581Pros": 21280, "Cop": 45541, "\u2581Brett": 31403, "\u2581jackets": 34325, "alid": 15921, "\u0098": 64275, "\u2581Brennan": 50295, "\u0627\u0644\u0628": 55232, "Hyper": 48074, "\u2581exib": 45831, "\u2581Lee": 9466, "\u2581distinctions": 51505, "\u2581hard": 3002, "Albert": 62799, "\u2581journ\u00e9e": 29429, "\u2581Mozilla": 46312, "\u2581lineback": 33473, "RP": 22467, "\u2581Natalie": 34913, "\u2581\u00a1": 21213, "oci": 2782, "\u2581Mercer": 52671, "\u2581sweaters": 59485, "\u2581Engine": 8308, "\u2581biomarkers": 50194, "fresh": 45353, "utions": 3900, "\u2581Butterfly": 51015, "\u05dd": 63066, "<|mask_101|>": 105, "\u2581Us": 5158, "\u2581Thai": 19865, "\u2581conscient": 47554, "\u2581Memorial": 15251, "\u00fablic": 8557, "\u2581ske": 12106, "\u2581livro": 24841, "\u2581Mediterr": 21057, "Crypt": 51737, "\u2581Benchmark": 59488, "\u2581popular": 4185, "\u2581detergent": 45477, "Dor": 60603, "oclonal": 56216, "\u7a3f": 65411, "rowse": 19804, "******": 59183, "\u2581Jets": 28946, "Rh": 35499, "\u2581Tutorial": 38382, "\u2581Meadows": 49003, "\u2581rehearsal": 44208, "\ub4dc": 63670, "constraint": 46287, "\u2581attributed": 20350, "ified": 3100, "\"])": 31289, "\u2581enlightenment": 52239, "Learning": 29937, "Enh": 48142, "\u2581Adult": 19151, "\u2581certificate": 13199, "\u2581sut": 48188, "\u2581promo\u00e7\u00e3o": 62572, "\u2581ric": 11333, "HashMap": 36219, "\u2581Flam": 46693, "iendo": 11912, "ictions": 16123, "\u2581anchor": 21106, "anked": 55446, "\u2581hospitalization": 46821, "\u2581suite": 11589, "\u2581fountain": 34334, "\u2581nex": 57694, "retta": 62262, "\u2581Prof": 6521, "\u2581whit": 23462, "\u2581Holidays": 43925, "\u2581relations": 3754, "\u2581concours": 52679, "ueva": 53182, "allowed": 25999, "ony": 3924, "\u2581Georgian": 47550, "\u2581untouched": 47805, "\u2581awaited": 46164, "\u2581dentist": 24600, "Node": 7262, "\u2581shops": 10946, "\u2581ove": 34217, "na": 3763, "\u2581armas": 44832, "\u6eda": 65425, "\u2581atl": 57020, "isely": 59735, "\u2581lenders": 22347, "Asp": 35246, "\u2581boyfriend": 15336, "\u2581Ala": 47992, "\u2581dele": 20703, "\u2581ruthless": 48049, "Button": 9186, "\u2581urging": 31976, "ARGS": 61014, "bury": 12056, "\u2581varies": 20222, "\u2581diret": 27710, "\u2581Nepal": 27850, "\u2581actuar": 59253, "\u2581cap\u00edtulo": 59694, "\u2581pr\u00e9c\u00e9d": 37971, "enges": 32415, "\u2581Da": 9830, "\u2581facet": 34395, "\u2581adopting": 27717, "\u2581grassroots": 40563, "velocity": 52752, "Automation": 59418, "\u2581concert": 11618, "VID": 5718, "Repl": 60645, "attach": 38513, "hem": 10772, "\u2581hazard": 18237, "\u2581\u05d5\u05d2\u05dd": 60372, "\u2581Peyton": 61091, "\u2581mock": 14558, "\u2581carpet": 17107, "\u2581courtesy": 19293, "\u2581statute": 19471, "\u2581quiero": 42143, "\u2581hyperlinks": 62287, "aze": 10943, "\u2581Category": 24335, "\u2581saves": 18741, "\u2581fertility": 29468, "\u2581TABLE": 24051, "ertation": 21804, "\u2581fled": 22364, "aleza": 32044, "\u2581fonctions": 60295, "\u2581databases": 21164, "\u2581ayud": 21249, "\u2581violating": 34108, "\u05d5\u05dc\u05d9": 31010, "\u2581instagram": 40147, "ensitive": 33797, "\u2581Jac": 10270, "arn": 2651, "\u2581problem": 3441, "\u00f6ff": 28234, "other": 2488, "\u2581forced": 8122, "\u2581foes": 55475, "products": 25027, "Cat": 20154, "\u2581confidential": 19160, "\u2581curling": 54511, "\u2581nonfiction": 55787, "\u2581maximizing": 52039, "\u2581thoughtful": 24069, "\u2581inert": 37348, "acion": 10135, "Death": 34572, "imos": 9916, "\u2581Screening": 49187, "\u2581wedding": 7812, "\u05ea\u05d7": 48972, "\u2581ersten": 33653, "\u2581prudent": 45874, "\u2581page": 3728, "Ta": 39850, "\u2581Cunningham": 47034, "\u2581expects": 18517, "\u2581PCI": 35148, "\u2581Mansfield": 62176, "\u0630\u0644\u0643": 20089, "\u2581elasticity": 52083, "\u2581Layer": 34337, "\u2581Bethlehem": 53436, "\u2581reconc": 25950, "\u0932": 63861, "usch": 45159, "\u2581}}\">": 56564, "\u2581vivienda": 57410, "\u2581disappearing": 44761, "icles": 4717, "\u03b4": 63447, "\u0633\u064a": 15660, "atra": 26422, "\u2581accelerated": 28353, "ka": 5998, "\u2581Chaos": 44776, "Ci": 41154, "\u2581CE": 18248, "\u2581marathon": 23939, "\u2581Amit": 55275, "\u2581modifier": 39240, "Analytics": 59166, "\u2581Serbian": 54093, "\u00e1til": 46960, "\u2581R\u00e9": 20701, "\u2581txt": 42554, "\u2581crois": 54449, "sterreich": 49168, "\u2581wat": 5727, "\u2581audiov": 55775, "\u2581weddings": 28357, "\u2581VP": 29125, "requ": 3583, "\u2581Nit": 32873, "gment": 7614, "Phot": 32490, "\u2581clases": 51775, "\u2581Gotham": 59408, "\u2581electromagnetic": 39514, "\u2581fetus": 51103, "bott": 55416, "\u2581Manager": 9974, "\u2581Ap\u00f3s": 50269, "Command": 11390, "\u2581Ally": 59306, "\u2581free": 2866, "\u2581psychologists": 49620, "equiv": 28950, "\ub9ce": 65056, "JS": 18582, "<|reserved_82|>": 598, "avilion": 31469, "<|reserved_283|>": 799, "grounds": 42338, "\u2581champs": 59598, "\u2581Terra": 26999, "\u2581disappointing": 23918, "\u2581Alc": 38928, "Photo": 14100, "\u00f5es": 4144, "\u2581sche": 4983, "minster": 30471, "studio": 41292, "Decoder": 50539, "\u2581AFP": 38932, "<|reserved_664|>": 1180, "Omega": 20507, "sound": 34119, "ings": 2184, "}{\\": 16290, "<|mask_278|>": 282, "dictionary": 61505, "\u2581Egypt": 11111, "\u2581servicio": 21884, "despite": 62610, "<|reserved_914|>": 1430, "\u2581catholic": 54097, "\u2581Patients": 24767, "\ub418": 63794, "friends": 36884, "\u2581nationally": 24156, "MW": 15518, "untos": 22565, "\u2581elast": 50037, "\u2581justified": 26207, "china": 52643, "Amy": 47055, "\u2581NM": 35105, "\u2581hires": 45099, "\u2581Uh": 45502, "\u2581touchdowns": 28736, "<|reserved_919|>": 1435, "\u2581avatar": 39925, "\u2581ALWAYS": 52075, "\u2581Hod": 34499, "\u2581supervisor": 24448, "\u2581contraction": 38650, "\u6d4f": 64616, "\u2581mediate": 60825, "erca": 11903, "\u2581extender": 52289, "\u2581unpredictable": 30342, "\u2581mountain": 10008, "\u2581allem": 36458, "\u2581Teddy": 44439, "\u2581rote": 51272, "\u2581Main": 9028, "\u2581professionals": 8640, "\u2581revers": 13904, "\u2581criticism": 15578, "\u2581nenhum": 37367, "\u2581neuron": 53557, "gur": 12055, "\u2581kar": 33249, "\u2581scammers": 59032, "zhen": 47898, "\u2581penetrating": 58084, "ulle": 53354, "\u2581district": 6395, "\u30a6": 63790, "\u2581bursting": 44658, "\u2581immigration": 15502, "\u2581implementations": 37917, "\u2581Hitler": 27489, "\u2581elke": 47490, "\u2581butterflies": 39357, "\u2581iOS": 11732, "\u2581Rost": 62900, "\u2581gained": 11665, "\u2581Participants": 31498, "\u2581Pumpkin": 47141, "unks": 18590, "\u2581Fan": 19682, "\u2581Berkshire": 50162, "\u2581powers": 11494, "\u2581Alberta": 24498, "\u2581ritual": 23184, "<|reserved_130|>": 646, "olds": 10921, "moment": 39747, "\u2581Demonstr": 52288, "\u2581brunch": 36587, "euro": 48143, "\u2581restarted": 59140, "<|reserved_793|>": 1309, "\u2581believes": 10547, "\u0627\u0647": 31410, "\u2581discount": 8245, "\u2581inhibitory": 49231, "\u2581sap": 29097, "opa": 27201, "CPP": 57716, "\u2581render": 14530, "\u2581Chico": 61558, "al": 1826, "\u2581breadth": 38813, "\ub124": 65216, "\u2581Une": 15259, "Thank": 9931, "\u2581spacecraft": 41057, "required": 15740, "<|mask_315|>": 319, "\u2581yrs": 41508, "\u2581gown": 27444, "\u2581attaching": 45708, "REQUI": 50609, "usercontent": 24757, "\u2581a\u00f1o": 12130, "\u8a0a": 65427, "\u2581snail": 58065, "\u2581diplomats": 58278, "\u2581diseases": 10662, "\u2581rpm": 42724, "\u2581Caleb": 46090, "\u2581TRUE": 31295, "\u2581contemplate": 40132, "jug": 33846, "\u2581Tag": 15718, "ius": 6177, "\u2581WhatsApp": 25483, "irds": 14796, "\uf0d8": 64241, "Middle": 29708, "arts": 7920, "forme": 26970, "esp": 18896, "rines": 45713, "\u2581distingu": 12693, "r\u00eda": 29764, "askan": 61246, "\u2581Happiness": 50506, "\u4ec5": 64367, "onga": 42468, "\u2581minutes": 3841, "\ucd94": 64345, "\u2581scarcity": 47761, "\u2581cannabis": 14897, "\u2581electronic": 8981, "\u0627\u0644\u062a": 35226, "Vs": 34457, "\u2581v\u00edtima": 56218, "\u2581disciplina": 57712, "FAULT": 16344, "\u2581\u0648\u0623": 24299, "ADO": 28102, "\u2581Grade": 18814, "\u2581Milano": 39018, "<|reserved_734|>": 1250, "\u2581plek": 60841, "\u2581Sale": 13513, "\u2581personas": 12793, "\u2581LOV": 19400, "NG": 16505, "\u2581anything": 3877, "oug": 57044, "zw": 30089, "\u2581backstory": 62318, "\u2581indic\u00f3": 62711, "\u2581cylinder": 23325, "\u2581Franco": 28454, "\u2581internacionales": 54143, "\u2581During": 7947, "Mas": 25783, "pod": 25257, "\u2581adjunct": 52359, "STOR": 54500, "\u2581f\u00f6r": 48553, "\u2581ratios": 26440, "<0x79>": 1665, "\u2581col": 2369, "lista": 59047, "Cut": 27567, "\u2581comfort": 4644, "ii": 8382, "\u2581caffeine": 27862, "\u2581cytotoxic": 50704, "\u0414": 63583, "\u2581wet": 8771, "\u2581Bij": 31831, "fast": 7220, "\u2581Kin": 27644, "\u2581sucking": 36559, "\u2581keyboards": 44487, "efficiency": 52365, "\u2581daring": 36632, "\u2581Northern": 11629, "\u2581investing": 13080, "hy": 12145, "\u2581exercise": 7098, "\u2581unatt": 34882, "\u2581v\u00edct": 46727, "jamin": 20156, "Small": 23259, "\u2581underlying": 12431, "\u2581Pione": 34784, "enc": 2479, "codec": 55358, "\u2581Links": 21859, "\u2581empower": 16473, "Translation": 46917, "\u2581ib": 27863, "manuel": 26607, "\u2581Assistance": 32583, "\u2581locus": 52484, "\u2581drizzle": 48560, "\u2581governador": 58604, "\u2581tremendous": 16789, "\u2581furniture": 11021, "\u2581Dick": 17549, "\u1ebf": 63819, "\u2581OH": 24654, "<|reserved_784|>": 1300, "Emitter": 57824, "\u2581Trav": 36534, "\u751f": 63366, "\u2581photovolta": 57384, "angelog": 62638, "crest": 47693, "\u2581ocur": 29461, "\u2581Vladimir": 33556, "\u2581promos": 62240, "\u2581this": 1970, "rever": 37468, "ientes": 10956, "mann": 12172, "ificado": 26757, "\u2581seminars": 33802, "\u2581respects": 29816, "\u2581babe": 45144, "\u2581accueill": 48199, "{\"": 11340, "context": 8627, "ups": 7580, "Hola": 47114, "\u2581posit": 10685, "radio": 26916, "\u2581lore": 49355, "\u2581mechanically": 56554, "\u2581fictional": 26875, "\u2581assures": 51549, "flow": 7115, "\u2581Karnataka": 45380, "inned": 18280, "\u2581pregn": 7881, "\u2581feels": 7480, "\u2581credentials": 20464, "Tube": 9059, "\u2581twists": 33678, "\u2581unab": 62128, "\u2581Cayman": 54324, "\ud83d\ude80": 64691, "\u2581sost": 30332, "\u2581expend": 18359, "\ubc30": 64483, "essment": 19657, "\u2581presence": 6699, "sha": 23704, "nect": 6768, "\u2581croissance": 47092, "ivan": 19572, "ellschaft": 48177, "<|mask_321|>": 325, "\u2581scramble": 52603, "Serializable": 59668, "\u2581Wonderful": 44759, "oper": 4827, "compare": 27702, "\u2581rec": 2238, "\u2581contingency": 51110, "\u2581villa": 26831, "\u2581camoufl": 53627, "\u2581calves": 51625, "\u2581myself": 4723, "\u2581respondents": 21333, "Gas": 39823, "\u2581familia": 18069, "\u2581font": 9805, "\u2581slic": 13958, "\u2581cookies": 10911, "\u2581Cole": 15397, "\u2581quello": 31766, "Top": 9438, "\u2581assessments": 22612, "\u2581teniendo": 58075, "\u2581Amazing": 28954, "\u2581fuck": 10303, "kees": 26119, "\u2581thinly": 55073, "\u2581rg": 23333, "\u2581connections": 10695, "\u2581Our": 4447, "iterator": 24616, "relationship": 53994, ");\r": 6954, "\u2581vencer": 55745, "\u2581ogni": 27637, "\u2581cor": 2605, "aled": 5386, "ingly": 8110, "eres": 50490, "\u2581Into": 27747, "\u2581Maison": 38277, "\u2581\u05d0\u05d7\u05ea": 53665, "\u2581Consider": 13903, "\u2581Genuine": 52415, "\u2581fun": 2328, "\u2581stern": 38012, "\u2581Parallel": 59221, "\u2581ripping": 52556, "uminous": 60759, "\u2581Renault": 38497, "TE": 9535, "jp": 39977, "applications": 53229, "\u2581gallery": 15391, "DL": 21340, "\u2581\u05db\u05da": 32960, "\u2581afflict": 59062, "<|mask_71|>": 75, "edor": 25157, "\u2581fs": 29623, "\u2581strategically": 38101, "\u2581Incident": 62411, "\u2581proches": 56323, "acs": 29752, "attery": 19689, "\u2581Rockets": 48746, "riend": 2727, "\u2581wife": 5732, "\u2581MSC": 39979, "Protocol": 27079, "\u2581disobed": 62063, "\u2581Provin": 31243, "\u0645\u0629": 14391, "\u2581scientists": 11754, "ham": 4686, "comp": 5277, "\u2581Instance": 48162, "\u2581reload": 34161, "\u2581nord": 28965, "\u2581arrog": 28674, "\u2581Scient": 15871, "\u2581automotive": 20559, "\u2581sends": 17876, "joined": 57790, "\u2581auss": 53061, "\u2581neg\u00f3cios": 44144, "\u2581Activity": 24922, "Dad": 50629, "\u2581pintura": 50781, "\u2581grandfather": 21400, "\u2581AutoCAD": 61031, "\u2581beiden": 47915, "great": 21665, "\uc5b4": 63493, "aza": 10675, "ash": 2509, "emark": 39368, "\u2581fossil": 22464, "mark": 5225, "IBM": 57664, "ifers": 61125, "free": 6256, "\u2581rat": 6186, "\u00e1nico": 49827, "\u2581devotion": 32900, "amus": 38957, "\u2581excuses": 32231, "\u2581badges": 46441, "\u2581vitro": 23130, "\u2581eq": 29460, "lla": 11991, "\u05e2\u05d5": 34291, "\u2581distrib": 29405, "PCR": 31049, "\u2581Currency": 47520, "\u2581stare": 30419, "\u2581puzzle": 19302, "\u2581weakening": 55518, "ith": 1888, "\u2581obra": 20434, "\u2581problemas": 17785, "\u2581git": 20683, "raw": 3311, "\u2581recre": 21693, "\u2581condensed": 46515, "\u2581apprentice": 52810, "\u2581cogn": 12385, "\u2581BM": 33295, "\u2581questionnaire": 27587, "\u2581fot": 17957, "Site": 20057, "\u2581keer": 38437, "\u2581Guess": 39469, "draft": 39908, "\u2581wait": 4151, "\u00e2teau": 32715, "\u2581Friedrich": 44323, "\u2581childcare": 44888, "onomic": 33518, "\u2581Tierra": 57554, "malloc": 57430, "\u2581grandma": 42393, "\u2581escolas": 49004, "\u2581leitura": 48793, "Oper": 11318, "approved": 31416, "\u2581mog": 20435, "inee": 21943, "\u2581loved": 5966, "\u2581hometown": 25970, "[-": 28416, "\u2581Amen": 36416, "\u2581Benton": 60219, "\u2581teaching": 7831, "\u2581otro": 16747, "\u2581\u062a\u062d": 24591, "\u2581Jak": 31910, "\u2581Battle": 15648, "toEqual": 38149, "\u2581doute": 41025, "\u2581sucker": 52801, "\u2581Help": 12971, "lington": 21658, "\u2581techniques": 7440, "\u2581Kor": 28467, "Origin": 35119, "Ki": 53414, "\u2581Jou": 55204, "\u2581lockdowns": 53566, "\u2581Bicycle": 59288, "Trigger": 35852, "<0xF5>": 1789, "\u2581Tang": 31163, "ifs": 12354, "\u2581antagonist": 50574, "\u2581prueba": 39689, ")}}": 61868, "\u2581GST": 36790, "\u2581\u2022": 7845, "ppe": 20214, "counter": 20864, "\u00f4ne": 42151, "\u2581fronts": 42353, "anine": 47605, "\u2581freeing": 50502, "posts": 26281, "Fl": 7399, "\u2581celebrations": 25618, "\u2581actu": 25170, "\u2581Cav": 26309, "Inte": 10411, "\u2581bounds": 25840, "\u2581allergy": 33197, "uild": 3934, "\u2581wards": 50946, "\u2581c\u00f3": 12812, "IK": 35684, "\u2581ser\u00e1": 11035, "\u2581cleanser": 61896, "\u2581monkey": 34675, "\u2581sand": 6902, "\u2581apresenta\u00e7\u00e3o": 48767, "\u2581caja": 59101, "\u05dc\u05d9\u05d4": 58639, "\u2581Bru": 12081, "\u2581Tours": 34004, "\u2581expertly": 51642, "performing": 37886, "\u2581quantities": 20340, "execution": 43688, "Suffix": 61454, "\u2581abortions": 45365, "\u2581intimacy": 34400, "\u2581livelihood": 33417, "\u2581Austen": 54910, "LV": 35669, "\u2581Sociology": 60771, "\u05da": 63130, "wahl": 49485, "\u2581doss": 33004, "\u2581luck": 6737, "\u2581apunt": 60511, "<0x18>": 1568, "Expression": 18268, "\u2581\u0646\u0641\u0633": 50029, "\u2581Dragons": 37850, "\u2581weekends": 20851, "Installation": 53096, "\u2581testimonials": 40225, "Andy": 45139, "\u2581successful": 5693, "\u2581PORT": 48555, "Net": 8893, "\u2581voici": 54506, "\u2581accountant": 40009, "\u2581maintains": 20962, "\u0648\u0636": 29629, "\u2581remedies": 26358, "--------------------------------": 6073, "lis": 6931, "please": 30744, "\u2581versatility": 32860, "\u2581entails": 36542, "\u2581sensed": 52554, "Diff": 34768, "enabled": 21891, "\u2581nd": 49606, "\u2581marvel": 25271, "\u2581searching": 10069, "\u05d5\u05d5": 24397, "\u103a": 64974, "zeich": 34127, "\u2581Bryan": 25976, "\u2581aisle": 33283, "\u00edn": 8346, "\u2581talents": 18748, "registry": 34980, "\u2581exploits": 43595, "elly": 9537, "annotations": 38419, "gs": 3772, "\u2581soz": 40962, "\u2581Potential": 41911, "Une": 21750, "ampa": 16778, "neapolis": 27409, "\u2028": 64696, "\u2581micro": 5599, "<|reserved_901|>": 1417, "\u2581M\u00e4r": 51267, "\u2581rounding": 55562, "\u2581clerk": 30028, "\u0630\u064a": 58110, "\u2581loosely": 38992, "ugen": 53398, "iously": 9375, "\u2581counterparts": 25119, "<|reserved_83|>": 599, "new": 3129, "\u0632\u0629": 36713, "\u2581organ": 2965, "\u2581S\u00e9": 33577, "pw": 55322, "\u2581extremists": 59941, "\u2581disagree": 20003, "ettel": 58875, "icago": 7681, "\u2581\u05db\u05d0\u05e9\u05e8": 52050, "\u2581AF": 17658, "FIELD": 33728, "\u2581Patch": 32170, "Identifier": 23668, "\u2581Geoff": 33924, "\u2581tr\u00e8s": 9502, "\u2581bundles": 34183, "LE": 3521, "\u2581amplifier": 40773, "\u00f3t": 34272, "\u2581plataformas": 54492, "requirements": 59264, "\u2581Fathers": 57096, "stone": 10179, "\u2581username": 18900, "\u2581lek": 43230, "\u2581comedic": 52941, "\u2581Pamela": 50157, "ilhar": 45938, "\u2581hoch": 60901, "itin": 51532, "\u2581sentimental": 45925, "\u2581Frost": 32141, "\u2581meal": 8788, "\u2581bookings": 37717, "\u00edr": 44984, "\u2581emphasizing": 48867, "otide": 35687, "\u2581confuse": 39384, "\u2581Ampl": 54006, "\u2581Kaz": 23621, "\u2581aire": 31964, "\u2581she": 2259, "mes": 5272, "\u2581wrongful": 49777, "<|user|>": 521, "\u2581types": 4724, "Ke": 8836, "Right": 12309, "\u2581tant": 14027, "\u2581electr": 25050, "\u2581appreciation": 18401, "oqu": 24311, "\u2581postcard": 55719, "/": 62981, "\u2581adviser": 30213, "\u2581cem": 54426, "\u2581archae": 25053, "\u2581roadmap": 41951, "\u2581jur\u00edd": 42034, "\u2581nave": 28180, "umer": 7589, "contr": 9367, "\u2581incr": 46813, "\u2581Schultz": 58069, "\u2581\u0623\u0646": 9846, "nell": 29238, "fah": 54498, "\u2581formulations": 51888, "\u2581Marketplace": 38632, "\u2581Physics": 26785, "\u2581Pl": 2904, "ishops": 35120, "\u2581Disclaimer": 50462, "\u2581mix": 4730, "\u2581flavours": 32608, "erior": 10807, "ci": 3027, "AMES": 30189, "\u2581enorme": 33638, "\u2581corridor": 30791, "\u2581Luxembourg": 38259, "omore": 23370, "\u2581v\u00edde": 18485, "outen": 61159, "</documents>": 525, "iotic": 23886, "\u30dc": 64561, "\u2581bask": 32369, "\u2581jar": 18923, "\u2581own": 2511, "\u2581Aboriginal": 40253, "\u2581bronch": 42065, "\u2581choses": 31750, "\u2581ordinance": 35278, "\u2581manuten\u00e7\u00e3o": 48498, "\u2581Doctors": 36040, "\u2581Vera": 39403, "\u2581Genesis": 27035, "ustomed": 29935, "\u2581zullen": 46493, "\u2581color": 4156, "\u2581preliminary": 19145, "illa": 5659, "\u2581Method": 11426, "\u2581Achilles": 58072, "\u2581Bend": 29717, "\u2581Beirut": 60872, "Hoje": 56797, "\u2581pictured": 29714, "Elem": 50183, "\u2581permalink": 52513, "cks": 6496, "itaire": 21220, "\u2581bri": 33839, "hone": 28337, "\u2581Vernon": 40429, "\u2581difficult": 4104, "\u2581Hill": 7982, "\u2581Avengers": 35804, "graphics": 36005, "\u2581uphe": 58453, "\u2581agility": 41602, "\u2581occupation": 21635, "\u2581comprising": 24242, "\u2581layouts": 34307, "\u2581naissance": 56918, "inars": 23022, "\u2581Bees": 61160, "AGR": 39962, "\u2581startup": 17250, "\u2581cos\u00ec": 32541, "\u2581surpre": 54860, "iable": 21325, "\u2581predator": 52006, "Wor": 55672, "\u2581intoxicated": 57690, "\u56db": 64396, "culation": 42237, "\u2581database": 7381, "\u2122": 63147, "\u2581ancora": 30110, "father": 14486, "\u2581crit": 3939, "\u2581disband": 62168, "\u2581chief": 8413, "dex": 54497, "\u2581dispon\u00edveis": 43424, "\u2581Pac": 9374, "{(": 46778, "\u2581portals": 51578, "\u2581herald": 52672, "\u2581DOI": 60334, "\u2581vous": 4567, "\u8f83": 64171, "\u2581Dimension": 46019, "\u2581considers": 21367, "ol\u00e9": 61807, "Page": 9335, "\u2581Vermont": 25576, "\u2581algo": 13171, "\u2581Associa\u00e7\u00e3o": 51354, "\u2581rats": 19388, "<|reserved_832|>": 1348, "\u00eame": 8464, "\u2581modules": 15354, "Bell": 49677, "\u2581Nokia": 27733, "gl": 4634, "\u2581dvd": 56329, "\u2581pav": 47627, "\u2581excuse": 17412, "\u2581Phillip": 39363, "\u2581unsure": 24576, "<|reserved_23|>": 539, "snap": 47897, "\u2581zum": 13510, "\u2581separ": 4603, "\u2581bearish": 60032, "\u2581prematurely": 60914, "\u2581maravil": 48435, "<0xC1>": 1737, "<|reserved_984|>": 1500, "\u2581Gh": 15309, "\u2581Highly": 31920, "teacher": 44834, "\u2581arduous": 62133, "\u2581nosotros": 26168, "Dean": 58968, "\u2581mushrooms": 24719, "\u2581voul": 35473, "Wiki": 53719, "\u2581merit": 24469, "\u2581potencial": 34017, "\u2581biologically": 61902, "\u2581pertaining": 28456, "Henry": 36705, "\u00f3st": 33244, "\u2581doubtful": 50870, "particularly": 42173, "\u2581unpredict": 27198, "\u2581aquela": 47884, "\u2581contradiction": 44165, "bran": 46739, "\u2581lid": 17394, "ClickListener": 37977, "\u2581Controller": 25108, "brero": 30337, "\u0644\u0647": 55388, "\u2581fres": 19739, "\u2581civilians": 27437, "\u2581Sharon": 30635, "Generation": 52962, "\u00f3pez": 37340, "\u2581MHz": 37775, "\u2581deepen": 49524, "\u2581bondage": 53780, "CUS": 62724, "ZO": 61119, "\u2581parfois": 33100, "\u2581ST": 5870, "\u2581ENGINE": 55882, "\u2581booze": 50476, "<|mask_70|>": 74, "\u30ad": 63990, "\u2581fug": 33983, "\u2581\u05d1\u05d8": 42905, "<|reserved_95|>": 611, "\u2581Tay": 38823, "\u2581insulting": 53971, "\u2581involves": 10530, "\u2581Export": 30354, "\u2581transition": 8560, "\u2581Hom": 10399, "\u2581guarded": 47371, "\u2581Samoa": 62903, "\uccad": 65021, "\u2581poisoned": 59810, "governmental": 46334, "naissance": 32187, "utsche": 33693, "\u2581qued": 19382, "\u0631\u0628\u064a\u0629": 34416, "isman": 47347, "ORA": 41608, "\u2581Panda": 46468, "\u2581atrav\u00e9s": 20270, "ivariate": 35271, "\u2581depletion": 46974, "\u2581Francesco": 48214, "\u2581Rout": 57698, "\u2581informatie": 36513, "7": 63004, "\u2581ashamed": 32053, "<|reserved_500|>": 1016, "\u2581Gothic": 45119, "\u2581Subject": 26176, "inth": 23601, "heses": 52851, "Logs": 57015, "\u2581bunch": 10880, "guest": 51597, "\u2581Western": 8177, "\u2581vielen": 51679, "face": 3627, "rift": 31359, "awi": 33624, "\u2581carne": 35230, "\u2581Manhattan": 19624, "\u2581premises": 21038, "<|reserved_594|>": 1110, "CRIPTION": 39663, "\u2581th\u00e9\u00e2tre": 60525, "\u2581stressed": 18166, "Donald": 17163, "\u0648\u0628": 19264, "natal": 38606, "\u2581AFL": 50661, "\u2581acus": 32731, "\u2581compares": 30241, "length": 6689, "\u2581CONTR": 26984, "\u2581Kenneth": 34544, "\u2581adsorption": 60232, "\u62a4": 64762, "\u2581putas": 50797, "\u2581silent": 15503, "\u2581worsen": 56065, "OCK": 21199, "\u2581testosterone": 23026, "\u2581pastry": 32284, "\u2581Brussels": 28990, "Italy": 57201, "\u2581proporcion": 25775, "\uc9c8": 65038, "coll": 18699, "uting": 19730, "hospital": 45149, "ondere": 56937, "\u2581straw": 15491, "\u2581flirt": 40295, "\u2581afic": 40892, "\u2581perennial": 42657, "\u2581bent": 17878, "\u2581surviving": 25923, "}}{": 31732, "verter": 17003, "\u2581ports": 17460, "\u2581Isn": 31543, "atform": 4129, "limits": 33659, "\u2581tweak": 41039, "\u2581*/": 3681, "\u2581\u00bc": 46996, "\u2581Vaugh": 41351, "\u2581ke": 2403, "irtschaft": 39719, "\u2581interpreter": 41638, "\u2581representantes": 45210, "\u00e9riment": 58158, "\u2581transplantation": 41957, "\u2581Methods": 22958, "<|mask_447|>": 451, "\u2581heals": 62904, "\u6839": 63835, "\u2581accomplishment": 32375, "past": 35381, "\u2581linea": 49389, "\u2581do": 1996, "angled": 38025, "\u2581procrast": 45761, "ag": 1903, "eur": 9078, "\u2581Cody": 40293, "acqua": 62361, "ication": 4452, "Jack": 19017, "\u2581GMC": 61044, "Retry": 55123, "\u2581epilepsy": 42774, "\u2581fraught": 61436, "\u2581carried": 8040, "\u2581integration": 11876, "\u2581addict": 19370, "saved": 37160, "<|reserved_88|>": 604, "\u2581TVs": 35634, "\u2581gee": 59683, "\u00f1": 63080, "\u2581Ca": 8856, "\uacfc": 63777, "tested": 50188, "\u2581Paral": 49488, "[]": 6278, "<|reserved_287|>": 803, "azed": 31184, "uttgart": 51420, "\u2581Est\u00e1": 41596, "jad": 54080, "\u2581Penny": 35662, "\u2581attrs": 46068, "\u2581d\u00e9pl": 37894, "\u2581thief": 40270, "<|reserved_628|>": 1144, "\u2581bure": 52025, "\u2581sentence": 10725, "\u2581weight": 4660, "\u2581Bern": 11406, "\u2581avere": 44251, "\u2581worsening": 52216, "\u2581reactions": 15162, "\u2581miss\u00e3o": 61169, "()\"": 61208, "\u2581screws": 28182, "\u500b": 64174, "\u2581novels": 17560, "\u2581threatening": 20796, "uate": 9665, "skirts": 44995, "blood": 31227, "\u2581themselves": 4757, "Http": 11475, "claimed": 14382, ":[": 35141, "imize": 60542, "Adv": 24425, "ibili": 39803, "loat": 7355, "\u2581Tracks": 61650, "ERE": 10286, "\u2581Shiv": 55360, "\u05e0\u05dd": 42850, "!</": 54466, "\u2581rhyth": 15887, "\u2581gol": 18336, "}(": 10564, "\u2581PDT": 45765, "pletely": 36563, "<|reserved_215|>": 731, "Karen": 54981, "\u2581S": 1866, "\u2581night": 3298, "\u2581Legion": 35136, "\u2581troph": 39596, "lasses": 28977, "\u2581shark": 33303, "education": 42509, "rine": 12306, "coding": 47571, "\u2581sufr": 45048, "\u2581fishing": 11465, "\u2581galvanized": 59330, "\u2581Responses": 51326, "\u2581partying": 60674, "elin": 30980, "\u2581refreshed": 40192, "\u2581carcinoma": 34051, "\u2581representations": 27876, "produ": 8256, "\u2581deciding": 16894, "\u2581crystalline": 56703, "Lit": 31820, "\u2581HTTP": 18190, "\u2581monks": 44010, "\u2581multiplying": 62035, "\u2581tr\u00e1s": 59157, "\ub77c": 63582, "\u2581CH": 8750, "\u2581geval": 60755, "\u2581solidar": 50654, "isher": 12883, "\u2581dyed": 59764, "\u05e0\u05d3": 36000, "aciones": 6750, "\u2581miscarriage": 61768, "\u2581endl": 39369, "\u2581Tribune": 34825, "\u2581Group": 5941, "\u2581Ital": 7904, "\u2581Resistance": 38872, "\u2581dedicated": 7867, "\u2581Young": 10075, "\u2581refrigerator": 22614, "Believe": 60098, "\u2581Tunisia": 49454, "puted": 44785, "\u2581Zeus": 55576, "\u2581munic\u00edpios": 50707, "\u2581chuck": 26569, "\u2581lyrics": 17106, "fficiency": 26980, "\u2581Org": 53235, "\u2581biblical": 30536, "\u2581poured": 26066, "}}\\": 19680, "\ub4e4": 63797, "\u2581experi": 9004, "\u0627\u0644\u0629": 29981, "\u2581Salman": 51743, "\u2581Hans": 17743, "repl": 51892, "\u2581underestimated": 54076, "\uc62c": 65367, "\u05d1\u05e8\u05d4": 32602, "\u2581NOT": 6938, "backed": 32723, "<|mask_241|>": 245, "\u2581Cree": 61192, "hu": 12015, "\u2581p\u00e9ri": 26550, "RAM": 47811, "enter": 10315, "\u2581exporter": 53562, "University": 25326, "\u2581p\u00e9t": 55677, "\ub78c": 65079, "\u2581sleeve": 23852, "\u2581earliest": 19555, "\u2581addiction": 15735, "ol": 1868, "coins": 24434, "\u2581Party": 8324, "\u05d3\u05e9": 58286, "\u2581full": 3145, "<|reserved_749|>": 1265, "\u2581catalytic": 46539, "\u2581orgas": 51517, "\u2581Ben": 6151, "fare": 18310, "))": 3228, "Nombre": 58510, "rensa": 41859, "Img": 43135, "\u2581bereits": 35960, "\u2581amigo": 30022, "Ec": 55292, "\u2581Successful": 48201, "\u2581Shim": 35660, "\u2581torture": 25748, "\u2581sketch": 20739, "ains": 3165, "\u2581modifying": 34556, "\u2581secure": 6970, "\u05d5\u05dc\u05d5\u05d2": 59237, "\u2581ADC": 57838, "\u2581Freel": 61055, "\u2581geen": 20720, "\u0434\u0443": 61477, "\u2581comprom": 10231, "study": 39274, "\u2581Nate": 38936, "PSS": 53745, "\u00bf": 63144, "fal": 37283, "\u2581Mister": 56191, "\u2581explosive": 26987, "<|reserved_931|>": 1447, "\u2581nook": 48841, "ceria": 35533, "\u2581Derby": 30807, "\u2581islands": 17967, "\u2581weighted": 32197, "\u2581Paz": 39948, "\u2581casamento": 49532, "\u2581PACK": 61615, "linking": 62403, "guide": 28192, "\u8f09": 65313, "docker": 20855, "\u2581MLS": 36107, "ow": 1875, "\u2581delivers": 15556, "\u2581governed": 26527, "\u2581asegur\u00f3": 58804, "Legal": 40859, "\u2581faudra": 62560, "\u2581aqui": 15282, "\u2581silk": 24355, "Download": 13643, "\u2581automat": 31967, "\u5806": 65036, "\u2581Luxury": 36684, "\u2581Labs": 30041, "\u2581Kingdom": 11099, "\u2581defines": 19239, "nio": 40831, "\u2581Ctrl": 51540, "\u2581stained": 28888, "\u043c\u0438": 43834, "\u2581postpone": 52680, "\u2581Far": 9996, "ravity": 29267, "\u2581Mul": 21316, "\u2581search": 4080, "frame": 7895, "ooters": 43660, "\u2581vents": 44393, "\u00eb": 63155, "\u2581dopamine": 44630, "apache": 9584, "\u2581Procedure": 35410, "House": 23830, "initialize": 37464, "\u2581physiological": 28845, "\u2581pal": 5914, "\u2581these": 2364, "\u2581Quartz": 53453, "aign": 4920, "\u2581\u2581\u2581\u2581\u2581\u2581\u2581\u2581\u2581\u2581\u2581\u2581\u2581\u2581\u2581\u2581\u2581\u2581\u2581\u2581\u2581\u2581\u2581\u2581\u2581\u2581\u2581\u2581\u2581\u2581\u2581": 26716, "CA": 6524, "\u2581neighbours": 30609, "LEX": 36799, "\u2581lovers": 17225, "purpose": 32634, "\u00e1logo": 34703, "TSA": 60863, "\u2581cruising": 41541, "Pol": 8621, "\u2581individ": 3299, "\u2581Fernando": 25436, "\u2581Perkins": 43004, "initions": 31420, "\u2581wildly": 33547, "Bron": 32049, "age": 2027, "\u2581suivi": 43154, "\u2581titles": 11137, "Ross": 50995, "\u2581account": 3367, "nis": 18214, "\u2581Candle": 59128, "\u2581diploma": 32246, "\uc8fc": 63840, "hack": 48606, "Boolean": 23227, "\u2581rebellion": 38488, "\u2581Depending": 22863, "\u2581including": 3012, "Mer": 23678, "\u2581tratamiento": 38084, "emd": 49190, "\u2581envelop": 18189, "<0xF8>": 1792, "\u2581Conseil": 43814, "\u2581\u05d0\u05de\u05e8": 62732, "struct": 8096, "\u2581SSH": 43070, "\u2581curing": 55188, "\u2581apprenticeship": 51612, "ettes": 15141, "\u2581yummy": 34005, "\u2581averages": 34892, "\u2581aneur": 60725, "\u0d3f": 64767, "sd": 11998, "\u2581Vacuum": 54252, "\u2581note": 5512, "\u2581explo": 12151, "\u2581selfies": 55718, "\u00edas": 9217, "<|reserved_207|>": 723, "\u2581Span": 42061, "\u2581saver": 59771, "\u2581ilumin": 51826, "TG": 52732, "etection": 29252, "\u2581auch": 9736, "\u2581dific": 25817, "\u2581Lu\u00eds": 58531, "objet": 50925, "\u2581squad": 13031, "\u2581Host": 14994, "whole": 56968, "\u2581Jazz": 21403, "\u0633\u0644\u0627\u0645": 44664, "directory": 23732, "ult": 2081, "delete": 12100, "\u2581Ultimate": 23233, "rated": 13749, "\u2581Dayton": 31737, "rack": 32185, "\u2581Atlanta": 14363, "organisation": 36531, "\u2581ah\u00ed": 37864, "\u2581Fla": 32254, "<|reserved_27|>": 543, "\u2581plaza": 38336, "\u2581service": 3128, "\u2581checks": 12525, "\u2581dire": 4326, "\u2581otras": 18816, "\u2581metod": 51495, "\u2581dia": 8038, "Sha": 18435, "\u2581estrateg": 37045, "cols": 38306, "haust": 10570, "<|reserved_451|>": 967, "\u00ea": 63064, "\u2581Cultural": 21976, "\u0641\u0644": 49268, "\u2581lum": 17037, "\u2581reunited": 47747, "\u2581\u0432\u0402": 46088, "visor": 12141, "ittings": 35122, "\u05d9\u05dc\u05d5": 36833, "seud": 51094, "\u2581crescimento": 37513, "leben": 61978, "\u2581ancestors": 25913, "\u064a\u0633": 19378, "ivari": 30390, "\u2581Flexible": 53458, "\u623f": 64293, "<|reserved_478|>": 994, "\u2581Cases": 41886, "\u2581air": 3328, "\u2581passwords": 27246, "\u2581Fut": 26896, "\u2581revis": 16147, "ITAL": 47360, "\u2581Half": 20716, "bled": 12121, "\u2581CAB": 60892, "\u2581preparation": 11522, "\u2581controversial": 17053, "\u2581efectos": 46556, "\u2581obesity": 21568, "\u2581accue": 35663, "xs": 20401, "\u2581\u05e0": 8834, "\u2581drop": 6391, "\u2581silently": 35961, "xE": 44326, "\u2581Fot": 44096, "\u2581hostage": 47548, "\u2581S\u00e9rie": 61385, "\u2581friend": 2970, "Nobody": 42382, "\u2581Sir": 11946, "\u2581escond": 59104, "\u2581produ\u00e7\u00e3o": 26096, "wei": 16048, "\u2581reservation": 22746, "successful": 27985, "\u2581garage": 12766, "\u2581complimentary": 21747, "reach": 17659, "\u2581notify": 22919, "\u2581taped": 51997, "rez": 9600, "\u2581avid": 29002, "<|reserved_894|>": 1410, "\u2581kunst": 50458, "HS": 9867, "camp": 18287, "quartered": 34269, "Kings": 52666, "lic": 2138, "\u2581perspect": 17072, "direction": 24812, "chat": 13601, "\u2581suitability": 55591, "\u2581forth": 9404, "\u2581Centers": 25400, "ifiques": 40085, "estre": 23218, "\u2581populations": 14157, "\u2581cue": 35097, "\u2581*)": 16130, "\u2581Romans": 28812, "adequ": 20982, "Craig": 59399, "\u2581Bronx": 41586, "\u6bdb": 65293, "\u2581\u20b9": 40737, "\u2581Deer": 37701, "\u2581unreal": 31781, "\u2581Switzerland": 19218, "\u2581\u0627\u0644\u0645\u063a": 59526, "it": 1816, "\u89e6": 64807, "ividad": 19942, "\u2581Risk": 22755, "\u2581Brooks": 25762, "\u2581Readers": 38790, "\u2581coupons": 21708, "\u2581archived": 52910, "idio": 47712, "\u2581\u05d4\u05e8\u05d9": 61076, "\u2581unbelievable": 30561, "\u2581Krie": 54904, "\u2581Molecular": 42386, "\u2581Hobby": 56885, "cedented": 20312, "\u2581informa": 58133, "Beta": 62215, "<|reserved_764|>": 1280, "plotlib": 38963, "\u2581fellow": 9705, "\u2581engineers": 16310, "\u2581\u05de\u05d6": 47872, "Eventually": 44570, "\u2581Barber": 43311, "River": 47668, "w": 62953, "urgery": 49175, "REDIRECCI\u00d3N": 33905, "\u2581burgl": 31655, "\u2581pane": 37866, "ails": 3318, "\u2581promising": 15864, "<|reserved_596|>": 1112, "ors": 2199, "Jo": 18282, "lette": 12446, "\u2581Describe": 47122, "\u2581pier": 15619, "\u2581expans": 22446, "isa": 6675, "ancias": 36515, "\u2581nons": 21717, "\u4e24": 63801, "\u2581aqueles": 42897, "\u2581itch": 56881, "\u2581figured": 14541, "\u2581systematic": 22525, "\u00e9der": 40093, "issimo": 41291, "hpp": 21787, "\u2581pareja": 37214, "\u2581apologise": 62380, "\u2581Browser": 35046, "\u2581MUCH": 52021, "\u2581riffs": 62437, "\u2581Reduction": 47641, "ter": 1901, "\u2581meglio": 54712, "\u2581halo": 52178, "\u2581fortunes": 48010, "ounce": 11218, "\u2581econ\u00f4m": 54762, "\u2581oval": 37343, "nea": 14359, "\u2581series": 3873, "\u2581characterized": 16705, "Times": 29855, "\u2581Samantha": 39036, "/.": 18118, "\u2581\u2581\u2581\u2581\u2581\u2581\u2581\u2581\u2581\u2581\u2581\u2581\u2581\u2581\u2581\u2581\u2581": 23072, "\u2581recount": 30403, "\u2581immensely": 36008, "\u2581hardened": 46792, "\u2581Charles": 10202, "\u2581str": 2619, "\u2581underground": 18009, "\u5f02": 64054, "\ud1b5": 64288, "\u2581herself": 8088, "\u2581mask": 10193, "\u2581cycling": 19930, "\uad00": 64199, "<0x39>": 1601, "AN": 3072, "\u2581creditors": 33357, "dragon": 41321, "Support": 13952, "<|reserved_362|>": 878, "<0xA4>": 1708, "\u2581t\u00edtulos": 47865, "\u2581definitions": 20713, "\u2581chicks": 45055, "<|mask_143|>": 147, "hard": 13289, "\u2581hypothesis": 21506, "\u2581\"${": 29142, "\u2581degree": 6172, "\u2581Oscars": 51166, "Chart": 26855, "\u2581dives": 57953, "\u2581rulers": 39562, "\u2581Structure": 32373, "\u2581Andreas": 43764, "allerg": 59655, "\u2581Bool": 57608, "\u2581condominium": 47527, "\u2581Margaret": 23202, "laus": 38562, "WE": 11208, "\u2581athlet": 9607, "\u2581Le\u00f3n": 47899, "\u2581roaming": 46593, "\u2581Lenn": 34132, "\u2581Bitcoin": 10297, "\u2581Infect": 59887, "Sans": 60014, "\u00d4": 63911, "\u8bb2": 65142, "\u2581Pork": 52826, "\u2581shaped": 16673, "\u2581budgets": 25321, "\u2581Arte": 40213, "\u2581Race": 17948, "\u2581sigh": 29357, "\u2581Shepherd": 35724, "\u2581Eternal": 55373, "\u2581longest": 18301, "\u2581Porque": 48364, "\u2581tornado": 31903, "neo": 22478, "\u2581swaps": 62836, "\u2581dressed": 15669, "\u2581shipment": 30067, "\u2581della": 7473, "\u2581NB": 44519, "\u2581\u00d7": 20376, "\u2581impover": 54687, "\u2581m\u00e1ximo": 30377, "Long": 13047, "\u2581banquet": 48456, "ohn": 3510, "\u2581footwear": 35928, "\u2581Fen": 31125, "elman": 44706, "\u2581formes": 55484, "rices": 25056, "\u2581appointed": 12768, "\u2581salvo": 60515, "<|reserved_465|>": 981, "*^": 32975, "\u2581plug": 7155, "\u2581preacher": 51151, "\u2581sai": 57783, "box": 4647, "Lang": 44033, "\u2581swapping": 50299, "ensor": 9797, "Collections": 21716, "\u05d9\u05d9\u05dd": 20686, "agt": 37784, "\u2581reproductive": 27898, "poque": 36992, "ivia": 19913, "coma": 32912, "agu": 12683, "Ka": 43652, "\u2581sud": 7309, "\u2581\u0434": 21309, "zers": 48836, "School": 24979, "\u2581examination": 12855, "\u2581chambers": 34875, "\u2581probiotics": 56247, "\u2581Sheridan": 57185, "\u2581similarly": 19984, "appa": 21998, "MEM": 29751, "lighter": 54205, "=\"@+": 53127, "\u2581loci": 56109, "Summer": 33342, "(['": 25471, "\u2581Caribbean": 19198, "ipple": 31661, "\u2581WS": 32091, "\u2581dopo": 25771, "\u2581lambda": 38403, "ubles": 52794, "annen": 40860, "alp": 53572, "\u2581appearance": 8239, "ra\u00e7\u00e3o": 23749, "\u2581Lyme": 59525, "\u2581lungs": 23562, "\u2581believe": 3971, "BBC": 54793, "\u2581terrest": 35793, "\u0627\u0631\u0627\u062a": 23876, "Unless": 30313, "STAR": 60606, "\u2581inim": 56542, "\u2581Reve": 29161, "<|mask_136|>": 140, "\u2581almacen": 56979, "\u2581inner": 9500, "<0x84>": 1676, "\u8bc1": 63799, "\u2581ended": 6829, "\u2581buscar": 29813, "\uacbd": 63928, "\u7bc4": 65520, "\u2581drought": 24352, "\u2581Comme": 40823, "\u2581temperament": 53097, "\u7279": 63730, "\u2581ctx": 24993, "\u2581arrives": 19762, "\u02dd": 65207, "\u2581standing": 8229, "\u2581Spot": 17409, "\u2581porcelain": 43256, "\u2581Mort": 15972, "\u9700": 63437, "\u2581t\u00e9cn": 14784, "gano": 34983, "\u2581binder": 52984, "ultura": 22163, "\u2581coloc": 17819, "\u2581alpha": 17722, "\u2581stimulated": 40527, "\u53cb": 64503, "elen": 12872, "\u2581angular": 27260, "\u0633\u064a\u0629": 33350, "influ": 42789, "\u2581Structural": 53173, "\u2581acrylic": 32265, "\u2581Quantum": 40799, "\u2581center": 5097, "\u2581controle": 29815, "ulf": 9657, "\u0442\u0438": 32125, "\u2581Moh": 14510, "nf": 47018, "\u2581Solic": 58594, "\u2581mover": 48315, "\u2581sexuality": 27305, "\u0d2f": 65255, "provoking": 59293, "\u2581Wheel": 26617, "\u2581TA": 31149, "\u00eet": 24721, "ensemble": 29379, "\u2581trabajar": 35568, "buch": 53180, "<|mask_227|>": 231, "\u2581Heb": 61912, "lei": 37697, "<|reserved_412|>": 928, "\u2581acred": 36585, "\u2581nasty": 23158, "Ox": 41451, "\u2581static": 5137, "\u2581gracious": 42308, "astern": 9708, "\u2581violation": 16091, "+\"": 25164, "BIT": 20148, "<|reserved_310|>": 826, "\u2581integrates": 37363, "\u2581r\u00e1p": 18165, "\u2581Ident": 20278, "Consult": 45814, "\u2581cartridge": 34089, "\u2581comedian": 34355, "\u2581discrep": 34590, "\u2581\u064a\u0643\u0648\u0646": 46927, "\u2581DAY": 32190, "\uc815": 63503, "\u2581coupon": 17472, "ensen": 23793, "ucing": 31610, "\u2581Kann": 55124, "\u2581longtime": 26828, "\u2581laughs": 30516, "pecified": 55135, "\u2581agua": 21341, "\u0645\u0644\u0643": 58251, "\u2581vas": 21293, "\uc624": 63982, "good": 13275, "Subst": 58478, "\u2581Pin": 16303, "\u2581Legacy": 30301, "Rod": 34688, "\u2581moderno": 50437, "\u2581denied": 12125, "\u2581\u0645\u062f": 29681, "\u2581ved": 31714, "\u2581Toc": 62331, "ellee": 32934, "\u2581Geography": 55350, "\u2581collector": 26262, "mist": 25318, "\u2581syll": 32481, "\u2581Matthew": 16076, "\u2581leasing": 37265, "\u2581Par": 4060, "<|mask_354|>": 358, "akh": 14991, "\u2581xmlns": 36916, "\u2581metast": 24260, "\u00a5": 63883, "Final": 19291, "example": 13556, "angle": 7697, "\u2581Optimization": 48601, "\u2581Mart\u00ednez": 51213, "\u2581Malone": 56764, "\u2581lorsqu": 43711, "\u2581merch": 11138, "upiter": 26881, "\u2581invisible": 22003, "\u2581optics": 46806, "ABLE": 9986, "\u2581india": 26910, "atamente": 34767, "\u2581el\u00e9ct": 40509, "\u2581razor": 39237, "urized": 58258, "\u2581$(": 11539, "\u2581exc": 3176, "imposed": 53086, "ucc": 23786, "<|reserved_709|>": 1225, "cake": 42708, "\u2581epub": 49663, "\u2581r\u00edo": 51615, "\u2581consid\u00e9": 52360, "catalog": 43993, "\u2581Lemon": 31590, "\u2581deuxi\u00e8me": 34748, "\u2581ordinate": 52602, "Station": 19433, "tz": 18554, "\u2581connector": 25217, "\u2581crowdfunding": 53632, "\u2581sau": 8029, "borg": 39199, "\u2581Jugend": 57929, "\u2581hesitate": 21856, "\u2581mousse": 55608, "\u2581rewards": 15683, "depend": 17822, "\u2581inverted": 47124, "\u2581rense": 56444, "\u2581Hitch": 43896, "\u2581deveria": 57033, "\u2581Braves": 46352, "\u2581airports": 27399, "\u2063": 64309, "oglobin": 45218, "\u2581succession": 31814, "\u2581RIP": 58642, "\u2581PCB": 44180, "nest": 19535, "\u2581resale": 55830, "\u2581dann": 21756, "\u2581boobs": 45916, "\u2581journal": 7200, "mother": 14270, "\u2581coz": 28391, "\u043d": 63115, "\u2581\u2581\u2581\u2581\u2581\u2581\u2581\u2581\u2581\u2581\u2581\u2581\u2581\u2581\u2581\u2581\u2581\u2581\u2581\u2581\u2581\u2581\u2581\u2581\u2581\u2581\u2581\u2581\u2581\u2581": 15421, "\u2581undisclosed": 60495, "versal": 53288, "Oh": 8608, "th": 1972, "\u2581sust": 5996, "\u2581Tecn": 36130, "\u2581encaps": 34478, "\u2581TW": 38774, "\u2581Play": 6332, "\u2581relatively": 8292, "\u2581emergencies": 35736, "\u2581Majority": 48617, "\u2581dram": 9236, "\u2581lion": 27881, "\u2581unidad": 55222, "\u0bb0": 64741, "voice": 25025, "\u2581saline": 47291, "\u2581protocols": 19449, "\u2581Traff": 46697, "iction": 4410, "etheless": 12567, "ER": 2581, "\u2581bytes": 15229, "anal": 44108, "\u2581NAME": 37876, "\u2581freight": 27213, "\u2581extend": 11259, "\u2581greatly": 11807, "```": 5573, "Ama": 18780, "feit": 20702, "cester": 32169, "\u2581freel": 20191, "\u2581Holland": 24348, "\u2581irrespective": 40320, "ropolit": 46945, "\u05e9\u05d5\u05d1": 29535, "\u2581Landes": 53818, "\u2581retrieving": 59457, "\u2581Lans": 44861, "\u2581cyclists": 40144, "\u2581refract": 52803, "ursor": 15348, "tal": 32777, "Mt": 62074, "\u2581mig": 17996, "\u2581receptors": 24764, "\u2581embar": 27633, "\u2581persuasive": 43203, "\u2581initi": 6728, "<|mask_243|>": 247, "iti": 9123, "\u2581exp\u00e9rience": 36089, "\u2581vrouwen": 46330, "lets": 7637, "\u2581idol": 33596, ">\\": 26908, "apest": 35247, "ributing": 45292, "\u2581votes": 13102, "\u05e0\u05d9\u05dd": 11516, "\u2581prayer": 12938, "Heading": 52485, "lique": 17860, "\u2581bound": 7000, "gets": 14865, "Horizontal": 47126, "\u2581affidavit": 40827, "\u2581Responsible": 57450, "\u2581farmer": 21822, "\u2581Ali": 13057, "\u2581faction": 41866, "Suppress": 47140, "\u0435\u043d\u0438\u0435": 49978, "\u00f6m": 54721, "Mag": 26399, "iod": 3607, "\u2581Jung": 34230, "\u2581interven": 19679, "\u2581coat": 12928, "\u2581Pars": 31156, "<|reserved_311|>": 827, "\u2581Oncology": 57963, "ideos": 17923, "\u2581graduates": 21992, "\u2581Nuevo": 55879, "\u2581Anton": 31431, "\u2581Of": 4974, "verez": 48358, "\u2581Wednesday": 6633, "\u2581essentials": 32262, "<0xFB>": 1795, "\u2581november": 46706, "\u2581rumors": 24389, "icing": 7316, "\u2581Hayes": 36280, "\u2581demon": 5399, "\u2581caught": 7945, "kamer": 50973, "<|reserved_76|>": 592, "\u2581amendment": 21631, "\u2581vocation": 51214, "\u2581interpreting": 43720, "firebase": 53272, "Ev": 14010, "\uce74": 63951, "encrypted": 62173, "\u2581tram": 24634, "\u2581complained": 25418, "\u2581mar\u00e7o": 35050, "\u2581exam": 2869, "enst": 45676, "\u2581alterations": 31807, "\u2581Asoci": 47652, "\u042f": 64397, "\u2581Louise": 31574, "\u5e38": 63560, "\u2581logging": 18772, "\u2581islam": 54011, "\u2581cierto": 37652, "AUTH": 35718, "\u2581weld": 57640, "\u2581imped": 25949, "\u2581racks": 40778, "\u2581pray": 8754, "\u2581Sr": 23715, "\u2581infr": 8453, "\u2581attraverso": 46373, "\u2581rallies": 47617, "\u2581accompl": 7729, "Snap": 48585, "istiche": 53984, "\u2581sexual": 6753, "isual": 54902, "astery": 32486, "<|reserved_816|>": 1332, "lane": 32324, "\u2581hypocrisy": 53108, "GI": 22151, "\u2581instruction": 12183, "\u2581arr": 5728, "First": 7389, "\u2581concentrations": 16702, "\u2581examining": 24076, "\u2581asc": 14328, "\u2581Presentation": 47110, "\u2581Tooth": 57398, "\u2581london": 57766, "\u2581consecut": 45393, "\u2581r\u00f4le": 34810, "\u2581Raven": 40473, "\u2581Bengal": 28448, "<|reserved_942|>": 1458, "\u2581Carry": 48020, "\u2581Kitchen": 18766, "\u2581XC": 56926, "\u0129": 64351, "\u2581hypnosis": 61629, "\u2581Yan": 17934, "INDOW": 45484, "Action": 9774, "\u2581tokens": 18928, "ANGUAGE": 59126, "\u2581QU": 21251, "\u00fcnd": 26162, "\u2581Lakes": 24889, "bbing": 28257, "\u2581feito": 26344, "Education": 33313, "\u2581encontrado": 42919, "\u2581rainfall": 29479, "\u2581woman": 4725, "\u2581ontvang": 43741, "\u2581barato": 56368, "\u2581Issues": 29243, "\u2581undisputed": 62072, "arashtra": 36183, "\u2581>>>": 40384, "\u2581Et": 10633, "\u2581Fine": 21116, "\u308c": 63421, "\u2581connect": 5190, "ume": 3731, "\u2581Marriott": 41773, "\u2581tx": 28738, "\u2581Coffee": 19908, "\u2581dern": 12581, "\u2581Ike": 37306, "etchup": 57204, "\u2581volunteer": 14228, "<|reserved_63|>": 579, "omo": 14735, "\u2581reviewers": 35741, "\u2581thriller": 26315, "\u2581Patriots": 28157, "\u2581aromas": 47314, "\u2581Telecom": 44415, "reduction": 55193, "xic": 10549, "\u2581households": 17628, "\u2581Jarvis": 58540, "\u2581mommy": 46326, "ving": 2804, "\u2581Queue": 48624, "five": 18195, "Gold": 18886, "<0x74>": 1660, "<|reserved_637|>": 1153, "seller": 40610, "ilot": 30216, "\u2581NR": 30198, "opard": 21780, "\u2581cytokines": 44090, "\u2581brisk": 51575, "\ud83d\udc64": 65188, "lementary": 13606, "\u2581skip": 15175, "Hopefully": 40037, "birds": 34218, "fname": 53114, "\u2581chart": 9761, "\u064a\u0644": 11143, "nik": 23082, "\u2581autor": 11982, "Visual": 25649, "\u2581priori": 58889, "Impact": 51115, "\u2581Mike": 9124, "\u2581minus": 26642, "\u2581%>": 30328, "Grant": 47041, "\u2581reconstruction": 26211, "rax": 53716, "\u4e91": 64468, "\u2581taboo": 56657, "think": 21384, "\u2581conquer": 33073, "mo": 4839, "\u2581habitaci\u00f3n": 54599, "\u2581Hancock": 49340, "\u2581mol": 10469, "\u2581suit": 8080, "Foreign": 37310, "\u2581prolong": 16930, "\u2581Lup": 48502, "\u2581famine": 54937, "\u2581plumbing": 24228, "\u2581ascertain": 33129, "\u2581Stars": 19252, "\u2581serem": 39133, "\u2581Ayurved": 47744, "scheme": 54878, "\u2581surve": 11430, "Georg": 37700, "bersome": 51558, "iaal": 55173, "\u2581lux": 8591, "\u2581timeline": 21806, "High": 12449, "\u2581pes": 8887, "\u2581Johannesburg": 49797, "\u2581Zero": 21690, "\u2581heur": 57114, "\ud83d\udc99": 65254, "voy": 48340, "Mess": 42139, "\u2581Improved": 55348, "\u2581transitioning": 48125, "\u2581Carol": 7677, "\u2581Bat": 12061, "\u2581individualized": 50678, "\u2581riv": 9290, "coli": 46639, "\u2581pronounce": 43778, "\u2581Tril": 55299, "<|reserved_292|>": 808, "\u2581caregiver": 47565, "\u2581pec": 38257, "div": 3280, "\u2581Ment": 31028, "\u2581Examin": 50207, ".\"[": 43400, "\u2581confirmed": 8505, "Gamma": 22494, "\u2191": 63502, "zep": 38476, "\u2581Kas": 27785, "Invoke": 39477, "\u2581Dix": 44398, "\u2581negatives": 48265, "\u2581Certification": 34968, "\u2581Fern\u00e1ndez": 50416, "national": 26817, "\u2581met": 2789, "\u2581finale": 19793, "\u2581estimating": 44694, "Ont": 44855, "\u6e05": 64069, "\u2581Valid": 36830, "\u2581Qaeda": 55366, "\u2581\u00falt": 9636, "\u0643\u0627": 44107, "\u05e9\u05d5\u05ea": 23362, "\u2581L\u00e9": 43067, "\u2581M\u00f6": 36938, "upid": 11755, "Reader": 14806, "ropol": 16291, "ALSE": 24893, "\u2581mosquito": 28700, "\u00e4n": 20885, "\u2581faced": 11306, "\u2581marriages": 31039, "lr": 32089, "\u2581earned": 9955, "\u2581exped": 18260, "\u2581ambiguity": 47374, "pmatrix": 57793, "\u2581fittings": 42995, "\u2581f\u00e9d": 57782, "\u00f4n": 13176, "oded": 11768, "Herm": 61342, "\u2581estaban": 49125, "\u2581Laud": 44720, "\u2581Surprise": 60070, "<|reserved_836|>": 1352, "\u2581\u05d1\u05e0\u05d9": 40199, "\u2581tare": 35947, "\u2581icing": 36744, "Connor": 39204, "<|mask_353|>": 357, "\u2581kind": 3224, "Alg": 27616, "\u2581Boy": 9465, "<|reserved_654|>": 1170, "\u2581Jos\u00e9": 16054, "\u2581specialty": 20911, "\u2581cricket": 21836, "\u2581soort": 34141, "rets": 41944, "\u2581tandem": 38460, "nesdays": 56659, "\u2581converge": 56529, "\u2581yaml": 61843, "\u2581exhib": 6698, "\u05d8\u05e8": 18805, "\u5546": 64008, "\u2581Accordingly": 28583, "jboss": 61126, "adores": 7073, "Shel": 61574, "\u2581travers": 20421, "\u2581Maroc": 61056, "especially": 20700, "\u2581Myrtle": 58740, "\u2581calculating": 31553, "\u2581Cobra": 61783, "\u6781": 64953, "\u2581commits": 36367, "<|mask_172|>": 176, "\u2581FOR": 8638, "\u2581Pink": 20047, "ew": 2401, "restrict": 28131, "inarily": 28810, "Arrow": 48949, "utiliser": 54067, "\u2581abound": 51228, "\u2581Redemption": 62779, "\u2581quar": 43121, "Movies": 59882, "\u2581LOT": 30542, "\u2581corpor": 6227, "uther": 16249, "\u2581factory": 11578, "Without": 21386, "While": 6081, "\u2581cook": 4319, "\u2581Guid": 20907, "\u2581achieved": 9995, "~~~": 24257, "\u2581differed": 51802, "\u2581Tout": 31277, "filer": 48144, "\u2581pasa": 39313, "qu\u00e9s": 55419, "imately": 8246, "\u63d2": 64106, "compress": 42355, "\u2581contribuir": 58837, "\u001b": 64244, "ening": 4807, "aram": 9747, "\u2581generic": 14325, "\u2581knees": 18857, "later": 41935, "Println": 52458, "\u2581\u05d9\u05d3": 56026, "\u2581Hassan": 45835, "berger": 29879, "\u2581relieve": 25822, "ICON": 61871, "Scientists": 57655, "\u2581boast": 34600, "\u2581Libya": 35495, "\u2581Cannot": 41589, "\u2581evoc": 55395, "lf": 55813, "\u2581catapult": 61105, "otta": 21575, "\u2581Jasmine": 54765, "Gap": 57717, "Tyler": 62465, "\u2581Escort": 53267, "\u2581Pre": 5324, "FIL": 26500, "\u2581Switch": 18733, "pere": 28585, "\u2581barely": 13054, "\u2581appellant": 21517, "\u2581camper": 45170, "\u2581COP": 50112, "\u2581alliances": 47970, "issez": 36324, "Bot": 28360, "\u2581muest": 54582, "manager": 17339, "<|reserved_714|>": 1230, "dispatch": 30155, "\u2581justo": 46849, "<|reserved_679|>": 1195, "\u2581cookie": 15779, "\u2581Roe": 50686, "\u2581fondament": 56917, "\u2581har\u00e1": 61583, "\u3078": 64757, "<|reserved_281|>": 797, "inflammatory": 26160, "ussed": 35400, "otyping": 41599, "NFL": 62112, "Write": 11573, "\u2581trimmed": 38953, "\u2581throughout": 4719, "\u2581freshman": 23402, "Sm": 10643, "\u2581seus": 11134, "Bag": 39087, "elim": 54747, "<|reserved_783|>": 1299, "\u2581could": 2352, "iking": 11767, "\u2581maple": 31071, "alink": 35312, "\u2581Cheers": 53191, ":%": 33400, "\u2581commentaire": 60831, "\u2581Surface": 28123, "\u0428": 64722, "\u2581vient": 32250, "\u2581damned": 42502, "\u2581helped": 6258, "\u2581carve": 49890, "\u2581Architectural": 62450, "\u3060": 63940, "<|mask_451|>": 455, "Replace": 33627, "\u2581assembling": 49736, "hoe": 33898, "\u2581opera\u00e7\u00f5es": 62283, "\u2581luxurious": 22112, "gina": 19832, "\u2581suggestions": 11440, "\u2581Pas": 14860, "\u2581El": 3762, "\u2581UTF": 48870, "\u2581Eh": 42245, "\u2581TECH": 55422, "Symbol": 24282, "<|reserved_70|>": 586, "NP": 23686, "des": 5035, "\u2581searches": 20904, "ELA": 61905, "prevent": 37042, "\u2581enlarged": 42239, "\u2581anemia": 49708, "\u903b": 64846, "obacter": 30007, "]^": 16573, "\u2581Steel": 9346, "January": 21557, "MD": 12894, "\u2581al": 1900, "Azure": 26554, "estial": 42499, "\u2581reliability": 17597, "King": 25374, "\u2581meio": 16910, "\u2581editorial": 20352, "\u2581sens": 4177, "\u2581iets": 35905, "FIN": 25182, "\u2581minder": 42971, "\u5c4f": 64844, "access": 12262, "\u2581Maria": 12947, "ugg": 18707, "\u2581Guillermo": 58312, "\u2581rehabilitation": 22754, "\u2581Rise": 33059, "\u2581perman": 7870, "\u2581sloppy": 51882, "Active": 17312, "\u2581produits": 19414, "\u2581flushed": 56022, "\u0302": 64590, "\u2581incompatible": 44601, "\u2581strateg": 4210, "\u2581infrastructures": 53634, "avin": 28011, "\u2581hem": 12644, "\u2581copper": 16121, "\u2581cog": 42937, "\u2581quinoa": 53847, "\u2581Surve": 42021, "\u2581cerv": 26556, "\u2581Rent": 21167, "\u2581Jet": 22456, "Congress": 45412, "yrus": 52822, "\ud83c\uddf8": 65260, "<|reserved_61|>": 577, "\u2581radar": 21968, "\u2581adhere": 26129, "\u2581cucumbers": 60361, "\u2581inconven": 23691, "BOOK": 41347, "Other": 9595, "\u2581Final": 13981, "\u2581canvas": 18205, "\u2581satisf": 5820, "\u2581speeding": 36917, "\u2581consolidation": 27119, "rowser": 15758, "rossover": 30847, "\u2581Thrive": 43829, "\uc810": 64532, "<|reserved_917|>": 1433, "\u2581accessible": 9701, "\u2581vows": 45236, "\u2581Orb": 54778, "\u2581quarry": 30339, "\u2581Stam": 45436, "\u2581assists": 16807, "\u2581accomplish": 10988, "\u2581accident": 7743, "\u2581BB": 14554, "broken": 33346, "Loop": 30094, "\u2581cori": 50813, "maxim": 36402, "\u2581eind": 43894, "\u2581Services": 7274, "\u2581FDA": 17548, "\u2581caracter": 19157, "\u2581organized": 10668, "\u2581\u201c[": 45020, "\u2581slew": 41961, "\u2581attendant": 36102, "ff": 2105, "\u2581Dawson": 42339, "\u30a9": 64579, "\u2581complaining": 26098, "\u2581Dream": 12612, "\u2581Former": 28343, "\u0457": 64318, "\u2581descriptor": 43367, "\u2581Zelda": 54249, "\u2581Opinion": 45043, "\u2581setembro": 36906, "Companies": 48226, "\u2581smoked": 28379, "\u2581AUTHOR": 61711, "RET": 22468, "\u2581corrosion": 30397, "\u2581Gin": 33955, "\u2581Quiz": 39261, "\u2581Latvia": 51602, "covers": 52533, "_**": 53976, "\u2581Snap": 19901, "\u2581humor": 15159, "\u2581dimensional": 32008, "Jacob": 55240, "gression": 58044, "nergie": 26665, "charger": 28085, "\u2581handy": 15152, "\u2581invigor": 61992, "\u2581\u05dc\u05d2": 33771, "\u2581metropolis": 47684, "\u2581Sic": 30132, "arf": 37533, "\u2581HER": 37995, "\u2581bian": 47587, "\u2581viagra": 30640, "ceived": 10389, "logical": 62515, "\u2581mean": 3385, "\u2581Vir": 7472, "\u2581softly": 35126, "nement": 16576, "\u2581Dienst": 55482, "\u2581clergy": 42252, "\u2581continuer": 55911, "\u2581sill": 49986, "tas": 57570, "\u2581vez": 7458, "\u2581mejores": 22281, "inen": 17566, "\u2581s\u00e9culo": 46512, "defense": 39889, "iti\u00e9": 47781, "IVA": 49760, "hetics": 25947, "\u304b": 63519, "\u2581exploiting": 51710, "gadas": 55575, "\u2581limiting": 20705, "\u2581Alexis": 42784, "back": 3269, "\u2581ding": 44413, "Anything": 50189, "\u2581Angie": 55878, "\u2581player": 5098, "\u2581Believe": 36072, "\u2581ASTM": 33293, "\u2581max": 9070, "\u2581polygon": 61328, "\u2581headers": 22430, "uco": 43472, "\u2581Randy": 29712, "\u2581brig": 32370, "<|mask_313|>": 317, "\u2581$(\\": 47288, "\u2581embry": 23129, "<|reserved_640|>": 1156, "oes": 40209, "\u2581adjustments": 20118, "onese": 59582, "\uc870": 64052, "\u2581SU": 11409, "tin": 48351, "\u2581\ud83d\ude09": 34715, "\u2581predatory": 62417, "\u2581independ": 5529, "\u2581genomic": 35657, "\u2581glamorous": 43006, "\u2581selectively": 45299, "------------------": 43559, "\u2581appreciative": 58813, "\u2581Napoleon": 45578, "\u2581talks": 10429, "neut": 62081, "\u2581consecutive": 15865, "\u2581Kill": 24040, "copyright": 40760, "\u4ef6": 63232, "ians": 3954, "\u2581mesmer": 43749, "\u2581stimulus": 24044, "\u2581din": 11209, "\u2581armazen": 54734, "<|mask_181|>": 185, "\u2581multiples": 44016, "\u2581inhabit": 19963, "Cas": 22975, "\u2581ninguna": 43092, "\u2581Lemma": 49104, "GHz": 39185, "\u2581Assurance": 56472, "\u2581distract": 17855, "\u2581wireless": 12587, "\u2581\u2581\u2581\u2581\u2581\u2581\u2581\u2581\u2581\u2581\u2581\u2581\u2581\u2581\u2581": 6552, "\u2581answered": 13310, "ASS": 9204, "Holiday": 60354, "\u2581easing": 40236, "<0xBA>": 1730, "\u2581Ash": 11374, "altern": 35728, "\u2581referring": 16754, "houses": 22567, "\u2581Time": 7056, "\u2581Religion": 33765, "\u2581Steam": 23291, "lose": 47229, "\u2581Willis": 43793, "\u2581illumination": 44573, "\u0627\u062f\u0631": 56126, "travel": 38094, "\u2581Rouge": 35270, "\u2581quintessential": 60271, "sr": 40604, "\u2581Standards": 24846, "FP": 13055, "azes": 57972, "fills": 60374, "user": 4771, "\u2581Fortnite": 44804, "tab": 13795, "must": 26700, "reiben": 60476, "logging": 26355, "rst": 57221, "<0xC8>": 1744, "\u05d5\u05e2": 16107, "\u2581terrestrial": 50084, "\u2581dif\u00edcil": 25124, "Contains": 33263, "\u2237": 63573, "\u2581[...]": 19687, "lys": 36176, "\u2581complete": 4304, "\u05d8\u05d9": 11538, "\u30fb": 63747, "\u2581rehabil": 45223, "\u2581encuentran": 40526, "authored": 56811, "\u2581Clara": 31320, "\u2581Cer": 22719, "ears": 7765, "Ram": 42199, "=\"'": 49883, "\u7b7e": 64143, "identifier": 26845, "\u2581enfermedad": 46409, "c\u00e9": 19395, "two": 14438, "inta": 16134, "\u00dc": 63225, "\u2581\u0627\u0644\u0645": 4831, "\u2581Martin": 8953, "\u2581Sup": 9527, "\u2581recip": 11801, "\u2581salon": 23006, "omen": 5424, "oustic": 54554, "\u2581HMS": 59733, "\u2581kiln": 62797, "\u2581lazy": 19947, "\u2581caption": 26540, "\u2581MIT": 20282, "\u2581forecasts": 29498, "Monitor": 30353, "\u2581Render": 47005, "<0xFE>": 1798, "\u2581comprised": 22419, "\u2581CITY": 41443, "Players": 38487, "async": 20522, "fusion": 42804, "\u2581sister": 8192, "\u6df1": 64660, "beck": 31531, "ucky": 10829, "soft": 5423, "\u2581Ferguson": 33435, "\u2581angi": 44684, "openh": 33563, "hound": 48654, "\u2581helps": 5562, "\u2581Achievement": 46578, "comes": 5074, "\u2581Lamb": 24999, "\u2581classique": 50061, "otid": 53639, "\u2581McCl": 38935, "\u2581kim": 47214, "lng": 49940, "\u2581una": 3246, "aha": 16088, "xe": 17652, "buy": 22255, "\u00fast": 34046, "\u2581compr": 7806, "igd": 41388, "Fresh": 32479, "\u2581objetivo": 17416, "\u2581Russell": 17432, "\u2581Fran\u00e7ais": 41464, "\u2581instrument": 9640, "iedad": 19431, "\u2581Problem": 23339, "apur": 41156, "\u2581surpr": 4945, "\u2581softness": 61721, "\u2581defender": 21862, "\u2581preval": 14362, "Enumer": 29050, "olly": 12963, "giving": 13514, "\u2581oportunidad": 35552, "\u2581latitude": 39997, "\u2581ami": 45407, "\u2581generosity": 34620, "uer": 5684, "Elizabeth": 46751, "\u2581\u0645\u0642": 53662, "\u2581ervaring": 50123, "\u2581Hybrid": 32062, "OrEmpty": 58618, "\u2581Cann": 16826, "\u2581Riot": 60205, "\u2581skyline": 53612, "\u2581erh": 48620, "\u2581favorite": 5222, "\u2581wart": 48680, "\u2581Updates": 32214, "ukary": 60575, "\u2581c": 1813, "\u2581doe": 57510, "\u2581Beef": 39826, "\u2581Command": 15957, "\u2581stuffed": 24020, "\u2581cases": 4458, "\u2581down": 2480, "Everyone": 20850, "POINT": 42882, "iversity": 3340, "\u2581cran": 32457, "\u2581Tx": 57355, "\u53ef": 63216, "ViewById": 35001, "\u2581Bild": 28575, "\u2581Taxi": 57514, "\u66f8": 64694, "POST": 16191, "\u2581interfaces": 23864, "\u2581articulated": 51174, "<|reserved_760|>": 1276, "\u2581Galile": 58852, "\u2581blaze": 49648, "\u2581Repeat": 37405, "\u2581kicking": 25057, "\u0930": 63484, "\u2581Crafts": 43437, "\u2581colspan": 43752, "\u2581sausage": 30642, "suite": 27417, "Been": 38983, "Include": 39654, "Kee": 47707, "\u2581Stamp": 39017, "\u2581Timothy": 30503, "\u2581understood": 10741, "Man": 5425, "\u2581componentes": 52890, "\u2581melt": 14907, "\u2581losses": 12146, "\u2581Compact": 39809, "\u2581provin": 15439, "dans": 55642, "\u2581viz": 37480, "iovascular": 19548, "\u2581helemaal": 52057, "\u2581\u00e9tud": 55086, "\u2581Flying": 35337, "Hur": 60134, "\u2581violent": 13927, "\u2581buffalo": 47934, "\u2581vere": 53495, "\u2581disclaimer": 35345, "Definitely": 61593, "\u2581unsus": 59827, "oys": 29567, "ZE": 13344, "\u2581successive": 31890, "ule": 3440, "wild": 39712, "\u2581punishing": 60362, "Civ": 61971, "UID": 17038, "\u2581peak": 11724, "\u2581unhealthy": 28340, "\u2581traveled": 19229, "ertes": 39528, "\u2581arises": 26514, "\u2581Reply": 31892, "\u30ec": 63719, "\u2581educators": 24866, "\u2581Lopez": 29519, "described": 48749, "istency": 57242, "\u2581performances": 12078, "\u2581Conte": 54246, "\u2581estudios": 37843, "\u2581Alcohol": 29826, "\u8d1f": 64623, "\u2581citoy": 51004, "\u2581plates": 15598, "\u2581Laura": 18292, "\u2581donner": 27638, "\u2581immunos": 54512, "Version": 10636, "\u2581retrieval": 39684, "]{": 17160, "\u2581painfully": 49845, "chez": 21115, "\u2581Is": 3078, "\u2581Interstate": 42344, "ATOR": 30541, "<|reserved_126|>": 642, "zo": 6632, "\u2581JS": 22961, "\u05db\u05d9\u05dd": 33506, "\u2581shrine": 50518, "\"--": 51590, "\u2581annuity": 62444, "\u2581How": 2876, "\u2581hypothetical": 43544, "\u2581Fue": 47060, "\u2581Cater": 41816, "pink": 56993, "ylan": 22462, "Level": 13046, "\u2581mec": 40415, "\u2581ceil": 33204, "\u0633\u0628\u0629": 36970, "\u2581harbor": 31459, "\u2581perpetr": 38237, "\u2581Dyson": 62801, "ency": 3075, "\u2581\u05e0\u05d9": 31342, "\u2581pia": 58789, "h\u00e9s": 36787, "\uc11d": 64934, "[];": 52124, "\u00edlias": 47098, "\u2581chem": 6076, "\u2581Cougars": 60387, "mov": 17829, "Fund": 27629, "\uc220": 65468, "otal": 7001, "\u2581definir": 50780, "\u2581NVIDIA": 45429, "igeria": 51514, "\u2581potty": 51518, "cult": 40184, "inders": 24037, "\u2581TEST": 39967, "\u2581Distance": 40985, "\u2581Fragment": 60129, "ginas": 28178, "\u2581outils": 44102, "-/": 60397, "Instructions": 48650, "\u2581marcado": 60790, "baum": 36463, "\u2581asympt": 35763, "ove": 2202, "\u2581Net": 5235, "\u2581\u00eatre": 9456, "\u2581watercolor": 52167, "\u2581systemic": 24396, "\u2581molest": 60519, "\u2581conversion": 12210, "\u2581host": 3985, "\u2581empath": 52135, "\u03b1": 63166, "\u2581Target": 17306, "\u2581constructed": 13410, "\u2581tribe": 24975, "sing": 10790, "\u2581Trophy": 35820, "\u8001": 64429, "\u2581firearms": 31388, "Nation": 49562, "Atlantic": 50354, "\u2581Instit": 17599, "\u2581wallet": 15915, "zu": 23981, "phabet": 23128, "\u2581obliv": 43578, "CT": 4918, "\u2581verse": 19466, "\u2581miR": 35434, "\u2581Kov": 59624, "\u2581Pol\u00edtica": 56914, "\u2581Geral": 43054, "\u2581Dartmouth": 59778, "utch": 10003, "\u2581(**": 24871, "\u2581Apr\u00e8s": 33730, "\u2581trailer": 13411, "Rest": 15400, "crypto": 40546, "\u2581voit": 47044, "\u2581armed": 15385, "ippers": 33451, "polit": 41573, "\u2581Mick": 33131, "\u2581permitted": 14962, "\u2581HK": 38253, "ethnic": 60288, "nasium": 51296, "\u2581Plat": 53838, "dd": 10116, "\u2581subsequent": 11735, "\u2581Pakistan": 10800, "\u2581Bret": 31833, "\u2581promov": 49002, "cology": 30203, "itle": 3495, "\u2581offering": 6456, "\u2581Minister": 7528, "\u2581mant": 10920, "consc": 13657, "pipeline": 34954, "aS": 36888, "Benefits": 50230, "ialis": 20993, "(\"\\": 25501, "\u2581inclui": 60185, "\u2581Bet": 7326, "Richard": 27497, "login": 15853, "\u2581sale": 5663, "\u2581relig": 5751, "\u2581downtime": 41929, "finally": 45525, "====================": 37571, "havior": 18622, "\u2581gums": 47531, "?:": 13532, "\u2581missed": 8948, "\u2581orth": 17097, "\u2581crisis": 8085, "\u2581Indust": 9057, "\u2581promo": 17707, "lectic": 37391, "\u2581C": 1880, "\u2581Julio": 43877, "\u2581diagnoses": 49314, "\u2581likewise": 12664, "\u2581Dove": 55500, "\u2581armies": 40577, "\u2581membre": 46816, "\u2581inspirations": 62719, "y": 62952, "\u2581leisurely": 55197, "swagger": 59828, "\u963b": 65193, "\u2581pond": 18784, "esterday": 7471, "<|mask_323|>": 327, "\u2581internally": 28019, "\u05d2\u05d9": 15089, "\u2581fract": 16742, "psilon": 21002, "rene": 21605, "\u2581Feb": 12847, "leston": 28670, "Many": 8912, "\u73b0": 63428, "\u2581erotic": 37734, "\u2581Packers": 35221, "buf": 11213, "\u2581trem": 11534, "complicated": 48181, "\u2581\u0628\u0643": 57603, "\u2581overheating": 60563, "\u2581Galway": 61286, "\u2581coincide": 41953, "\u2581Much": 14805, "Med": 12515, "\u2581\u062a": 4879, "\u2581accurately": 18054, "\u2581clase": 41562, "\u2581bowl": 9654, "bull": 33832, "\";\r": 32126, "\u2581incluindo": 44693, "\u2581receita": 57062, "\u2581enlightened": 51479, "\u2581Euros": 51572, "\u2581early": 3722, "izzie": 56391, "que": 2443, "\u2581creation": 8710, "\u2581promotional": 22867, "\u2581Australians": 38793, "\u2581musique": 32066, "\u96be": 64661, "isten": 23713, "\u2581pounding": 43062, "Bul": 38475, "peonato": 27623, "[*": 57943, "\u2581terceira": 58311, "===": 16935, "SUCCESS": 32318, "\u2581Alarm": 55578, "\u2581\"-": 23400, "\u2581java": 7235, "\u2581incredible": 9182, "\u2581promoted": 18040, "\u2581obtainable": 39708, "ansa": 55327, "Holder": 27632, "\u2581passive": 21600, "\u00e9t": 4680, "\u2581Cust": 50203, "\u2581courthouse": 53686, "\u062a": 63050, "\u2581pied": 20343, "thro": 34011, "\u2581discoveries": 32968, "\u2581genetics": 34633, "\u2581Darkness": 49790, "\u2581stroll": 28517, "\u2581BMI": 38589, "\u2581pesquisa": 31514, "oye": 60367, "\u2581owns": 17296, "\u2581notice": 5943, "icine": 37003, "Anchor": 40965, "\u2581Nell": 54375, "Highlights": 59223, "\u2581mayonnaise": 58630, "\u043d\u0443": 50363, "\u2581Fuk": 45503, "\u2581Full": 9928, "\u2581Heavy": 23745, "\u2581estrat\u00e9gia": 53146, "usr": 14744, "isseurs": 43096, "\u2581damn": 17962, "\u2581modelos": 29989, "usc": 17024, "\u2581Piazza": 56113, "Exception": 5700, "\u2581Wolf": 16564, "\u2581concor": 46075, "\u2581competed": 30023, "<|mask_174|>": 178, "<|mask_247|>": 251, "\u2581PID": 59758, "\u2581docs": 26384, "\u2581vers\u00e3o": 36256, "\u2200": 65049, "\u2581sizable": 49185, "\u2581distressed": 45072, "\u2581}\\": 55010, "nier": 59913, "\u2581suivre": 41511, "\u2581advers": 17233, "Quad": 57139, "\u2581scope": 10236, "react": 13456, "\u2581expl": 2918, "\u2581sm": 2447, "\u2581har": 6983, "arbeit": 40874, "\u2581eines": 27301, "\u2581memorable": 17585, "\u2581spinner": 51285, "\u2581Sinn": 62699, "agged": 32610, "\u2581Radi": 59156, "Orders": 50290, "insky": 37840, "\u2581Rovers": 60449, "\u2581Burnett": 59858, "eligible": 51208, "'<": 38483, "opolitan": 51443, "/*": 5063, "larg": 28044, "ats": 2936, "ystems": 28725, "\u2581Ofic": 41585, "LowerCase": 47598, "\u2581Dermat": 56522, "'>": 19988, "\u2581optional": 14548, "\u2581Palestinian": 22348, "\u2581cleanup": 29823, "\u2581Roofing": 61063, "\u2581Syria": 17480, "\u2581Woody": 47155, "\u2581chemistry": 18600, "\u2581Abbas": 50978, "\u2581visions": 34399, "\u2581Temperature": 39621, "\u2581lodge": 32177, "\u2581lick": 46926, "\u2581serviced": 45394, "\u2581handling": 11000, "\u2581Rut": 32175, "\u2581vid\u00e9o": 29527, "\u2015": 63472, "ovid": 10103, "\u2581rug": 13189, "\u2581confi": 56189, "Soc": 59394, "\u2581Possible": 38213, "itable": 5472, "\u2581R\u00e9publique": 48475, "\u62f7": 65528, "phys": 38174, "quad": 16374, "Fault": 61524, "udu": 62625, "UTO": 32048, "\u0631\u0646\u0627\u0645\u062c": 60748, "l\u00e0": 54018, "<|reserved_193|>": 709, "\u2581africa": 40141, "\u2581ferv": 41553, "lest": 20218, "encils": 36724, "\u2581noting": 19150, "isc": 4237, "\u2581Threat": 41324, "<|reserved_857|>": 1373, "ktur": 56075, "ULA": 55725, "lt": 3756, "\u0628\u064a": 11999, "raum": 57017, "\u2581strolling": 59976, "\u2581repl": 4103, "\u0259": 63738, "\u2581sneak": 27471, "\u7740": 64047, "How": 3663, "('./": 32910, "ind": 2033, "\u2581graphite": 58576, "\u2581Serge": 26848, "mis": 27899, "\u2581or": 1944, "\u2581relacionado": 61178, "ctor": 3167, "\u00eddu": 40958, "\u2581Coupons": 41578, "\u2581Fail": 52917, "\u2581providers": 8970, "\u2581correspondence": 26319, "\u2581surv": 5651, "\u2581reserv": 6736, "\u2581sle": 4339, "\u2581OFF": 24147, "\u2581Bryant": 31384, "\u2581glyph": 43618, "\u2581d\u00e9couverte": 55840, "<|reserved_1017|>": 1533, "\u2581finanz": 40634, "\u2581IgG": 46432, "\u2581liquidity": 30727, "<|reserved_322|>": 838, "\u2581deduction": 38474, "\u2581masculine": 40721, "\u2581GPIO": 53576, "\u2581emerging": 13259, "so": 2077, "\u2581Ach": 32850, "\u2581embora": 46224, "\u2581budgeting": 48943, "emaakt": 33189, "oup": 28932, "\u2581Ethics": 32518, "amphetamine": 62033, "\u2581\u05d4\u05e9": 13096, "\u2581oceans": 36226, "\u2581Sain": 40662, "\u2581\u0627\u0644\u062a\u0639": 43414, "\u2581denim": 37059, "lc": 33576, "WS": 12084, "\u2581succumb": 46146, "\u2581Chim": 52619, "\u2581teste": 52719, "<|mask_276|>": 280, "SS": 6292, "\u2581circum": 7345, "\u2581keeps": 9146, "\u2581rgba": 30975, "distributed": 46634, "\u2581lad": 9159, "\u2581Rodr\u00edguez": 46109, "ril": 12801, "Nom": 31196, "\u2581Maxwell": 39191, "\u2581Mk": 59951, "ment": 1966, "////////////////": 15688, "\u2581rubbing": 35486, "\u2581obstacles": 20407, "\u2581Anglican": 54070, "just": 4490, "Std": 46898, "alde": 39897, "\u2581Truman": 56596, "highlight": 35139, "qquad": 42193, "\u0438": 63110, "constraints": 57877, "trust": 39909, "igation": 6034, "\u2581embodiments": 55634, "ron": 3029, "compliance": 55194, "\u2265": 63361, "\u2581aplic": 13517, "\u270d": 65454, "LENGTH": 39885, "Sever": 20209, "Illuminate": 44806, "\u2581fun\u00e7\u00e3o": 40419, "\u2581territorial": 29762, "uka": 26298, "fel": 36808, "\u2581fork": 20834, "hos": 9349, "\u1ee9": 64600, "fter": 2228, "ih": 10333, "MORE": 51430, "\u2581Charts": 58886, "OnClickListener": 48367, "\u2581too": 2762, "\u2581pity": 34783, "iners": 52404, "-": 62960, "\u2581thinning": 58243, "\u062c\u0647": 30529, "\uff11": 65223, "\u2581parecer": 44443, "mental": 55040, "\u2581fragile": 26590, "ula\u00e7\u00e3o": 41815, "ception": 3640, "\u2581blues": 22202, "Redis": 54312, "olson": 54346, "nonce": 56079, "golang": 57922, "\u2581creative": 7258, "\u2581Olympus": 58488, "\u2581synchron": 18986, "\u2581mutations": 22847, "\u2581escap": 36085, "funnels": 23783, "\u2581alloy": 23355, "\u2581commentaires": 56308, "\u2581seja": 15532, "cul": 3716, "FO": 9681, "upon": 38572, "\u2581\u064a\u0648\u0645": 42314, "\u2581Drag": 22528, "\u2581famed": 36049, "\u7f57": 65426, "\u2581evalu": 5608, "\u2581aggreg": 13486, "ercase": 47798, "\u2581behaved": 54509, "\u2581quinta": 31533, "\u2581CONTRACT": 39972, "fg": 24379, "\u2581Cincinnati": 24571, "orescence": 57773, "aque": 12526, "cu": 13441, "\u2581Hoch": 38509, "\u2581horizont": 39218, "\u2581s\u00e9jour": 40746, "\u2581dood": 49984, "\u2581exchanges": 20313, "<|reserved_708|>": 1224, "\u2581shootout": 61541, "\u2581pedra": 61784, "\u2581k\u00f6n": 15115, "ortal": 27560, "Nin": 61601, "bod": 30130, "assy": 20348, "\u2581canonical": 42859, "<|reserved_882|>": 1398, "\u2581spear": 33133, "\u2581recurring": 28656, "Thought": 49407, "\u2581antimicrobial": 46795, "\u2581shielding": 61471, "\u2581Clube": 60149, "Yes": 7828, "\u2581IPL": 42247, "enta": 9813, "Most": 8994, "bonus": 59734, "plic": 3813, "\u2581Gilles": 49971, "ENCY": 51336, "\u2581municipal": 14375, "\u2581tasks": 8813, "IBLE": 33793, "\u2581abandon": 10523, "idious": 60211, "\u2581embarrass": 15443, "\u2581advocated": 45122, "Volume": 26458, "ots": 3271, "versed": 57025, "<|mask_220|>": 224, "\u2581stre": 8035, "<|reserved_906|>": 1422, "\u2581Cbd": 24131, "\u2581SA": 14620, "demand": 27994, "ritu": 58502, "xmlns": 58508, "\u2581Deco": 61741, "ffee": 6516, "\u2581suited": 18319, "\u2581incorrectly": 35639, "\u2581determinants": 54334, "FA": 7124, "rai": 40049, "\u2581bead": 40716, "\u2581Johnston": 42270, "opatra": 62865, "\u2581says": 3419, "CLASS": 33696, "\u2581Sixth": 43296, "PRINT": 48735, "Half": 39451, "\u2581breve": 34061, "partner": 41751, "\u2581gifts": 11812, "\u2581essays": 17770, "\u2581recognized": 9399, "\u2581reading": 4689, "andro": 23720, "\u2581vid\u00e9os": 49525, "\u2581aliens": 32928, "\u4e09": 63860, "\u5341": 64414, "^)": 41971, "\u2581Lawyers": 39656, "\u2581normal": 4904, "illo": 12033, "\u2581pok": 28435, "tem": 16230, "\u2581Arrest": 60967, "\u2581Firm": 25129, "\u2581ESP": 16970, "\u2581simplified": 29739, "Documents": 42124, "\u2581pert": 16000, "\u2581plated": 47932, "vano": 54307, "\u2581puesto": 32408, "ione": 4434, "\u2581bands": 13000, "\u2581insignificant": 44750, "\u2581intox": 39924, "<|reserved_927|>": 1443, "\u2581Frozen": 43637, "\u2581lips": 14642, "\u2581vivre": 36690, "\u2581rag": 20411, "aa": 11127, "Distribution": 43132, "\u2581Many": 6276, "\u2581Nasdaq": 48116, "ango": 11907, "\u2581Zealand": 11176, "\u2581Suit": 50174, "\u2581Nina": 36698, "\u2581Landing": 41741, ">>>": 21930, "\u2581Jessica": 21491, "\u2581priests": 29545, "\u2581foreseeable": 45450, "\u2581grasses": 49842, "\u2581Torn": 52304, "\u2581BAD": 59757, "\u05e8\u05e5": 46318, "\u2581Professional": 15078, "letters": 29569, "iedereen": 52357, "\u2581UFC": 26627, "\u2581teen": 8678, "Gun": 55943, "\u2581Patrol": 35029, "\u2581emphasis": 15249, "\u6563": 65120, "lement": 3827, "rentes": 11216, "ommod": 33929, "\u2581risult": 39829, "orer": 12510, "\u2581rif": 16769, "story": 18711, "\u2581Extra": 21972, "\u2581Vie": 31797, "transition": 32206, "\u2581r\u00e9gul": 37959, "\u00e3es": 42347, "\u2581Gos": 40908, "\u00eatements": 47774, "\u2581Shower": 50394, "\u2581Mondays": 51010, "\u017c": 63444, "\u2581lembr": 37308, "\u2581relieved": 29641, "\u2581NY": 9023, "\u2581Pierce": 35791, "\u2581mother": 4673, "\u2581nut": 5763, "\u2581Confeder": 28124, "\u2581insertion": 36967, "\u2581caret": 45548, "COUNT": 31724, "\u2581Ish": 35625, "\u05d9\u05ea\u05d9": 46320, "\u00edduos": 54314, "empre": 14936, "ixa": 20303, "\u2581buff": 8735, "ffield": 31888, "\u2581discord": 40110, "Dimensions": 45800, "Dallas": 61419, "\u2581pr\u00e1ct": 31502, "\u2581Jack": 5901, "\u2581\u0627\u0644\u064a": 24077, "\u2581Bog": 27536, "\u2581Janet": 32787, "urso": 44636, "\u05d0\u05d4": 24138, "\u2581caramel": 27039, "\u2581propios": 58623, "\u2501": 64135, "\u2581widespread": 16643, "inger": 6086, "\u2581Tracy": 35086, "\u2581Attach": 59529, "\u2581particle": 19747, "\u2581lease": 16159, "\u2581Dell": 25138, "\u2581catchy": 43349, "\u2581adm": 5653, "\u2581LET": 56158, "\u2581Tennis": 32658, "Redirect": 42942, "ymes": 20326, "\u2581embodied": 46256, "\u2581fumes": 60154, "\u062d\u0648": 60111, "\u2581Essential": 34685, "\u2581cloves": 45718, "\u2581exclus": 11123, "\u2581Soul": 22162, "\u2581Mau": 27058, "\u2581Baylor": 50478, "\u2581Meal": 52500, "\u2581Enterprise": 19718, "\u2581Craig": 20031, "\u2581Brandon": 24449, "Linked": 29796, "\u2581accent": 19726, "\u2581Jay": 14019, "\u2581fert": 12565, "xc": 21592, "\u2581HAVE": 25240, "\u2581\u05d1\u05dc": 61182, "appel": 52935, "issage": 46139, "\u2581conditioned": 41895, "\u2581questions": 4179, "\u2581foreground": 44795, "\u2581rebellious": 62621, "uste": 62221, "\u2581affiliated": 25009, "\u2581investigations": 19900, "\u2581themes": 13339, "\u2581looked": 5195, "\u2581tracking": 11823, "\u2581bracelet": 30520, "<|reserved_356|>": 872, "\u2581character": 3984, "Kn": 31691, "/${": 42659, "shan": 55948, "\u2581``": 13209, "<|reserved_381|>": 897, "GPIO": 44619, "\u2581missionaries": 45627, "itian": 51537, "\u2581measurement": 13664, "\u2581Straw": 36872, "\u2581textiles": 42086, "\u2581Basil": 36603, "\u2581defini": 48761, "\u2581fight": 5025, "avit": 33525, "\u2581imminent": 36283, "\u2581Came": 52587, "\u2581je": 3765, "\u2581intel": 10279, "\u2581Places": 31539, "\u2581corrobor": 49152, "\u2581Supreme": 11130, "Bey": 31669, "\u2581\u0434\u043e": 47710, "\u2581never": 2969, "\u2581?": 5936, "PAT": 49383, "\u2581immer": 20908, "\u2581alerts": 24899, "\u2581Text": 11421, "\u2581unrest": 39251, "Configure": 47891, "ingham": 15289, "\u2581haha": 35348, "\u2581patients": 4216, "\u2581clientele": 48883, "\u2581attr": 31749, "\u2581Bermuda": 51149, "Sharp": 40358, "\u2581outrageous": 38357, "\u2581inhabitants": 24134, "\u2581scandal": 23166, "<|reserved_364|>": 880, "MED": 33083, "argv": 30563, "\u2581scrat": 27516, "\u2581mileage": 32493, "\u2581Ket": 42230, "\u4f18": 64085, "oder": 11448, "\u2581Lang": 18176, "\u2581Books": 14441, "\u2581Connection": 24869, "\u2581advanced": 7613, "\u2581TAG": 53519, "<|reserved_280|>": 796, "\u2581values": 5087, "\u2581Geneva": 30527, "esser": 33562, "\u64cd": 63659, "hya": 53690, "l": 62943, "\u2581pork": 18992, "\u2581banging": 58572, "\u2581Timeline": 62649, "\u2581reply": 13172, "\u2581reproduction": 26708, "\u2581tightly": 23390, "Individuals": 61334, "chers": 6906, "\u2581wines": 19851, "\u2581migrants": 28780, "\u2581trainings": 52266, "\u2581nutshell": 51234, "\u2581ox": 11107, "\u2581tackles": 29372, "\u2581pol\u00edcia": 53895, "\u2581!==": 18612, "Group": 8611, "<|mask_256|>": 260, "\u70b9": 63385, "eterm": 24736, "\u2581fruity": 45261, "\u2581charming": 19529, "\u2581Barker": 50861, "arella": 36865, "\u2581parti": 36548, "\u2581nationwide": 17621, "angular": 15220, "brae": 62115, "\u2581Container": 30825, "secured": 41248, "coast": 62225, "\u2581~": 9097, "\u2581bij": 8840, "ionic": 35144, "\u00dfen": 20517, "\u2581sandstone": 62530, "PH": 14753, "\u0627\u0646\u0628": 59700, "\u2581EOS": 50027, "<|mask_392|>": 396, "\u2581chin": 25889, "ifter": 42662, "=\u2009": 25490, "\u2581Tibetan": 47536, "\ub9b0": 65532, "\u2581rights": 5253, "\u2581principaux": 58314, "\u2581bien": 6412, ")\r": 6454, "SYSTEM": 58697, "<|reserved_504|>": 1020, "\u2581podr": 17116, "ymar": 54171, "\u2581terrific": 20598, "\u4f60": 63430, "\u2581Logan": 26663, "\u2581semen": 60061, "package": 6463, "\u2581iterations": 41567, "\u2581industri": 30566, "\u2581Chick": 42033, "\u2581respectfully": 61074, "\u2581prohibit": 36447, "\u2581monies": 62477, "eted": 19297, "rait": 9977, "\u2581democracy": 15968, "\u2581Hutch": 42287, "inter": 4314, "\u2581conferen": 35354, "\u2581biodiversity": 34077, "\u2581Colts": 43017, "izia": 32207, "\u2581satire": 55609, "\u2581scratching": 40513, "<|reserved_595|>": 1111, "<|mask_129|>": 133, "\u2581broadcasts": 44187, "\u2581Scr": 45847, "\u2581Gro": 11905, "\u2581starting": 5258, "\u2581pulled": 9162, "\u05d0\u05dc\u05d9": 51735, "\u2581chefs": 28197, "Views": 40709, "\u2581compa\u00f1eros": 60460, "\u2581Crab": 60021, "rification": 61860, "\u2581Martial": 57125, "\u09cd": 64398, "\u2581Ange": 47305, "\u2581Odds": 51456, "believe": 55131, "\u2581Angry": 59633, "\u2581gris": 45901, "\u2581Gear": 26597, "ux": 2981, "uo": 26808, "prem": 30432, "Case": 12553, "\u2581Series": 8844, "\u2581\u00f3pt": 57724, "\u2581XL": 26933, "----": 2301, "BAS": 47721, "\u2581varieties": 17638, "\u2581singular": 22230, "\u062f\u0645\u0627\u062a": 58031, "\u2581Kensington": 61597, "\u2581crowd": 9733, "<|PRE|>": 1540, "utive": 5682, "\u2581marketplace": 16383, "\u2581tissues": 18036, "\u2581Cancel": 45756, "\\<\u2009": 48567, "<|reserved_424|>": 940, "aternion": 57438, "\u4f9d": 64290, "<|mask_211|>": 215, "\u0644\u0649": 6446, "need": 27789, "\u2581metic": 33181, "documentation": 38537, "\u2581pee": 39127, "\u2581scand": 43141, "ueless": 48533, "\u2581p\u00f3s": 55445, "<|reserved_849|>": 1365, "\u2581Angola": 49588, "\u2581Mom": 11647, "\ud589": 64082, "needed": 28966, "\u2581Station": 12813, "\u2581superv": 35351, "autor": 43535, "Prince": 47172, "\u2581Crimson": 51981, "\u2581Them": 36762, "China": 17288, "\u2581Brazilian": 22319, "terbury": 44232, "\u2581finalists": 42310, "wegian": 25445, "\u2581gender": 10078, "\u2581Terror": 32038, "\u2581murders": 35209, "\u2581fluid": 12315, "\u2581d\u00favidas": 50547, "\u2581parallels": 48514, "\u2581feeds": 24176, "\u2581SEE": 50852, "\u2581drag": 10065, "\u2581berry": 46223, "\u9806": 65508, "\u2581pursued": 30691, "\u2581systems": 4613, "\u2581cataly": 32613, "\u2581drown": 25088, "\u7a7a": 63660, "PASSWORD": 26382, "\u2581giro": 61195, "\u2581murder": 10358, "\u2581peque\u00f1o": 38301, "\u2581\u0645\u062d": 20433, "\u2581Memory": 21242, "\u2581Collections": 39494, "\u2581tease": 48063, "\u2581Outdoors": 62280, "radius": 21022, "\u2581joy": 8475, "\u2581Issue": 23353, "\u2581prest": 10808, "orse": 13394, "branch": 28080, "\u2581sculpt": 14290, "\u2581\u05d2\u05e8": 62188, "Lambda": 27502, "\u2581dreaming": 31387, "\u2581excessively": 49169, "\u2581cooks": 38088, "\u2581empr": 50474, "bad": 13154, "<|reserved_96|>": 612, "\u2581harmon": 22908, "\u2581arra": 62549, "\u2581substit": 23274, "\u2581fixtures": 27518, "\u2581reorganization": 62623, "\u2581duck": 22410, "\u2581\u05e2\u05d3": 33045, "\u2581im": 2066, "signature": 31285, "\u2581aut": 2546, "<|reserved_31|>": 547, "course": 16499, "<|reserved_210|>": 726, "raulic": 22985, "\u2581fleurs": 57059, "ECA": 53053, "\u2581MORE": 22031, "urgical": 31022, "\u2581alone": 5687, "\u2581Vide": 57427, "\u2581Battalion": 45734, "\u8ddd": 64938, "\u2581managing": 10938, "\u76f8": 63539, "\u2581laten": 36353, "\u2581evolves": 53736, "\u2581Queen": 11230, "\u2581admon": 58513, "dt": 13243, "\u773c": 65466, "</tool_calls>": 533, "details": 20271, "\u2581buyers": 12748, "\u2581earthquake": 23977, "\u2581endothelial": 41213, "KK": 39722, "\u2581veh\u00edculo": 56121, "\u2581ancien": 51372, "\u2581Pict": 14339, "former": 19693, "\u2581Waterloo": 49415, "\u2581muzie": 60616, "\u2581Dominican": 33592, "update": 9504, "position": 6831, "\u2581Bra": 10787, "\u2581Directory": 25836, "\u2581sci": 28396, "\u2581reef": 30299, "\u2581antennas": 57215, "\u0686": 64808, "\u2581discloses": 47394, "\u2581professional": 4736, "ESP": 45341, "\u2581recruited": 28500, "ardless": 17544, "\u2581buf": 27476, "\u2581teleport": 60166, "\u2581evolution": 11043, "\u2581Sidd": 58450, "\u2581photos": 5681, "Plus": 17333, "Bonjour": 46944, "\u2581prosecution": 24251, "<|mask_248|>": 252, "\u2581reaching": 11859, "\u2581beloved": 15745, "\u2581afterwards": 18097, "<0x0B>": 1555, "\u2581floats": 45246, "ructure": 6941, "\u2581f": 1822, "ZZ": 37684, "\u2581retaliation": 49592, "COVID": 28883, "\u2581LAW": 59877, "\u2581Brew": 17512, "\u2581IMD": 58475, "odyn": 33043, "\u2581Benedict": 35972, "\u2581purport": 36653, "\u2581Spotify": 28372, "\u2581Header": 40848, "\u2581infatti": 47050, "\u2581poorest": 48260, "\u2581dig": 3889, "\u2581permissible": 52067, "\u2581Burning": 47390, "\u2581anti": 6045, "\u2581Bov": 52347, "invalid": 27579, "CDC": 42226, "\u2581das": 4586, "\u2581Beaut": 13726, "EU": 24210, "\u2581concreto": 53990, "<|mask_252|>": 256, "<|reserved_163|>": 679, "\u2581scenic": 28940, "istor": 29836, "idy": 17550, "\u2581ausp": 48450, "\u2581esclare": 54410, "id\u00eancia": 44555, "cid": 42986, "\u2581sugars": 38090, "\u2581resonates": 58628, "\u2581precautions": 31362, "<|reserved_71|>": 587, "rador": 43500, "\u2581clashes": 47500, "dismiss": 50616, "\u2581Andersen": 61104, "ecake": 42284, "\u2581petition": 12773, "letes": 35757, "arb": 35814, "allow": 16163, "\u2581New": 2732, "reso": 25128, "perties": 10137, "\u2581conclusions": 20550, "\u2581Gins": 58062, "\u2581Students": 13523, "dependencies": 34966, "\u2581centrale": 45173, "\u010d": 63249, "\u2581vraag": 51225, "\u629e": 65186, "igans": 51244, "director": 40849, "]\\]": 7147, "\u2581backlinks": 55001, "\u2581industries": 11716, "\u2581Admir": 36941, "elle": 5066, "eus": 48091, "\u4fbf": 64328, "\u2581\u05db\u05ea": 49849, "\u2581overse": 13689, "rabbit": 59796, "\u2581province": 14281, "\u2581comprar": 21028, "ble": 2398, "\u2581Healthcare": 24677, "\u2581settembre": 61267, "\u2581\u00b0": 18729, "<|reserved_444|>": 960, "\u2581Buffalo": 21327, "\u2581postpon": 27861, "\u2581autoimmune": 43181, "\u2581esport": 49091, "bau": 36213, "\u2581Unfortunately": 11536, "\u53f8": 64253, "Regarding": 42341, "htra": 33982, "<|reserved_343|>": 859, "National": 21410, "\u2581\u00e9tudi": 40847, "\u2581evolved": 18414, "denly": 27286, "\u2581v\u00eddeos": 37069, "\u2581\u05dc\u05e2": 17353, "outh": 3149, "\u2581congregation": 30087, "leness": 37164, "<|reserved_291|>": 807, "Zone": 26522, "\u2581grinder": 32221, "\u2581Bubble": 51466, "\u2581aktu": 57234, "<|mask_419|>": 423, "\u2581MySQL": 29121, "\u2581resum": 26852, "\u2581zod": 29265, "alsa": 25766, "\u2581Frontier": 41369, "\u2581Attend": 60661, "\u2581Kab": 32298, "\u2581Redskins": 51473, "eten": 28073, "\u2581blocker": 61064, "\u2581activists": 20481, "\u2581thromb": 45222, "\u2581replacements": 42271, "essages": 18948, "\u2581Rolls": 44328, "\u2581say": 2737, "\u2581cs": 31881, "\u2581Depression": 30456, "\u2581insects": 23030, "\u2581Bast": 30628, "\u2581laugh": 8132, "\u2581maio": 35269, "ather": 2655, "\u2581Mill": 9958, "\u2581Electronics": 29572, "\u2581hierarch": 37180, "ionar": 47568, "hier": 54748, "\u2581rocker": 55932, "\u2581distributor": 31720, "rection": 15264, "\u2581Ironically": 62254, "\u2581perme": 29114, "erts": 9049, "\u2581Cristo": 37568, "\u2581quark": 62868, "\u2581conduit": 43038, "ulet": 61213, "\u2581Baker": 19678, "ocese": 30284, "bris": 18958, "culture": 34889, "\u2581Areas": 40664, "irection": 13464, "\u2581Biological": 46978, "ient\u00f4t": 54245, "iver": 3402, "link": 6088, "\u2581crashed": 26447, "\u2581ADA": 48525, "\u2581key": 3498, "\u2581brand": 4612, "\u2581slippery": 40954, "\u2581WAR": 11662, "\u2581Creative": 18828, "\u2581brackets": 33601, "irties": 62551, "BP": 19922, "\u2581Secretary": 11344, "\u2581CON": 7454, "iper": 15021, "\u5c01": 64744, "\u2581bo": 2607, "ef": 2506, "\u2581Times": 8383, "\u2581larg": 3840, "\u2581ISO": 18855, "\u2581titanium": 41152, "igon": 56777, "archar": 28002, "<0x4F>": 1623, "\u2581MGM": 56799, "\u2581kernel": 19406, "\u2581taxable": 44173, "\u2581customized": 18727, "\u2581surrender": 28528, "works": 6249, "<|reserved_408|>": 924, "apr\u00e8s": 39355, "\u2581Reflect": 48762, "\u2581persists": 47660, "uola": 52295, "\u2581comp": 2054, "\u2581Lew": 12375, "\u2581maiden": 43125, "\u2581led": 5239, "\u8d44": 63882, "\u2581pag": 10696, "\u2581Learn": 12246, "-----": 20208, "iges": 35024, "\u2581included": 4722, "\u2581Lebens": 45202, "lust": 49623, "pid": 24196, "\u2581volont\u00e9": 61066, "\u2581Values": 35497, "\u2581duties": 14429, "\u2581advantageous": 40115, "\u2581spas": 46452, "\u3055": 63477, "\u305a": 64828, "\u2581Remember": 13852, "wered": 11833, "\u2581VAT": 33141, "\"})": 11073, "\u2581ocular": 58568, "\u2581Ok": 8553, "\u2581Ethical": 60104, "append": 9155, "\u0644\u0641": 23210, "aaa": 51405, "France": 29110, "ftime": 33376, "\u2581\u0628\u0627": 34957, "traits": 59797, "\u2581acceptance": 16480, "urban": 36650, "\u2581snowfall": 62104, "Liter": 52850, "<|reserved_344|>": 860, "\u2581schizophrenia": 43321, "ercio": 36023, "oldt": 61673, "\u00facar": 42397, "\u2581Garcia": 26812, "qp": 61009, "Germ": 30841, "Something": 24748, "\u05d9\u05e6": 34994, "\u2581{:": 43910, "\u2581liked": 9370, "deres": 50450, "ano": 4497, "Joy": 44469, "\u2581Christmas": 6129, "\u201e": 63191, "ittance": 53888, "\u2581midnight": 20931, "\u2581dazzling": 43583, "\u2581conjunction": 20763, "\u2581poetic": 37814, "icon": 5250, "\u2581scala": 46804, "\u2581Utah": 16583, "\u2581Newsletter": 36398, "\u2581zip": 17069, "\u2581Defendants": 38815, "keleton": 54857, "Verd": 62458, "\u05e7\u05e8": 19066, "\u2581Consequently": 25494, "\u2581kilometers": 26169, "\u2581tofu": 42019, "\u2581compre": 7431, "\u2581Sure": 14395, "endor": 17503, "ceso": 53978, "filters": 35343, "aise": 35481, "\u2581fort": 7415, "\u2581Amanda": 25153, "\u2581Olivier": 49201, "atoire": 30748, "\u2581desk": 8147, "\u2581Lambda": 59888, "\u63a2": 65088, "\u2581complemented": 52012, "column": 11519, "\u2581provocative": 47207, "enos": 15739, "\u2581wholesalers": 61725, "Dump": 46204, "\u2581ct": 52685, "atz": 13384, "It": 2656, "Madison": 59853, "\u2581affectionate": 61968, "\u2581Avenida": 54453, "\u2581Identity": 32000, "\u2581Gardner": 40734, "\u2581voix": 42442, "\u2581embarrassed": 30449, "\u2581resize": 44060, "\u2581accumulated": 26988, "\u2581tolerate": 32068, "\u2581zitten": 58771, "lee": 12606, "\u2581aud": 4053, "\u2581absentee": 57748, "Pad": 26374, "\u2581comparatively": 41010, "eners": 32533, "Pok": 52765, "igh": 2275, "mission": 6668, "\u10d0": 64426, "\u2581principles": 10916, "<|mask_10|>": 14, "\u2581Sevent": 52001, "\u2581Britann": 59833, "wheel": 22989, "\u2581Rental": 31927, "\u2581infantil": 41692, "commands": 33325, "+'": 34516, "geoning": 56240, "\u2581enables": 11619, "\u2581conseguir": 24961, "Just": 7633, "\u2581\u0639\u0644\u064a": 23666, "keiten": 35447, "\u2581manipulating": 48991, "<|mask_176|>": 180, "\u2581occasional": 19273, "amless": 43086, "\u2581ihn": 42248, "oitation": 51230, "\u2581Seven": 21165, "\u2581capabilities": 11414, "\u2581Wend": 25456, "\u2581breastfeeding": 38861, "\u2581Bolsonaro": 45136, "ince": 2594, "rosis": 26909, "\u2581detailing": 30631, "ARS": 18146, "\u2581Auss": 31043, "aye": 31201, "\u2581semicon": 26329, "\u2581Chester": 31868, "\u2581inconsist": 39229, "\u2581distort": 50279, "\u2581oasis": 51393, "<|reserved_297|>": 813, "\u2581cars": 7199, "thumbnail": 58599, "\u2581Ephes": 60811, "\u2581vitamins": 21207, "\u2581vu": 17553, "\u2581swear": 28975, "\u2581ambassadors": 56176, "\u2581growers": 40047, "Auf": 55323, "\u2581Brave": 52620, "\u2581daughter": 6607, "\u2581continuously": 17383, "period": 26060, "Names": 14119, "\u2581function": 3093, "\u2581reference": 7070, "ede": 8748, "\u2581calendar": 12676, "\u2581flexible": 11078, "\u20e3": 65309, "\u2581T": 1862, "Serve": 44949, "ulative": 19460, "\u52d9": 65182, "When": 3921, "\u2581Spe": 7667, "Senator": 52030, "\u2581tecnolog": 40917, "\u2581adrenal": 54326, "APA": 55638, "\u2581latest": 4994, "atonin": 60208, "req": 12201, "\u2581shoved": 49933, "\u2581interceptions": 50875, "\u2581torn": 10309, "\u2581Ai": 46000, "\u2581eats": 32348, "\u2581\u0645\u062c\u0645\u0648\u0639\u0629": 61199, "\u2581producer": 12504, "\u2581installments": 57566, "=\"../../": 19085, "\u2581Slim": 33900, "\u2581Continue": 17065, "\u2581newspaper": 12671, "\u2581rigid": 24420, "\u2581fortress": 48496, "\u2581disaster": 13917, "\u2581Imper": 21055, "pag": 30255, "tier": 33717, "owned": 15352, "personal": 23401, "\u2581consequently": 27149, "\u2581mei": 60175, "charges": 44100, "<|reserved_352|>": 868, "\u2581famili": 37301, "ClassName": 42167, "oppers": 62668, "\u2581ambientes": 53297, "\u260f": 64551, "\u2581tener": 14903, "\u2581cn": 55296, "\u2581controlling": 17392, "word": 4215, "WIDTH": 56078, "`)": 22422, "\u2581Inform": 24964, "essential": 32410, "cig": 41622, "\u2581tested": 8539, "\\*": 17054, "\u2581attra": 36495, "\u2581redirected": 50105, "\u2581Pure": 23183, "\u2581efect": 19868, "\u2581watch": 3995, "<|reserved_428|>": 944, "western": 18916, "\u2581mogelijk": 26244, "\u2581Therm": 53887, "{}": 6570, "DT": 23465, "\u2581obviously": 9786, "\u2581bast": 14850, "ONT": 22080, "\u2581Schul": 36452, "\u2581NDP": 61942, "\u2581homeowners": 20744, "ished": 2968, "sec": 4460, "\u2581Baseball": 24371, "\u2581pared": 33528, "\u2581Bonnie": 43261, "\u5174": 65243, "Require": 32203, "accia": 50738, "\u2581stret": 8072, "ellen": 11706, "\u2581encont": 17685, "leen": 21301, "\u2581Duration": 35695, "l\u00e9": 29348, "\u2581normally": 9289, "kele": 40617, "\u2581arrow": 21497, "\u2581outages": 56471, "\u2581technologically": 61303, "\u2581cancelled": 21323, "\u2581Deadline": 55023, "\u2581accusing": 44076, "\u2581marketers": 26297, "PUT": 21612, "\u2581infections": 14147, "\u2581Geb": 30143, "\u2581adherence": 37524, "--------------------": 42447, "il\u00e0": 38924, "\u2581Kraft": 43790, "\u2581samsung": 62565, "\u2581Hunts": 54060, "\u203b": 64659, "\u2581pp": 14431, "\u2581confiance": 40728, "putation": 50545, "\u2581Leaves": 53819, "\u2581m\u00fasica": 19523, "\u2581Find": 8545, "Fact": 25818, "\u2581By": 4444, "<|reserved_368|>": 884, "\u2581Sum": 7368, "SUP": 32861, "atorial": 30895, "\u2581playful": 32595, "\u2581Calgary": 28862, "\u2581fre": 7026, "locations": 50212, "getting": 35514, "Usually": 39993, "\u2581instincts": 40181, "\u2581Spray": 42536, "\u2581At": 3386, "Enjoy": 25341, "\u2581succinct": 57591, "\u2581mam": 29976, "\u2581unse": 16061, "\u2581HAND": 59631, "\u2581lit": 7790, "exp": 8063, "UTC": 27730, "\u2581candidatos": 43733, "izada": 17766, "\u2581domestic": 9623, "\u2581Seguran\u00e7a": 62317, "Through": 15630, "HEADER": 50310, "\u2581Peace": 17096, "\u2581PNG": 38900, "Forward": 36131, "\u2581Holdings": 31066, "\u2581tiro": 51437, "\u2581Chop": 37016, "misc": 55328, "\u2581wholesome": 41212, "solving": 47494, "<|reserved_581|>": 1097, "\u2581mond": 23951, "\u2581ideological": 37443, "snapshot": 51499, "\u2581Problems": 34610, "segment": 34746, "\u2581sidewalk": 34367, "roid": 4266, "\u2581Kai": 39645, "leine": 51293, "prefix": 20235, "\u2581beg": 6331, "\u2581Mechan": 23055, "headed": 26811, "CES": 48928, "')).": 54024, "\u2581Pandemic": 58520, "\u2581\u00f3tima": 61059, "\u6bcf": 63662, "shape": 15570, "tm": 27381, "\u2581Dest": 16207, "\u2581Chances": 57559, "afety": 30036, "\ud83c\udf89": 64704, "\u2581headache": 25329, "\u2581Jenn": 13901, "CMAKE": 61448, "\u2581absorbed": 24929, "\u2581beneficiary": 41581, "theta": 15583, "\u2581Wall": 8549, "<|mask_463|>": 467, "\u2581escenario": 56095, "<|reserved_974|>": 1490, "\u2581Eur": 43823, "\u2581Venez": 18844, "\u2581principal": 8260, "\u2581salud": 22158, "\u2581telef": 24412, "uelles": 38064, "\u2581lads": 56828, "\u2581Frequently": 58026, "generator": 31209, "ijen": 55236, "\u2581snipp": 28407, "\u2581deu": 31808, "\u2581Tah": 29018, "\"+": 39428, "Segundo": 36318, "quiry": 30949, "\u2581Hicks": 46786, "Bub": 60398, "\u0430\u043d": 53324, "\u2581defect": 13222, "\u2581ganhou": 58266, "\u2581merchand": 17209, "\u2581falle": 50764, "\u2581Leone": 47310, "\u2581negotiated": 35477, "cons": 7268, "\u2581claw": 41658, "\u2581Rep": 4440, "\u2581sopr": 35773, "\u2581upp": 40932, "DM": 20315, "jj": 45645, "\u2581laboratories": 38120, "\u2581/": 2956, "\u7406": 63313, "affle": 35666, "inks": 4348, "\u2581gratitude": 21722, "holes": 40544, "\u2581traitement": 35421, "NIC": 60079, "\u2581Lotus": 41149, "\u2581Michaels": 60765, "coln": 14621, "\u4fee": 63642, "normal": 11205, "\u2581discourse": 28485, "\u2581DH": 26346, "\u2581servers": 12809, "\u2581sway": 31507, "\u2581twenty": 10213, "ampton": 25998, "\u2581bik": 29010, "scode": 50856, "\u2581l\u00e9g\u00e8re": 51546, "\u2581travaill": 56916, "Images": 31319, "\u2581antiques": 60189, "\u2581opini": 43738, "\u2581Binding": 51324, "\u2581Vul": 33795, "prov": 10981, "\u2581counts": 14609, "\u2581Houses": 40600, "utsch": 61916, "kk": 24503, "\u2581Internacional": 28637, "\u2581switches": 24651, "onders": 34824, "\u2581Pratt": 51875, "uit": 4732, "\u2581snows": 61496, ")&": 46597, "\u2581Hemingway": 61369, "\u2581lock": 6362, "\u2581immense": 22983, "\u2581Comput": 11247, "\u2581auton": 60847, "\u2581stopping": 15838, "\u2581Sik": 50404, "ULAR": 22553, "\u00e1ri": 8179, "checks": 39392, "ienna": 24338, "\u2581goddess": 34554, "\u2581cree": 44512, "\u2581Goldman": 36185, "igg": 23305, "\u2581supplement": 10220, "\u2581excerpt": 37913, "\u2581confidently": 42743, "\u2581multic": 28145, "\u2581movimiento": 43848, "\u2581Chip": 27357, "\u2581Serbia": 38379, "\u2581Bears": 26283, "vi": 5789, "\u2581Barney": 59597, "\u2581Jorn": 45595, "iton": 39023, "\u2581electroph": 49075, "\u2581Dame": 26294, "\u2581wagon": 37808, "Kenn": 56046, "\u2581immature": 48698, "ua\u00e7\u00e3o": 56483, "\u2581diffic": 4028, "Builder": 9885, "\u2581earnings": 12517, "urs": 2779, "\u2581semaine": 27311, "growth": 32969, "\u2581Sharma": 37079, "HANDLE": 56334, "\u2581Stella": 39751, "\u2581indefinitely": 42722, "\u2581Richt": 56288, "\u2581guarante": 6969, "\u2581fist": 28544, "<|mask_466|>": 470, "wyn": 33791, "ieties": 56035, "\u2581thrill": 28207, "anguage": 4335, "\u2581usada": 58516, "\u2581proxy": 19352, "\u2581Lite": 29683, "\u2581Born": 24742, "\u2581felic": 43661, "\u2581Securities": 25642, "onic": 10445, "oodles": 52182, "bought": 54877, "\u2581rejection": 24523, "\u2581march": 11425, "ypes": 8491, "\u2581dictated": 53319, "agency": 53916, "STEM": 30508, "\ub984": 64854, "\u2581Mamm": 55473, "arily": 5439, "CHECK": 26678, "<0x38>": 1600, "\u2581prioritize": 34714, "\u2581Minimum": 37953, "}=": 22697, "\u2581??": 16677, "lehem": 50170, "\u2581wore": 16845, "\u2581Vice": 13843, "LI": 16020, "\u2581punitive": 50357, "\u2581strategies": 8305, "\u0638\u0645": 51915, "\u2581synagogue": 58106, "DESCRIPTION": 62032, "\u2581golf": 10407, "Mand": 47466, "\u2581explic\u00f3": 56746, "<|mask_28|>": 32, "\u2581educate": 20802, "\u2581simplest": 24901, "\u2581amassed": 55284, "\u2581customs": 23008, "\u2581adaptation": 19716, "atham": 42040, "\u2581Designed": 32167, "\u2581einige": 50229, "\u2581owes": 47532, "\u2581greedy": 43362, "\u2581epoxy": 53553, "\u2581arranging": 40048, "\u2581nuovi": 60059, "\u6536": 63899, "\ucf00": 65315, "\u2581Anim": 17452, "\u2581injected": 28755, "\u2581abortion": 17259, "\u2581syst\u00e8me": 23729, "\u2581caric": 49687, "\u05e2\u05d9\u05dd": 25723, "ky": 5304, "\u2581Metz": 58790, "\u2581Pit": 24002, "\u2581logr\u00f3": 62402, "\u2581unfair": 20193, "\u2581CSS": 18424, "USINESS": 39546, "<|reserved_828|>": 1344, "\u2581grandeur": 61295, "jacent": 16566, "\u2581bail": 17705, "DIRECT": 37531, "\u2581worked": 4865, "ORE": 11167, "ware": 2891, "\u2581profile": 7585, "\u2581eru": 42709, "\u2581Escape": 37107, "\u2581newcomers": 42643, "\u2581proteger": 43940, "\u2581pink": 11861, "publique": 43997, "\u06cc": 63230, "\u2581Bride": 46189, "Define": 54058, "obj": 10550, "+/": 60007, "\ub9cc": 63772, "heim": 15763, "\u6e32": 64978, "inherit": 33957, "bread": 23438, "\u2581../": 54848, "Parallel": 52837, "\"-": 31659, "\u2581reached": 7119, "noon": 7987, "\u2581Princess": 19604, "\u2581{\"": 20861, "description": 10629, "\u2581nutmeg": 60416, "\u2581moder": 9662, "\u2581alternative": 7129, "\u2581veh": 4640, "\u2581sandwich": 21618, "\u2581Reasons": 44500, "\u2581haber": 25011, "\u4f1a": 63327, "\u2581inevitably": 26331, "\u2581segu": 9295, "\u2581Accounts": 37329, "Additional": 22661, "\u2581ihrer": 41651, "\u2581linebacker": 38519, "protein": 44668, "<|reserved_227|>": 743, "\u9752": 65248, "\u2581anten": 20213, "CLU": 33020, "\u2581commemor": 25173, "\u2581Voice": 22298, "\u2581weeds": 33511, "uron": 50327, "<|mask_455|>": 459, "sta": 22103, "\u51b2": 64754, "\u2581lifestyle": 10631, "owell": 47304, "\u2581ds": 38477, "\u2581rainforest": 45045, "\u2581conversation": 7794, "istica": 51657, "\u2581caters": 53365, "\u2581pr\u00e1ticas": 58748, "\u2581us": 2036, "\u2581pennies": 61394, "\u2581priorities": 18454, "clide": 57725, "\u2581scor": 31913, "\u2581understands": 19824, "resistant": 25629, "Minimum": 44901, "Uni": 57997, "\u00e9taire": 48275, "\u2581penn": 27402, "\u2581compa\u00f1": 21602, "\u2581supplemental": 39785, "\u2581skim": 47511, "\u00f6\u00dfe": 61573, "\u2581programas": 31782, "\u2581edges": 13883, "wee": 48352, "\u2581satin": 45386, "\u2581sustain": 7503, "\u0628\u062d": 37544, "\u2581Boiler": 48788, "\u2581</": 7968, "alloc": 19636, "ri": 1912, "\u2581Fish": 19052, "\u2581B\u00fc": 52792, "\u2581Riding": 48760, "cidos": 28039, "\u2581urb": 33124, "ilon": 12556, "idez": 35267, "virus": 45184, "t": 62936, "erving": 42498, "\u2581Emily": 20738, "\u2581Horm": 58192, "\u043a\u043e": 27966, "\u2581irresistible": 48701, "\u2581activist": 23323, "\u2581safer": 18738, "\u2581suppress": 17573, "\u2581cert": 5522, "\u2581Tol": 23797, "qing": 58444, "\u2581marketed": 34595, "\u2581formative": 58962, "Agent": 26619, "\u2581atroc": 38410, "\u2581scalability": 52447, "orgen": 24688, "\u2581tiring": 57298, "\u2581analyzed": 15118, "\u2581reflux": 44525, "Desc": 23752, "\u2581Stadt": 30662, "\u05d1\u05e8\u05d9\u05dd": 35573, "\u2581alimentos": 29619, "\u2581tricky": 20511, "\u2581pol\u00edticos": 38761, "<0x15>": 1565, "senal": 18135, "\u2581Michelle": 20969, "\u2581ancestral": 45707, "\u2581Anchor": 57682, "\u2581Suspension": 61938, "\u2581Lug": 38553, "\u00e9conom": 48755, "\u2581desenvolv": 20463, "Discovery": 52542, "Bas": 14654, "important": 17340, "\u2581correl": 16558, "\u2581handle": 6270, "\u2581aggi": 34681, "\u2581hurried": 43439, "\u2581rap": 5979, "cled": 44421, "\u3010": 63452, "\u2581Size": 14286, "\u8df3": 64475, "\u2581flyer": 50074, "Tambi\u00e9n": 47573, "\u2581line": 3122, "\u2581estuv": 60028, "\u2581nothing": 4214, ">-": 58815, "\u2581Sabrina": 62481, "\u2581rempl": 30559, "mia": 29184, "\u2581plot": 9297, "\u2581erste": 46046, "\u2581adhered": 55865, "\u2581&&": 5963, "<0xED>": 1781, "film": 25216, "\u0661": 64289, "\u2581echo": 11366, "\u2581Workers": 27534, "\u2581continu": 5196, "Driver": 25394, "\u2581hair": 4881, "\u2581cit": 5888, "\u2581Jammu": 53407, "\u2581turf": 33769, "tracking": 41526, "\u2581estim": 6161, "revision": 44466, "\u2581mined": 53314, "ropical": 29559, "\u2581outlet": 17470, "\u2581strapped": 57132, "\u2581Zach": 28153, "writes": 57205, "Criteria": 41110, "ietet": 43602, "\u2581territ": 8612, "ound": 2211, "\u2581lifts": 33175, "-*": 48819, "\ubb38": 63792, "asure": 6579, "brown": 34147, "rabble": 57894, "\u2581pancakes": 38760, "Ant": 11871, "David": 15127, "\u2581organised": 21652, "\u2581attendance": 17935, "FAILURE": 61088, "\u2581Farmer": 42141, "\u2581pose": 14334, "\u2581monk": 46043, "\u2581bif": 49678, "\u2581Lithuan": 34577, "<|reserved_489|>": 1005, "\u2581punch": 16620, "\u2581Prost": 56738, "\u2581lacks": 25045, "pts": 27634, "PLIC": 37804, "\u2581avenues": 40074, "hoven": 59761, "\u2581Arm": 12096, "hang": 18572, "\u2581invited": 11260, "\u2581meaning": 5771, "seed": 26847, "\u2581EF": 35266, "elta": 7748, "\u2581dresses": 22221, "ramer": 38346, "\u2581Avi": 56050, "<0x9B>": 1699, "leyball": 27526, "<|reserved_607|>": 1123, "false": 9748, "Remove": 18947, "\u2581chops": 48222, "\u2581m\u00e9dias": 51084, "entro": 58147, "\u2581Alm": 36119, "\u2581microsoft": 60265, "\u2581conform": 13449, "\u2581Giul": 49982, "\u2581outweigh": 45637, "\u2581Bir": 23707, "\u2581workers": 6502, "omp": 31190, "rebbe": 30018, "\ud83d\ude42": 63219, "<|reserved_1004|>": 1520, "sis": 12275, "\u2581Laurence": 56751, "\u2581Stroke": 59378, "communic": 24118, "ding": 3929, "PORT": 14331, "\u2581Carroll": 30741, "\u2581Units": 40935, "\u2581visibly": 51193, "\u06f0": 65047, "\u2581entrar": 28822, "\u2581showdown": 50081, "\u2581angl": 30157, "\u2581deeds": 35059, "\u2581Jerusalem": 19417, "\u0103": 63448, "ina\u00e7\u00e3o": 25096, "\u2581ethnicity": 38602, "\u2581chromos": 24960, "LAN": 33558, "\u2581aggression": 31194, "\u2581Courts": 39838, "\u00e9tences": 45242, "\u2581finite": 21904, "\u2581troupe": 61226, "\u2581XR": 58966, "moins": 59072, "\u2581BCE": 54666, "doc": 5511, "\u2060": 63945, "\u2581hija": 52179, "\u2581nuevas": 29305, "\u2581futur": 31192, "![](": 33427, "Father": 38634, "\u2581showing": 6816, "\u2581Still": 11496, "\u2581passions": 31930, "\u0627\u0646\u062a": 62040, "isted": 10887, "\u2581america": 37097, "\ufffd\ufffd": 16694, "\u2581Blanca": 61712, ";\">": 24107, "\u2581connection": 5922, "\u2581sz": 39154, "\u2581Jiang": 43055, "\u2581corso": 46661, "\u2581Sod": 61977, "\u2581Rele": 26533, "\u2581butterfly": 32930, "\u00edss": 43443, "\u2581shed": 14063, "vised": 18338, "\u2581Bour": 22547, "\u2581Vegan": 41575, "itting": 4273, "\u2581NFL": 11158, "\u2581\u060c": 14846, "\u2581brokerage": 40065, "uva": 44676, "ics": 2476, "\u2581endorse": 19888, "Regex": 42533, "ildren": 6888, "<|reserved_875|>": 1391, "\u2581provincial": 21934, "\u2581Sox": 25137, "ILED": 43094, "\u2581Moon": 13184, "TAIN": 39430, "aryl": 49802, "orest": 33650, "\u2581KR": 59870, "Ray": 24183, "\u2581Connie": 55249, "herst": 60651, "\u2581DNA": 9954, "\u2581wording": 42432, "\u2581Reason": 32165, "seille": 36680, "Pending": 49301, "\u2581Mush": 42216, "\u2581pr\u00e9cise": 62647, "\u0b9a": 65063, "<|mask_322|>": 326, "plicity": 19659, "rapy": 6095, "AB": 4844, "yll": 23890, "\u2581campers": 48964, "\u2581Rivera": 41415, "\u2581engaging": 12824, "\u2581resto": 28258, "\u2581zonder": 37020, "\u2581packing": 20439, "\u2581Yorkers": 58489, "\u2581married": 7591, "\uc600": 65374, "\u2581inquiry": 20115, "getElement": 21399, "\u2581disastrous": 37255, "\u2581\u0430": 29324, "\u2581\u05d9\u05e2": 57046, "ostics": 24505, "ecip": 40357, "**\r": 31008, "Provider": 11965, "\u2581db": 16590, "ighbor": 25510, "\u2581detect": 8685, "payers": 23328, "\u2581Bahia": 43308, "\u2581Judge": 14271, "fw": 36797, "\u00e9ments": 39099, "\u2581repayment": 36639, "\u2581experiencias": 59068, "uming": 19816,
[...]
