{"\u2581giv": 1517, "\u914d": 31361, "\u2581\u0437\u043d\u0430": 6253, "enson": 25151, "\u1edb": 31280, "\u2581But": 1205, "\u2581represent": 2755, "\ud835\udcdd": 31926, "\u2581\u0448\u0442\u0430": 13619, "Desktop": 17600, "\u0437\u0438\u043d": 22745, "\u2581Bio": 21184, "oport": 17834, "\u0916": 31667, "\u2581Vors": 24112, "agu": 10617, "UPDATE": 14474, "lait": 27275, "\u2581Seite": 16073, "\u2581\u0436\u0438": 4438, "\u2581radi": 17937, "\u00fcck": 3675, "\u2581independence": 21820, "\u2581groups": 6471, "\u2581uncertainty": 25812, "\u2581France": 3444, "\u2581Tok": 11890, "\u2581Mos": 6630, "auth": 5150, "\u2581rock": 7679, "elivery": 27657, "\u2581erreichte": 25329, "').": 2824, "\u2581hij": 4147, "\u2581Pent": 22901, "\u0436\u0435\u0442": 29333, "ifs": 10270, "\u2581dzia\u0142": 18728, "\u2581allowing": 14372, "\u2581joint": 14002, "\u2581pel": 4639, "umin": 9735, "\u2581know": 1073, "\u2581tribes": 29201, "\u2581Milit\u00e4r": 26212, "Setup": 26947, "\u2581supre": 22747, "destination": 23848, "\u2581organisation": 24788, "\u0440\u0443\u0441": 16007, "\u2581\u00c9s": 29441, "STATUS": 27047, "\u6e2f": 31449, "ischer": 3208, "fahrt": 29182, "\u2581\u043e\u0442\u043b\u0438": 22216, "\u2581propri": 10850, "\u2581doctor": 11619, "\u2581'',": 15516, "\u2581cyl": 20396, "\u2581\u0420\u043e\u0434\u0438": 28900, "\u2581serialize": 28755, "\u2581Bud": 7038, "\u2581Archivlink": 14414, "\u2581acht": 22019, "\u2581intros": 25956, "\u2581Len": 16206, "\u2581abol": 25198, "\u2581bullet": 24334, "\u2581Bien": 26219, "\u2581forgot": 9640, "FIG": 18667, "\u2581dispers": 29106, "map": 1958, "empl": 16305, "\u2581ult": 8494, "\u2581via": 3025, "aqu": 18463, "\u2581\u041d\u0430\u0441\u0435\u0459\u0435": 23875, "\u043b\u0438\u0441\u044c": 7157, "\u5bcc": 31730, "\u2581\u0441\u0435\u0440\u0435\u0434": 17560, "\u2581Morgan": 20549, "invoke": 9772, "\u2581traffic": 12469, "\u2581Bev\u00f6lkerung": 25817, "\u0142ad": 8650, "replace": 6506, "\u2016": 31523, "oteca": 19011, "\u2581supplied": 19056, "\u2581Wa": 22552, "\u2581uns": 9644, "\u2581words": 3838, "\u2581adds": 12778, "\"></": 5319, "Append": 18277, "issue": 15118, "\ub0b4": 31940, "\u0446\u0435": 2421, "\u2581stations": 16355, "\u2581Pul": 27477, "n\u0105": 12486, "inder": 4995, "\u10e2": 31027, "\u2581graphs": 18445, "\u2581\u041a\u043e\u043d": 10698, "enne": 4584, "\u2581Format": 19191, "\u2581cells": 9101, "\u2581Investig": 28246, "\u044f": 29970, "\u2581\u0438\u043c": 8933, "ked": 17713, "\u2581alloc": 6643, "atica": 29288, "jal": 12429, "IMA": 2260, "ospel": 26265, "\u00b2": 30088, "lines": 9012, "\u2581cinq": 17256, "ursive": 25397, "Cho": 15954, "\u2581charact": 2150, "\u2581Sied": 24965, "\u254c": 30772, "\u2581seeing": 8790, "Seq": 23718, "urm": 17095, "\u2581hell": 23927, "ann": 812, "chapter": 27349, "\u2581\u041d\u0438": 7059, "lez": 11867, "`:": 6998, "\u2581risult": 24119, "\u85e4": 30804, "\u2581GO": 21947, "\u01d0": 30638, "antage": 8501, "\u2581AD": 11033, "\u2581WHEN": 17980, "VE": 12064, "\u1e29": 31444, "vu": 24845, "\u2581other": 916, "\u2581behave": 23389, "\u2581hanno": 15239, "\u2581corner": 11155, "equ": 1686, "\u2581ordin": 22420, "\u0544": 31575, "\u2581Eugen": 22864, "irit": 14987, "\u043e\u0431\u0440\u0430\u0437": 23944, "\u2581disk": 8086, "heb": 25842, "\u2581sooner": 29548, "\u2581abandoned": 23181, "\u2581\u0441\u0442\u0430\u0432": 20345, "\u2581Maven": 26435, "!\u201d": 8530, "\u2581Currently": 15447, "\u5834": 31045, "arp": 6834, "\u0449\u0451": 18141, "To": 1762, "\u2581square": 6862, "\u2581edific": 15454, "ourg": 18041, "itative": 23378, "owych": 10449, "i\u00e8me": 9397, "rypted": 14740, "pol": 3733, "\u2581Queens": 18909, "Foot": 13440, "\u8c37": 31112, "<0x33>": 54, "py": 2272, "\u00fcnd": 5284, "YES": 21143, "\u2581Publishing": 19088, "\u2581Many": 9267, "hnen": 26291, "unas": 17496, "kou": 21147, "\u2581_": 903, "\u2581derni": 15159, "\u2581notify": 26051, "\u043c\u0456": 3272, "\u2581Campeonato": 17660, "\u2581SP": 10937, "\u2581*/": 3776, "Controls": 17825, "ellt": 9288, "icken": 21475, "etu": 24120, "tis": 28898, "\u00e9n\u00e9": 25747, "\u0441\u0435\u0439": 23358, "\u2581Dam": 9865, "paragraph": 26956, "pad": 8305, "\u2581twenty": 10081, "\u2581czas": 15062, "unt": 1657, "cji": 17624, "+'": 23097, "\u2581si\u00e8": 6476, "\u2581prices": 26094, "\u2581If": 960, "\u2581s\u00e5": 15548, "Ital": 10512, "hai": 23535, "\u2581subs": 11684, "\u02e0": 31794, "column": 4914, "..": 636, "\u2581h": 298, "adrat": 16181, "\u2581invece": 24248, "asc": 6151, "\u2581under": 1090, "blank": 19465, "\u0454\u043c": 23802, "\u0565": 30516, "\u2581antes": 12971, "\u2581Regin": 28124, "\u0905": 31350, "age": 482, "allow": 9536, "\u045f": 30259, "Leg": 22988, "pring": 2339, "\u2581comparing": 17420, "\u2581stepped": 28996, "ucture": 12425, "COMP": 21514, "\u2581feeling": 11223, "kes": 10794, "\u2581PM": 11278, "\u0442\u043e\u0433\u043e": 12716, "\u2581\u0438\u0437\u0434\u0430": 16209, "\u2581okres": 20010, "atting": 23980, "\u2581Standard": 10117, "\u2581\u0441\u043b\u0430": 28638, "\u2581certainly": 8959, "\u2581ao\u00fbt": 10158, "ting": 1259, "\u2581Radio": 9204, "z\u0105d": 17527, "PER": 13171, "f\u00fcr": 18214, "Game": 14199, "am": 314, "\u0441\u043a\u0438\u0435": 6792, "\u2581wer": 2949, "igi": 10091, "<0x88>": 139, "\u2581mus": 2301, "\u2581\u0447\u0435\u043b\u043e\u0432\u0435\u043a\u0430": 25452, "essed": 11517, "ailable": 3106, "\u2581zero": 5225, "\u2581matrices": 13516, "\u0440\u0435\u0441": 19961, "\u2581representing": 15783, "\u2581Added": 25601, "\u0449\u0438\u0439": 23113, "Type": 1542, "\u2581insbesondere": 27285, "\u2581Sen": 5811, "illa": 2911, "\u2581Lib": 8153, "prowad": 23447, "\u2581Lord": 6171, "$,": 1628, "\u2581agr": 9221, "PT": 7982, "\u2581Marc": 14440, "\u2581Bishop": 16880, "\u043c\u0435\u043d\u044f": 27484, "\u2581hum": 3165, "\u2581Soul": 27339, "\u2581Amazon": 16631, "\u2581whom": 6029, "\u2581share": 6232, "\u2581tired": 23407, "props": 11030, "\u2581names": 2983, "\u2581Imperial": 21080, "\u0948": 31678, "\u2581undert": 22332, "\u2581Total": 14990, "support": 5924, "\u2581recently": 10325, "geordnet": 20557, "centering": 9525, "\u2581horizontal": 14698, "asi": 6840, "\u2581[\\": 12452, "opp": 9354, "try": 2202, "\u2581already": 2307, "\u0153uv": 13753, "\u011bl": 16940, "\u2581shown": 4318, "arsi": 16665, "\u2581shift": 9500, "\u2581DEFAULT": 22236, "\u2581Ron": 11546, "uky": 21108, "ispecies": 21075, "\ub4e4": 31804, "\u2581terminated": 29185, "ground": 2057, "\u0434\u0435\u043d\u0442": 18324, "prote": 14676, "makeText": 26076, "\u00b1": 30221, "\u2581bre": 2078, "\u2581Vic": 13423, "\u2581\u043f\u0440\u0430\u0432": 16901, "\u9b54": 31098, "\u2581guessing": 20680, "hem": 8008, "plements": 9711, "fully": 3730, "CREATE": 27045, "\u2581prolong": 27044, "ivers": 1536, "\u9f99": 31300, "\u2581soldiers": 13936, "don": 9176, "kg": 9415, "////": 6165, "\u2581BC": 17403, "\uff11": 31936, "\u2581\u043d\u0430\u0446\u0438\u043e\u043d\u0430\u043b\u044c": 21524, "\u2581da\u00df": 14106, "anti": 3656, "\u2581Anleitung": 20509, "\u2581Government": 10354, "S": 29903, "\u043d\u0435\u043d\u0438\u044f": 15530, "avig": 3723, "\u2581exceed": 13461, "\u2581Ay": 15846, "\u2581preferred": 16389, "\u2581bonus": 28920, "\u2581restricted": 22078, "\u2581partition": 8877, "\u0441\u043a\u0438\u0439": 2542, "Rate": 19907, "\u2581plat": 18870, "\u2581tenia": 27966, "\u2581\u0434\u0438\u0440\u0435": 20174, "\u2581DDR": 21901, "\u00c1": 30102, "\u00f5": 30084, "\u00e4ng": 4762, "\u2581Six": 18372, "cipe": 24044, "\u2581registry": 21235, "\u2581Liga\u00e7\u00f5es": 18315, "sens": 23149, "\u2581surprise": 16671, "<0x6B>": 110, "\u0433\u0434\u0430": 9077, "\u2581\u2581\u2581\u2581\u2581\u2581\u2581\u2581\u2581\u2581\u2581": 9651, "\u2581gates": 29341, "\u2581unlike": 25531, "\u2581maar": 10128, "Schema": 12763, "\u2581siendo": 18200, "\u2581tournament": 14743, "\u2581tienen": 25358, "beans": 11700, "\u1edd": 30997, "\u2581COM": 23353, "emen": 12398, "\u2581listview": 28349, "token": 6979, "\u2581\u0433\u0438": 16562, "sigma": 3754, "tom": 15135, "tmp": 7050, "\u2581cres": 24185, "\u1ec5": 30701, "does": 13221, "z": 29920, "\u2581Juni": 7452, "\u2581legs": 21152, "\u1038": 31039, "akt": 5867, "\u00e6dia": 28699, "\u2581Pas": 10043, "schemas": 11993, "\u2581souvent": 18484, "\u2581stata": 12740, "\u2581muit": 28808, "\u2581DateTime": 12315, "\u2581\u043f\u043e": 733, "\u2581Widget": 27080, "\u2581compress": 27122, "ump": 3427, "\u2581nel": 2032, "\u2581Ent": 4284, "\u2581Phill": 21856, "\u2581Ak": 10813, "\u2581press": 3965, "\u2581burst": 20887, "\u2581_)": 24459, "with": 2541, "\u2581idea": 2969, "\u2581Pr": 1588, "Tool": 12229, "gart": 13323, "\u2581covers": 18469, "\u2581informations": 19313, "\u2581ging": 12773, "\u2581attempted": 16388, "\u2581now": 1286, "\u2581collection": 4333, "\u2581cook": 7984, "\u2581gebru": 16685, "\u5922": 31592, "\u79c0": 31701, "\u2581~": 3695, "\u2581Gil": 11788, "\u2581tel": 13547, "lets": 10376, "\u2581capable": 15390, "\u2581Ortste": 25626, "md": 3487, "En": 2369, "\u2581Turner": 24215, "ivid": 3640, "\u2581}": 500, "\u2581don": 1016, "\u2581Mah": 10082, "eurs": 11620, "\u2581deven": 21617, "\u2581*/\r": 29722, "\u2581poly": 15680, "\u21d4": 31628, "\u03b6": 30460, "\u2581purchased": 20848, "\u2581p\u00e9ri": 13943, "\u2581throw": 3183, "AVA": 26612, "\u2581England": 5408, "ales": 2122, "\u2581ruolo": 24158, "\u2581Hudson": 25850, "ytics": 22026, "\u2581loads": 15376, "script": 2154, "\u2581lire": 22272, "\u05d0": 30253, "routes": 27894, "urban": 25006, "alin": 25977, "\u2581grad": 4656, "plots": 26762, "\u2581Theater": 16150, "\u2581retrieved": 27387, "\u00e9gr": 27083, "\u2581\u0412\u0430\u0440": 27058, "<0x5B>": 94, "\u2581initialized": 16601, "\u2581Tai": 17984, "\u2581p\u0159": 4137, "\u2581method": 1158, "\u2581Bedeutung": 22665, "\u2581Watson": 28284, "astic": 6288, "elin": 24446, "\u4e38": 31818, "ock": 1698, "\u0442\u0435\u0440\u0430\u0442\u0443\u0440\u0430": 12261, "\u2581Kirk": 26424, "riors": 28739, "\u2581Ier": 26107, "\u2581\u043f\u0440\u043e\u0442\u0438": 17291, "jamin": 18323, "\u00e9li": 15817, "\u2581Dist": 6652, "\u2581evangel": 23077, "AXI": 23867, "\u2581\u0425\u0443": 27567, "\u2581>>>": 8653, "\u2581bis": 2652, "\u2581Fern\u00e1ndez": 27158, "Alignment": 14658, "heits": 25714, "\u0437\u044c\u043a\u043e": 28471, "ROR": 7544, "Rect": 7364, "\u2581Archiv": 5522, "\u2581reboot": 22538, "lose": 2226, "\u2581recon": 8265, "\u2581titled": 25278, "\u102c": 31053, "sets": 7224, "agens": 25935, "Print": 11816, "\\,": 5940, "place": 6689, "\u2581\u0410\u043d": 6190, "\u2581Walker": 19512, "\u2581tag": 4055, "\u2581pic": 11942, "skim": 9142, "endar": 6486, "\u2581saf": 9437, "Span": 15495, "\u2581splendid": 29528, "overn": 6170, "\u2581elet": 27534, "\u79cb": 31569, "saved": 17314, "enen": 6537, "\u2581consp": 21588, "\u2581More": 5853, "\u2581Roy": 15793, "ordinate": 16065, "vised": 11292, "Lond": 26682, "\u2581}{": 24333, "icular": 16311, "kreis": 12364, "\u2581Re": 830, "\u5357": 30601, "TT": 19988, "<0xFB>": 254, "\u2581\u041f\u0440\u0435": 7127, "\u0d47": 30964, "\u2581profit": 21665, "\u2581agree": 8661, "\u2581Bos": 10211, "\u2581liqu": 15617, "\u2581schools": 12462, "\u2581Santo": 21377, "\u2581it": 372, "\u2581\u0443\u043f\u043e": 22179, "\u2581\u0434\u0438\u0430": 26487, "require": 12277, "\u2581ssl": 24250, "Cannot": 29089, "\u2581Tur": 5383, "\u2581mayor": 9105, "\u2581wat": 16699, "headers": 13662, "system": 5205, "\u2581matches": 7087, "\u2581d\u00e9but": 13222, "\u2581Harvard": 22221, "derr": 20405, "\u2581Quick": 26141, "undo": 6201, "ush": 1878, "Movie": 18749, "ListItem": 27490, "\u2581topic": 11261, "\u2581komm": 15985, "\u5802": 31338, "Private": 25207, "\u2581Line": 7407, "\u2581Edward": 9300, "pole": 15831, "endet": 16877, "Set": 2697, "\u2581aug": 11307, "\u2581appart": 25479, "Files": 10547, "\u2581sad": 14610, "umbled": 25443, "\u2581Image": 7084, "initialize": 24926, "''": 4907, "://": 597, "\u2581typically": 12234, "unter": 8428, "\u2581unders": 23400, "swap": 26276, "\u2581target": 3646, ":@\"": 8593, "\u2581Governor": 15431, "\u2581Greece": 25549, "stylesheet": 13558, "\u2581combat": 15499, "\u2581suffix": 25557, "\u2581detection": 15326, "\u2581tested": 9528, "\u2581third": 4654, "ingu": 6202, "\u2581sales": 16538, "\u2581beh": 2306, "variables": 20897, "Progress": 14470, "\u00fas": 7381, "\u2581why": 2020, "cks\u00e5": 27660, "\"],": 12436, "\u2581\u0444\u0435\u0432\u0440\u0430\u043b\u044f": 17672, "\u2581Adding": 18804, "\u2581communaut\u00e9": 28812, "\u2581Ar": 826, "Memory": 16015, "\u2581Austria": 17362, "\u2581composer": 18422, "psilon": 3232, "sBy": 20966, "\u2581citiz": 14497, "VM": 9219, "\u2581fig": 2537, "PHP": 17130, "\u2581Zw": 12017, "\u2581mostly": 11149, "swers": 5956, "\u2581Rick": 24218, "\u2581delivery": 28289, "\u2581notable": 18697, "\u2581segu": 7025, "\u2581installation": 11161, "\u2581Sid": 19732, "che": 1173, "schen": 16861, "\u9f8d": 31239, "eman": 11422, "Os": 24768, "\u2581Jah": 2338, "\u2581recognize": 18720, "clo": 15126, "\u2581adopt": 9332, "\ubaa8": 31962, "\u2581divide": 16429, "\u0441\u043f\u043e": 3565, "\u2581H\u00e4": 24007, "\u2581Meter": 19333, "Dr": 25639, "\u2581Grund": 10197, "\u0434\u0438\u043d\u0430": 16489, "\u2581IDE": 15004, "\u2581zones": 20542, "\u2581L\u00f3pez": 25355, "gef\u00fchrt": 26210, "\u2581reaction": 19848, "\u2581thousand": 10405, "result": 2914, "\u2581\u0440\u043e\u043a\u0456\u0432": 12149, "Mail": 14925, "Collections": 19466, "\u2581toda": 20223, "\u2581ret": 3240, "\u2581golf": 29416, "\u25ba": 30318, "\u2581votes": 18952, "skiej": 8779, "\u2581kept": 8126, "Product": 7566, "\u2581sah": 26024, "\u030d": 31891, "\u2581dav": 13260, "\u2581Narod": 24322, "uszt": 23605, "\u2581says": 4083, "\u2581Schauspieler": 19002, "zy\u017c": 27551, "\u00dfen": 6256, "\u2581sett": 3604, "metadata": 19635, "\u2581Disney": 17944, "\u2581rok": 28159, "\u2581Param": 12662, "\u2581\u041c\u0443": 11114, "\u2581dow": 16611, "}(": 2119, "\u2581union": 9833, "\u0441\u043b\u0438": 12068, "\u2581possibilities": 24496, "\u2581seis": 26251, "\u2581ways": 5837, "\u2581%": 1273, "\u2581\u0413\u0440\u0430": 20697, "uje": 7994, "\u2581\u0412\u043b\u0430": 12505, "\u2581translated": 20512, "\u2581Poz": 18048, "\u2581geb": 5772, "\u2581n\u00e1": 16511, "\u2581outros": 21950, "widetilde": 10737, "\u0441\u0442\u0443\u043f\u0438\u043b": 28270, "quisition": 23493, "emia": 29747, "\u2581\u043f\u043e\u043b\u043e\u0432\u0438": 28072, "\u2581\u043a\u0440\u0430\u0439": 28355, "\u2581chanson": 25875, "istrict": 6801, "\u2581interpreted": 21551, "\u00e9ration": 10500, "\u2581same": 1021, "\u2581Abraham": 24763, "\u2581acceleration": 28178, "\u2581unsafe": 25110, "\u2581Nancy": 24190, "\u2581Pictures": 26069, "\u2581Mari": 27161, "IGN": 17298, "___": 22359, "\u2581encore": 10440, "uga": 26281, "\u2581sera": 16933, "\u043d\u043e\u0433\u043e": 1868, "\u2581WITH": 22659, "\u2581Weiter": 27743, "\u90fd": 30769, "\u2581plan": 3814, "\u2581removing": 11077, "ires": 2658, "acter": 5761, "Pres": 13504, "\u2581\u043a\u043e\u043d\u0442\u0440\u043e": 24712, "\u2581Quebec": 27605, "\u2581Cy": 8045, "ORT": 8476, "Response": 5103, "\u2581Russ": 4719, "\u2581\u2020": 6700, "\u2581Dob": 21451, "\u0116": 31742, "hner": 15565, "odge": 17979, "\u2581\u0441\u043f\u043e\u0440": 20375, "\u2581Inc": 9266, "\u2581meeting": 11781, "\u2581flexible": 25706, "\u2581Dou": 19176, "\u2581Convention": 26774, "\u2581Gren": 13042, "iest": 12239, "bio": 24840, "\u2581\u00e4r": 2206, "ArrayList": 20165, "una": 4347, "\u2581ones": 6743, "\u2581dalle": 19078, "ija": 8044, "\u0437": 29972, "\u2581PDF": 11328, "\u2581Russian": 10637, "Picture": 28210, "lear": 1945, "hum": 16063, "\u2581variance": 20162, "\u2581Point": 8984, "\u2581killed": 9445, "]['": 22322, "\u2581Hockey": 19993, "\u2581\u0447\u0430": 3655, "\u2581exclude": 19060, "<0x77>": 122, "\u2581dealing": 16743, "\u2581Cruz": 17960, "\u2581Indust": 12157, "\u2581Lac": 21095, "\u2581succeeded": 14792, "\u2581replacement": 16920, "\u2581==": 1275, "DR": 8353, "urus": 17142, "\u2581classific": 20670, "\u30cd": 31038, "path": 2084, "]);": 5691, "\u00f4me": 21492, "AG": 10051, "\u00b2.": 11298, "\u305d": 31110, "ivatal": 26615, "\u2581oktober": 19306, "}[": 4400, "cola": 15519, "ARCHAR": 15364, "phabet": 17416, "\u2030": 30664, "\u2581App": 2401, "\u2581Lucy": 28846, "\u1e37": 31802, "\u2581z": 503, "ionale": 7565, "\u2581r\u00e9alis": 12036, "\u2581entrepr": 23440, "rij": 4927, "\u00e9tr": 18949, "\u2581Deutschland": 10450, "\u03bc": 30167, "indexOf": 19402, "\u0441\u043a\u0438\u0445": 4483, "\u2581worked": 3796, "\u2581Mine": 26833, "\u2581Anthony": 16477, "\u0441\u0442\u0440\u043e\u0432": 28795, "\u2581Met": 4737, "\u2581significa": 28711, "esar": 26892, "\u2581runtime": 10073, "\u2581Gruppe": 21757, "\u2581Mak": 17232, "\u0441\u043a\u043e\u0433\u043e": 2717, "(@": 10394, "\u2581Kilometer": 23476, "change": 3167, "ically": 1711, "\u2581consum": 11233, "\u2581Chapter": 23040, "\u2581companies": 14582, "ow": 340, "\u043a\u043b\u0430": 4865, "\u5ea6": 30898, "Member": 13404, "\u2581bas": 2362, "\u043d\u043e\u0441\u0442\u0456": 22117, "\u1f31": 31514, "\u2581bzw": 16591, "RAY": 22800, "\u2581rig": 12912, "is": 275, "database": 9803, "ativity": 28157, "\u2581ie": 19282, "\u9875": 31610, "Camera": 20717, "\u2581Erd": 29446, "\u2581reliable": 23279, "((": 3552, "\u2581headquarters": 26463, "dict": 8977, "ashed": 25936, "ell": 514, "\u016f": 30072, "\u043d\u0430\u0445": 16860, "written": 17625, "\u00e9ma": 15537, "IST": 9047, "ls": 3137, "repeat": 14358, "acy": 4135, "\u2581implies": 10469, "\u2581v\u00e1l": 12196, "\u2581speed": 6210, "\u2581Rout": 20829, "ithub": 2985, "DEF": 24405, "wahl": 14967, "inline": 14764, "ikan": 7941, "auss": 11214, "\u2581particip": 5221, "('.": 12839, "Av": 12810, "\u00e1ra": 14684, "isti": 14194, "zas": 16095, "\u2581descript": 29037, "\u2581Officer": 28288, "jub": 23427, "<0x50>": 83, "adas": 3922, "\u043f\u043b\u0438": 19847, "\u2581Geoff": 28295, "ould": 483, "Has": 14510, "\u2581m": 286, "\u2581card": 5881, "bij": 19352, "\u2581Normal": 21981, "\u2581Vog": 20797, "ampf": 16817, "\u2581land": 2982, "rror": 24616, "VA": 20449, "----------": 28400, "\u2581DLL": 22474, "yg": 4790, "community": 23834, "\u2581discrete": 19554, "\u2581Franco": 20923, "Mask": 19832, "\u06be": 31860, "gray": 21012, "\u2581backwards": 28953, "\u043a\u0442\u043e\u0440\u0430": 22563, "\u2581converts": 29436, "X": 29990, "\u2581defeated": 16235, "\u0435\u0432\u0438\u0447": 13177, "ility": 1793, "\u0440\u043e\u043d\u0430": 29291, "\u2581Begriffe": 19379, "\u2581Divisi\u00f3n": 22076, "\u2581that": 393, "<0xE9>": 236, "numbers": 20326, "\u2581engineer": 22055, "\u2581externe": 21906, "\u2581noted": 11682, "\u2581Bas": 4886, "o\u0142": 27311, "\u2581`[": 10338, "\u2581Got": 15992, "\u2581collaboration": 24771, "audi": 28863, "\u263a": 31171, "simeq": 27798, "\u2581equations": 10693, "ures": 1973, ":=": 9361, "+": 29974, "raham": 22084, "\u2581Hur": 22220, "compose": 19438, "\u2581ihrem": 19067, "tikzpicture": 17147, "\u2581na": 1055, "iterator": 17609, "\u2581grud": 21227, "\u2581expl": 3902, "\u2581Alex": 4827, "\u0441\u043a\u0443\u044e": 12928, "\u2581differenti": 17473, "\u2581hate": 26277, "fal": 18263, "\u2581Washington": 7660, "PART": 26092, "\u2581\u0444\u0440\u0430\u043d": 14558, "re": 276, "\u2581*.": 20611, "<0x03>": 6, "\u2581Ger": 5681, "\u2581Cham": 13749, "pieler": 13262, "cn": 18038, "<0x79>": 124, ")$.": 4935, "\u043d\u044b\u0439": 2370, "\u2581\u0434\u0435\u0440\u0435": 10247, "\u2581raison": 18836, "\u2086": 30238, "\u2581America": 6813, "imon": 20170, "\u2581enter": 3896, "\u2581\u043e\u043a\u043e\u043b\u043e": 17244, "std": 4172, "\u2581base": 2967, "\u2581temper": 6238, "Rec": 4789, "\u2581Reyn": 28555, "U": 29965, "\u1e6d": 30432, "\u0964": 31776, "\u2581dent": 12042, "Upper": 26214, "\u2581hitting": 29425, "\u2581exposed": 19884, "uls": 7273, "avan": 29080, "aud": 15052, "\u2581loro": 9905, "j\u00e0": 16627, "\u2581Zahl": 28207, "unnel": 16163, "thur": 9743, "}/": 6822, "\u2581listing": 18028, "\u2581\u0440\u0430\u0441\u043f\u043e\u043b\u043e": 17650, "\u2581fam": 5216, "\u2581Administr": 24510, "\u0e0d": 31967, "........": 11296, "\u2581Fre": 3878, "\u2581Medic": 22247, "\u2581vo": 992, "ermann": 20648, "\u2581cant": 5107, "\u0410\u041d": 27875, "score": 13628, "children": 11991, "Common": 18877, "atform": 4585, "\u2581Lok": 26469, "isation": 4371, "Drawer": 27528, "\u2581\u041c\u0438": 4860, "<0x94>": 151, "uper": 14805, "\u2102": 31673, "awk": 20011, "Mer": 15836, "\u2581\u0441\u043e\u0432\u0435\u0442": 11999, "arded": 25600, "\u00e5": 30020, "gebra": 5869, "quant": 12150, "rn": 27539, "\u2581maj": 10067, "\u2581Minor": 21987, "brie": 23747, "\ub9cc": 31826, "orr": 25891, "par": 862, "\u2581paused": 28454, "\u2581franc\u00e9s": 20709, "MA": 1529, "\u2581CSV": 16874, "\u2581Richtung": 29152, "Command": 6255, "\u2581Andrew": 11571, "\u2581\u043f\u0435\u0440\u0432\u044b": 14031, "\u2581sacrific": 26285, "\u2581IEnumerable": 23555, "\u01a1": 30556, "\u2581misma": 22575, "af": 2142, "\u2581sudden": 8327, "\u2581JQuery": 29818, "oll": 3028, "\u2581n\u00e4": 22248, "id": 333, "around": 11316, "AR": 1718, "conne": 11958, "\u2581Imp": 14305, "\u2581limitation": 29485, "\u2581pom": 8280, "\u2581nuc": 11205, "\u2581causing": 10805, "\u2581impro": 4857, "\u2581instru": 5778, "may": 13029, "\u2581s": 269, "\u6539": 31264, "\u2581login": 6464, "\u2581TE": 17067, "\u2581sl": 2243, "\u2581cleared": 24639, "\u2581familiar": 9985, "\u0119p": 9001, "\u2581speak": 7726, "\u2581Committee": 12930, "\u2581exempl": 29455, "oux": 13375, "util": 4422, "\u2581includes": 7805, "acji": 8330, "dz": 5601, "\"+": 17969, "',\r": 23592, "specific": 14940, "lassen": 19146, "\u2581Van": 6556, "\u2581TO": 7495, "\u2581clearer": 26135, "\u0105g": 26723, "nothing": 28450, "ope": 2300, "\u2581check": 1423, "ographique": 19913, "\uc6b0": 31327, "\u2581earth": 8437, "\u2581Stan": 7813, "\u2581versi\u00f3n": 18648, "\u043d\u043e\u0441\u0442\u044c\u044e": 18905, "\u2581debe": 27021, "\u2581\u0437\u0430\u043f\u0430": 28417, "wod": 27309, "\u2581verschied": 14261, "lesh": 23854, "\u2581bron": 12246, "\u2581arte": 20160, "\u2581Krak": 22544, "\u2581employed": 15723, "\u2581Sah": 24246, "\u2581Generation": 28203, "\u2581Mittel": 14848, "\u2581Anto": 21089, "\u2581seul": 20536, "\u2581gun": 13736, "\u2581tutti": 16567, "\u2581estadounidense": 18995, "\u2581INNER": 20735, "\u2581drums": 28987, "\u2581\u043a\u0430\u0444\u0435": 29071, "\u2581maybe": 5505, "\u2581Evans": 24056, "\u0436\u043d\u043e\u0439": 25385, "Nav": 22107, "\u2581tant": 11172, "atur": 1337, "\u2581\u043e\u043a\u0440\u0443\u0433\u0443": 28044, "edit": 5628, "\u2581Ted": 22040, "\u6761": 31217, "mers": 13269, "\u2581f\u00e5": 28105, "\u0144skiego": 22199, "\u2581Archite": 19255, "setText": 12038, "\u2581minist": 9668, "\u2581spel": 18389, "\u90e8": 30636, "\u6b66": 30819, "gen": 1885, "running": 21094, "\u2581Royal": 7021, "\u2581c\u00f4": 14543, "\u2581Mason": 28095, "\u0159": 30047, "\u5e73": 30606, "\u2581pr\u00e9": 7175, "&&": 12774, "\u2581'<": 12801, "\u2581aantal": 25130, "\u2581Switzerland": 28806, "@\",": 24695, "abama": 23758, "\u2581suit": 14726, "de": 311, "ative": 1230, "\u043b\u043e\u0433": 15157, "\u2581magic": 15709, "\u9577": 30899, "\u2581explic": 28117, "\u2581\u0444\u043b\u043e": 23730, "\u2581JOIN": 8780, "icket": 8522, "\u2581Landes": 10089, "\u2581teil": 14222, "\u2581(+": 20532, "\u2581gobierno": 19368, "\u2581SET": 11368, "istry": 6020, "entr": 14856, "\u2581SA": 16698, "\u044f\u0437": 27763, "<0x39>": 60, ":(": 5919, "\u2581divent": 28356, "\u2581wrapped": 21021, "\u2581Rog": 9272, "\u2581pier": 9307, "\u2581stad": 10728, "\u2581sections": 13926, "Execute": 12296, "\u2581mart": 14436, "\u2581CLI": 24492, "\u2581antigu": 24730, "\u2581Filip": 21391, "\u2581oro": 28979, "TagName": 29269, "uil": 20806, "ibration": 26218, "\u2581Send": 15076, "\u2581clever": 23455, "uuid": 25118, "\u0434\u043d\u043e\u0433\u043e": 27505, "eme": 2004, "\u2581Late": 23089, "\u2581t\u00edtulo": 17509, "uly": 11850, "\u2581lib": 4303, "\u2581r\u00e9alis\u00e9": 24984, ".),": 9774, "\u2581marg": 15276, "\u2581efter": 12057, "\u00ac": 30320, "\u2581Edd": 20861, "otal": 7288, "ORDER": 22364, "\u2581pover": 25273, "\u2581ter": 1935, "ouest": 20013, "\u2581OpenGL": 29508, "\u2581influence": 9949, "\u7d22": 31836, "\u2581Fernseh": 24226, "\u2581vehicles": 24413, "Fin": 12881, "Java": 8404, "\u00fcsseld": 25646, "\u1f77": 30873, "\u2581could": 1033, "\u043b\u0435\u043a\u0441\u0430\u043d\u0434": 9592, "PD": 25014, "\u10e4": 31978, "\u041f\u0435\u0442\u0435\u0440": 26861, "itled": 17707, "\u2581Gener": 3251, "joint": 12090, "\u2581fault": 12570, "\u2581Au": 8407, "\u2581still": 1603, "\u2581sty": 15877, "\u2581screenshot": 17286, "\u2581Og": 20807, "cept": 1547, "\u2581Raz": 24961, "\u0440\u0435\u0439": 10786, "\u2581echo": 2916, "\u2581Verl": 23739, "\u2581{\r": 3336, "\u2581piano": 11914, "\u05b7": 30634, "xl": 15524, "\u2581riv": 9050, "onsieur": 17914, "\u2581swap": 17945, "\u2581Made": 18266, "\u2581moderne": 24635, "\u2581Hash": 11874, "oris": 29367, "\u5f8c": 31220, "\u2581Network": 8527, "\u2581serait": 25810, "\u2581hundred": 6893, "\u2581aff": 2756, "\u2581att": 1098, "Psi": 14118, "properties": 11330, "mania": 20977, "atorio": 21392, "\u2581expon": 18709, "\u2581///": 4363, "uber": 11234, "full": 8159, "agen": 5370, "...)": 11410, "\u043d\u0430\u0447\u0430": 19458, "\u2581petit": 17887, "\u2581pia": 26597, "Auto": 12300, "\u00e4sst": 29171, "elijke": 6945, "\u2581hear": 8293, "\u2581exem": 11875, "\u2581heeft": 11926, "<0xBB>": 190, "^{+": 27587, "Credentials": 28037, "\u0163": 30382, "res": 690, "\u2581hex": 15090, "\u0219i": 3809, "\u2581Tab": 11090, "\u0105z": 14232, "\u2581Maj": 6973, "(_": 7373, "protocol": 20464, "zar": 26687, "\u2581l\u00ed": 10263, "\u2581geh\u00f6rte": 19976, "\u2581hur": 12166, "SDK": 26912, "\u2581consent": 20218, "\u3044": 30298, "BER": 13635, "\u2581Madonna": 26432, "}\\\\": 9952, "\u2581divs": 24641, "\u00eancia": 10544, "the": 1552, "\u2581UK": 10261, "bool": 11227, "\u2581\u0410\u0432": 12140, "\u2581arrangement": 24628, "\u2581wiel": 17788, "\u2581improv": 13153, "Her": 18650, "geber": 29492, "arg": 1191, "\u2581Public": 5236, "<0xF1>": 244, "\u2581sentence": 10541, "nel": 9139, "\u2581forte": 19624, "\u3083": 31312, "\u2581character": 2931, "ala": 2883, "emes": 13826, "arrison": 29458, "Comment": 20001, "oke": 6946, "\u2581LIM": 26890, "rael": 9058, "\u2581ver\u00f6ffentlicht": 26295, "~~~~~~~~": 26594, "\u2581estudios": 29061, "WORD": 17013, "\u043f\u0438\u0441\u043a\u043e": 20625, "\u2581authentic": 15585, "\u2581conver": 5486, "\u2581Hub": 14533, "ipt": 21278, "\u2581Sum": 6991, "\u2581Copy": 14187, "._": 3032, "\ub300": 30890, "\u660e": 30592, "\u0448\u0438": 1911, "\u2581peculiar": 18036, "eny": 15274, "\u2581Xcode": 19050, "\u2581powiecie": 29640, "\u2581cra": 12220, "jm": 21231, "\u2581Hu": 12895, ",\\,": 24308, "looking": 23261, "\u2581morte": 14825, "\u2581Sverige": 24878, "extend": 21843, "blo": 14073, "\u2581compon": 2964, "\u2581waren": 6183, "\u2581compt": 18741, "\u2581alcune": 26591, "\u2581gift": 19797, "kol": 10028, "ATE": 3040, "\u2581cro": 8182, "\u2581fails": 8465, "onn": 3409, "\u2581f\u00e9vrier": 10295, "\u2581\u0442\u0443\u0440": 13474, "\u2581Resources": 27562, "\u2581Pol": 2043, "\u2581Sing": 6106, "pag": 13573, "istor": 2118, "\u2581late": 5683, "\u2581Robert": 4755, "\u2581days": 3841, "\u2581unw": 18500, "\u2581\u0411\u0438": 8503, "\u2581box": 3800, "\u2581mic": 20710, "\u2581stands": 15028, "\u0440\u043e\u043c\u0430": 16971, "Google": 14207, "aph": 12451, "\u2581internally": 25106, "\u2581channels": 18196, "=>": 4261, "WP": 26433, "def": 1753, "\u2581\u0411\u0443": 9746, "vider": 5489, "\u2581Finn": 21189, "\u2581Article": 21746, "\u2581Jose": 5043, "\u2581Luc": 10315, "idor": 23377, "rade": 15464, "\u2581Greg": 12051, "\u2581Harris": 20349, "r\u00e5": 9069, "\u2581Italy": 12730, "\u2581Buck": 16281, "\u2581quick": 4996, "\u0423": 30053, "\u2581forec": 29821, "\u2581subsets": 27639, "\u2581calendar": 17684, "\u2581argument": 2980, "\u2581IV": 6599, "Mag": 19095, "\u2581coverage": 23746, "utton": 1851, "\u2581destination": 12551, "\u0941": 30702, "\u2581populated": 24146, "\u2581\u043e\u0431\u043b\u0430\u0441\u0442\u044c": 18427, "such": 14565, "\u043a\u0438\u0435": 20940, "\u2581gr\u00f6\u00df": 13709, "\u0111": 30128, "\u2581\u041a\u0430\u0440": 10777, "Func": 14400, "\u202d": 31881, "\u2581handle": 4386, "\u2581Hier": 12433, "\u00e9ge": 14553, "\u2581invasion": 28425, "\u2581OP": 6418, "\u2581Qu": 751, "\u0432\u043e\u0441\u0442\u043e": 25896, "\u2581Wat": 14269, "\u2581philosoph": 11847, "\u2581nuclear": 20346, "\u2581\u043f\u0440\u0438\u0441": 27167, "\u2581Does": 5538, "tac": 21229, "andon": 9214, "house": 8697, "ave": 1351, "egos": 21024, "javax": 23357, "rupt": 6685, "angol": 21461, "schied": 13666, "boldsymbol": 5916, "OW": 9806, "SS": 1799, "ports": 4011, "\u2581correctly": 5149, "\u2581todos": 10843, "\u2581Ir": 6600, "\u2581annual": 17568, "\u2581History": 5298, "\u975e": 31838, "\u2581\u0440\u043e\u0437\u0442\u0430": 19735, "\u043a\u043e\u043c\u0443": 21177, "\u2581Napole": 18179, "\u2581conquer": 26474, "lista": 19641, "\u2581landing": 25325, "\u2581estim": 4844, "}+\\": 10869, "\u0448\u043a\u043e": 28567, "LR": 29519, "bine": 26062, "enced": 9223, "anterie": 27166, "\u2581Organ": 9205, "\u2581fr\u00fcher": 27509, "\u7d50": 31711, "\u2581k\u00f6z": 7591, "\u2581\u043e\u0440\u0438": 19974, "\u2581equivalent": 7126, "board": 3377, "phy": 11461, "acent": 16648, "uting": 17068, "\u2581Career": 15825, "ubble": 23232, "\u04a1": 31892, "\u0644": 30138, "Press": 10923, "formance": 13390, "CAT": 23972, "\u2581readily": 28520, "\u2581\u0442\u0435\u0440\u0440\u0438\u0442\u043e": 15365, "\u2581\u0418\u0437": 10692, "\u2581rip": 18290, "\uc218": 30970, "\u2581si\u0119": 3701, "\u2581orders": 11299, "KE": 6059, "\u9898": 31596, "\u2581onde": 16504, "uniform": 29590, "\u2581\u0431\u0438\u043e": 21840, "\u2581kurz": 24268, "\u2581soft": 4964, "\u2581James": 5011, "\u2581membre": 18910, "\u2581accuracy": 13600, "anguage": 3000, "\u2581rapide": 25595, "inue": 14150, "\u2581jet": 22588, "\u2581amateur": 28800, "origine": 17234, "\u2581tim": 5335, "\u2581Terra": 20839, "\u2581\u041f\u0440\u043e": 6807, "rewrite": 23174, "\u2581leads": 11981, "\u2581redirects": 28937, "\u2581\u0421\u043e": 5579, "\u2581resolution": 10104, "\u2581Science": 9327, "\u2581older": 9642, "\u2581prom": 2504, "Div": 12596, "\u2581fun": 2090, "\u2581dov": 27698, "hod": 24008, "\u2581\u043e\u0442\u043d\u043e\u0441\u0438": 25754, "\u2581Luft": 17276, "\u2581pity": 28875, "drop": 8865, "\u2581\u0411\u0430": 6049, "USE": 17171, "alu": 22349, "iada": 29018, "din": 24581, "\u043c\u0435\u043d": 2387, "`](": 7072, "\u2581sn": 5807, "\u011bn\u00ed": 26196, "\u0442\u043e\u043a": 14308, "\u2581tone": 16225, "\u2581experimental": 17986, "\u2581stability": 25806, "\u2581\u00da": 18229, "\u6b21": 30936, "\u2581invalid": 8340, "\u2581posterior": 13446, "enas": 23509, "ns": 1983, "\u2581$-": 15727, "\u2581aver": 4759, "boot": 4777, "\u2581wasn": 9007, "\u2581Perm": 20894, "\u2581n\u00e9": 5273, "utors": 29560, "Fi": 18800, "ibility": 4127, "\u2581direct": 1513, "State": 2792, "\u2581teor": 23680, "\u2581hecho": 23614, "\u2581Input": 10567, "emon": 9857, "\u2581Bom": 27707, "\u200a": 30118, "-.": 28753, "close": 5358, "'.$": 22686, "h\u00e1": 19990, "<0xD7>": 218, "etto": 8563, "\u2581permissions": 11239, "\u2581geh\u00f6rt": 20028, "<0xB2>": 181, "<0x1F>": 34, "verein": 22655, "\u2581Svens": 25742, "\u0e38": 30803, "\u2581en": 427, "\u1f75": 31668, "ital": 2410, "\u2581happened": 9559, "\u2581\u0456\u043c": 19240, "Blue": 21319, "\u2581decis": 22442, "\u2581Mississ": 23030, "\u00cc": 30729, "\u2581otro": 16994, "}>": 17428, "\u2581Ban": 10765, "\u2581Universidad": 12824, "\u2581scaling": 21640, "getString": 13719, "\u3079": 31992, "\u2581\u0441\u043c": 15800, "\u2581associations": 27733, "ebru": 3205, "ords": 4339, "\u2581\u043d\u0430\u0439": 11714, "\u2581wyd": 18756, "\u2581upd": 3329, "\u2581Proof": 18319, "\u0268": 30596, "comb": 17743, "\\'": 20333, "leben": 25434, "\u2581erschien": 25316, "\u2581les": 966, "\u2581develop": 2693, "Book": 10967, "\u2581Ther": 25451, "rolled": 24476, "\u2581Stars": 25435, "cis": 3476, "\u2581toggle": 20429, "\u2581lower": 5224, "4": 29946, "\u2581sw": 2381, "\u2581czy": 25777, "\u2581fres": 29595, "\u2581deix": 26801, "#,": 6552, "pers": 6774, "Include": 29419, "\u30dc": 31003, "\u2581\u0434\u0430": 3574, "\u2581variants": 29161, "cross": 19128, "Library": 12284, "'>": 11041, "\u2581influen": 13787, "\u2581hint": 13182, "\u2581freedom": 16082, "\u2581emphas": 19310, "\u2581tv": 9631, "ast": 579, "\u30b3": 30459, "when": 8256, "\u2581answering": 22862, "\u2581digits": 13340, "and": 392, "maven": 12419, "ret": 2267, "folk": 17976, "\u2581Complete": 25034, "\u2581emulator": 26364, "<0xB8>": 187, "erm": 837, "aze": 28334, "\u2581reputation": 19821, "\u2581resta": 24450, "\u2581on": 373, "ktur": 13688, "\u2581fifty": 19044, "\u0441\u044c\u043a\u0438\u043c": 29796, "bet": 6878, "ilation": 8634, "\u2581Prag": 19825, "\u009c": 31348, "\u2581nominated": 28442, "\u2581attention": 8570, "iqu": 8105, "empio": 27667, "\ub3d9": 31000, "\u2581\u044f\u043a\u0456": 16902, "\u2581suggest": 4368, "\u2581Website": 13253, "\u2581centered": 24764, "xty": 29312, "He": 3868, "Ident": 7648, "\u2581s\u00e9rie": 10375, "cego": 27991, "zeuge": 29471, "\u0434\u0435\u0439": 11194, "([": 4197, "\u2581Virtual": 19181, "antine": 20578, "\u30a1": 30897, "\u2581\u0440\u043e\u043a\u0430\u0445": 25696, "\u2581lists": 8857, "\u2581sele": 16954, "\u2581dictionary": 8600, "\u2581Labour": 29453, "\u2581grave": 15258, "\u2581sche": 21014, "\u043c\u0438\u043d": 23664, "\u2581Done": 25679, "Phys": 25847, "\u2581cualquier": 28217, "nd": 299, "\u2581listed": 9904, "\u2581people": 2305, "<0x0D>": 16, "your": 8066, "\u2581\u2018": 5129, "annes": 22393, "\u043b\u044e": 2583, "\u2581difer": 12186, "\u2581Abr": 27782, "\u2581console": 2991, "t": 29873, "\u2581shell": 6473, "remark": 26294, "plot": 5317, "\u2581(/": 20374, "\u2581resist": 9241, ")+": 7240, "Change": 7277, "\u043b\u044c": 693, "\u2581d\u00e5": 14673, "\u2581UPDATE": 16924, "E": 29923, "\u1ed1": 30984, "\u2581valley": 19599, "\u2581pla": 2174, "atoire": 20141, "<0x3D>": 64, "\u2581horizon": 28205, "onne": 7293, "\u2581miejscowo": 23046, "Tw": 27418, "\u00e4lle": 23637, "ense": 1947, "RC": 10363, "endpoint": 29734, "\u2581\u0434\u0435\u043d\u044c": 22763, "\u2581sail": 14892, "framework": 4468, "\u2581porte": 14931, "\u2581enables": 28936, "\u9023": 31692, "Shift": 29657, "irie": 24135, "\u00edv": 13906, "\u0440\u0430\u043d": 3048, "\u2581Mad": 4104, "AD": 3035, "\u2581interpol": 20064, ",%": 24163, "\u2581become": 4953, "\u2581Fast": 23786, "iak": 24061, "bir": 20397, "\u2581gall": 11798, "\u2581Giul": 24740, "]{'": 27706, "\u2581arise": 29030, "(%": 29414, "\u2581Tun": 21072, "\u2581cabe": 27444, "sing": 2976, "iani": 11727, "\u2581Glasgow": 29196, "lv": 28463, "\u2581approached": 26733, "\u2581Lim": 9628, "wy": 12822, "\u2581nj": 20199, "liver": 14381, "\u2581tend": 10331, "Rule": 10740, "\u2581zdoby": 26853, "\u2581letting": 27697, "Record": 9182, "called": 13998, "\u2581botan": 24662, "\u8857": 30813, "<0x60>": 99, "\u2581mie": 6628, "\u2581flav": 21054, "\u2581generally": 6892, "\u2581Creating": 26221, "\u2581Ali": 10785, "\u2581k\u00f6nnen": 12238, "\u2581application": 2280, "\u2581flowers": 18281, "\u2581\u0442\u0440\u0430": 12550, "\u043b\u0430\u0432": 5206, "\u2581\u0418\u0432\u0430\u043d": 14303, "Alert": 16649, "af\u00e9": 28059, "settings": 11027, "\u2581searches": 29645, "\u963f": 31227, "\u2581hel": 1081, "xs": 10351, "\u2581hidden": 7934, "acional": 4264, "\u2581returns": 3639, "dr": 7707, "bell": 12562, "\u2581finns": 6784, "\u2581Premier": 14163, "\u2581B\u00fc": 16144, "nu": 3433, "\u2581elegant": 19232, "\u2581chunk": 19875, "\u2581\u0443\u0441\u0442\u0430\u043d\u043e\u0432": 21656, "\u2581profess": 25718, "\u2581amounts": 26999, "\u05e2": 30324, "mitt": 18344, "avoir": 28619, "\u2581Ric": 13675, "SF": 20322, "\u2581Constant": 28601, "udad": 7981, "\u2581particle": 16445, "\u2581marry": 20479, "\u2581marine": 23585, "\u0434\u043e\u043b": 15906, "\u2581grown": 21633, "\u2581else": 1683, "\u2581\u0411": 1386, "\u2581\u043e\u043f\u0448\u0442\u0438\u043d\u0438": 23406, "\u2581optimized": 27545, "\u2581klas": 18559, "\u2581discovered": 10943, "\u2581Kon": 5250, "\u2581child": 2278, "\u2581$('": 4606, "\u2581Ren\u00e9": 22721, "\u2581\u0436\u043e\u0432\u0442": 22768, "\u2581eigenen": 26986, "\u2581Sr": 26250, "atively": 6703, "\u2581abc": 25638, "\u2581zewn\u0119trz": 15022, "ware": 2519, "\u2581suivante": 27046, "\u2581NO": 11698, "\u2581GitHub": 25492, "\u2581everybody": 26077, "Tube": 13425, "\u2581\u043a\u0440\u0443\u043f": 22089, "aches": 14520, "\u2581\u00e9tant": 19154, "aining": 17225, "\u2581surr": 8388, "tober": 6264, "\u2581\u043a\u043b\u0443\u0431": 21182, "\u2581doors": 24189, "\u2581Driver": 26391, "\u2581ABC": 16417, "Control": 4809, "\u2581excited": 24173, "\u2581RO": 16641, "\u2581silver": 13283, "eth": 621, "im": 326, "\u2581\u0432\u043a\u043b\u044e": 13482, "\u2581Sprache": 29634, "racle": 10792, "world": 11526, "iac": 13544, "chrome": 18114, "blogs": 25762, "ACE": 11538, "igare": 25667, "equals": 10954, "RIG": 22789, "zz": 5617, "Family": 27104, "\u2581persones": 22994, "\u0444\u0435\u0440\u0435": 22496, "\u2581\u0432\u0430": 8935, "\u043d\u0456\u043c": 28501, "\u2581\u0410\u0440\u0445\u0438\u0432\u043d\u0430\u044f": 26011, "\u043a\u0438\u0445": 5736, "\u2581fear": 8866, "\u2581recom": 27878, "\u2581angular": 6401, "\u30ab": 30439, "\u2581reports": 13676, "\u2581\u0432\u043e\u043f\u0440\u043e": 29309, "\u2581compared": 9401, "\u00e8te": 12973, "\u2581Software": 18540, "laus": 15273, "\u0437\u043e\u043c": 15438, "\u2581\u041a\u0443": 7028, "\u2581heav": 14200, "\u0441\u0442\u044c": 2321, "review": 27828, "\u201c)": 25035, "standard": 15770, "illed": 24455, "cademy": 9567, "Webachiv": 24294, "osis": 19263, "weig": 28082, "\u2581uz": 27296, "\u0436\u0434\u0435\u043d\u0438\u044f": 18479, "iki": 10058, "\u2581doubt": 7404, "qt": 17915, "\u043a\u043e\u0440": 16848, "letin": 27106, "\u2581abb": 22195, "vin": 3845, "nal": 20809, "Off": 6880, "\u2581Pers": 9034, "\u00e9rature": 19113, "arlo": 22431, "\u0279": 31513, "\u2581cult": 4185, "\u2581Process": 10554, "object": 3318, "\u2581Com": 422, "\u2581zak": 15117, "Pane": 13683, "\u2581TRUE": 15676, "rand": 9502, "\u2581fog": 16847, "\u02b2": 30668, "Standard": 15449, "\u0454": 30056, "<0x17>": 26, "\u2581Reich": 9320, "\u2581entertain": 22684, "\u2581\u043f\u0435\u0440\u0435\u0434": 17702, "Qual": 24399, "\u0441\u0442\u0443": 3936, "\u2581Kind": 13187, "\u2581Trop": 21601, "\u2581potentially": 19998, "yml": 21053, "\u2581tender": 22707, "\u2581Ergeb": 25386, "Jac": 24288, "\u2581auf": 1622, "\u2581architect": 6956, "\u2581park": 14089, "ifen": 26651, "\u043b\u0435\u043d\u0438\u044f": 6052, "\u2581causes": 9946, "selenium": 27373, "\u2581partner": 18096, "\u672a": 31295, "\u2581d\u00e9velopp": 16797, "edge": 12864, "\u2581fixes": 24626, "\u2581Gonz\u00e1lez": 25862, "ac\u00ed": 29028, "\u2581btn": 9503, "<0xC5>": 200, "rinningsomr\u00e5": 18140, "\\]": 18899, "\u2581Release": 23708, "\u2581\u043b\u044e\u0442\u043e\u0433\u043e": 28498, "\u2581\u0442\u043e\u043c\u0443": 20178, "Material": 24095, "\u2581Brook": 18737, "\\}": 18105, ".__": 17255, "\u2581trade": 11302, "\u2581Par\u00eds": 25645, "\u6765": 30805, "ached": 3791, "venue": 9947, "\u2581Bobby": 27665, "\u2581Mid": 13370, "\u2581ago": 8020, "\u2581Azure": 12634, "\u2581friend": 5121, "white": 10921, "\u2581pride": 24967, "pend": 14081, "\u2581Kid": 27912, "html": 1420, "ucht": 10236, "ah": 801, "\u2581copies": 14591, "aty": 11156, "\u2581Sof": 21541, "\u2581ii": 13607, "esty": 14596, "gz": 18828, "\u0446\u0435\u043c": 26923, "\u2581affection": 22832, "\u0d33": 31284, "erk": 5968, "ORS": 24125, "\u2581\u041c\u043e\u043d": 23796, "\u2581\u0430\u0440\u0442\u0438": 21564, "\u2581Railway": 16795, "\u2581charset": 17425, "coordinate": 29302, "\u0447\u043a\u0435": 27346, "\u2581Kno": 24133, "\u00b7": 30064, "aria": 4568, "ubernetes": 17547, "\u2581INT": 19578, "Integr": 23573, "agan": 18939, "igte": 15085, "\u2581tandis": 27093, "\uc0c1": 31158, "\u2581Gill": 28047, "nete": 18977, "owa": 5604, "\u043c\u0438\u0438": 11085, "\u2581spirits": 26829, "mbox": 8264, "\u2581p\u00f3\u017aniej": 29728, "Groups": 24020, "fields": 9621, "\u2581increases": 16415, "\u2581DI": 22471, "tableView": 18125, "\u2581Maybe": 7198, "\u2581dialog": 7928, "\u2581\u043f\u0440\u043e": 1471, "\u20b9": 30620, "\u2581radius": 11855, "\u2581Tan": 15066, "\u2581diction": 21503, "<0x57>": 90, "\u2581can": 508, "bf": 1635, "keley": 27279, "\u2581sib": 27767, "\u2581strutt": 29596, "\u2581END": 11056, "\u8a9e": 30968, "ym": 962, "ly": 368, "\u05de": 30285, "\u2581last": 1833, "ponent": 3296, "rayed": 25724, "inity": 13593, "assets": 16596, "ipage": 22697, "idx": 13140, "\u2581publish": 9805, "ovie": 5672, "\u2581\u0441\u043a\u043b\u0430\u0434\u0456": 21887, "\u2581\u017e": 6145, "\u2581down": 1623, "frastr": 14867, "zu": 6951, "\u2581externes": 7441, "\u2581hade": 18876, "aker": 5790, "\u2581slower": 20312, "\u2581\u0421\u043e\u0432\u0435": 29665, "\u10e3": 30796, "\u2581r\u00f6r": 24279, "\u2581\u041f\u0435": 13870, "\u2581curiosity": 27742, "\u2581Kill": 29021, "\u2581development": 5849, "\u2581traject": 23324, "tersuch": 26547, "\u2581foot": 3661, "\u2581err": 4589, "eqn": 7589, "\u2581siguiente": 18436, "\u2581Background": 16585, "eszt": 23293, "\u6253": 31656, "\u2581Mong": 21952, "<0x02>": 5, "\u2581muchos": 24312, "\u2581Hyper": 26078, "\u0445\u0432\u0430": 26860, "\u2581sieben": 29447, "\u2581person": 2022, "pping": 3262, "servable": 12114, "\u043b\u0456\u0439": 20825, "Models": 23785, "\u2581employees": 22873, "\u2581om": 2703, "\u2581\u0437\u0430\u0432\u0435\u0440": 24587, "\u2581gare": 24816, "\u2581programma": 29213, "\u0d37": 31921, "\u0d3e": 30468, "uno": 9447, "\u2581disease": 17135, "\u2581Did": 7440, "\u2581Articles": 12952, "\u2581Support": 18601, "\u2581kter\u00e9": 19815, "runner": 27492, "\u015b": 30045, "\u67e5": 31213, "cal": 1052, "\u2581Have": 6975, "\u2581expressions": 12241, "tel": 28497, "wie": 7804, "\u2581g\u00e9n\u00e9rale": 29532, "\u2581nerv": 23547, "\u2581pid": 23107, "\u2581believe": 4658, "FLA": 18823, "\u2581Minnesota": 20994, "\u2581oscill": 21519, "\u2581Hills": 24128, "\u2581\u0441\u0432\u0435\u0442": 23486, "\u2581conflic": 9476, "\u0142\u00f3w": 25588, "\u2581Der": 2452, "\u2581ampl": 20563, "\u2581streaming": 24820, "\u0646": 30162, "ch": 305, "\u2581Brow": 22415, "MAN": 27616, "\u2581\u015bwiat": 27713, "\u0906": 31732, "\u2581stone": 12565, "\u2581serves": 19700, "\u2581blank": 9654, "atan": 23402, "\u2581Fire": 6438, "reg": 1727, "acher": 11665, "\u2581vulner": 23180, "datetime": 12673, "\u2581\u0412": 939, "\u2581expect": 2149, "\u2581Explorer": 21508, "\u2581vier": 8545, "\u2581Theatre": 15521, "\u2581AllMovie": 29708, "\u2581machines": 14884, "\u2581details": 4902, "ittle": 1992, "\u2581celle": 14344, "\u2581ag": 946, "\u2581Dub": 11668, "lections": 5942, "\u2581rings": 28774, "\u2581sync": 16523, "\u2581quiet": 11813, "\u2581Pac": 9790, "sorted": 24582, "vendor": 19167, "\u2581exterior": 25591, "ional": 1848, "Inv": 12165, "\u0e08": 30991, "\u8be5": 31751, "\u2581Wagner": 25439, "isis": 15773, "<0x82>": 133, "\u2581jeden": 22936, "<0xB1>": 180, "\u2581mate": 15358, "\u2581Rose": 14008, "\u2581$\\": 779, "ucha": 26609, "\u2581Shin": 27948, "\u2581heat": 12871, "\u2581Wend": 29022, "\u2581\u0444": 1606, "\u2581toujours": 15237, "WF": 29686, "\u0650": 30567, "\u2581historian": 27629, "root": 4632, "\u2581Como": 17295, "\u2581kinds": 17690, "\u2581brid": 28635, "\u2581juillet": 9148, "\u2581r\u00edo": 21214, "\u2581perman": 9410, "read": 949, "\u043b\u0456": 1877, "water": 13405, "\u2581Gregory": 29094, "\u2581\u0431\u0430": 4724, "free": 9021, "\u2581Possible": 20049, "\u2581requires": 6858, "\u2581Jen": 21116, "it": 277, "pr\u00e4sident": 29372, "lika": 22605, "zo": 2502, "\u2581unless": 6521, "CP": 6271, "similar": 29764, "\u00c9tat": 16061, "\u2581Voor": 29753, "PASS": 25711, "\u0574": 30977, "\u00e8me": 5000, "\u043d\u044b": 933, "Cr": 20647, "\u2581keeping": 12515, "\u2581util": 3667, "\u2581onder": 6179, "\u2581thre": 12455, "\u2581\u0433\u043e\u0434\u043e\u0432": 23566, "\u2581aj": 13612, "aily": 8683, "\u2581convenient": 19192, "\u2581debugger": 18297, "iman": 25895, "\u2581jquery": 5804, "\u2581Coun": 6237, "\u2581roman": 9728, "\u2581Kath": 19663, "\u2581pull": 8206, "\u043c\u0435\u043d\u0435": 17859, "\u2581BY": 6770, "sig": 18816, "\u2581hon": 4207, "\u2581Athletics": 28981, "ppi": 19788, "\u5230": 30780, "\u2581owner": 12271, "\u0446\u0456\u0439": 9520, "\u2581\u0432\u0440\u0435\u043c\u044f": 8409, "\u00edcul": 7815, "\u2581\u00e1t": 20741, "clean": 14941, "pport": 3016, "\u2581email": 4876, "\u2581mouse": 9495, "icas": 5070, "<0xEA>": 237, "\u2581React": 9537, "\u2581Indian": 7560, "OH": 23170, "\u2581training": 6694, "\u0103t": 16998, "Management": 27107, "SESSION": 17493, "ful": 1319, "\u2581Michel": 12255, "package": 5113, "\u2581pueblo": 24742, "\u2581Provinz": 23114, "................": 25285, ".\u00ab": 29719, "cos": 3944, "\u2581convin": 17953, "progress": 18035, "IND": 22255, "\u0e2b": 30663, "\u4e94": 30904, "\u2581www": 7821, "\u2581hijo": 23737, "\u0081": 31242, "\u2581valuable": 21114, "\u2581inoltre": 27053, "Secret": 28459, "\u200b": 30166, "\u2581\u00c5rsmed": 26734, "\u2581Nicola": 28432, "ons": 787, "catal": 16431, "TRUE": 20652, "Num": 8009, "Store": 9044, "\u2581f\u00e1": 29712, "\u2581Main": 4241, "\u2581iv": 20444, "\u2581Roberts": 27253, "Double": 11843, "\u2033": 30160, "environment": 20944, "\u2581generating": 14655, "\uba85": 31976, "\u2581zoom": 19342, "ston": 7352, "ativ": 1926, "\u0456\u0439": 3932, "\u043f\u0430\u043d": 10328, "delta": 4181, "\u2581hom": 3632, "\u043b\u0430\u0441\u044f": 21781, "\u4e8c": 30685, "\u2581Sie": 4073, "\u2581Ann": 8081, "gi": 3146, "ternoon": 16691, "\u2581\u0421\u0435\u0432\u0435\u0440": 23070, "mn": 23521, "\u2581`/": 7034, "\u2581Male": 27208, "calcul": 15807, "\u2581B\u00e9": 21303, "adal": 27283, "Exec": 5379, "raj": 10665, "\u2581Church": 6291, "\u2581fills": 27793, "\u2581AM": 13862, "emp": 3451, "vers": 874, "\u2581Marsh": 13216, "\u0440\u0451\u0445": 22726, "Union": 19986, "Transform": 13372, "\u0431\u043e\u0440": 7677, "\u2581Tir": 27810, "ister": 1531, "\u52d5": 31124, "\u2581Sher": 17375, "\u2581>": 1405, "pto": 24070, "\u2581\u0432\u0443": 18270, "Constraints": 27427, "Valid": 7211, "\u2581kleine": 20113, "\u2581unit": 5190, "<0x9F>": 162, "\u2581Edu": 7519, "\u2581ko": 5812, "noindent": 17695, "\u2581Flash": 21967, "\u2581indicating": 23941, "\u2581\u0422\u0438": 12319, "\u2581`&": 28073, "\u2563": 31626, "\u2581compare": 7252, "merk": 28150, "}))": 20073, "\u2581substring": 28228, "\u2581\u2581\u2581\u2581": 268, "\u2581bir": 29773, "space": 3493, "\u2581synchron": 12231, "\u2581especially": 7148, "\u2581brit": 6791, "otion": 8194, "isons": 14125, "\u2581Erst": 20329, "\u0441\u0442\u0438": 1415, "GR": 14345, "\u2581wear": 19531, "\u043b\u0435\u043d\u0438\u0438": 24846, "\u2581convolution": 26851, "\u2581sounds": 10083, "\u0582": 30660, "\u2581\u00ee": 2961, "adel": 11165, "\u2581pela": 10571, "\u0445\u0443": 12735, "\u2581building": 5214, "\u00e4d": 8827, "\u2581M\u00fcller": 22226, "VC": 8257, "\u2581finales": 27538, "lichkeit": 23143, "\u2581friendship": 27994, "\u2581nationale": 7174, "BIT": 22698, "\u2581Sil": 5664, "\u2581!==": 15639, "\u2581\u0411\u044b": 25671, "\u2581Schiff": 22325, "\u2581outline": 27887, "rost": 17627, "onso": 16911, "\u2581Unless": 25870, "hold": 8948, "Ke": 9598, "\\<^": 10553, "\u2581face": 3700, "\u2581abstract": 9846, "\u2581Sig": 15861, "\u2581dz": 9275, "krie": 13464, "Device": 11501, "\u2581RET": 28081, "\u0442\u0443": 1500, "\u2581\u0427\u0438": 20835, "\u2581Cannot": 15808, "\u2581Augen": 27833, "\u2581Roma": 10659, "cols": 22724, "\u2581yards": 17454, "\u2581implementation": 5314, "\u2581File": 3497, "ally": 635, "Christ": 18687, "need": 26180, "\u2581Character": 26804, "\u2581devoted": 24600, "\u2581sil": 4047, "\u2581Lomb": 24869, "![": 21298, "\u2581\"{": 29850, "\u2581aggregate": 20431, "\u2581Err": 25361, "\u2581jusqu": 9291, "\u2581\u0421\u0421\u0421\u0420": 12383, "linewidth": 16292, "\u2581NS": 3865, "\u2581Konst": 22323, "\u2581solemn": 26384, "\u2581vertex": 12688, "\u52a0": 30666, "\u9700": 31383, "\u2581LOG": 25401, "\u2581debate": 27836, "\u2581travail": 18848, "SW": 23066, "\u2581Rec": 3599, "\u0336": 30350, "rid": 2429, "\u2581joue": 24853, "\u044e\u0449\u0438\u0439": 16059, "cych": 18614, "\u2581proper": 1571, "ld": 430, "\u2581\u041e\u0434\u043d\u0430": 18412, "Method": 4062, "\u2581skills": 25078, "\u2581reflect": 9432, "Esp": 15784, "ktiv": 21371, "\u0444\u0456\u0446\u0456\u0439": 26146, "\u2581Muham": 27100, "\u2581inse": 28405, "lacement": 9552, "esse": 5340, "\u2581kan": 6841, "\u2581}`": 24278, "\u0442\u043d\u044b\u0439": 24885, "\u2581compiled": 13126, "Office": 27247, "eper": 11356, "\u2581dr": 4192, "\u2581Hon": 7906, "\u2581scan": 12812, "\u2581historical": 15839, "dots": 7778, "\u4f8b": 31507, "ably": 2197, "\u2581\u0440\u043e\u0434": 19293, "\u2581Transfermarkt": 24637, "\u2581kt\u00f3": 6738, "getElementById": 7119, "\u2581b\u00f6r": 27856, "cers": 22543, "\u2581tun": 18515, "\u2581Application": 8427, "\u6e05": 30989, "ozz\u00e1f\u00e9r\u00e9s": 9147, "\u2581Uniti": 24699, "\u2581steps": 6576, "eded": 19226, "raid": 12240, "ud": 566, "\u2581\u0448\u0438\u0440\u043e": 24069, "\u2581salt": 15795, "\u2581\u043e\u0442\u043c\u0435": 28032, "\u2581cr": 2181, "xpath": 23635, "inding": 4015, "\u2581portion": 11910, "eu": 12932, "sob": 15975, "\u2581difficulty": 14656, "\u2581Ost": 11334, "\u2581regularly": 25704, "\u2581Facebook": 13327, "\u2581Lund": 27945, "Sc": 4421, "\u0e34": 30507, "\u2581Lex": 15045, "\u2581delete": 5217, "\u30bb": 30885, "\u2581\u043e\u0442\u0440\u0438": 18501, "cha": 5815, "\u2581departamento": 28885, "\u2012": 30921, "\u0434\u044b": 4184, "\u2581need": 817, "ber": 495, "Return": 11609, "VP": 18510, "\u2581Mode": 21864, "\u0436\u0434\u044b": 24057, "\u2581saves": 27401, "\u2581uniformly": 26018, "\u0446\u044b": 10566, "list": 1761, "math": 755, "\u2581Voci": 19835, "\u2581Craig": 28050, "\u0441\u043f\u043e\u0440\u0442": 25153, "\u2581Fem": 19361, ",\u2019": 18887, "lobal": 3157, "\u2581Road": 9321, "\u2581fest": 10982, "\u2581AC": 14614, "(\"": 703, "\u2581manifest": 10419, "\u2581finale": 10996, "\u2581Bir": 17853, "\u2581Ku": 18185, "\u2581\u00a0": 20246, "sb": 20778, "\u2581werk": 23085, "\u2581str": 851, "\u2581infant": 28056, "\u2581sle": 12844, "<0x11>": 20, "\u2581stra": 5312, "\u2964": 31899, "\u2581estud": 13497, "\u6885": 31948, "\u2581expressed": 13384, "\u2581comenz\u00f3": 27712, "enis": 16900, "ober": 4950, "b": 29890, "<0xC8>": 203, "Atlas": 27753, "\u2581fast": 5172, "\u2581mi": 3737, "\u0448\u0442\u0438": 12316, "itung": 10125, "\u2581lung": 13030, "\u2581\u0416\u0438": 23492, "gemein": 20217, "oven": 9813, "\u2581\"%": 11860, "\u2581punt": 11978, "annten": 27109, "\u2122": 30536, "Parse": 12914, "oph": 3021, "\u2581cs": 5939, "\u2581De": 897, "elines": 24210, "ateful": 22279, "\u2581Vol": 3684, "\u2581compose": 27435, "abi": 19266, "endorf": 21466, "two": 10184, "arial": 27521, "\u2581together": 4208, "\u2581award": 9862, "\u2581would": 723, "\u2581homes": 17774, "\u2581appeared": 7470, "\u2581Rap": 16866, "\u2581exer": 24472, "\u2581attract": 13978, "iod": 2660, "\u2581\u043c\u0456\u0441\u0442\u0430": 25191, "\u0442\u043e\u0440\u044b": 5090, "\u2581Norman": 21296, "yna": 18477, "\u2581communication": 12084, "\u4e5d": 31321, "\ubc15": 31736, "Enc": 8566, "\u2581\u2013": 785, "\u2581include": 3160, "\u2581dall": 8912, "\u2581given": 2183, "drag": 20515, "\u2581FK": 28682, "\u2581contain": 1712, "\u2581Pass": 6978, "brand": 16472, "\u2581wobei": 23782, "\u0440\u044f\u0434": 11645, "\u9053": 30397, "\u2581ac": 1274, "\u2581\u041b\u0456": 18843, "sign": 4530, "operatorname": 9158, "\u2581Round": 21595, "igneur": 22849, "\u2581\u00e5r": 13179, "\u2581apare": 13059, "\u2581ade": 19967, "\u2581expects": 23347, "maz": 16986, "\u2581header": 4839, "\u2581required": 3734, "Plot": 20867, "Min": 8140, "maps": 10339, "Answer": 22550, "\u2581utility": 19725, "\u2581Rich": 4385, "ectors": 11142, "\u2581Te": 1920, "\u2581hab\u00edan": 28670, "\u2581Left": 19941, "\u2581removed": 6206, "lass": 605, "\u2581dynast": 22337, "textarea": 20433, "clou": 23642, "\u2581Jag": 24423, "\u2581amer": 7902, "Len": 21515, "\u6027": 30952, "\u2581padding": 7164, "Log": 3403, "low": 677, "\u2581rad": 2971, "MT": 11490, "\u2581Ama": 11562, "\u2581Switch": 28176, "\u2581Seb": 13280, "\u2581inqu": 25501, "\u2581c\u00f3": 28810, "\u2581acted": 27320, "afka": 20817, "\u2581Ubuntu": 8294, "\u2581Else": 15785, "Region": 18457, "\u2581instanceof": 28919, "amount": 14506, "\u2581nous": 8556, "\u2581Jam": 16131, "\u2581Assume": 22680, "prog": 29097, "\u2581Titel": 16959, "agnost": 11670, "abstract": 16595, "orious": 23308, "\u2581Context": 15228, "\u82f1": 31144, "<0x0A>": 13, "\u0083": 30588, "\u2581realize": 16289, "\u2581Lower": 27723, "\u2581dit": 6309, "<0x10>": 19, "\u2581serial": 7797, "\u2581expos": 14060, "OPT": 14094, "\u2581ob": 704, "\u2581impression": 17188, "\u2581universe": 19859, "subset": 6484, "edish": 21207, "\u0119pu": 21917, "cip": 7334, "\u2581proyecto": 28255, "\u0093": 30344, "\u58eb": 30927, "omm": 3011, "\u2581bl": 1999, "\u2581declaring": 25136, "Cla": 20216, "\u529f": 31134, "spring": 4278, "\u2581turned": 6077, "\u2581peu": 7006, "\u2581Creek": 15594, "ittee": 9309, "\u2581evolution": 14675, "\u2581quest": 21126, "ateien": 12472, "\u2581kallaste": 26675, "aching": 9733, "<0xD4>": 215, "upper": 21064, "\u2581suas": 21320, "\u2581Partido": 24202, "pl": 572, "\u2581\u0440\u0430\u0431\u043e\u0442\u0430": 19568, "\u2581Audiodateien": 12497, "\u2581Amt": 19092, "\u6eaa": 31850, "aver": 12483, "\u2581Avenue": 18874, "^": 29985, "Loader": 10036, "\u2581\u0442\u0430": 1710, "\u2581Americans": 23035, "\u2581kB": 23297, "\u2581as\u00ed": 12606, "\u91cd": 30908, "\u00e7aise": 10334, "\u2581VS": 12221, "reate": 3015, "\u2581clas": 22215, "aded": 11932, "cite": 2036, "\u2581trois": 7732, "\u0442\u0435\u043b\u044f": 11146, "\u2581fem": 4445, "\u2581contradiction": 23949, "ennes": 9387, "hora": 15255, "\u2581Jet": 27804, "\u2581Items": 25085, "oming": 28826, "\u2581Comics": 25083, "\u2581&\\": 8682, "Edge": 23894, "\u2581temporal": 25406, "()": 580, "antin": 13027, "\u2581issued": 16610, "\u2581liberty": 24169, "\u2581\u043f\u0440\u043e\u0432\u043e": 18493, "Ass": 7900, "anth": 9716, "stone": 12734, "ieron": 10243, "ComboBox": 26628, "\u2264": 30248, "\u2581ili": 29040, "then": 6098, "ello": 3156, "ector": 3019, "\u2581mismo": 11329, "\u2581ranked": 26642, "\u2581einz": 15747, "\u2581Beth": 23408, "oma": 4125, "\u2581loops": 12104, "en\u00e7a": 28558, "\u2581invited": 23610, "til": 1376, "\u2581Stephen": 14317, "\u0f66": 31034, "ifier": 3709, "\u2581Arab": 10387, "Times": 29164, "\u2581net": 7787, "================": 9166, "\u5065": 31863, "\u2581shelter": 27709, "\u2581\u043f\u043e\u0434": 3693, "\u2581Secretary": 17719, "controller": 8299, "oden": 13183, "\u2581screens": 11844, "omini": 26621, "\u6e56": 31496, "\u0432\u0430": 846, "boBox": 17801, "\u2581Afr": 6308, "aire": 5218, "vano": 13288, "\u2581sz\u00f3": 27025, "\u2581\u043f\u043e\u0441\u0435": 10865, "Bundle": 9534, ">.": 15513, "\u2581p\u00fablico": 23792, "ASH": 24943, "\u05dc": 30249, "f\u00e9rence": 9625, "phen": 9789, "scribe": 13086, "\u2581pedig": 25922, "\u0648": 30171, "\u2581Note": 3940, "\u2581polic": 13665, "\u2581perhaps": 6060, "\u2581controvers": 19341, "\u2581forever": 22296, "\u2581pens": 10420, "\u2581giugno": 16935, "zeti": 21047, "\u2581\u041c\u043e": 8936, "\u2581Move": 25249, "bernate": 7549, "\u2581Bian": 29860, "selection": 21731, "\u2581\u043e\u0431\u043e\u0440\u043e": 25033, "\u2581habit": 4760, "ichtung": 20836, "\u2581Als": 8320, "dart": 11353, "tout": 24442, "\u2581significance": 26002, "stmt": 17868, "\u2581Dow": 26028, "\u2581conquist": 25188, "ulen": 26261, "\u671f": 31117, "\u2581grow": 6548, "getInstance": 20958, "There": 8439, "\u2581yeah": 21915, "stal": 11195, "\u2581Bres": 27209, "\u2581browsers": 14376, "\u0434\u043e": 1802, "++,": 10024, "proof": 8017, "\u0442\u0456\u0432": 16590, "\u53ca": 31436, "\u2581nahe": 28208, "\u2581Dar": 7335, "%\"": 23577, "value": 1767, "\u2581Jahren": 8692, "service": 5509, "\u2581simp": 3053, "\u2581\u043c\u0443": 4179, "\u0d30": 30623, "\u2581ro": 696, "Sing": 10873, "won": 12620, "\u2581Interest": 23829, "npm": 14963, "\u2581League": 5165, "reb": 15203, "\u2581DOM": 12369, "pose": 4220, "\u2581clothes": 22095, "\u2581Fam": 27458, "\u2581compla": 15313, "\u2581espe": 4740, "\u2581sempre": 14472, "\u00e9gl": 19351, "nahmen": 22734, "\u2581alc": 10747, "\u2581coffee": 26935, "\u2581attr": 12421, "\u2581threat": 28469, "buch": 8458, "\u0d24": 30550, "uden": 27336, "\u756a": 31982, "cref": 25029, "oty": 18820, "\u2581management": 10643, "\u2581org": 1638, "\u2581dens": 6245, "\u2581portug": 15056, "\u2581mest": 22243, "\u2581Electric": 26953, "\u00ed": 29983, "guard": 17728, "eping": 26819, "op": 459, "\u2581miasta": 29704, "\u00e4s": 6373, "Feature": 19132, "blast": 23190, "\u2581stays": 27111, "esk": 8488, "\u2581Referencias": 6966, "\u273f": 31738, "dynamic": 16626, "adem": 18401, "Rich": 25627, "\u2581pse": 10927, "\u2581Ivan": 16560, "ichi": 18544, "\u2581Phil": 5241, "\u2581cic": 18286, "\u2581shed": 28453, "\u2581PA": 17687, "fest": 29613, "scroll": 10510, "owej": 7937, "\u043e\u0432\u043e\u0457": 27312, "\u2581phr": 12216, "\u2581hard": 2898, "fox": 8944, "\u2581AR": 9033, "\u2581educational": 28976, "imar": 20232, "\u2581$$\\": 6118, "\u2581Phoenix": 29715, "ologie": 5458, "med": 2168, "\u2581attack": 5337, "\u2581their": 1009, "\u2581gang": 20676, "\u2581seine": 6676, "\u2581els\u0151": 19251, "\u2581Book": 6726, "\u2581Glas": 19286, "\u2581\u00e9": 904, "\u0442\u0435\u0440\u0430": 6713, "\u2581aspects": 21420, "rane": 10800, "elli": 5481, "cida": 21507, "hbar": 26620, "po": 1129, "j\u0105c": 23341, "\u2581Control": 11264, "\u043b\u0435\u043d\u0430": 14275, "\u2581elaborate": 19430, "\u2581periodic": 29591, "etten": 25864, "\u2581About": 13611, "\u53d1": 30910, "\u2581\u043f\u043e\u043b\u0435": 29235, "\u2581\u041b\u0443": 10821, "\u03c3": 30164, "aint": 2365, "\u2581san": 9753, "\u2581predicate": 24384, "\u2581pochod": 28782, "Tree": 9643, "sprach": 29339, "BI": 12809, "\uc870": 31408, "\u0442\u0430\u0440": 11741, "\u2581Black": 6054, "\u2581verschiedenen": 25176, "\u2581impress": 21210, "\u2581Vertrag": 29396, "\u09bf": 30786, "\u2581ec": 21226, "\u2581JavaScript": 8286, "\u2581ainsi": 8288, "\u2581enough": 3307, "zan": 24912, "\u2581Twe": 27637, "\u2581Their": 11275, "\u2581\u0434\u0440\u0443": 4849, "\u2581Put": 12065, "\u2581troubles": 18835, "\u2581Crist": 12546, "\u2581usage": 8744, "\u2581deployed": 21168, "etzung": 23078, "emer": 25154, "\u2581stamp": 25214, "weg": 7872, "sleep": 17059, "\ud835\udd5c": 30994, "uries": 14886, "learning": 21891, "\u2581angularjs": 20740, "Cmd": 23651, "odo": 8144, "ado": 912, "\u2581Start": 7370, "\u2581optimization": 13883, "\u2581\u0432\u044b\u043f\u0443": 16840, "\u2581eeuw": 24509, "\u2581poison": 27908, "ushed": 15392, "nested": 27420, "\u2581nos": 7814, "\u2581witness": 16277, "ologique": 20015, "strings": 19651, "\u2581industri": 21136, "\u00fcb": 20518, "\u2581Cre": 6760, "\u0440\u0438\u0441": 19625, "vr": 13416, "\u2581ver\u00f6ff": 17808, "\u6ca1": 31423, "\u2581enc": 2094, "\u2581era": 3152, "\u2581Hist": 15179, "\u2581Cinema": 27306, "eness": 18543, "\u0443\u043a": 23781, "\u2581individual": 5375, ",\r": 11167, "\u2581steam": 21837, "\u0323": 31214, "Failed": 17776, "\u0444\u0456": 9005, "\u2581Project": 8010, "\u2581Miguel": 16682, "\u0441\u0442\u0440\u0438": 19162, "\u2581purposes": 11976, "\u2581physics": 17558, "osof": 17904, "Country": 20779, "\u0638": 30912, "\u5b98": 31694, "\u2581matched": 19228, "\u2581Goth": 22883, "\u2581struct": 2281, "\u1f71": 31042, "no\u015b\u0107": 17917, "\u2581gg": 20775, "\u2581m\u00e5n": 15186, "Mad": 21878, "insert": 7851, "\u2581Pacific": 14328, "delete": 8143, "urch": 2458, "\u2581dello": 14681, "\u0442\u0443\u0430": 29412, "\u3088": 30787, "omial": 7615, "\u2581utf": 23616, "ass": 465, "\u2581grand": 4595, "\u2581Gemeinde": 8662, "\u2581composed": 13725, "AP": 3301, "\u040f": 30282, "query": 1972, "\u2581richt": 28636, "\u2581Ah": 9070, "\u2581DE": 5012, "ge": 479, "ouve": 6223, "\u2581smaller": 7968, "\u2581coinc": 22819, "abs": 6897, "ython": 1656, "ivent": 27649, "greg": 7642, "animation": 18962, "\u2581\u0440\u0430\u0439\u043e\u043d\u0435": 15560, "rix": 2126, "fore": 1079, "heet": 4155, "/$": 13346, "\u2581t\u00e9c": 22658, "arguments": 25699, "catalina": 17850, "isses": 29284, "\u012b": 30150, "MIT": 26349, "Window": 5907, "Var": 9037, "\u2581vagy": 17023, "\u7ad9": 31433, "<0x35>": 56, "\u2581\u0436\u0456": 25872, "iono": 26058, "Completion": 28958, "ynomial": 9222, "<0x2B>": 46, "\u03d5": 30821, "mk": 11256, "alls": 4293, "say": 20834, "\u2581combining": 29299, "\u2581maggiore": 26812, "kt\u00f3": 18882, "\u2581fra": 5227, "\u2581alone": 7432, "\u2581Apache": 13380, "\u2581Girls": 23992, "\u0921": 31447, "\u2581app": 623, "\u0432\u0435": 1521, "\u2581generate": 5706, "\u2581\u043f\u0440\u043e\u0444": 13503, "Comput": 20606, "\uc774": 30393, "\u2581Some": 3834, "umble": 15563, "\u2581Peg": 27281, "\u2581unnecessary": 19039, "\u2581welche": 19526, "\u2581fan": 13524, "tfrac": 22516, "\u00e9g": 2445, "\u2581teach": 6860, "<0xA3>": 166, "\u2581June": 5306, "\u2581Associ": 6853, "Find": 12542, "\u2581hoping": 17231, "\u00cd": 30175, "portal": 25089, "\u2581sched": 28598, "GM": 21576, "onian": 25813, "light": 4366, "SSN": 13429, "\u2581\u043c\u0435": 2508, "\u2581\u0441\u0438": 3485, "\u09b9": 31717, "it\u00e9": 2131, "\u2581Glo": 21806, "\u00e8t": 23855, "cro": 24077, "\u2581expected": 3806, "\u2581protagon": 15572, "\u2581Warsza": 12999, "\u2581Ros": 5678, "groupId": 9688, "\u2581krit": 21401, "Null": 7327, "\u2581keys": 6611, "tons": 7453, "\u2581\u043f\u043e\u0434\u0430": 12493, "Hz": 12661, "\u2581Kat": 12553, "\u2581institution": 12666, "\u2581Miller": 16498, "\u2581\u0433\u0440\u0430": 5532, "\u2581Represent": 16314, "\u2581\u041f\u0430\u0440": 22718, "\u2581Tal": 10288, "substr": 27790, "\u00e4chs": 29437, "\u6d3b": 31704, "\u2581sit": 7845, "ocr": 8415, "args": 5085, "Hub": 16046, "atten": 8606, "\u00e9mu": 26988, "\u2581Wind": 17311, ":\"": 6160, "Replace": 20083, "\u0440\u0438\u043d\u0430": 24436, "\u2581rational": 17903, "\u2581promised": 22399, "EV": 22240, "\u2581ucz": 25631, "\u2581campion": 18160, "\u2581Ook": 26392, "\u2581correct": 1959, "ikh": 28464, "\u2581statement": 3229, "ScrollView": 28556, "\u2581timing": 28750, "\u2581Once": 9038, "\u2581Sant": 4169, "\u2581{'": 11117, "()\r": 26471, "\u2581override": 5712, "\u2581dels": 7195, "ubuntu": 8767, "umed": 21571, "\u2581slice": 22780, "\u2581knowledge": 7134, "\u0446\u0435\u043d\u0442": 23537, "\u2581mes": 4883, "\u2581Seit": 13743, "\u2581\u0442\u0440\u0430\u0434\u0438": 24090, "\u2581d\u00e9p": 17631, "ichtet": 15219, "Gen": 15462, "\u2581before": 1434, "\u2581Krieg": 23234, "account": 10149, "\u2581isolated": 23968, "\u2581Bew": 17446, "\u2581Overflow": 28845, "struct": 4984, "gradle": 13196, "aucoup": 20168, "\u2581lum": 19703, "optera": 23672, "\u2581equipment": 21083, "\u2581\u0421\u0442\u0430\u043d\u043e\u0432": 17835, "Exception": 2451, "\u2581oracle": 17919, "\u2581they": 896, "\u00e7os": 16152, "\uc74c": 31966, "contra": 23008, "\u2581Audiod": 12479, "*}": 4044, "api": 2754, "(()": 14885, "pecies": 18458, "\u2581commented": 19952, "cente": 21450, "\u2225": 30876, "\u2581onto": 11480, "\u2581conflicts": 28792, "ensional": 8180, "\u2581conne": 1826, "avigation": 5437, "\u2581STR": 29486, "\u1f10": 30571, "ira": 3055, "\u2581Nich": 16371, "\u2581buttons": 9828, "DOM": 22141, "\u2581\u0421\u0440": 24319, "\u76f4": 31157, "\u2581weg": 20669, "nisse": 18628, "\u2581repeating": 28769, "ju": 4900, "find": 2886, "ensure": 7469, "\u2581rh": 18178, "optim": 20640, "\u00f3k": 15948, "\u2581opts": 29111, "oh": 1148, "\u2581Priv": 18936, "\u2581WH": 12317, "uset": 11616, "\u2581orth": 14219, "\u00d0": 30633, "\u062a": 30195, "software": 20415, "\u2581Fly": 28738, "\u0442\u0435": 730, "\u2581b": 289, "\u0431\u0438": 2384, "first": 4102, "boolean": 20054, "icks": 7358, "ucci": 27004, "\u2581criteria": 16614, "\u2581September": 3839, "\u043d\u043e\u0433": 18211, "\u2581variation": 19262, "\u0153uvres": 28964, "\u2581state": 2106, "\u2581ort": 20289, "\u2581m\u011b": 11450, "Michael": 24083, "\u2581apparten": 27119, "\u2581Wars": 9149, "\u2581polar": 16755, "\u2581wohl": 25304, "\u2581\u0413\u0435\u0440\u043c\u0430": 24575, "](#)": 16733, "\u2581toss": 28189, "allo": 26177, "MENT": 13780, "\u2581let": 1235, "\u2581wieku": 21777, "\u2581polit": 2832, "\u2581Leon": 10255, "\u2581aunque": 17742, "\u0442\u0438\u043b": 26765, "\u2581sites": 11840, "\u2011": 30477, "\u2581Pub": 8042, "\u2581vent": 9712, "\u2581showing": 6445, "rl": 2096, "When": 10401, "\u2581\u043f": 469, "\u66f2": 31467, "\u2581ran": 6350, "\u2581enjoy": 13389, "\u2581primit": 28147, "Picker": 13954, "\u2581\u0432\u043b\u0430": 8672, "\u2581aggreg": 11404, "\u2581mobile": 10426, "heten": 29557, "\u2581Monde": 29817, "\u2581secolo": 15200, "----+": 27385, "bove": 29205, "\u2581d\u00e9j\u00e0": 20737, "\u2581learning": 6509, "\u0442\u044b\u0439": 27393, "\u2581Connecticut": 27230, "ttemberg": 23079, "\u2581Archive": 9000, "rim": 5632, "\u2581Maryland": 22559, "\u2581s\u0105": 14435, "enta": 6381, "\u2581consult\u00e9": 27883, "\u2581Wieder": 25878, "\u2581d\u00e9c": 4224, "ponse": 1713, "\u2581reset": 10092, "\u2581Ci": 11402, "\u2581sd": 28972, "OUR": 22970, "\u02d0": 30215, "oped": 28605, "\u044b\u0445": 9240, "\u2581half": 4203, "\u2581appearance": 10097, "NotFound": 17413, "\u2581zat": 29052, "\u0627\u0644": 19233, "EventArgs": 16806, "\u2581snapshot": 22395, "########": 7346, "Action": 4276, "Team": 19409, "\u2581foram": 15305, "\u8fc7": 31138, "\u2581imag": 6382, "msg": 7645, "\u2581\u015bw": 24785, "\u060c": 31116, "\u0463": 30531, "\u2581held": 4934, "\u2581guess": 4140, "\u2581synd": 22898, "\u2581ganz": 21689, "DB": 4051, "jar": 4758, "\u2581Director": 15944, "\u2581libro": 19366, "Form": 2500, "\u2581Ins": 13377, "ctrine": 14600, "Gener": 5631, "MIN": 16173, "\u2581Create": 6204, "type": 1853, "\u2581ep": 9358, "\u2581powers": 10801, "\u2581Session": 16441, "SET": 10490, "Bus": 16890, "\u2581esa": 24888, "\u2581m\u00e1s": 3627, "\u0302": 31500, "\u2581noviembre": 9350, "\u2581Summer": 13329, "illas": 21338, "kh": 15339, "\u2581gek": 14865, "\u2581\u0430\u0440\u0445\u0438": 16480, "}},": 11656, "ikai": 17409, "\u7edf": 31675, "\u2581\u0440\u0435\u0430": 24548, "\u00e1nico": 26152, "ouver": 8885, "\u0431\u0443\u0440": 9845, "\u2581safe": 9109, "\u2581seines": 19517, "<0xAE>": 177, "\u2581\u043f\u0430\u0440": 7596, "\u0442\u043e\u043c\u0443": 23356, "\u2581tab": 4434, "\u2581Leist": 27520, "\u2581Graphics": 29247, "\u2581from": 515, "rez": 15749, "rock": 20821, "\u2581Nie": 19166, "\u2581UI": 3740, "\u5e84": 31868, "istischen": 23426, "\u2581decent": 27189, "\u2581runt": 20307, "coming": 11506, "disabled": 18279, "double": 8896, "iende": 28114, "product": 4704, "yed": 28133, "\u2581bran": 20531, "\u2581hall": 12713, "\u043d\u0446\u0438\u043a\u043b\u043e": 18222, "\u00falt": 28961, "rug": 11124, "\u00ce": 30126, "\u0d7c": 31585, "\u2581markup": 24986, "\u2581stern": 27784, "\u2581Mannschaft": 21404, "\u2581\u0441\u0442\u0430\u0440\u043e": 25177, "inand": 16149, "\u2581bus": 3593, "\u2581used": 1304, "\u2581vid": 7840, "\u2581allemand": 22517, "\u2581gentle": 9914, "\u2581j": 432, "\u2581fic": 22959, "ash": 1161, "\u2581dez": 18466, "btn": 7290, "trightarrow": 28751, "\u2581\u043c\u0430": 2394, "Home": 11184, "yj": 17472, "ienie": 23898, "FILE": 7724, "Link": 6595, "uge": 5710, "\u2581\u0434\u043e\u043b\u0436": 19611, "virti": 24465, "\u0437\u043c": 21346, "\u2581Charlie": 20283, "\u2581voj": 21414, "\u2581Fernando": 17993, "\u2581Marvel": 25791, "sime": 27566, "\u2581Word": 10803, "arel": 17243, "\u2581Fran\u00e7a": 29253, "\u044e": 30005, "\u2581triggered": 19799, "\u2581flo": 5685, "\u00a6": 30629, "\u9ec4": 31491, "mente": 2689, "\u2581repre": 14767, "Inst": 3379, "\u2581legisl": 13332, "\u2581learned": 10972, "\u2581Rafael": 25661, "ske": 26050, "US": 3308, "\u2581sed": 7048, "\u2581convention": 15687, "\u2581pubblicato": 25491, "build": 4282, "\u2581Jer": 5677, "icki": 26894, "aser": 29440, "\u2581Section": 9779, "\u2581creates": 10017, "\u044e\u0449\u0435\u0433\u043e": 26920, "sourceforge": 28315, "ellers": 28257, "\u2581the": 278, "\u2581rappresent": 24449, "\u2581Hamiltonian": 27752, "<0x72>": 117, "zik": 20711, "\u2581buy": 15649, "\u2581Ciudad": 25757, "\u7406": 30687, "\u2581cool": 12528, "\u2581quadratic": 25904, "Of": 2776, "taire": 19073, "duration": 19708, "\u2581involve": 25135, "px": 1756, "}$-": 23021, "\u2581dedicated": 16955, "\u2581coup": 17103, "\u2581minus": 26134, "\u2581mot": 3184, "eqnarray": 9441, "\u2581Peace": 24819, "\u2581maximal": 23183, "uten": 6935, "IO": 5971, "\u83b7": 31024, "\u2581Single": 16740, "igh": 1141, "\u2581virt": 4610, "\u2581v\u0161": 20145, "\u2581\u0438": 606, "\u2581geme": 9412, "zech": 12357, "\u2581curios": 20301, "plane": 22116, "\u2581incor": 6178, "\u2581Car": 1704, "\u2581Kle": 9924, "\u2581fav": 5025, "halb": 11820, "iku": 18282, "\u2581Compet": 24620, "\u2581Notes": 8695, "N": 29940, "\u2581dispon": 14458, "\u2581drei": 9697, "\u2581Union": 7761, "NET": 6006, "Pointer": 14516, "\u2581hect": 28834, "enez": 10281, "{`": 18519, "\u2581principalmente": 21995, "\"/>": 4681, "\u2297": 31486, "\u2581imported": 19673, "\u2581Upon": 19956, "\u2581formats": 21971, "}}{": 7585, "\u2581niemieck": 27417, "\u2581Rost": 27411, "orm": 555, "\u2581been": 1063, "\u2581Electron": 28251, "\u2581transferred": 18440, "ess\u00e9g": 27732, "\u1ecd": 30975, "\u0459\u0438": 28211, "\u2581Philadel": 17146, "\u2581interesting": 8031, "\u2581\u0433\u043e\u043b\u043e\u0432": 19311, "\u2581earliest": 24577, "\u2581joins": 26205, "\u2581Michigan": 17098, "vo": 1365, "ublic": 803, "orge": 3890, "\u2581executes": 24138, "\u0441\u0442": 464, "\u043c\u0443": 1805, "\u2581wind": 8805, "vest": 10147, "\u2581artifact": 24238, "\u092d": 31380, "\u2581\u041c\u0438\u0445\u0430\u0439": 22421, "END": 11794, "\u2581posit": 13686, "<0x7F>": 130, "\u2581GR": 18016, "charg": 25389, "\u2581versione": 26670, "arqu": 19862, "Utils": 12177, "\u2581Kun": 25472, "\u2581instantly": 26232, "Vor": 14147, "\u2581thought": 2714, "on": 265, "imer": 4193, "\u2581\u0420\u0430\u0441": 29355, "\u2581kde": 26109, "\u2581threshold": 16897, "\u043e\u043b\u043e\u0433\u0438": 17060, "pc": 6739, "\u2581wa": 11324, "\u2581ch\u00e2teau": 20085, "\u2581temporada": 12826, "\u2581transaction": 10804, "\u2581fallen": 19225, "\u2581meer": 13754, "\u2581\u043d\u0443": 26367, "slug": 29517, "ire": 533, "ando": 1743, "oltre": 20184, "\u2581article": 4274, "Tom": 21599, "Parameters": 11507, "\u2581crew": 17616, "\u043b\u043d": 22519, "omp": 21744, "\u2581\u0438\u043c\u0435\u043d\u0438": 21959, "itate": 10388, "\u2581robot": 19964, "\u2581Nobel": 27813, "\u043a\u043e\u043c": 4751, "MY": 17870, "\u2581Sic": 18349, "\\}$": 11854, "licher": 9195, "\u2581wz": 18589, "chn": 3049, "Package": 14459, "adapter": 21412, "\u2581\u0441\u0435\u0440\u0438": 28860, "\u8054": 31986, "\u2581converted": 11543, "t\u00e9": 6772, "\u4f50": 31315, "ologe": 23780, "idd": 2205, "\u0540": 31307, "\u2581symmet": 9682, "\u2581aid": 16226, "\u2581Mich": 3375, "Split": 18772, "\u2581interactions": 22060, "\u2581Uri": 21670, "\u2581inform\u00e1ci\u00f3": 24814, ")^{": 8940, "\u2581wal": 17042, "\u2581yo": 24800, "\u2581Sam": 3685, "\u2581Braun": 23514, "\u2581entonces": 19665, "\u2581Kir": 5201, ")!": 20198, "\u0432\u0448\u0438\u0445": 23265, "ody": 1486, "orno": 16378, "\ufe0f": 30598, "url": 2271, "\u2581Sud": 8383, "\u8bdd": 31852, "\u2581group": 2318, "\u2581\u0421\u0441\u044b\u043b\u043a\u0438": 9674, "\u2581Ek": 16462, "oa": 19807, "WIN": 25152, "\u2581ha": 447, "\u2581qual": 4021, "lac": 4620, "\u0437\u0435\u043c": 20117, "\u2581Fach": 21378, "\u2581cheap": 28773, "\u2581laptop": 19022, "\u2581Node": 9071, "\u2581kole": 14464, "\u2581remember": 6456, "phi": 2876, "ership": 10475, "\u2581Syl": 19628, "\u2581ela": 25192, "\u2581Gr": 1632, "Ctrl": 18069, "elsk": 18133, "\u2581\u0432\u043d\u0443\u0442": 27165, "\u010d": 30026, "lej": 23275, "\u6bcd": 31763, "\u2581merge": 10366, "\u2581stackoverflow": 29577, "\u52a1": 31358, "Connection": 5350, "\u2581\u0410\u043b\u044c": 17908, "\u2581source": 2752, "\u2581recogn": 5936, "\u2581mieszka\u0144c\u00f3w": 28589, "ensis": 6322, "rod": 5964, "fficient": 4543, "\u2581grew": 13631, "\u2581Bat": 12579, "\u2581Guerre": 19299, "ilio": 14876, "jav": 9494, "\u2581Fland": 29666, "\u2581Sammlung": 10979, "\u222b": 31230, "CS": 9295, "\u2581Bent": 27079, "Mal": 22995, ");\r": 6075, "\u2581pas": 2331, "\u2581Family": 14662, "loyee": 10164, "Should": 26857, "Available": 27635, "\u6d25": 31365, "omic": 25426, "\u2581Tak": 14619, "\u043f\u0438\u0441\u0438": 17307, "str": 710, "\u2581sp\u00e4ter": 9655, "certain": 14082, "\u2581stessa": 29200, "\u2581Jenkins": 23750, "\u2581Pse": 17646, "\u2581decid": 18937, "defined": 12119, "idden": 4215, "\u0b95": 30700, "\u2581Harm": 28804, "uka": 22971, "FFER": 28483, "\u2581\u0441\u043e\u0441\u0442\u0430": 15553, "fif": 28491, "\u2581\u043d\u0435\u0437\u0430": 18972, "\u7cfb": 31185, "\u2581bezeichneter": 20721, "six": 28319, "\u0445\u0456\u0432\u043e\u0432\u0430\u043d\u043e": 11766, "\u2581\u0445\u0430\u0440\u0430\u043a": 18194, "timer": 20404, "\u2581more": 901, "\u2581r\u00e9pond": 25497, "\u2581Municip": 12813, "\u2581vez": 7763, "\u043c\u0438\u0440\u0430": 17497, "\u2581infatti": 29707, "\u2581Fight": 26650, "\u2581desire": 13521, "Site": 17033, "\u2581Target": 17157, "\u2581(?": 22308, "\u2581Ex": 1222, "ordinary": 24310, "\u2581hot": 7375, "\u2581weeks": 11405, "\u2581pers": 3736, "\u2581Cic": 24945, "++)": 4862, "\u2581counter": 6795, "\u043c\u043e\u0439": 16574, "\u2581everyone": 14332, "\u2581UNION": 25919, "axis": 8990, "\u2581\u043d\u043e\u0432": 13074, "\u2581\u0447\u0435\u0441\u0442\u044c": 28654, "\u0281": 30450, "\u10dd": 30541, "\u30c8": 30279, "\u0292": 30614, "ide": 680, "\u2581\u043f\u043e\u0441\u043b\u0435\u0434": 17235, "urn": 595, "\u00e1nd": 8712, "\u2581\u0432\u043e": 1786, "=%": 16328, "\u2581Imper": 12607, "<0xBF>": 194, "ember": 1096, "\u2581Thomas": 5569, "\u2581sess": 27937, "\u2581odkazy": 17871, "\\|_{": 22772, "mort": 29720, "\u2581sp\u00e9cial": 23662, "activ": 11236, "\u0e13": 31796, "\u2581cruel": 24116, "\u2581Deep": 21784, "\u2581`": 421, "\u043a\u043e\u0433\u043e": 8199, "\u2581Down": 9943, "\u2581figures": 13994, "\u2581nic": 16588, "\u56db": 30928, "\u2581mouv": 20758, "\u043a\u043e\u0432\u0430": 9767, "\u2581numer": 4825, "rics": 10817, "pack": 4058, "amd": 22490, "\u2581Places": 23178, "inn": 2559, "Column": 4409, "RelativeLayout": 26374, "\u2581Cub": 28618, "\u0935": 30610, "ucion": 28762, "\u2581auteurs": 19117, "Resources": 13770, "\u2581Mix": 23478, "\u2581producer": 14297, "hou": 10774, "ieve": 2418, "pu": 3746, "\u2581Fair": 13822, "uest": 16139, "\u2581amor": 24550, "<0x7A>": 125, "uve": 15008, "\u2581again": 1449, "\u2581Agency": 29353, "\u0446\u0443": 9062, "NER": 13865, "fg": 16434, "\u2581jest": 6771, "\u2581Animal": 22809, "owner": 20348, "\u2581fre": 3005, "\u2581mysq": 15534, "\u2581Gef": 15759, "\u2581em": 953, "\u0442\u0438\u0447\u0435": 7166, "mir": 11038, "(\"#": 14822, "Resolver": 19648, "\u2581tie": 22134, "\u2581intersection": 17686, "\u2581Ga": 10415, "ismo": 4411, "\u2581\u043f\u0438\u0441\u0430": 16851, "\u00e9o": 22756, "\u2581Cred": 24596, "\u2581langue": 25407, "\u2581diam": 11502, "Extension": 17657, "\u2581commanded": 26540, "\u2581ri": 10107, "\u2581generalized": 28803, "\u2581changed": 3939, "\u2581\u0438\u044e\u043b\u044f": 16353, "all": 497, "\u2581Airlines": 29718, "\u2581\u0413\u0435\u0440": 14281, "\u2581lieutenant": 25097, "\u2581sizes": 15786, "velope": 21367, "\u2581Rule": 27308, "\u2581\u041f\u043e\u043f\u0438\u0441": 27645, "tasks": 20673, "Sh": 2713, "Sw": 10840, "phase": 21646, "\u0444\u0438\u0446\u0438\u0430\u043b\u044c": 16364, "},": 1118, "edes": 11696, "\u2581n\u00e9cessaire": 23309, "\u7269": 30834, "yrus": 29646, "\u2581extension": 6081, "\u2581\u043f\u0430\u043c\u044f": 22836, "\u2581what": 825, "\u2581\u00f6st": 24734, "Items": 6913, "iene": 3530, "\u2581century": 6462, "_*": 24563, "nov": 13715, "\u0442\u0435\u043b\u0435\u0439": 11572, "\u0406": 30090, "\u2581ske": 18109, "\u2581L\u00f6": 26164, "deck": 16565, "\u2581fake": 25713, "\u043d\u044b\u0445": 2430, "Iter": 13463, "zia": 19822, "\u2581\u0443\u0436\u0435": 20203, "km": 8848, "lambda": 2892, "\u2581moder": 17768, "\u2581guarante": 10509, "\u2581tied": 21351, "\u2581AF": 23844, "dog": 26169, "nection": 3559, "AppData": 27674, "\u2581answered": 7699, "\u2581\"\\<": 20770, "anel": 3870, "\u636e": 30763, "\u2581droite": 29262, "\u057d": 30881, "\u2581algebra": 9623, "\u2581\u0435\u0434\u0438\u043d": 25918, "neum": 29765, "\u62f3": 31848, "\u00fdmi": 25788, "\u2581eval": 19745, "\u2581Vlad": 18060, "\u2581computers": 23226, "\u2581killing": 23393, "\u2581g\u00e9nero": 24122, "\u2581Customer": 21886, "ited": 1573, "\u2581flying": 22764, "\u2581afraid": 13421, "law": 10653, "\u2581police": 10974, "web": 2676, "ruction": 4080, "lis": 23443, "imate": 6490, "\u2581rise": 14451, "\u0446\u0435\u043d\u0430": 25144, "ARY": 19926, "\u2581McC": 15612, "\u2581Evangel": 21827, "\u2581e": 321, "\u2581s\u00e9": 7019, "\u2581Mel": 6286, "\u2581sorting": 16548, "\u2581bef": 15823, "ENT": 3919, "eben": 5154, "\u2581leave": 5967, "\u2581characteristic": 17443, "kie": 19501, "\u0441\u043a\u0438\u043c\u0438": 21593, "\u2581D\u00fcsseldorf": 28901, "\u2581interpolation": 29694, "\u2581tum": 21622, "\u2581Chi": 18168, "abad": 20143, "inth": 22653, "\u2581nou": 28313, "\u2581estate": 19989, "<0xC2>": 197, "endencia": 28139, "\u2581lived": 10600, "\u2581hello": 22172, "\u2581starting": 6257, "flat": 20620, "\u2581wegen": 19580, "\u770c": 31108, "\u2581Richard": 6123, "sex": 14167, "\u30fb": 30290, "\u1ee9": 31318, "\u2581ell": 12302, "la": 433, "onica": 26082, "\u2581vi": 3516, "\u2581Dor": 9579, "Sort": 13685, "\u2581az": 2698, "Ar": 1433, "Logger": 16363, "\u2581Transfer": 17934, "\u2581stim": 20436, "postgresql": 29272, "\u0446\u0438": 1138, "td": 1594, "\u2581anim": 3778, "Observable": 27928, "History": 20570, "fold": 8771, "\u0440\u0435\u0434\u0438": 9951, "ethe": 23043, "span": 9653, "mon": 3712, "\u2581})": 5615, "\u2581counted": 29115, "isser": 29415, "\u2581children": 4344, "ums": 6762, "\u2581my": 590, "\u2581refused": 15964, "\u2581Des": 2726, "\u2581advent": 17623, "\u2581women": 5866, "illo": 9093, "checkbox": 12348, "anted": 9714, "\u2581Dal": 9400, "subseteq": 11725, "\u2581AJAX": 18891, "\u2581incon": 22629, "icane": 26655, "\u2581ist": 1752, "do": 1867, "\u2581indeed": 6200, "outer": 5561, "\u2581Rob": 6417, "BC": 5371, "\u2581stopping": 25480, "\u0445\u043e\u0434\u0430": 26352, "\u2581Laz": 19575, "\u2581\u0441\u0456": 14230, "\u2581Xml": 24409, "<<": 9314, "\u0578": 30418, "\ub3c4": 31136, "jus": 18597, "\u2581Fol": 8301, "\u2581r\u00e9sz": 21931, "\u2581Spec": 12048, "\u2581air": 4799, "\u2581Reb": 12936, "\u2581ense": 23930, "sec": 3471, "numer": 8058, "\u2581reflected": 25312, "\u2581cities": 14368, "\uff08": 30419, "\u2581True": 5852, "(\"<": 28945, "Und": 25263, "\u2581wyst": 14787, "series": 13757, "\u2581Keep": 19152, "\u043b\u0438\u0437\u0430": 19129, "Contains": 21409, "\u043c\u043e\u0440": 12434, "\u2581'": 525, ")": 29897, "\u2581lack": 10225, "\u2581R\u00e9f\u00e9rences": 18578, "\u2581Men": 7567, "readsheet": 27844, "\u043a\u043e\u0432": 2530, "\u2581IE": 7159, "\u2581lost": 5714, "\u00e4ter": 8036, "besondere": 23787, "ube": 4003, "\u2581consequence": 17004, "\u2581hypothesis": 20051, "\u2581documentation": 5106, "\u2581NUM": 28019, "\u2581singular": 13512, "Week": 22606, "\u1780": 31849, "\u2581trivial": 12604, "\u2581sze": 17007, "night": 11147, "\u00edgen": 28068, "alert": 12888, "\u30ba": 30719, "^\\": 3823, "\u2581about": 1048, "\u2581Nel": 5728, "\u2581expanded": 17832, "\u2581bad": 4319, "ranch": 4014, "ent": 296, "schlie\u00dfend": 24154, "\u0441\u0443\u0442": 20684, "guer": 26880, "j\u0119": 10274, "\u2581aside": 17786, "\u2581define": 4529, "\u2581dem": 1261, "\u53f3": 31803, "\u2581Conseil": 25774, "\u2581inve": 22808, "\u30e6": 31524, "\u2581_{": 7722, "\u2581\u0441\u043a\u043b\u0430": 9036, "\u2581library": 3489, "textt": 16196, "\u2581here": 1244, "\u2581\u0441\u0432\u043e\u044e": 19005, "sort": 6605, "\u0441\u043a\u043e": 1130, "\u2581Roland": 24915, "worth": 12554, "affen": 19593, "evalu": 24219, "aving": 5555, "\u0442\u0435\u043d": 12087, "\u2581Angel": 17323, "idi": 8819, "Bas": 9496, "cod": 19284, "\u2581\u0441\u0442\u0430\u043b": 13627, "imb": 19977, "\u2581relief": 18892, "lip": 3466, "\u2581modify": 6623, "\u2581Butler": 29384, "\u2581self": 1583, "\uc5ed": 31987, "\u5e93": 31700, "\u2581fi": 5713, "\u2581PL": 16507, "apter": 3314, "\u2581oblig": 10788, "\u2581totally": 14909, "\uc815": 30852, "\u2581ships": 13968, "\u2581commonly": 15574, "\u2581Vit": 22491, "FX": 26753, "\u3080": 31834, "\u2581divers": 6894, "\u2581Rio": 11611, "\u2581cross": 4891, "\u2581encoded": 18511, "\u5b50": 30319, "\u2581accomplished": 24799, "\u2581porta": 23344, "\u2581Ps": 10144, "press": 2139, "bolds": 5911, "\u2581Force": 11004, "cile": 21873, "ican": 2185, "base": 3188, "\u2581\u043e\u0431\u043b\u0430": 5055, "\u2581dock": 23630, "\u2550\u2550": 13648, "Tag": 8176, "\u2581\u0442\u043e\u0440": 18068, "\u2581...": 2023, "\u2581VII": 13408, "\u2581gegen\u00fcber": 26479, "\u8cb4": 31887, "\u2581lamp": 28692, "\u3054": 31622, "\u2581sparse": 29234, "\u2581high": 1880, "efined": 5598, "\u2581eingesetzt": 15979, "\u65cf": 30999, "timestamp": 16394, "dent": 25873, "\u2581Tennis": 29010, "\u2581styles": 11949, "<0xC9>": 204, "ool": 1507, "nofollow": 4043, "}_{\\": 6353, "\u597d": 31076, "\u09a4": 31150, "\u2581\u0433\u043e\u0434\u0443": 3294, "\u2581sequence": 5665, "'}": 10827, "anning": 9450, "imen": 19933, "\u03ca": 31832, "\u2581fare": 20036, "\u2581forward": 6375, "\u2581\u043d\u0430\u0437\u044b\u0432\u0430": 23016, "\u043c\u0430\u043d": 3392, "lying": 5890, "\u2581Wi": 14570, "\u2581shoot": 15049, "\u2581folk": 19589, "olly": 18368, "talet": 25319, "FD": 26453, "\u2581lloc": 29846, "\u56fe": 30861, "\u2581Zusammen": 18640, "Compat": 14644, "jourd": 18997, "\u2581famous": 13834, "prime": 10080, "\u2581footballer": 19026, "\u2581\u0412\u0438\u043a\u0438\u043f\u0435\u0434\u0438": 19330, "\u2581\u0432\u0437": 25505, "\u2581Response": 13291, "launch": 15343, "\u2581\u0440\u0435": 1909, "vera": 28279, "\u2581characters": 4890, "\u2581Mi": 5493, "\u2581\u0434\u0435\u0439\u0441\u0442\u0432\u0438": 20046, "\u2581Exec": 11080, "\\)": 7244, "\u2581f\u00f8r": 27462, "\u2581entr": 9953, "uru": 20144, "ette": 2353, "\u2581UP": 11901, "\u2581pulled": 20043, "\u2581purely": 24837, "Lng": 25852, "sem": 12846, "\u2581\u0457\u0457": 21288, "\u2581waves": 20037, "stack": 1429, "\u2581jour": 8694, "\u2581Using": 5293, "\u2581Trade": 27226, "items": 7076, "mathsf": 9605, "\u2581estava": 24137, "Donald": 28080, "Key": 2558, "\u2581kernel": 8466, "Refresh": 27132, "\u00e4": 29986, "\u2581Nell": 26450, "\u2581\":": 29242, "\u2581beach": 25695, "&": 29987, "\u2581\u0444\u0438\u043b\u044c": 13320, "\u2581dom": 2432, "HTTP": 10493, "\u2581divided": 13931, "\u2581ris": 5161, "\u2581Mack": 21343, "\u043b\u0456\u043d": 28338, "\u2581One": 3118, "agle": 20860, "ammer": 28527, "\u2581Rab": 16155, "LENG": 19271, "cpu": 21970, "\u2581elementos": 29290, "usk": 17400, "\u2581quickly": 9098, "\u0080": 30751, "throw": 20539, "\u2581Street": 7103, "\u2581hosp": 29418, "BB": 14388, "\u2581\u0427\u0435": 16525, "\u2581ig": 8919, "\u2581Cou": 19565, "\u2581Frank": 4976, "Option": 8375, "\u2581habitants": 12173, "scher": 19996, "AU": 25951, "ula": 2497, "\u2581franch": 23272, "germeister": 25382, "\u2581ges": 6300, "itos": 12870, "\u2581\u0432\u043d\u0435": 21944, "Est": 12787, "\u2581rey": 24883, "David": 19504, "\u2581Lear": 19530, "\u9ad8": 30528, "\u2581stati": 23436, "\u2581becomes": 7415, "\u00f6v": 14532, "\u2581successor": 29433, "\u2581'''": 14550, "\u2581fas": 25995, "\u2581\u0421\u0443": 9624, "\u2581prompt": 9508, "\u2581regarding": 11211, "\u00fclt": 12100, "plugins": 12800, "\u2581DJ": 23366, "\u2581difficult": 5189, "\u2581Neu": 17574, "\u2581defaults": 21274, "\u1fd6": 30608, "enschaft": 7008, "\u2581Prof": 6175, "Bottom": 15342, "\u043a\u0442\u0438": 9054, "\u2581Past": 19793, "\u2581rand": 20088, "\u2581participants": 27138, "\u7537": 31203, "\u2581Florida": 13813, "\u2581\u0438\u0441\u0441\u043b\u0435\u0434\u043e\u0432\u0430": 20565, "desktop": 20858, "\u2243": 31224, "velop": 1830, "ural": 3631, "\u2581ensure": 9801, "\u2581Hung": 14198, "[]{": 24406, "ont": 609, "rike": 20995, "\u2581territ": 5884, "SK": 16033, "emberg": 19675, "\u2581Euro": 11652, "\u2581Gy": 12842, "\u2581attended": 14283, "ckets": 9737, "\u2581refuge": 25447, "aters": 10412, "empor": 9059, "iled": 2356, "\u0445\u0456\u0434": 10226, "mongodb": 23264, "\u623f": 31975, "\u2581finalmente": 27986, "ision": 2459, "\u2581Ernst": 15969, "\u2581generic": 10035, "atrice": 17417, "ads": 7925, "\u2581ins": 1663, "\u2581depending": 8679, "pository": 7036, "PATH": 10145, "oug": 692, "\u2581declare": 9607, "\u2581sau": 12507, "\u2581offices": 25222, "\u2581Congress": 11559, "\u2581strictly": 18719, "WE": 8851, "\u2581extr": 17541, "\u2581Region": 11069, "\u2581atte": 21609, "Ok": 20434, "Transport": 27395, "\u0d9a": 31865, "\u2581center": 4818, "\u00e9ral": 8165, "\u2581kdy": 27546, "alous": 20521, "\u2581sols": 25999, "\u0433\u0440\u0435": 14370, "\u2581staff": 13925, "iams": 10909, "\u2581json": 4390, "ymi": 18653, ".*": 5575, "<0x0B>": 14, "EDIT": 12378, "\u2581D": 360, "apt": 2156, "\u2581metres": 17963, "};": 3400, "\u2581Congo": 29723, "\u04d9": 30558, "\u2581Ser": 1816, "\u2581Here": 2266, "\u2581In": 512, "\u0449\u0435\u043d\u0438\u044f": 14483, "\u2581\u043e\u043f\u0435\u0440\u0430": 16458, "acs": 16815, "\u2581Set": 3789, "\u2581jsf": 27413, "erson": 1330, "\u2581Ellen": 29043, "\u2581Bib": 19864, "\u2581findet": 28741, "\u044c\u044f": 14252, "cx": 18904, "\u2581slot": 21497, "umbnail": 21145, "\u0442\u0440\u0435": 11414, "\u85cf": 31707, "\u6238": 31627, "\u2581inf": 3041, "\u0432\u0448\u0438\u0439": 17754, "\u2581Music": 6125, "\u044a\u043b\u0433\u0430\u0440": 29713, "\u2581Alfonso": 29651, "\u2581illegal": 27302, "<0xAF>": 178, "pf": 7810, "FILES": 24483, "Debug": 11862, "\u2581Ris": 25259, "\u2581chang": 1874, "socket": 11514, "\u2581principle": 12502, "\u2581international": 6121, "\u2581Fritz": 22839, "\u2581bo": 1045, "analysis": 15916, "\u2581filosof": 22188, "\u2581XP": 28932, "gestellt": 22436, "\u2581\u0434\u0430\u043d": 11650, "(__": 22168, "\u2581State": 4306, "National": 27325, "universit\u00e9": 26759, "rodu": 3518, "trz": 11615, "Il": 14126, "angles": 19536, "oso": 9064, "\u2581Observable": 20215, "infl": 13453, "\u2581primary": 7601, "ist": 391, "\u0445\u0435": 14417, "\u2581ta": 11062, "thm": 12743, "\u2581Religion": 27099, "\u3010": 31478, "\u2581composition": 15259, "aler": 18362, "Good": 18420, "\u2581illustrated": 26848, "\u2581k\u00f6vet": 24100, "\u97f3": 30941, "\u2581Ult": 18514, "\u2581dok": 18004, "\u2581\u043f\u0440\u0430\u0446\u044e": 23595, "\u624b": 30880, "vari": 5927, "\u2581Dup": 18733, "pop": 7323, "\u2581Iz": 15674, "bour": 6526, "\u2581linking": 25236, "bound": 9917, "kord": 29619, "\u2581dos": 3248, "abc": 10736, "\u2581Lincoln": 17274, "\u043f\u0440\u0430\u0432\u0438": 19524, "Gi": 26074, "\u2581\u0410\u0440": 6164, "\u2581lado": 19931, "\u2581Dezember": 7860, "Pan": 23684, "compatible": 23712, "imas": 25268, "imming": 25217, "SUB": 20633, "\u2581sensor": 23530, "\u2581holy": 26630, "od": 397, "orden": 10934, "\u2581hosting": 23376, "citep": 10001, "\u2581NAS": 16938, "\u2581\u0431": 836, "l\u00e9": 12898, "\u2581put": 1925, "AST": 28938, "\u2581fewer": 28145, "\u2581\u0414": 1453, "\u2581brought": 6296, "\u2581Luxemb": 23812, "ical": 936, "\u2581Lem": 8836, "viously": 16604, "\u7247": 31122, "equal": 11745, "<0x56>": 89, "\u2581vom": 3961, "iu": 5871, "empty": 6310, "\u2581ASCII": 27196, "asticsearch": 20291, "\u2581durant": 13933, "\u2581jelent": 23962, "onas": 27835, "Just": 14084, "Use": 11403, "\u2581trabal": 19739, "\u0436\u0435\u043d": 4054, "\u5149": 30867, "oda": 8887, "\u2581Donald": 18935, "allenge": 11768, "\u2581only": 871, "decor": 19557, "\u2581Racing": 22582, "\u2581orch": 22624, "eggi": 28137, "\u2581brig": 16724, "\u2581fueron": 12004, "ivas": 19701, "iendo": 17008, "\u2581query": 2346, "fram": 22328, "Interceptor": 24923, "\u5b9e": 31195, "\u2581Florence": 23998, "\u2581<%=": 21172, "alement": 6311, "\u2581o": 288, "cze": 18562, "\u2581Bond": 26370, "through": 20678, "\u2581imply": 22366, "\u2581prav": 21535, "\u2581derni\u00e8re": 24407, "\u2581intern": 2836, "cket": 3522, "\u2581temperature": 10430, "zone": 8028, "cred": 11944, "\u2581challeng": 18066, "ada": 1114, "Click": 4164, "\u2581particularly": 10734, "dern": 13334, "dash": 14592, "\u2581gminie": 27610, "\u2581fabric": 18187, "\u2581convent": 13064, "\u2581ggplot": 25662, "ames": 1280, "managed": 25240, "idas": 8817, "\u2581Geography": 27340, "\u2581gi": 4005, "'].": 13359, "\u2581ap\u00f3s": 24292, "\u2581movement": 10298, "\u2581Dieser": 24727, "Ha": 24704, "\u2581Hunter": 25703, "\u5b78": 31274, "\u2581reject": 12560, "\u2581eran": 14960, "\u2581prede": 27978, "gest": 7118, "\u2581connected": 6631, "elly": 14112, "\u2581Chiesa": 26553, "\u2581opin": 7752, "\u0dcf": 31712, "och": 2878, "posta": 27363, "|^": 15333, "keeper": 23935, "cible": 15520, "amsung": 28935, "ottom": 3570, "resource": 10314, "\u2581prue": 28854, "iii": 25609, "zy": 1537, "\u2581Germany": 9556, "\u2581Green": 7646, "\u2581gold": 7684, "\u2581modern": 5400, "orie": 7661, "\u2581\u0440\u0456": 9911, "\u00e4tten": 29322, "\u2581Wal": 5260, "\u52dd": 31721, "\u2581junto": 14597, "\u2581\u0443\u0447\u0430\u0441\u0442\u0438\u0435": 22398, "\u043d\u0438\u043a\u043e\u043c": 14083, "library": 5258, "\u2581discovery": 20699, "\u2581git": 6315, "umen": 14170, "\u2581drew": 15010, "\u2581SE": 3725, "\u2581formed": 8429, "othek": 17663, "itchen": 23213, "zew": 29274, "\u2581far": 2215, "('\\": 28909, "\u2581ore": 28074, "\u2566": 31128, "\u2581\u0433\u043e\u0434\u0438": 5808, "\u2581Pero": 28608, "\")`": 20933, "\u043d\u0438\u0435": 1755, "antages": 19771, "\u2581\u0432\u043e\u0434\u043e": 20783, "oslav": 17464, "WT": 17755, "\u00e9nd": 21183, "\u00c3": 30179, "rage": 6617, "\u2581\u0432\u0456\u0434\u043e": 23037, "ordinates": 24266, "component": 9700, "Types": 10562, "mier": 26131, "pipe": 17760, "\u2581Bear": 23606, "slide": 19265, "ctx": 13073, "\u0433\u043d\u0435": 21740, "\u2581Isra": 22895, "\uc740": 31354, "jours": 14186, "\u2581OUT": 19474, "\u2581event": 1741, "\u2581isol": 11695, "\u2581IMDb": 11769, "\u2581power": 3081, "\u2581sent": 2665, "\u2581Mountain": 18204, "\u2581m\u00e8tres": 22609, "Warning": 22709, "\u10d8": 30277, "\u2581Carl": 8965, "\u2581\u0424\u0440\u0430\u043d": 9958, "\u2581\u0432\u0441\u0442\u0440\u0435": 22743, "\u2581dois": 19760, "\u2581hab": 2299, "ensions": 5580, "template": 6886, "\u2581Content": 10576, "iration": 12232, "serve": 16349, "\u0442\u0435\u0439": 14469, "\u2581MA": 14861, "\u2581Minn": 17988, "only": 6194, "tcp": 23981, "\u2581Bag": 18341, "\u2581\u00e9lect": 19507, "agua": 29296, "Other": 16107, "lesia": 17516, "gar": 5397, "\u00e1rs": 19596, "\u2581\u0441\u0435\u043c": 18534, "\u2581\u00e9g": 7779, "\u2581red": 2654, "\u043a\u0432\u0438": 15209, "\u00e4tze": 22445, "\u2581Ple": 19777, "<0x8B>": 142, "porter": 18505, "skie": 3941, "\u2581nur": 5595, "\u2581So": 1105, "auch": 13989, "member": 14242, "\u044e\u0447\u0438": 15598, "\u2581c\u00f4t\u00e9": 21384, "\u2581arrib": 27039, "\u2581Offic": 20339, "\u2581Touch": 28675, "shell": 15903, "schaften": 12627, "\u2581Tout": 28079, "itz": 2784, "\u2581climate": 23622, "\u2581maxim": 5256, "indexPath": 22016, "\u2581Schmidt": 25157, "dep": 2716, "User": 2659, "\u2581Schule": 27223, "ados": 2255, "cook": 15108, "anga": 12686, "\u2581trunc": 21022, "\u2581flat": 12151, "\u2581stam": 22287, "\u2581MS": 10888, "\u2581francese": 18730, "\u0f58": 31643, "\u0437\u043e\u0432": 11337, "\u2581d\u00e9f": 11482, "\u2581past": 4940, "\u2581\u0446\u0438": 12442, "emit": 21976, "\u2581asks": 19514, "legal": 12018, "\u2581okay": 20759, "\u2581segment": 10768, "\u2581later": 2678, "cons": 3200, "\u2581Rud": 10670, "}}(": 12156, "Texture": 21898, "\u2581Bund": 24240, "Public": 19858, "\u2581Toy": 29411, "-+": 11793, "vote": 15814, "\u2581ainda": 23871, "\u2581writing": 5007, "\u064e": 30323, "hot": 8711, "\u2581lift": 13777, "\u2581\u0433\u0440\u0430\u0434": 23897, "Month": 13953, "\u2581\u0438\u043c\u0435": 7557, "\u2581\u0413\u0440\u0438": 20264, "onde": 13469, "\u2581Sto": 6639, "\u2581zum": 3356, "After": 13555, "\u2581Canada": 7400, "ifi": 6832, "news": 15753, "\u2581Wait": 20340, "allen": 5442, "at": 271, "\u2581references": 9282, "]).": 14664, "\u043f\u0435\u0439": 20987, "frent": 27380, "job": 9057, "Associ": 29254, "pond": 2818, "\u2260": 30487, "ige": 2231, "del": 6144, "\u2581termin": 6624, "\u2581nin": 17081, "\u5e02": 30461, "rii": 22515, "meck": 23636, "\u2581worden": 7758, "\u2581Frankreich": 22253, "andid": 5380, "cluding": 22368, "\u2581Hessen": 26329, "](/": 26909, "\u2581suppress": 21301, "<0xC6>": 201, "\u2581ered": 13265, "\u2581Records": 7983, "\u2581PR": 12089, "Th": 1349, "\u2581Co": 3189, "Day": 12742, "\u2581Bij": 20942, "\u3051": 30807, "shift": 10889, "\u2581King": 4088, "\u2581troops": 13230, "\u056f": 30795, "sch": 816, "\u2581Einzelnachweise": 6675, "\u30ad": 30454, "ommes": 14229, "\u2581Cot": 26783, "hi": 2918, "pick": 23945, "\u0442\u0435\u043b": 11186, "\u2581d\u00edas": 24167, "\u2581manuscript": 27593, "\u2581musical": 9636, "\u2581med": 1612, "\u2581repub": 23465, "\u2581parliament": 22765, "otic": 13574, "ov\u00e1n\u00ed": 22604, "arith": 23830, "Proc": 27893, "condition": 16122, "\u2581\u0440\u044f": 22894, "\u2581vu": 18679, "document": 3225, "CO": 3217, "\u2581Kol": 10451, "\u2581push": 5503, "\u0431\u044b": 6326, "\u2581Franklin": 21504, "\u2581arbitr": 9727, "\u2581Tang": 27378, "\u2581quart": 10256, "uclide": 26340, "\u2581janvier": 8891, "\u2581popul": 14938, "\u2581\u0437\u0430\u0439": 26929, "\u2581\u0413\u0438": 27553, "\u2581um": 1922, "\u2581Asp": 26562, "<0x5E>": 97, "chev": 29823, "\u2581sain": 29580, "\u2581useful": 5407, "\u2581h\u00f6": 12977, "vent": 794, "\u2581smiled": 25156, "/,": 19637, "ties": 2938, "n\u00fd": 16484, "\u2581Creative": 26635, "\u2581Castle": 15194, "\u2581wenig": 28298, "\u767d": 30868, "\u2581fant": 13568, "\u2581Valley": 13939, "\u2581sat": 3290, "\u2581biz": 20132, "\u2581Fellow": 25940, "\u2581vm": 22419, "<0x48>": 75, "\u0917": 30875, "\ub97c": 31517, "\u2581turning": 14712, "\u2581\u0456\u043d\u0448\u0438\u0445": 28825, "\u2581mounted": 19239, "\u2581Mem": 8133, "ebook": 19273, "\u2581z\u00e1k": 28749, "iga": 4324, "\u3075": 31706, "\u2581amount": 5253, "\u2581iterate": 13649, "\u2581holding": 13587, "City": 16885, "\u0442\u0435\u0442\u0430": 25313, "IVE": 18474, "Converter": 18545, "\u2581ani": 26448, "\u2581Ste": 2443, "\u2581lean": 20793, "\u5408": 30733, "\u2581`__": 21326, "\u2581Stra\u00dfe": 22667, "\u2581\u0431\u043e\u043b\u044c": 9935, "\u2581Gro\u00df": 11751, "\u2581wen": 12987, "sk": 808, "ongo": 7443, "avy": 5301, "\u2581Books": 13730, "\u2581\u00f6ss": 21623, "bare": 18354, "\u2581xcode": 24089, "\u2581Association": 7993, "ders": 8623, "Editor": 15280, "\u2581\u043f\u043e\u043b\u0443\u0447\u0438\u043b": 21250, "<0x6E>": 113, "annt": 5805, "\u2581Ign": 18076, "\u2581produit": 27666, "Lib": 14868, "\u2581Pit": 29244, "\u2581implement": 2334, "\u2581ly": 21261, "\u2581chemin": 26786, "ampio": 22674, "IT": 1806, "\u2581male": 14263, "\u2581togg": 17304, "\u2581Vec": 26393, "\u2581Net": 12670, "zeta": 11327, "por": 1971, "\u2581Mitglieder": 29864, "\u2581splend": 22612, "\u2581Refer": 4118, "FP": 26353, "\u7b26": 31277, "\u2581afterwards": 12335, "\u2581txt": 13872, "aient": 10978, "\u2581Navar": 24707, "\u043b\u0435\u043a\u0441": 7772, "\u2581relacion": 19727, "\u2581LED": 25023, "amba": 20027, "<0x58>": 91, "img": 2492, "\u2581temple": 17567, "\u2581tradition": 11399, "\u0448\u045a\u0435": 14572, "\u2581caso": 11986, "\u2581Beg": 17964, "\u2581%{": 21191, "ournal": 4659, "atia": 28752, "consin": 21123, "\u2581Ari": 25775, "\u2581resolved": 11527, "aign": 8729, "\u2581extra": 4805, "\u2581unnecess": 17128, "\u2581weiteren": 24632, "EventListener": 12825, "\u2581Below": 13866, "\u2581synth": 14710, "\u2581silent": 17436, "App": 2052, "onel": 11064, "\u2581Monsieur": 28529, "\u2581Campe": 13592, "\u2581didnt": 28950, "\u2581consistent": 13747, "\u2581unknown": 9815, "\u2581\u043a\u0456\u043b\u044c": 22254, "bled": 27225, "\u2581mode": 4464, "\u2581Stage": 24906, "ento": 9239, "h\u00e4ng": 17738, "\u2581castle": 20610, "\u202f": 30262, "\u2581stycz": 21209, "\u0447\u0435\u0439": 22587, "indent": 12860, "\u2581livre": 20207, "lb": 27728, "\u0446\u0456": 1956, "\u2581divis": 8572, "PUT": 12336, "steller": 14640, "\u2044": 30307, "ahl": 4494, "\u2581demselben": 19552, "\u2581\u044f\u043a": 9285, "jquery": 5880, "\u2581Th": 498, "({": 3319, "yal": 4605, "athan": 11385, "\u2581provider": 13113, "\u2581by\u0142": 11573, "\u2581teaching": 18819, "\u2581H\u00f6": 11623, "\u2581afin": 18934, "\u2581horror": 23026, "\u043d\u0435\u043d": 9931, "\u2581NFL": 25167, "\u0437\u0438\u0434\u0435\u043d\u0442": 27027, "\u2581\u015bwiata": 29085, "aci\u00f3n": 2709, "ness": 2264, "Workbook": 26501, "ife": 1607, "\u0939": 30714, "\u2581programmer": 27922, "\u2581mesure": 29188, "\u2581Edinburgh": 25200, "\u2581\u0430\u0440\u043c\u0438\u0438": 24164, "\u2581Britain": 14933, "verage": 19698, "'''": 12008, "\u2581Despite": 19454, "\u2581bucket": 20968, "\u2581locomot": 26351, "isl": 7497, "\u2581B\u00fcr": 15455, "\u2581phrase": 16549, "ION": 2725, "\u2581Eq": 12345, "idos": 4396, "\u2581Card": 9160, "itement": 17334, "\u2581clin": 24899, "UID": 11150, "\u2581fancy": 19231, "\u2581Sk": 4971, "folg": 10132, "Oct": 25375, "\u2581Rock": 8027, "innen": 10190, "\u2581gut": 22341, "\u2581quotes": 11839, "\u2581racc": 25533, "\u2581Ober": 8067, "\u300b": 30843, "zi": 2526, "phere": 9085, "\u2581haut": 22916, "\u2581api": 7882, "pre": 1457, "\u2581invent": 11817, "terra": 27331, "\u2581android": 1442, "\u0442\u043e\u0440\u0430": 9011, "\u2581copied": 13746, "\u2581Fu\u00dfball": 13739, "\u2581bid": 21000, "ify": 1598, "RENT": 29450, "\u2581\u043a\u043e\u0458\u0430": 28528, "otimes": 9356, "\u0441\u0442\u044f": 20002, "\uc5f0": 31285, "\u2581\u0441\u043c\u0435\u0440": 18047, "\u2581\u0446": 3716, "\u306e": 30199, "\u2581Venezuela": 20931, "ata": 532, "\u2581subm": 11834, "\u2581branches": 14202, "\u2581Zie": 17159, "eerd": 10287, "\u2581Murray": 22340, "\u2581Zam": 29225, "1": 29896, "hoz": 19362, "\u2581infinity": 27971, "\u2581middle": 7256, "\u2581[...]": 21945, "help": 8477, "aal": 16113, "\u2581\u0414\u0436\u0435": 12342, "||": 8876, "\u10dc": 30632, "\u2581\u0443\u0434\u0430": 19871, "\u9001": 31545, "\u2581Bel": 3741, "\u2581Collect": 24930, "seg": 10199, "\u2581miles": 7800, "\u00e6r": 17930, "<0x68>": 107, "!": 29991, "\u96c6": 30893, "\u2581Lista": 13701, "\u2581\u0436\u043e\u0432": 20798, "\u2581charm": 21192, "\u2581bande": 27628, "\u2581Turkey": 26459, "\u2581```": 7521, "\u2581awards": 24441, "Internal": 16491, "\u2581furono": 17380, "\u5730": 30533, "ema": 2603, "\u2581\u043e\u0434": 3288, "\u2581nature": 5469, "ieving": 15387, "\u2581cert": 2284, "bury": 11059, "\u2581bomb": 13585, "\u2581Amsterdam": 17399, "\u2581fut": 3105, "WHERE": 22043, "uen": 3837, "\u2581gl": 3144, "names": 7039, "\u2581initialization": 17865, "\u2581Week": 15511, "\u2581\u0412\u043b\u0430\u0434\u0438": 14660, "\u2581<!--": 10341, "\u00dfe": 5831, "quarters": 19252, "\u2581tedes": 21157, "\u2581\u041a\u0438\u0457\u0432": 27452, "Bl": 10358, "kee": 23137, "\u043b\u0435\u043a\u0442": 11744, "yth": 1541, "\u2581Ni": 15981, "Tests": 24376, "\u0fb1": 31896, "\u2581\u00e9c": 24618, "\u2581viol": 5537, "paths": 24772, "ozz\u00e1": 8706, "\u2581\\(\\": 10033, "\u03c0": 30170, "pped": 2986, "\u0447\u043e": 13657, "\u2581recognition": 19679, "agh": 21705, "tables": 24051, "abord": 24430, "buf": 9721, "\u2581estilo": 25605, "east": 23027, "types": 8768, "imin": 8332, "\u2581FA": 13515, "\u2581Ben": 4111, "\u0432\u0440\u043e": 8627, "\u2581\u043e\u0431\u0440\u0430\u0437\u043e\u0432\u0430": 16362, "\u2581connection": 3957, "\u2581Pakistan": 21215, "\u0576": 30337, "\u2581temporary": 13201, "\u90ce": 30762, "Attribute": 6708, "\u2581majority": 13638, "\u2581patients": 22069, "->_": 26244, "device": 10141, "~~~~": 14087, "orial": 9020, "\u2581sep": 16345, "\u00e5n": 5109, "\u2581f\u00e9min": 26883, "\u0440\u0438\u0442\u043e\u0440": 23910, "\u2581d": 270, "\u0440\u044f": 2359, "\u2581aggi": 25586, "movie": 27362, "\u2581tokens": 18897, "interface": 13248, "\u2581periodo": 17848, "\u2581mirror": 19571, "\u2581Arizona": 23716, "\u2581arguments": 6273, "Tab": 8863, "Entry": 9634, "\u2581Wohn": 21119, "\u2581r\u00e1": 23504, "\u2581whereas": 13452, "\u2581fairly": 12558, "\u2581isomorphism": 26116, "\u2581arqu": 19325, "\u2581locked": 22822, "\u2581integers": 11920, "\u2581grass": 17455, "\u2581females": 24473, "\u2581myself": 6142, "iftung": 26868, "ythm": 29265, "\u2581Lag": 16952, "\u2581nova": 26121, "\u2581techniques": 13698, "\u2581kick": 24817, "\u2581['": 6024, "DIR": 9464, "Zyg": 24433, "statement": 20788, "\u0d41": 30442, "\u043c\u043e\u043d": 13744, "\u2581Oriental": 29702, "\u2581\u041d\u0438\u043a\u043e\u043b\u0430\u0439": 29210, "\u2581meters": 27881, "\u2606": 31048, "\u2581Indones": 16704, "\u2581liv": 7294, "ji": 2397, "\u2581Wis": 15756, "\u2581intitul": 17198, "\u2581temp": 5694, "\u2581js": 6965, "\u2581vertical": 11408, "\u2581Ukrain": 29417, "\u2581modifying": 23815, "\u2581cpu": 26403, "uncia": 28027, "\u2581Bass": 17328, "\u0439\u0442": 24139, "\u2581\u0441\u043e\u0445\u0440\u0430": 27618, "\u2581regarded": 17878, "\u2581\u0430\u043d": 14519, "\u2581argent": 19896, "csol": 26724, "\u2581R\u00e9g": 26931, "\u2581finden": 24755, "\u7b2c": 30622, "UM": 5005, "\u2581protocol": 9608, "functions": 12171, "Radius": 20494, "\u2581Ses": 22948, "oon": 6150, "Xml": 11089, "\u2581prev": 12379, "\u2581truly": 19781, "\u2581Rak": 29350, "\u2581\u0437\u0432": 27643, "\u6cf0": 31988, "\u00f4t": 9373, "\u2581mater": 15875, "\u2581Estado": 16763, "\u2581jack": 28015, "ride": 2426, "\u2581compan": 8119, "?.": 9808, "owego": 13363, "\u2581Roberto": 21739, "apping": 20304, "\u2581llam": 11829, "\u2581Laura": 21671, "jer": 6846, "\u0639": 30218, "\u2581\u0420\u043e\u0441\u0441\u0438": 7676, "ByVal": 26918, "\u2581Development": 14650, "\u2581part": 760, "anc": 4564, "\u2581Frances": 10986, "\u2581Business": 15197, "\u2665": 30922, "\u2581rende": 19643, "\u2581origen": 29444, "cle": 2841, "\u2581largo": 21793, "\u2581Comment": 461, "\u2581ga": 10364, "\u00e1b": 16341, "\u2581folder": 4138, "stract": 4440, "\u0440\u043e\u0438": 13551, "ium": 1974, "\u2581alto": 20478, "\u2581feas": 28326, "\u2581kilometer": 23836, "stackoverflow": 2417, "\u2581worth": 7088, "{": 29912, "\u2581oppon": 23995, "\u2581\u0413\u0435": 8215, "ised": 3368, "unc": 4661, "mill": 19958, "\u2581CD": 7307, "<0xE5>": 232, "Pressed": 24104, "\u2581\u043e\u0431\u0449\u0438": 24761, "\u2581trad": 3534, "\u2581\u0430\u043a\u0442\u0438\u0432": 15696, "\u8449": 31602, "FAULT": 13274, "ammen": 7667, "olia": 18001, "\u2581veter": 25808, "uth": 2806, "They": 15597, "\u2581Extern\u00ed": 17981, "w\u00fcr": 23970, "Launch": 17641, "\u2581alte": 22924, "\u2581Work": 5244, "<0x13>": 22, "\u2581\"\\": 6634, "\u2581Weltkrie": 17849, "\u2581\\\\": 2474, "\u2581Pak": 14371, "]:": 5387, "\u2581Linked": 28547, "\u2080": 30220, "\u2581Tot": 19013, "uto": 3066, "Enum": 16854, "\u2581Gru": 5430, "\u2581provincial": 25750, "\u2581mistake": 10171, "\u2581tends": 29867, "ves": 1960, "\u2581uniform": 9090, "colog": 21553, "\u2581Bast": 25315, "\u2581Hir": 20417, "\u2581Ol\u00edmp": 26843, "`}": 26357, "temper": 12863, "isch": 783, "endum": 29670, "\u2581h\u00e4ufig": 27050, "\u2581try": 1018, "\u2581pred": 4450, "estamp": 7416, "\u2581content": 2793, "\u2581retir": 19860, "load": 1359, "ising": 5921, "dale": 23276, "\u2581mir": 10078, "\u2581cmd": 9920, "\u2581ourselves": 20278, "Thread": 4899, "ativas": 26126, "option": 3385, "\u2581cor": 1034, "floor": 14939, "tc": 14246, "wd": 9970, "\u2581conoc": 11515, "\u2581probably": 3117, "TIME": 15307, "\u2581restore": 17749, "\u2581Ontario": 21718, "\u2581conclus": 21204, "\u2581\u043a\u0443": 6226, "\u2581squares": 25256, "\u2581donn\u00e9": 27282, "],[": 16272, "rout": 14608, "\u2581d\u00e9cembre": 9367, "\u2581compiler": 6516, "\u2581pec": 13209, "\u2581medic": 13589, "\u2581Natal": 26259, "\u2581protagonista": 29609, "\u2581accepted": 9259, "DateTime": 11384, "\u2581\u0434\u0435": 2263, "\u2581himself": 3654, "\u2581\u043e\u0444\u0438\u0446\u0438\u0430\u043b\u044c": 27318, "\u30b1": 30978, "ieb": 10789, "pet": 10963, "eller": 4539, "\u2581Ble": 24718, "\u00eetre": 13639, "\u2581\u0419\u043e": 28568, "\u2581decimal": 13677, "ists": 2879, "\u2581out": 714, "soft": 2695, "\u2581harm": 10311, "\u2581divor": 25074, "Select": 3549, "\u2581exped": 15310, "atura": 7969, "ague": 3437, "ale": 744, "GS": 10749, "Syntax": 16676, "trace": 15003, "\u2581copying": 17596, "\u2581mondo": 18629, "Ge": 7999, "ilis": 23285, "\u2581ve": 2453, "alty": 18745, "\u2581Sund": 12009, "\u2581nouvelle": 15217, "da": 1388, "\u2581\u043a\u043e\u0442\u043e\u0440\u044b\u0439": 12423, "\u2581continent": 25523, "input": 2080, "\u2581usual": 9670, "\u2581\u0434\u0435\u0442": 29788, "ether": 1979, "\u2581Esta": 14192, "igan": 11163, "dup": 20908, "\u2581Springer": 26667, "\u2581Fed": 17972, "\u0433\u0438\u0438": 27186, "bian": 22863, "\u2581AL": 14445, "xmlns": 18295, "pay": 10472, "\u2581austral": 19827, "\u043c\u0456\u043d": 29090, ",,": 12985, "<0xDD>": 224, "edly": 23244, "\u2581\u0433\u0440\u0443\u043f": 10841, "\u2581Cuando": 27351, "\u2581custom": 2888, "\u2581inst": 832, "\u00f1os": 15701, "control": 6451, "mid": 6563, "\u2581amazon": 19249, "\u0161\u010d": 24832, "\u2581cent": 1644, "\u2581appointment": 28573, "ugby": 12691, "\u2581caratter": 20044, "\u2581volte": 27288, "TEST": 18267, "ief": 2575, "abeth": 9394, "sett": 9915, "\u2581infer": 10115, "dispatch": 13369, "\u2581\u0434\u0432\u0438": 16186, "character": 18609, "\u2581sell": 19417, "\u2581Uruguay": 29233, "\u2581repro": 28094, "}}": 930, "\u2581Mort": 15533, "\u2581Grace": 23350, "hrer": 26768, "\u771f": 30848, "Mark": 9802, "\u2581constit": 20016, "\u2581Jerry": 23052, "\u2581cin\u00e9ma": 19384, "\u2581godine": 20453, "ler": 1358, "\u2581patr": 22191, "\u0438\u0433\u0440\u0430": 25087, "UI": 3120, "hash": 8568, "\u2581\u043a\u043e\u043c\u0430\u043d\u0434\u0443": 24857, "\u8056": 31581, "ptop": 16002, "\u2581prendre": 23532, "\u2581Failed": 18390, "\u2581\u0433\u0440\u0443\u043f\u043f\u044b": 22616, "itten": 16097, "\u2581Republican": 21178, "\u0446\u0438\u0435\u0439": 23417, "\u2581URL": 3988, "\u00bd": 30226, "\u2581demi": 23690, "\u2581ur": 5065, "oemd": 26852, "Face": 23360, "\u2581occur": 6403, "\u2581describing": 20766, "oval": 10611, "\u793e": 30564, "English": 24636, "\u2581commit": 9063, "quia": 22455, "ctr": 9988, "bow": 17729, "\u2581estimates": 21875, "ikon": 10344, "\u2581\u0406": 5482, "Assembly": 22400, "\u7acb": 30939, "\u30ec": 30420, "\u2581Broad": 12046, "\u2581Kont": 11587, "cpy": 23141, "\u2581Sort": 20025, "\u2581Za": 16753, "\u2581tego": 19237, "index": 2248, "\u2581take": 2125, "\u2581astr": 29132, "Indicator": 28013, "\u2581Step": 16696, "\u2581re": 337, "\u2581gez": 17364, "\u2581perpet": 25722, "\u2581Municipal": 21327, "antics": 22614, "oire": 14119, "insic": 28594, "villa": 28765, "\ud68c": 31953, "ovy": 15890, "\u2581intu": 26877, "\u2581predict": 8500, "\u03ae": 30280, "\u2581true": 1565, "\u2581repr\u00e9s": 12450, "\u2581\u043d": 6968, "Inflater": 17107, "itare": 25952, "\u2581looking": 3063, "Optional": 27636, "nice": 16533, "\u2581\u0432\u044b": 2771, "encer": 22687, "known": 5203, "partment": 8076, "\u2581presenta": 22720, "\u2581ESP": 26480, "\u51fa": 30544, "\u2581zu": 1729, "esses": 15322, "\u2581atac": 26730, "Tables": 24924, "\u2581creation": 11265, "\u2581obra": 11557, "<0x92>": 149, "\u2581vert": 4837, "\u2581AT": 15531, "\u2581requested": 13877, "update": 5504, "\u2581I": 306, "\u0e2a": 30547, "\u2581figure": 4377, "\u5b8c": 31366, "\u00fchrt": 26781, "istema": 28474, "\u2581d\u00e9r": 29057, "\u2581produz": 23775, "Place": 22150, "istic": 4695, "\u2581stay": 7952, "\u2581satisfy": 15523, "\u2581Gal": 5208, "\u2581pup": 23449, "<0x14>": 23, "segu": 21664, "orch": 25350, "TABLE": 21009, ")}{": 10172, "\u064a": 30163, "emente": 9936, "\u2581sick": 17319, "\u2581obtained": 7625, "\u2581K\u00f6ln": 20763, "\u2581sendo": 21324, "Front": 29348, "config": 2917, "\u2581nouvelles": 26957, "\u2581estre": 24567, "Single": 15771, "\u2581handles": 17766, "\u2581substr": 25148, "join": 7122, "fasst": 25536, "\u2581ned": 22165, "indust": 20041, "\u2581denomin": 14267, "\u2581Firefox": 14418, "\u2581abstra": 27086, "\u8853": 31438, "iego": 9383, "\u2581encontr": 14567, "\u2581neur": 26808, "\u2581foc": 12789, "Background": 10581, "\u0440\u0443\u0433": 21506, "insen": 28219, "\u660c": 31713, "amiento": 9993, "kil": 16757, "\u2082": 30124, "\u2581evalu": 6161, "sero": 26928, "\u2581scores": 19435, "\u2581Further": 8725, "\u2581avec": 2535, "\u2581Local": 9959, "bye": 26966, "\u5b89": 30670, "\u0431\u0440\u0430": 8355, "\u2581rond": 24627, "\u2581white": 4796, "\u2581Tamb": 11893, "\u043d\u044c\u043e": 16473, "\u2581history": 4955, "erne": 11795, "\u2581walked": 17096, "\u2581hes": 19066, "mpeg": 20856, "\u2581shr": 14653, "\u2581Sep": 29639, "problem": 17199, "Output": 6466, "iving": 4357, "\u2581regi\u00f3n": 21951, "\u2581Half": 28144, "\u09b8": 31148, "\u2581p\u00f3\u0142": 21232, "\u2581modes": 18893, "\u2581Renaissance": 27263, "\u015f": 30169, "mysql": 7938, "]$,": 25473, "\u2581gauge": 22931, "\u2581<-": 3705, "\u2581insgesamt": 26696, "\u6536": 31997, "\u2581income": 17869, "subscribe": 19496, "oston": 11253, "\u201c,": 9785, "\u2581Gott": 13351, "\u2581imperial": 26990, "\u2581experienced": 18860, "ovi": 6895, "Dist": 13398, "Elements": 18868, "\u2581dwell": 24013, "erner": 15479, "\u2581lim": 2485, "\u2581heut": 21364, "\u0103": 30035, "atr": 8141, "hens": 26791, "\u043a\u0438\u043f\u0435\u0434\u0438": 14949, "aux": 2993, "ization": 2133, "CK": 7077, "\u00e4hlt": 15684, "mouth": 21026, "\u2581vessels": 24479, "\u043d\u0435\u0432": 27984, "\u2581accomplish": 12709, "\u2581Vere": 9380, "oured": 14076, "Studio": 28867, "\u54c1": 31399, "Uri": 14702, "\u00bb).": 28592, "\u2581\u0458\u0435": 2773, "\u2581capit": 11934, "\u2581Demo": 27819, "aca": 11989, "\u2581dod": 21130, "\u2581personnes": 18554, "\u2581Inst": 2799, "\u0432\u0430\u0435\u0442\u0441\u044f": 25107, "actual": 19304, "\u043b\u0430\u0433\u043e": 15657, "istro": 19150, "\u2581Sol": 4956, "\u2581UN": 8291, "\u2581wis": 22573, "scar": 14494, "\u09c7": 30932, "\u0412\u043e": 27129, "\u2581Grad": 19295, "\u043a\u0440\u044b": 10300, "\u2581Architecture": 28333, "\u2581malloc": 25465, "\u2581\u0438\u0437\u0432\u0435\u0441\u0442": 14292, "wrapper": 17699, "\u2581computed": 15712, "\u2581todas": 17824, "\u2153": 31690, "func": 9891, "\u0137": 31748, "\u2581entstand": 16875, "orte": 10069, "\u043b\u0435\u043d\u043d\u044f": 6930, "\u2581\u0440\u0456\u0437": 24908, "\u041d\u0430": 19193, "\u067e": 30585, "\u2581which": 607, "\u0283": 30376, "ever": 1310, "\u2581army": 9987, "\u2581kommt": 21848, "\u0431\u043e\u043c": 17027, "rance": 11115, "Hom": 24259, "\u092c": 31012, "\u2581Martin": 6502, "\u2581\u0420\u0438": 13663, "If": 3644, "\u0434\u043e\u043d": 19096, "\u6c99": 31476, "\u2581\u0431\u043b\u0438": 14714, "\u2581\u0441\u043e\u0441\u0442\u0430\u0432\u0435": 17932, "\u2581stehen": 27565, "\u2581m\u00edst": 23295, "\u2581imped": 25275, "ocrat": 16909, "\u2581Jackson": 11886, "spr": 15099, "choice": 16957, "swing": 18013, "seau": 14654, "ite": 568, "\u2581guid": 16605, "\u2581prepar": 10223, "valueOf": 25835, "();": 890, "\u2581dic": 12124, "\u2581Report": 13969, "\u2581dri": 10293, "\u2581nak": 23349, "fe": 1725, "\u2581avoid": 4772, "Intent": 10286, "\u2581kilometres": 24016, "\u2581param": 1828, "Variable": 16174, "\u2581[];": 13769, "Tu": 23215, "nung": 9442, "umably": 24873, "\u2581impact": 10879, "....": 3045, "views": 7406, "\u2581Weit": 28948, "\u7ba1": 31624, "SQL": 4176, "\u2581v\u00fd": 9660, "col": 1054, "\u2581walls": 14603, "\u2581dirige": 26745, "\u2581relig": 4931, "ematic": 19217, "\u2581Aud": 8612, "\u2581III": 4786, "\u5546": 31427, "acle": 6436, "Execution": 20418, "ientos": 14948, "\u2113": 31079, "\u2581intuit": 27951, "\u2581otra": 19744, "\u2581closing": 14382, "oses": 15806, "\u2581Koch": 25911, "berg": 2552, "\u0442\u0440\u044f": 25680, "urst": 26268, "\u2581Ma": 3219, "\u72b6": 31531, "\u010b": 31920, "\u2581alla": 4082, "arden": 7879, "\u2581mole": 13206, "Cast": 15738, "\u2581\u0437\u0430\u043d\u044f": 23124, "output": 4905, "\u2581Milano": 16350, "\u2581famiglia": 19076, "\u2581appearing": 21534, "\u2581trouble": 7458, "\u2581woll": 27007, "gabe": 14454, "\u6709": 30417, "details": 14144, "\u2581evening": 11005, "woord": 25317, "\u2581Method": 8108, "\u2581bunch": 14928, "\u2581vest": 16779, "Value": 1917, "okes": 23195, ".):": 9575, "googleapis": 15947, "lers": 9306, "\u2581aur": 17078, "\u2581vice": 11289, "ccion": 22643, "\u4e1a": 31729, "psi": 6134, "\u2581Dire": 14818, "theta": 3416, "\u0441\u0438\u044f": 21290, "eteor": 26375, "\u2581vari": 1197, "\u043b\u0435\u043d\u0438\u0439": 20544, "\u039b": 30455, "bits": 14836, "\u043a\u043e\u043b\u043e": 12202, "\u2581you": 366, "\u2581{}": 6571, "#": 29937, "configuration": 13305, "\u2581Though": 14832, "iros": 17177, "van": 3703, "\u2581viewed": 24774, "\u4e86": 30743, "\u2581Ver": 1798, "ldots": 7796, "\u2581Austral": 4648, "\u2581shore": 19055, "\u2581Airl": 28299, "word": 1742, "sender": 15452, "\u2581Shakespe": 22476, "olg": 22991, "ks": 2039, "\u2581give": 2367, "\u2581integer": 6043, "\u2581embedding": 23655, "got": 7085, "\u738b": 30462, "\u2581Gallery": 15230, "\u2581Cons": 2138, "\u0435\u0440\u0435": 1719, "\u2581[`": 5913, "]{": 3199, "aft": 2051, "\u2581defence": 28399, "\u2581trabajo": 21844, "Byte": 12901, "\u043d\u043e\u043c": 2815, "\u2581Auf": 4322, "n\u00edm": 13057, "\u2581FC": 7992, "oli": 5079, "\u2581Kennedy": 23166, ">": 29958, "Gamma": 6642, "\u2581h\u00f6ch": 27783, "[]": 2636, "\u2581mo": 2730, "\u2581References": 28318, "\u2581step": 4331, "m\u00e9": 12031, "<0x4A>": 77, "oring": 8253, "Theme": 17693, "i\u00e8res": 29038, "\u2581Long": 6242, "datei": 27563, "\u2581Hugh": 15888, "\u2209": 31586, "awa": 10011, "\u2581Track": 17026, "\u2581Georg": 6158, "offs": 22450, "EXT": 12194, "\u2581\u043e\u0441\u0442\u0430\u043d": 28180, "\u0444\u0435\u0440": 25637, "zerw": 15900, "Points": 20325, "ic": 293, "\u2581Oficina": 29460, "Sil": 26729, "achment": 25117, "Provider": 6980, "\u2581Zu": 13893, "conda": 18050, "\u0442\u043d\u043e": 13050, "<0x55>": 88, "ivel": 13255, "none": 9290, "\u2581gro": 4071, "irtual": 11811, "comp": 2388, "udi": 4749, "\u2581convinced": 25617, "\u2581prim": 1903, "arget": 2097, "\u2581hence": 8151, "\u2581Parliament": 13212, "\u2581\u0414\u043c\u0438": 23229, "\u2581d\u00e9put": 26799, "]}": 12258, "\u00b2).": 29169, "uchte": 21690, "entic": 4173, "\u2581\u043d\u0430\u0441\u0435\u0459\u0430": 23726, "\u2074": 30379, "\u0448\u0442\u0435": 27626, "\u2581Hamilton": 12372, "ied": 1000, "wide": 8157, "\u2581substantial": 23228, "ih": 4861, "\u2581better": 2253, "FROM": 21482, "<0xEC>": 239, "dg": 20726, "\u2581ace": 21643, "Martin": 22628, "\u7701": 31600, "\u0434\u0436\u0430": 22115, "\u2581hints": 26085, "(.": 11891, "argent": 23641, "\u2581Resol": 24062, "{#": 24547, "\u2581consisted": 24775, "\u2581comune": 14915, "\u2581dy": 13475, "\u2581shortly": 21734, "\u2581amplit": 22252, "cy": 1270, "\u2581seized": 25291, "\u2581Marcus": 27390, "browser": 15965, "\u2581revista": 25374, "lt": 1896, "\u2581Fort": 7236, "\u2581notifications": 25913, "ged": 3192, "$?": 15485, "\u4ea4": 31398, "Root": 10303, "\u2581routes": 12049, "arct": 27014, "Non": 12283, "\u2581happy": 9796, "eso": 20135, "\u2581colon": 8104, "\u043a\u043e\u043b\u0438": 29798, "\u2581PHP": 5048, "\u0432\u0438\u043d": 21187, "\u4e3a": 30573, "\u2581@": 732, "\u2581Infantry": 26571, "\u2581humor": 27448, "\u2581Gegen": 19275, "lichen": 4057, "\u2581\u043c\u0443\u0436": 20686, "\u2581Rece": 24328, "\u2581return": 736, "\u2581windows": 5417, "ensor": 6073, "\u2581idx": 22645, "\u2581prosper": 25831, "at\u0103": 13804, "parallel": 23482, "ador": 3136, "\u2581declarations": 28721, "ika": 4106, "\u0440\u044c": 7474, "copy": 8552, "\u2581Arena": 26053, "\u2581zwe": 4753, "gram": 1393, "\u2581v\u00e6": 28340, "\u0430\u043b": 11887, "Bytes": 11207, "Internet": 26341, "\u2581Billboard": 15615, "Conne": 20971, "\u2581novembre": 7005, "(?": 10780, "\u2581Turkish": 24682, "setup": 14669, "\u2581validation": 8845, "\u306f": 30449, "\u0430": 29910, "\u2581Genomsnittlig": 28650, "\u2581Mot": 7142, "\u0447\u043a\u0438": 11245, "\u2581compagnie": 29868, "ppa": 13410, "acia": 20323, "\u6570": 30354, "\u2581Leop": 18957, "\u2581produce": 7738, "\u5947": 31984, "\u2581thousands": 17202, "phon": 17607, "columns": 13099, "\u2581beauty": 15409, "Con": 1168, "\u2581struck": 15469, "\u256c": 30935, "UIView": 26726, "effect": 15987, "\u0415": 30070, "\u2581Distribution": 17740, "nb": 9877, "clar": 16544, "\u00d5": 30983, "\u2581trav": 6427, "issues": 12175, "{'": 10998, "eri": 13613, "\u2581Berliner": 25912, "}'": 10162, "<0xA5>": 168, "\u2581Ty": 9656, "Direction": 21602, "\u2581Type": 5167, "\u2581pok": 11293, "\u2581tecn": 20790, "\u0f56": 31326, "atiques": 19669, "\u2581\u00cen": 14241, "olt": 14339, "{\\": 741, "\u2581users": 4160, "undes": 7204, "fre": 10745, "Bro": 29857, "ute": 1082, "':'": 22099, "\u2581ihnen": 25181, "\u2581Mitg": 10400, "\u2581Rach": 23647, "\u2581General": 4593, "agram": 14442, "\u2581Hamburg": 14847, "bst": 7891, "atial": 15238, "\u0440\u043e\u043c": 4416, "abe": 4302, "\u2581Ut": 14950, "\u2581Assert": 16499, "\u2581Valle": 25324, "\u2581Saint": 4107, "\u2581Jahr": 3866, "archive": 10867, "\u2581snippet": 11534, "\u2581ch": 521, "\u2581cap": 2117, "\u2581datas": 6155, "ciu": 26906, "\u2581Cit": 21353, "\u2581Teams": 23570, "\u2581string": 1347, "\u2581nil": 4263, "\u2581Nam": 13041, "\u2581\u0425\u0430": 10570, "fire": 8696, "self": 1311, "\u2581\u0414\u0435\u043c\u043e": 20167, "\u2581arranged": 21050, "false": 4541, "HEAD": 23252, "\u2581particular": 3153, "\u0441\u043b\u0435\u0434": 6481, "\u043f\u0438\u0441": 8993, "\u2581Bh": 20303, "older": 3194, "\u2581sex": 7916, "}}^{": 23325, "\u0686": 30905, "nika": 13518, "\u2581Johnson": 11717, "\u043b\u0438\u0441\u0442": 19394, "\u043d\u0456\u0432": 14052, "\u2581Geschichte": 7376, "rank": 10003, "\u2581host": 3495, "Sigma": 10142, "Equals": 14776, "\u2581sens": 4771, "\u2581pou": 7446, "etter": 19036, "ounter": 5336, "\u2581Computer": 20972, "\u2581every": 1432, "Shared": 21741, "\u2581type": 1134, "\u0f74": 31601, "\u2581reven": 20957, "\u2581matter": 4383, ",[": 17094, "inf": 7192, "\u2581Spanish": 10432, "gate": 17062, "\u2581causa": 13485, "\u2581basis": 8405, "versions": 26100, "\u2581assass": 20105, "euw": 20909, "\u2581aust": 21996, "\u2581cannot": 2609, "hips": 14587, "\u2581contribution": 11896, "sen": 4881, "\u2581Albert": 10537, "\u2581propos": 9551, "\u2581academic": 21567, "child": 5145, "\u2581nose": 26414, "\u2581telep\u00fcl\u00e9s": 22744, "WI": 22119, "\u2581`@": 11159, "\u2581bro": 2545, "\u2581tasks": 9595, "\u2581GP": 28258, "\u2581deleting": 21228, "\u2581champ": 18480, "\u2581outras": 29119, "\uc6a9": 31737, "\u2581menu": 6143, "also": 15189, "\u2581Times": 10277, "\u2581exit": 6876, "Preferences": 22173, "\u2581$.": 8184, "tick": 24667, "\u2581direkt": 27701, "\u8282": 31669, "\u2581instance": 2777, "rica": 21148, "\u2581\u0448\u0430": 16844, "\u04e9": 30778, "\u2581Shang": 27468, "\u2581web": 1856, "cp": 6814, "\u2581Schw": 9234, "eni": 11344, "()).": 16655, "\u2581construct": 3386, "\u2581fade": 28747, "\u2581stars": 10819, "ep": 1022, "\u2581senior": 16336, "\u0449\u0435\u043d\u0438\u0435": 24849, "Ber": 17104, "\u2581differ": 1163, "\u4ef6": 30631, "arab": 25822, "ill": 453, "\u2581layer": 7546, "\u0dbb": 31636, "\u2581force": 4889, "\u2581modified": 9120, "\u2581tras": 6809, "\u2581Sob": 25147, "puesta": 28959, "ateurs": 14075, "ceptor": 14268, "wo": 827, "\u2581Europa": 9646, "\u2581musicale": 27524, "valu": 4387, "Super": 19111, "\u2581hid": 20552, "<0x24>": 39, "\u2581crime": 17268, "\u0402": 30338, "\u044b\u0439": 11767, "\u4e07": 31535, "\u2581\u0433\u043e\u0434\u0438\u043d\u0435": 8061, "ioni": 3688, "\u2581\u044d\u0442\u0430": 25346, "stad": 17569, "uras": 10939, "\u2581Develop": 10682, "[[": 8999, "ografie": 9052, "\u2581decla": 5237, "\u2581rare": 10812, "\u00e1le": 25127, "\u2581keep": 3013, "\u2581Winter": 12267, "company": 14518, "\u2581Begr": 9478, "\u2581zelf": 21923, "\u2581musique": 15188, "cluster": 19594, "\u1d07": 31297, "\u0f7c": 31104, "\u2581chiesa": 21568, "\u2581Begin": 14893, "Qu": 2182, "\u2581\u0444\u043e\u0442\u043e": 26592, "istory": 2668, "\u2581{-": 21389, "\u2581wurde": 1931, "mt": 4378, "ithmetic": 18542, "\u2581kil": 4679, "\u2581ice": 14890, "course": 15775, "ennen": 18723, "Program": 9283, "\u2581tools": 8492, "\u2581recursion": 20437, "iera": 8311, "\u2581Saturday": 24211, "\u2581retour": 18948, "Fetch": 20927, "\u2581reason": 2769, "\u2581senza": 17876, "usement": 22527, "nom": 11522, "idth": 1313, "\u2581college": 12755, "\u2581pr\u00e9sent": 16474, "ECK": 16658, "\u2581music": 4696, "\u2581Vert": 11198, "i\u0119": 9497, "\u2581responsible": 14040, "\u590f": 31241, "\u2581Pot": 10173, "\u7d20": 31605, "cards": 28160, "ulating": 18099, "\u0447\u0451": 16182, "\u2581wojew": 22949, "\u2581rodz": 17453, "\u2581eng": 3033, "\u013d": 30937, "iras": 20138, "idades": 7305, "enkins": 16468, "\u00f6d": 9289, "\u2581Aw": 22886, "\u2581Optional": 28379, "\u2581alcan": 21629, "\u2581Pract": 29124, "\u2581those": 1906, "\u2581max": 4236, "\u2581soldier": 20767, "\u2581related": 4475, "luss": 13596, "\u2581carefully": 16112, "brit": 26549, "\u2581Memory": 18914, "\u2581farther": 26645, "\u2581considered": 5545, "\u2581Blo": 11447, "ours": 2470, "\u2581Airport": 18117, "\u2581haben": 10290, "\u2581throws": 8026, "Plan": 20334, "\u017cyn": 25028, "azon": 10131, "tot": 4260, "athol": 6347, "CCN": 12921, "eduler": 14952, "\u2581equality": 17193, "\u2581`|": 21839, "\u2581Nazionale": 26541, "\u2581Madame": 18080, "\u2581rely": 19104, "\u2581como": 1986, "gem": 17797, "Duration": 18984, "olph": 22138, "\u2581stir": 23546, "\u2581Del": 5556, "xico": 13821, "\u0432\u0440\u0430": 18524, "\u06af": 30421, "\u2581Read": 7523, "utto": 17317, "\u00be": 30642, "\u2581Metro": 23803, "emeinde": 6861, "\u2581currency": 27550, "\u2581periods": 23704, "\u2581esc": 3966, "\u0447\u043d\u0438\u0445": 15208, "\u2581laquelle": 22025, "o": 29877, "si": 1039, "multicolumn": 14392, "screen": 10525, "\u2581pitt": 27954, "Kar": 24115, "\u2581segments": 24611, "\u2581gal": 6898, "*\"": 20605, "temps": 27761, "\u2581after": 1156, "ats": 1446, "\u2581elder": 27008, "\u2581reb": 15121, "\u2581Span": 7948, "icago": 9384, "\u0435\u043d\u0430": 28196, "\u2581destru": 26468, "czy": 6902, "\u2581namely": 18451, "\u2581t\u00f6": 15246, "Before": 18743, "\u2581SUM": 22753, "\u2581inici": 21855, "\u2581erfolgte": 23982, "\u2581mal": 4439, "\u2581While": 5806, "\u2581govern": 4095, "\u2581\u0422\u0430\u043a": 17373, "\u00fdch": 5255, "k\u00e9nt": 19321, "\u2581signed": 8794, "\u2581unto": 20550, "icole": 23249, "\u0192": 30703, "\u65ad": 31683, "\u2581Neg": 12610, "\u0150": 30451, "OP": 4590, "\u2581canon": 15355, "<0x83>": 134, "\u2581spr": 7689, "wers": 17538, "\u2581Jim": 8507, "\u03ac": 30216, "\u2581div": 1933, "\u2581stop": 5040, "\u2581brasile": 22905, "\u2581(": 313, "\u2581unlikely": 25057, "\u2581\u043f\u043e\u0447\u0430": 17155, "\u2581Mant": 26873, "\u0431\u0438\u043d": 24847, "=&": 29332, "\u2581genannt": 18208, "Http": 5506, "\u2581dieses": 18947, "IC": 2965, "\u2581Squad": 18827, "\u2581trailing": 25053, "\u2581feels": 23880, "\u2581\u0441\u0435\u0440": 10182, "\u2581Good": 7197, "elijk": 6918, "\u2581Notable": 24844, "spiel": 9671, "\u2581zona": 13890, "iech": 22149, "\u2581coll": 5321, "\u255d": 31269, "\u2581\u0421\u0442\u0435": 20204, "(|": 27204, "adesh": 21754, "riction": 19902, "\u00e1z\u00ed": 26151, "one": 650, "irl": 5168, "\u2581science": 10466, "issa": 16343, "\u2581nuovo": 20353, "\u2581Sp": 1706, "\u2581mount": 5766, "\u2581verf": 19020, "\u2581Title": 18527, "istas": 9395, "\u2581Eur": 26360, "\u2581\u0436\u043e\u0432\u0442\u043d\u044f": 25460, "\u2581od": 2413, "vy": 13308, "sk\u0105": 24680, "oc": 542, "\u5c11": 31022, "Event": 2624, "\u2581o\u00f9": 6722, "\u2581\u0441\u0435\u043b\u043e": 11166, "ongodb": 13591, "l\u0105": 28835, "\u2581Request": 10729, "\u2581\u0445\u0443\u0434\u043e\u0436": 17341, "\u2581fict": 26797, "xa": 17367, "DN": 28307, "\u2581wars": 29129, "Impl": 6647, "\u2581\u0440\u0430\u0437\u0440\u0430\u0431\u043e": 24973, "<0x23>": 38, "\u2581est": 707, "\u2581andra": 21912, "\u2581End": 2796, "<0xEB>": 238, "\u2581soci": 5374, "\u2581gy": 10966, "\u2581relay": 29856, "ntil": 20233, "inkel": 27136, "market": 28549, "UST": 17321, "iten": 3537, "\u2581Peters": 15990, "(...": 19327, "zing": 19583, "rei": 5803, "\u2581toutes": 14984, "aterra": 27361, "\u00ad": 30191, "wordpress": 23424, "\u2581MD": 20672, "\u2581Vel": 12019, "\u2581literal": 16333, "\u2581AUT": 26524, "\u2581cinemat": 25955, "\u2581Politik": 27622, "\u7b49": 31184, "\u2581van": 1109, "high": 9812, "\u2581\u0412\u0438\u0434\u0438": 17384, "\u2581poll": 21180, "\u2581narrow": 12474, "oks": 12117, "\u2581refresh": 11086, "\u2581unos": 22660, "\u2581\u043e\u0441\u0443": 28785, "\u05d4": 30235, "\u0447\u0430\u043d": 22083, "oo": 3634, "\u2581brother": 8099, "required": 12403, "\u2581nacional": 12306, "anh": 27731, "stein": 5465, "hl": 4415, "\u0432\u0430\u043d\u0435": 16091, "\u2581tram": 19183, "\u00ea": 30037, "\u044e\u0449\u0435\u0439": 27029, "\u2581Stop": 22303, "inet": 10157, "bank": 9157, "\u2581enable": 9025, "\u2581fib": 18755, "\u2581Terminal": 29175, "orter": 9555, "cre": 1037, "\u2581harder": 22622, "\u30cb": 30635, "ASS": 22933, "\u2581\u0435\u0441\u0442\u044c": 12795, "\u2581shows": 3697, "izontal": 7731, "ols": 3775, "oj": 3848, "nabla": 8511, "BS": 9851, "rd": 5499, "\u2581Ul": 10103, "\u2581Gesellschaft": 18626, "\u2581\u043c\u043e\u0436\u0435\u0442": 20302, "SHA": 23498, "idents": 16719, "\u2581\u0412\u0435\u0440\u0445\u043e\u0432": 25731, "_+": 28842, "\u2581Accept": 29848, "W": 29956, "\u5411": 31331, "\u2581Dragon": 24339, "Hot": 28917, "lete": 2810, "\u2581\u043a\u0440\u0438": 12273, "\u2581jaren": 23877, "\u2581\u0424": 2515, "iske": 19456, "ichten": 12285, "esent": 1329, "OST": 3718, "\u2581inhab": 14117, "\u2581\u0437\u043c\u0456": 24634, "\u534e": 31266, "\u2581controllers": 21385, "ril": 4115, "itter": 5171, "\u0119\u017c": 19655, "aj": 1175, "\u5e0c": 31841, "\u2581Neil": 29334, "\u2581Fal": 12941, "Scal": 29636, "\u2581carri\u00e8re": 20428, "\u2581complex": 4280, "\u2581poz": 14079, "\u2581pam": 24513, "\u2581Mys": 28924, "\u0112": 31942, "\u2581\u0430\u0432\u0442\u043e": 10279, "istent": 9696, "\u0161t\u011b": 18856, "Encoding": 14934, "\u2581rund": 17048, "\u2581like": 763, "\u2581acting": 16684, "\u2581conscious": 19861, "\uacf5": 31334, "\u0442\u0432\u0435\u0440": 15757, "\u2581matplotlib": 22889, "\u30db": 31448, "\u2581dynamics": 19753, "writing": 16554, "manual": 11288, "Mobile": 29295, "\u2581USS": 17676, "\u2581cin": 4670, "\u2581\u0418\u043d": 11252, "\u2581Ren": 7493, "\u2581\u043a\u043e\u043c\u0438": 19161, "\u00f9": 30071, "\u604b": 31659, "\u2581Batt": 14077, "Props": 20457, "esti": 11521, "\u2581simplify": 21092, "\u2581&": 669, "\u2581fr": 1424, "\u2581Identity": 27486, "\u2581tu": 5291, "\u610f": 31474, "fil": 1777, "\u0440\u043e\u0436": 18538, "\u2581scales": 23431, "ibt": 9268, "\u2581Mundo": 29790, "\u2581\u0432\u0456\u043d": 15318, "uts": 8842, "\u00edtott": 22811, "AndroidRuntime": 12746, "words": 9303, "oin": 28230, "Lambda": 9099, "osing": 14556, "\u2581nor": 3643, "owned": 26689, "\u2581construction": 7632, "\u2581ms": 10887, "eting": 15133, "\u2581perspective": 18520, "\u2087": 30284, "\u2581Hugo": 20650, "ett": 1803, "Storage": 10486, "\u2581who": 1058, "\u2581sic": 24801, "\u0575": 30657, "\u2581Mil": 3833, "rent": 7771, "\u2581ordering": 20520, "\u2581proxim": 23203, "allas": 15892, "\u0441\u044c\u043a\u0456\u0439": 21547, "\u00b8": 30836, "colors": 27703, "egr": 4872, "calendar": 23392, "\u2581peri": 23603, "\u3078": 31388, "<0xAC>": 175, "\u2581country": 4234, "Alpha": 28630, "ische": 2010, "\u2581strategy": 13705, "\u043d\u0430\u043c\u0438": 15369, "\u2581seizo": 25454, "\u2581Zob": 26455, "untime": 5572, "<0xA2>": 165, "\u2581pushed": 18760, "gems": 11900, "CHAR": 11282, "oreign": 13606, "aces": 3302, "\u2581Barbara": 18506, "onder": 8417, "General": 15263, "\u2581saying": 5934, "anta": 6949, "\u2581tens": 25187, "\u2581options": 3987, "square": 17619, "hausen": 15608, "imiento": 9043, "slider": 23165, "\u2581anchor": 17360, "\u8d64": 31682, "\\<": 4488, "cf": 6854, "\u2581\u0438\u0441\u043f\u043e\u043b": 20643, "\u2581Rena": 21794, "omer": 12392, "section": 2042, "\u2581explo": 16035, "branch": 17519, "\u2581\u0441\u0442": 2091, "Na": 13695, "\u043f\u0438\u0441\u0443": 22457, "\u2581Stanley": 21631, "ay": 388, "how": 3525, "\u2581cho": 3060, "\u2581Revolution": 14595, "PH": 19689, "B": 29933, "\u00ebl": 13929, "\u2581Hans": 6971, "=$": 6080, "\u2581l\u00e0": 18916, "\u2581follow": 1101, "zung": 16857, "vous": 23088, "\u2581Maur": 11475, "TO": 4986, "unge": 19440, "\u2581Army": 8811, "\u2581sow": 19687, "\u2581refer": 2737, "\u2581Z": 796, "Listener": 3962, "\u2581valor": 16497, "ouc": 29049, "\u2581CURL": 24222, "inaci\u00f3n": 22919, "\u2581gau": 13395, "cdot": 3822, "a\u0142y": 21816, "\u2581der": 589, "\u2581pairs": 11000, "multicol": 14155, "\u2581volunte": 27886, "\u2581diagram": 13722, "\u2581vec": 9649, "larg": 27489, "proxy": 14701, "\u2581sampling": 23460, "\u2581Chief": 14546, "\u2581rappres": 20823, "\u2581furent": 24257, "\u2581floor": 11904, "\u2581Dun": 11566, "sted": 16470, "\u00fcd": 6215, "\u00e9sz": 11065, "\u2581Que": 5462, "\u2581winning": 15613, "azy": 24683, "\u2581gas": 10489, "\u2581@\"": 12490, "\u2581Theory": 24134, "uel": 2491, "\u2581Ram": 8292, "\u2581ping": 24543, "\u2581erf": 23467, "\u2581\u0444\u0438\u0437\u0438": 27172, "HOME": 17353, "\u2581assign": 3566, "7": 29955, "midt": 19720, "umph": 19149, "\u2581lingu": 21110, "\u2581pow": 4764, "\u2581explaining": 24232, "\u2581\u043d\u0435\u0439": 25755, "\u043a\u0440\u0430\u0457": 6076, "\u2581phases": 29540, "\u2581deli": 26561, "\u2581Model": 8125, "cki": 22736, "\u2581Buen": 15463, "uming": 9929, "\u2581confusion": 14679, "\u2581ogs\u00e5": 27337, "scala": 15820, "\u2581cx": 28232, "iza\u00e7\u00e3o": 20945, "\u2581BE": 20700, "../": 6995, "\u2581recommendation": 29303, "controls": 26255, "idad": 2368, "pdf": 5140, "\u2581Depart": 23242, "\u2581\u0447\u0430\u0441\u0442\u044c": 17265, "\u2581stick": 12070, "\u014c": 30252, "\u540c": 30980, "Wil": 29594, "internal": 7564, "\u2581ital": 4698, "\u2581eleg": 10618, "qui": 6578, "}}$": 7920, "lande": 28328, "\u2581poder": 13540, "late": 9632, "\u2581arg": 1852, "\u2581patron": 18259, "uis": 4664, "\u2581argue": 27754, "\u0441\u0441\u0435": 16176, "\u2581apar": 19173, "intern": 14168, "\u2581Oak": 24132, "\u2581sci": 4560, "NSURL": 29680, "\u2581tropical": 21881, "\u2581communic": 7212, "rupted": 14214, "\u2581fj\u00e4r": 27785, "\u2581anderen": 11756, "\u2581alarm": 21200, "\u0dd2": 31485, "\u2581restart": 10715, "\u2581\u043d\u0430\u0433\u0440\u0430": 21295, "\u2581cons": 1136, "\u2581$(\"": 5775, "\u2581Clark": 17129, "\u010f": 30223, "\u2581confl": 18669, "\u2581veh": 10852, "minus": 12254, "]`.": 27865, "\u2581People": 11647, "Format": 5809, "iche": 4070, "\u2581commercial": 12128, "Recogn": 23122, "LD": 10249, "no\u015bci": 11997, "\u2581uri": 21333, "\u2581intelligence": 21082, "\u2581\u0436\u0435\u043b\u0435\u0437": 25815, "\u2581rece": 2414, "\u0442\u0435\u043b\u044c\u043d\u043e\u0439": 28787, "alla": 9864, "Password": 10048, "She": 13468, ";;": 7859, "\u2581decir": 27594, "rf": 9600, "ward": 1328, "apan": 21419, "\u0434\u0443": 1520, "<0xA9>": 172, "Title": 7030, ".\u2014": 22416, "clip": 24049, "\u2581moth": 25550, "\u2581Democr": 14189, "\u00de": 30452, "\uc778": 30918, "plorer": 14716, "\u2581syst": 13107, "oba": 15330, "\u2581forcing": 28172, "\u2581Biografia": 19164, "\u2581Singh": 27017, "\u2581univers": 4946, "\u2581husband": 10216, "\u2581strict": 9406, "firebase": 17445, "\u2581drawn": 12061, "\u2581Aires": 16981, "\u2581Mars": 16852, "\u2581Among": 17302, "\u2581question": 1139, "UNCTION": 28700, "vare": 5280, "omsnitt": 17047, "\u2581wit": 12309, "\u2581estaba": 16620, "\u0420": 30027, "ville": 4909, "\u043c\u0438\u0440": 10971, "\u2581inne": 26451, "licated": 9169, "\u2581autour": 26269, "riz": 7485, "\u2581bases": 22561, "\u2581insp": 8681, "At": 4178, "\u2581nginx": 19376, "\u2581\u0441\u043b\u0443\u0436": 17746, "eared": 21128, "\u2581mistaken": 25257, "ester": 4156, "\u2581Gemeinsame": 27853, "\u2581added": 2715, "\u0441\u0442\u0432\u0438\u0435": 25025, "\u2581tick": 16892, "\u6307": 31084, "\u2581surg": 25300, "[": 29961, "\u2581Sat": 12178, "\u2581myth": 22082, "\u0440\u043e\u043d": 6887, "put": 649, "aceae": 14149, "\u2581patterns": 15038, "\u2581disco": 17021, "FOR": 22051, "\u2581Check": 5399, "\u2581Stutt": 14580, "\u2581extent": 15834, "\u2581warnings": 18116, "iese": 21928, "u": 29884, "ded": 7176, "olit": 27298, "\u2581aud": 12990, "\u2581To": 1763, "Mor": 28581, "oz": 2112, "leitung": 15627, "\u2581interval": 7292, "\u2581Auth": 13189, "\u2581model": 1904, "\u2581treball": 29203, "\u2581$(\".": 17575, "Failure": 24155, "\u2581Ele": 8317, "\u2581pare": 9541, "\u2581zosta\u0142a": 21498, "\u2581Lion": 21934, "opro": 26555, "\u2581Bool": 18912, "\u2609": 31511, "ritten": 20833, "\u2581fel": 7995, "Model": 3195, "\u2581mehrerer": 18770, "lasse": 14537, "\u2581condado": 25450, "corr": 29725, "decl": 27787, "Q": 29984, "\u2581km": 2383, "\u2581\u00c0": 8526, "\u0448\u0438\u0445": 9994, "ovan": 10471, "\u2581\u0458": 12887, "fas": 13629, "\u017adzier": 23280, "\u2581Native": 19042, "\u2581April": 3786, "\u2581Kay": 28444, "\u2581invari": 15939, "\u2581Gia": 22566, "\u2581reprodu": 9483, "u\u00e9s": 28478, "Status": 5709, "ides": 2247, "COL": 15032, "\u2581complet": 3315, "\u2581\u0432\u0438\u0434\u0435": 21986, "\u2581Via": 23306, "\u2581lider": 29110, "}$.": 4311, "indo": 15036, "\u2581anno": 12327, "\u2581\u0441\u0435\u043a\u0440\u0435": 26198, "ptember": 3266, "\u2581roz": 5671, "\u2581basic": 6996, "\u2581irregular": 27931, "Media": 10572, "\u30fc": 30185, "solute": 14977, "\u2581accessible": 15579, "\u2581Revol": 26882, "ragma": 23929, "Second": 11863, "\u2581Lee": 9371, "\u2581yields": 17498, "-(": 17722, "\u2581Colorado": 21137, "odio": 16057, "uetooth": 20930, "\u2581\u0420\u0430\u0437": 26595, "\u2581opinion": 9426, "\u2581forced": 11826, "\u2581hors": 11231, "\u0e28": 31035, "Switch": 24995, "(&": 6243, "bold": 8934, "\u2581kir": 18990, "scope": 6078, "eras": 18464, "\u2581premi": 5730, "\u2581playing": 8743, "\u2581Lis": 15285, "\u8ba1": 31466, "setminus": 15375, "\u2581Era": 21018, "Activity": 3886, "\u2581especial": 11605, "\u2581versions": 6910, "\u2581Gree": 18438, ")-": 6817, "isten": 8244, "\u2581ebenfalls": 17769, "reverse": 24244, "\u2581supplies": 28075, "\u0433\u0435": 5035, "\u2581kra": 18858, "\u2581Hol": 4168, "\u2581worship": 26320, "\u2581starb": 28414, "\u2581exclusive": 29192, "\u0441\u043b\u0430\u0432": 12669, "ulsion": 25381, "itory": 5047, "\u2581\u0440\u0435\u043a\u0438": 18536, "iginal": 5635, "\u2581VAL": 12599, "\u2581nom": 2245, "\u2581knock": 18232, "\u2581bra": 4105, "\u0430\u043d": 745, "\u2581Pre": 4721, "\u2581Gesch": 5009, "ymnas": 21812, "\u2581militaire": 20177, "gy": 1927, "\u2581modification": 21733, "\u2581Glen": 27197, "iai": 18754, "\u2581score": 8158, "Nil": 27823, "FF": 4198, "Why": 11008, "\u0446\u0456\u044f": 11145, "\u2581\u0438\u0434\u0435": 28866, "]+": 10062, "\u2581Crown": 25306, "\u2581\u0432\u043e\u0439": 7587, "chy": 23766, "\u2581graphics": 18533, "xaml": 29510, "\u2581{@": 26633, "\u2581ellen": 25149, "<0x30>": 51, "\u2581##": 444, "\u2581carriage": 23840, "info": 3888, "\u2581powershell": 25532, "\u2581Lemma": 11894, "Counter": 17779, "\u2581liberal": 26054, "\u2581vul": 12799, "\u2581Stock": 10224, "\u2581Storage": 26162, "\u2581heures": 26893, "\u2581dessen": 14160, "\u2581gouvernement": 17284, "onia": 6405, "\u2581forces": 8249, "\u2581explanation": 8252, "\u2581\u043e\u043f": 10645, "\u0447\u0435\u0441\u043a\u0438\u0435": 21938, "\u2581syntax": 5877, "\u2581Het": 5937, "\u2581syn": 5222, "\u2581scrit": 24048, "\u2581comedy": 26228, "\u2581Stra\u00dfen": 24787, "\u2581fired": 17285, "\u2581pl": 715, "ere": 406, "\u0294": 30825, "iss": 790, "avam": 25599, "\u2581K\u00f6": 9879, "\u2581meilleur": 26713, "\u2581nombr": 25264, "Bi": 20517, "\u10d3": 30894, "\u2581gminy": 28613, "\u2581Mess": 11946, "\u2581Nick": 13853, "\u2581accord": 15017, "------": 22158, "alion": 20235, "\u2581f\u00e9": 19431, "\u2581door": 3050, "\u2581satisfied": 15787, "\u2581Brig": 13051, "conv": 20580, "\u2581Kab": 20533, "\u0710": 31421, "\u6548": 31944, "\u96f2": 31750, "\u0436\u0435\u043d\u043d\u044f": 12426, "graph": 4262, "That": 7058, "egov": 27652, "';": 2670, "\u2581village": 5720, "\u0459\u0435": 7393, "kan": 11052, "\u0436\u0435\u043d\u0438\u0435": 11567, "\u2581m\u00e9d": 10283, "\u2581erfolg": 14946, "glass": 29050, "May": 12703, "\u2581\u0412\u0435\u043b\u0438": 11312, "generator": 27959, "\u2581holds": 8640, "\u2581Amb": 15145, "onden": 16043, "\u043b\u0442\u0430": 13313, "ordin": 4194, "fen": 11350, "\u2581Cast": 4834, "\u2581startup": 20234, "\u2581ticket": 23381, "ienia": 14986, "\u2581np": 7442, "agas": 26712, "\u2581intervals": 18747, "currency": 26095, "\u2581states": 5922, "\u2581ar": 564, "\u043b\u043e\u0432": 3176, "\u2581async": 7465, "\u2581E": 382, "power": 13519, "\u8001": 31506, "\u2581therefore": 5480, "\u2581familie": 8901, "\u2581appropriate": 8210, "coln": 16575, "sun": 11445, "\u2581label": 3858, "\u2581blocked": 24370, "\u0d1e": 31956, "alet": 9457, "\u101e": 31922, "\u2581light": 3578, "atable": 17219, "\u0447\u0435\u043d\u043d\u044f": 14479, "\u017eit": 20882, "\u2581\u0423": 2014, "\u2581Musik": 11390, "\u2581sequ": 8617, "\u2581Indeed": 14598, "\u2581bin": 9016, "\u0435\u0441": 4449, "\u2581secure": 11592, "\u2581kat": 29466, "\u3000": 30358, ">()": 16917, "\u2581Kurz": 26274, "\u2581cattle": 27498, "\u4eac": 30675, "ende": 3324, "\u2581gave": 4846, "\u2581appropri": 7128, "\u0431\u0438\u0440\u0430": 20338, "Bean": 8217, "\u043c\u0430\u0442\u0438": 13576, "ote": 866, "But": 6246, "Chr": 11626, "\u2581comp\u00e9t": 25732, "\u2581Atl": 8920, "\u2581credit": 16200, ".~": 13217, "pid": 5935, "\u2581portrait": 21760, "\u2581Er": 1425, "\u2581Writ": 16849, "\u2581hace": 20470, "\u2581per\u00edodo": 24685, "\u2581accessed": 20592, "\u2581Newton": 19017, "exports": 26500, "\u2581lak": 24591, "\u2581\u043f\u0440\u043e\u0434": 24678, "\u2581cinema": 24615, "ERROR": 11432, "\u042b": 30570, "\u2581principale": 15963, "raw": 1610, "labels": 21134, "Bra": 28183, "iah": 21071, "\u2581Setting": 21605, "\u2581hero": 13444, "\u2581pau": 24571, "\u2581schlie\u00dflich": 25142, "\u2581grey": 18345, "\u2581Void": 29434, "\u2581avait": 7905, "\u2581Ath": 9193, "\u8349": 31710, "\u2581oder": 4461, "\u2581Houston": 24327, "TP": 3557, "\u2581Leip": 13412, "heim": 6391, "$.": 1504, "forms": 9514, "\u2581Estados": 9702, "\u2581basically": 8830, "Display": 9323, "\u2581conjunto": 26949, "\u2581Font": 10928, "\u2581sch": 1364, "\u2581multip": 6674, "anden": 7257, "ansion": 9454, "\u2581salv": 24754, "=$(": 19758, "\u2581Jesus": 13825, "\u00e9rcito": 18487, "itori": 18382, "\u2587": 31589, "asa": 11290, "\u2581bu": 1321, "over": 957, "\u2581things": 2712, "ultur": 9730, "\u2581conversion": 11301, "\u2581attacks": 16661, "leases": 17836, "\u2581co": 1302, "\u2581Kansas": 20029, "\u2581bedeut": 23477, "\u2581`\\": 6714, "\u2581Beginn": 27847, "\u2581ActiveRecord": 29058, "\u2581Q": 660, "\u2581hombres": 27970, "\u2581estaven": 24576, "\u2581Result": 7867, "\u2581tensorflow": 26110, "tar": 12637, "\u2581Copa": 14015, "alling": 27855, ":": 29901, "[@": 17548, "cla": 16398, "\u2581minor": 9461, "wal": 14625, "NC": 15868, "\u2581v\u00e1lto": 25415, ")[": 9601, "ulpt": 14185, "\u2581visited": 16669, "\u2581((": 5135, "\u2581Tre": 6479, "\u2581optical": 27070, "\u04b1": 31212, "weise": 4506, "direction": 20845, "\u2581\u043a\u0440\u0435": 15798, "\u2581sevent": 16741, "\u6a4b": 31392, "\u2581Mau": 22209, "\u2581<<": 3532, "|\\": 4295, "harm": 23024, "osta": 16233, "ieurs": 8894, "\u2581Ful": 23004, "\u2581Health": 15202, "every": 17991, "lla": 13520, "group": 2972, "\u2581aplic": 20760, "write": 3539, "Config": 3991, "\u2581analysis": 7418, "rence": 17540, "\u2581Gonz": 27536, "ong": 549, "\u2581efficient": 8543, "itan": 8929, "unte": 17316, "HA": 15715, "\u2581beat": 16646, "\u2581fly": 11340, "irmingham": 28836, "\u2581guns": 18788, "ativo": 11692, "James": 29470, "\u011b": 30036, "edic": 7486, "Host": 8514, "\u53ea": 31557, "ST": 1254, "\u2581f\u00fchrte": 21070, "\u2581react": 7657, "manuel": 22670, "\u2581comprom": 19632, "\u2581Deux": 26079, "\u2581cried": 10680, "\u2581questa": 15430, "\u2581\u043d\u0435\u0441\u043a\u043e": 15587, "\u2581Baker": 22652, "////////////////": 19511, "tk": 11178, "\u2581Beruf": 28368, "\u2581count": 2302, "\u0426": 30092, "itive": 3321, "\u2581complexity": 13644, "EG": 11787, "\u2581populate": 19450, "dbo": 21627, "\u2581->": 1599, "\u2581sortie": 26558, "appe": 29065, "\u2581Company": 6938, "\u2581CGFloat": 29239, "speed": 19322, "\u2581Lauf": 29208, "\u602a": 31985, "\u2581efficiency": 19201, "\u2581municipio": 17523, "Normal": 19077, "\u2581declar": 7669, "\u2581explos": 20389, "\u0441\u0442\u0440\u0443\u043a": 20361, "\u4e8b": 30745, "AMP": 19297, "\u2581Lawrence": 19520, "\u2581jedoch": 9901, "!!!": 21004, "\u2581Est": 2661, "Radio": 21818, "\u2581White": 8037, "\u2581Binding": 25799, "jekt": 9761, "ix": 861, "allel": 6553, "\u2581mant": 13694, "\u2581waters": 19922, "estaur": 22837, "\u2581shook": 25239, "\u2581memor": 26959, "inger": 5621, "ab": 370, "\u2581m\u00e9r": 27442, "\u2581AG": 16369, "dx": 8235, "emy": 6764, "\u2581familia": 13522, "\u2581verg": 24569, "\u2581\u0410\u043b": 18699, "\u2581memb": 3813, "\u00e4lt": 10905, "door": 17433, "\u2581\u0431\u0435\u0440\u0435\u0437\u043d\u044f": 21284, "\u2581Anna": 11230, "dfs": 29069, "\u043d\u0430\u043b\u0430": 24896, "\u2581Sn": 22639, "iec": 21199, "\u2581price": 8666, "\u2581bald": 29023, "\u2581Parti": 29661, "\u2581havia": 13387, "\u0456\u0440": 15429, "\u2581Arbeits": 24966, "sharp": 22064, "\u0144": 30066, "<0xCE>": 209, "size": 2311, "\u2581varmaste": 26662, "asted": 28470, "\u2581f\u00eds": 27087, "\u2581cube": 28704, "Build": 8893, "nof": 3998, "\u2581zur\u00fcck": 9964, "\u2581verl": 27059, "\u0440\u0430\u043a": 10006, "\u2581bem": 15522, "\u0442\u0440\u0438": 7678, "\u2581installed": 5130, "limited": 29044, "\u2581subclass": 19481, "ruck": 10857, "\u4ecb": 31633, "jb": 16761, "\u2581menor": 26764, "ar": 279, "isp": 11936, "\u2581Fa": 7748, "\u2581\u0432\u0435\u0440\u043d\u0443": 27585, "if": 361, "\u2581Champion": 5257, "\u2581storm": 14280, "\u2581ford": 25779, "MAX": 12648, "\u2581Edit": 7641, "\u2581Indians": 17072, "\u2581\u0412\u0456\u043d": 26937, "ark": 935, "\u2581themselves": 6053, "\u2581G\u00e9": 15309, "\u2581\u0447": 2493, "\u2581passenger": 28507, "\u2581Please": 3529, "Year": 12883, "\u0444\u0440": 23692, "\u2581\u0457\u0445": 22066, "\u2581as": 408, "\u2581fight": 8589, "\u2581primo": 11532, "\u2581catal": 17246, "\u2581\u0431\u0440\u043e\u0458\u0430": 25564, "Bob": 29362, "\u2581effect": 2779, "reshold": 12268, "\u2581byla": 14905, "\u2581rows": 4206, "\u2581Pfl": 28888, "\u2581disp": 12272, "\u2581injured": 28606, "\u2581DM": 27692, "\u2581gu": 1410, "\u2581Simon": 11254, "\u2581presso": 20885, ",\"": 1699, "<0xFF>": 258, "\u2581Lane": 23841, "\u2581Che": 6561, "\u00edvel": 24747, "enz": 4666, "\u8bb0": 31410, "\u2581stran": 16463, "\u0444\u043e\u0440": 6696, "\u2581Normdaten": 11193, "\u2581encoding": 8025, "mu": 2589, "\u2581office": 8034, "\u2581feu": 20491, "\u2581Rechts": 21165, "\u30ed": 30378, "\u2581destac": 18583, "jpeg": 26568, "ZE": 10721, "\u2581knowing": 13797, "\u2581soci\u00e9t\u00e9": 19513, "\u00e1si": 23884, "<0xA1>": 164, "\u0445\u0430": 3369, "\u2581\u0430\u0434": 11437, "\u043d\u0438\u0446\u0438": 11026, "bl": 2204, "\u2581{:": 12365, "Effect": 13971, "\u2581Module": 15591, "\u2581primitive": 19269, "\u0645": 30159, "r": 29878, "\u2581m\u00ed": 26756, "\u2581\u0414\u0436\u043e\u043d": 26181, "\u2581\u0448\u043a\u043e": 12351, "\u2581bez": 11151, "\u200e": 30131, "alo": 7003, "\u2581erh": 9369, "\u2581Abb": 13896, "\u2581\u00e9t": 2852, "\u2581autres": 10890, "\u2581Op": 6461, "\u0441\u044b": 5551, "\u2581PATH": 23611, "usz": 10958, "\u2581\u043d\u0430\u0447\u0430\u043b\u0435": 26266, "\u2581\u0437\u0435\u043c": 12639, "\u2581Love": 8155, "\u2581random": 4036, "rera": 13941, "\u0435\u043a": 3506, "\u2581Display": 17440, "\u2581involves": 20789, "inside": 26102, "\u00c6": 30232, "\u2581advanced": 12862, "\u2581Agr": 16503, "\u2581working": 1985, "}\"": 5038, "\u2581minimum": 9212, "ocket": 9749, "\u30e7": 30907, "\u2581contribu": 27895, "\u2581compatible": 15878, "\u0441\u0442\u043e\u044f\u043d": 29644, "\u8fb9": 31993, "iba": 16912, "\u043b\u0438\u043c\u043f\u0438\u0439": 25833, "\u2581altro": 27704, "\u2581schedule": 20410, "\u2581w": 281, "\u2581Zeit": 5347, "Constants": 26570, "\u2581parfois": 29202, "cks": 4684, "Router": 23971, "\u2581Dro": 22938, "\u2581understand": 2274, "onal": 7177, "\u2581mor": 3036, "IOException": 20477, "ificate": 8021, "\u2581tile": 25900, "state": 3859, "\u2581t\u00e9matu": 23015, "\u0435\u043d\u0442": 3648, "\u064b": 31880, "nde": 17720, "\u2581organ": 2894, "\u2581XXX": 22615, "\u2581Chem": 12677, "mor": 12257, "loat": 3071, "\u2581trova": 25307, "ption": 683, "\u0446\u044c": 5986, "\u2581bom": 18523, "lish": 1674, "\u2581database": 2566, "=${": 23339, "$}": 17133, "\u2581Matrix": 22513, "\u2581chron": 17168, "Pat": 11457, "zeit": 6665, "\u2581Nar": 16080, "\u0448\u043f": 27422, "\u2581seu": 5078, "attro": 19114, "\u0447\u0443": 9797, "\u1e0f": 31946, "\u2581Anderson": 17483, "Sp": 5592, "\u2581tut": 7149, "[:": 7503, "Op": 11746, "\u2581ban": 9892, "Jean": 22438, "Pixel": 29637, "fo": 1181, "data": 1272, "v\u00f6lker": 17395, "\u2581satisfying": 24064, "\u2581neglect": 22851, "utzt": 26216, "\u2581merc": 16856, "\u03b3": 30197, "\u2705": 31681, "\u2581rout": 6745, "\u2581possible": 1950, "\u2581chant": 26639, "\u2581influ": 7112, "illon": 12794, "ulos": 19733, "\u2581phys": 4824, "\u2581Carol": 8562, "\u2581seven": 9881, "{[": 13970, "\u2581connexes": 14446, "ex": 735, "Prom": 18571, "\u2581fire": 3974, "homme": 21708, "\u00e1sok": 21963, "\u043a\u0456": 5788, "\u0441\u0442\u0435": 4267, "\u2581Technology": 17968, "\u2581jazz": 21230, "\u2581Europe": 4092, "elo": 7078, "\u2581fuer": 8470, "webkit": 14085, "seen": 28026, "\u2581!=": 2804, "header": 6672, "\u2581Sunday": 16340, "\u2581Walter": 10705, "\u2581maximum": 7472, "\u0144czy": 23135, "\u2581nag": 17995, "esota": 19622, "\u2581nei": 12106, "\u2581\u043a\u043e\u043f\u0438\u044f": 24723, "tabs": 21175, "case": 4878, "\u2581fon": 10866, "\u2581officer": 12139, "doc": 1514, "Story": 29359, "----------------": 2683, "lier": 4926, "\u2581Comun": 23914, "\u2581\u015b": 6192, "arias": 20225, "\u00f4tel": 25892, "river": 3511, "\u2581grows": 25088, "or": 272, "\u2581\u043d\u0430\u0441\u0435": 4588, "\":{\"": 28819, "\u2581Pay": 14617, "\u2581did": 1258, "\u2581\u044d\u0442\u043e\u0442": 28029, "\u2581\u2502": 11879, "HR": 20938, "\u2581grund": 19816, "Icon": 12492, "ools": 8789, "\u2581Ko": 8224, "\u2581null": 1870, "PY": 20055, "\u2581room": 5716, "\u2581driver": 7156, "\u2581NEW": 29091, "\u0448\u0435\u0435": 29656, "\u30e3": 30561, "\u2581Ve": 8980, "\u2581pseud": 19923, "\u2581$(": 2427, "ey": 1032, "hibernate": 12575, "\u2581tent": 12033, "\u2581primi": 25877, "\u2581$|\\": 25984, "\u2581Hog": 27675, "\u9244": 31509, "\u0441\u043d\u044f": 20703, "oder": 6119, "San": 22509, "failed": 26061, "\u2581depart": 5840, "\u2581\u0417\u0430": 3982, "unde": 9140, "Generator": 21575, "layout": 2680, "\u2581defines": 17645, "\u2581\"...": 29804, "\u2581derrot": 25464, "bid": 23883, "\u2581modal": 13008, "\u5340": 31561, "\u2581cens": 19343, "\u0434\u0435\u043d": 4466, "\u2581aan": 4711, "OB": 14824, "\u2581certificate": 12289, "\u2581VALUES": 15673, "\u2581nations": 19079, "rial": 9315, "\u2581Reichs": 26981, "\u2581Supreme": 22569, "ViewById": 9611, "\u2581economic": 17407, "\u2581Christopher": 18888, "\u2581ext": 1294, "leading": 25369, "\u5c14": 31814, "lation": 18411, "\u2581sources": 8974, "\u2581credentials": 16140, "VERSION": 16358, "\u043b\u0435\u0440": 22565, "\u009d": 31555, "\u043a\u0438\u043c": 9787, "oul": 5059, "\u2581\u043c\u0438\u0440\u0430": 17758, "liqu": 28378, "\u2581Sw": 3925, "Qt": 17303, "\u2581feel": 4459, "\u2581\u00e9quipe": 25740, "\u2581'\"": 18793, "longrightarrow": 24225, "\u2581spoken": 19182, "\u2581Child": 10517, "\u2581zahl": 19885, "lm": 21457, "\u2581creating": 4969, "connect": 6915, "gerufen": 3469, "imedia": 3393, "\u2581Garden": 19906, "../../": 21546, "\u2581Stud": 5088, "\u2581hi": 7251, "\u2581franz\u00f6s": 14221, "\u2581worry": 15982, "extension": 17588, "agnet": 22414, "\u2581loi": 24228, "\u2581kunst": 27708, "ASC": 28599, "\u00f8r": 10181, "\u2581\u043f\u0440\u0438": 1695, "wicklung": 16518, "\u2581nam": 6869, "\u00e9p": 6430, "\u2581sky": 14744, "\u2581\u0440\u0430\u0439\u043e\u043d": 12518, "\u2581Deutsche": 14102, "\u2581'@": 18803, "c": 29883, "\u0e01": 30425, "\u2581Spark": 20814, "\u2581similarly": 22829, "\u30af": 30305, "\u2581\u0448": 3354, "\u2581\u043a\u043e\u043d\u0442\u0440\u0430": 28415, "\u2581Camp": 7259, "\u2581starts": 8665, "\u2581\u0431\u0438": 5660, "\u2581Scient": 23753, "Toggle": 27199, "ante": 1647, "\u2581ERR": 22307, "\u2581promise": 11640, "\u2581Moore": 18588, "\u2581driving": 19500, "^+": 14747, "ctrl": 24220, "\u2581procedures": 28648, "\u00e1tico": 22054, "\u2581gradu": 10591, "\u2581SF": 28768, "Pre": 6572, "\u2581modules": 10585, "\u2581teams": 10907, "oster": 15664, "\u2581entities": 16212, "Zero": 24214, "above": 27215, "Los": 29286, "avier": 18852, "\u2581aim": 12242, "erset": 24197, "\u2581Ag": 4059, "\u2581band": 3719, "`,": 1673, "\u2581\u0434\u043b\u044f": 3807, "\u2581parents": 11825, "ichts": 17815, "\u2581networking": 28127, "\u2581Angular": 11575, "pisode": 12907, "\u2581journ": 21824, "protected": 24681, "\u2581disable": 11262, "sites": 16315, "\u2581C\u00e9sar": 29655, "\u2581Japanese": 10369, "expl": 24516, "\u2581joueur": 23009, "(...)": 29077, "\u2581secretary": 28274, "park": 6378, "\u0432\u0430\u0432": 9276, "=.": 21098, "\u2581born": 6345, "\u2581fork": 27350, "\u2581asse": 18678, "elles": 4999, "Comp": 6843, "\u0443\u0442": 7721, "ightarrow": 28142, "\u2581lorsque": 28194, "\u2581Ludwig": 14298, "\u00e4gt": 27512, "\u570b": 30915, "\u2581cui": 7385, "\u30d7": 30605, "\u2581Govern": 6769, "esehen": 25310, "suit": 29658, "D": 29928, "\u6c34": 30716, "\u00f3l": 5471, "atever": 5564, "\u2581\u0412\u0435\u0440": 12850, "olar": 10170, "\u043d\u043e\u043c\u0443": 8103, "\u2581\u043c\u0430\u0440": 8487, "uttavia": 23208, "\u05da": 31339, "lera": 25931, "itar": 3673, "Sa": 17618, "\u2581pels": 29549, "\u2581bronze": 18449, "\u2581Return": 7106, "\u2581Hamb": 11610, "\u2581Species": 21807, "\u2581SELECT": 5097, "sqlite": 22793, "\u2581Luis": 12583, "\u00e4ischen": 27334, "\u2581Pia": 27663, "%).": 28003, "\u2581batt": 8957, "\u2581doc": 1574, "bourg": 17247, "\u2581programa": 16914, "lj": 14042, "occer": 11953, "\u2581identifier": 15882, "\u2581diagn": 24876, "\u2581Exper": 28224, "bis": 18809, "*.": 10521, "atoes": 20452, "\u2581Hil": 12338, "Request": 3089, "\u2581disput": 8937, "\u2581ancien": 26128, "\u2581account": 3633, "\u2581very": 1407, "ulative": 28524, "LOG": 14480, "ogene": 16603, "\u2581assemb": 24367, "own": 776, "-}": 27154, "\u2581Border": 20830, "ikt": 10391, "\u2581captured": 15468, "<0xC7>": 202, "\u2581ceased": 24886, "\u2581no": 694, "\u00edt": 2468, "\u2581\u201e": 1768, "\u2581CSS": 6783, "ichter": 23210, "e": 29872, "\u0082": 30469, "usa": 11326, "\u2581m\u0171": 17476, "\u2190": 30245, "\u2581parl": 24590, "\u2581OF": 8079, "\u0448\u043a\u0438": 15324, "\u2581intent": 7609, "\u2581N\u00e9": 27911, "\u0388": 31873, "\"?": 8652, "\u2581Bol": 8922, "\u0441\u043d\u0438": 21413, "writer": 13236, "\u0159\u00ed": 6016, "\u2581calci": 15835, "HC": 19127, "\u5f53": 30948, "\u2581south": 7062, "\u2581financial": 18161, "gly": 16808, "\u00e8re": 1908, "\u2581Framework": 16657, "\u2581=~": 16788, "/_": 19891, "ruits": 21211, "ggreg": 26127, "Tem": 5776, "ect": 522, "anne": 11276, "\u2581recht": 21131, "\u2581evidently": 25524, "\u0442\u0438\u0439": 12147, "\u044d\u043d": 20451, "---": 5634, "pr\u00fcng": 21563, "binary": 19541, "\u2581project": 2060, "choose": 21803, "\u2581reality": 16832, "\u0151d": 28992, "\u2581Fore": 28297, "str\u00f6m": 25961, "\u2581doing": 2599, "\u2581comple": 1614, "\u044f\u043d": 8994, "\u2581satellite": 28421, "\u00e9ben": 14790, "let": 1026, "arm": 2817, "iff": 2593, "rack": 22282, "eta": 1187, "\u0142u\u017c": 22952, "\u0bc8": 31428, "Fil": 3434, "\u2581mechanical": 28310, "\u2581verlor": 22355, "\u2581Cord": 20893, "skip": 11014, "in\u00e9": 17856, "gh": 12443, ",]": 26073, "\u2581applic": 15576, "ates": 1078, "\u0566": 31816, "\u2581\u043f\u0456\u0434": 6908, "aren": 8326, "ocy": 22502, "\u2581litt\u00e9rature": 27940, "\u2581Sus": 9511, "ogn": 3811, "VALUE": 19143, "quin": 24150, "day": 3250, "\u043d\u0438\u043a\u0430\u043c\u0438": 27642, "isson": 17387, "zi\u0142": 22797, "osex": 29438, "\u2581United": 3303, "\u2581merchant": 29055, "Seg": 17669, "\u7403": 31539, "\u5929": 30408, "\u00e7o": 6102, "lav": 4112, "\u2581terror": 15115, "\u2581Unter": 5266, "\u2581//": 849, "\u2581--": 1192, "\u2581lu": 8092, "\u043a\u0456\u043d": 20094, "\u2581Cooper": 21851, "y": 29891, "\u2581enjoyed": 27849, "\u2581Liver": 22469, "\u0440\u0430\u0432": 3766, "\u2581definitions": 15848, "lag": 3110, "erei": 14900, "\u2581Oper": 6607, "blue": 9539, "\u2581Kant": 24517, "AK": 22311, "marks": 22848, "\u2581\u043d\u0430\u043f\u0440\u0430\u0432": 21946, "</s>": 2, "\u2581expression": 4603, "\u043c\u0430\u043b\u044c": 28494, "holder": 7694, "etwork": 2647, "aine": 9874, "ventory": 23886, "bahn": 11121, "emplo": 13141, "JavaScript": 16963, "\u2581Census": 20121, "\u2581criminal": 22161, "login": 7507, "\u2581tribe": 29563, "chestra": 15554, "r\u00f3": 6830, "\u0421": 30008, "\u2581lik": 4188, "Exists": 24217, "\u2581Hoch": 10955, "\u2581dinner": 17803, "Edit": 6103, "\u2581Encyclopedia": 18791, "\u2581Roc": 25111, "ser": 643, "\u2581around": 2820, "\u00e1gina": 18814, "alone": 18785, "\u2581offer": 5957, "\u2581hunting": 29826, "\u2581vehicle": 19716, "\u2581\\": 320, "\u2581Provin": 11127, "\u2581princi": 2623, "work": 1287, "\u2581Labor": 16715, "\u2581repositories": 28914, "Mar": 7083, "\u2581Instituto": 20314, "&#": 9137, "force": 10118, "bay": 27495, "\u2581Pitt": 18727, "\u2581stal": 28367, "\u0441\u0442\u0430\u043d\u043e\u0432": 10704, "\u2581torneo": 23300, "\u2581big": 4802, "endant": 5818, "\u2581XII": 17172, "four": 17823, "\u2581filtering": 21166, "irty": 13163, "\u044e\u0440": 24872, "\u2581changing": 6480, "ier": 631, "\u2581Gul": 29633, "\u2581moves": 16229, "\u2581osc": 15199, "\u2581EventArgs": 21374, "\u2581transfer": 6782, "photo": 21596, "<0x65>": 104, "\u2581Si": 6101, "ella": 3547, "\u2581\u0435": 1694, "ografia": 5028, "isms": 12903, "\u2581abund": 18666, "\u2581\u017c": 13918, "\u2581gcc": 20243, "\u2581Aug": 22333, "stvo": 26225, "-": 29899, "\ufeff": 30143, "\u2581kin": 19015, "\u2581\u043f\u043e\u043b\u0443\u0447\u0438": 12052, "\u028e": 31743, "lais": 11818, "\u2581stell": 14781, "\u2581gap": 17261, "ierre": 6349, "\u2581Duch": 23568, "\u2581\u043c\u0438\u043d\u0438": 20826, "\u2581Georges": 18604, "GG": 26788, "amps": 15092, "\u2581fin": 1436, "issenschaft": 8495, ")}(": 22302, "\u2581groot": 23138, "\u0441\u043e\u0431": 17393, "\u043f\u0440\u043e": 5945, "\u2581\u0434": 662, "\u2581zur": 3046, "\u2581szeptember": 27191, "Equal": 9843, "})\\": 11606, "\u2581Military": 20080, "chk": 29570, "f": 29888, "\u2581\u043b\u0438\u043f\u043d\u044f": 25283, "\u2581pay": 5146, "\u2581Haw": 10875, "\u2581animated": 17524, "apper": 23239, "\u2581western": 15782, "\u2581\u0432\u0438\u043a\u043e\u0440\u0438\u0441\u0442\u043e\u0432\u0443": 26720, "endent": 3906, "\u2581roll": 9679, "wij": 18155, "\u2581unus": 18325, "iber": 12347, ">[": 24566, "\"?>": 18943, "ras": 3417, "kind": 14380, "\u0436\u0435\u043d\u0430": 24357, "\u043b\u043a\u0438": 7574, "CB": 21685, "anchor": 25367, "know": 28385, "\u2581length": 3309, "\u2581Jenn": 23774, "ren": 1267, "\u2581Jason": 21776, "orld": 1613, "\u2581lifted": 26239, "\u2581Ara": 25953, "\u0441\u0442\u0430\u043d": 4374, "\u00d2": 30612, "\u2581hit": 7124, "groupby": 27789, "fik": 19631, "\u2581gel": 9127, "Html": 10922, "\u043d\u0438\u0446\u0435": 23256, "][": 3816, "\u2581polity": 24694, "<0x45>": 72, "\u2581\u043a\u043e\u0442\u043e\u0440\u044b": 6305, "Sql": 10520, "ce": 346, "\u2581Kl": 12043, "Install": 23271, "\u2581otherwise": 6467, "\u2581a\u00f1": 4503, "\u2581laat": 23385, "\u207b": 30760, "\u2581likely": 5517, "erved": 9841, "i\u00f3": 3556, "LINE": 18521, "\u2581watching": 21217, "pez": 14001, "\u2581Yang": 27583, "\u043b\u0438\u043d\u0430": 16279, "\u2581bol": 15772, "k\u00e1": 27817, "\ub85c": 30906, "\uc5b4": 31129, "\u2581Galerie": 28496, "\u043e\u043d": 2031, "\uc548": 31734, "\u0440\u043e\u0434": 3463, "Snapshot": 21913, "<0x90>": 147, "\u2581surprised": 18014, "\u2581sou": 3669, "\u2581Error": 4829, "\u2581seus": 11018, "\u2581combin": 5769, "\u2581sexual": 18287, "ature": 1535, "yci": 20318, "\u2581nieuwe": 25126, "\u2581transparent": 17772, "\u2581extend": 10985, "\u2581spect": 6683, "emptyset": 26153, "\u0434\u0430\u0445": 27920, "jna": 27983, "\u2581Scroll": 28797, "\u0434\u043e\u0432": 5752, "useum": 5021, "\u2581\u041f\u0440\u0435\u0434": 25115, "\u2581depends": 7111, "\u2581Mol": 10750, "\u2581pointers": 12589, "\u2581Mam": 27287, "\u2581Els": 13144, "ninger": 22705, "\u2581coun": 2613, "utor": 3406, "\u2581ville": 8441, "strip": 17010, "\u2581Anti": 18473, "ungsseite": 20638, "\u2581ver": 1147, "\u2581Stuart": 24710, "\u2581animate": 26015, "\u2581Cam": 5500, "attach": 14930, "\u0e19": 30348, "\u043b\u044f\u0445": 22373, "\u2581Options": 25186, "\u2581Besides": 19065, "\u2581speaker": 25657, "\u0435\u0434\u0435\u0440\u0430": 18797, "\u2581\u043a\u0430\u043f\u0438": 28850, "\u2581XX": 6193, "<0x99>": 156, "\u2581cycles": 25785, "\u2581CURLOPT": 27589, "\u2581Acc": 4831, "char": 3090, "\u2581electric": 12646, "static": 7959, "\u2581Education": 13151, "\u2581Variable": 28736, "execute": 7978, "\u2581\u00e9tait": 6303, "i\u0105": 19855, "\u2581attach": 10641, "RGB": 28212, "\u2581che": 923, "Azure": 28413, "\u2581diffusion": 23253, "axy": 26825, "?>": 17382, "\u2581Equ": 11243, "\u2581Josef": 17374, "\uc77c": 31153, "\u2581install": 2601, "\u2581Monday": 27822, "\u2581ll": 11148, "\u2581Emil": 25458, "\\{\\": 24976, "\u2581Barb": 21826, "\u2581torraste": 28647, "attice": 19704, "\u0447\u0438\u043d": 15132, "nitz": 29204, "UES": 12996, "Mapp": 9689, "\u2581Juan": 8699, "liches": 20048, "\u2581pilot": 19840, "\u2581\"`": 29724, "\u026b": 31764, "--": 489, "\u2581\u2581\u2581\u2581\u2581\u2581\u2581\u2581\u2581\u2581\u2581\u2581\u2581\u2581": 1669, "\u2581Personal": 16224, "\u2581labour": 23390, "\u2581\u0441\u043a\u043b\u0430\u0434\u0443": 25683, "\u2581Change": 10726, "\u2581hatten": 19459, "s\u00e9g": 25038, "legte": 29838, "\u2581la": 425, "\u2581transform": 4327, "apk": 16681, "ograf": 2345, "\u2581dedic": 8856, "\u2581vend": 9691, "iden": 3615, "\u2581serious": 10676, "aget": 26084, "\u2581apolog": 27746, "\u2581mano": 24318, "varphi": 6827, "\u2581j\u00e1": 17333, "\u2581Sold": 19019, "\u2581Cec": 21325, "\u2581figur": 28477, "\u2581mistakes": 28947, "\u2003": 30363, "\u2581\u0442": 1937, "player": 9106, "\u1e33": 31897, "\u2581Exit": 25954, "\u043a\u0442\u043e": 18576, "\u2581experience": 7271, "//": 458, "\u2581tamb": 3882, "comments": 21032, "$(": 12330, "\u2581please": 3113, "\u2581victory": 15354, "\u2581father": 4783, "\u2581absolv": 28994, "\u2581\u0422\u0440\u0438": 28928, "\u2581$_": 7471, "igung": 11841, "\u2581bij": 5928, "\u2581Days": 24728, "\u2581<%": 20577, "atre": 6064, "rist": 2021, "\u2581Core": 10239, "\u2581Ej": 26087, "\u2581chemical": 22233, "\u0433\u0435\u0440": 21579, "ajes": 23823, "\u2581process": 1889, "\u2581established": 7841, "riter": 5385, "\u2581\u00dc": 7189, "major": 21355, "\u00e4nder": 13178, "\u2581associated": 6942, "catalog": 28045, "\u00bc": 30515, "\u2581grasp": 25274, "\u2581Leonard": 26921, "\u043f\u0440\u0438\u043c\u0435\u0440": 25390, "\u05c1": 31194, "\u2581\u0442\u043e": 2721, "}^{": 2844, "\u2581Hyp": 28984, ">,": 10202, "\u2581priority": 20136, "\u2581hem": 9736, "\u0449\u0438\u0445": 22319, "\u2581Santi": 15908, "hr": 1092, "\u2581pr\u00e9sence": 29845, "\u103a": 30693, "xc": 21791, "figure": 4532, "esp": 9983, "\u2581\u043c\u043c": 24427, "\u2581\u044f\u0437\u044b": 14264, "onn\u00e9es": 14201, "\u2581probable": 16269, "\u2581threw": 18318, "\u2581distributions": 18822, "oplus": 17201, "\u2581Janeiro": 20883, "\u0441\u043d\u043e": 9627, "endi": 26464, "\u2581Phys": 11661, "\u2581c\u00edm\u0171": 26773, "not": 1333, "ctl": 16948, "\u2581cuer": 25753, "\u2581\u0431\u0443\u043b\u043e": 11792, "\u2581aw": 3773, "jou": 20551, "\u2581Monument": 23542, "\u040b": 30879, "\u2581-(": 19691, "arina": 23558, "ways": 1994, "\u2581jog": 16812, "\u2581Ken": 10015, "\u2581\".": 11393, "uki": 19267, "maste": 19535, "\u2581detailed": 13173, "LA": 4375, "()))": 22130, "\u2581ordinary": 15311, "\u2581honour": 19107, "WIDTH": 22574, "\u2581proof": 5296, "\u2581significant": 7282, "ig": 335, "\u2581scenario": 10483, "\u2581Bach": 13620, "\u2581blan": 16568, "\u2581benchmark": 23513, "\u200f": 30422, "MenuItem": 21331, "\u2581decay": 20228, "\u2581sua": 4171, "\u2581Tig": 24834, "\u2581fecha": 29100, "ifik": 14759, "\ub9c8": 31417, "arding": 20272, "\u2581nun": 11923, "\u00ee": 30058, "\u0447\u0435\u043d\u0438\u044f": 12395, "\u2581Row": 11438, "\u2581Island": 7935, "\u2581Prov": 9133, "\u2581Clement": 26769, "sections": 27117, "rier": 4336, "decode": 13808, "front": 8862, "\u2581password": 4800, "eur": 5411, "Fr": 14438, "z\u00f3": 27212, "\u5bb6": 30613, "iglia": 12964, "TeX": 16644, "urbed": 28179, "<0x6F>": 114, "\u2581rid": 8177, "\u2581\u043f\u0435": 6414, "\u2581automat": 5092, "ident": 1693, "office": 20205, "\u2581radiation": 27310, "\u2581Joh": 1861, "\u2581\u043f\u043e\u0434\u0434\u0435\u0440": 26400, "\u2581Kost": 27899, "\u043b\u044c\u043d\u044b\u0445": 25575, "\u2581act": 1044, "a": 29874, "\u2581Terry": 27571, "\u2581reducing": 27668, ")'": 16029, "\u2581regret": 28883, "\u2581\u0431\u0443\u0434\u0435": 23618, "cribed": 23059, "\u0446\u0438\u0430\u043b\u044c": 9676, "\u2581Bahn": 15131, "\u2581v\u00e4": 13108, "ugs": 16926, "seed": 26776, "\u2581props": 17761, "'": 29915, "\u2581clarify": 15544, "\u2581appreciated": 7556, "\u2581ambigu": 22363, "\u4e0d": 30413, "\u2581CL": 17332, "\u2581monot": 21196, "bind": 5355, "TS": 9375, "\u2581VB": 21045, "\u2581fonts": 23849, "\u2581Market": 28794, "\u2581remarkable": 22567, "an": 273, "l\u00e4": 9231, "\u2581rencontre": 26186, "tern": 725, "i\u00f3n": 3175, "\u2581mai": 5530, "rene": 28593, "\u2581Sach": 28944, "\u2581dip": 28191, "\u2581assignment": 12827, "\u2581rap": 14937, "\u2581pint": 16483, "zes": 10947, "\u2581naval": 25581, "\u2581laid": 12341, "\u2581Performance": 23768, "\u2581classe": 17792, "\u2581Polit": 6934, "AccessorImpl": 20527, "\u2581sigu": 12923, "reme": 10291, "endency": 5197, "\u2581\u0441\u0442\u0430\u043d": 5151, "----": 807, "aged": 4063, "commerce": 22529, "\u00f6ffentlich": 26207, "\u2581Championship": 8972, "\u2581pu\u00f2": 17356, "/>": 3779, "NI": 12916, "appendChild": 23850, "\u2581W\u00fcr": 21241, "\u2581Next": 8084, "\u2581\u0416": 7007, "wedge": 17864, "\u2581trail": 26203, "ynast": 15290, "\u2581propi": 28146, "\u2581\u0441\u043e\u0431": 21291, "\u2581chaque": 18402, "\u2581overhead": 18702, "zw": 7659, "\u043d\u0438\u043a\u0438": 9645, "ve": 345, "\u2581Security": 14223, "\u2581crossing": 24067, "maybe": 26026, "\u2581\u0445\u043e": 6785, "\u2581\u043f\u043e\u0441\u043b\u0435": 9017, "\u2581publi\u00e9": 28884, "\u2581Steven": 24703, "\u2581studied": 12399, "zych": 18794, "\u2581\u043e\u0441\u0442": 14425, "ogo": 10482, "\u043d\u043e": 570, "\u2581team": 3815, "zysk": 19029, "chus": 26806, "\u2581addition": 6124, "\u2581contents": 8118, "\u2581\u043c\u0435\u0434\u0438": 19432, "omo": 10730, "\u2581reduced": 12212, "\u2581Beng": 20781, "acre": 21160, "\u666f": 31495, "leq": 3797, "wire": 22376, "ky": 3459, "lius": 19646, "\u2581env": 8829, "\u2581Intel": 18555, "k\u00f3w": 15396, "\u0441\u0442\u0430\u0432": 3843, "endes": 18684, "\u2581Metropol": 19110, "\u2581\u0443\u0431\u0438": 19670, "\u2581nau": 16448, "\u2581Effect": 26475, "\u2581conseil": 27923, "\u2581initially": 12919, "\u054d": 31663, "\u2581Moscow": 25820, "avel": 6447, "\uff0c": 30214, "\u2581\u0442\u0440\u0438": 10357, "\u0105pi": 27936, "Center": 13409, "export": 15843, "(){": 4923, "\u2581bien": 6079, "\u2581\u0448\u043a\u043e\u043b\u0430": 28231, "John": 11639, "\u2581wondering": 9873, "spe": 5965, "\u2581fragment": 9376, "\u7d93": 31773, "INTER": 23845, "\u2581sympt": 25828, "iesz": 11250, "\u2581maintain": 7344, "(-": 6278, "\u2581refuse": 26506, "ierno": 12643, "unknown": 26690, "\u0441\u044c\u043a\u0443": 25018, "\u2581baron": 25946, "ult\u00e9": 4921, "\u2581gem": 7055, "Drawable": 26945, "irt": 2728, "\u2581click": 2828, "\u2581Urban": 22589, "\u2581elem": 21268, "\u2581bottom": 5970, "\u2581EDIT": 11488, "\u2581tec": 13784, "\u2581Convert": 14806, "atabase": 3223, "\u043b\u0435\u043c\u0435\u043d": 25469, "\u2581definitely": 11630, "\u2581concaten": 16125, "\u2581ba": 9922, "\u2581screen": 4315, "\u2581Despu\u00e9s": 25080, "\u2581mutable": 26691, "\u2581demanded": 24432, "AF": 5098, "\u2581summar": 19138, "\u2581German": 5332, "\u2581estruct": 26530, "\u011bt": 9974, "toggle": 13270, "el": 295, "\u2581levels": 11174, "lig": 3473, "\u0449\u043e": 4851, "ifference": 17678, "nar": 24156, "Pod": 27345, "\u2581made": 1754, "\u2581Tras": 22632, "\u2581\u2026": 16088, "Miss": 18552, "SR": 14098, "\u2581klub": 14715, "\u2581orbit": 16980, "\u2581decrease": 23806, "\u2581hay": 14842, "jective": 25674, "ance": 749, "\u043d\u0430\u0440": 19619, "\u2581conversation": 14983, "f\u00e9r\u00e9s": 9035, "\u2581bata": 20133, "\u2581\u0438\u0441\u043f\u043e\u043b\u044c\u0437\u0443": 24160, "ibm": 29690, "\u2581poor": 6460, "sel": 2838, "\u2581sizeof": 13810, "\u2581\u00e1": 3976, "\u2581|": 891, "\u2581summary": 15837, "Start": 4763, "stellen": 27679, "Di": 12130, "\u2581\u043e\u043a\u0442\u044f\u0431\u0440\u044f": 16482, "LO": 3927, "\u8bf4": 31639, "\u2581conced": 27943, "\u0442\u0430\u043d": 7951, "Wh": 8809, "\u2581Kam": 12986, "HL": 15444, "gs\u00e5": 26711, "\u00e1z": 5058, "\u0431\u0440\u0430\u043d": 25567, "\u2581auxili": 29587, "\u1e6f": 31752, "\u2581By": 2648, "\u2581Quellen": 25573, "Produ": 23665, "\u0448\u0430": 4604, "\u2581How": 1128, ".).": 6250, "mathrm": 3141, "\u2581tutorial": 9673, "\u2581\")": 16521, ">\",": 28341, "\u2581properties": 4426, "\u2581geometric": 26224, "ARD": 17011, "\u2581Dol": 11201, "\u2581\u00c5rs": 26338, "\u00e1tum": 21900, "ov\u00e1": 7643, "QU": 13356, "\u7fa9": 31131, "\u2581Orts": 22007, "ensa": 14535, "\u2581recher": 17124, "deb": 16529, "\u2581dah": 20694, "\u2581#>": 20454, "\u2581ih": 4686, "\u043d\u0430\u043d": 11659, "\u2581level": 3233, "adt": 3590, "\u2581\u00cd": 27614, "\u2581jap": 10215, "\u2581largely": 18425, "undial": 12079, "\u2581Rect": 22914, "qq": 24349, "\u2581maja": 25116, "\u2581Gan": 28245, "\u2581soul": 10752, "\u2581\u0446\u0435\u0440\u043a\u043e\u0432": 25976, "\u0d2a": 30707, "alles": 26493, "\u2581importing": 28348, "\u00e8mes": 19503, "\u0652": 30741, "\u2581reck": 25527, "displaystyle": 15618, "month": 10874, "ispiel": 15229, "padding": 12791, "since": 16076, "\u2581eerste": 13710, "\u2581assigning": 23188, "rimin": 20386, "\u2581stri": 10076, "ellij": 20585, "ow\u0105": 20855, "\u2581nombre": 5419, "iteit": 22634, "\u2084": 30194, "\u2581dispos": 11549, "\u0432\u0456\u0434": 24317, "),": 511, "\u2581enero": 8529, "Submit": 16228, "\u2581terrest": 27386, "\u2581boxes": 16273, "\u2581####": 3191, "\u2581\",": 9162, "\u2581list": 1051, "zip": 7554, "\u2581=\\": 17313, "\u2581apps": 11446, "annel": 4143, "\u2581Office": 11367, "ocoa": 22531, "\u2581OCLC": 22610, "mals": 14685, "\u2581identify": 12439, "\u044c": 29978, "\u2581whisper": 21039, "\u2581definit": 8422, "\u2581pro": 410, "\u2581lev": 14453, "\u0446\u0438\u044e": 13603, "ningar": 21965, "\u045b": 30093, "modules": 7576, "raum": 19527, "\u2581solution": 1650, "\u2581mis": 3984, "\u2581partici": 21933, "\u2581curv": 27686, "\u2581\u0414\u0436": 10626, "\u2581reference": 3407, "\u2581aws": 25879, "\u2581author": 4148, "\u2581visual": 7604, "\u043b\u0438\u0439": 11048, "\u2581gdzie": 23104, "\u2581concerns": 21838, "\u00d6": 30094, "\u2581\u043f\u0440\u0438\u043d\u044f": 17867, "\u2581terre": 18249, "\u2581At": 2180, "\u2581(:": 13940, "\u2581\u0413\u0435\u043e\u0440": 24644, "\u1f14": 31341, "\u6cbb": 31032, "\u2581Bey": 18502, "Level": 10108, ",\u201d": 3995, "\u2581gev": 22407, "\u2581\u0447\u0435\u043b\u043e\u0432\u0435\u043a": 14347, "\u2581Sch\u00f6n": 28565, "\u00e9d": 2487, "*": 29930, "'),": 5477, "\u4ed8": 31689, "\u2581Nom": 20583, "\u2581iter": 4256, "Only": 11730, "Classes": 27403, "\u2581Edge": 21086, "logger": 21707, "Om": 5673, "Ser": 1748, "\u2581Trans": 4103, "\u2581begins": 16410, "\uc601": 31288, "izo": 11411, "rah": 19856, "likely": 21280, "notification": 24671, "\u043a\u043b\u0438": 24018, "NS": 3059, "reload": 28120, "orn": 1398, "medi": 4210, "IB": 8979, "rival": 15081, "\u2581Biography": 17093, "^{-\\": 17783, "\u2581\u043e\u0431\u0440\u0430\u0449\u0435\u043d\u0438\u044f": 24074, "\u2581scope": 6874, "\u2581gh": 24170, "\u2581entre": 2637, "athedral": 21471, "\u2581And": 1126, "arning": 5699, "\u2581Nash": 24848, "quet": 12621, "beit": 6205, "\u043c\u0435\u043d\u0442\u0430\u043b\u044c": 29810, "\u0442\u0438\u043d\u0430": 22033, "\u2581Regex": 25326, "\u0441\u0441": 8808, "\u2581scheme": 11380, "iques": 3783, "\u2581SO": 7791, "\u2581spl": 8536, "LES": 17101, "\u2581parc": 20067, "\u2581augusztus": 29079, "\u2581blob": 23755, "\u2581Say": 14891, "ouses": 23676, "ares": 5114, "\u0434\u044f": 5640, "\u2581sli": 20662, "triangle": 26701, "\u76f8": 30990, "Aff": 27867, "\u2581Res": 2538, "ission": 2333, "\u2581ik": 12380, "\u2581Five": 22853, "\u2581hop": 8171, "\u2581Elle": 6340, "urre": 20503, "CON": 6007, "\u2581\u044f\u043d\u0432\u0430": 13594, "\u2581race": 8175, "family": 11922, "\u2581sake": 16563, "f\u00f6r": 9255, "\u2581inclu": 13654, "\u2581mongodb": 23290, "hol": 5391, "\u2581virtual": 6901, "show": 4294, "\u0255": 30794, "\u2581radial": 28373, "\u0441\u0442\u043e\u044f": 6428, "\u2581desp": 8913, "\u2581po": 772, "\u2581Draw": 18492, "ostream": 18123, "\u2581FIFA": 21581, "ipes": 29488, "\u2581\u043b\u0443\u0447": 23321, "},{": 29087, "\u2581indu": 9013, "lyn": 13493, "Enabled": 10861, "Video": 15167, "\u2581DESC": 23050, "assoc": 21011, "heit": 6884, "continue": 19878, "\u276f": 31840, "Datos": 6086, "\u2581\u043f\u0443\u043d\u043a\u0442": 27655, "rian": 6392, "compute": 26017, "\u2581involving": 21677, "\u2581Break": 28301, "Dir": 9170, "\u2581javax": 11317, "\u2581accom": 7954, "\u2581sharp": 15301, "\u2581sugar": 26438, "\u2581blue": 7254, "\u2581conven": 9973, "Mr": 20335, "limat": 23442, "\u2581\\[\\": 18024, "\u00fd": 30052, "\u2581waiting": 10534, "uerdo": 25768, "\u2581alcuni": 19344, "\u2581induced": 20974, "\u2581Pala": 27000, "\u2581rei": 27409, "\u201c.": 9533, "Un": 2525, "\u0448\u043b\u043e": 26866, "\u2581sist": 7852, "\u6bd4": 31419, "\u2581-": 448, "\u0142od": 25073, "\u0441\u0442\u0438\u0442\u0443": 10010, "`'": 20497, "aut": 1300, "\u2581\u0433\u0435": 10342, "\u2581xmlns": 9463, "\u2581vl": 14204, "\u2581invest": 13258, "\u2581'-": 17411, "\u2581sulle": 28734, "\u2581signific": 4991, "\u2581referencing": 29371, "sqrt": 3676, "\u2581Montreal": 26693, "ITE": 9094, "\u4efb": 31450, "\u2581Reference": 12105, ".\u2019": 16412, "\u0940": 30580, "\u2581\u043e\u0441\u0442\u0430": 14072, "\u2581Fab": 10629, "<0x61>": 100, "\u2581employee": 19001, "\u043e\u043d\u0435": 16214, "\u2581Wang": 23856, "\u2581page": 1813, "\u2581Text": 3992, "iale": 4379, "\u2581loan": 24806, "ick\u00fd": 21358, "ei": 10096, "Car": 8179, "\u2581rarely": 23703, "<0x12>": 21, "\u2581Ass": 4007, "\u2581Enlaces": 8867, "\u2581\u0441": 531, "count": 2798, "uela": 9992, "\u2581Mik": 13803, "\u2581\u043d\u0430\u0445\u043e\u0434\u0438\u0442\u0441\u044f": 21259, "\u2581intercept": 23404, "rel": 2674, "men": 1527, "ya": 3761, "\u2581\u0441\u0435\u043b\u044c": 11823, "\u2581False": 7700, "\u2581comuna": 22087, "\u2581Italia": 12201, "ippi": 22425, "\u2581Detroit": 25749, "\u2581Ang": 3218, "\u045a\u0430": 10473, "dist": 5721, "\u2581establish": 10127, "n\u0119": 13256, "\u2581Rey": 27147, "\u2079": 30720, "\u10d7": 30838, "ellett": 25939, "\u2581een": 1739, "bot": 7451, "Length": 6513, "\u043e\u0440": 1419, "\u2581mines": 29086, "\u2581ts": 18696, "\u2581p\u0159ek": 29681, "kit": 7354, "Mapper": 19968, "\u2581\u043d\u0430\u0438": 25015, "Brush": 27680, "\u2581Top": 7488, "Created": 20399, "\u0bae": 30930, "wt": 14554, "\u2581watch": 6505, "\u2581Active": 10731, "visibility": 28814, "\u2581dont": 4555, "\u2581\u0440\u0443\u0441": 14251, "i\u0107": 13643, "\u2581Club": 5977, "\u2581[]": 5159, "embed": 17987, "\u30c0": 30617, "\u2581organization": 13013, "Layout": 3453, "\u2581SQL": 3758, "#{": 26660, "AI": 23869, "\u2581Fil": 2514, "\u2581Gaussian": 22477, "rov": 10139, "\u2581Screen": 22666, "lr": 29212, "\u2581cab": 7776, "\u2581revert": 29538, "\u30e2": 30761, "ideos": 7958, "\u573a": 31632, "\u2581administ": 28777, "\u2581World": 2787, "\u0448\u043b\u0435\u043d": 28112, "zahl": 17301, "\u2581ren": 4325, "\u2581otros": 11929, "\";": 1769, "\u2581dimension": 9927, "flush": 23126, "ikor": 29852, "ing": 292, "CT": 1783, "*\\": 17710, "\u2581centro": 13632, "\u2581Censo": 23873, "zyk": 20973, "\u2581apple": 26163, "\u03cd": 30308, "abel": 1107, "\u2581viv": 9364, "urale": 27730, "\u5eb7": 31577, "\u2581\u043d\u0430\u0437\u0432\u0430": 10830, "\u2581opposed": 15869, "\u2581Dienst": 24045, "\u2581GND": 10453, "\u2581filters": 18094, "xtart": 25248, "\u2581\u0447\u0435\u043c": 8049, "could": 26680, "\u2581Inf": 9969, "aka": 8245, "\uad6d": 31293, "\u8bd5": 31787, "^{\\": 3311, "My": 3421, "ustration": 11036, "\u2581pol\u00edtico": 24934, "lished": 3726, "\u2581\u0434\u043e\u0432": 26313, "until": 29305, "\u2581aligned": 26118, "range": 3881, "\u2581\"[": 14704, "\u2581Base": 7399, "\u2581Rugby": 22647, "j\u00e1k": 28843, "Har": 21972, "\u2581Everything": 17296, "Invoke": 20731, "\u2581Air": 5593, "agog": 13247, "\u2581seulement": 23422, "kar": 5689, "obil": 12213, "piel": 6384, "\u2581jako": 5950, "\u2581successful": 9150, "\u2581alignment": 22239, "\u0435": 29919, "orient": 12236, "expr": 13338, "\u2581db": 4833, "\u2581ferm": 16895, "\u2581series": 3652, "\u0435\u0440\u0443": 19241, "\u2581Mai": 6868, "\u2581Rest": 11654, "\u0d1f": 30797, "\u00e7\u00e3o": 2340, "\u2581Flor": 6953, "\u2581tomcat": 29432, "\u2581AB": 17571, "\u2581simpler": 13682, "factor": 19790, "\u2581derive": 21340, "\u2581threatened": 29513, "\u2581heart": 5192, "\u2581agreement": 17327, "apply": 7302, "\u2581Should": 10575, "yll": 15114, "\u00edp": 28304, "\u2581evaluated": 19030, "\u5c40": 31655, "\u2581vict": 6879, "{-": 8499, "ospod": 23245, "\u2581Chinese": 10013, "als": 1338, "\u2581Vie": 21769, "tests": 21150, "\u2581Sept": 28742, "\u2581Specifically": 26321, "DateFormat": 29795, "\u2581column": 1897, "Mock": 18680, "\u2581impl": 13374, "\u2581environ": 12471, "isted": 12652, "\uc0ac": 30791, "\u2581Jord": 13783, "\u2581ucc": 25859, "\u2581expr": 22010, "BF": 28062, "iop": 21260, "\u2581\u043f\u0440\u043e\u0432\u0435": 23590, "oir": 6390, "ht": 400, "Mem": 11442, "\u2581nella": 4952, "reland": 11209, "\u2581Product": 10969, "\u2581equivalence": 24796, "\u2581Gand": 28572, "Emp": 10495, "\u2581ny": 7098, "\u2581hos": 25506, "sty": 22062, "\u2581\u0422": 1703, "z\u0105": 6429, "\u2581regards": 21778, "\u2581Muhammad": 29610, "\u2581Filter": 19916, "Scroll": 10463, "ensoort": 26006, "\u0442\u0435\u0445": 29193, "\u2581Prz": 12900, "sk\u00fdch": 24491, "\u2581Californ": 7599, "\u2581Ho": 8335, "\u0442\u043e\u043d": 13983, "\u2581avaient": 23997, "en\u00e7": 26686, "\u2581gew": 5247, "\u2581goog": 27304, "\u2581oldest": 23947, "medium": 27891, "\u2581marks": 17997, "Input": 4290, "\u2581write": 2436, "\u00e1c": 25968, "\u2581neither": 9561, "\u0153": 30106, "ContentView": 21788, "\u00f4": 30069, "\u2581representation": 8954, "\u00fcnstler": 17312, "\u00e9b": 10126, "\u2581magn": 9119, "\u2581rent": 23990, "\u2581Orig": 29766, "\uc5ec": 31457, "\u043d\u043e\u0432\u0430": 8240, "pta": 28363, "astr": 7614, "licates": 15815, "\u2581normally": 12891, "NOT": 12256, "\u2581Thompson": 22348, "\u2581ss": 17971, "\u05b5": 31065, "<0x62>": 101, "Arch": 13197, "Expr": 21176, "\u2581sav": 4048, "\u2581techni": 7304, "\u2581Sak": 19736, "\u2581.=": 16295, "\u2581Milan": 20308, "\u2581Um": 6379, "leg": 1397, "\u2581aurait": 26030, "heimer": 27400, "cond": 1116, "\u2581carrera": 22750, "\u2581prince": 15927, "\u2581beautiful": 9560, "\u2581much": 1568, "\u2581matching": 9686, ")];": 27077, "DM": 23560, "\u2581Afghan": 27135, "rows": 5727, "\u2581intellectual": 29762, "\u2581wy": 5018, "ivari": 27432, "lein": 24434, "leted": 22742, "st\u00fct": 20617, "\u2581c\u00f3digo": 20280, "\u00e8que": 5949, "\u2581regex": 6528, ").": 467, "\u043c\u0456\u043d\u0456": 21124, "\u2581\u0410": 1291, "\u2581religious": 12962, "\u2581Colomb": 15253, "\u2581proprio": 22278, "=[": 11759, "\u2581communicate": 23120, "\u2581generation": 12623, "\u2581k\u00e9": 28357, "erme": 10877, "\u2581scientific": 16021, "\u2581cuales": 28276, "Argument": 15730, "?'": 17901, "/-": 24028, "wort": 17572, "atile": 24285, "\u8fd0": 31894, "\u2581listener": 13254, "overline": 6875, "\u2581An": 530, "ruit": 9216, ">`": 13885, "\u2581Monte": 11240, "Angle": 19582, "\u043a\u0440\u043e": 25041, "\u017adz": 22755, "usztus": 28294, "\u016d": 30520, "\u2581reconna": 25238, "\u2581\u0441\u0443\u0449\u0435": 19391, "\u1fc6": 30891, "\u2581smart": 15040, "\u2581basket": 25972, "\u2581kwam": 22380, "\u043e\u0433\u043e": 5180, "kih": 22293, "iffer": 8349, "\u2581dus": 28226, "\u6362": 31640, "bed": 2580, "onic": 8927, "gele": 28253, "\u2581\u043f\u043e\u0434\u0430\u0446\u0438\u043c\u0430": 24401, "\u2581Tit": 11810, "\u2581Em": 2812, "\u2581Game": 8448, "\u2581doubles": 27641, "\u2581vous": 7890, "\u2581clock": 12006, "\u2581cit": 7537, "aci": 18703, "\u2581orient": 7769, "```": 28956, "\u2581\u0444\u0443\u043d\u043a": 20153, "\u2581stage": 7408, "\u2581warning": 9177, "<0xA0>": 163, "\u2581our": 1749, "ABLE": 6181, "ounce": 21543, "\u2581pleased": 22301, "\u2581\u00e1ll": 13575, "ficos": 26395, "Namespace": 23335, "atom": 8678, "\u2581FM": 20499, "\u2581\u0447\u0442\u043e\u0431\u044b": 18421, "edu": 6085, "\u7531": 31272, "Famil": 22555, "\u0441\u0438\u043d\u0438": 20091, "using": 4746, "security": 8926, "\u2581documented": 23531, "\u028b": 31470, "original": 13492, "inar": 18220, "\u2581sculpt": 17039, "URN": 24015, "version": 3259, "arily": 6275, "\u2581\u044f\u043a\u0430": 24805, "\u2581Board": 12590, "\u2581earlier": 8859, "rero": 8567, "\u2581\u0443\u043d\u0438\u0432\u0435\u0440\u0441\u0438\u0442\u0435": 15545, "wi": 4353, "\u2581Beispiel": 22621, "Station": 22814, "pod": 15334, "egung": 28345, "meno": 28136, "mot": 14817, "\u2581funkc": 25357, "\u2581\u0442\u0435\u043e": 25728, "ribuci\u00f3n": 24903, "\u2581gra": 2646, "Stop": 16329, "emu": 24425, "ipart": 27494, "\u2581\u043d\u0430\u043f": 27952, "intendo": 28481, "nement": 17239, "HERE": 5006, "\u2581premier": 7017, "Objects": 12724, "aled": 7943, "\u2581audience": 20026, "\u2581\u043e\u043d": 6524, "\u2581TABLE": 10911, "\u2581Lors": 19551, "\u2085": 30231, "\u2581Festival": 8518, "iday": 22394, "\u7a0b": 31101, "\u2581ner": 26033, "\u0432\u0430\u044f": 17423, "\u2581nov": 2420, "even": 11884, "Overflow": 23773, "attr": 5552, "jk": 25467, "\u2581Gem": 15170, "\u2581invol": 5297, "\u2581isn": 3508, "\u2581\u0430\u043f\u0440\u0435\u043b\u044f": 16550, "\u043e\u043d\u043e\u0432": 26119, "\u2581fil": 977, "\u10d4": 30355, "\u2581Anal": 11597, "\u2581gallery": 23363, "\u6837": 31819, "\u2581mem": 2626, "umb": 3774, "\u2581agreed": 15502, "isi\u00f3n": 11861, "cken": 8916, "\u2581sam": 3514, "\u2581eigenvalues": 25973, "\u2581}}": 9156, "\u2581Bed": 14195, "\u2581voy": 12278, "Sum": 11139, "\u2581Jonathan": 20983, "ople": 1991, "\u2581bird": 11199, "\u043d\u043e\u043a": 13738, "\u0445\u043e\u0434": 11011, "\u2581Most": 7849, "Receiver": 22068, "while": 8000, "\u2581Ret": 4649, "\u2581\u0440\u0430\u0437\u0432\u0438": 15525, "<0x71>": 116, "\u2581eines": 7265, "ipped": 16242, "},\\": 7570, "_,": 3383, "\u2581bash": 10891, "De": 2772, "\u2581funcion": 21802, "\u2581\u043e\u0431\u0440\u0430": 9111, "\u017d": 30144, "callback": 14035, "\u2581datasets": 20035, "\u2581literally": 22830, "\u2581fellow": 10404, "\u00e4ger": 19586, "ToList": 21254, "\u2581poem": 26576, "\u2581Apol": 28017, "ziale": 28351, "\u0d28": 30438, "amp": 1160, "\u2581comma": 16694, "\u2581Engine": 10863, "\u2581Handle": 29273, "roz": 16997, "\u2581Gate": 22510, "\u2581Norm": 5655, "\u2581eight": 9475, "ibus": 19699, "nehmer": 23450, "\u2581estudio": 29039, "\u2581longer": 5520, "lipse": 5843, "-%": 19222, "\u057a": 31790, "\u2581suff": 9378, "aja": 9919, "ye": 4099, "dated": 9715, "LOC": 16652, "dating": 26747, "\u2581call": 1246, "BOOL": 28443, "amy": 25934, "\u2581regime": 22384, "resol": 9778, "BL": 13367, "\u2581une": 1597, "\u2581pir": 21625, "\u2581CI": 25781, "\u2581came": 2996, "\u0430\u043d\u0434": 8070, "\u2581pul": 9505, "\u2581Brun": 17116, "<0xDC>": 223, "\u2581arch": 3190, "\u2581wur": 1637, "comot": 23045, "\u2581centre": 8442, "z\u00e9s": 18314, "\u2581LaTeX": 29186, "\u2581Senate": 18148, "icano": 13231, "usqu": 8555, "\u043e\u0432\u0438": 1928, "\u2581\u0439\u043e\u0433\u043e": 11748, "\u2581ou": 2123, "\u0218": 30233, "vim": 26770, "eti": 16577, "\u2581ipsum": 23421, "\u2581cuando": 10284, "\u2581Str": 3767, "\u2581l\u00e9g": 10918, "\u2581filtered": 22289, "\u2581Segunda": 24153, "\u00e1ly": 7837, "\u2581irre": 19950, "\u2581abort": 27450, "nej": 6197, "\u00e7u": 24359, "\u2581Asian": 20021, "\u2581Share": 26849, "boards": 24691, "\u2581militar": 15222, "\u2581wereld": 28022, "ugins": 8385, "ismiss": 28303, "yter": 25547, "\u2581Ca": 9243, "icos": 4869, "CTION": 9838, "kreich": 20870, "\u2581\u0431\u044b\u043b\u0438": 8436, "\u2581\u0427\u0435\u043c": 23214, "Directory": 9882, "\u2581\u0441\u043e\u0432\u0440\u0435\u043c\u0435\u043d": 23528, "ici\u00f3": 14290, "\u2581adding": 4417, "Changed": 7590, "ouwd": 26888, "\u2581et": 634, "default": 4381, "\u00e1ndez": 19610, "\u6309": 31590, "ci\u00f3n": 1290, "\u0572": 31443, "creen": 5576, "terre": 21717, "ici\u00f3n": 6396, "\u2581B": 350, "\u2581\u0433\u0434\u0435": 11270, "servlet": 12144, "\u2581Au\u00df": 17257, "instance": 8758, "\u2581schon": 15002, "ems": 1567, "\u2581hold": 4808, "\u2581pt": 19592, "eus": 21477, "laravel": 29787, "witz": 25709, "\u2581Empire": 13378, "SON": 3094, "\u2581Final": 9550, ";`": 10367, "\u2581princip": 3420, "\u2581estar": 23673, "\u2581gr\u00fcnd": 27921, "\u2581\u043c\u043e\u0436": 13333, "weet": 16668, "\u0280": 31167, "\u2581adopted": 16356, "arono": 14408, "\u2581C\u00e9s": 27627, "\u2581Success": 21397, "\u2581Pascal": 29671, "\u305a": 31761, "signed": 7433, "\u2581trying": 1811, "\u2581Gra": 4989, "var": 1707, "Cert": 20455, "nica": 8902, "\u2581Thanks": 1834, ");`": 12771, "\u2581indexPath": 28247, "\u2581tout": 5646, "\u2581vitt": 19761, "\u2581impossible": 9301, "\u2581Seattle": 27689, "\u80fd": 30815, "\u00edn": 3642, "\u30c9": 30335, "\u1e25": 30327, "\u2581north": 6641, "j\u00f6r": 24900, "ult": 499, "ol": 324, "\u2581mult": 1773, "ignore": 17281, "\u2581longest": 27217, "\u2581\u0432\u044b\u0441\u043e": 15804, "\u8336": 31954, "\u2581\u0437\u0435": 24263, "P": 29925, "\u2581sessions": 21396, "\u2581Berg": 9827, "\u2581ASP": 12738, "\u2581sh": 528, "\u2581fraction": 15958, ">=": 18572, "arc": 5666, "\uc655": 31996, "\u2581cela": 18729, "ics": 1199, "\u2581angle": 10696, "\u2581differences": 12651, "yo": 9029, "\u2581Cin": 11972, "scop": 21785, "\u0434\u043e\u043c": 8418, "rup": 17827, "\u5468": 31109, "\u2581semantic": 28837, "\u2581Square": 19256, "\u2581Mrs": 6285, "bridge": 18419, "\u043e\u0441": 3264, "():": 7295, "\u2581\u0431\u0456\u043b\u044c": 19115, "\u043a\u0442\u043e\u0440": 8331, "\u2581practices": 23274, "\u2581Argent": 9385, "\u2581instruments": 23643, "\u2581affili": 23736, "\u2581\u0432\u0440\u0435\u043c\u0435": 26958, "\u2581GC": 19983, "\u2581grant": 16690, "\u2581trains": 22983, "\u2581mongo": 19476, "}_": 2403, "\u2581THEN": 8183, "\u2581ul": 9238, "\u2581links": 2988, "\u2581Rum": 20852, "\u2581Geb\u00e4ude": 22912, "underline": 15614, "rep": 3445, "\u2581electrons": 27149, "tok": 17082, "\u2581Mouse": 25992, "ently": 2705, "\u2581placing": 24421, "<0x04>": 7, "\u2581Praha": 25689, "\u2581frames": 16608, "\u2581Janu": 3612, "\u2581roy": 20258, "\u2581pocket": 24589, "\u2581Patrick": 14875, "ining": 2827, "lean": 14044, "dra": 19811, "\u2581unix": 28167, "\u2581ave": 8992, "??": 8773, "bucket": 21454, "\u2581hath": 23870, "\u2581\u043c\u0435\u0436\u0434\u0443\u043d\u0430\u0440\u043e\u0434": 25075, "\u2581solar": 21635, "\u2581remarked": 25211, "\u043b\u0456\u0457": 27376, "\u2581element": 1543, "Fre": 23923, "\u2581Seg": 6667, "\u2581Heb": 18472, "Old": 21648, "unction": 651, "augh": 6334, "\u2581personal": 7333, "\u2581determ": 3683, "\u2581provincie": 28053, "closed": 15603, "\u2581engineering": 21639, "Range": 6069, "\u2581Napoleon": 24265, "XX": 6247, "ars": 1503, "bal": 5521, "\u2581cultura": 22124, "\u2581Prem": 6097, "\u2581binnen": 29805, "\u0447\u0438\u043b": 20124, "nehmen": 14026, "u\u017e": 25555, "lad": 4528, "texte": 29149, "\u041f\u043e": 20093, "\u0433\u043b\u0435": 20906, "\u0441\u0442\u0432\u0435\u043d\u043d\u043e\u0439": 15138, "\u2581templates": 17475, "\u2581\u0426\u0435\u043d\u0442": 20150, "\u2581covered": 10664, "\u2581least": 3203, "\u0437\u043d\u044f": 17050, "\u0159ed": 17673, "\u2581Lima": 27832, "asset": 24129, "\u2581kon": 4139, "boa": 28954, "\u2581produ": 1391, "\u2581var": 722, "\u2581Beck": 19573, "\u2581sid": 25349, "\u2581Ice": 26998, "Person": 7435, "\u043f\u0443\u0442\u0430": 21961, "\u2581motiv": 17385, "\u2581jam": 14322, "\u2581Kra": 19387, "\u2581\u0420\u043e\u0431": 29398, "ket": 7873, "_\\": 3187, "\u2581\u043f\u043e\u043a\u0430\u0437\u0430": 25511, "ances": 2925, "\u2581apply": 3394, "\u2581wc": 28678, "interno": 27160, "\u2581\u044d\u043a\u0441": 21584, "\u2581Fran\u00e7ois": 13645, "\u2581next": 2446, "\u2581probability": 6976, "\u5df4": 31885, "\u2581ann\u00e9es": 8595, "\u2581Source": 7562, "\u00e2ce": 20032, "Children": 19334, "dri": 24477, "\u2581fasc": 21028, "\u2581splitting": 24368, "\u0436\u0434\u0451\u043d": 28290, "Dispatcher": 23669, "\u2581Picture": 28908, "\u2581annotation": 17195, "\u2581\u0421\u0432\u044f": 20292, "\u2581or": 470, "circ": 6034, "\u2581erstmals": 20090, "uk": 2679, "\u2581Pav": 20096, "\u2581sale": 14686, "\u2581connect": 4511, "multirow": 28570, "<0xC1>": 196, "\u2581Fischer": 23808, "\u2581\u0441\u043a\u043e": 18924, "\u2581Ly": 8626, "\u251c\u2500\u2500": 28427, "\u2009": 30080, "Url": 5983, "\u2581roof": 17526, "aszt": 19812, "pas": 18182, "ROM": 3491, "\u2581\u043c\u044f": 27693, "\u2581traverse": 29370, "although": 26492, "agini": 11342, "xi": 5389, "shop": 19032, "napshot": 14551, "hmen": 28822, "\u2581pygame": 22028, "beeld": 26366, "history": 18434, "obs": 26290, "\u2581reading": 5183, "plays": 12922, "\u2581ett": 8248, "\u2581labor": 10212, "\u2581traditional": 13807, "Detail": 16570, "\u2581Jul": 2739, "\u2581wojew\u00f3dzt": 25509, "\u2223": 31465, "cian": 28445, "\u2581dire": 2970, "\u2581appeal": 25530, "respond": 3636, "isz": 16399, "\u2581Offiz": 25045, "\u2581prisoner": 27314, "emet": 21056, "ande": 4182, "\u2581hill": 17306, "\u2581som": 1047, "<0x42>": 69, "\u0436\u0456": 29617, "LEFT": 28024, "\u2581diesen": 12155, "\u00edc\u00ed": 12851, "\u2581resto": 25814, "\u2581Silver": 16466, "\u0447\u0435\u0441\u043a\u043e\u0433\u043e": 17683, "\u0102": 31468, "\u2581affect": 6602, "osci": 23039, "\u2581situations": 18845, "gemeinde": 25474, "\u2581moral": 14731, "\u2581tradicional": 27200, "\u679c": 30801, "\u0440\u0435\u043b\u0430": 19893, "\u2581\u0442\u0435\u0445": 11425, "\u21d2": 30381, "\u2581Mor": 3879, "\u2581fresh": 10849, "The": 1576, "\u00fdm": 10280, "\u0109": 31431, "\u2581finite": 8093, "\u0106": 30479, "\u2581\u0442\u0438\u0442\u0443": 27125, "elij": 3875, "\u2581Ka": 13680, "\u2581Review": 13957, "\u2219": 31492, "\u2581choose": 6755, "\u2581hardware": 12837, "\u2581painted": 23139, "\u2581Sales": 28389, "\u043d\u0438\u043c\u0438": 9822, "\u2581r\u00e8g": 27264, "\u2581Lew": 11906, "\u0391": 30292, "\u2581narr": 15474, "\u2010": 30304, "\u2581When": 1932, "\u2581Insel": 22106, "Men": 28154, "bah": 28758, "LS": 8547, "\u1f18": 31769, "\u2581High": 5057, "\u2581good": 1781, "\u2581roi": 14100, "\u2581TV": 5648, "\u2581(\"": 4852, "\u2581PS": 11323, "\u2581eat": 17545, "\u2205": 31118, "\u2299": 30738, "\u2581keeps": 14874, "\u2581http": 1732, "zione": 4246, "\u2581Jung": 20260, "Da": 27838, "altern": 26123, "\u5904": 31548, "\u2581fase": 20851, "\u2581inaugur": 21865, "cel": 2242, "\u2581patch": 13261, "hover": 13194, "\u2581clust": 16993, "\u2581IN": 2672, "\u2581tur": 7013, "\u2581\u0434\u043e": 1447, "\u2581Tem": 6789, "andenburg": 24096, "\u2581mask": 11105, "Zone": 18482, "ari": 1306, "\u2581\u0432\u043e\u043b\u043e": 19186, "\u5fc3": 30869, "football": 20012, "\u2581U": 501, "\u2581Name": 4408, "Timer": 14745, "\u2581valid": 2854, "\u2581tr\u00e8s": 9577, "orer": 9386, "\u2581minister": 11050, "owi": 13447, "rt": 2273, "cu": 4979, "game": 11802, "\u0432\u0438\u0430": 21252, "gebiet": 13063, "\u2581expla": 3641, "iembre": 5433, "processing": 19170, "PL": 7390, "Helper": 10739, "WriteLine": 11241, "\u2581Seq": 25981, "\u25a0": 30725, "!--": 6172, "<0x06>": 9, "erving": 29530, "\u2581Federal": 14879, "\u0432\u0430\u0436\u0430": 29388, "\u2581statistical": 24148, "\u2581cham": 11179, "\u2581tower": 19372, "\u3055": 30566, "\u00f4le": 12161, "enci": 13640, "\u2581forget": 9566, "ewn\u0119": 14545, "\u2581przed": 13952, "jos": 14736, "\u2581DNA": 25348, "\u2581Larry": 26977, "\u2581indul": 29156, "\u00eancias": 9339, "\u2581\u041c\u0438\u0445\u0430": 13277, "\u2581Award": 7526, "con": 535, ")--(": 25062, "\u2581r\u00e9s": 6896, "emo": 15810, "\u2581Schweizer": 20320, "\u2581hills": 22696, "\u2581monitor": 11819, "\u2581\u00e5rsnederb\u00f6rd": 28649, "\u2581singles": 22102, "\u2581register": 6036, "ituto": 21059, "DA": 7698, "\u2581ste": 1886, "\u751f": 30486, "ham": 3391, "\u2581collabor": 11465, "\u8a18": 31049, "MD": 5773, "\u2581Kore": 11354, "\u2581Bundes": 8457, "green": 12692, "\u2581recognized": 14831, "\u2581artificial": 23116, "\u2581ordered": 10372, "\u2581M\u00e4r": 6855, "\u2581amongst": 22611, "\u2581receive": 7150, "\u2581Mary": 6182, "payload": 23813, "\u2581Pan": 6518, "\u2581gig": 19340, "\u2581Maine": 26160, "\u2581eclipse": 16517, "\u2581Mira": 29422, "fix": 5878, "\u2581notes": 11486, "parts": 20895, "supported": 23765, "\u2581successfully": 8472, "\u2581Die": 1640, "\u2581Per\u00fa": 28686, "\u2581editing": 16278, "ulas": 15173, "ouwen": 21630, "\u0430\u0440": 1515, "\u2581\u0421\u041f": 26551, "\u2581pounds": 24261, "epen": 28106, "\u59cb": 31020, "ali": 2606, "\u2581bat": 17152, "\u2581Probably": 21606, "\u0435\u043d\u0435": 5755, "\u2581({": 21313, "owano": 25024, "\u2581Genomsnitt": 28623, "icians": 14722, "\u2581understood": 11098, "\u2581Glad": 19319, "\u2581districts": 24172, "\u5854": 31831, "master": 6207, "\u2581chez": 14255, "\u2581lux": 21684, "\\,\\": 15013, "\u2581IOException": 24490, "Redirect": 24735, "\u2581permission": 10751, "stable": 13844, "CCESS": 26925, "ead": 1479, "tt": 698, "ui": 1481, "\u043d\u0438\u043c\u0430": 7949, "\u2581aproxim": 22422, "\u2581Insert": 24505, "nam": 8588, "\u2581trans": 1301, "\u00e0": 30001, "sub": 1491, "\u0d31": 30976, "\u2581express": 4653, "\u2581vs": 7186, "\u2581animal": 13019, "en\u00ed": 10639, "ThreadPool": 23574, "Call": 5594, "\u2581Cow": 21638, "\u957f": 31143, "\u00e1ja": 22748, "\u2581studies": 11898, "\u2581Low": 17511, "\u092e": 30485, "\u0444\u043e": 20079, "\u2581interested": 8852, "context": 4703, "\u2581rhs": 29365, "\uad70": 31699, "\u0531": 31011, "\u2581am\u00e9ricain": 17153, "\u2581\u043f\u0440\u043e\u0432\u043e\u0434\u0438": 26386, "\u2581\u0438\u043d\u0444\u043e\u0440\u043c\u0430": 25565, "\u2581ersten": 9372, "L": 29931, "\u2581specification": 21992, "dn": 5200, "\u2581system": 1788, "\u2581reload": 19763, "\u2581travel": 9850, "\u2581mij": 25262, "ario": 2628, "{:": 25641, "\u2581quando": 9836, "\u2581cher": 14954, "alpha": 2312, "\u00fcss": 10673, "\u2581\u043e\u0431\u043b\u0430\u0441\u0442\u0456": 19082, "aping": 21430, "\u2581Mark": 4485, "\u2581projects": 9279, "temperaturen": 16013, "\u2581sug": 29746, "pton": 12533, "\u0bcd": 30380, "\u2581\u0441\u043b\u0435": 10535, "\u2581tract": 22330, "\u2581awful": 28893, "\u2581\u0441\u0438\u0441\u0442\u0435\u043c\u0430": 29184, "\u043d\u043e\u0441\u0442\u0438": 5395, "\u00e4g": 16803, "\u2581literary": 22937, "\u2581Krist": 17773, "como": 23700, "ivamente": 11778, "\u2581commands": 8260, "\u2581politico": 24117, "\u2581prz": 5629, "near": 28502, "Body": 8434, "\u2581pod": 2532, "\u2581subst": 5960, "/\"": 12975, "\u2581Wikip": 13886, "\u2581Knight": 22980, "\u2581kter\u00e1": 25297, "\u2581eing": 6867, "\u2581troisi\u00e8me": 22448, "task": 7662, ")$$": 17085, "rios": 13095, "resize": 21476, "\u2581UEFA": 18633, "\u2581poste": 23277, "lant": 27493, "rypt": 4641, "algorithm": 20567, "WebView": 23237, "\u0448\u0456": 14306, "\u2581cient\u00ed": 23496, "\u2581Serv": 9635, "\u2581correction": 26385, "={\\": 21854, "amin": 9103, "\u2581acquired": 16692, "Foundation": 28077, "\u2581except": 5174, "\u6bcf": 31951, "aturen": 14101, "\u2581\u0430\u0431\u043e": 15672, "\u2581variables": 3651, "\u2581striking": 29191, "\u2206": 31576, "\u2581przeci": 29572, "owym": 15105, "\u2581%.": 18695, "\u2581Atlantic": 19948, "ples": 2701, "\u2581flight": 16286, "\u2581EF": 22286, "\u2581domestic": 21849, "\u00fatbol": 19498, "\u2581blocks": 10930, "oth\u00e8que": 6539, "ActivityThread": 15746, "DEX": 19577, "folge": 22997, "\u2581corners": 26995, "\u0447\u0451\u0442": 28651, "\\;": 23891, "ags": 810, "\u2581eff": 1801, "\u2581asp": 7051, "\u2581coordinate": 14821, "\u0441\u0442\u043e\u043c": 23298, ">)": 12948, "\u8c03": 31268, "\u043c\u0430\u0440": 20784, "Hash": 10438, "\u2581symbol": 5829, "menu": 6510, "})$": 8435, "aties": 29375, "quent": 16011, "mv": 29324, "Stage": 27276, "\u2581telep": 18846, "GridView": 16584, "\u2581Victoria": 14212, "\",": 613, "\u2581prefix": 10944, "\u5b57": 30578, "\u2581Doug": 13215, "\u0432\u0435\u0434\u0435": 12055, "den": 1145, "ONE": 12413, "\u2581Within": 23732, "\u2581accident": 11423, "\u2581happ": 2250, "\u00e1t": 2682, "mx": 16838, "\u2581observable": 25209, "\u2581Zh": 27134, "\u2581\u043c\u0438": 4157, "(\".": 17350, "\u2581town": 4726, "configure": 17591, "Condition": 25255, "PropertyChanged": 29109, "\u2581ocean": 23474, "\u2581\u0432\u0456": 8390, "Builder": 5627, "\u2581f\u00f6rst": 18073, "\u2581Fine": 28896, "\u2581tod": 7379, "\u2581\u044d\u0442\u043e\u0439": 24643, "\u0441\u0442\u0432\u0435\u043d\u043d\u044b\u0445": 26090, "\u2581incred": 29811, ")\\)": 27779, "\u0437\u0435": 4791, "ode": 356, "\u2581\u0412\u0435": 7296, "\u2581switched": 26263, "\u2581\u0431\u043e": 3419, "\u2581Gu": 2088, "ending": 2548, "\u2581zweite": 27454, "\u2581Gh": 13491, "aussian": 17019, "\u2581desktop": 14616, "\u2581cm": 7477, "\u2581Component": 15924, "CAA": 22701, "}}^": 24251, "\u2581Minister": 7668, "\u2581Nu": 12487, "\u2581fille": 18003, "\u2581Define": 22402, "\u1f51": 31544, "\u2581Phone": 24323, "heure": 28661, "UK": 19960, "acters": 21706, "za": 1362, "\u2581Milit": 11544, "ingly": 11687, "ifica": 15039, "\u2581passing": 6819, "\u2581Bar": 2261, "ounds": 3885, "\u2581steady": 27357, "\u2581cy": 5094, "ialog": 3658, "\u5224": 31791, "\u0447\u0435\u0441\u043a\u043e\u0439": 16576, "in": 262, "bres": 16105, "\u2581\u044d\u0442\u0438": 17610, "\u2581obsc": 19726, "ington": 4885, "eless": 6393, "\u2581alguns": 25633, "Mess": 19058, "iben": 24068, "\u2581\u0442\u0430\u043c": 29112, "\u2581Forum": 29474, "etc": 7070, "\u2581A": 319, "\u2581According": 7579, "\u2581\u043f\u043e\u043b\u0438\u0442\u0438\u0447\u0435": 25061, "\u2015": 30217, "egu": 24024, "\u2581ideas": 7014, "\u2581Zo": 17421, "\u0431\u043b\u0456": 20682, "\u2581R\u00e9publique": 21919, "\u2581deploy": 7246, "\u2581kter\u00fd": 18625, "\u2581probabil": 23950, "\u2588": 30208, "ering": 3241, "\u2581studi": 22271, "\u2581lon": 23123, "\ub098": 31207, "ITION": 22122, "\u2581rela": 10208, "ov\u00e9": 13169, "\u2581Alexand": 13878, "\u2581position": 2602, "itations": 24182, "\u2581Universit\u00e4t": 12855, "Pages": 27514, "Attributes": 15801, "ingham": 16094, "\u02be": 30679, "();`": 22891, ".[": 7226, "\u2581civile": 29338, "\u2581works": 1736, "\u0432\u0430\u043b": 18289, "}).": 7690, "INCT": 28852, "\u2581\u043f\u043e\u0440": 21463, "quest": 1119, "\u2581meets": 28103, "\u2581remarks": 29360, "Release": 19729, "\"/": 23901, "\u2581Friday": 28728, "router": 15140, "http": 1124, "\u2581quantity": 14728, "so": 578, "extensions": 24299, "\u2581\u043a\u0440\u0430": 6697, "\u2581Ry": 15586, "\u2581Jean": 4581, "Sm": 12636, "avid": 16093, "Profile": 13909, "\u0442\u0435\u043a": 16821, "\u043d\u0438\u0446\u0442\u0432\u043e": 25929, "Ca": 26270, "\u2581onderwerp": 23543,
[...]
