{"\u2581Zar": 22453, "\u2581Guillaume": 28384, "\u2581stats": 22663, "\u2581observ": 5820, "\u2581\u010c": 7696, "+)": 28135, "\u2581\u043e\u0441\u0443": 28785, "Child": 5938, "\u2581informations": 19313, "\u2581\\": 320, "\u2581d\u00e9c": 4224, "roc": 10198, "\u2581Econom": 12884, "\u2581profession": 6351, "\u2581Mis": 20929, "\u2581...": 2023, "v\u011b": 22946, "illiant": 23951, "\u2581converges": 24144, "{": 29912, "ich": 436, "\u2581canton": 23355, "izer": 3950, "\u2581thinking": 7291, "ces": 778, "omr\u00e5": 12769, "\u2581latest": 9281, "\u2581Page": 9305, "\u2581units": 10340, "\u2581mondiale": 14475, "\u2581Ira": 21375, "\u2581\u0432\u0435\u0440\u0435\u0441\u043d\u044f": 26502, "Bra": 28183, "\u2581Nova": 16216, "Header": 7850, "\u2581Norte": 21035, "\u2581ded": 28262, "\u2581Union": 7761, "$}": 17133, "\u2581znajdu": 22562, "\u039d": 30530, "\u0442\u0435\u0442": 13562, "\u2581Country": 15456, "NotFound": 17413, "ares": 5114, "\u2581artists": 17906, "ouses": 23676, "\u2581Ah": 9070, "\u2581stages": 22950, "lies": 3687, "sections": 27117, "\u2581spole\u010d": 28346, "\\}$,": 28538, "options": 6768, "\u2581packages": 9741, "\u2581results": 2582, "\u2581gain": 11581, "\u2581:)": 4248, "\u2581Jeff": 12208, "\u2581mani\u00e8re": 26722, "(),": 3285, "\u2581pau": 24571, "\u2581Foot": 7527, "\u2581Crit": 15976, "\u2581Conf": 10811, "\u2581existing": 5923, "ulle": 15104, "ifying": 9215, "\u2581nac": 22227, "enten": 19889, "\u2581tin": 27773, "\u2581Emil": 25458, "Europe": 15654, "\u2581Multi": 14974, "lications": 5795, "\u30ea": 30303, "].": 1822, "\u2581\u0447\u0435\u0442\u044b": 24998, "mut": 6149, "idia": 29697, "\u5854": 31831, "\u0fb1": 31896, "\u2581show": 1510, "\u2581precis": 12132, "\u2581Alberto": 21065, "virti": 24465, "new": 1482, "[]": 2636, "\u2581generally": 6892, "methods": 23515, "\u00fcgel": 25146, "known": 5203, "\u2581Hessen": 26329, "erno": 24887, "\u00b4": 30165, "\u00ca": 30403, "\u2581boxes": 16273, "\u2581Borg": 20918, "Command": 6255, "_{(": 20862, "ished": 3276, "\u2581percentage": 19649, "\u2581leg": 2814, "publish": 23679, "hadoop": 22075, "\u2581objects": 3618, "warn": 25442, "\u2581Sie": 4073, "spark": 12597, "\u0432\u0430\u043b": 18289, "Typ": 24933, "sv": 4501, "\u2581ing": 2348, "\u5468": 31109, "castle": 27193, "\u2581grud": 21227, "ABC": 19658, "\u2581gest": 7737, "\u04e9": 30778, "Bel": 21140, "Net": 6779, "\u2581prop": 3107, "asing": 5832, "\u2581lud": 21615, "EP": 15488, "\u2581Ir": 6600, "oslav": 17464, "itat": 7366, "\u2581\u043f\u043e\u043b\u043e\u0432\u0438": 28072, "\u2581est\u00e1n": 21654, "\u2581the": 278, "\u2581Beispiel": 22621, "\u2581Way": 5307, "\u2581pi\u0142": 23602, "\u03b6": 30460, ">\\<": 20824, "\u2581And": 1126, "\u2581eleven": 28121, "\u2581participants": 27138, "kaz": 8637, "\u2581\u043c\u0430\u0440\u0442\u0430": 15051, "\u2581Deport": 26736, "specific": 14940, "\u2581Britain": 14933, "\u0441\u044c\u043a\u043e\u044e": 29789, "\u2581termine": 20202, "\u2581IN": 2672, "\u2581LI": 17705, "jak": 24744, ":(": 5919, "extend": 21843, "LINE": 18521, "\u2581javafx": 26875, "\u2581f\u00e9min": 26883, "\u2581wsp": 16438, "\u8282": 31669, "\u2581party": 6263, "\u2581an": 385, "ale\u017c": 19272, "\u2581Beng": 20781, ">\",": 28341, "\u0e1a": 30526, "equ": 1686, "\u2581Stack": 10292, "\u2581high": 1880, "enty": 6478, "\u2581Ry": 15586, "imper": 26039, "\u2581Lund": 27945, "student": 18945, "\u2581converted": 11543, "\u2581lo": 658, "\u2581Inner": 25665, "\u0433\u043d\u0435": 21740, "ID": 1367, "\u2581Britann": 15822, "\u2581disponible": 26318, "\u2581pedig": 25922, "\u043d\u044c\u043e\u0433\u043e": 22460, "\u2581slave": 19532, "oul": 5059, ":\\\\": 22298, "ouse": 1709, "ifen": 26651, "borough": 22187, "male": 19202, "r\u00e1": 6135, "\u2581Hen": 4114, "\u2581\u043f\u0440\u043e\u0432\u043e": 18493, "Windows": 7685, "\u2581Sang": 26932, "\u2581tries": 14335, "\u2581utter": 14401, "^\\": 3823, "\u2581things": 2712, "\u2581reserve": 23986, "\u2581editing": 16278, "\u2581seit": 8416, "cle": 2841, "omm": 3011, "\u2581Bull": 20293, "\ub9c8": 31417, "\u2581Arist": 25068, "\u2581beho": 26184, "autre": 18288, "ORY": 18929, "esh": 12094, "l\u00e0": 27048, "\u0441\u044c\u043a\u0456\u0439": 21547, "FLAG": 26516, "\u043d\u0430\u043b": 20222, "Rec": 4789, "\u2581sends": 16003, "\u2581\u043c\u0443\u043d\u0438\u0446\u0438\u043f\u0430": 26574, "\u2581prem": 5188, "\u2581direction": 5305, "directory": 12322, "wagen": 23702, "\u00fcs": 23909, "\u2581Any": 3139, "\u2581satisfying": 24064, "\u2581$[": 11970, "cussion": 17348, "lost": 18767, "\u2223": 31465, "\u2581tussen": 19105, "\u2581passion": 15935, "wards": 2935, "\u2581Henry": 6498, "clear": 8551, "ports": 4011, "\u043b\u0430\u0437\u0438": 14779, "\u2581\u043d\u0430\u043b\u0430\u0437\u0438": 17270, "variables": 20897, "\u2581\u043e\u043f\u0448\u0442\u0438\u043d\u0438": 23406, "\u1e6d": 30432, "\u2581\u0430\u043f\u0440\u0435": 14374, "/*": 5515, "\u2581pur": 3708, "\u2581ble": 10767, "Dim": 16142, "City": 16885, "atile": 24285, "ATA": 8254, "\u2581algo": 24673, "\u2581trace": 9637, "chrome": 18114, "\u957f": 31143, "\u2581sib": 27767, "xspace": 13007, "\u2581wouldn": 7656, "avier": 18852, "\u2581Creating": 26221, "\u2581finding": 9138, "pf": 7810, "emit": 21976, "\u2581Ice": 26998, "ze\u015b": 14527, "\u2581impro": 4857, "\u00edstica": 17427, "ulse": 19994, "egov": 27652, "?>": 17382, "\u2581defence": 28399, "\u2581V\u00e9": 14926, "\u2581player": 4847, "\u2581dit": 6309, "\u2581Salv": 14964, "erner": 15479, "\u2581####": 3191, "\u2581costru": 18979, "\u2581bibli": 11721, "\u0441\u0442\u0438": 1415, "gress": 3663, "\u2581vess": 12950, "\u2581cd": 14965, "\u2581zewn\u0119trzne": 15412, "au": 585, "scheid": 11973, "atting": 23980, "\u2581Feuer": 29331, "kbd": 8810, "\u2581Ski": 28551, "\u2581donne": 18332, "\u0430\u043d\u0456": 15264, "\u2581polit": 2832, "\u2581Kreis": 17254, "\u2581reli": 12536, "\u2581protect": 12566, "\u00e1ndez": 19610, "ato": 1219, "\u2581study": 6559, "ibt": 9268, "\u2581cookie": 15327, "ientes": 13833, "\u0432\u043e\u043c": 19142, "\u2581scenarios": 21846, "\u2581ras": 22641, "\u2581stolet": 22041, "appen": 19934, "\u2581plugins": 18224, "\u00edc\u00ed": 12851, "\u2581completed": 8676, "/:": 24676, "\u0b95": 30700, "zi": 2526, "erva": 25461, "cmd": 9006, "employee": 26143, "\u2581correlate": 18088, "hren": 13608, "\u66f4": 31100, "algebra": 15742, "vn": 18564, "\u2581effect": 2779, "Search": 7974, "\u767d": 30868, "\u2581Hed": 28561, "preis": 28506, "\u2581seinem": 10294, "\u2581Prin": 12069, "\u2581posit": 13686, "\u043b\u0430\u0433\u0430": 15813, "\u2581tbl": 19018, "\u2581fresh": 10849, "ound": 618, "reme": 10291, "testing": 13424, "\u0121": 31058, "cost": 18253, "oz": 2112, "\u2581d\u00e9vel": 13942, "includes": 24572, "\uc7ac": 31973, "iken": 14004, "\u2581Au": 8407, "ership": 10475, "\u2581\u043c\u0430\u043b\u043e": 29584, "\u03c6": 30237, "ick\u00e1": 28595, "\u2581Werke": 20992, "sent": 18616, "]$,": 25473, "\u2581SDK": 12967, "\u2581dimin": 22964, "\u2581mile": 17967, "\u2581Rail": 9620, "\u2581circumstances": 14209, "gie": 12053, "\u2581Saison": 11873, "\u1793": 31934, "\u2581contributed": 26869, "urg": 2007, "custom": 6341, "\u2581pr\u00e9s": 5814, "\u2581unique": 5412, "docs": 2640, "\u2581fly": 11340, "\u2581sp": 805, "\u2581miejscowo": 23046, "\u2581Chine": 29142, "(()": 14885, "private": 9053, "iler": 3955, "\u2581Kle": 9924, "\u2581\u0437\u0432": 27643, "\u2581revista": 25374, "\u2581writers": 23550, "PRI": 29829, "\u2581\u0412\u0430\u0441\u0438\u043b\u044c": 24989, "Jul": 27501, "Sidenote": 28030, "Attr": 25098, "\u2581jump": 12500, "\u2581fab": 10135, "icol": 5283, "nosti": 13887, "\u2581Familien": 19921, "\u2581c\u00e9l": 19489, "uil": 20806, "\u043f\u0430\u0440\u0430": 20691, "\u2581\u0442\u043e": 2721, "\u2581tomb": 20450, "Response": 5103, "\u2581Senate": 18148, "'-": 28560, "\u2581ud": 11430, "\u2581gennaio": 16111, "\u2581\u0437\u0430\u0442\u0435\u043c": 22174, "exe": 8097, "\u2581startup": 20234, "\u2581guessing": 20680, "TABLE": 21009, "CG": 11135, "\u0639": 30218, "\u0432\u043e\u043b\u044e": 19654, "\u2581r\u00edo": 21214, "t\u00f3": 6127, "Success": 14191, "\u2581guidance": 27323, "\u3002": 30267, "\u043b\u0435\u0435": 9751, "\u2581wo": 8879, "party": 22633, "\u2581affairs": 19469, "\u043c\u043e\u043d": 13744, "|_{": 26632, "\u2581Jahrhundert": 8460, "\u2581Encyclopedia": 18791, "\u2581conf": 1970, "\u2581\u0440\u0430\u0437\u043b\u0438": 16481, "\u2581fright": 22739, "Cannot": 29089, "\u0941": 30702, "rob": 13716, "WI": 22119, "\u0434\u043e\u0441\u0442\u0443\u043f": 29033, "\u2581anymore": 15128, "ifer": 9633, "TD": 24495, "\u2581Release": 23708, "\u8be5": 31751, "<0x6A>": 109, "\u2581administration": 17517, "\u2581??": 13626, "\u2581stability": 25806, "amos": 14054, "Extensions": 26982, "\u2581dual": 14581, "*/": 3877, "\u2581\u0444\u0440\u043e\u043d": 23502, "\u0445\u043e": 1814, "\u2581Windows": 3852, "lan": 6468, "istration": 8306, "<0xE1>": 228, "\u2581Alt": 10790, "\u2581academ": 16274, "\u2581drink": 13748, "\u2581logic": 5900, "Unis": 11604, "fg": 16434, "sequ": 6831, "major": 21355, "compiler": 21789, "\u2581vuel": 22126, "imientos": 24038, "\u2581asset": 24342, "\u2581finales": 27538, "iza": 6619, "Employee": 19461, ">&": 19250, "\u0440\u044e": 17087, "atr": 8141, "ph": 561, "athedral": 21471, "\u2581outside": 5377, "\u2581colours": 28061, "orter": 9555, "letter": 15670, "\u2581einen": 4596, "psilon": 3232, "\u2581Core": 10239, "\u2581Player": 14574, "\u2581wordpress": 20734, "\u2581nun": 11923, "\u4e24": 31977, "ienen": 12980, "iga": 4324, "\u2581thank": 6452, "\u2581intention": 16392, "\u2581Circle": 27927, "De": 2772, "elte": 14248, "ournal": 4659, "\u2581Bright": 29258, "Fi": 18800, "\u2581misma": 22575, "complex": 19676, "\u2581collapse": 24382, "\u2581Burg": 11202, "\u2581formats": 21971, "rita": 27250, "\u2581Employee": 24654, "ogo": 10482, "\u2581cultiv": 18834, "\u2581bunch": 14928, "\u2581Se": 922, "\u6625": 31031, "\u2581Champion": 5257, "\u2581kis": 26187, "\u2581\u0421\u043e": 5579, "\u2581India": 7513, "\u2581Kon": 5250, "\u2581\u0420\u0435\u0441": 17337, "\u2581Milit": 11544, "ria": 2849, "\u2581Egy": 9028, "idx": 13140, "\u2581pas": 2331, "\u2581entry": 6251, "Public": 19858, "-,": 15767, "\u2581explos": 20389, "eil": 23270, "<0x72>": 117, "\u2581assum": 3836, "\u2581thing": 2655, "riors": 28739, "poss": 28802, "\u2581anyway": 8763, "kiem": 18153, "b\u00fc": 28252, "\u1ee3": 31645, "\u2581products": 9316, "\u2581Most": 7849, "\u2581budget": 23562, "\u2581sare": 25468, "eken": 28102, "<0xB0>": 179, "\u2581Af": 10393, "\u56fe": 30861, "\u2581fear": 8866, "hem": 8008, "\u2581Brothers": 25522, "\u2581requests": 7274, "\ubb38": 31406, "}^": 2137, "forward": 11333, "ured": 2955, "ativo": 11692, "\u2581arrive": 18331, "\u2581Verl": 23739, "\u2581Leo": 22533, "\u2581Nan": 25701, "\u2581\u2581\u2581\u2581\u2581\u2581\u2581\u2581": 308, "\u2581extremely": 14154, "\u00ad": 30191, "\u2581Schweizer": 20320, "\u0447\u043d\u0435": 23018, "\u2581Ker": 12693, "\u2581\u0447\u0430\u0441\u0442": 15267, "\u6d88": 31276, "cat": 4117, "\u2581belonged": 28911, "\u2581strutt": 29596, "\u2581SE": 3725, "/(": 14571, "\u2581displays": 14423, "inks": 19363, "ati": 2219, "\u2581dzia\u0142": 18728, "convert": 13441, "\u2581\u043a\u043e\u0442\u043e\u0440\u044b": 6305, "\u2581m\u00e9": 8774, "\u2581theorem": 9185, "Mo": 22638, "\u2581jar": 14631, "\u043d\u0438\u0446\u0442\u0432\u043e": 25929, "\u2581La": 997, "\u2581intersect": 25869, "\u2581\u0442\u0435\u0430\u0442\u0440\u0430": 26967, "\u0430\u043d\u0434": 8070, "\u2581rotation": 13733, "\u2581bucket": 20968, "\u2581vertices": 13791, "\u2581alcuni": 19344, "alias": 19973, "\u2581kwiet": 25145, "\u2581Cam": 5500, "elde": 16024, "\u040b": 30879, "\u2581mouv": 20758, "\u2581temp": 5694, "\u2581jack": 28015, "\u0434\u0456\u0439": 19686, "\u2581studying": 23382, "\u2581Enter": 9041, "\u2581Animal": 22809, "Sort": 13685, "\u2581digital": 13436, "\u0d9a": 31865, "\u043d\u0438\u0439": 2332, "oms": 4835, "\u2581experimental": 17986, "\u2581profiles": 28723, "\u2581Gesch": 5009, "\u2581vida": 10828, "ie\u017c": 16086, "Sto": 20754, "adratkilometer": 21088, "samples": 27736, "\u2581Marvel": 25791, "ibrary": 6357, "\u2581\u0421\u0442\u0430": 6603, "FC": 8610, "\u2581ocean": 23474, "\u2581registry": 21235, "\u2581correctly": 5149, "\u2581ingles": 19350, "\u2581libre": 13220, "\u2581belang": 25585, "mult": 4713, "Double": 11843, "\u2581surve": 26946, "\u30af": 30305, "\u0d30": 30623, "\u3050": 31907, "\u63a5": 31092, "usement": 22527, "ROW": 25180, "arded": 25600, "skip": 11014, "dro": 26419, "\u2581Cleveland": 27249, "~~": 7377, "\u2581me": 592, "\u2581down": 1623, "\u044f": 29970, "osc": 14174, "\u2581Rach": 23647, "ibly": 14981, "Parse": 12914, "ache": 1829, "\u2581voice": 7314, "argin": 3930, "Input": 4290, "\u00e9s": 743, "\u2581incomplete": 28907, "\u2581dla": 13502, "\u0434\u043d\u0430": 8987, "able": 519, "div": 4563, "\u2581test": 1243, "ificate": 8021, "\u2581year": 1629, "\u2581density": 9027, "gest": 7118, "\u2581lado": 19931, "\uc804": 31170, "png": 2732, "\u045a\u0430": 10473, "Co": 7967, "\u2581sky": 14744, "\u2581aside": 17786, "\u2581writes": 15873, "\u2581\u0160": 9042, "\u2581setting": 4444, "rz": 11987, "linux": 9389, "display": 4990, "GridView": 16584, "ruby": 9754, "\u2581'#": 16321, "\u2581\u0444\u0435": 20250, "FIX": 25634, "\u6c0f": 31052, "\u2581argument": 2980, "istr": 2132, "down": 3204, "\u2581Mine": 26833, "\u00e9rie": 4745, "res": 690, ")]": 4638, "kl": 6321, "\u2581Rein": 18334, "CollectionView": 26588, "tre": 2484, "\u2581enthus": 23644, "ribution": 3224, "\u043b\u043e\u0433": 15157, "rait": 8356, "\u2581Hir": 20417, "\u2581repair": 26032, "\u00ebn": 28063, "\u2581Stefan": 21512, "VE": 12064, "\u2581mieszka\u0144c\u00f3w": 28589, "Completion": 28958, "\u2581fosse": 23198, "Star": 16213, "ouss": 21167, ")))": 4961, "\u2581evidently": 25524, "\u0d23": 31146, "\u043d\u0438\u043d\u0430": 23508, "znik": 25770, "\u2581mapping": 10417, "\u2581);": 3482, "lass": 605, "\u2581\u0421\u0438": 7473, "phon": 17607, "raise": 22692, "\u1e33": 31897, "\u2581=~": 16788, "\u2581Shin": 27948, "\u2581\u0447\u0430\u0441": 12978, "\u2581Eb": 26302, "\u2581radiation": 27310, "\u2581inform\u00e1ci\u00f3k": 26137, "omin": 5817, "drag": 20515, "\u2581Ressources": 17957, "\u2581j\u00e1": 17333, "elines": 24210, "\u2581\u0444\u0438": 5406, "\u2581room": 5716, "\u2581communities": 23507, "\u6c5f": 30775, "\u00dd": 30777, "\u2581partir": 8019, "\u2581Catalog": 5725, "Activ": 21786, "clojure": 24812, "Forms": 12605, "\u0e38": 30803, "Cache": 10408, "\u2581surrounded": 22047, "\u2581vio": 28008, "\u2581Introduction": 27576, "\u2581Zent": 16607, "+'": 23097, "rl": 2096, "\u2581Port": 3371, "\u00e2n\u0103": 29218, "<0xF8>": 251, "\u2581remote": 7592, "\u2581tie": 22134, "\u2581reach": 6159, "<0xD7>": 218, "\u2581fueron": 12004, "bd": 6448, "\u2581Turner": 24215, "\u2581counted": 29115, "\u2581fecha": 29100, "\u7f85": 31741, "\u043a\u0438\u043d": 22180, "\u2581komm": 15985, "unda": 8917, "eduler": 14952, "\u2581Pref": 27611, "\u2581became": 3897, "\u306d": 31684, "rollo": 20426, "yen": 11771, "\u30bd": 31051, "\u2581persistent": 28152, "\u2581august": 15251, "\u2581Hud": 18917, "except": 19499, "\u2581mix": 6837, "Hor": 17241, "\u2581collabor": 11465, "ishment": 18310, "(\"<": 28945, "i\u00e7\u00f5es": 26638, "onda": 14287, "widetilde": 10737, ".:\u200a": 26847, "\u2581small": 2319, "\u2581bright": 11785, "\u00f4tel": 25892, "\u2581ucz": 25631, "\u09cb": 31864, "Express": 27404, "\u6751": 30402, "\u2581sight": 11126, "\u2581Pap": 8579, "\u2581Forsch": 18611, "\u2581Jesus": 13825, "\u2581critique": 29709, "\u2581encourag": 18443, "----": 807, "\u2581producci\u00f3n": 28083, "<0xDA>": 221, "\u2581Id": 5163, "\u2581Lorenzo": 25829, "\u2581Javascript": 12728, "apes": 11603, "ignore": 17281, "\u2581infrastr": 22035, "\u2581\u0440\u043e\u0431\u043e": 22957, "\u2581transformed": 27615, "\u043d\u043e\u0442\u043e": 29660, "iam": 2829, "\u2581someone": 4856, "faces": 8726, "\u2581Fast": 23786, "\u0441\u0442\u0430\u043d\u0430": 25066, "\u2581Verein": 12894, "\u2581visto": 29025, "mat": 2922, "\u2581Anal": 11597, "voke": 5744, "\u2581household": 22329, "\u0441\u044c": 1210, ")_": 20344, "\u2581Amer": 2163, "omorphism": 14143, "\u045f": 30259, "hind": 16887, "\u0436\u0435\u043d\u0438\u0439": 25612, "archar": 20523, "five": 20818, "\u2581compos": 5541, "\u2581pour": 1671, "\u2581model": 1904, "\u2581Option": 10831, "\u2581Auth": 13189, "\u2581stem": 20805, "\u2581\u0431\u0443\u0434\u0443": 22770, "center": 5064, "\u2581July": 5468, "Part": 7439, "ija": 8044, "Tool": 12229, "\u2581claim": 5995, "\u2581godine": 20453, "----------------": 2683, "Can": 6028, "\u2581Francis": 5845, "\u2581\u041d\u0430\u0441\u0435": 9108, "\u2581walking": 22049, "\u2581spir": 6337, "\u00e8ce": 10491, "recht": 15320, "\u2581downloaded": 16532, "\u0bb1": 31809, "uesto": 29771, "\u2581consum": 11233, "SK": 16033, "movie": 27362, "\u2581comune": 14915, "Menu": 6823, "\u2581setContentView": 26916, "aties": 29375, "\u0442\u0435\u0442\u0430": 25313, "login": 7507, "\u2581worry": 15982, "chsel": 13664, "\u2581altogether": 19148, "\u2581fe": 1238, "sers": 4253, "StackTrace": 15437, "\u011bn\u00ed": 26196, "\u0442\u0435\u043c": 12933, "\u2581\u0431\u0443\u0434\u0435": 23618, "\u2581River": 6163, "undert": 7635, "\u0e42": 31364, "\u2581nome": 9235, "\u2581fade": 28747, "\u043a\u0442\u0438": 9054, "\u2581\u043f\u043e\u0434": 3693, "wor": 13762, "ulla": 21797, "\u2581Leist": 27520, "}=": 5369, "\u6e05": 30989, ">:": 23917, "\u2581execut": 6704, "\u2581strat": 26742, "atica": 29288, "\u2581empresa": 20456, "exec": 4258, "\u2581Eth": 13772, "rr": 21478, "\u30bb": 30885, "aupt": 7479, "\u2581branch": 5443, "aper": 7202, "Zygote": 25104, "\u2581\u043f\u043e\u0432": 5885, "ctrine": 14600, "rano": 12776, "\u2581falling": 20327, "Load": 5896, ",--": 7839, "\u2581surv": 10503, "lean": 14044, "\u2581\u0441\u043e\u0442": 23966, "Dest": 14994, "Russ": 23002, "}\")": 27195, "enci": 13640, "\u2581Kel": 27326, "ative": 1230, "h\u00e1": 19990, "ousin": 17790, "\u2581restrictions": 25091, "\u2581is": 338, "\u2581wel": 5476, "\u2581Glasgow": 29196, "ajes": 23823, "stack": 1429, "\u0441\u0442\u043e\u0440\u0456\u044f": 23548, "\u2581titled": 25278, "what": 5816, "\u2581Marcel": 16633, "\u2581Camp": 7259, "TX": 28627, "uky": 21108, "\u2581nau": 16448, "villa": 28765, "\u2581achieve": 6176, "\u2581intro": 22909, "onial": 25164, "\u2581medic": 13589, "\u2581Rights": 26863, "\u2581striking": 29191, "building": 25237, "<0xBB>": 190, "\u2581bekend": 24955, "C": 29907, "\u2581Prix": 11963, "\u2581Inside": 22804, ")\")": 25760, "rics": 10817, "\u2581waited": 25993, "\u0442\u0432\u043e": 7144, "\u00fablic": 7627, "\u2581porta": 23344, "\u2581leaves": 11308, "\u2581Story": 13740, "anging": 9776, "\u2581interior": 13290, "<0xCD>": 208, "\u2581machine": 4933, "=`": 12557, "\u2581Getting": 24162, "\u2591": 30833, "\u2581\u043a\u0430\u043c": 28689, "iki": 10058, "World": 14058, "ouverneur": 27235, "\u043d\u0438\u044f": 1587, "\u0448\u0456": 14306, "\u2581primeiro": 19695, "\u043b\u0435\u043c": 10577, "\u2581Deb": 7089, "race": 25525, "zte": 8832, "\u2581figures": 13994, "\u2581\u2022": 10266, "\u2581Last": 9208, "neh": 9113, "auth": 5150, "abgerufen": 27203, "\u2581}": 500, "\u2581\u043f\u0440\u0435\u043c\u0430": 29608, "\u8857": 30813, "IF": 6545, "\u0434\u0430\u043c\u0438": 29742, "\u0e23": 30297, "\u2581choice": 7348, "\u2581Trade": 27226, "\u99ac": 31087, "\u2581inst": 832, "mask": 13168, "cid": 25232, "id\u00e9": 24969, "\u2581\u043f\u043e\u0440\u0430": 28227, "\u2581m\u00e1s": 3627, "\u2581ober": 27543, "\u2581invisible": 27597, "over": 957, "\u2581hex": 15090, "\u2581Cou": 19565, "\u1e37": 31802, "\u043d\u0438\u0448\u0442\u0432\u043e": 17398, "\u2581linked": 9024, "deck": 16565, "\u2581\u00fcbernahm": 26046, "emed": 22580, "\u0137": 31748, "uits": 19544, "\u2581dieser": 8039, "\u2581sam": 3514, "\u2581degli": 7973, "\u0441\u044c\u043a\u043e\u0433\u043e": 6100, "\u2581Dick": 12488, "\u2581\u0413\u0435\u043e\u0440": 24644, "chi": 4161, "hanced": 29308, "\u2581exc": 5566, "looking": 23261, "addy": 25644, "-(": 17722, "\u2581criminal": 22161, "ById": 4499, "\u2581wen": 12987, "\u2581call": 1246, "ilor": 12405, "\u2581ce": 2257, "buf": 9721, "\u2581j\u00falius": 27646, "fahrt": 29182, "lou": 23581, "zin": 23374, "\u2581commun": 3817, "\u2581\u0432\u0438\u043a\u043e\u0440\u0438": 19749, "\u2581stroke": 19782, "Updated": 29248, "\u2581Erd": 29446, ")$$": 17085, "\u2581presiden": 28282, "\u2581\u0412\u0435\u0440": 12850, "\u2581\u00e5rsnederb\u00f6rd": 28649, "\u2581Soph": 19122, "\u2581welcome": 12853, "\u2581\u043f\u0443\u043d\u043a\u0442": 27655, "\u2581Christoph": 28840, "\u2581pers": 3736, "\u2581zwischen": 7831, "\u2581marriage": 13718, "\u66f2": 31467, "\u2581\u0441\u043e\u0441\u0442\u0430": 15553, "\u2206": 31576, "aton": 14114, "\u0451\u0440": 9086, "ther": 721, "\u2581lle": 19804, "\u0441\u0442\u0440\u0443\u043a": 20361, "oster": 15664, "CASE": 23487, "<0x04>": 7, "\u2581screens": 11844, "\u2581soldier": 20767, "MY": 17870, "\u2581jeunes": 29026, "car": 4287, "ahlen": 17165, "roph": 19783, ".-": 9229, "\u2581`%": 22570, "\u2581Writing": 28676, "\u2581auf": 1622, "ierungs": 21212, "\u2581Society": 7765, "utf": 9420, "\u2581current": 1857, "\u2581best": 1900, "\u2581Veg": 17236, "\u0433\u043b\u0435": 20906, "\u043a\u043e": 551, "\u200b": 30166, "\u2581ther": 29220, "\u2581indexes": 18111, "\u2581\u043e\u0444\u0438\u0446\u0438\u0430\u043b\u044c": 27318, "ifi\u00e9": 29792, "\u2581successful": 9150, "\u2581match": 1993, "\u2581zvuky": 23217, "ene": 1600, "\u2581associate": 25836, "avo": 27082, "\u2581received": 4520, "\u2581\u0438\u0437\u0434\u0430": 16209, "\u2581awk": 13689, "visual": 20119, "etra": 27280, "aren": 8326, "tem": 1356, "\u1f7b": 31469, "\u043a\u0435\u0442": 27268, "js": 1315, "\u0924": 30475, "\u2581physics": 17558, "ographical": 19711, "\u2581\u0432\u044b\u0448\u0435": 27252, "\u2581import": 1053, "%.": 15543, "jpeg": 26568, "\u2581slope": 24968, "Brain": 22097, "\u2581derived": 10723, "\u2581mountain": 14378, "\u2581personn": 15001, "\u2581Urban": 22589, "Check": 5596, "\u2581leak": 24993, "\u0927": 31437, "Sheet": 10654, "\u2581boost": 14505, "\u2581Ple": 19777, "\u2581\u0422": 1703, "\u2581trif": 27735, "\u2581Hall": 6573, "\u1f31": 31514, "\u2581p\u00fablico": 23792, "\u2581\u041f\u0435": 13870, "ci": 455, "lying": 5890, "\u2581dan": 6025, "MR": 21055, "\u2581populated": 24146, "eral": 13537, "\u2581posting": 16742, "west": 5933, "=\"$": 18965, "\u044e\u0449\u0438": 6443, "maps": 10339, "fah": 11225, "emberg": 19675, "\u2581arc": 15232, "\u2581Module": 15591, "ieux": 13805, "\u2581Ent": 4284, "}^\\": 10206, "\u2581\u0442\u043e\u043c": 13610, "\u2581accum": 18414, "\u2581d\u00e8s": 21975, "\u2581Gas": 19141, "\u2581weird": 13543, "\u2581relatively": 13774, "\u2581apr": 21783, "\u2581surg": 25300, "verband": 25400, "\u043e\u0432\u0435": 8381, "essions": 10964, "\u043a\u0438\u0439": 3753, "\u2581eventually": 10201, "\u2581friend": 5121, "\u2581\u0438\u043d\u0442\u0435\u0440": 25827, "})$,": 27394, "stmt": 17868, "\u00eb": 30083, "\u2581assert": 4974, "\u2581one": 697, "\u2581feet": 6900, "PH": 19689, "\u0432\u0438\u0447": 9614, "\u2581Ri": 21710, "\u2581\u041d\u0456": 23865, "\u2581november": 14530, "\u2581min": 1375, "\u2581medium": 18350, "agit": 23121, "\u2581confident": 24332, "\u207b": 30760, "\u2581gall": 11798, "Hint": 28016, "\u2581Kub": 29024, "primary": 16072, "\u2581\u043d\u0438": 7380, "\u2581reply": 8908, "\u2581Sebastian": 26631, "\u2581consistent": 13747, "Les": 24560, "yk": 12072, "\u2581Mult": 9683, "MW": 25365, "had": 21312, "\u2581\u0446\u044c\u043e\u0433\u043e": 28184, "Ty": 21314, "\u2581bod": 13004, "lemagne": 18453, "\u2581selecting": 18851, "\u2581rights": 10462, "`": 29952, "\u2581Below": 13866, "\u2581Collection": 14348, "point": 3149, "\u2581authority": 14329, "\u2581waters": 19922, "\u0080": 30751, "\u2581dez": 18466, "ogne": 25666, "\u2581Jackson": 11886, "\u2581rough": 12164, "\u5199": 31479, "\u2581scale": 6287, "\u2581palace": 24369, "\u2581soap": 29559, "MS": 4345, "\u0440\u043e\u0433\u043e": 14003, "rost": 17627, "\u2581invited": 23610, "\u2581possono": 29278, "\u2581Station": 12039, "\u03a4": 30414, "\u2581premi": 5730, "tp": 9392, "ierz": 15952, "\u2581deal": 5376, "\u2581Category": 17943, "\u2581star": 5810, "DS": 8452, "likely": 21280, "onia": 6405, "\u2581pr\u00e9sente": 22847, "alles": 26493, "\u2581Nazionale": 26541, "\u00e9d\u00e9": 29654, "dor": 22571, "\u091c": 30871, "iende": 28114, "icola": 28807, "\u2581avo": 26580, "uerdo": 25768, "\u2581areas": 10161, "\u98df": 31855, "\u2581tegen": 15212, "\u2581Cru": 11263, "\u2581Kno": 24133, "odi": 12143, "\u2581j\u00fa": 16210, "\u2581passenger": 28507, "n": 29876, "untime": 5572, "ouvel": 9095, "\u2581atmos": 15489, "controls": 26255, "l\u0105": 28835, "CAA": 22701, "\u2581automatically": 6336, "\u0432\u0435": 1521, "\u03b5": 30151, "\u2581Virgin": 9167, "\u1f10": 30571, "\u2581Gil": 11788, "\u2581actress": 20993, "\u2581Sc": 2522, "\u2581Wis": 15756, "\u2581\u043e\u0431": 1604, "\u2581Fu\u00df": 11212, "\u8d77": 31558, "Score": 20097, "ko": 2901, "\u2581ru": 5796, "\u2581$(\".": 17575, "Serializer": 17679, "\u2581teat": 28308, "\u00e2n": 10031, "cock": 24956, "\u2581rus": 13005, "contact": 12346, "req": 7971, "products": 14456, "<0x33>": 54, "\u2581Iter": 20504, "),(": 21336, "<0x48>": 75, "\u0448\u0438\u0439": 11941, "\u2581Within": 23732, "\u2581shed": 28453, "onCreate": 17879, "\u2581naar": 7553, "\u2581sj": 19421, "\u2581genom": 20853, "uellement": 27751, "istan": 9777, "istoire": 6844, "SM": 17061, "\u2581\u0432\u0438\u0441\u0438\u043d\u0438": 21673, "\u2581\u0440\u0430\u0431\u043e\u0442\u0430\u043b": 27814, "const": 3075, "=\\{": 27805, "istra": 12496, "\u2581==": 1275, "\u2581sorrow": 28543, "\u099c": 31537, "HO": 8187, "n\u011b": 5623, "\u2581trova": 25307, "cap": 5030, "Changes": 21459, "guer": 26880, "LOG": 14480, "lists": 21513, "bound": 9917, "\u2581fille": 18003, "\u2581preced": 9399, "\u2581gallery": 23363, "yellow": 29136, "nection": 3559, "olly": 18368, "7": 29955, "\u2581cert": 2284, "\u2581island": 11359, "\u2581liber": 7866, "\u2581Cop": 10061, "OC": 20166, "coded": 29659, "\u2581higher": 6133, "\u2581cuando": 10284, "\u0165": 30182, "ccc": 26854, "\u2581bland": 18742, "\u2581dup": 5141, "las": 3333, "\u2581rg": 15552, "\u2581polski": 26685, "\u2581\u043f\u043e\u0447": 18752, "\u2581Public": 5236, "\u8def": 30874, "\u045a\u0443": 23742, "\u2581multi": 2473, "\u00e1sok": 21963, "odes": 2631, "\u2581assist": 6985, "ham": 3391, "\u2581Norman": 21296, "defin": 25476, "\u9001": 31545, "\u5178": 31259, "\u2581Mag": 3561, "\u2581diverse": 16984, "\u2581HTTP": 7331, "Comp": 6843, "\u2581saved": 7160, "\u2581Sy": 8713, "\u2581Ell": 11001, "\u2581compatible": 15878, "\u2581dop": 22357, "\u2581voyage": 17775, "reference": 5679, "\u2581revers": 18764, "overy": 22205, "</s>": 2, "\u2581obten": 16219, "\u2581charged": 20139, "\u2581developing": 14338, "\u2581Universidad": 12824, "irit": 14987, "The": 1576, "\u2581saw": 4446, "\u043f\u043b\u0430": 18478, "\u2581Pere": 23133, "\u2581\u0413\u0438": 27553, "\u2581sales": 16538, "<0x7D>": 128, "\u2581ger": 9814, "rivate": 1726, "\u2581lleg": 10953, "\u2581Brown": 9817, "\u2581finalmente": 27986, "\u2581Star": 7828, "total": 7827, "\u2581navigate": 23624, "\u2581\u043c\u043e\u0436\u043d\u043e": 26634, "\u0e2d": 30351, "\u00e9": 29948, "\u2581deliver": 12021, "\u2581Cart": 12370, "CLARE": 24529, "\u2581appointed": 10658, "ia\u0142a": 23398, "\u2581fitting": 28221, "\u2581external": 7029, "\u2581angularjs": 20740, "\u2581Muham": 27100, "mathfrak": 7237, "Bus": 16890, "\u2581Iz": 15674, "\u2581\u017c": 13918, "')[": 29861, "sk\u00e9ho": 18810, "\u2581sample": 4559, "\u2581y": 343, "\u2581Bool": 18912, "reducible": 29622, "\u043b\u0435\u043c\u0435\u043d": 25469, "\u2581distingu": 10121, "\u2581tedesco": 28366, "\u2581sj\u00f6": 28364, "Per": 5894, "make": 5675, "Kar": 24115, "\u2581\u043f\u0456\u0441\u043b\u044f": 19904, "\u2581schools": 12462, "date": 1256, "\u2581soup": 22300, "\u2581\u0432\u0441\u0435\u0433\u043e": 26566, "\u2581H\u00f6he": 24076, "\u2581Laurent": 27011, "nth": 20800, "\u044f\u043c\u0438": 26344, "nome": 25155, "\u2581lloc": 29846, "\u2581rarely": 23703, "ction": 428, "athers": 19467, "hausen": 15608, "sdl": 29222, "\u043d\u044f": 1200, "\u2581\u043f\u0456": 19946, "develop": 4888, "\u2581Arthur": 11498, "gaben": 28155, "\u2581warm": 14294, "\u2581\u043e\u0440\u0433\u0430\u043d": 18374, "\u301c": 31202, "\u2581avril": 9417, "alm": 17120, "\u2581Amazon": 16631, "compose": 19438, "\u2581Long": 6242, "\u2581Person": 5196, "Each": 9760, "\u4f50": 31315, "\u0119\u017c": 19655, "Bag": 23544, "\u2581(!": 5384, "\ub2c8": 31063, "dot": 6333, "ijd": 8791, "Email": 9823, "\u2581schw": 25184, "\u2581Belg": 9923, "(/": 18854, "lymp": 4960, "ERT": 20161, "\u0432\u044a\u0440": 26837, "thy": 21155, "lein": 24434, "\u2581lamp": 28692, "\u2581\u0440\u0430\u0431\u043e": 6457, "\u2581similarly": 22829, "driver": 9465, "alette": 26456, "Jose": 26473, "<0x7C>": 127, "road": 9972, "hosts": 23525, "\u2581!==": 15639, "\u2581mondo": 18629, "\u2581soci": 5374, "\u2581intuit": 27951, "\u00e1st": 9617, "icult": 3953, "anni": 9889, "aset": 24541, "\u2581pun": 6035, "\u2581chars": 22524, "\u0434\u0436\u0435": 23288, "iju": 26323, "\u2581\u0443\u0441": 10053, "ologische": 26288, "\u00fa": 30030, "\u2581splitting": 24368, "\u2581sym": 5016, "bridge": 18419, "\u2581hypoth": 13752, "endent": 3906, "\u2581conclus": 21204, "raj": 10665, "uling": 19478, "alous": 20521, "\u2581\u043f\u0440\u0430\u0432\u0430": 23172, "\u2581Zum": 25174, "ufe": 29556, "\u2581hunting": 29826, "dorf": 16360, "jan": 8931, "\u2581p\u00f3\u017a": 24047, "\u2581dst": 29743, "\u6703": 31411, "Outlet": 29377, "\uc6a9": 31737, "\u3078": 31388, "\u2581Dev": 9481, "\u2581Mov": 14104, "\u2581*": 334, "utton": 1851, "\u2581reader": 9591, "\u2581establishment": 25012, "\u51fa": 30544, "\u2581D": 360, "CSS": 19407, "cludes": 27722, "esseur": 24782, "enson": 25151, "gef": 21831, "\u0431\u0435\u0440": 7279, "\u4e3a": 30573, "\u2581assume": 5251, "\u2581Grab": 22351, "y\u00f3": 24714, "\u2581iterator": 20380, "\u043c\u0443": 1805, "\u00e1ll": 15420, "\u2581doll": 11232, "\u2581Fach": 21378, "\u2581\u0410\u043b\u0435\u043a\u0441\u0430\u043d\u0434": 11743, "\u2581Lok": 26469, "pandas": 15112, "entes": 5326, "zna": 16207, "lem": 2409, "ne": 484, "ariat": 29294, "bara": 13839, "\u0448\u0435\u0439": 14337, "ampio": 22674, "\u0392": 30506, "\u2581Morgan": 20549, "hein": 12880, "\u2581elaborate": 19430, "SSN": 13429, "VC": 8257, "geon": 25339, "spe": 5965, "\u2581pri": 3691, "\u2581ont": 4625, "IMARY": 24480, "\u2581!!": 21443, "aszt": 19812, "\u2581Alex": 4827, "amba": 20027, "\u30c3": 30317, "\u2581HT": 3154, "\u2581pictures": 14956, "werke": 28904, "\u2581east": 9755, "\u2581quiet": 11813, "\u2581West": 3122, "iclopedia": 21715, "\u2581cuer": 25753, "\u6b7b": 31580, "lines": 9012, "\u2581arose": 28811, "\u2581voit": 24722, "\u2581tort": 16263, "\u4ea4": 31398, "\u2581vita": 14284, "\u2581v\u00e4r": 28412, "\u0441\u0442\u0440\u0435": 11226, "as": 294, "\u2581gran": 3803, "tiny": 25649, "slide": 19265, "\u2581stabil": 16160, "\u2581Product": 10969, "Christ": 18687, "\u2581\u0442\u0440\u0430\u0434\u0438": 24090, "\u2581partitions": 23629, "\u2581Und": 14211, "\u0f51": 31344, "\u2581Norm": 5655, "\u2581retr": 5663, "\u2581verz": 23457, "\u2581flash": 11013, "\u2581\u043f\u0440\u0430\u0446\u044e": 23595, "\u2581\u0441\u0430\u0439\u0442": 23784, "\u2581note": 4443, "\u2581Package": 22029, "fs": 5847, "rating": 29741, ")$": 1262, "plan": 9018, "}}(\\": 20828, "imes": 1355, "\u2581millions": 14746, "\u2581Parent": 22280, "\u3051": 30807, "adapter": 21412, "reshold": 12268, "going": 17696, "material": 15388, "z": 29920, "\u2581nouveau": 13164, "\u2581Guerra": 13838, "zi\u0142": 22797, "\u2581sympathy": 29738, "<0xF9>": 252, "\u2581handles": 17766, "\u2581functionality": 9863, "\u2581Tra": 3201, "\u2581obvious": 6924, "\u2581Details": 25577, "\u253c": 30560, "\u2581inser": 13534, "\u2581verso": 19803, "zak": 29114, "bio": 24840, "Execute": 12296, "rvm": 27465, "\u1f7a": 31866, "\u2581\u041f\u0435\u0442": 12956, "making": 28990, "\u2075": 30509, "\u2581inse": 28405, "\u8f7d": 31526, "str\u00f6m": 25961, "\u04cf": 31806, "act": 627, "\u043e\u0442\u0435": 20390, "(\"/": 11974, "\u223c": 31186, "\u2581Studios": 23268, "\u0915": 30444, "\u7701": 31600, "\u2581Oct": 4756, "\u2581about": 1048, "\u2581civil": 7631, "\u09b0": 30653, ">\"": 11903, "astern": 11530, "\u0410\u0440": 10304, "qu\u00e9": 17851, "medium": 27891, "\u0443\u043d": 5822, "\u2581Cont": 2866, "\u2581sugg": 2424, "opsis": 15368, "\u30e7": 30907, "\u2581Dans": 9353, "\u2581comparing": 17420, "\u2581Pont": 14678, "\u2581roi": 14100, "\u2581vessels": 24479, "ilities": 9770, "\u2581G\u00e9n": 26236, "\u2581McC": 15612, "\u2581quad": 18890, "))": 876, "\u2581vision": 18551, "\u2581DEBUG": 21681, "\u2581huvud": 13078, "\u2581occur": 6403, "\u2581Init": 10886, "\u2581Avenue": 18874, "<0x64>": 103, "\u2581wait": 4480, "\u2581inject": 11658, "\u5916": 31066, "\u2581demonstr": 9004, "\u2581view": 1776, "uca": 18393, "\u2581\u043b\u0438\u0441\u0442\u043e\u043f\u0430\u0434\u0430": 28906, "\u2581\u043f\u043e\u044d": 21427, "\u2015": 30217, "tons": 7453, "Photo": 25971, "<0xD1>": 212, "\u2581tile": 25900, "\u3076": 31782, "\u2581inizi": 25676, "\u2581prost": 16810, "lera": 25931, ".,": 1696, "berga": 17494, "\u2581Ram": 8292, "\u2581tens": 25187, "uka": 22971, "\u2581station": 5073, "\u2581give": 2367, "\u2581desire": 13521, "\u2581performances": 21637, "\u0442\u0438\u043d": 7894, "orch": 25350, "\u2581Leonard": 26921, "Autom": 28451, "\u90ce": 30762, "omed": 27067, "\u2581h\u00f6ch": 27783, "\u2581Gent": 20655, "\u0447\u0435\u0441\u043a\u043e\u0439": 16576, "\u2581ocas": 28009, "<0x2C>": 47, "property": 6799, "stud": 18082, "\u2581expansion": 13184, "ban": 2571, "nap": 8971, "englisch": 7131, "\u2581nav": 6283, "keeper": 23935, "AND": 9468, "\u00e8de": 14785, "rooms": 18901, "\u2581listview": 28349, "\u2581Jay": 19556, "\u09b9": 31717, "\u2581puzz": 20285, "\u2581CH": 5868, "stronom": 13854, "ipe": 15705, "\u00ec": 30097, "\u4ef6": 30631, "\u2581\u041a": 1069, "iglia": 12964, "\u2581eben": 15621, "\u2581posto": 17614, "=\"@+": 9438, "\u2581facing": 14870, "\u2581ruolo": 24158, "pecially": 25009, "\u00e9nario": 28951, "\u2581smaller": 7968, "\u0442\u0435\u0440\u0430\u0442\u0443\u0440\u0430": 12261, "azy": 24683, "\u2581before": 1434, "\u2581\u0441\u043b\u0435\u0434\u0443": 19139, "\u2581characteristic": 17443, "%;": 8874, "\u2070": 30524, "\u2581Fol": 8301, "illon": 12794, "\u2581possibility": 13331, "\u0bc1": 30837, "\u2581printer": 23028, "U": 29965, "\u2581moi": 19601, "z\u0151": 9357, "\u2581raise": 12020, "\u2581origin": 3978, "\u2581entered": 7802, "\u2581Dennis": 27974, "\u2581wit": 12309, "translate": 21652, "\u2581ability": 11509, "\u2581readily": 28520, "\u2581decom": 17753, "\u2581evaluated": 19030, "aa": 7340, "ighed": 25398, "\u2581Names": 14706, "\u2581miasta": 29704, "\u2581principalmente": 21995, "\u2581\u043d\u043e\u0432\u043e": 22404, "\u2581movements": 24147, "\u2581\u0443\u0437": 26008, "\u2581teach": 6860, "\u2581heter": 25745, "\u2581Mig": 14854, "\u2581jedoch": 9901, "\u2581volta": 13458, "\u00c8": 30141, "\u2581\u0430\u043c\u0435\u0440\u0438\u043a\u0430\u043d": 14888, "my": 1357, "\u2581operations": 6931, "=\"/": 13802, "\u2581Aqu": 16020, "brand": 16472, "\u2581Sommer": 22820, "gebras": 28200, "(?": 10780, "\u2581consists": 11624, "\u0447\u043d\u0438\u0439": 14220, "\u2581leb": 19685, "\u2581distribu": 20441, "\u2581fib": 18755, "\u2581ampl": 20563, "\u0d32": 30865, "\u2581dig": 4697, "\u2581falls": 20074, "\u0160": 30115, "Transaction": 12460, "minus": 12254, "\\<^": 10553, "\u2581aix": 23609, "\u0458\u0430": 3613, "('/": 11219, "\u2581votre": 26814, "\u2581\u043b\u0438\u043f\u043d\u044f": 25283, "\u2581Po": 3929, "\u2581Now": 2567, "\u2581Flag": 28697, "News": 29328, "\u2581gab": 11880, "\u2581ISBN": 2210, "\u2581hath": 23870, "\u2581crow": 11660, "\u7532": 31843, "pop": 7323, "\u2581significa": 28711, "\u2581Boot": 13760, "lla\u00e7os": 26335, "EF": 29638, "\u2581descript": 29037, "\u2581Rub": 14985, "PM": 13427, "\u2581\u0431\u0443\u043b\u043e": 11792, "acci": 21566, "\u2581UTF": 18351, "\u2581Bib": 19864, "ERR": 21662, "\u0645": 30159, "InputStream": 13828, "hora": 15255, "idae": 3898, "\u2581effort": 7225, "\u5bbf": 31612, "dropdown": 19305, "\u2581cast": 4320, "\u2581Regiment": 17982, "\u2581verbose": 26952, "Use": 11403, "steller": 14640, "\u2581\"\",": 12633, "\u2581localhost": 15683, "\u2581job": 4982, "\u2581Am": 1913, "\u2581analyt": 16114, "\u2581FIFA": 21581, "\u00e1z\u00ed": 26151, "jed": 11370, "\u2581appreci": 5108, "\u2581preserved": 21634, "ScrollView": 28556, "\u2581Sup": 13786, "fel": 13287, "oust": 18291, "\u2581Koh": 28590, "zerw": 15900, "\u2581gez": 17364, "\u2581pixels": 17036, "Hom": 24259, "\u2581Give": 25538, "sm": 3844, "\u2581B\u00fc": 16144, "\u015e": 30309, "properties": 11330, "cope": 4338, "Messages": 25510, "lieder": 16820, "\u2581come\u00e7": 29435, "\u2581Cuando": 27351, "\u0447\u043d\u043e\u0457": 20705, "\u2581breaking": 16679, "\u2581cr\u00e9ation": 25243, "\u2581inte": 2293, "ints": 9466, "\u2581\u0412\u043b\u0430\u0434\u0438\u043c\u0438\u0440": 21937, "\u043d\u043e\u0433\u043e": 1868, "\ub3d9": 31000, "<0xE6>": 233, "\u2581iterate": 13649, "\u2581Beck": 19573, "express": 17073, "ublik": 27557, "thern": 5063, "cache": 8173, "\u2581bott": 18046, "ams": 2232, "\u2581center": 4818, "\u2581Size": 21179, "\u2581Han": 7169, "ek": 1416, "\u2581shows": 3697, "odge": 17979, "photo": 21596, "\u2581horror": 23026, "\u2581tak\u00e9": 20020, "\u2581afterwards": 12335, "istre": 22715, "umerate": 11351, "\u2581Jugend": 19472, "omega": 4787, "insert": 7851, "standing": 11235, "\u00e8le": 15340, "\u2581quindi": 19671, "\u2581Buff": 22274, "\u2581t\u00e9c": 22658, "empor": 9059, "pointer": 17226, "\u2581sen": 6940, "\u653f": 31014, "n\u00e9": 5483, "\u2581defines": 17645, "\u2581authentication": 10760, "\u2581experien": 10623, "\u2581bold": 14288, "\u2581legacy": 25000, "at": 271, "LR": 29519, "\u2581experiments": 15729, "equals": 10954, "bn": 11197, "\u6700": 30878, "\u2581Transport": 15710, "\u2581\u00bf": 18613, "athon": 25206, "\u2581\u0410\u0431": 29484, "\u2581Num": 11848, "\u2581Earl": 17169, "\u2581jelent": 23962, "plant": 24389, "sim": 3601, "bled": 27225, "urd": 18245, "agini": 11342, "\u2581cors": 27672, "\u2581virtue": 27935, "\u822a": 31727, "\u2581discussion": 10679, "\u2581secondary": 16723, "\u2581Vent": 21141, "\u2581fallen": 19225, "ifecycle": 22532, "\u2581\u0435\u043c\u0443": 22785, "ije": 7253, "mi": 2460, "xxx": 12353, "igs": 23379, "Validator": 24204, "\u0127": 30924, "px": 1756, "\u2581node": 2943, "\u2581absor": 17977, "anya": 20912, "\u2581computers": 23226, "\u2581seconde": 26617, "\u2581Praha": 25689, "oe": 7297, "\u2581Pse": 17646, "\u2581start": 1369, "dependencies": 22594, "\u0e37": 31422, "\u017f": 30473, "ie": 347, "\u2581linea": 26241, "\u2581Bureau": 18903, "\u2581b": 289, "\u8d25": 31955, "\u2581Ark": 19444, "\u2581consumer": 21691, "\u2581likely": 5517, "gener": 4738, "ClickListener": 11676, "\u2581\u010d": 3413, "rible": 11710, "\u2581ara": 24418, "once": 10646, "uelle": 13498, "\u2581Down": 9943, "\u4ecb": 31633, "BO": 8456, "\u2581few": 2846, "\u2581Ear": 5290, "Upload": 17553, "\u2581simplify": 21092, "\u2581expand": 7985, "\u6d41": 31151, "\u2581dwell": 24013, "\u2581Hog": 27675, "\u2581trap": 26505, "\u2581\u00c1": 7260, "Color": 3306, "view": 1493, "\u2581fair": 6534, "bot": 7451, "\u2581partners": 22056, "Sp": 5592, "\u0441\u0441\u0438\u0439": 14833, "agine": 22094, "yntax": 4217, "Upper": 26214, "usb": 28685, "\u030d": 31891, "\u2581motiv": 17385, "\u043a\u0456": 5788, "Output": 6466, "kten": 9553, "\u2581Barry": 23032, "\u0250": 30628, "\u2581async": 7465, "\u2581%.": 18695, "\u0d15": 30385, "\u2581whether": 3692, "fade": 21675, "\u7ba1": 31624, "\u2581originale": 12934, "\u2581lok": 25194, "Lng": 25852, "lation": 18411, "\u2581If": 960, "entially": 9247, "usable": 27979, "\u2581Exception": 8960, "\u2581Of": 4587, "orf": 4877, "fection": 20309, "berg": 2552, "Relative": 18278, "\u0932": 30603, "\u2581Club": 5977, "\u2581\u0441\u0430\u0439\u0442\u0456": 20568, "\u2581parliament": 22765, "\u2581depth": 10809, "\u2581cla": 3711, "\u2581Every": 7569, "\u0441\u0442\u0432\u0435\u043d\u043d\u043e": 22934, "\u0441\u0442\u0432\u0435\u043d\u043d\u043e\u0433\u043e": 20632, "\u2581Password": 25280, "\u2581algunas": 27228, "\u2581Yang": 27583, "\u0440\u043e\u043c\u0430": 16971, "\u2581Zak": 27416, "begin": 463, "<0xDD>": 224, "ista": 2079, "aban": 10910, "\u2581skup": 19349, "\u2581abit": 19709, "chas": 27148, "liqu": 28378, "ichi": 18544, "\u2581Mill": 8649, "\u2581ja": 12337, "\u6c49": 31593, "itors": 17259, "atri": 25054, "\u0bbf": 30781, "eor": 22241, "`),": 19775, "\u82f1": 31144, "\u2581CPU": 10808, "enable": 12007, "does": 13221, "\u0441\u043f\u0435": 16966, "\u2581Spirit": 20799, "\u2581divisions": 25884, "Trigger": 20211, "\u2581Friend": 20702, "IME": 8890, "Handle": 13554, "\u2581err": 4589, "\u2581Ric": 13675, "\u4ece": 31594, "\u2581dort": 11529, "\u2581cap": 2117, "ptember": 3266, "avas": 2449, "\u2581infinite": 10362, "ote": 866, "\u2581Bos": 10211, "\u2581Private": 12230, "\u2581\u00a3": 15151, "\u2581multimedia": 19004, "\u2581overrid": 20831, "a": 29874, "\u2581estos": 21010, "ppets": 27421, "\u2581females": 24473, "\u2581classification": 12965, "\u2581mens": 18664, "\u2581hence": 8151, "\u2581unnecessary": 19039, "mpeg": 20856, "eston": 21496, "iveau": 16443, "orphism": 28611, "stein": 5465, "\u2581during": 2645, "\u2581Tourn": 23720, "\u2581accord": 15017, "\u2581sche": 21014, "\u304b": 30412, "inder": 4995, "\u5b97": 31296, "\u2581salt": 15795, "\u2581encore": 10440, "\u0440\u0443": 1086, "iny": 4901, "\u2581terrible": 16403, "\u2581eq": 11594, "\u2581exclaimed": 17463, "\u043c\u0435\u0441\u0442": 27192, "Children": 19334, "\u2581instit": 25444, "\u2581\u00f6": 3963, "opol": 13242, "iled": 2356, "\u2581cluster": 9867, "\u2581Dol": 11201, "rument": 15461, "\u2581milieu": 22591, "\u2581LIM": 26890, "\u2581asi": 28278, "\u0434\u0440\u0430": 17955, "\u00ef": 30085, "\u2581IB": 15731, "\u2581(**": 28492, "\u2581\u0438\u0445": 11244, "\u2581Mechan": 27439, "iveness": 20193, "\u00edo": 9393, "\u0443\u0440": 5179, "\u2581Vors": 24112, "\u2581patterns": 15038, "\u00e9tr": 18949, "\u2581vital": 27131, "ama": 3304, "inta": 15073, "unic": 2523, "sk\u00fd": 13012, "\u2581tyl": 28918, "uler": 8584, "\u2581more": 901, "\u2581Vue": 22518, "}^{(": 14810, "\u2581Balt": 16834, "\u0441\u0442\u0432\u043e": 3501, "\u2581feder": 12067, "\u2581prisoner": 27314, "\u2581meteor": 27647, "\u2581\u0422\u0430\u043a\u0436\u0435": 27938, "oses": 15806, "ately": 2486, "ful": 1319, "\u2581Southern": 14234, "\u2581Frid": 23706, "imos": 18594, "ke": 446, "\u2581dataframe": 12205, "\u2581mari": 15182, "\u0152": 30225, "\u2581Mail": 18623, "\u2581audio": 10348, "\u2581factors": 13879, "DataSource": 15559, "\u6807": 31062, "\u975e": 31838, "st\u00e4nd": 11503, "\u2581Rechts": 21165, "\u2581conquist": 25188, "\u0dc0": 31918, "\u2581internationale": 20110, "Down": 6767, "\u0442\u0430\u0445": 15632, "\u2581Up": 5020, "\u2581cultural": 16375, "Pixel": 29637, "\u0445\u0456": 22177, "PF": 13691, "\u2581provision": 25161, "\u2581Jed": 18847, "Table": 3562, "\u2581Chal": 27598, "\u2581Kr": 7365, "\u2581Ny": 16693, "prise": 7734, "\u2581L\u00e9": 16306, "ilst": 16613, "\u30c0": 30617, "\u2581episodes": 23238, "\u2581professional": 10257, "not": 1333, "\u5802": 31338, "bose": 15828, "nofollow": 4043, "\u2581neces": 16632, "\u2581paint": 10675, "\u0442\u0442\u044f": 13314, "\u2581agricult": 18032, "nonumber": 13621, "ogram": 13342, "\u2581Victor": 12684, "\u2581Hop": 20727, "\u2581\u043e\u0440\u0438": 19974, "\u2581Vo": 4785, "\u2581baron": 25946, "\u2581\u044d\u043b\u0435\u043a\u0442": 22876, "vity": 17037, "liches": 20048, "\u2581triggers": 23660, "\u2581faced": 20050, "aring": 4362, "\u2581kle": 8188, "verte": 25996, "\u2581meeting": 11781, "ensemble": 24031, "\u0442\u043e\u0440\u043e\u043c": 28359, "erson": 1330, "undle": 4730, "\u043a\u0430\u043d": 6244, "Class": 2385, "\u2581available": 3625, "urn": 595, "\u2581Some": 3834, "val": 791, "\u2581estado": 12082, "\u4ee5": 30651, "rer": 2872, "\u2581allem": 11034, "\u2581terminal": 8638, "havior": 16300, "\u2581Gol": 20268, "\u2581{@": 26633, "\u2581etc": 2992, "\u2581modify": 6623, "\u2581European": 7824, "rial": 9315, "\u2581League": 5165, "\u2581Lyn": 18989, "\u2581Support": 18601, "arma": 22824, "\u0440\u0438\u0442": 28717, "\u2581Row": 11438, "\u0093": 30344, "allas": 15892, "\u2581proport": 12098, "\u2581.=": 16295, "\u00bf": 30158, "\u2581ihr": 5351, "\u2581\u00f6ff": 22113, "cription": 3395, "$\\": 4535, "\u2581sz\u00f3": 27025, "\u2581\u00a1": 28534, "\u2581MM": 28880, "pd": 15926, "UST": 17321, "gradient": 24970, "\u2581dispute": 28447, "\u2581Division": 7946, "Callback": 10717, "\u2581\u0442\u0438\u0442\u0443": 27125, "\u2581Sieg": 23494, "\u2581fas": 25995, "\u0bae": 30930, "Cr": 20647, "\u2581Jules": 27151, "\u2581Holz": 26211, "\u2581switched": 26263, "()\"": 25318, "\u2581verse": 23281, "^^": 16672, "\u2581semif": 27632, "\u2581finds": 14061, "expr": 13338, "\u2581Stanley": 21631, "\u2581Did": 7440, "\u2581algorithm": 5687, "\u65ad": 31683, "odu": 20192, "udio": 2881, "\u2581conjug": 25482, "\u2581practical": 15031, "\u094b": 30799, "\uc2e0": 31262, "\u2581trakten": 18328, "\u0445\u043e\u0434\u0438\u0442": 13580, "ritt": 12123, "idd": 2205, "\u2581viele": 22390, "\u2581Junior": 15897, "ograph": 1946, "beeld": 26366, "\u2581cuales": 28276, "\u2581top": 2246, "PO": 13152, "\u2581Authentication": 27241, "\u2581\u0444": 1606, "\u2581First": 3824, "\u00e4tz": 20869, "Win": 17734, "\u2581Hinweis": 18627, "\u0303": 30478, "band": 4980, "\u2581!": 1738, "\u2581dip": 28191, "add": 1202, "\u2581tip": 6872, "\u2581Store": 14491, "where": 3062, "\u2581Awards": 9220, "STATUS": 27047, "\u2581\u0432\u043f\u0435\u0440": 26519, "OD": 13668, "\u2581Tang": 27378, "\uc8fc": 30981, "\ub0a8": 31754, "\u5289": 31792, "\u2581tiempo": 13924, "\u2581Intel": 18555, "\u0442\u043e\u043c\u0443": 23356, "\u2581Vog": 20797, "\u00fan": 7012, "\u2581horn": 25341, "\u2581Storage": 26162, "seen": 28026, "\u2581evaluate": 14707, "uk": 2679, "\u2581metadata": 15562, "\u2581entertain": 22684, "ymi": 18653, "itaire": 9407, "\u2581toward": 11183, "\u2581Articles": 12952, "ip": 666, "maz": 16986, "\u2581govern": 4095, "\u2581versus": 23797, "lichen": 4057, "\u2581Baby": 26835, "iana": 3857, "\u2581Vict": 7229, "\u2581configurations": 22920, "\u2581\u0447\u0435\u0440": 13392, "\u2581cam": 3949, "\u2581Campe": 13592, ".\"": 1213, "\u2581teeth": 25287, "\u2581\u041a\u0438\u0457\u0432": 27452, "\u2581Fo": 28532, "inf": 7192, "logger": 21707, "\u0635": 30360, "\u2581mixing": 24907, "\u2581struct": 2281, "\u2581przez": 7559, "\u2581comple": 1614, "\u2581Nr": 11100, "\u043b\u044c\u0442\u0430": 11332, "\u2581passing": 6819, "\u2581\u043f\u0430\u0440": 7596, "\u2581Rel": 6376, "\u2581Screen": 22666, "inction": 16807, "azzo": 16594, "\u2581links": 2988, "\u2581produces": 13880, "\u8eab": 31687, "\u2581#(": 27355, "\u2581eine": 2128, "ategories": 14404, "\u2581sampling": 23460, "\u0438\u043b": 17883, "\u2581pert": 13499, "\u2581\u0441\u0440\u0435\u0434\u0438": 19927, "\u00e9al": 21659, "\u0432\u0430\u044f": 17423, "ourd": 14069, "\u2581Kreuz": 24393, "ER": 1001, "pom": 29533, "\u2581\u0448\u043a\u043e\u043b\u0430": 28231, "\u2581\u0432\u044b\u043f\u043e\u043b": 27056, "enum": 18605, "\u2581geboren": 24617, "ifa": 26056, "\u2581stop": 5040, "\u2581bu": 1321, "hard": 6800, "\u0432\u0430\u0442": 12993, "Invoke": 20731, "\u2581perl": 21185, "\u2581None": 6213, "rib": 1091, "putation": 14584, "\u2581\u0441\u043e\u0432": 6470, "\u00e7": 30019, "\u2581ven": 6003, "\u2581son": 1487, "\u2581Institute": 8907, "\u2581Sammlung": 10979, "\u2581client": 3132, "aille": 8284, "asset": 24129, "](/": 26909, "ffe": 17615, "\u5df4": 31885, "htt": 691, "ired": 2859, "$_": 14630, "\u2581surr": 8388, "imi": 10233, "\u9f99": 31300, "\u2581jours": 16283, "\u2581classical": 14499, "\u00e9r\u00e9": 16555, "\u2581purchased": 20848, "citep": 10001, "Static": 17046, "\u2581Raf": 17881, "\u2581profit": 21665, "\u2581Graham": 22196, "\u2581metros": 24086, "\u2581ci": 4583, "native": 11487, "Vor": 14147, "\u2581Hmm": 28756, "\u5c14": 31814, "\u2581Music": 6125, "\u2581catal": 17246, "\u2581sufficient": 8002, "\u2581RE": 5195, "numerable": 14068, "\u2581traject": 23324, "\u2581die": 762, "widet": 10588, "\u2581reve": 10320, "\u2581sudden": 8327, "\u044b\u0439": 11767, "\u2581networks": 14379, "\u2581Lane": 23841, "onden": 16043, "ories": 3842, "getText": 18516, "\u2581\u043e\u0431\u0449\u0438": 24761, "\u0441\u043a\u043e\u043c\u0443": 18976, "\u2581wrest": 24613, "\u2581Taiwan": 27807, "icum": 29381, "\u65e0": 31352, "\u2581\u041e\u0441": 11274, "\u2581organ": 2894, "mvc": 12943, "\u2581tren": 20639, "\u2581extraordinary": 28163, "acters": 21706, "\u2581beste": 11772, "utions": 17925, "\u2581wojew": 22949, "metro": 27995, "domain": 7247, "\u2581proportion": 18618, "\u2581a": 263, "developer": 6734, "\u2581\u0434\u0443": 9023, "richtung": 27022, "\u2581{": 426, "frent": 27380, "\u0447\u0451\u0442": 28651, "\u2581Dam": 9865, "\u2581Emma": 26422, "gebracht": 28713, "\u2581UIView": 25909, "\u2581Harris": 20349, "\u2581kommen": 28171, "viron": 3024, "emph": 7278, "\u2581every": 1432, "\u2581Mold": 27140, "\u00f6d": 9289, "itto": 20435, "\u2581Duke": 13484, "sime": 27566, "adt": 3590, "icana": 12679, "\u2581\u0441\u0435\u0432\u0435\u0440\u043e": 28113, "\u2581\u043e\u043a\u043e\u043b\u043e": 17244, ",(": 22657, "temps": 27761, "selves": 5210, "mysqli": 23727, "\u793a": 30858, "\u2581sud": 5053, "\u2581\u041f\u0456\u0441\u043b\u044f": 25563, "\u2581listed": 9904, "\u7ea2": 31869, "\u179f": 31708, "\u2581collaboration": 24771, "\u2581\u0456": 1905, "\u0412": 30012, "\u2581\u0431\u0440\u043e": 12441, "imeter": 14772, "uld": 16722, "\u2581\u0424\u0438": 13038, "\u2581\u0443\u0447\u0451": 29529, "Status": 5709, "\u2581\u0433\u043b\u0430\u0432": 13986, "idense": 16647, "\u2581injection": 20859, "\u2581surprise": 16671, "\u015b": 30045, "\u2581Pl": 1858, "\u2581lear": 24298, "\uc740": 31354, "\u2581Aug": 22333, "<0xEA>": 237, "\u2581($": 3255, "\u2581expressions": 12241, "\u2581\"\"\"": 9995, "lament": 12598, "\u2581BR": 25185, "ference": 1659, "atrice": 17417, "\u793e": 30564, "\u2581pr\u00e9": 7175, "\u2581Bereich": 25405, "\u2581Ver": 1798, "\u2581Fail": 29098, "\u2581nederb\u00f6rd": 17299, "Total": 11536, "\u00c9": 30062, "\u2581SV": 13955, "WN": 16048, "\u2581improvement": 20414, "\u00c7": 30219, "\u2581Italien": 23977, "read": 949, "ansen": 29401, "\u6d1e": 31886, "ivity": 2068, "FA": 4519, "\u2581guer": 6109, "\u2581dv": 14897, "\u2581Gib": 15347, "\u2581diction": 21503, "ihe": 18019, "manuel": 22670, "\u2581chief": 9087, "ener": 759, "\u2581Mare": 21678, "\u2581remove": 3349, "\u2581vesc": 28293, "\u8981": 30698, "\u2581In": 512, "\u0441\u0442\u0430\u043d\u043e\u0432": 10704, "\u2581Feld": 21113, "ye": 4099, "\u2581\u0413\u0435": 8215, "\u2581Mut": 20749, "<0x5D>": 96, "rea": 5638, "\u00f7": 30646, "\u2581Z": 796, "\u2581walk": 6686, "\u2581early": 4688, "\u2581Kar": 3467, "images": 8346, "\u2581rh": 18178, "anned": 11310, "flutter": 20126, "\u2581Online": 13542, "Wrapper": 15646, "gt": 4141, "\u2581advantages": 25486, "okal": 14599, "ieck": 16776, "\u2581Mart\u00ednez": 29480, "ted": 9446, "\u2581Orient": 29650, "\u2581pro": 410, "\u2581exchange": 14523, "\u2581textbox": 18932, "\u2581<": 529, "\u2581ersch": 14501, "\u2581erfolgte": 23982, "\u2581Gef": 15759, "Cur": 23902, "\u2581(@": 20164, "\u2581Ur": 8918, "pect": 1103, "\u2581focused": 21309, "\u2581Leon": 10255, "\u2581until": 2745, "\u2581estat": 21565, "ner": 1089, "\u2581Customer": 21886, "\u00f6g": 6922, "\u2581CREATE": 14602, "\u2581sculpt": 17039, "\u2581constantly": 21003, "\u2581$('.": 12721, "\u00e8res": 5908, "\").": 2564, "\u2581Was": 12547, "\u266d": 30771, "\u3070": 31254, "\u2581hoped": 24936, "\u2581capacity": 13284, "\u2581concluded": 22834, "\u2581firing": 25948, "\u2581quien": 14310, "\u2581em": 953, "\u2581Gree": 18438, "Tw": 27418, "chte": 10948, "\u2581Fish": 12030, "\u2581./": 11431, "\u2581generale": 21221, "\u2581personne": 26744, "\u2581mes": 4883, "\u2581officially": 22444, "\u2581optimized": 27545, "\u2581zip": 14319, "\u2581sni": 9830, "amental": 11491, "\u2581blind": 16842, "\u2581assets": 21608, "\u2581Sch": 1102, "\u2581POST": 11971, "\u2581terme": 20689, "\u2581Grande": 12848, "atherine": 16490, "ppa": 13410, "textbf": 4534, "\u2581DI": 22471, "\u0434\u0435\u043b\u0438": 23890, "architecture": 25428, "\u2581aw": 3773, "illy": 9403, "\u2581religios": 20187, "\u2581Output": 10604, "LIN": 23714, "\u2581second": 1473, "\u043d\u0435\u0439": 8150, "\u2581oppon": 23995, "\u2581\u0441\u0442\u0435": 14296, "\u2212": 30120, "vier": 7214, "\u2581Identifier": 20286, "chart": 15425, "\u2581\u0432\u043c\u0435": 17989, "\u2581\u0437\u0430\u043f\u0430": 28417, "\u6b62": 31981, "\u2581curiosity": 27742, "\u2581Baseball": 23185, "\u2581problema": 21655, "pository": 7036, "\u2581responsible": 14040, "chestra": 15554, "fix": 5878, "\u2581\u043f\u043e\u0431\u0435": 15393, "\u2581(": 313, "\u2581conscious": 19861, "ief": 2575, "\u2581Sid": 19732, "\u2581physical": 9128, "soci": 2839, "][": 3816, "dig": 7501, "\u2581Chi": 18168, "dimen": 24702, "ft": 615, "achine": 2945, "jekte": 29390, "\u2581featuring": 23425, "\u2581\u0440\u0430\u0439\u043e": 9328, "\u2581fic": 22959, "\u2581Zob": 26455, "oco": 6235, "\u2581trade": 11302, "\u2581PM": 11278, "iring": 8491, "r\u00ed": 19177, "\u2581f\u00e5": 28105, "\u2581diff\u00e9rentes": 28374, "\u306e": 30199, "Gr": 3338, "inate": 16976, "\u2581Bened": 20265, "\u2581\u043c\u043d\u043e\u0433\u0438": 23571, "\u2581bus": 3593, "\u0441\u043b\u0435": 3280, "\u043d\u043e": 570, "Alert": 16649, "\u2581\u041d\u0430": 2372, "\u2581Cold": 26731, "\u2581positions": 11909, "({\\": 13670, "\u2581Cap": 5915, "\u2581\u0412\u0441\u0435": 16494, "copy": 8552, "!!!": 21004, "\u2581\u0432\u0456\u0434\u043e": 23037, "H": 29950, "\u2581strong": 4549, "\u2581Know": 19320, "\u2581\u015bwiata": 29085, "\u179a": 31567, "ank": 804, "oted": 5715, "\u7814": 31367, "\u2581Sept": 28742, "\u017ce": 6301, "\u2550\u2550": 13648, "\u2581Manchester": 19659, "tech": 11345, "\u2581supports": 11286, "\u2581hely": 14827, "etes": 10778, "\u2581Mol": 10750, "imas": 25268, "\u2581Neil": 29334, "\u00c4": 30125, "\u2581domin": 8022, "\u6c60": 31853, "Internal": 16491, "\u0448\u0438\u043d": 15902, "\u2581Tw": 8168, "\u2581rang": 19120, "y": 29891, "\u2581meg": 4508, "\u2581Arr": 25681, "\u2581repr": 2062, "('": 877, "\u2581alive": 18758, "cza": 28849, "\u2581recursive": 16732, "::": 1057, "\u00e9tica": 24142, "\u2581ciel": 24850, "neum": 29765, "imoine": 26052, "<0x0F>": 18, "tu": 9161, "\u2581please": 3113, "\u2581children": 4344, "\u2581Heidel": 27300, "odn": 22452, "\u2581art": 1616, "enn": 2108, "\u2581evalu": 6161, "\u2581config": 2295, "\u2581diferentes": 20506, "\u2581Distribution": 17740, "\u2581\u0441\u043e\u043e\u0431": 25032, "bi": 5365, "\u2581Turn": 9603, "footnote": 20273, "\ub77c": 31197, "\u2581Basic": 19219, "\u0142ow": 19770, "fang": 11363, "\u2581Zweiten": 24149, "ardon": 20342, "\u2581Tournament": 29427, "Illustration": 12614, "ECT": 13845, "\u2581feu": 20491, "\u2581trans": 1301, "\u2581website": 4700, "\u2581gebru": 16685, "\u2581conten": 16962, "\u2581\u0443\u0441\u043f\u0435": 19823, "\u2581Emp": 7361, "\u2581narr": 15474, "\u2581Buen": 15463, "special": 18732, "\u2581Demo": 27819, "\u2581\u0445\u043e\u0437\u044f\u0439": 29232, "OP": 4590, "\u2581\u0441\u0432\u043e\u0438\u0445": 29614, "\u4eee": 31910, "er": 261, "animate": 20131, "\u2581SI": 22717, "cile": 21873, "@": 29992, "\u2581maxim": 5256, "pers": 6774, "\u2581Michel": 12255, "clone": 16513, "\u2581\u0441\u0435\u0437\u043e": 20366, "DEFAULT": 23397, "\u2581\u043e\u0434\u0438\u043d": 15515, "\u2581act": 1044, "\");": 1496, "plotlib": 17357, "\u2581do": 437, "\u0434\u043e\u043d": 19096, "yna": 18477, "\u0433\u043e\u0432": 9319, "\u2581Professional": 20031, "isk": 3873, "hspace": 14158, "\u2581fix": 2329, "\u2581\u043a\u043e\u043c\u043f\u0430": 16944, "\u2581elif": 25342, "gable": 29531, "find": 2886, "hbox": 21368, "strong": 1110, "\u2581Staat": 21516, "\u041a": 30014, "tn": 6277, "\u2581graf": 22956, "\uc9c0": 30811, "Bind": 15708, "\u2581Test": 4321, "\u2581nobody": 23196, "\u2581Wrestling": 21815, "\u2581recent": 7786, "\u2581Arab": 10387, "Problem": 26604, "Fr": 14438, "\u1e43": 31019, "nect": 4793, "\u2581IO": 10663, "\u2581Algorithm": 29068, "\u2581Either": 20370, "\u0440\u0438\u0438": 5887, "\u2581schemes": 27715, "Proc": 27893, "\u2581wish": 6398, "\u2581Disc": 8565, "\u2581runs": 6057, "\u2581Nue": 13965, "linear": 10660, "\u2581student": 8368, "\u2581Carol": 8562, "mit": 2415, "\u2581Isabel": 16543, "\u2581forget": 9566, "\u2581cz\u0119\u015bci": 24177, "\u2581railway": 14113, "\u2581guest": 17838, "\u2581betre": 29598, "\u09a4": 31150, "\u2581checking": 8454, "\u2581dou": 4662, "\u2581Sweden": 24506, "hm": 7184, "\u2581cit": 7537, ");\r": 6075, "Language": 21233, "\u2581ca": 5777, "ltre": 18591, "location": 5479, "tero": 24175, "ingu": 6202, "zu": 6951, "\u2581Minn": 17988, "percent": 25376, "\u2581objet": 13413, "6": 29953, "ny": 1460, "effect": 15987, "\u043a\u0440\u043e": 25041, "\u2581\u0434\u0438\u0440\u0435": 20174, "\u2581praw": 20467, "\u2581veg": 12461, "\u2581Historic": 17939, "\u2581resolved": 11527, "\u2581generated": 5759, "\u0627": 30112, "f\u00e9rences": 8191, "\u2581\u0436\u043e\u0432": 20798, "UES": 12996, "<0x94>": 151, "part": 1595, "\u5408": 30733, "FLA": 18823, "pec": 3135, "\u2581monitor": 11819, "\u2581\u0434\u0435\u043d\u044c": 22763, "\u10e4": 31978, "\u2581\u043f\u0440\u043e\u0433\u0440\u0430\u043c": 20796, "\u2581posted": 8059, "valu": 4387, "\u2581Data": 3630, "\u2581\u043e\u0442\u0434\u0435": 22362, "addr": 10030, "cially": 5584, "\u2581True": 5852, "OutputStream": 16764, "\u2087": 30284, "SERVER": 18603, "oma": 4125, "\u2581$$\\": 6118, "integration": 27925, "\u2581dawn": 27470, "\u2581(?": 22308, "\u2581roku": 4042, "lesia": 17516, "tres": 5888, "\u2581sequence": 5665, "\u2581contained": 11122, "help": 8477, "sem": 12846, "\u2581\u0440\u0430\u0434\u0438": 14898, "\u2581Hugh": 15888, "dependent": 18980, "\u2581Ress": 12167, "\u2581opt": 3523, "\u2581///": 4363, "\u2581SUM": 22753, "LayoutParams": 26476, "\u673a": 31429, "\u2581False": 7700, "\u2581appearance": 10097, "\u2581deren": 15286, "\u2581publi\u00e9": 28884, "Arguments": 26915, "\u2581sacr": 19886, "\u2581styles": 11949, "ziale": 28351, "\u2581sentences": 25260, "\u2581Shaw": 28548, "schule": 15361, "\u2581honest": 15993, "inal": 979, "typ": 22449, "\u2581Este": 12723, "DIS": 23711, "amm": 4850, "\u2581Xcode": 19050, "aniu": 18467, "\u2581convenient": 19192, "\u2581Luc": 10315, "icane": 26655, "hens": 26791, "\u0433\u0438": 1892, "\u0928": 30424, "\u2581ownership": 27428, "\u2581conserv": 8976, "\u2581yes": 4874, "\u2581Final": 9550, "\u2581Biographie": 9762, "\u2581nombreuses": 25226, "Atlas": 27753, "\u00e1val": 19147, "\u2581Libert": 25421, "\u043b\u043e\u0441\u044c": 8641, "\u2581Liga": 9180, "\u97f3": 30941, "\u043d\u0438\u0442\u0435": 12897, "\u2581leaving": 10124, "\u2581Band": 5158, "anal": 7054, "\u043f\u0440\u0438": 7104, "iels": 28119, "\u0432\u0438\u0430": 21252, "\u2581lim": 2485, "bucket": 21454, "tele": 15494, "\u2581auc": 20480, "\u2581th\u00e9\u00e2tre": 25574, "\u2581devil": 29754, "\u2581Institution": 28218, "\u2581Sans": 27677, "\u2581poz": 14079, "\u2581applying": 15399, "MON": 22877, "istol": 19639, "If": 3644, "ince": 1239, "\u2581s": 269, "\u2581Disney": 17944, "local": 2997, "\u1fe6": 30699, "ampion": 3103, "\u2581bo": 1045, "\")": 1159, "\u2581\u0432\u043b\u0430": 8672, "\u2581created": 2825, "area": 6203, "ei": 10096, "\u4e1c": 30979, "\u2581pending": 28235, "\u2581fast": 5172, "\u2581manually": 7522, "\u2581scroll": 6355, "\u2581manner": 8214, "emos": 29629, "\u2581loved": 18012, "\u2581centrale": 20757, "\u2581ssl": 24250, "utable": 9246, "encoded": 26716, "\u00edt\u00e1s": 18223, "<0x03>": 6, "\u2581specify": 6084, "\u2581${\\": 7555, "\u2581Mannschaft": 21404, "\u2581thin": 16835, "<0x56>": 89, "\u2581Series": 10488, "illing": 8873, "\u2581introduction": 18707, "acyj": 21469, "\u2581lying": 19214, "\u2581loss": 6410, "\u2581couple": 7303, "dic": 27774, "ternoon": 16691, "LENG": 19271, "\u2581flu": 20501, "\u2581Brigade": 23896, "\u2581appeal": 25530, "\u2581tone": 16225, "NEW": 28577, "\u2581Unity": 20872, "\u01ce": 30359, "\u2581\u043a\u0440\u0435": 15798, "bl": 2204, "v\u00e4": 10424, "inkel": 27136, "\u2581aantal": 25130, "\u0440\u043e\u0431": 11945, "-------": 26589, "ichten": 12285, "ements": 4110, "uint": 13470, "\u2581Ever": 18274, "iva": 4244, "\u2581Cost": 9839, "\u2581Revolution": 14595, "att": 1131, "\u2581lid": 17343, "\u2581{\r": 3336, "unas": 17496, "\u89aa": 31698, "inge": 19144, "itt": 986, "ialize": 6646, "\u2581annotations": 25495, "\u2581Maurice": 18938, "\u2581Cass": 13088, "osos": 24485, "\u2581eer": 6380, "\u2581\u0433\u043e\u0434\u0443": 3294, "icted": 18186, "\u2581unsigned": 12780, "\u2581sizeof": 13810, "\u2581aut": 1120, "\u2581Imp": 14305, "\u2581Creative": 26635, "\u2581parse": 6088, "pport": 3016, "\u2581Pedro": 13286, "\u2581rap": 14937, "\u2581*)": 4748, "\u2581\u043d\u0430\u0441\u0435\u0459\u0435": 14503, "extension": 17588, "board": 3377, "Agent": 19661, "\u2581Om": 13352, "lied": 2957, "\u0432\u0435\u0442": 7616, "Touch": 15852, "\u2581Shared": 21236, "\u6280": 31615, "pmatrix": 12571, "\u2581returns": 3639, ".\",": 19602, "\u2581Grace": 23350, "\u2581\u015awi": 29283, "ik": 638, "\u6309": 31590, "\u2581Kom": 7107, "IGHT": 22530, "\u2581r\u00e9sz": 21931, "');": 2157, "\u2581scales": 23431, "\u2581sechs": 23320, "\u696d": 31564, "\u2581Short": 13899, "UTF": 10496, "\u2581What": 1724, "\u0446\u0435\u043c": 26923, "\u2581num": 954, "Aut": 6147, "card": 7543, "&": 29987, "\u2581muss": 23885, "\u2581Syl": 19628, "\u2581Bo": 1952, "ouwd": 26888, "\u2581suiv": 10252, "<0x6B>": 110, "\u2581secured": 26130, "EN": 1430, "\u2581optional": 13136, ":/": 8419, "orious": 23308, "ursor": 5966, "\u2581rich": 8261, "<0x7F>": 130, "/)": 4551, "\u5cf6": 30721, "\u0440\u043e\u043d": 6887, "\u2581hid": 20552, "\u2581'_": 22868, "itants": 15776, "\u2581parts": 5633, "kop": 25139, "elian": 27185, "\u2581feeling": 11223, "\u2581medicine": 26602, "ras": 3417, "ogonal": 23419, "\u2581'<": 12801, "\u2581est": 707, "\u043a\u043b\u0430": 4865, "ep": 1022, "\u2581v\u00e1lto": 25415, "\u0441\u0442": 464, "ble": 569, "\u2581build": 2048, "umph": 19149, "hov": 23294, "\u2581Department": 10317, "\u2581complexity": 13644, "ency": 3819, "\u2581dear": 9425, "\u2581Tal": 10288, "\u2581',": 13420, "\u2581await": 7272, "\u2581boys": 12544, "\u2581implementation": 5314, "\u2581estar": 23673, "este": 4196, "w\u00fcr": 23970, "\u2581da": 1146, "anna": 9713, "\u2581variance": 20162, "\u2581Greg": 12051, "\u2581\u0441\u043a\u043b\u0430\u0434\u0443": 25683, "action": 2467, "enburg": 22284, "\u2581such": 1316, "\u2581Cor": 2994, "destination": 23848, "\u0171": 30089, "\u2581Theatre": 15521, "\u2581beg": 1812, "Intern": 17579, "umer": 4680, "igner": 21216, "uro": 2192, "all": 497, "\u2581voj": 21414, "\u2581\u0421\u0442\u0430\u043d\u043e\u0432\u043d\u0438\u0448\u0442\u0432\u043e": 18044, "\u2581cual": 8351, "ident": 1693, "\u2581personally": 22345, "\u4ee4": 31650, "\u2581retrieved": 27387, "\u2581simulate": 29611, "\u2581experiment": 7639, "\u0418": 30054, "ition": 654, "lish": 1674, "Fin": 12881, "\u00f3m": 15250, "\u2581Ra": 6981, "\u2581utwor": 28085, "prowad": 23447, "INFO": 11690, "asy": 8995, "\u092a": 30621, "\u043a\u043e\u043c\u0443": 21177, "sq": 3044, "\u2581chemical": 22233, "\u2581geb": 5772, "\u2581\u0441\u0430\u043c\u043e": 8761, "amenti": 6533, "\u2581niem": 18300, "\u2581Should": 10575, "aller": 12572, "\u0456\u0440": 15429, "\u2581daily": 14218, "\u2581jewe": 19516, "\u2581javax": 11317, "mittel": 20664, "fast": 11255, "\u2581comfort": 13016, "\u25c4": 30322, "\u2500": 30091, "xmlns": 18295, "%\"": 23577, "\u2581Kingdom": 12626, "SBN": 1977, ")-\\": 23019, "zia": 19822, "\u2581vac": 11757, "\u2581g\u0142": 15505, "\u2581Ess": 11044, "\u2581Bud": 7038, "ala": 2883, "mouse": 15769, "\u2581laquelle": 22025, "Abstract": 9118, "\u2581excellent": 15129, "ered": 14561, "ccion": 22643, "\u25cb": 31236, "\u3000": 30358, "icus": 12473, "\u00e4ter": 8036, "igneur": 22849, "ThreadPool": 23574, "app": 932, "\u2581sistema": 10502, "desc": 14273, "kh": 15339, "\u2581trains": 22983, "\u0142u\u017c": 22952, "\u2581Government": 10354, "\u2581Canadian": 11443, "h": 29882, "ublic": 803, "\u2581Token": 25159, "icip": 12654, "\u00fcr": 1276, "\u2581prez": 26886, "\u2581JS": 7649, "itution": 5008, "\u2581\u043f\u043b\u043e": 11366, "cart": 13823, "\u2581\u0443\u0447\u0435": 18107, "\u2581slice": 22780, "',": 742, "\u2581Kin": 20311, "\u2581banks": 24388, "\u2581kiss": 20057, "\u2581why": 2020, "nx": 23818, "\u2581Pol": 2043, ":\"": 6160, "\u2581\u0440\u0430\u0439\u043e\u043d": 12518, "\u535a": 31196, "\u2581\u0441\u0430\u0432\u0435\u0437\u043d\u043e\u0458": 18051, "CN": 13778, "\u5740": 31702, "\u2581cancel": 12611, "\u2581\u0443\u043d\u0456": 25377, "ado": 912, "\u2581\u0440\u043e\u0441": 21315, "pdf": 5140, "\u2581partially": 22039, "\u2581familjen": 7172, "\u2581zar": 21370, "\u2581cri": 14783, "\u2581Ult": 18514, "sig": 18816, "\u2581wx": 26437, "\u2581\u0424\u0435\u0434\u0435\u0440\u0430\u0446\u0438\u0438": 29343, "\u2581length": 3309, "rice": 11674, "ishes": 17006, "\u2581committed": 19355, "\u017eit": 20882, "\u2581\u0151": 22294, "\u2581asc": 12066, ")?": 6877, "\u2581Calendar": 26431, "\u2581marry": 20479, "\u2581\u00e9g": 7779, "\u2581folgenden": 24245, "\u2581Robert": 4755, "\u2581niet": 7499, "names": 7039, "esterday": 18358, "Setter": 22304, "\u2581programmer": 27922, "radio": 13399, "\u2581Cub": 28618, "\u2581p\u00f3\u0142noc": 28158, "\u2581p": 282, "\u2581\u0432\u043a\u043b\u044e\u0447\u0430": 20352, "\u2581neural": 19677, "\u00e4tter": 29118, "Dialog": 7647, "\u2581mask": 11105, "dzia\u0142": 25328, "\u2581Marina": 27169, "atia": 28752, "\u1edb": 31280, "sprech": 28562, "\u2581desc": 5153, "i\u00f3n": 3175, "\u2581Washington": 7660, "\u2581\u0412\u043b\u0430": 12505, "\u2581Rou": 15915, "\u2581W\u00fcr": 21241, "\u2581Suppose": 12142, "aska": 16191, "ipp": 8377, "\u0430\u043d\u0430": 14611, "\u2581\u043d\u0430\u0438": 25015, "\u8a18": 31049, "ism": 1608, "Dis": 4205, "\u2581ciudad": 9866, "colo": 10965, "\u2581Vic": 13423, "ioni": 3688, "\u011a": 31799, "\u2581afin": 18934, "Alt": 24528, "\u2581dels": 7195, "\u2581Mais": 11948, "\u2581benef": 7795, "\u2581Zu": 13893, "urent": 24811, "session": 7924, "iel": 709, "\u2581pr\u00fc": 20288, "\u2581consisted": 24775, "arf": 29293, "cut": 7582, "ether": 1979, "\u2581exactly": 3721, "\u2581Grid": 11657, "\u2581tied": 21351, "\u0432\u043e": 984, "\u2581removing": 11077, "\u2581marks": 17997, "Height": 7011, "')`": 21434, "\u2581\u043d\u0435\u043a\u043e": 17379, "mont": 14132, "\u2581befindet": 16960, "\u0431\u043e\u0440\u0430": 23243, "Json": 8148, "\u2581Creek": 15594, "\u2581sql": 4576, "endif": 15224, "<>();": 27258, "quality": 29567, "ra": 336, "\u2581planning": 18987, "rapper": 6794, "\u2581Wed": 15050, "\u2581historia": 14768, "\u2581Sister": 28088, "otlin": 13961, "thread": 7097, "\u2581Begriffskl\u00e4r": 20716, "edic": 7486, "\u2581transport": 8608, "\u2581partition": 8877, "\u2581reviews": 21804, "\u2581Qu\u00e9bec": 22427, "\u00e4ck": 22429, "\u2581sense": 4060, "kov": 9756, "\u2581perhaps": 6060, "\u2581valu": 17134, "Alignment": 14658, "orn": 1398, "Trace": 11591, "\u2581Firefox": 14418, "Boot": 20967, "\u2581shared": 7258, "\u2581treat": 7539, "\u2581chiesa": 21568, "\u2581Pierre": 9181, "\u2581Tennis": 29010, "\u2581Jane": 10447, "\u2581Gel": 18685, "another": 23327, "\u2581situ\u00e9e": 17689, "\u6dfb": 31538, "\u2581D\u00fcsseld": 26445, "\u0438\u0433\u0440\u0430": 25087, "\u2581\u0440\u0438": 12591, "enis": 16900, "east": 23027, "\u2581Equ": 11243, "\u3055": 30566, "\u85e4": 30804, "\u2581Computer": 20972, "\u2581noch": 5440, "\u2581allow": 2758, "\u2581\\,": 7179, "same": 17642, "CESS": 23524, "\u2581Both": 9134, "\u2581Binary": 29479, "osing": 14556, "\u30ab": 30439, "\u2581archiv\u00e1lva": 27914, "\u2581litt": 15694, "\u2581Bulgar": 29405, "innen": 10190, "RELEASE": 14829, "_{{\\": 24033, "\u2581Buch": 10586, "\u2581\u0410\u043c\u0435\u0440\u0438": 27143, "\u2581miser": 27788, "\u2581crew": 17616, "brit": 26549, "av": 485, "\u2581executes": 24138, "v": 29894, "ending": 2548, "\u2581missing": 4567, ",$": 8209, "\u043e\u0442\u0432\u0435\u0442": 22344, "loor": 10102, "\u2581pela": 10571, "cred": 11944, "\u00f4ne": 21522, "\u0a3e": 31248, "Read": 6359, "\u2581\u043d\u043e\u0440": 28698, "\u2581responsibility": 23134, "riction": 19902, "Un": 2525, "\u2581MVC": 13348, "\u2581District": 7457, "\u4e91": 31784, "otto": 9693, "\u2581esp": 5152, "ictwo": 28223, "\u2581downloading": 28536, "\u2581dependence": 26307, "Using": 15156, "\u2581exist": 1863, ")&": 26927, "\u2581survey": 18994, "*{": 19740, "\u914d": 31361, "hibernate": 12575, "\u2581duch": 29561, "Foo": 14016, "ummy": 11770, "\")]": 13531, "\u2581Loop": 21493, "\u30d7": 30605, "work": 1287, "\u2581\u0447\u0430\u0441\u0442\u044c": 17265, "plates": 9884, "notification": 24671, "\u2581profesor": 28423, "rho": 4650, "\u2581upgrad": 20337, "\u2581Async": 20688, "\u2003": 30363, "cam": 11108, "/\\": 7998, "\u2581AUT": 26524, "\u2581Nether": 22528, "swers": 5956, "W": 29956, "forsch": 28067, "PUT": 12336, "\u2581Define": 22402, "ros": 1883, "ativity": 28157, "\u2581Et": 8748, "emer": 25154, "<0xC3>": 198, "\u2013": 29994, "bone": 15933, "\u2581'''": 14550, "adj": 26859, "\u03cd": 30308, "Th": 1349, "cije": 28383, "public": 3597, "\u2581Daten": 13617, "n\u00e9e": 24697, "\u0ccd": 31623, "\u2581days": 3841, "fetch": 9155, "<0x59>": 92, "ata": 532, "\u2581insp": 8681, "()`](": 23098, "\u00ed": 29983, "\u2581Ka": 13680, "\u2581\u0440\u0435\u0434": 17484, "msg": 7645, "\u53f3": 31803, "\u2581{},": 24335, "ountry": 9729, "\u2581Solo": 29687, "leading": 25369, "agg": 16170, "\u8ad6": 31871, "\u2581dell": 3572, "sample": 11249, "\u2581Egypt": 12892, "\u2581Bedeutung": 22665, "\uac15": 31774, "\u2581border": 5139, "ums": 6762, "\u2560": 30841, "iving": 4357, "\u0432\u0456\u0442": 11703, "\u2581Sky": 16572, "iai": 18754, "\u2581\u043d\u0430\u0437\u044b\u0432\u0430": 23016, "lef": 25874, "Story": 29359, ":-": 13018, "TEXT": 16975, "rock": 20821, "\u0150": 30451, "<0x38>": 59, "\u2581affect": 6602, "\u2581entries": 9976, "\u2581\u0415\u0432\u0440\u043e": 15824, "\u2581positive": 6374, "\u2581Cet": 15018, "mod": 1545, "\u0431\u043e\u0439": 18595, "^-": 21583, "\u043d\u044b": 933, "\u2581veces": 24063, "\u2581Solution": 24380, "\u2581Capt": 8868, "pull": 26746, "\u2581NCAA": 26550, "textrm": 13605, "\u2581structure": 3829, "alion": 20235, "\u2581por": 1277, "alone": 18785, "\u2581resto": 25814, "ican": 2185, "\u2581Lauf": 29208, "\u2581(+": 20532, "erna": 10989, "\u2581tweede": 27460, "\u2581round": 4513, "\u2581rapp": 12468, "\u2581ASCII": 27196, "rightarrow": 5211, "\u0448\u0451\u043b": 21348, "':'": 22099, "\u2581loading": 8363, "\u2581d\u00e1tummal": 23654, "\u2581Zach": 29103, "\u2581An": 530, "\u2581proof": 5296, "ulas": 15173, "\u2581migli": 20379, "\u2581dicembre": 17309, "\u2581Material": 17582, "\u2581continent": 25523, "\u2581eb": 18230, "\u2581aussi": 5695, "\u2581UPDATE": 16924, "\u2581@\"": 12490, "pse": 27358, "\u2581soir": 29627, "igned": 12961, "\u2581$(\"#": 8585, "\u2581Out": 4451, "\u2581global": 5534, "\u2581'/": 8207, "\u2581VALUES": 15673, "series": 13757, "\u2581Ing": 22607, "\u2581industry": 13661, "\u2581referencing": 29371, "\u21d4": 31628, "\u2581archive": 18871, "\u2581referenced": 16180, "\u2581(\"": 4852, "\u05d6": 30776, "u\u00df": 5002, "\u2581suit": 14726, "height": 3545, "art": 442, "\u2581dur": 1411, "icole": 23249, "\u062f": 30172, "\u2581github": 18546, "\u2581Kra": 19387, "erm": 837, "cn": 18038, "\ub3c4": 31136, "\u2581claims": 16726, "\u2248": 30583, "\u2581m\u00e9g": 23645, "history": 18434, "refer": 20275, "\u2581common": 3619, "\u00e1rs": 19596, "\u2581precise": 18378, "\u2581viv": 9364, "\u2581Wald": 17721, "\u2581centro": 13632, "\u00e1j": 15005, "\u2581laugh": 10569, "porte": 13732, "\u2581sword": 22378, "\u2581\u043c\u0435\u0434\u0430": 18922, "\u2581Pro": 1019, "\u2581vie": 6316, "cra": 26844, "\u0441\u0442\u0443\u043f\u0430": 12308, "\u2581<<": 3532, "uch": 987, "\u2581specifically": 10816, "\u2581inline": 10583, "ordinary": 24310, "\u2581radio": 7155, "\u2581learn": 5110, "\u2581preceding": 26328, "\u3082": 30723, "\u2581tested": 9528, "ud": 566, "\u0332": 31097, "enda": 8395, "\u2581enemy": 11103, "\u2581val": 659, "iat": 7163, "ateful": 22279, ":{": 26254, "\u2581\u0434\u0440\u0436\u0430": 11635, "\u2581\u0442\u0440\u0430\u043d": 16663, "\u0432\u0430\u0436\u0430": 29388, "\u2581occasionally": 23025, "\u2581ambos": 27727, "\u2581inhabitants": 19681, "\u2581mand": 9619, "\u2581queries": 9365, "\u2581association": 15477, "\u2581exer": 24472, "icular": 16311, "aps": 2547, "\u2581Dur": 7073, "\u2581Bru": 8135, "spiel": 9671, "related": 12817, "hire": 14812, "acre": 21160, "\u2581foc": 12789, "\u2581slaves": 25569, "\u0441\u0442\u0435\u0439": 25854, "\u0633": 30198, ">{": 26208, "\u2581Argentina": 13798, "\u0f72": 31452, "cur": 2764, "\u2581pd": 10518, "\u2581bulk": 21610, "\u2581costs": 21544, "\u2581v\u0161": 20145, "isson": 17387, "ART": 8322, "\u2581hierarchy": 21277, "\u2581\u0446\u0435\u043d\u0442": 8410, "\u2581rig": 12912, "\u2581l\u00ednea": 23698, "\u2581detail": 9493, "\u2581amplit": 22252, "\u30cf": 30758, "k\u00e9": 10427, "\u0129": 31040, "\u2581Holy": 17733, "\u2581burning": 25535, "\u2581Ob": 4250, "\u2581export": 5609, "ancer": 25856, "\u2581inv\u00e5nare": 17076, "utter": 6463, "\u2581Mouse": 25992, "gypt": 28779, "\u2581Rica": 29750, "initial": 11228, "\u2581quadr": 15448, "Optional": 27636, "\u2581soit": 12852, "kreich": 20870, "\u2581privileges": 28091, "\u2581lingu": 21110, "ebook": 19273, "olean": 4132, "\u2581menos": 17275, "\u2581Albums": 25764, "pecies": 18458, "=\\\"": 14672, "\u2581cent": 1644, "\u0936": 31009, "\u2581efficient": 8543, "\u2581\u043c\u0430\u0442": 12819, "\u2581Great": 7027, "\u2581Martin": 6502, "\u2581considering": 13858, "\u2581\u043d\u043e\u044f\u0431\u0440\u044f": 17121, "\u2581immedi": 5799, "yle": 1508, "\u2581engine": 6012, "\u2581ceased": 24886, "\u2581var": 722, "returns": 18280, "\u2581gouvern": 15306, "endar": 6486, "\u0442\u0438\u0447\u0435": 7166, "emb": 1590, "\u2581februari": 23259, "\u2581Unicode": 23862, "DD": 7858, "gra": 3874, "\u2581additional": 5684, "\u2581contrad": 14250, "\u2581intersection": 17686, "\u2581\u0433\u0443\u0431\u0435\u0440": 19062, "iemann": 23745, "\u2581Comm": 1876, "\u00bc": 30515, "uma": 10859, "\u2581vall": 22044, "\u2581calci": 15835, "\u2581hom": 3632, "\u2581\u043a\u0438": 8094, "dz": 5601, "\u2581dix": 23386, "\u2581play": 1708, "\u2581necess": 3520, "\u2581clean": 5941, "\u2581work": 664, "\u2581Script": 14415, "\u2581hold": 4808, "\u00edch": 18353, "\u2581parlament": 23554, "nja": 26398, "\u2581entity": 7855, "Width": 6110, "\u2581pok": 11293, "ulus": 14999, "\u2581Mak": 17232, "\u0440\u043e\u0432": 2899, "\u2581mus": 2301, "\u2581\u0435": 1694, "\u2581tom": 6454, "\u2581m\u00e9dec": 25974, "\u2581loads": 15376, "dialog": 15901, "\u2581einige": 19774, "\u2581kitchen": 29181, "\u2581form": 883, "\u2581z": 503, "it\u00e4": 17975, "\u062e": 30321, "\u9023": 31692, "column": 4914, "\u2581los": 1232, "scripts": 16713, "BE": 15349, "lijk": 18022, "\u2581pel\u00edcula": 19053, "\u2581\u00e9t\u00e9": 4370, "\u2581cad": 13840, "\u2581recovery": 24205, "\u2581\u0433\u043e\u0441\u0443\u0434\u0430\u0440": 12179, "closed": 15603, "\u2581contrib": 17737, "\u2581proces": 14177, "\u2581Rain": 21431, "\u0442\u0438\u0441\u044f": 29600, "\u015d": 31805, "\u2581Mar": 1085, "cius": 16102, "Fragment": 8752, "\u6587": 30333, "dash": 14592, "<0xCC>": 207, "\u01b0": 30416, "\u039b": 30455, ".;": 8670, "Sam": 22966, "@@": 25380, "\u00e8tes": 21017, "\u09bf": 30786, "\u2581\u0434\u043e\u043b": 11213, "\u2581linux": 10542, "\u2581Entry": 28236, "\u2581vagy": 17023, "ulator": 9183, "\u2581Login": 19130, "rico": 24855, "'},": 16675, "ao": 6241, "\u2581NAT": 26038, "success": 8698, "\u2581retir": 19860, "\"])": 20068, "inners": 16697, "mathrm": 3141, "uur": 13692, "onc": 24746, "\u2581encounter": 11735, "\u2581lista": 15023, "\u2581\"^": 13898, "\u2581sze": 17007, "\u2581\u0441\u0442\u0440\u043e\u0438": 22493, "posed": 4752, "\u2581\u0440\u0430\u0439\u043e\u043d\u0435": 15560, "\u2581forma": 5954, "\u2581kolej": 20236, "circ": 6034, "\u2581wooden": 27278, "nest": 17510, "\u17d2": 31155, "\u0f7a": 31644, "\u2581two": 1023, "Rel": 9662, "\u2581Titel": 16959, "prilis": 27600, "\u1fe5": 31332, "\u2581protein": 26823, "\u2581\u0420\u0435\u0441\u043f\u0443\u0431\u043b\u0438": 21087, "\u2581crypt": 24941, "uments": 9331, "\u2153": 31690, "\u2581neue": 16828, "\u2581maja": 25116, "\u043f\u0438\u0441\u043a\u043e": 20625, "\uacf5": 31334, "\u2581\u0444\u0430": 6725, "\u2581instrument": 11395, "\u2581\u0441\u0442\u0430\u043d\u043e\u0432\u0438": 13559, "\u2581neut": 11553, "PRO": 8618, "Initial": 15514, "\u2581opposite": 11564, ")->": 19969, "encode": 12508, "\u2581mundial": 28743, "\u2581took": 3614, "<0xD2>": 213, "\u2581Had": 14302, "\u2581satisfy": 15523, "\u00fcng": 26668, "\u2581\u043e\u0434\u043d\u0430\u043a\u043e": 24439, "SDK": 26912, "opacity": 28193, "\u05c1": 31194, "\u2581bord": 12796, "\u2581terra": 15087, "Sql": 10520, "Rows": 10661, "\u2581Reich": 9320, "\u2581demon": 8033, "\u2581nine": 14183, "reading": 19715, "\u0431\u043e\u043b\u044c": 22451, "ULL": 3299, "\u2581By": 2648, "ectors": 11142, "\u2581DC": 13681, "PropertyChanged": 29109, "\u2581:(": 16824, "kiej": 27700, "\u0440\u0430\u0437": 6117, "\u2581%{": 21191, "ust": 504, "\u2581Newton": 19017, "\u2581merchant": 29055, "\u2581skal": 27873, "itul": 14193, "enk": 5842, "boldsymbol": 5916, "Engine": 12412, "textarea": 20433, "\u2581prove": 6356, "\u2581embedded": 15685, "\u2581Stockholm": 17920, "\u2581collections": 16250, ")){": 18840, "\u2581situation": 6434, "\u2581binary": 7581, "erb": 23936, "cfg": 16859, "\u2581ec": 21226, "\uc74c": 31966, "inned": 27464, "\u0401": 30555, "\u2581Adri": 27449, "hart": 26243, "\u2581Lyon": 22105, "\u2581provides": 8128, "\u2581Bruno": 20975, "\u2550": 30114, "\u2581Bert": 16662, "enze": 13233, "I": 29902, "\u2581Nau": 26700, "\u043b\u044c\u043a\u043e": 9298, "\u2581Dem": 4432, "\u2581officer": 12139, "ient": 993, "ut": 329, "\u2581Leopold": 23146, "dom": 3129, "\u2581Report": 13969, "\u2581../": 29772, "\u2581B\u00fcr": 15455, "\u2581Narod": 24322, "Mat": 9782, "onie": 9599, "ref": 999, "\u00fcd": 6215, "\u2581Pot": 10173, "until": 29305, "\u9593": 31069, "ragen": 12702, "\u2581[:": 20840, "alty": 18745, "\u2581weap": 16154, "```": 28956, "\u00e9gl": 19351, "zig": 8923, "\u2581prohib": 21460, "\u2581toss": 28189, "\u2581Prima": 28930, "\u2581lazy": 17366, "\u00dfe": 5831, "\u2581exped": 15310, "jm": 21231, "cookie": 21509, "umann": 22553, "mar": 3034, "\u2581\u0442\u0435\u0445": 11425, "\u2581variety": 12875, "usz": 10958, "\u00e1rt": 23142, "\u0441\u0442\u0440\u0456": 27164, "\u2581revis": 23484, "datab": 29503, "\u7b49": 31184, "\u2581d\u00edas": 24167, "\u2581\u043c\u0435\u043d": 26831, "\u2581\u0438\u0441\u043a\u0443\u0441": 21073, "ills": 6090, "\u2581assigned": 9859, "\u2581counter": 6795, "\u0435\u0434\u0435": 10543, "\u2581sudo": 9196, "\u2581claimed": 17049, "\u2581Schwar": 17617, "\u2581EF": 22286, "bos": 27737, "\u2581gateway": 28646, "\u2581satisfied": 15787, "\u2581\u0440\u0443\u0441": 14251, "\u2581gy": 10966, "\u2581encontr": 14567, "\u2581Tsch": 27023, "\u2581old": 2030, "geme": 19371, "nius": 21613, "\u2581Opera": 19198, "anc": 4564, "sero": 26928, "\u2581RC": 29138, "\u2581syn": 5222, "\u2581reaction": 19848, "\u2581Quellen": 25573, "-": 29899, "\u2581genannt": 18208, "gamma": 4283, "fly": 17652, "\u2581fen": 18371, "\u2581RAM": 18113, "\u2581park": 14089, "\u2581biggest": 24842, "\u2581conv": 7602, "\u2581diferen": 22732, "\u2581pyg": 19484, "\u2581\u0416": 7007, "\u2581after": 1156, "lor": 5095, "\u043b\u0435\u043d\u043e": 20412, "Station": 22814, "\u2581cyl": 20396, "FE": 16359, "yml": 21053, ",\"": 1699, "\u2581improv": 13153, "\u2581Java": 3355, "\u2581spo": 13345, "Ar": 1433, "polit": 20087, "\u0582": 30660, "\u2581\u0437": 754, "Index": 3220, "iance": 8837, "eltemperaturen": 16068, "->": 976, "\u2581off": 1283, "\u2581charset": 17425, "\u2581enfants": 21038, "\u044e\u0449\u0438\u0445": 17200, "\u2581dep": 1401, "ugin": 3851, "\u2581hoch": 27568, "activity": 10072, "<0x9D>": 160, "\u2581reached": 7450, "\u2581Portal": 28612, "boa": 28954, "\u30e0": 30579, "\u2581durch": 3494, "\u2581lambda": 14013, "};": 3400, "\u2581\u043b\u044e\u0434\u044f": 18418, "\u2581fetch": 6699, "\u2581\u0411\u0435\u043b\u043e": 28621, "\u2581designed": 8688, "de": 311, "ains": 2708, "\u2581Further": 8725, "\u043a\u0435": 2476, "ok": 554, "}))": 20073, "\u2581exper": 2902, "\u2581Bag": 18341, "DP": 11191, "\u2581evident": 13602, "\u2581\u043a\u043e\u0440\u0430\u0431": 27009, "\u2581\u0415\u0432": 25131, "\u2581News": 10130, "\u2581stal": 28367, "ta\u0142": 28989, "\u2581Apost": 22468, "dia": 15321, "\u2581\u0428\u0438": 25445, "\u2581Nin": 27960, "present": 6338, "\u2581internacional": 19285, "\u2581swe": 7901, "\u25cf": 30764, "inale": 16673, "\u2581mez": 18911, "\u091a": 31132, "\u2581sor": 7319, "\u9ed8": 31735, "\u2581listened": 29616, "\u2581enough": 3307, "\u2581born": 6345, "\u2581F": 383, "erc": 6269, "\u2581formation": 12409, "\u2581USS": 17676, "\u2581molt": 25077, "\u4e0d": 30413, "\u4e50": 31616, "Delta": 5268, "acs": 16815, "\u2581sn": 5807, "\u2581Dat": 13373, "\u2581Dig": 10951, "nings": 11753, "eding": 21219, "\u2581Zh": 27134, "\u2581\u00fanico": 27794, "ctor": 2801, "\u5e8f": 31463, "]*": 14178, "![": 21298, "\u2581constants": 17727, "\u2581siguiente": 18436, "\u2581Azure": 12634, "\u2581\u0443\u043d\u0438\u0432\u0435\u0440\u0441\u0438\u0442\u0435\u0442\u0430": 28851, "\u2581moved": 6153, "ipedia": 4652, "\u2581sharing": 19383, "soft": 2695, "\u0440\u0430\u0445": 16352, "vex": 13809, "UI": 3120, "\u2581\"@": 17962, "\u2581plate": 15284, "\u2581\u0443": 863, "\u2581aan": 4711, "Year": 12883, ")!": 20198, "\u2581nel": 2032, "\u2581estava": 24137, "\uacbd": 31378, "icles": 4027, "\u2581nacional": 12306, "\u2581troops": 13230, "\u2581aufgrund": 25670, "\u2581Mall": 23809, "\u0e08": 30991, "xim": 2657, "\u2581optimize": 24656, "cret": 4838, "printStackTrace": 16654, "our": 473, "\u2581graph": 3983, "\u0a30": 31604, "uet": 14484, "\u2581\u0420\u043e\u0437": 23591, "estro": 16906, "legen": 14778, "\u2581\u043f\u0435\u0440\u0435": 2942, "\u2581Odkazy": 28263, "\u2581Cer": 10580, "mai": 24402, "undefined": 15955, "ibration": 26218, "\u2581ut\u00e1n": 21949, "\u2581strike": 21283, "ALL": 9818, "ify": 1598, "delta": 4181, "allen": 5442, "istik": 27013, "=\".": 29569, "hal": 4077, "]$.": 22689, "museum": 25360, "\u2581running": 2734, "Documents": 20128, "\u2581\u0440\u0435\u0430": 24548, "master": 6207, "\u2581highly": 10712, "\u2581prakt": 28683, "\u8fd0": 31894, "\u2581\u0142": 27518, "\u2581initial": 2847, "Vert": 9114, "trace": 15003, "\u2581Nel": 5728, "\u2581Date": 4712, "IN": 1177, "et\u00e0": 12582, "\u2581Util": 22310, "viation": 14641, "eti": 16577, "LI": 5265, "raf": 1929, "endet": 16877, "\u2581Left": 19941, "roe": 26968, "\u00e1lt": 18507, "\u2581ES": 17956, "\u0432\u0435\u0440\u043e": 19953, "evalu": 24219, "\u2581cr": 2181, "Var": 9037, "\u2581Age": 16767, "\u2581raw": 10650, "\u2581||": 3830, "\u044b\u0435": 11489, "\u2581Bald": 23874, "\u043b\u0435\u043d": 2510, "\u043a\u0432\u0430": 11691, "ording": 3278, "sterd": 14807, "\u2581Dr": 4942, "\u2581doesnt": 19403, "\u2581Server": 5656, "\u0433\u043e\u0442\u043e\u0432": 19300, "\u2581BBC": 14129, "\u2581promise": 11640, "\u2581nut": 18254, "\u2581phr": 12216, "spre": 17703, "r\u00f3": 6830, "\u2581citizens": 18363, "poly": 22678, "\u2581Imperial": 21080, "Group": 4782, "hez": 22923, "Thread": 4899, "\u2581bereits": 13101, "decor": 19557, "\u2581wealth": 17173, "\u2581Lord": 6171, "\u2581Maler": 28254, "analysis": 15916, "\u2581Organ": 9205, "\u2581otto": 15999, "\u2581fortune": 19717, "\u00e7as": 19846, "S": 29903, "uetooth": 20930, "\u2581worthy": 24717, "\u2581fuera": 28271, "\u2581schlie\u00df": 22273, "Font": 9824, "people": 25719, "\u2581\u043c\u0438\u0440\u0430": 17758, "\u2581Head": 12252, "PK": 21738, "\u2581heute": 12843, "\u0439\u043c": 27987, "\u2581Him": 18136, "\u0442\u0435\u043b\u0435\u043c": 17584, "\u2581Cape": 20922, "\u043d\u0435\u043d\u043d\u044f": 22189, "avait": 23071, "<'": 26717, "\u0437\u044c": 8904, "\u2581forty": 20949, "\u6e21": 31858, "\u2581deck": 19810, "gcc": 19644, "atem": 17533, "omething": 9153, "\u0441\u0435\u0434\u0430": 20915, "\u2581General": 4593, "\u043c\u0430": 1155, "\u2581\u201c": 1346, "lookup": 20401, "attung": 24758, "\u0d41": 30442, "\u00e9es": 2406, "\u2581\u010desk": 21270, "esota": 19622, "\u0159": 30047, "ashington": 7321, "\u2581thro": 20961, "\u2581flav": 21054, "\u2581coinc": 22819, "\u2581oraz": 8414, "\u2581consume": 29151, "Fil": 3434, "{%": 18255, "++;": 9107, "\u2581Vere": 9380, "Factory": 5126, "\u00c2": 30212, "andra": 10738, "%%%%%%%%": 28198, "\u2581Einzelnachweise": 6675, "\u0431\u0430\u0440": 24982, "\u0441\u0441\u0438\u0438": 28229, "leur": 20519, "\u2581Kent": 13272, "\u2581Alan": 17102, "\u2581Dead": 16992, "\u2581battle": 10555, "Parameters": 11507, "ad\u00e9m": 15335, "\u2581dependencies": 9962, "\u2581mor": 3036, "iver": 2147, "sound": 29802, "\u1ef1": 31874, "ites": 3246, "activ": 11236, "MenuItem": 21331, "vens": 9852, "opus": 26466, "\u2581heard": 6091, "\u2581Mario": 16262, "\u2581seine": 6676, "\u0446\u0456\u0457": 6748, "\u2581device": 4742, "\u2581Adam": 11783, "\u043f\u043d\u044f": 14840, "\u2581constru": 6787, "izen": 19642, "idi": 8819, "\u2581Ye": 10134, "\u2581sz\u00e1z": 26522, "\u2581instance": 2777, "\u2581vl": 14204, "\u96f2": 31750, "oria": 4108, "\u2581composite": 20842, "x": 29916, "\u2581bases": 22561, "\u2581Lov": 23974, "\ub0b4": 31940, "\u043a\u043e\u043d\u043e\u043c\u0456": 29426, "\u2581clicks": 19367, "\u2581nale\u017c": 26948, "CI": 8426, "eters": 2699, "estra": 8505, "Converter": 18545, "\u00f1a": 9658, "\u2581inoltre": 27053, "\u041a\u0430": 17831, "iger": 4087, "ocia": 10183, "\u2581Jacques": 12915, "owano": 25024, "zone": 8028, "\u0d1e": 31956, "itte": 5388, "\u2581\u0432\u0440\u0435\u043c\u044f": 8409, "\u2581speech": 12032, "\u2581institution": 12666, "istent": 9696, "\u2581thor": 16294, "\u00b3": 30168, "Direct": 17392, "hoz": 19362, "\u043d\u0446\u0438": 11754, "\u0448\u043e\u0433\u043e": 25705, "\u2581defe": 8686, "ocket": 9749, "\u2581ay": 10156, "rak": 4442, "\u0434\u0435\u043d\u0442": 18324, "\u2581pow": 4764, "\u2581Earth": 11563, "\u2581permett": 19172, "\u2581randomly": 20459, "\u2581NEW": 29091, "encias": 6187, "encing": 16750, "chmark": 16580, "anz": 4096, "\u2581removal": 28744, "icode": 12858, "\u2581M\u00e4rz": 7322, "\u2581singer": 15640, "\u2581proph": 27953, "ldots": 7796, "\u2581padre": 14217, "')->": 22423, "\u2581against": 2750, "eqnarray": 9441, "\u2581\u0433\u0435\u043d\u0435\u0440\u0430\u043b": 21857, "\u2581\u0434\u0430": 3574, "\u2581utiliz": 11824, "emi": 14208, "\u2581Altri": 7057, "DEX": 19577, "\u2581rece": 2414, "\u2581Pal": 3793, "\u2581Jegyzetek": 24029, "\u2581Cot": 26783, "entries": 26586, "\u2581Hum": 13863, "\u2581liqu": 15617, "citet": 17112, "\u2581unders": 23400, "\u2581\u043e\u043a\u043e\u043d\u0447\u0430": 27972, "\u0581": 31554, "atives": 5056, "\u2581library": 3489, "ona": 2681, "country": 13509, "\u201c": 30015, "IDE": 22027, "ouve": 6223, "ocation": 10610, "ml": 828, "ance": 749, "\u2581UE": 14775, "HI": 17628, "side": 2975, "\u2581working": 1985, "mal": 5156, "lus": 12160, "\uc2a4": 30784, "\u2581benchmark": 23513, "\u2581tongue": 26820, "\u2581typeof": 20086, "\u2581gli": 5857, "kafka": 28510, "isce": 17438, "fortun": 6477, "\u00fclet": 15363, "\u2581fixes": 24626, "exp": 4548, "\u2581Publish": 12904, "\u2581Nueva": 18151, "\u2581r\u00f3wnie\u017c": 20316, "\u2581Parse": 20969, "raine": 12096, "\u2581Buc": 22987, "Rich": 25627, "\u2581everybody": 26077, "\u2581foreign": 9117, "var": 1707, "\u2581mus\u00e9e": 29695, "\u2581as": 408, "mm": 4317, "\u2581somewhere": 9051, "icans": 16708, "anzen": 25611, "ln": 3083, "izza": 24990, "manager": 12847, "\u2581wi\u0119": 20677, "\u2581\u0444\u0443\u0442\u0431\u043e": 12656, "\u2581expose": 24396, "groupId": 9688, "collapse": 27756, "\u1e24": 30673, "<0xF0>": 243, "\u2581$|": 11892, "\u2581steady": 27357, "vare": 5280, "\u2581favor": 7853, "\u2581periodo": 17848, "\u2581msg": 10191, "\u2581prompt": 9508, "oused": 26165, "eval": 14513, "\u2581rules": 6865, "\u2581stops": 17726, "\u00da": 30161, "\u0437\u0438\u043d": 22745, "\u2581met": 1539, "However": 17245, "hre": 16720, "FirstName": 29541, "\u53bf": 30684, "\u2581curl": 11051, "\u2581mm": 5654, "zet": 4975, "\u2581Je": 2581, "\u2581struggling": 20042, "\u2581\u0441\u0435\u043c": 18534, "SSL": 18641, "\u2581executable": 16813, "\u671d": 31163, "\u2581com": 419, "\u2581\u0430\u0432\u0442\u043e\u0440": 25928, "gly": 16808, "ston": 7352, "rola": 18789, "\u2581speak": 7726, "\u2581closure": 18424, "\u2581risult": 24119, "\u2581noise": 11462, "\u0d2e": 30859, "\u2581reputation": 19821, "ulf": 16302, "\u2581nab": 26924, "\u0151l": 8054, "environment": 20944, "\u0440": 29927, "istrz": 12263, "\u2581IV": 6599, "\u5bfa": 30951, "oli": 5079, "serial": 15550, "\u2581Bitmap": 19779, "\u0448\u043b\u0438": 19447, "\u2581veter": 25808, "\u2581dub": 15416, "rb": 6050, "\u2581Pennsylvan": 15720, "Submit": 16228, "\u2581Personal": 16224, "\u00e1l": 2464, "False": 8824, "\u2581Gust": 12512, "<0xA2>": 165, "\u2581entstand": 16875, "\u00d9": 31078, "indows": 2054, "\u2581mysql": 5749, "\u2581qu": 439, "\u2581\u0414\u0435\u043c\u043e": 20167, "R": 29934, "\u2581dav": 13260, "\u2581Palmar": 19010, "jna": 27983, "\u2581\u0415": 3337, "\u2581usual": 9670, "\u2581straightforward": 20837, "paper": 19773, "\u2581wounded": 19747, "\u2581\u043e\u0442\u0440\u0438\u043c\u0430": 26593, "\u00e1vel": 28691, "ikh": 28464, "\u2581Genomsnittlig": 28650, "\u2581photo": 15373, "\u2581Anfang": 19876, "\u2581Linki": 17331, "\u2581nyelven": 18030, "\u043f\u043e\u043b\u0438": 22929, "\u2581trouv": 24889, "augh": 6334, "\u092e": 30485, "\u2581anten": 25504, "DAY": 28658, "\u0431\u0440\u0430\u043d": 25567, "\u2581explo": 16035, "iddle": 2632, "\u2581si\u00e8": 6476, "\u2581evaluation": 17983, "\u2581larg": 5573, "ijn": 3263, "\u2581driv": 12592, "\u2581dist": 1320, "\u2581enero": 8529, "\u2581Raz": 24961, "'>": 11041, "reck": 18217, "\u0447\u043a\u0435": 27346, "\u2581\u03b1": 19883, "\u2581List": 2391, "keyword": 26766, "\u2581supposed": 7424, "\u5b9e": 31195, "\u2581**": 3579, "\u2581giv": 1517, "r": 29878, "mers": 13269, "built": 16145, "\u2581dic": 12124, "\u2581endeav": 26009, "\u2581heaven": 18356, "ground": 2057, "\u2581\u0413\u0430": 8544, "\u2581Priv": 18936, "\u2581dealing": 16743, "\u2581needs": 4225, "\u043c\u0435\u043d\u0435": 17859, "\u2581wrote": 5456, "\u2581droit": 17950, "iate": 29347, "\u2581\u0413": 1618, "\u2581Christopher": 18888, "\u1038": 31039, "hed": 17143, "\u2581Prop": 18264, "\u2581Tool": 21704, "relation": 23445, "Observer": 28066, "iser": 7608, "source": 4993, "walk": 20919, "\u2581scrolling": 23064, "\u7cfb": 31185, "\u2581differ": 1163, "lia": 4456, "\u2581Food": 25453, "clude": 2325, "\u2581interest": 4066, "hai": 23535, "\u2581to": 304, "\u2581ainsi": 8288, "\u2581exemple": 17488, "\u2581Oak": 24132, "\u2581Illustr": 28070, "lais": 11818, "\u2581Attribute": 23833, "\u0940": 30580, "\u2581samen": 22596, "optim": 20640, "\u2581His": 3600, "\u0938": 30489, "UR": 4574, "\u2581Start": 7370, "\u2581Ej": 26087, "\u2581fif": 8461, "\u2581\u043e\u0441": 3894, "ulation": 2785, "\u2581shore": 19055, "esser": 16136, "\u2581much": 1568, "}^{\\": 6292, "\u0440\u0435\u043c\u0435\u043d": 13145, "\u2581\u043f\u0440\u0438\u0437": 25660, "\\": 29905, "\u00b1": 30221, "ait": 1249, "col": 1054, "\u2581anglais": 16464, "addEventListener": 16592, "\u2581buried": 18550, "osen": 7749, "\u2581famiglia": 19076, "\u2581indicate": 12266, "ked": 17713, "\u2581\u041f\u043e\u0441\u0438\u043b\u0430\u043d\u043d\u044f": 14562, "contains": 11516, "\u2581here": 1244, "\u2581Kevin": 19323, "\u0421\u0430": 28897, "\u2581\u043d\u0430\u043f": 27952, "\u2581examples": 6455, "cook": 15108, "\u2581cig": 29507, "\u0144skiego": 22199, "eszt": 23293, "Lo": 3410, "force": 10118, "\u2581Dienst": 24045, "\u0416": 30100, "\u2581voix": 22759, "\u2581Energy": 24836, "\u2581SO": 7791, "AppData": 27674, "\u2581ol": 13386, "\u2581Kil": 12400, "\u2581d\u00e9put": 26799, "\u2581sketch": 21256, "chez": 22067, "\u0434": 29957, "Behavior": 28100, "\u0457\u0432": 15077, "\u2581spl": 8536, "\u20b9": 30620, "embed": 17987, "\u2581septiembre": 9199, "\u2581whilst": 21109, "ondere": 18241, "Duration": 18984, "<0xF6>": 249, "\u2581referring": 16811, "\u2286": 30842, "scop": 21785, "Accept": 23965, "\u2581($\\": 20430, "\u2581step": 4331, "endencies": 7158, "\u2581bzw": 16591, "\u2581Teil": 7770, "\u2581Sunday": 16340, "\u2581Herzog": 23804, "chus": 26806, "\ub85c": 30906, "nothing": 28450, "\u2581bother": 24738, "iente": 6759, "\u00e7ois": 11072, "\u0441\u0435\u043d": 17287, "\u2581Do": 1938, "\u2581hop": 8171, "\u6eaa": 31850, "\u2581peque": 18946, "\u2581approxim": 6881, "\u2581Leben": 9452, "\u1e2a": 31672, "\u03bc": 30167, "\u00e7os": 16152, "ppel": 17344, "ina": 1099, "ahl": 4494, "\u2581Turk": 16559, "it\u00e9s": 7719, "\u2581roce": 10155, "~\\": 2651, "\u2581zaj": 18298, "\u2581escaped": 19824, "Team": 19409, "\u2581aby": 24475, "\"));": 8983, "Write": 6113, "ione": 1421, "\u2581Begriff": 15059, "branch": 17519, "\u2581sp\u00e9": 18142, ";\"": 15458, "\u2581Entwicklung": 21924, "timer": 20404, "\u2581inici": 21855, "\u2581(\u201e": 20391, "\u043e": 29904, "\u043d\u0438\u0445": 3065, "\u2581upgrade": 14955, "lect": 781, "}+": 7517, "\u044e\u0442\u044c\u0441\u044f": 16687, "\u2581\u0447\u043e": 15262, "\u2581divis": 8572, "\u2581recommendation": 29303, "Stage": 27276, "ary": 653, "\u2581failed": 5229, "\u044d\u0439": 26938, "\u2581accom": 7954, "\u00bd": 30226, "\u0142ug": 11800, "Bounds": 18526, "\u2581junior": 20183, "pre": 1457, "andom": 2685, "\u2581neighb": 22092, "\u2581Anyone": 26407, "\u2581so": 577, ")\\)": 27779, "andbox": 26738, "\u00d8": 30222, "\u0630": 30851, "\u2581recommended": 13622, "\u2581Julian": 27180, "authentication": 23055, "\u2581soul": 10752, "\u2581prolong": 27044, "\u0151s": 14773, "\u2581Tom": 4335, "catalog": 28045, "ge": 479, "\u2581Adding": 18804, "\u2581neutral": 21104, "\u2581stru": 6220, "\u2581Ber": 2292, "\u0430\u043d\u0442\u0430": 28375, "legend": 26172, "\u043d\u0430\u043c\u0438": 15369, "\u2581TCP": 19374, "\u2581trom": 25063, "\u2581Ergeb": 25386, "\u2581handed": 29692, "\u2581k\u00f6": 4929, "\u2581Publications": 22865, "ounced": 20979, "\u2581Ras": 25351, "\u2581rec": 1162, "Spe": 10649, "\u2581Rick": 24218, "pond": 2818, "\u2581External": 3985, "itzer": 13510, "achiv": 24184, "\u2581symmet": 9682, "~~~~": 14087, "\u2581fuer": 8470, "\u2581nation": 5233, "\u2581Philipp": 12325, "score": 13628, "cers": 22543, "\u2581include": 3160, "\u2581alles": 24981, "modifier": 26625, "\u2581champion": 8064, "Region": 18457, "duct": 2199, "Liter": 24938, "RAY": 22800, "\u2581login": 6464, "slant": 17139, "valid": 3084, "\u2581winning": 15613, "\u2581permut": 20005, "ischof": 16084, "fer": 571, "\u2581t\u00edt": 12946, "\u0442\u044f": 6566, "\u2581deput": 20723, "Generator": 21575, "profile": 10185, "sBy": 20966, "ining": 2827, "abl": 12478, "\u2581entonces": 19665, "\u2581estate": 19989, "\u2581pleased": 22301, "\u2581messages": 7191, "\u2581refresh": 11086, "reland": 11209, "oreign": 13606, "\u2581process": 1889, "\u2581lutego": 29404, "landa": 25241, "uga": 26281, "\u2581Line": 7407, "\u2581Power": 9206, "\u2581compute": 10272, "BF": 28062, "ib": 747, "\u2581award": 9862, "object": 3318, "\u2581pierw": 26657, "\u670d": 31520, "quel": 13295, "\u2581shell": 6473, "GM": 21576, "\u2581Heritage": 25635, "xyz": 20230, "socket": 11514, "ett": 1803, "\u2581RewriteCond": 24935, "ves": 1960, "rito": 9296, "\u2581Neder": 10584, "\u2581conte": 21030, "\u00e9sie": 29831, "\u2581ans": 6063, "odor": 17606, "\u2581between": 1546, "\uc774": 30393, "\u2581mont": 7629, "itle": 1740, "itted": 4430, "bu": 2423, "\u4e8c": 30685, "\u2581\u0441\u0456\u0447\u043d\u044f": 24708, "\u6b64": 31389, "trl": 11742, "persistence": 28249, "\u2581hacer": 14557, "\u2581Events": 28488, "\u2581profes": 13091, "\u2581destination": 12551, "\u2581Stato": 29481, "itory": 5047, "\u2581asynchronous": 20489, "\u2581Heinrich": 12612, "\u2581agli": 21911, "configure": 17591, "sqlite": 22793, "\u2581thermal": 26963, "\u2581hous": 9261, "\u2581entr": 9953, "\u2581\u0441\u0442": 2091, "\u2581\u043f\u043e\u043b\u0443": 6961, "\u2581merc": 16856, "\u0432\u043d\u044f": 11752, "\u2581bekannt": 13633, "\u2581Child": 10517, "\u00b7": 30064, "displaystyle": 15618, "family": 11922, "\u2581brasile": 22905, "\u2581DECLARE": 26543, "\u2581MB": 13232, "ouble": 2074, "\u2581\u00c1ng": 26523, "agon": 12841, "\u2581short": 3273, "\u00b8": 30836, "\u2581Gemeinsame": 27853, "Seconds": 27535, "mad": 19581, "pick": 23945, "\u2581Bank": 10253, "\u2581\u043e\u0441\u0442": 14425, "\u2581\u043f\u0440\u043e\u0438\u0441": 23061, "\u9928": 31161, "\u2581landing": 25325, "\u2581Revol": 26882, "\u00e9p": 6430, "\u2581headers": 9066, "\u2581accessing": 17378, "\u2581Stage": 24906, "icki": 26894, "Selector": 10378, "\u2581onclick": 15630, "\u2581mostra": 27588, "\u2581reports": 13676, "\u0302": 31500, "\u06cc": 30202, "\u2581topological": 25002, "Bro": 29857, "\u2581fewer": 28145, "\u2581issue": 2228, "\u2581cb": 26324, "arily": 6275, "\u2581explic": 28117, "vent": 794, "fit": 9202, "\u043c\u044f": 5010, "\u2581Stanis": 21585, "\u2581television": 11456, "\u2581turns": 12169, "h\u00f6r": 6871, "\u2581kindly": 25036, "\u2581interess": 26636, "White": 21823, "eau": 14531, "\u2581b\u00f6r": 27856, "Frame": 4308, "\u2581attachment": 26305, "\u2581Abgerufen": 8129, "kap": 21474, "\u2581cler": 28238, "amer": 4183, "\u2581\u043e\u0442\u043d\u043e": 12797, "\u2581gek": 14865, "validate": 15480, "\u2581pen": 6584, "\u0d0e": 31808, "\u2581teaching": 18819, "though": 3592, "min": 1195, "lasse": 14537, "\u2581c\u00f4t\u00e9": 21384, "\u2581Deutschland": 10450, "emann": 24767, "\u300d": 30482, "\u4e95": 30945, "multip": 18056, "\u2581\u043f\u043e\u043b\u0443\u0447\u0438": 12052, "\u2581mi": 3737, "\u2581\u0445\u0443\u0434\u043e\u0436": 17341, "event": 3696, "\u2581fram": 22767, "Found": 9692, "eclipse": 13660, "\u2581locate": 26694, "\u00edculo": 21825, "runtime": 15634, "\u2243": 31224, "\u2581audi": 16147, "\u2581\u0458\u0435": 2773, "apply": 7302, "\u2581rad": 2971, "\u2581folgender": 27687, "\u2581characteristics": 21862, "\u2581hopefully": 27581, "\u2581optical": 27070, "\u2581posible": 29125, "\u011b": 30036, "\u2581kar": 10856, "tt": 698, "foo": 5431, "/%": 22584, "\u2581compatibility": 24521, "\u2581kr\u00f3": 27638, "\u2581des": 553, "\u2581geometric": 26224, "extra": 17833, "\u10e3": 30796, "\u2581enorm": 18886, "\u0447\u0435\u0441\u043a\u0438\u0435": 21938, "\u2581People": 11647, "\u2581A": 319, "\u2581Foi": 24012, "\u2581Gay": 28832, "\u2581Kos": 17457, "\u0440\u043e\u043d\u0430": 29291, "\u2581Napole": 18179, "aient": 10978, "ROR": 7544, "\u2581\u0410\u043d\u0430": 22695, "ikel": 14258, "\u2581Wild": 11821, "\u2581\u043f\u043e\u0441\u0435": 10865, "WD": 24668, "\u2581Christmas": 17661, "umbled": 25443, "\u0437\u044f": 10027, "intendo": 28481, "\u2581efforts": 14231, "ARY": 19926, "\u2581Historia": 11094, "\u0441\u0442\u0432\u0443\u0435\u0442": 25251, "mbox": 8264, "IMAGE": 2382, "\u2581combat": 15499, "is": 275, "\u2581extrem": 9413, "\u2581Dia": 22866, "lub": 29870, "\u2581sig": 4365, "\u0451": 30043, "\u91cc": 30755, "\u0433\u0438\u0438": 27186, "events": 13604, "\u2581statunit": 15407, "\u2581interpol": 20064, "\u2581Challenge": 27211, "Close": 11123, "\u2581combining": 29299, "\u2581l": 301, "uario": 22223, "\u2581land": 2982, "\u2581except": 5174, "\u2581roots": 16778, "<0x82>": 133, "ancing": 19985, "\u2581Hern": 25962, "\u2581Isaac": 28156, "\u2581subs": 11684, "\u2581Andrew": 11571, "\u6a5f": 31540, "\u2581otten": 26559, "<0xD8>": 219, "\u2581zweite": 27454, "oteca": 19011, "Columns": 14289, "gray": 21012, "\u2581achieved": 14363, "\u2581depend": 8839, "she": 11360, "TC": 9472, "licht": 10881, "rc": 2214, "\u2581tard": 11364, "\u2581Divisi\u00f3n": 22076, "engo": 22260, "\u2581districts": 24172, "\u2581computational": 26845, "\u2581NGC": 13928, "ically": 1711, "iral": 19647, "_+": 28842, "r\u00e0": 20575, "\u2581Pattern": 25860, "\u2581naturally": 18180, "\u2581stays": 27111, "\u2581policies": 24833, "mp": 1526, "\u2581zwe": 4753, "\u2581Column": 12481, "\u2581tego": 19237, "nehm": 25543, "client": 4645, "iros": 17177, "\u2581detect": 6459, "\u2581screenshot": 17286, "\u2581conjunto": 26949, "rained": 22042, "lict": 29176, "NUMBER": 23207, "Har": 21972, "\u2581Bek": 23461, "\u2581Near": 26206, "\u2581guns": 18788, "igli": 11224, "pay": 10472, "\u2581g\u0142\u00f3wn": 26787, "\u2581Water": 13062, "\u2581\u043a\u043e\u0442\u043e\u0440\u043e\u0439": 20935, "oint": 2461, "\u2581tunnel": 26086, "azz": 7511, "estone": 27744, "leg": 1397, "\u2581wer": 2949, "\u0456\u0441\u043b\u044f": 13297, "THE": 28350, "\u00dfer": 14465, "\u2581rail": 8367, "\u2581calciatore": 18404, "nav": 6654, "\u2581Zur": 16318, "ionen": 17725, ",]": 26073, "\u2581powers": 10801, "\u2581Sur": 6298, "\u2581disabled": 12708, "response": 5327, "efficient": 8462, "\u2581Hoff": 22151, "\u044e\u0449\u0435\u0439": 27029, "\u2581N\u00e4": 28615, "\u2581packets": 23912, "\u2581Ward": 21910, "\u2581\");": 14796, "<0x22>": 37, "lav": 4112, "\u2581residence": 25488, "avano": 21310, "hold": 8948, "\u01e7": 31518, "\u2581Corn": 11655, "\u043d\u043e\u0432\u0435": 27290, "\u2581shop": 18296, "\u2581f\u00f6r": 3602, "\u2581Comit\u00e9": 29298, "\u2581ordered": 10372, "\u2581Given": 11221, "\u2581numpy": 12655, "\u043d\u044b\u0445": 2430, "\u00e9t\u00e9s": 28141, "\u2581push": 5503, "\u2581\u0421\u043f\u043e": 11830, "rale": 9549, "\u2581mano": 24318, "\u2581\u0444\u0435\u0432\u0440\u0430": 15571, "\u2581hopes": 26926, "\u2581Document": 10854, "\u00e9v": 5903, "assets": 16596, "<0x91>": 148, "\u2581sie": 2686, "\u2581stands": 15028, "\u2581col": 784, "essage": 1448, "\u2581oppos": 9209, "\u2581Baker": 22652, "\u0447\u043d\u0438": 22714, "\u2581back": 1250, "\u2581ic": 16077, "vanced": 16858, "\u2581Nied": 24052, "\u2581too": 2086, "\u2581\u0438\u043d\u0442\u0435": 26133, "\u25a1": 31319, "\u30a3": 30532, "ption": 683, "\u2581b\u00e2t": 21592, "\u2581[],": 19997, "cation": 9252, "\ub098": 31207, "i\u00f3": 3556, "\u2581corrected": 24114, "\u2581tum": 21622, "\u2581dru": 5883, "i\u00e8re": 5289, "\u2581net": 7787, "\u2581\u0430\u0432\u0433\u0443\u0441\u0442\u0430": 15751, "\u043d\u0438\u0435\u043c": 8751, "\u2581relative": 6198, "\u2581prod": 11859, "\u2581scra": 24559, "\u2581ADD": 27827, "\u2581Rails": 15144, "RIPT": 24290, "unless": 28952, "verb": 18248, "\u2581R\u00f6": 25541, "publique": 18739, "\u2581Upper": 24929, "\u2581same": 1021, "\u2581inputs": 10970, "\u2581ambigu": 22363, "\u2581isomorphism": 26116, "\u2581lever": 26610, "\u2581orbit": 16980, "\u2581URI": 23539, "CA": 5454, "\u2581nearly": 8886, "\u2581accounts": 15303, "\u2581enters": 24395, "\u2581frequent": 17091, "rv": 15291, "\u222b": 31230, "\u2581duration": 14385, "\u2581\u043c\u0443\u0437\u0435": 29133, "\u2581handlers": 25795, "Val": 1440, "aux": 2993, "fahr": 18693, "\u2581validation": 8845, "\u2581Bras": 8793, "ford": 4006, "\u2581gep": 9164, "{:": 25641, "design": 13892, "println": 5248, "gu": 2543, "\u0e44": 31252, "portal": 25089, "\u2581gmina": 25653, "\u2581requires": 6858, "ellite": 20911, "\u2581synd": 22898, "ork": 548, "\u2581Third": 18008, "\u2581segle": 26969, "\u2581Efter": 28300, "\u00fcge": 28978, "\u2581batal": 21033, "\u2581Wayback": 7162, "\u2581Advanced": 29287, "hour": 18721, "\u2581jug": 8740, "\u2581celebrated": 26301, "\u2581this": 445, "\u2581membres": 18490, "\u0917": 30875, "\u2581ss": 17971, "List": 1293, "andy": 13910, "\u2581registers": 28975, "\u0441\u0438\u044f": 21290, "utsch": 2434, "richt": 10220, "empl": 16305, "Replace": 20083, "lam": 5288, "\u2581deutschen": 13806, "},\\": 7570, "####": 4136, "stellen": 27679, "\u2581distinction": 21578, "menu": 6510, "\u2581beat": 16646, "izin": 23111, "\u2581COL": 23958, "ades": 3076, "\u2581cell": 3038, "\u2581Cob": 24991, "\u2581loader": 23466, "\u4ed8": 31689, "\u2581socket": 9909, "width": 2103, "\u2581Ph": 1963, "}-\\": 12775, "Mark": 9802, "books": 12733, "\u0437\u0432\u043e": 14398, "\u2581gepublic": 10688, "\u2581atac": 26730, "\u2581misunder": 19818, "\u043c\u043e\u0440": 12434, "\u2581Fac": 14184, "ault": 1292, "\u2581Autor": 15811, "Dra": 24515, "dc": 13891, "symbol": 18098, "\u02bf": 30271, "aho": 29745, "icrosoft": 2995, "JS": 8700, "izers": 19427, "P": 29925, "neo": 11496, "zie": 3914, "\u2581Dres": 19706, "<0xCA>": 205, "\u2581Vietnam": 18444, "\u0432\u043e\u0439": 11318, "pisode": 12907, "Sing": 10873, "\u2581department": 14311, "lock": 908, "etzt": 7401, "\u2581experienced": 18860, "\u2581Republik": 26587, "\u6df1": 31947, "vy": 13308, "\u2581coff": 19785, "izzato": 19280, "ownik": 23760, "vey": 6950, "\u2581\u0440\u043e\u043b\u044c": 24072, "\u2581landscape": 24400, "\u2581satisfaction": 26470, "OK": 8949, "\u5dde": 30765, "\u9a6c": 31530, "\u043d\u044b\u043c": 4470, "uz": 3365, "\u2581venne": 12749, "SR": 14098, "Column": 4409, "gate": 17062, "ichen": 14487, "\u0435\u0440\u0443": 19241, "\u2581Gest": 19817, "\u2581fier": 21334, "\u016d": 30520, "\u6709": 30417, "\u2581strugg": 10205, "\u2581<!--": 10341, "\u2581Books": 13730, "Percent": 27933, "mier": 26131, "proxy": 14701, "Temp": 15637, "\u2581went": 3512, "\u2581digits": 13340, "Two": 13985, "esterd": 18006, "\u2581i": 474, "\u2581statements": 9506, "\u2581board": 7613, "\u2581Games": 12482, "\u2581Radio": 9204, "\u2581executing": 14012, "ning": 1076, "ource": 1167, "\u0442\u044c": 1413, "\u2581dro": 4441, "\u2581receive": 7150, "\u2581gare": 24816, "\u2581repub": 23465, "\u2581Apol": 28017, "\u2581arguments": 6273, "\u1fc6": 30891, "\u2581kid": 26397, "DR": 8353, "umber": 2807, "\u201c.": 9533, "pshire": 28401, "\u2581Header": 19345, "\u0441\u043a\u0438\u043c": 9187, "voor": 21525, "les": 793, "ela": 3100, "\u2581identical": 13557, "\u2581hundreds": 21006, "\u043b\u0435\u043d\u0438\u044f": 6052, "\u043f\u0440\u0430": 8821, "\u2581dump": 16766, "\u2581Cow": 21638, "recogn": 29423, "vision": 4924, "\u2581admitted": 20186, "^{-": 3426, "\u2581Situ": 23920, "\u2581p\u00e5": 3548, "\u2581sondern": 17665, "facebook": 15445, "EL": 6670, "pection": 27988, "\u6ce2": 31529, "\u2581suas": 21320, "\u6728": 30710, "boldmath": 16751, "\u6253": 31656, "\u2581m\u00e5naden": 16651, "\u2581pair": 5101, "\u2581implicitly": 27063, "\u2581koji": 21016, "vin": 3845, "\u2581masses": 23063, "\u2581genius": 26858, "nederb\u00f6rd": 28633, "\u6ca1": 31423, "itude": 4279, "\u0442\u0435\u043b\u044f": 11146, "\u2581sequences": 15602, "\u2581febbraio": 18486, "\u2581porte": 14931, "\u2581sever": 2775, "\u2581....": 13035, "olds": 3361, "\u2581dia": 9766, ";;": 7859, "\u2581somehow": 10431, "\u30d1": 30715, "\u2581Progress": 20018, "PER": 13171, "Jan": 26626, "\u2581Student": 15740, "\u2581\u0414\u0443": 14869, "\u2581legit": 25204, "\u0441\u0442\u0432\u0438\u0438": 25030, "\u2581\u0412\u0435\u043b\u0438": 11312, ",\u2019": 18887, "\u2581baseball": 21573, "pi": 1631, "\u2581frequency": 10868, "\u2581hur": 12166, "\u2581Legisl": 18991, "icture": 4781, "\u2581Swift": 14156, "stor": 28957, "\u200a": 30118, "osci": 23039, "ws": 5652, "live": 9258, "\u2581nuova": 26217, "<0xA4>": 167, "kele": 27800, "\u2581statue": 24870, "\u2581r\u00e8g": 27264, "\u0441\u0442\u043e\u0440\u0438": 25084, "\u2581Bitte": 19064, "\u2581rates": 19257, "\u2581compl": 13162, "\u2581uncertain": 17999, "\u2581front": 4565, "\u2581Mou": 29075, "Game": 14199, "\u2581>>>": 8653, "\u2581poc": 15341, "\u2581Atlantic": 19948, "Ang": 9928, "auss": 11214, "atural": 18771, "\u0442\u043a\u0438": 13921, "error": 2704, "\u2581bottom": 5970, "speed": 19322, "Does": 25125, "\u2581fixed": 4343, "\u2581syntax": 5877, "\u2581Julius": 23762, "\u2581hos": 25506, "arz": 11129, "\u2581Bian": 29860, "\u2581Song": 9362, "\u00e4nn": 21922, "Visual": 16227, "\u2581hum": 3165, "\u0f74": 31601, "ispecies": 21075, "bereich": 27915, "\u2581Jess": 23010, "\u0436\u043d\u043e\u0439": 25385, "cards": 28160, "unwrap": 26238, "\u2581chim": 20674, "\u2581assigning": 23188, "\u2581\u0434\u0435\u043b\u0430": 24280, "\u2581\u043f\u043e\u0434\u0430\u0446\u0438\u043c\u0430": 24401, "\u2581Ron": 11546, "\u2581Prz": 12900, "\u2581opacity": 17012, "9": 29929, "mac": 8628, "\u03a0": 30288, "\u2581symmetry": 18446, "cian": 28445, "\u2581princes": 23251, "ond": 898, "\u2581Italiana": 28732, "\u2581team": 3815, "\u2581nou": 28313, "package": 5113, "\u2581publishing": 27256, "ystycz": 28021, "ATE": 3040, "\u2581compa\u00f1": 23340, "MD": 5773, "\u2581ride": 22203, "\u2581known": 2998, "\u2581anger": 27343, "overn": 6170, "\u043b\u0435\u0437": 16488, "\u2581leaders": 20251, "\u2581estimation": 23248, "\u52a1": 31358, "\u2581quoted": 23153, "\u0442\u0432\u0430": 14878, "\u2581tener": 22975, "ilty": 24208, "rets": 27487, "\u2581scheme": 11380, "\u2581ranges": 20238, "\u2581Gew": 14412, "usted": 16656, "room": 8345, "\u2581fla": 17422, "baar": 26934, ")'": 16029, "\u6784": 31901, "\u2581Mal": 3792, "onna": 11586, "\u2581March": 4779, "arium": 22826, "\u2581approached": 26733, "\u2581through": 1549, "Meta": 19346, "\u2581Turkish": 24682, "pres": 4569, "\u2581\u0445\u0430\u0440\u0430\u043a": 18194, "\u2581seis": 26251, "That": 7058, "\u2581Olimp": 25975, "\u2581bird": 11199, "eur": 5411, "\u2581disc": 2313, "./": 6904, "\u2581Re": 830, "OIN": 6992, "orp": 26423, "Provider": 6980, "Files": 10547, "\u2581routes": 12049, "pgf": 14918, "edia": 1381, "\u2581\u043e\u043f\u0440\u0435\u0434\u0435": 20658, "\u2581Nikol": 22958, "\u2581opposed": 15869, "\u028a": 30599, "i\u0105": 19855, "\u2581Cin": 11972, "\u2581grund": 19816, "\u2581meters": 27881, "h\u00f6ren": 28452, "\"/>": 4681, "\u2581f\u00eds": 27087, "\u2581p\u00e9": 26535, "\u2581athlet": 28563, "Id": 1204, "inding": 4015, "gior": 19187, "\u2581scar": 21990, "ensis": 6322, "\u00f3s": 7173, "Art": 9986, "\u2581Cad": 21542, "\u2581Lista": 13701, "\u2581Schwe": 10445, "\u00f4le": 12161, "\u2581hen": 19061, "\u2581Rosa": 21974, "Jac": 24288, "\u0169": 31105, "\u2581Franc": 28382, "chn": 3049, "\u2581pt": 19592, "rama": 20556, "enter": 5893, "\u2581Buck": 16281, "Should": 26857, "\u0e02": 31310, "Msg": 16190, "\u2581chrom": 25173, "ended": 2760, "\u2581Mr": 3237, "\u2581Soci\u00e9t\u00e9": 21903, "\u2581\"'": 13577, "elin": 24446, "oney": 4992, "None": 8516, "\u2581\u0434\u0435\u043a\u0430\u0431\u0440\u044f": 15977, "ouch": 3222, "\u2581\u0430\u0440\u043c\u0438\u0438": 24164, "olk": 28387, "\u2581opportun": 28602, "LENGTH": 19433, "\u2581chapter": 16385, "\u2581\u043f\u0440\u0438": 1695, "\u00e1tico": 22054, "\u2581fran": 2524, "\u2581\u0437\u0430\u043d": 19724, "\u2581wc": 28678, "esses": 15322, "Condition": 25255, "iour": 8975, "\u2581\u0420\u043e\u0441\u0441\u0438\u0438": 11325, "\u2581ihre": 9856, "RS": 12445, "c\u00f3w": 14410, "\u2581Resources": 27562, "\u2581Miami": 23740, "\u2581currently": 5279, "ede": 2742, "Remove": 15941, "\u2581Gem": 15170, "sprach": 29339, "\u2581\u20ac": 25540, "uen": 3837, "\u00e8g": 20608, "\u2581deli": 26561, "len": 2435, "\u2581document": 1842, "l\u00e1n": 15527, "rifice": 25193, "\u2581ver": 1147, "\u2581minute": 11015, "\u2581Fe": 5169, "ched": 26902, "\u2581Less": 27898, "\u2581CLI": 24492, "\u2581closest": 21438, "\u2581commerce": 24346, "\u2581reported": 8967, "oj": 3848, "\u2581\u0435\u0449\u0451": 20991, "\u2581Testament": 29198, "epen": 28106, "\u2581strength": 9324, "\u2581orange": 24841, "\u0428": 30074, "\u2581Hor": 6912, "\u2581ord": 4356, "\u2581cursor": 10677, "allery": 23365, "oty": 18820, "sce": 22774, "vie": 25965, ";`": 10367, "\u2581Comple": 15642, "\u2581\u043e\u0442\u043a\u0440\u044b": 17282, "enig": 19197, "\u2581diagram": 13722, "period": 19145, "\u2581surely": 18880, "Hol": 19984, "\u2581shouldn": 9273, "phan": 16711, "\u2581gcc": 20243, "\u2581Kost": 27899, "\u2581eigen": 7388, "\u2581rius": 27162, "\u2581\u0420\u043e\u0441\u0441\u0438": 7676, "Stand": 11042, "\u2581\u0441\u0442\u0430\u0442\u044c": 11919, "\u2581Wood": 10180, "Head": 5494, "\u2581herself": 8735, "\u2581rac": 11021, "\u2581cool": 12528, "\u2581BE": 20700, "Period": 29853, "kih": 22293, "\u2581Dy": 24526, "\u2581clip": 20102, "rh": 19046, "\u2581\u0408": 15181, "cita": 28805, ":@\"": 8593, "\u25ba": 30318, "\u79f0": 31685, "\u2581License": 19245, "Label": 4775, "\u25a0": 30725, "\u2581YES": 22483, "\u00e9poque": 25165, "Yes": 8241, "\u2581various": 5164, "\u2581killing": 23393, "\u2581establish": 10127, "\u0456\u043b\u044c": 4202, "CON": 6007, "\u2581\u043b\u044e\u0442\u043e\u0433\u043e": 28498, "\u2581treated": 14914, "\u2581grave": 15258, "\u2581sk": 2071, "nehmer": 23450, "\u0447\u0435\u0441\u043a\u0430\u044f": 25656, "\u043a\u0456\u0432": 6104, "\u2581SF": 28768, "\u2581induct": 22799, "\u2581solve": 4505, "arel": 17243, "\u2581application": 2280, "\u2581Nash": 24848, "\u2581grounds": 25502, "\u2581Vis": 5741, "\u2581coefficients": 16127, "\u2581raised": 10425, "\u2581varied": 23821, "\u2581officials": 24921, "\u2581Dort": 19845, "\u0436\u0434\u0435": 8558, "\u4e38": 31818, "\u0436\u0435\u043d": 4054, "\u2581arte": 20160, "\u2581\u0432\u043e\u0439": 7587, "\u2581Bla": 10465, "\u2581activ": 5039, "\u2581\u0425\u0440\u043e\u043d\u043e\u043b\u043e\u0433\u0438": 26964, "\u043c\u043e\u0436": 19085, "es": 267, "ey": 1032, "delay": 18829, "wall": 11358, "cols": 22724, "\u2581violent": 24252, "om": 290, "\u0449\u0435": 2402, "\u2581decid": 18937, "Famil": 22555, "Delay": 24996, "TS": 9375, "\u2581sp\u00e4ter": 9655, "\u2581pleasure": 15377, "\u2581Historical": 20315, "utlich": 22251, "\u2581urb": 23499, "ugel": 23756, "anh": 27731, "\u2581Melbourne": 22103, "\u2581G\u00e9ographie": 27770, "ang": 574, "m": 29885, "\u2581Jer": 5677, "\u2581\u0443\u043a\u0440\u0430": 26993, "\u0290": 31336, "i\u0107": 13643, "\u2581Zug": 24698, "\u2581puntos": 28780, "swift": 26792, "\u0447": 29981, "\u2581dat": 1418, "\u2581\u00c5": 11260, "equiv": 9402, "ommun": 7386, "\u2581human": 5199, "\u2581shape": 8267, "film": 9663, "report": 12276, "skap": 24892, "charg": 25389, "\u2581Mie": 28131, "\u00b2.": 11298, "\u2581nazw": 28092, "umption": 28069, "\u308b": 30332, "logging": 21027, "Objects": 12724, "\u7d00": 31642, "includ": 11707, "pt": 415, "\u2581territorial": 29740, "anter": 14623, "\u02d0": 30215, "ADD": 17744, "\u2581SER": 26996, "\u2581\u0440\u043e\u0437\u0442\u0430": 19735, "\u0454\u044e": 15214, "\u2581Sem": 9444, "imately": 15084, "\u2581cookies": 21046, "\u2581arbitr": 9727, "\u2581joue": 24853, "username": 6786, "\u2581mis": 3984, "weit": 22694, "\u2581metric": 12714, "\u2581describing": 20766, "ica": 983, "\u2581\u0430\u0440": 5339, "\u2581Giov": 11429, "\u2581energ": 18190, "\u2581throne": 27446, "ife": 1607, "\u2581right": 1492, "\u00e9gr": 27083, "\u2581\u0435\u0441\u0442\u044c": 12795, "uminate": 27024, "\u2581slider": 23889, "Or": 2816, "\u00f6der": 18746, "racht": 14493, "izado": 17566, "\u2581d\u00e9t": 20854, "voj": 17521, "constructor": 27821, "aze": 28334, "\u2581injury": 24092, "\u2581thy": 13874, "\u2581problem": 1108, "\u2581Master": 9082, "\u2581\u041d\u043e": 16571, "cki": 22736, "NA": 3521, "dag": 24157, "unix": 24538, "\u00fcssen": 24789, "\u2581spac": 26325, "ange": 927, ".\u00bb": 16039, "\u2581Good": 7197, "\u30b9": 30255, "bling": 21435, "\u2581fled": 27481, "\u30bc": 31718, "\u9648": 31862, "\u2581worked": 3796, "\u2581nad": 8642, "\u2581\u043d\u0430\u043f\u0440\u0430\u0432": 21946, "\u2581Typ": 14213, "\u2581\u043d\u0430\u0446\u0456\u043e\u043d\u0430\u043b\u044c": 28973, "\u2581\u0420\u0430\u0441\u043f\u043e\u0434\u0435\u043b\u0430": 28354, "\u2581cry": 10901, "\u2581sost": 17601, "Events": 13634, "\u0454": 30056, "ficos": 26395, "\u2581metropol": 25311, "\u2581checked": 7120, "\u2581World": 2787, "lu": 6092, "\u2566": 31128, "\u2581\u041e\u0431": 12501, "pher": 8096, "Text": 1626, "\u2581counting": 21248, "\u2581inform": 1871, "\u2581campion": 18160, "cluding": 22368, "\u2581\u044d\u043d\u0446\u0438\u043a\u043b\u043e\u043f\u0435\u0434\u0438": 28718, "mouth": 21026, "cpu": 21970, "apr\u00e8s": 19908, "\u2581ayant": 17748, "order": 2098, "\u2581Chrome": 10228, "\u2581caso": 11986, "\u2581prints": 14677, "\u2581incon": 22629, "\u2581Fahr": 18205, "\u2581protocol": 9608, "\u2581Look": 7419, "\u2581Jul": 2739, "\u2581Rose": 14008, "Ap": 17396, "possible": 27338, "oding": 3689, "\u2581Night": 11554, "Datos": 6086, "\u2581access": 2130, "\u2581initi": 14511, "ardin": 21473, "\u2581ensuite": 18158, "\u043c\u0438\u043d": 23664, "\u044f\u0437": 27763, "\u2581throughout": 10106, "\u2581forced": 11826, "__.": 26914, "\u043f\u0440\u0438\u043c\u0435\u0440": 25390, "nete": 18977, "\u2581pain": 6788, "\u2581ban": 9892, "nungen": 18839, "\u2581\u0442\u0435\u0447\u0435\u043d\u0438\u0435": 29459, "\u2581AJAX": 18891, "\u2581symbol": 5829, "\u2581sens": 4771, "\u2581cient\u00ed": 23496, "notify": 25140, "\u2581octobre": 9419, "\u79c0": 31701, "\u0442\u043d\u043e": 13050, "\u03c8": 30559, "kal": 11311, "keep": 17462, "Exists": 24217, "atre": 6064, "\u2581N\u00e9": 27911, "ieu": 9532, "rac": 945, "\u2581mag": 2320, "\u2581handle": 4386, "\u2581VIII": 15682, "\u5de6": 31651, "\u2581Polsce": 24411, "mort": 29720, "\u2581Mer": 4702, "aking": 5086, "\u2581minister": 11050, "\u2581publicada": 26598, "Di": 12130, "Wel": 28862, "\u05d5": 30205, "\u2581practices": 23274, "\u2581requested": 13877, "\u2581mental": 19119, "\u010c": 30108, "---": 5634, "\u2581California": 8046, "\u2581septembre": 9355, "\u0434\u0435\u0440\u0436\u0430": 21853, "\u2581trait": 22917, "\u2581FROM": 3895, "\u2581brown": 17354, "INTER": 23845, "\u2581\u0442\u0432\u043e\u0440": 26878, "cp": 6814, "\u2581\u0411\u0430": 6049, "Map": 3388, "\u2581dataset": 8783, "ansas": 13353, "getInstance": 20958, "yo": 9029, "tests": 21150, "\u2581relevant": 8018, "\u82b1": 30830, "wait": 10685, "Receive": 24131, "\u2581alternatives": 27809, "\u2581threatened": 29513, "\u2581\u010di": 17218, "\u2581north": 6641, "\u2581kter": 8134, "Met": 10095, "tar": 12637, "apor": 26191, "Amer": 9816, "\u2581Wolfgang": 19314, "\u2581plays": 13582, "Valid": 7211, "\u2581pool": 11565, "ster": 2475, "cement": 13561, "\u9547": 30411, "\u2581\u0441\u043e\u0432\u0440\u0435\u043c\u0435\u043d": 23528, "\u2581char": 1373, "actor": 7168, "compile": 12198, "\u2581compreh": 15171, "\u2581bank": 9124, "Canvas": 21960, "\u2581dost": 27113, "\u2581intr": 11158, "CHAR": 11282, "\u2581Die": 1640, "\u2581visited": 16669, "BUG": 11578, "zeuge": 29471, "\u2581items": 4452, "visible": 12872, "\u2581\u043c\u0430\u0442\u0435": 23470, "\u2581innov": 24233, "Reference": 7422, "setText": 12038, "\u2581tri": 3367, "\u2581Council": 8831, "\u2581birth": 12060, "Level": 10108, "\u2581beh": 2306, "\u2581\u043b\u043e": 13860, "\u2581mucho": 27176, "Fun": 25394, "\u2581tv\u00e5": 16148, "\u2581datos": 18683, "\u2581Retrie": 19338, "\u2581stolet\u00ed": 27038, "\u2581branches": 14202, "\u2581\u041c\u043e\u0440": 29793, "\u2581Arm": 8481, "\u2581Bishop": 16880, "\u2581Vern": 23743, "anst": 16220, "services": 9916, "){": 2597, "\u2581Open": 4673, "\u2581r\u00e9al": 22259, "\u2581Nak": 20962, "\u2581LOG": 25401, "\u00e9d": 2487, "\u2581constraints": 11938, "UIImage": 26200, "\u2581legs": 21152, "\u2581Factory": 27561, "\u2581Jacob": 10968, "quence": 3910, "\u043c\u0430\u0442\u0438": 13576, "itime": 21998, "raham": 22084, "\u2581Haut": 24838, "parison": 20941, "\u0441\u043b\u0435\u0434": 6481, "\u2581populations": 23093, "aine": 9874, "\u2581management": 10643, "\u2581computation": 16287, "<0x8E>": 145, "\u0433\u043b\u0430\u0441\u043d\u043e": 23405, "\u2581Among": 17302, "\u00e1ly": 7837, "\u2581m\u00e9d": 10283, "\u2581vor": 3764, "\u2581evolution": 14675, "\u2581\u041f\u0443": 16569, "\u0447\u0435": 1093, "uit": 3121, "\u0435\u0441": 4449, "MAIN": 29032, "\u2581ihren": 14566, "\u9673": 31728, "\u2581\u0431\u0443": 3180, "\u2581hundred": 6893, "\u2581cabin": 28830, "\u2581przew": 29699, "\u2581cor": 1034, "\u2581{\"": 8853, "\u2581cols": 28730, "\u2581int": 938, "\u2581Christians": 27353, "\u2581Indians": 17072, "fico": 14894, "\u2581particul": 16530, "utto": 17317, "adv": 17263, "ACE": 11538, "\u0117": 30239, "\u2581fiddle": 18243, "\u0446\u0438\u0458\u0435": 23269, "\u256c": 30935, "Change": 7277, "pp": 407, "\u2581Spo": 24674, "\u2581apr\u00e8s": 7907, "\u2581finishing": 28321, "\u0434\u0438\u0438": 16268, "\u2581Check": 5399, "\u2581mig": 29542, "\u2581Ser": 1816, "\u2581Liber": 10895, "\u2581recuper": 22869, "\u2581retired": 16528, "}^{-": 19579, "Is": 3624, "Model": 3195, "\u2581Jakob": 27850, "\u2581ik": 12380, "\u2581```": 7521, "templates": 20943, "\u2581er": 604, "\u2581independent": 7417, "\u2581enqu": 22085, "\u2581\u0441\u043f\u0438": 27768, "bytes": 13193, "\u2581entering": 18055, "unter": 8428, "\u2581porque": 17485, "utors": 29560, "\u2581comun": 8759, "\u2581easiest": 19075, "\u2581lieutenant": 25097, "\u2581ort": 20289, "\u63d0": 31302, "\u2581Sci": 5636, "mus": 8366, "\u00e1ban": 10326, "\u2581OP": 6418, "\u671f": 31117, "\u2581heutigen": 29509, "iei": 27496, "\u5b57": 30578, "\u043a\u043b\u0438": 24018, "Builder": 5627, "ponse": 1713, "\u2581Cav": 20354, "\u2581nim": 21930, "oving": 21081, "<0xED>": 240, "\u0445\u0432\u0430": 26860, "\u2581blob": 23755, "\u2581republic": 23925, "ky": 3459, "\u2581differences": 12651, "\u2581got": 2355, "fficiale": 15765, "\u2581Calcul": 20535, "racy": 10068, "\u2581hair": 11315, "week": 18448, "\u2581passage": 13382, "pez": 14001, "ittest": 27958, "com": 510, "\u2581concurrent": 21984, "Executor": 13366, "\u2581\u043c\u0430\u0454": 23005, "\u0142": 30006, "nit": 26129, "\u2581Un": 853, "ipped": 16242, "\u2581suic": 23921, "sku": 18181, "\u2581tick": 16892, "ia\u0142": 5979, "\u0456\u0431": 10690, "\u2581r\u00e9pond": 25497, "Fail": 16243, "DM": 23560, "\u2581isol": 11695, "ET": 2544, "thesis": 26533, "pis": 3334, "gence": 10238, "irl": 5168, "\u2581ath": 17622, "\u2581\u0441\u0432\u0435": 19939, "elled": 14356, "Bi": 20517, "\u2581vec": 9649, "\u2581get": 679, "ya": 3761, "lar": 4675, "aty": 11156, "\u2581Ped": 9293, "etc": 7070, "\u0447\u0435\u043d\u0438\u0435": 12854, "\u2581Work": 5244, "ohn": 6547, "l\u00e4": 9231, "\u00e9tat": 28323, "egeben": 15398, "\u2581senior": 16336, "red": 1127, "\u1f41": 31219, "\u2581Info": 22140, "bes": 5707, "jack": 21452, "\u2581\u0421\u0430\u043d\u043a\u0442": 28380, "ppen": 7785, "\u786e": 31835, "\u2581\u0417\u0430": 3982, "cast": 4384, "\u5f18": 31998, "ising": 5921, "\u043b\u043b\u0430": 17502, "\u2581Navy": 13166, "\u2581Arena": 26053, "izable": 13902, "\ub97c": 31517, "Browser": 21537, "\u2581leadership": 26001, "\u2581offset": 9210, "opter": 19959, "loader": 12657, "TEST": 18267, "\u2581conditions": 5855, "\u2581Best": 6407, "\u2581crossing": 24067, "SP": 5550, "\u2581\u043a\u0430\u0442\u043e": 12041, "\u276f": 31840, "\u2581label": 3858, "Required": 19347, "\u2581integrated": 23387, "\u2581believed": 13112, "eles": 5830, "absolute": 23552, "\u2581\u041f\u0440\u0438": 7203, "\u0431\u044f": 20884, "\u043b\u0430\u0432": 5206, "inha": 16479, "stan": 14411, "\u2581\u043a\u043e\u043d\u0442\u0440\u043e": 24712, "\u2581liter": 4631, "\u2581shame": 28503, "\u2581each": 1269, "\u2581Syn": 10829, "\u2581Cho": 14542, "attice": 19704, "\u2581\u0437\u0443": 26144, "\u2581conse": 5178, "\u2581przy": 8321, "\u2581Queen": 10470, "\u2581;;": 11533, "abile": 18119, "\u2581Schl": 21262, "\u2581designated": 25373, "\u2581Folge": 18587, "\u0102": 31468, "porter": 18505, "\u2581interested": 8852, "gy": 1927, "Mac": 15735, "irs": 12935, "\u2581sho": 17394, "obre": 7630, "uta": 6637, "icut": 24408, "\u2581hitting": 29425, "\u043c\u0435\u043d": 2387, "\u2581django": 9557, "QUE": 11144, "\u0146": 30637, "\u2581\u041d\u043e\u0432\u043e": 18465, "\u2581Spark": 20814, "\u2581Ja": 14021, "\u2581\u043a\u043e\u0433\u0434\u0430": 18407, "documentation": 12663, "\u2581unable": 9368, "OnClickListener": 15909, "\u2581Eur": 26360, "\u2581earnest": 24828, "\u2581gel": 9127, "ashi": 18321, "\u2581[(": 17288, "\u2581torraste": 28647, "\u2581zab": 22249, "ucci": 27004, "multicol": 14155, "\u2581Sch\u00f6n": 28565, "ethod": 959, "prime": 10080, "ORD": 25593, "\u2581Native": 19042, "\u2581\u043f\u043e\u043b\u0435": 29235, "\u2581associated": 6942, "\u2581fal": 11092, "i\u00e8res": 29038, "\u2581informaci\u00f3n": 29717, "buff": 28040, "aggio": 10044, "merk": 28150, "\uc2dc": 30889, "zeich": 5185, "\u043d\u043e\u0432\u0430": 8240, "\u2581\u043f\u0440\u0430\u0432\u0438": 12318, "\u2581cinema": 24615, "\u8d85": 31480, "\u2581fields": 4235, "\u2581companion": 18708, "\u2581size": 2159, "\u2581\u0433\u043e\u0434\u044b": 18566, "\u2581Results": 17212, "~$\\": 28591, "\u2581quot": 13911, "ibil": 13017, "\u4e32": 31767, "<0x42>": 69, "\u2581money": 6909, "fif": 28491, "\u0442\u0443": 1500, "\u7dda": 31357, "\u2581verm": 12108, "\u2581mysqli": 17248, "One": 6716, "\u2581t\u00e9l\u00e9": 13745, "\u2581bev": 21329, "\u2581memor": 26959, "\u27e9": 30261, "\u0437\u043e\u0432": 11337, "\u2581\u00e9tait": 6303, "v\u00ed": 9584, "\u2581Lou": 4562, "frika": 22231, "}}$.": 26253, "inet": 10157, "Oct": 25375, "\u00f6\u00df": 11320, "concat": 17685, "\u2581\u2581\u2581\u2581\u2581\u2581\u2581\u2581\u2581\u2581\u2581\u2581\u2581": 795, "\u6885": 31948, "\u2581\u0442\u0440\u0430": 12550, "checked": 11238, "iku": 18282, "\u2581arch": 3190, "\u30d9": 31061, "\u2581Usually": 26991, "presentation": 26081, "\u2581categories": 13997, "\u2581lead": 3275, "\u2581\u0441\u0442\u0438": 14539, "sites": 16315, "secret": 19024, "\u2581w\u00fcr": 21770, "below": 22503, "\u2581Par\u00eds": 25645, "\u2581actually": 2869, "<0x0B>": 14, "\u043c\u0435\u043d\u0442": 12275, "ctx": 13073, "--------": 1378, "\u2581wrapping": 28489, "ec": 687, "ession": 1211, "\u2581\u015bwi": 12830, "\u2581\u0419\u043e": 28568, "\u0439\u043d": 12304, "\u2581mach": 7672, "late": 9632, "\u2581feels": 23880, "\u2581Fal": 12941, "\u2581Butler": 29384, "\u2581kamen": 28587, "geben": 23475, "Constraints": 27427, "\u2581via": 3025, "Base": 5160, "slug": 29517, "\u2581produced": 7371, "\u2581fue": 3576, "\u2581activities": 14188, "numbers": 20326, "\u2581sug": 29746, "sequence": 16506, ")..": 20149, "\u2581[": 518, "\u2581remarks": 29360, "\u3069": 31250, "\u2581disp": 12272, "strip": 17010, "conf": 5527, "\u2581dev": 2906, "apt": 2156, "cipl": 13326, "\u2581reconoc": 28546, "\u2581six": 4832, "\u2581immer": 14761, "\u2581Michigan": 17098, "------------": 9072, "\u2581Maz": 17326, "\u2581servant": 21649, "]": 29962, "\u2581layout": 5912, "INE": 8895, "\u2581\u041a\u0430\u0440": 10777, "\u2581concl": 26534, "\u2581fancy": 19231, ",\\,": 24308, "\u2581Quando": 26425, "\u2581\u044d\u043a\u043e\u043d\u043e": 24297, "\u05b4": 30681, "\u2581provincial": 25750, "inue": 14150, "\u2581\u0441\u0432\u043e": 3862, "iedz": 16426, "\u2581#{": 24037, "\u2581casa": 10245, "\u2581Parad": 24829, "\u53cd": 31908, "ive": 573, "irt": 2728, "\u05e9": 30294, "\u2581Liens": 7318, "oll": 3028, "\u2581mail": 10524, "ensen": 14762, "\u2581Better": 26965, "\u2581seulement": 23422, "ret": 2267, "\u2581Liver": 22469, "\u2581actors": 29701, "pages": 12292, "\u2581Polish": 19919, "\u2581\u043f\u0435\u0440\u0438\u043e\u0434": 21687, "\u2581g\u00e9nero": 24122, "\u2581Norweg": 23480, "\u7af9": 31709, "createElement": 22662, "\u2581div": 1933, "\u021bia": 17160, "\u2581gradu": 10591, "\u2581token": 5993, "\u2581Portuguese": 25519, "\u2581prime": 6019, "FI": 3738, "uela": 9992, "iembre": 5433, "\u0431\u043a\u0430": 23348, "\u2581Teams": 23570, "\u2581dx": 15414, "\u2581recording": 16867, ")$.": 4935, "\u2581cole": 27181, "\u2581\u0432\u043c\u0435\u0441\u0442\u0435": 23414, "\u2581acht": 22019, "icon": 4144, "arters": 13868, "endre": 9030, "\u2581issues": 5626, "\u2581ap\u00f3s": 24292, "\u2581\u0440\u0435\u0437\u0443\u043b\u044c\u0442\u0430": 13439, "sorted": 24582, "EC": 11206, "spieler": 14594, "enschaft": 7008, "\u2581\u0441\u0443": 3404, "\u2581ASP": 12738, "ibility": 4127, "\u2581\u043f\u0440\u0430\u0432": 16901, "\u2581hyd": 27246, "\u2581\u0444\u0430\u043a\u0443\u043b\u044c": 29806, "\u2581fame": 27965, "cou": 16589, "istance": 21558, "model": 4299, "\".$": 22681, "\u2581primo": 11532, "\u2581femmes": 19452, "(@": 10394, "<0xAB>": 174, "bitr": 8844, "\u2200": 30315, "ness": 2264, "\u2581NE": 14693, "\u2581Costa": 17513, "\u2581Garden": 19906, "annotation": 18317, "\u2581furono": 17380, "\u4e2a": 30502, "\u00e1sz": 15995, "vik": 17064, "olg": 22991, "tout": 24442, "<0x90>": 147, "\u2581Muslim": 23772, "\u2581Major": 11019, ")^": 4887, "\u2581solves": 24307, "napshot": 14551, "\u2581negli": 20059, "\u2581along": 3412, "\u2581eerste": 13710, ")));": 17884, "\u2581icons": 27673, "\u2581tamb\u00e9": 15610, "\u2581Finn": 21189, "\u2581bij": 5928, "\u2581expedition": 24431, "\u2581\u0438\u0441": 9971, "\u2581Two": 7803, "\u2581purs": 12359, "\u2581polynomials": 24655, "\u00e8ncies": 27609, "\u2581Welcome": 21829, "hill": 29131, "Term": 14343, "oon": 6150, "\u2581memb": 3813, "reso": 28857, "\u0440\u0435\u0434\u0438": 9951, "\u2581stick": 12070, "\u2581bron": 12246, "analy": 24209, "\u2581Free": 12362, "laps": 14128, "\u2581Dokument": 28521, "shared": 12366, "irect": 1088, "VM": 9219, "\u2581\u043d\u0430\u0447\u0430": 7140, "\u2581\u041f\u0430\u0440\u0438": 23988, "\u2581seus": 11018, "\u2581Baden": 21311, "\u2581cuenta": 21052, "important": 17001, "auer": 7547, "CONFIG": 25903, "\u2581melhor": 28847, "LIST": 24360, "dist": 5721, "\u2581velocity": 12885, "lette": 20200, "\u2581Milan": 20308, "\u2581ult": 8494, "\u2581arrival": 18517, "\u00e4che": 19483, "azionale": 24916, "reib": 12207, "\u2581denote": 13530, "\u0261": 30511, "\u2581\u0437\u043d\u0430": 6253, "\u2581\u042f": 6061, "atern": 25744, "ying": 5414, "\u2581Garc": 19734, "voir": 7869, "certain": 14082, "\u2581uz": 27296, "\u2581\u043c\u044b": 26907, "\u043d\u0443": 1864, "Portail": 2639, "\u00de": 30452, "\u0447\u0438\u043d": 15132, "coln": 16575, "\u2581rooms": 19600, "\u2581cela": 18729, "\u2581aircraft": 15780, "\u00fcss": 10673, "\u2581Valley": 13939, "\u2581m\u00e1r": 14434, "\u0458\u0443": 7010, "\u2581especie": 22656, "\u2581Mich": 3375, "\u2581Edit": 7641, "\u2581Nev": 26572, "igo": 5973, "ober": 4950, "\u2581Refer": 4118, "\u2581\u044f\u043d\u0432\u0430": 13594, "\u0433\u043e\u0440": 17310, "Lond": 26682, "\u00e9die": 23044, "\u2581glo": 15482, "}$,": 4429, "ugg": 12981, "\u2581nombr": 25264, "\u2581later": 2678, "olia": 18001, "\u2581craw": 29349, "\u2581\u0441\u0442\u0430\u0440": 14871, "guide": 13075, "\u2581\u043a\u043e\u043c\u043c\u0443": 24486, "\u2581stating": 23659, "Completed": 26010, "under": 5062, "\u2581Gia": 22566, "\u2581feature": 4682, "issa": 16343, "fon": 18753, "\u2581expensive": 19390, "\u2581Deutsch": 4493, "Sec": 7898, "Err": 19212, "\u00fchle": 26973, "ogle": 1882, "ard": 538, "\u2581Also": 3115, "\u2581\u043e\u043f\u0435\u0440\u0430": 16458, "iche": 4070, "\u00e9ny": 7125, "\u2581Sales": 28389, "\u2581ao\u00fbt": 10158, "\u2581\u043e\u0431\u0438": 27699, "\u2581Steven": 24703, "\u2581Texas": 10319, "\u00edgen": 28068, "Sol": 13296, "\u2581agre": 8571, "%;\r": 16737, "olid": 17211, "FB": 18426, "orry": 3818, "stra\u00dfe": 13759, "stoff": 19242, "\u2581insight": 25483, "xiv": 26560, "\u2581substitute": 23764, "\u5730": 30533, "ester": 4156, "\u2581Unable": 20065, "\u2581TypeError": 20948, "(*)": 22798, "\u2581Room": 25114, "\u0e18": 31547, "Usage": 27573, "\u2581denotes": 20169, "\u2581pil": 8230, "\u2581Terry": 27571, "iens": 11689, "\u2581Storia": 19719, "\u00e7a": 4277, "\u2581Meta": 20553, "\u2581ar": 564, "\u2581Natal": 26259, "\u53f8": 30931, "\u2581k\u00f6z\u00f6tt": 18646, "\u017cy": 7558, "\u2581dall": 8912, "\u2581Rol": 8731, "\u0644": 30138, "\u2581numero": 17910, "ov\u00fd": 28921, "ier": 631, "ultur": 9730, "\u5e73": 30606, "\u2581patr": 22191, "\u2581ami": 18926, "Tools": 24183, "\u2581simultaneously": 21699, "uc": 1682, "ez": 6096, "tabs": 21175, "ell": 514, "Bl": 10358, "fass": 19874, "Fig": 13080, "\u2581poeta": 27780, "\u2581\u0420": 1483, "etime": 5410, "\u30eb": 30258, "aded": 11932, "\u2581lets": 16869, "\u2581ils": 11797, "\u2581Fred": 12001, "\u2581Akt": 28858, "\u2581Lith": 27620, "\u2581send": 3638, ").": 467, "\u0437\u043d\u0435": 22651, "\u2581d\u00e9r": 29057, "Chain": 14688, "cted": 2954, "\u2581Nevertheless": 25678, "\u2581wrapped": 21021, "igu": 5526, "\u2581hi": 7251, "awt": 17338, "\u8eca": 31587, "\u2581nomin": 10418, "asion": 7002, "\u2581canvas": 10508, "Ge": 7999, "pto": 24070, "\u0446\u0435\u043d": 14236, "\u2581\u0432\u0443": 18270, "\u2581\u041d\u0430\u0441\u0435\u0459\u0435": 23875, "liers": 27801, "price": 9175, "iante": 12361, "\u5185": 30728, "\u2581addr": 28915, "\u0440\u0430\u044f": 18171, "contrib": 21570, "\u2581fifteen": 25020, "ament": 1166, "\u2581According": 7579, "Omega": 5981, "\u2581sus": 2858, "bil": 18152, "\u2581\u0436\u0435\u043d\u0430": 23955, "\u2581toler": 20341, "Strategy": 26910, "\u2581notification": 12519, "nan": 13707, "\u2581MySQL": 9254, "\u2581illustrated": 26848, "\u2581employee": 19001, "bew": 21761, "\u0432\u0430": 846, "uv": 4090, "Horizontal": 24932, "<0xA8>": 171, "\u043b\u0435\u0440": 22565, "egos": 21024, "\u2581Rem": 5240, "regex": 13087, "\u2581bos": 13601, "\u0397": 30835, "\u5206": 30748, "romagnet": 26097, "\u2581recht": 21131, "\u2581channel": 8242, "\u2581wind": 8805, "scal": 19529, "\u2581Camera": 24321, "\u043d\u0456\u0446\u0438\u043f\u0430": 18676, "\u201c,": 9785, "\u2581Morris": 23112, "\u2581Added": 25601, "\u2581\u0433\u0440\u043e\u043c\u0430": 23463, "\u2581drivers": 18563, "\u2581Phys": 11661, "antal": 17978, "\u2581subset": 11306, "\u2581VI": 5473, "\u2581inc": 5528, "\u2581supported": 6969, "\u2581read": 1303, "}}}\\": 20388, "\u2581McG": 22805, "\u2581Arag": 24350, "resol": 9778, "j\u00f6r": 24900, "\u2581\u0432\u043e\u0437\u0440\u0430": 27808, "\u2581punto": 15978, "FROM": 21482, "Web": 3609, "\u2581graphics": 18533, "ware": 2519, "\u0437\u0430\u0445": 23017, "ctrl": 24220, "phia": 16271, "ografie": 9052, "bullet": 18850, "\u2581M\u00e9": 10275, "l\u00e8s": 17210, "\u2581dor": 16630, "plate": 2341, "\u2581leng": 28537, "\u2022": 30119, "\u2581comenz\u00f3": 27712, "\u5e94": 31370, "\u2581forces": 8249, "oute": 2663, "\u2581\u0441\u043a\u043b\u0430\u0434\u0456": 21887, "Studio": 28867, "SERT": 9938, "\u010dka": 25429, "Exit": 24365, "\u2581sf": 18668, "imal": 3039, "aja": 9919, "Count": 3981, "\u2581ros": 14652, "achusetts": 15404, "\u2581Sic": 18349, "vic": 26311, "\ub4e4": 31804, "lint": 27854, "undred": 6453, "nelle": 23497, "\u2581sc": 885, "\u2581insgesamt": 26696, "\u2581fiel": 29607, "\u2581shoulders": 26671, "\u2581Sein": 20505, "\u2581zas": 24501, "ie\u00df": 21372, "wikipedia": 6011, "\u2581dependency": 10609, "\u2581serve": 9080, "\u2581customers": 20330, "Li": 23410, "\u2581pelo": 10845, "Errors": 22463, "Here": 10605, "\u2581ske": 18109, "\u0dcf": 31712, "ISO": 29096, ".\");": 18327, "DL": 19558, "FILES": 24483, "\u2581quel": 7594, "\u2581r\u00e9": 1841, "wie": 7804, "\u00edm": 5487, "\u2581\u041c\u043e\u0441\u043a\u043e\u0432": 20208, "inc": 3742, "\u2581Bef": 20630, "expression": 17471, "doc": 1514, "\u2581fr\u00e8re": 26083, "Cl": 6821, "\";\r": 25982, "\u2581separately": 16949, "FP": 26353, "\u2581today": 9826, "Par": 2177, "high": 9812, "\u2581Islam": 16427, "\u2581One": 3118, "\u00e9ho": 6690, "\u2581Def": 5282, "\u2581dw": 11988, "oto": 3747, "\u2581senza": 17876, "ultats": 19718, "\u2581janvier": 8891, "\u0432\u0430\u0442\u0438": 10957, "Scene": 23472, "\u2581Collegamenti": 7764, "\u2581ret": 3240, "\u2581mismo": 11329, "\u2581perspective": 18520, "\u02c7": 31929, "ensions": 5580, "\u2581Gall": 8130, "BY": 22716, "tbody": 15370, "\u2581na": 1055, "\u2581\u0430\u043a\u0430\u0434\u0435": 17670, "\u2581ER": 8982, "here": 4150, "Anim": 21645, "mean": 12676, "supported": 23765, "\u2581unclear": 20871, "ativ": 1926, "\u2581diver": 17089, "\u2581Python": 5132, "ev": 5750, "\u2581neben": 20104, "\u05df": 30447, "\u2581pop": 1835, "burgo": 28980, "\u043b\u0435\u043a\u0441\u0430\u043d\u0434": 9592, "ushing": 21616, "\u2581continu": 3133, "\u2581pan": 7243, "\u2581Professor": 11386, "\u2581Bash": 29677, "\u30b7": 30373, "\u0119pu": 21917, "kt\u00f3ber": 23441, "complete": 8835, "\u00edda": 28815, "\u2581Brand": 18007, "\u2581magyar": 17717, "\u2581allocate": 23632, "\u2581gobierno": 19368, "\u826f": 31400, "elijke": 6945, "presa": 13039, "\u2581\u0433\u043e\u0440\u043e\u0434\u0430": 13867, "\u2581Fin": 4231, "Then": 11760, "ielt": 9304, "\u6d77": 30581, "iz": 466, "\u21b5": 31188, "\u2581semb": 24304, "\u0442\u0438\u043d\u0430": 22033, "\u2581agua": 22989, "WA": 12982, "ocr": 8415, "nb": 9877, "QUEST": 14130, "\u2581storing": 15446, "\u2581\u0447\u0435\u043c\u043f\u0438\u043e\u043d\u0430": 15895, "tembre": 16252, "\u2581standards": 20801, "\u0432\u0430\u043b\u043e": 29354, "\u3059": 30427, "\u2581\u041d\u0430\u0441\u0435\u043b\u0435\u043d\u0438\u0435": 21636, "\u2581\u041f\u0440\u0435\u0434": 25115, "intellij": 28820, "policy": 22197, "Desktop": 17600, "\u4fe1": 30689, "\u2581Inn": 25408, "ghan": 25143, "LE": 1307, "\u2581Studio": 7448, "\u2581Frances": 10986, "from": 3166, "\u2581hace": 20470, "\u2581ted": 29748, "\u2581transfer": 6782, "}/": 6822, "\u2581cred": 6625, "\"></": 5319, "enses": 11259, "iah": 21071, "\u2581Fu\u00dfball": 13739, "bishop": 28693, "ourn": 2905, "\u2581\u0441\u0442\u0435\u043f\u0435\u043d\u0438": 27781, "ic\u0103": 19008, "\u0445\u0440\u0430": 15177, "ografi": 29153, "\u2581chairman": 28942, "From": 4591, "\u2581$": 395, "imiter": 19657, "itza": 24597, "\u2581stycznia": 24002, "itzen": 22940, "\u00eds": 4580, "\u2581kal": 25364, "\u2581Google": 5087, "\u2581Aven": 28943, "Daniel": 29866, "\u016fm": 23108, "\u2581Bibliograf\u00eda": 29054, "\u2581[\"": 6796, "javax": 23357, "anno": 7665, "appy": 14862, "\u2581\u0421\u0442\u0430\u043d\u043e\u0432": 17835, "\u2581Hugo": 20650, "\u2581email": 4876, "riminal": 28479, "intern": 14168, "\u2581bent": 26148, "Lu": 24126, "\u2581produit": 27666, "\u2581kont": 13156, "\u2581champions": 29314, ">();": 8295, "\u0451\u043c": 11560, "\u2581stati": 23436, "atoes": 20452, "amment": 10460, "\u2581Australian": 9870, "(\\": 1194, "\u2581folk": 19589, "\u2581operated": 19623, "\u2581superficie": 20866, "\u043b\u043e\u0432\u0438": 13339, "body": 2587, "\u05d2": 30554, "fu": 21154, "\u2581xcode": 24089, "\u03c0": 30170, "\u1e6c": 31508, "\u2581vere": 24269, "\u2581\u0441\u0442\u043e\u043b\u0456": 29526, "\u2581Rect": 22914, "\u2581autonom": 28273, "Bar": 4297, "\u2581located": 5982, "<0xC1>": 196, "inds": 12772, "\u2581suggesting": 26233, "\u2581wrze\u015bnia": 25298, "\u2581fl": 1652, "\u043b\u044c": 693, "mel": 12873, "\u2581Georges": 18604, "\u2581Ax": 22523, "\u2581\u0413\u0443": 15180, "\u2581estudios": 29061, "_{": 648, "Age": 22406, "mathcal": 1942, "\u2581Miguel": 16682, "\u2581registr": 21557, "ckets": 9737, "ocz": 19393, "\u2581Reyn": 28555, "\u95ee": 31658, "ocoa": 22531, "\u2581ultimately": 18973, "\u2581gru": 4500, "wer": 556, "\u2581brought": 6296, "ub": 431, "\u2581Proposition": 22206, "\u2581\u0438\u043d": 5068, "\u2581dog": 11203, "\u2581grasp": 25274, "\u2581primer": 7130, "fica": 12619, "\u2581pod": 2532, "Action": 4276, "\u2581Type": 5167, "\u2581servants": 26202, "factor": 19790, "\u2581hover": 16758, "\u2581circular": 19308, "Btn": 20808, "beg": 28060, "\u516c": 30539, "note": 6812, "Sc": 4421, ")/": 6802, "=>": 4261, "seau": 14654, "\u0435\u043b": 26296, "\u2581alte": 22924, "\u2581Because": 7311, "GS": 10749, "\u2581Take": 11190, "fd": 11512, "\u043b\u0435\u043a": 13009, "\u7b26": 31277, "\u2581tex": 19696, "\u2581src": 4765, "\u2581abstra": 27086, "\u2581Active": 10731, "\u2581gather": 11705, "cu": 4979, "\u2581Tot": 19013, "depth": 19488, "\u0437\u043d\u0430\u0447\u0430": 19894, "ammed": 28913, "\u2581might": 1795, "acent": 16648, "\u2581MAC": 26750, "\u2581\u0418\u0441\u0442\u043e\u0440\u0438\u044f": 15034, "\u202c": 31379, "-+": 11793, "slow": 28544, "Chr": 11626, "psum": 15663, "cent": 1760, "\u8fde": 31903, "\u2581ISO": 17723, "<0xDE>": 225, "ini": 2172, "Save": 11371, "chant": 13775, "\u2581llamado": 27329, "\u2581parl": 24590, "\u3010": 31478, "grund": 12204, "\u2581attract": 13978, "\u901f": 31859, "\u85cf": 31707, "\u0116": 31742, "\u2581\u041f\u043e\u0440": 26150, "ailable": 3106, "indi": 14108, "rug": 11124, "Date": 2539, "annot": 6735, "\u2581wing": 21612, "\u2581Lil": 28624, "oline": 26496, "\u2581dictionary": 8600, "\u2581university": 16372, "\u2581extent": 15834, "\u00b9": 30193, "rinn": 18023, "\u2581Estado": 16763, "\u2581linear": 5608, "\u2581intellig": 13052, "\u2581weights": 18177, "\u2581colle": 23056, "\u2581LP": 23671, "\u4e16": 30793, "PATH": 10145, "\u2581Version": 10079, "\u2581heeft": 11926, "\u2581oltre": 21774, "Step": 14448, "bourne": 17418, "\u2581sid": 25349, "\u00f6ffentlich": 26207, "iks": 29292, "pla": 13974, "\u2581\u0444\u0440\u0430\u043d\u0446\u0443": 16201, "ajo": 7069, "\u2581Haus": 10727, "\u2581Ritter": 27917, "wt": 14554, "[{": 19660, "\u2581jet": 22588, "<0xDF>": 226, "<0x29>": 44, "\u2581Read": 7523, "upload": 9009, "\u2581Heimat": 22200, "urale": 27730, "\u2581Br": 1771, "Institut": 24985, "\u2581rout": 6745, "\u2581meses": 27066, "imit": 13083, "\u2581sports": 14717, "\u2581Mau": 22209, "\u2581t\u00e9": 14858, "\u2581Body": 24928, "forall": 10956, "dienst": 26293, "bau": 9738, "\u53d8": 31462, "\u2581\u0444\u0430\u043c\u0438\u043b\u0438": 18147, "\u2581\"": 376, "++,": 10024, "\u2581transparent": 17772, "Da": 27838, "\u2581condition": 4195, "\u2581documentation": 5106, "\u2581problems": 4828, "\u2581famil": 1832, "thur": 9743, "\u2581Layout": 20259, "ginx": 16237, "\u2581Since": 4001, "udni": 25113, "\u2581Born": 19298, "\u2581signal": 7182, "\u2581prospect": 27289, "\u2581Fernando": 17993, "layer": 13148, "\u2581Twitter": 20147, "password": 5630, "fore": 1079, "incie": 25597, "\u2581Mu": 8229, "awa": 10011, "age": 482, "DE": 2287, "\u203a": 30405, "\u2581convers": 9678, "Az": 16748, "\u0441\u043f\u043e\u0434\u0430\u0440": 24975, "\u2581weight": 7688, "\u2581spite": 21100, "\u0430\u043b": 11887, "\u2581nast": 11777, "UserName": 28129, "\u2581\u043c\u0456\u0441\u0442\u0430": 25191, "\u2581relate": 29279, "atte": 15127, "\u2581behind": 5742, "\u2581Graph": 12367, "RA": 4717, "\u2581Bog": 15872, "pu": 3746, "\u2581Japon": 23326, "\u5929": 30408, "\u2581Los": 4602, "\u2581\u0443\u0441\u0442\u0430\u043d\u043e\u0432": 21656, "\u2581\u0435\u0434\u0438": 29082, ")})": 26972, "vers": 874, "}{|": 24525, "\u0437\u043e": 4734, "be": 915, "\u2581fighting": 17770, "\u2581Dis": 3295, "\u2581walked": 17096, "\u0434\u0430": 840, "job": 9057, "\u2581cabe": 27444, "\u2581fran\u00e7ais": 7691, "\u2581\\[\\": 18024, "\u2581Rotten": 24373, "\u0440\u043e\u0436": 18538, "\u2581grid": 6856, "hline": 7760, "\u2581diffusion": 23253, "\u0442\u0435\u0440\u0430": 6713, "dost\u0119p": 22258, "\u0142\u00f3w": 25588, "Authentication": 16746, "\u2581Mosk": 26387, "\u043e\u0432\u0438": 1928, "\u2581though": 2466, "\u2581url": 3142, "\u2581username": 8952, "eerd": 10287, "\u2581Tol": 16977, "\u043b\u043e\u0441\u044f": 21483, "\u2581Lau": 25092, "large": 16961, "\u2581substring": 28228, "\u2581They": 2688, "\u0429": 30186, "ater": 1008, "perty": 2800, "\u4fdd": 30982, "\u2581environmental": 29380, "\u2581IC": 18340, "mess": 12062, "\u017c": 30042, "Scope": 15289, "\u0412\u043e": 27129, "rong": 29373, "\u2581recover": 9792, "\u2581gepubliceerd": 10711, "\u2581Mad": 4104, "\u2581they": 896, "yes": 3582, "\u2581losing": 19035, "\u014f": 30476, "\u2581Soccer": 18993, "ilers": 22058, "\u2581trial": 14260, "dictionary": 27126, "\u2581Magazine": 17880, "\u96ea": 31731, "\u2581\u00dcbers": 19999, "\u2581dam": 5625, "&=": 20644, "\u2581anno": 12327, "un": 348, "\u2581timezone": 29431, "\u0634": 30256, "\u2581vertex": 12688, "\u610f": 31474, "\u2581depends": 7111, "alem": 12698, "\u2581pray": 12475, "avia": 12751, "\u2581efficiently": 29497, "Time": 2481, "\u2581cidade": 17931, "English": 24636, "\u2581perch\u00e9": 27671, "\u2581mistakes": 28947, "\u2581Mitglieder": 29864, "nt": 593, "\u2581zag": 22127, "\u2581pa\u017adziernika": 26643, "Tr": 2308, "ishop": 9835, "\u0441\u0442\u043e\u0432\u0443": 25308, "\u0441\u0442\u0432\u0435": 9374, "\u2581Sub": 3323, "rewrite": 23174, "compare": 18307, "\u2581mak": 2136, "lez": 11867, "\u2581phys": 4824, "\u2581Logger": 28468, "\u2581Leipzig": 14575, "\u30ce": 30901, "\u2581Switch": 28176, "utt": 4774, "since": 16076, "_\"": 27508, "super": 9136, "page": 3488, "NET": 6006, "Unknown": 14148, "\u2581aunque": 17742, "Aus": 18306, "\u02b0": 30704, "\u2581coverage": 23746, "\u2581T\u00fcr": 25424, "emptyset": 26153, "\u043d\u044b\u043c\u0438": 8535, "\u2581Ehr": 29245, "itor": 2105, "\u2581Pictures": 26069, "iento": 5230, "\u2581pos": 926, "\u0113": 30230, "\u2581newer": 20687, "indow": 2064, "\u2581green": 7933, "\u2581collision": 22369, "\u2581th\u00e9": 13219, "\u5c4b": 31654, "\u2581fifty": 19044, "\u0433\u0430\u043d\u0438": 10574, "\u2581reserved": 21676, "\u00fcller": 17552, "\u2581defect": 23503, "\u2581Elisabeth": 26761, "\u2581Normdatei": 28331, "\u0263": 31165, "\u2581\u0441\u0435\u0440": 10182, "\u2581resize": 19490, "bund": 16293, "\u2581ups": 24081, "ifact": 7060, "\u753b": 31046, "\u2581\u0432\u0440\u0435": 5599, "\u00f5es": 4420, "ikal": 23587, "\ufeff": 30143, "supp": 19303, "\u2581Az": 4709, "\u2581producer": 14297, "izzazione": 21146, "\u0440\u043e\u0432\u043e\u0439": 26537, "\u2581Gabriel": 18672, "\u2581september": 18251, "\u2581forg": 18879, "\u2581proble": 19329, "\u2581mathematics": 23964, "\u2581Nouvelle": 25124, "ANGE": 24336, "\u25b8": 31234, "\u2581circ": 3449, "\u2581sci": 4560, "no\u015bci": 11997, "\u2581Schrift": 17802, "\u2581abb": 22195, "seq": 11762, "\u2581calendar": 17684, "\u2581scratch": 22728, "\u2581Pacific": 14328, "\u2581encrypt": 27924, "\u2581Lu": 3182, "\u10dd": 30541, "\u2581freedom": 16082, "back": 1627, "formance": 13390, "\u0445\u0430\u043d": 23485, "\u2581assertion": 28306, "\u0162": 31783, "\u043a\u0440\u0430\u0457\u043d": 14799, "types": 8768, "\u2581lac": 24011, "agna": 15713, "\u2581Slov": 22250, "enf": 23578, "\u2581hope": 4966, "\u592a": 30654, "------": 22158, "\u30aa": 30514, "\u2581'-": 17411, "<0x8C>": 143, "\u2581illustrate": 28475, "\u2581Property": 9079, "\u00e8re": 1908, "How": 5328, "\u2581Once": 9038, "\u2581guaranteed": 22688, "xsd": 19168, "\u2581calculated": 12833, "\u0906": 31732, "\u76f4": 31157, "-)": 15805, "\u2581spons": 21955, "\u2581\u0441\u0435\u043b\u0430": 18969, "ice": 625, "\u2581impossible": 9301, "\u2581damage": 18658, "\u2581prev": 12379, "\u2581m\u00e9t": 11510, "\u2581liquid": 23904, "\u043d\u0430\u043d": 11659, "\u2581gens": 26943, "LinearLayout": 15575, "pieler": 13262, "\\\\": 1966, "\u2581bis": 2652, "\u2581\u0412\u0430\u0440": 27058, ".\u201d": 3178, "\u2581Airport": 18117, "pm": 3358, "asket": 7896, "\u0436\u0435\u043d\u043d\u044f": 12426, "\u2581kam": 9286, "haft": 22023, "Protocol": 17830, "\u2581Json": 14355, "\u2581crash": 8095, "\u2581momentum": 19399, "eden": 6424, "most": 3242, "IVE": 18474, "ov\u00fdch": 27522, "\u2581equations": 10693, "\u00e4ler": 28864, "\u2581Wor": 19662, "\u2581Ab": 1976, "\u2581Fragment": 19063, "ECK": 16658, "\u0575": 30657, "zia\u0142": 17634, "\u2581apart": 12435, "\u2581particles": 17105, "\u2581associ": 4067, "n\u0105": 12486, "\u2581dire": 2970, "antin": 13027, "\u2581inj": 10899, "\u2581sans": 7209, "\u2581franz\u00f6s": 14221, "\u5b89": 30670, "\u2581generic": 10035, "verk": 24484, "\u2581spirit": 8548, "\u2581byly": 27277, "\u2581quantity": 14728, "\u0432\u0438\u0434": 20874, "tit": 23545, "\u0442\u0430\u043c\u0438": 14331, "\u2581katol": 29483, "\u2581convinced": 25617, "\u0219": 30065, "bed": 2580, "AS": 3289, "\u2581allerdings": 22761, "\u2581Pent": 22901, "\u2581Amt": 19092, "attend": 27601, "\u2581Tir": 27810, "V": 29963, "\u0d31": 30976, "\u2581esto": 18261, "trightarrow": 28751, "\u1ead": 31142, "\u2581erg": 23682, "\u2581rin": 29053, "\u00e9qu": 21871, "\u00e9l\u00e9": 9509, "\u2581everything": 4129, "\u2581\u00c1l": 26678, "\u2581browser": 4714, "ieb": 10789, "ambda": 2269, "\u2581frame": 3515, "\u2581gegr\u00fcndet": 24451, "\u2581agents": 19518, "Thank": 25271, "we": 705, "lower": 13609, "Rem": 7301, "erdings": 18547, "ictionary": 4334, "\u2581chip": 29830, "ock": 1698, "\u0434\u043d\u043e\u0433\u043e": 27505, "\u2581button": 2826, "\u2581Pascal": 29671, "\u00e4nder": 13178, "\u043b\u044f\u0445": 22373, "\u2581beach": 25695, "\u2581hub": 19766, "ske": 26050, "\u6c17": 31648, "reload": 28120, "n\u00fdch": 28216, "\u2581switch": 4607, "yman": 21909, "${": 5303, "\u2581\u043d\u0435\u043e\u0431": 23842, "su": 2146, "\u2581grass": 17455, "\u2581Europe": 4092, "idden": 4215, "aal": 16113, "\u2581interven": 26314, "\u2581block": 2908, "\u2581Latin": 13548, "am": 314, "\u2581ai": 7468, "\u10dc": 30632, "\u2581omr\u00e5": 28652, "xtart": 25248, "sync": 16593, "\u2581Pia": 27663, "\u2581copying": 17596, "mys": 5781, "\u2581\u00e9conom": 23837, "To": 1762, "\u2581literal": 16333, "avy": 5301, "\u043e\u0434": 10285, "\u2581main": 1667, "\u2581fonts": 23849, "\u2581solution": 1650, "\u2581repo": 13761, "\u2581sq": 18074, "sex": 14167, "\u2581Valle": 25324, "\u2581appear": 2615, "\u2581Library": 9538, "\u2581bounded": 12635, "mobile": 16769, "\u2581ingen": 24386, "\u00f3rico": 26013, "\u2581Sah": 24246, "\u2581\u0444\u0440\u0430\u043d\u0446\u0443\u0437": 27055, "\u2581ignor": 16245, "\u2581opens": 13246, "\u1f08": 30788, "\u2581German": 5332, "\u00e4ft": 14133, "\u2581Each": 7806, "}}^{": 23325, "\u2581Religion": 27099, "free": 9021, "\u2581blah": 29268, "\u2581le": 454, "bras": 15863, "\u2581indent": 29536, "\u2581\u0441\u0442\u0430\u043d": 5151, "fficial": 7880, "\u2581stan": 11075, "\u2581greatest": 14176, "\u2581CC": 19178, "wahl": 14967, "Paint": 28939, "lande": 28328, "\u0646": 30162, "setup": 14669, "\u00e9rique": 20600, "ByVal": 26918, "\u2581Cham": 13749, "\u2581instances": 8871, "\u2581Tu": 12603, "\u2581fert": 19965, "\u00e9nyek": 20762, "lex": 2506, "\u2581\u0422\u0443\u0440": 23411, "\u2581zo": 8534, "InstanceState": 12223, "erade": 15019, "bur": 8399, "\u2581Rahmen": 25197, "\u2581Ze": 3091, "dl": 11671, "\u2581\"\\<": 20770, "installed": 25537, "\u2581attribute": 5352, "\u2581ranking": 24034, "\u2581Their": 11275, "\u2581offers": 16688, "iest": 12239, "\u2581liberal": 26054, "irectory": 5554, "curr": 21962, "luss": 13596, "\u2581Watch": 24274, "\u0442\u0440\u043e": 9934, "\u2581med": 1612, "\u2581GL": 12729, "otion": 8194, "\u043a\u043e\u043d": 6587, "\u2581perd": 11113, "optera": 23672, "<0x63>": 102, "olog\u00eda": 14046, "\u9009": 31333, "\u2581father": 4783, "\u2581egg": 19710, "urbed": 28179, "\u300b": 30843, "\u2581clo": 17184, "\u2581cross": 4891, "\u2581edificio": 28130, "cs": 2395, "Fernseh": 25582, "erman": 3504, "TextField": 15778, "\u2581Em": 2812, "nab": 7183, "fre": 10745, "hab": 7308, "\u2581scal": 8716, "\u754c": 30967, "\u62c9": 31543, "\u2581faith": 10847, "ppers": 22437, "\u2581\u0436\u043e\u0432\u0442\u043d\u044f": 25460, "ROM": 3491, "\u2581threaten": 20616, "\u03c7": 30274, "\u2581pot": 3104, "\u2581EL": 14845, "\u043b\u0435\u043d\u0438\u0439": 20544, "\u2581locked": 22822, "T": 29911, "\u30fc": 30185, "\u2581destruction": 22104, "\u2581\u041c\u043e\u043d": 23796, "\u4efb": 31450, "Off": 6880, "borg": 14203, "\u2581Fam": 27458, "}}.": 27243, "\u2581Still": 12074, "\u0437\u0438\u0434\u0435\u043d": 20210, "\u2581Jimmy": 20636, "\u2581gau": 13395, "limit": 13400, "braries": 8464, "strings": 19651, "\u2581Guer": 8911, "\u2581ill": 4486, "\u79cb": 31569, "\u2581briefly": 23359, "\u2581respectively": 8307, "ovi": 6895, "bez": 15325, "\u2581sout": 13267, "\u3073": 31298, "David": 19504, "tv": 12427, "Back": 5841, "\u2581silence": 15142, "\u2581Develop": 10682, "\u2581viene": 10755, "f\u00fchrt": 19738, "\u2581HMS": 23273, "\":{\"": 28819, "identity": 22350, "typeof": 18059, "\u00e9g": 2445, "gew": 9396, "\u2581scenario": 10483, "Iter": 13463, "may": 13029, "\u2581iterations": 24372, "ball": 2135, "\u2581Audiodateien": 12497, "\u2581Abstract": 25513, "\u2581Sor": 17784, "r\u00edguez": 26415, "\u2581configure": 10822, "\u0447\u0451": 16182, "\u2581hav": 20771, "\u2581norm": 6056, "\u0443\u043a": 23781, "\u2581\u041d\u0430\u0443": 25420, "\u2581Las": 7413, "v\u00e4st": 28583, "\uae30": 30827, "\u2581fug": 20924, "amilton": 11348, "\u2581\u0438\u0441\u043f\u043e\u043b\u044c\u0437\u0443": 24160, "********": 4189, "\u043b\u0451": 13459, "\u2581\u044d\u043a\u0441": 21584, "\u2581func": 3653, "\u2581\u0420\u0443\u0441": 29006, "\u00b2,": 18833, "\u2581\u044d\u0442\u0438": 17610, "\u2581ter": 1935, "ynchron": 9524, "\u043e\u0432": 516, "\u2581gilt": 22921, "\u2581entropy": 24687, "Include": 29419, "\u2581Rewrite": 11598, "\u2581dark": 6501, "\u2581\u041d\u0430\u0441\u0435\u043b\u0435\u043d\u043d\u044f": 19837, "\u2581\u0431\u0430": 4724, "\u2581tool": 5780, "\u2581eg": 8087, "\u2581scope": 6874, "\u2581ajax": 9349, "unto": 12578, "<0x4E>": 81, "\u2581\\({\\": 22506, "iba": 16912, "\u2581copies": 14591, "Po": 9837, "som": 22708, "td": 1594, "\u2581plaats": 11365, "\u2581lug": 7245, "\u2581perpet": 25722, "\u2581Stuart": 24710, "ski": 2574, "\u2581AF": 23844, "\u2225": 30876, "best": 13318, "\uc815": 30852, "it\u0103": 17829, "\u2581thee": 14904, "\u2581related": 4475, "\u2581totally": 14909, "\u2581triggered": 19799, "\u2581h\u00e9": 22500, "aver": 12483, "\u2581lang": 6361, "\u0447\u043d\u0456": 17092, "obil": 12213, "Stop": 16329, "yter": 25547, "\u2581lyr": 26627, "\u2581\u043f\u0440\u043e\u0432": 10613, "zung": 16857, "\u2581\u0434\u0438\u0430": 26487, "\u0432\u0430\u043b\u0430": 14906, "\u2581emission": 25477, "EMA": 26862, "ListItem": 27490, "1": 29896, "\u2581Saint": 4107, "\u2581personnel": 24127, "\u043d\u0430\u0440": 19619, "\u2581combination": 10296, "\u043b\u043a\u0430": 16166, "\u2581Tennessee": 22664, "\u2581INFO": 15233, "\u2581pouvoir": 19397, "cipe": 24044, "\u2581how": 920, "\u043b\u0456": 1877, "aman": 13533, "\u2019": 30010, ":'": 11283, "\u79d1": 31030, "\u0432\u044b": 4938, "arts": 5708, "pur": 15503, "\u2581Byte": 19831, "\u2581Cab": 11680, "\u2581digit": 13615, "\u2581\u0410\u043d": 6190, "uten": 6935, "tes": 2167, "\u0391": 30292, "\u2581\u0437\u043e": 25687, "\u0436\u043d\u043e": 9907, "\u2581Complex": 26596, "itchen": 23213, "\u016f": 30072, "Arr": 16401, "\u2581luglio": 17154, "iterator": 17609, "\u2581seule": 25642, "\u2581Polski": 21683, "\u2581Airl": 28299, "\u4eca": 31482, "Que": 8654, "\u0219te": 28335, "QU": 13356, "Loop": 18405, "\u2581\u043a\u043e\u043d\u0442\u0440\u0430": 28415, "\u2581Front": 13960, "arding": 20272, "\u043c\u0456\u043d": 29090, "\u2581loops": 12104, "\u0436\u0434\u0430": 12393, "ilis": 23285, "\u2581sm": 1560, "fin": 4951, "\u2581debug": 4744, "<?": 8169, "\u2581\u043d\u0430\u0437\u0432\u0430": 10830, "without": 14037, "Dom": 11096, "\u2581questi": 22982, "\u2581Xml": 24409, "uclidean": 27511, "getElementsBy": 22266, "\u2581construction": 7632, "\u2581Stre": 11738, "appro": 9961, "\u2581exclus": 13489, "Url": 5983, "\u2581Oscar": 19054, "\u2581Number": 9681, "\u2581Conc": 23924, "\u2581Vertrag": 29396, "\u10e2": 31027, "der": 672, "\u2581limitation": 29485, "\u2581Vol": 3684, "<0x83>": 134, "\u2581svol": 26396, "ixed": 11925, "bildung": 20541, "ill\u00e9": 23589, "\u2581heut": 21364, "<0x5B>": 94, "\u2581edition": 12203, "\u2581monument": 13849, "\u2581Nem": 18268, "\u043d\u0443\u044e": 6627, "]),": 11724, "\u0279": 31513, "quisition": 23493, "\u2581muchos": 24312, "\u2581Ton": 17812, "\u2581Col": 1530, "\u2581Krit": 24199, "\u2581hij": 4147, "anse": 12350, "oux": 13375, "\u2581farther": 26645, "Event": 2624, "\u0444\u0440\u0438": 22190, "Range": 6069, "\u2581Hur": 22220, "lace": 1265, "<0x92>": 149, "\u041d\u0430": 19193, "\u2581ese": 15371, "\u2581judgment": 24284, "l\u00e9": 12898, "inture": 29546, "\u2581analyze": 27599, "<0x35>": 56, "\u2581magn": 9119, "\u0441\u0438\u043d\u0438": 20091, "pace": 3535, "\u2581disag": 22941, "\u0442\u043a\u0430": 19972, "\u2581class": 770, "<0xA0>": 163, "tool": 10154, "\u2581\u0441\u0431\u043e\u0440": 16064, "\u2581restored": 23119, "\u2581gam": 24988, "\u2581nag": 17995, "\u2581oro": 28979, "\u2581circul": 18342, "osh": 10578, "\u0437\u0432\u0430": 7617, "\u2581recognize": 18720, "Since": 23036, "\u2581Ged": 16836, "Office": 27247, "uy": 8631, "\u2581draw": 4216, "\u2581built": 4240, "\u2581mayor": 9105, "\u2581contest": 17793, "\u597d": 31076, "zt": 2065, "\u2581sea": 7205, "igration": 16783, "\u2581Later": 12699, "\u2581minist": 9668, "\u0435\u0437": 5836, "\u2581brick": 28645, "\u0294": 30825, "DO": 3970, "\u2581ker": 13023, "=&": 29332, "opro": 26555, "onic": 8927, "mu": 2589, "\u067e": 30585, "\u2581wur": 1637, ".<": 19423, "filter": 4572, "igi": 10091, "ellen": 4919, "eries": 6358, "\u2581Hannover": 25630, "\u0442\u0438\u0435": 18380, "\u2581FI": 9338, "iety": 21549, "CS": 9295, "\u2581trac": 16703, "\u2581dal\u0161\u00ed": 29067, "\u2581zones": 20542, "pr\u00e9s": 12974, "plementation": 14607, "\u2581educ": 6320, "\u043c\u0430\u0439": 27152, "\u2581k\u00f6z": 7591, "\u2581literature": 12845, "\u2581rip": 18290, "\u00e4ngen": 21644, "\u2581\u0441\u043f\u043e": 7356, "align": 2520, "\u2581Perry": 28376, "\u2581k\u00f6nnen": 12238, "\u2581Scot": 11032, "\u2581hanno": 15239, "\u2581paste": 11417, "definition": 16553, "\u2581script": 2471, "\u2581tub": 23131, "\u2581\u00f3r": 26111, "Hot": 28917, "\u2581vois": 29758, "\u2581law": 4307, "\u2581mon": 1601, "\u2581el": 560, "\u2581obtain": 4017, "\u044e\u0437\u0430": 24467, "nder": 5740, "\u2581Daw": 29461, "\u2581`": 421, "PART": 26092, "itage": 16639, "\u2581()": 3861, "lient": 1593, "<0x0A>": 13, "ann": 812, "\u043b\u0438\u043c": 15080, "\u2581p\u0159ed": 16729, "\u2581maybe": 5505, "\u2581integer": 6043, "\u2581Hamilton": 12372, "\u2581couldn": 8496, "router": 15140, "ibm": 29690, "into": 8941, "\u2581elektr": 19616, "\u2581Bayer": 21727, "\u0449": 30021, "\u2581aria": 27347, "fw": 25051, "\u2581specification": 21992, "\u2581\u041d\u0438\u043a\u043e\u043b\u0430\u0439": 29210, "\u00ff": 30370, "\u2581offic": 3344, "\u2581marg": 15276, "\u0441\u043d\u0438": 21413, "NE": 8186, "\u2581sync": 16523, "\u2581pub": 2529, "maven": 12419, "ffect": 7161, "\u2581geh\u00f6r": 10429, "\u2581at": 472, "\u0105d": 22881, "\u2581Ortste": 25626, "UM": 5005, "\u0459\u0438": 28211, "\u2581sv": 3731, "\u2581declarations": 28721, "\u2581su": 480, "\u2581vel": 5343, "\u2581division": 8542, "\u0142ad": 8650, "split": 5451, "innerHTML": 14742, "\u2581Maps": 25846, "\u2581attention": 8570, "\u2581Seite": 16073, "arg": 1191, "arda": 23144, "\u0441\u043b\u0430\u0432": 12669, "\u2581advantage": 10631, "ocrat": 16909, "bank": 9157, "oki": 21025, "programming": 28426, "erved": 9841, "\u2581Louise": 24417, "lle": 19091, "\u2581jazz": 21230, "fare": 24658, "<0x0D>": 16, "Find": 12542, "\u2581enjo": 11418, "\u2581returning": 7863, "\u05de": 30285, "kin": 9089, "\u2581tim": 5335, "\u2581Ralph": 23438, "TT": 19988, "$(": 12330, "\u2581wear": 19531, "\u2581millimeter": 26491, "Texture": 21898, "\u2581denoted": 27291, "abeth": 9394, "\u2581en": 427, "-}": 27154, "\u2581\u043d\u0456": 15940, "\u2581Dj": 27467, "\u2581ma": 611, "\u2581going": 2675, "\u2581RET": 28081, "file": 1445, "$)": 10931, "\u2581j\u00fanius": 28729, "\u2581updated": 4784, "\u2581Hi": 6324, "\u2581Selbst": 27232, "\u2581\u00f6ss": 21623, "kern": 22178, "\u2581However": 2398, "\u2581Lin": 4342, "\u2581p\u00f3": 20351, "\u30dd": 31205, "\u2581cult": 4185, "\u2581adopt": 9332, "And": 2855, "he": 354, "multicolumn": 14392, "\u2581confusion": 14679, "\u2581regression": 17855, "indre": 19844, "bild": 10271, "\u2581reform": 11736, "\u2581consent": 20218, "\u1f72": 31265, "NSString": 14301, "\u2581France": 3444, "retch": 10301, "\u2581%)": 28233, "\u2581destin": 15422, "\u2581\u041a\u0430\u0440\u0430": 28969, "\u2581Furthermore": 16478, "option": 3385, "\u2581Dec": 3826, "ITable": 12210, "\u2581Dez": 7383, "\u2581arrived": 11977, "\u2581XIII": 16714, "\u043c\u0435\u043d\u0430": 20663, "\u2581\u0443\u043f\u043e": 22179, "\u0254": 30247, "\u2581SSH": 22343, "\u2581dice": 17629, "\u0f53": 31614, "eres": 11175, "hw": 26828, "param": 3207, "\u0441\u0442\u043e\u044f": 6428, "\u2581restaur": 12374, "\u2581\u043d\u0443": 26367, "\u2581quali": 18661, "\u2581accuracy": 13600, "\u2581strongly": 13818, "\u2581og": 3671, "\u2581lider": 29110, "IK": 23328, "\u2581character": 2931, "\u2581Canada": 7400, "\u0652": 30741, "wa": 2766, "\u0432\u0435\u0434": 15938, "\u2581\u041b\u0456": 18843, "\u2581finished": 7743, "\u2581\u0442\u0435\u043c": 14197, "\u2581Wein": 26331, "Cat": 9694, "flex": 16041, "\u2581Ken": 10015, "\u2581stri": 10076, "\u0433\u0440\u0430\u0444": 16745, "\u2581AP": 12279, "ugh": 6129, "\u2581gates": 29341, "mbH": 17701, "doFilter": 28525, "\u2581servlet": 29285, "loyee": 10164, "enen": 6537, "\u2581definit": 8422, "\u2581municipal": 11677, "ssl": 16265, "\u2581soci\u00e9t\u00e9": 19513, "\u2581semi": 12647, "\u2581express": 4653, "uis": 4664, "\u2581major": 4655, "<0x73>": 118, "\u2581centuries": 21726, "\u2581presenta": 22720, "\u8db3": 31722, "\u2581seconds": 6923, "\u2581Rena": 21794, "\u2581Unter": 5266, "\u2581findViewById": 17003, "\u2581written": 3971, "\u00eaque": 26075, "\u2581princi": 2623, "\u2581frequ": 5204, "lua": 29448, "why": 14606, "\u2581founded": 11091, "\u2581deb": 2553, "stock": 17712, "\u2581Julia": 22045, ".@": 21240, "bus": 8262, "riere": 15920, "<0x50>": 83, "str": 710, "\u2581Social": 10307, "\u2581Tun": 21072, "\u798f": 31121, "atos": 4507, "zk": 7730, "<0x69>": 108, "\u2581vector": 4608, "\u2581Hamburg": 14847, "\u2581\u0432\u0456\u0439\u043d\u0438": 28531, "\u0458\u0438": 6744, "\u2581medieval": 27690, "\u2581Curt": 25141, "\u2211": 31060, "~": 30022, "\u2581cards": 15889, "\u2581monaster": 23937, "sto": 7864, "\u2581alg": 3093, "\u2581ain": 7216, "\u2581micro": 9200, "kit": 7354, "\u672a": 31295, "\u2581Before": 10949, "ight": 523, "\u2581remporte": 27344, "**": 1068, "rich": 4018, "\u2581skulle": 29275, "\u5229": 31107, "\u2581leads": 11981, "\u2581shr": 14653, "\u2581sorting": 16548, "\u2581points": 3291, "\u2581Edu": 7519, "iful": 6845, "pro": 771, "\u2581anys": 15558, "!(": 13311, "gravity": 23439, "\u2581Then": 1987, "\u2581\u044d\u0442\u043e\u043c": 17045, "\u2581gol": 15192, "<0xA5>": 168, "varepsilon": 6018, "\u2581Urs": 18373, "\u2581man": 767, "club": 29066, "\u2581guid": 16605, "\u2581t\u00f6bb": 22654, "\u2581daher": 29430, "ague": 3437, "\u2581nap": 9709, "\u2581Ne": 2448, "agog": 13247, "\u2581remain": 3933, "\u2581Desde": 22725, "\u2581Spec": 12048, "Jean": 22438, "\u2581ausge": 17691, "\u2581including": 3704, "TextView": 10607, "\u2581ebenfalls": 17769, "row": 798, "charts": 18366, "\u2581Exchange": 24004, "\u2581Element": 10619, "\u2581\u0421\u0430\u0432\u0435\u0437": 26194, "\u2581mujeres": 27220, "\u2581Classification": 23236, "aglia": 17474, "\u2581ip": 10377, "pper": 2496, "\u2581automatic": 18428, "HOST": 20832, "\u2581\u0443\u043d\u0438": 11570, "\u2581tag": 4055, "Descriptor": 19124, "indu": 19910, "\u2581mind": 3458, "\u2581advise": 22939, "Ro": 9588, "fony": 15193, "\u2581\u0434\u043e\u0441\u0442\u0438": 23118, "\u2581gift": 19797, "\u2581schema": 10938, "\u2581Patri": 23168, "riteria": 21977, "\u2581behave": 23389, "\u00e3": 30033, "\u2581aplic": 20760, "\u2581\u043f\u043e\u044f": 23969, "\u2581Nach": 3975, "\u3061": 30644, "=\"{": 10724, "]]": 5262, "\u2581prince": 15927, "works": 13129, "\u2581belonging": 23329, "\u0445\u043e\u0434\u0438\u0442\u044c": 23368, "\u2581nebo": 18607, "\u2581details": 4902, "noindent": 17695, "Hi": 18567, "lp": 22833, "\u2581communic": 7212, "NN": 10262, "\u2581\u0440\u0430\u0439\u043e\u043d\u0430": 14397, "\u00e9tique": 19971, "\u2581Hospital": 15967, "\u2581fac": 4024, "aters": 10412, "connected": 18045, "Middle": 25411, "\u0444\u0438\u0446\u0438": 28101, "\u2581environ": 12471, "\u2581Valid": 15758, "\u2581infin": 8275, "\u2581cours": 9587, "\u043d\u0438\u043c": 5472, "\u2581recognition": 19679, "bell": 12562, "etic": 7492, "\u2581Vin": 12540, "Cent": 23369, "\u0144": 30066, "\u2581LL": 27624, "\u2581\u043e\u0442\u043b\u0438": 22216, "\u2581slide": 20343, "\u96fb": 31385, "igg": 22817, "\u2581Sample": 21029, "bar": 1646, "iner": 4983, "\u0432\u0430\u043b\u0438": 8374, "Gui": 28707, "\u0629": 30242, "Je": 13836, "\u2581lieu": 13003, "IES": 29059, "seg": 10199, "cx": 18904, "\u2581amateur": 28800, "Nodes": 20284, "\u2581weiteren": 24632, "ensive": 6270, "\u2581Emperor": 18075, "\u2581ps": 6529, "\u2581aqu": 10592, "<0xE9>": 236, "\u2581candid": 7105, "\u00fcll": 10962, "\u2581belief": 17750, "\u2581follows": 4477, "\u2581Verwalt": 19764, "progress": 18035, "\u2581supporting": 20382, "\u2581envi": 21061, "\u2581prav": 21535, "CF": 9207, "\u2581divide": 16429, "\u2581ids": 18999, "\u2581clarify": 15544, "ific": 928, "]['": 22322, "ponents": 9340, "\u2581paths": 10898, "\u2581align": 7595, "\u2581implemented": 8762, "\u2581England": 5408, "\u0e15": 30618, "\u1d49": 31923, "James": 29470, "iszt": 26409, "uwe": 21074, "\u2581dashed": 27526, "\u548c": 30503, "\u2581suff": 9378, "\u2581Hon": 7906, "chrom": 27433, "\u2581Environment": 16738, "\u2581tam": 21308, "\u9700": 31383, "\u5e97": 31758, "\u2581K\u00f6ln": 20763, "<0x8A>": 141, "autres": 14559, "\u0638": 30912, "\u0441\u043a\u0435": 11106, "\u2581vez": 7763, "\u96c5": 31847, "\u043e\u0433\u0440\u0430": 6409, "Good": 18420, "\u03f5": 31309, "erme": 10877, "\u2581contact": 6958, "\u4e45": 31347, "\u2581deport": 21455, "i\u00df": 12044, "\u2581propor": 24719, "\u2581Link": 6645, "\u2581Soc": 28239, "\u2581contra": 6761, "\u2581eleg": 10618, "\u2581spiel": 14024, "\u2581ksi": 23500, "\u00f6n": 3042, "\u2581abril": 8047, "\u00d5": 30983, "\u2581Everything": 17296, "Austral": 22537, "elle": 1808, "ymen": 28438, "\u2581Char": 2896, "\u2581ens": 5662, "\u2581storia": 19097, "\u2581Finally": 9788, "ivo": 4243, "\u2581Kirche": 11939, "altra": 24079, "\u2581diff\u00e9r": 12694, "\u2581param": 1828, "\u2581Use": 4803, "\u2581brain": 17294, "\u2581Rio": 11611, "lished": 3726, "\u2581heraus": 20964, "Dynamic": 24001, "\u2581facebook": 18335, "\u2581Villa": 14439, "ismus": 11634, "icht": 1428, "gresql": 16153, "\u2581Jew": 9576, "\u2581Forest": 17300, "]_": 21540, "\u2581Ernst": 15969, "ayer": 2747, "\u2581reprodu": 9483, "\u2581minimal": 13114, "owel": 27531, "\u2581Battalion": 27841, "zien": 29397, "\uc18c": 31189, "\uff11": 31936, "\u2581Medic": 22247, "lip": 3466, "\u2581zeigt": 29836, "\u2581trov": 27319, "Method": 4062, "\u2581check": 1423, ".(": 14030, "metros": 28204, "\u2581historical": 15839, "\u2581Original": 8533, "\u00e9ben": 14790, "\u7f6e": 30669, "\u2581Lower": 27723, "ightarrow": 28142, "\u00e9o": 22756, "tern": 725, "readsheet": 27844, "altern": 26123, "Zone": 18482, "lim": 2576, "\u2569": 31216, "\u2318": 31418, "\u2581Germania": 26789, "\u2581tail": 12464, "\u2581ul": 9238, "System": 3924, "\u2581Marco": 19153, "\u2581pueblo": 24742, "aven": 3496, "\u2581smoke": 25158, "mor": 12257, "\u2581tous": 9411, "\u2581College": 6346, "ded": 7176, "afka": 20817, "ruguay": 21876, "\u2581swo": 16768, "vos": 23517, "Socket": 11373, "\u0119dzy": 26796, "Pages": 27514, "\u2581Fl": 2379, "\u2581prevent": 5557, "\u2581Santa": 7510, "\u2581grateful": 28656, "incipal": 26706, "GER": 17070, "\u00e4tze": 22445, "fluss": 26944, "________": 14365, "utos": 20864, "Document": 6268, "\u2581swift": 12086, "uther": 14107, "gebra": 5869, "Pe": 15666, "uttavia": 23208, "\u2581Spe": 5013, "\u043d\u0438\u0446\u0438": 11026, "frastr": 14867, "\u2581trig": 16222, "\u2581\u043e\u0441\u0456\u0431": 13040, "\u2581Acc": 4831, "\u05d9": 30196, "\u30a2": 30310, "Inf": 25433, "\u2581Tony": 15293, "extract": 21111, "real": 6370, "std": 4172, "dec": 7099, "\u2581geht": 25440, "verter": 13549, "\u304c": 30458, "\u0441\u0438\u0442\u0435": 9440, "\u2581bylo": 22504, "\u2581Bret": 23132, "\u2581resultado": 24578, "xx": 4419, "a\u00f1a": 9244, "HL": 15444, "\u2581tools": 8492, "\u2581\u043f\u0440\u0438\u0437\u043d\u0430": 17598, "\u0442\u0438\u0438": 18258, "\u2581spectrum": 18272, "rii": 22515, "\u2581Mediter": 25620, "fault": 27934, "\u0082": 30469, "\",\r": 15231, "\u2581explanation": 8252, "\u2581torn": 10146, "TRUE": 20652, "\u3089": 30513, "BI": 12809, "\u00fcck": 3675, "istro": 19150, "ittle": 1992, "\u2581Fitz": 22963, "zer": 3298, "\u2581Mah": 10082, "\u202d": 31881, "ebol": 22480, "\u2581inference": 27262, "onomy": 21926, "berts": 23418, "<0xD4>": 215, "<0xD0>": 211, "\u2581\u043f\u0440\u0438\u043d\u044f": 17867, "\u2581Politiker": 15408, "\u2581Bev\u00f6lker": 19683, "\u2581feelings": 21737, "\u2581Ressource": 27365, "Scan": 29083, "Act": 2865, "\u30da": 31501, "\u2581f\u0151": 16793, "\u2581ent": 875, "\u2581pesso": 23109, "\u043b\u0438": 644, "\u2581acted": 27320, "ubern": 14135, "\u2581Cloud": 14293, "\u2581crashes": 21985, "thing": 1918, "\u2581Um": 6379, "xture": 15546, "\u2581rag": 17052, "\u2581mathemat": 10860, "\u2581np": 7442, "mock": 17640, "\u2060": 30365, "\u2581Een": 16883, "\u2665": 30922, "ess\u00e9g": 27732, "\u0161t\u011b": 18856, "\u043f\u0440\u043e": 5945, "viv": 24759, "\u2581GitHub": 25492, "leben": 25434, "\"?": 8652, "udad": 7981, "\u0434\u0435\u043d\u0438\u044f": 28161, "stru": 10582, "atis": 18792, "urop": 4131, "\u2581\u043f\u043e\u0432\u0435": 26757, "bi\u00f3": 18706, "mix": 28084, "angle": 2521, "isme": 6386, "lier": 4926, "bles": 7586, "BL": 13367, "Primary": 26666, "\u2581longitud": 25579, "members": 28109, "sing": 2976, "\u2581Which": 8449, "endo": 2765, "\u02e0": 31794, "\u0430\u043d": 745, "\u2581Per\u00fa": 28686, "\u2581livres": 29869, "Drop": 15063, "\u043c\u0438\u0447\u0435": 13584, "\u2581Lub": 19278, "\u1f73": 31059, "\u0447\u0435\u0440": 20142, "\u00fcber": 12465, "asz": 12617, "central": 25171, "ulp": 15323, "\u2581int\u00e9r": 26842, "arten": 8109, "Drawing": 16327, "\u2581myth": 22082, "cci\u00f3": 19103, "\u0444\u043e\u0440": 6696, ")}": 2915, "vote": 15814, "jp": 16865, "\u2581times": 3064, "\u2581fare": 20036, "akers": 21079, "\u2581\u0432\u0440\u0435\u043c\u0435": 26958, "enst": 25059, "\u2581\u0420\u0435\u0441\u043f\u0443\u0431\u043b\u0438\u043a\u0438": 27322, "\u2581corresponds": 16161, "\u2581summ": 22792, "\u2581yields": 17498, "\u2581mapped": 20545, "\u2581households": 26850, "\u2581Buenos": 17882, "iesen": 19522, "\u2581Przyp": 20172, "\u2581ili": 29040, "\u2581\u0447\u0435\u043b\u043e\u0432\u0435\u043a": 14347, "\u0d19": 30957, "\u2581That": 2193, "\u211a": 31528, "\u2581mention": 3585, "ingers": 19936, "HS": 14851, "\u2581shall": 4091, "\u2581m\u00e5": 21914, "\u2581PMID": 25485, "{\\": 741, "yar": 8553, "ij": 823, "\u2581===": 6805, "\u2581cache": 7090, "\u2581hoof": 17992, "\u2084": 30194, "\u2581Pract": 29124, "\u056c": 31235, "\u043d\u0430\u0442": 29824, "\u2581Linux": 8074, "\u2581\u043a\u043e\u043c\u0430\u043d": 6863, "\u2581\u0442\u0435\u043a": 23567, "erves": 20098, "ici\u00f3n": 6396, "\u2581alongside": 19963, "ply": 17632, "eper": 11356, "kir": 14166, "Append": 18277, "axi": 20593, "\u2581pushing": 27556, "2": 29906, "azine": 8985, "ilar": 2327, "\u2581TLS": 27658, "\u2581named": 4257, "\u2581imprison": 29535, "\u010f": 30223, "uso": 10648, "\u2581transformation": 13852, "})^": 28813, "\u2581\u00c0": 8526, "panel": 15119, "\u2581spatial": 18652, "\u2581Jr": 13843, "third": 22585, "h\u00e1z": 24910, "aked": 12535, "\u2581nunca": 28456, "\u2581lon": 23123, "ora": 2207, "\u2581\u0445\u0440\u0430": 17942, "\u2581quickly": 9098, "\u2581member": 4509, "status": 4882, "\u2581Hist": 15179, "\u2581wet": 7990, "\u043c\u043e\u0433\u043e": 19370, "With": 3047, "\u2581televis": 11784, "\u2581Sou": 9194, "UL": 13309, "Peter": 23686, "sted": 16470, "\u9060": 31971, "\u2581September": 3839, "ateur": 7289, "aar": 4025, "Space": 14936, "lie\u00df": 8621, "six": 28319, "\u2581volunte": 27886, "\u8bed": 31505, "\u2581Kaz": 15198, "\u2581Os": 6657, "\u2581vague": 25160, "\u300c": 30481, "\u043a\u0430\u0442\u0430": 25134, "oro": 5801, "\u0446\u044b": 10566, "Interface": 10448, "\u2581\u0441\u043e\u0441\u0442\u0430\u0432\u043b\u044f": 13227, "uzione": 14285, "\u2581giorno": 26333, "\u2581zm": 12162, "\u9898": 31596, "species": 24091, "<0x98>": 155, "\u2581need": 817, "\u2581pointed": 11520, "aku": 16774, "\u2581light": 3578, "enkins": 16468, "\u2581pubblicato": 25491, "\u2581disk": 8086, "\u043b\u043c": 29045, "CH": 3210, "\u2581nginx": 19376, "andenburg": 24096, "nown": 21369, "\u2581gen": 2531, "\u2581Tak": 14619, "\u0151k": 23420, "\u2581beim": 10005, "aph": 12451, "\u00e2t": 10807, "?](": 10846, "/**": 7918, "emes": 13826, "\u2581divided": 13931, "().": 2141, "Remote": 20224, "\u2581\u0412": 939, "\u2581subst": 5960, "\u2581pare": 9541, "@{": 28312, "Oper": 7094, "\u2581GPU": 22796, "\u2581NASA": 24206, "\u102f": 31340, "\u2581\u0445\u0430": 13422, "\u00f5": 30084, "getValue": 23433, "father": 22212, "\u2581byl": 9491, "die": 16217, "\u2581coup": 17103, "\u2581Fre": 3878, "\u2581Nick": 13853, "\u5c06": 30998, "ogene": 16603, "phony": 22214, "<0x62>": 101, "\u2581Gregory": 29094, "\u2581locally": 12430, "\u2581trab": 10565, "\u2581frag": 13855, "bst": 7891, "rez": 15749, "\u2581\u0434\u043e\u0440\u043e": 22446, "\u2581drove": 26603, "kv": 27049, "\u2581siglo": 14521, "\u2581Light": 12790, "mathscr": 13002, "<0x37>": 58, "\u2581Gesellschaft": 18626, "\u2581imm": 5198, "\u2581Als": 8320, "\u2581assumptions": 20813, "\u2581\u0434\u043e\u043f\u043e": 27245, "\u2581Nicola": 28432, "\u043e\u0432\u0438\u0445": 17539, "\u2581\u043e\u0434\u043d\u043e\u0433\u043e": 24356, "\u2581growing": 15678, "\u2581fig": 2537, "\u0431\u0443\u0440": 9845, "brains": 29705, "\u2581d\u00e9l": 27188, "\u2581hard": 2898, "\u2581lungo": 26394, "\u05d4": 30235, "lbl": 26648, "WOR": 11686, "ferred": 14373, "\u0584": 31497, "\u2581completion": 13285, "\u2581Policy": 25219, "[\\": 7110, "\u2581trail": 26203, "\u2581Congo": 29723, "\u2581environment": 5177, "RO": 1672, "azioni": 8312, "\u2581Rev": 11459, "\u2581purpose": 6437, "\u2581gr\u00e2ce": 23068, "\u2581pul": 9505, "\u2581d\u00f6d": 27653, "\u2581ett": 8248, "\u011bt": 9974, "dk": 8181, "\u2581everywhere": 16978, "\u2581Ap": 6225, "iss": 790, "<0x53>": 86, "pler": 20069, "\u2581EXISTS": 28731, "\u2581Section": 9779, "\u2581capit": 11934, "werk": 9888, "<0x79>": 124, "\u2581technology": 15483, "\u2581failure": 10672, "term": 8489, "cko": 27604, "\u2581composed": 13725, "\u2581lar": 2203, "SESSION": 17493, "\u2581sees": 18553, "\u2581spiritual": 20954, "si": 1039, "perimental": 27910, "\u2581vrij": 25220, "inter": 1639, "ping": 15702, "\u2581participe": 28511, "\u2581without": 1728, "ego": 2412, "hardt": 25603, "\u2581pero": 7046, "\u2581DDR": 21901, "ht": 400, "\u2581nor": 3643, "czy": 6902, "Username": 20249, "}.": 1836, "\u2581Statist": 13070, "Mutable": 15211, "\u2581jan": 5496, "\u2581\u043b\u0435\u0442": 10975, "ONG": 20614, "\u2581Military": 20080, "\u2581Greece": 25549, "\u9ad8": 30528, "\u59cb": 31020, "\u2581bring": 6963, "mass": 25379, "\u2581Bund": 24240, "nis": 6994, "datei": 27563, "\u0448\u0430\u044f": 15766, "Notification": 12958, "uve": 15008, "\u2581gr": 867, "\u2581descent": 26815, "\u2581dispos": 11549, "uid": 5416, "omial": 7615, "\u2581Ital": 4041, "ome": 608, "\u2581questo": 11352, "\u2581encoded": 18511, "\u2581Anleitung": 20509, "lease": 1511, "jekt": 9761, "\u043b\u0456\u0432": 14449, "icity": 24798, "esten": 26826, "\u2581platform": 7481, "\u2581intu": 26877, "\u2581ses": 3999, "rn": 27539, "\u0d2f": 30674, "\u4f1d": 31445, "rott": 26970, "\u2581dinast": 28960, "\u2581arist": 28672, "UPDATE": 14474, "\u2581multiply": 22932, "dart": 11353, "ost\u0119p": 20900, "\u2581Wieder": 25878, "\u2581\u0438\u0433": 10689, "ream": 1633, "Point": 5228, "\u2581manif": 14682, "\u2581homonymes": 13729, "ctl": 16948, "\u0448\u0442\u0435": 27626, "wide": 8157, "\u2581cl\u00e9s": 25766, "\u2581perturb": 22786, "\u2581Following": 12206, "\u2581dabei": 17857, "\u2581menu": 6143, "ube": 4003, "izes": 7093, "\u2581Ren": 7493, "\u2581pros": 10791, "ansk": 12190, "Excel": 22926, ">=": 18572, "\u2581ejemplo": 20270, "\u2581\u043b\u0438\u0442\u0435\u0440\u0430": 23082, "\u2581urban": 17164, "\u300e": 31007, "sey": 7759, "\u2581Otto": 13832, "gestellt": 22436, "Jo": 10844, "\u2581opinion": 9426, "\u2581sont": 3435, "uri": 5338, "\u2581effects": 9545, "\u2581assumed": 12023, "\u2581prima": 7233, "ionario": 25150, "icional": 18394, "Culture": 27926, "\u2581Rhein": 19009, "\u2581Barcel": 11112, "\u2581reste": 18062, "\u2581mart": 14436, "\u2581\u0441\u0432\u0438": 25384, "\u2581bow": 12580, "bage": 17807, "\u2581encou": 13731, "\u2581past": 4940, "\u2581elementos": 29290, "itled": 17707, "\u2581\u043f\u043e\u043c\u0435": 27724, "\u2581vari": 1197, "\u044a": 30055, "\u2581Marian": 24236, "web": 2676, "\u2581arab": 25352, "ical": 936, "\u2581\u0430\u0440\u0445\u0438": 16480, "\u2581Primera": 22915, "\u0446\u0438\u044f": 5274, "\u1019": 31233, "\u0433\u0443": 3325, "\u2581\u043a\u043e\u0442\u043e\u0440\u044b\u0439": 12423, "quit": 28358, "log": 1188, "\u2581permissions": 11239, "\u2581Jap": 4407, "\u6c38": 31156, "ba": 2291, "\u2581\u0441\u0442\u0430\u043b\u0430": 20406, "\u2581peer": 23533, "\u2581'',": 15516, "'):": 29374, "reens": 11642, "imo": 4200, "\u2581pays": 9744, "Ed": 3853, "cref": 25029, "\u2581advers": 19901, "eft": 9740, "\u2581Familie": 14957, "ITION": 22122, "aya": 9010, "angles": 19536, "\u0422": 30041, "\u2581asking": 6721, "pr\u00fc": 10991, "\u2581side": 2625, "\u2581confer": 21388, "\u094d": 30296, "\u2581died": 6423, "buch": 8458, "\u2581\u00fcber": 2939, "\u2581balls": 26563, "\u2581deleg": 16000, "\u2581probable": 16269, "idos": 4396, "\u2581province": 12291, "\u2581japon": 22268, "\u2581\u041a\u0440\u0430": 10872, "\u2581subclass": 19481, "\u2581simply": 3763, "Activity": 3886, "wan": 11440, "\u2581Raj": 15496, "\u2581revolution": 19479, "\u2581Klein": 21151, "intrag": 27075, "\u2581\u0431\u0440\u0438\u0433\u0430": 26672, "\u2581moderne": 24635, "\u2581Aur": 23266, "\u6c99": 31476, "erton": 28634, "grade": 8228, "\u2581Cole": 16816, "geo": 24756, "\u2581tart": 13914, "\u0438\u0442": 19316, "\u2581Jup": 27441, "\u2581parsing": 13755, "xico": 13821, "\u2581embargo": 15588, "Record": 9182, "\u2581kter\u00e1": 25297, "iverse": 12193, "\u2581clos": 4694, "RU": 28283, "levant": 6591, "\u2581Brook": 18737, "usion": 3958, "\u2581wr": 2358, "\u2581Rib": 27461, "\u2581Museo": 21037, "\u043b\u0438\u043c\u043f\u0438\u0439": 25833, "\u30b3": 30459, "\u2581Cal": 3037, "\u2581chang": 1874, "\u2581fill": 5445, "\u2581silly": 24866, "\uc655": 31996, "\u2581suc": 8630, "\u0441\u043b\u0443": 12394, "\u2581\u0433\u043b\u0430": 17585, "\u2581\u00c9s": 29441, "\u2581spole": 25823, "\u5f97": 31050, "\u263a": 31171, "\u2581\u0432\u0456\u0434\u0431\u0443": 28372, "})$.": 23462, "\uc5ec": 31457, "\u2581Rome": 9184, "BU": 7838, "\u2581sob": 22810, "\u2581per": 639, "\u2581Actually": 12823, "\u2581ment": 6042, "))$": 23846, "}:": 6177, "\u2581Dictionary": 13343, "\u2581wont": 20668, "f\u00e9r": 3666, "eared": 21128, "starts": 27382, "urk": 29641, "):": 1125, "\u2581++": 8445, "\u2581worker": 15645, "ribu": 7741, "\u2581k": 413, "ali": 2606, "ouvelles": 23621, "obs": 26290, "\u2581knew": 6363, "\u2581Mey": 18154, "\u2581che": 923, "ACTION": 24705, "\u2581\u043f\u0435\u0440\u0438\u043e": 27216, "???": 28772, "Expand": 29777, "\u2581rel": 1104, "\u0636": 30624, "\u2581militar": 15222, "ograf": 2345, "\u2581newline": 25899, "\u2581Partei": 27239, "font": 5657, "\u2581\u0421\u0442": 24781, "idor": 23377, "TO": 4986, "\u2581bien": 6079, "\u043f\u0440\u0430\u0432\u0438": 19524, "abilities": 11614, "}}\\": 4229, "OST": 3718, "junit": 18491, "\u2581bringing": 20794, "\u2581Ned": 23375, "hu": 6905, "stood": 9337, "eurs": 11620, "}\\)": 14786, "\u0440\u0456\u0432": 12269, "care": 18020, "\ud574": 31435, "\u2581cette": 5278, "\":\"": 4710, "hs": 9499, "\u2581cada": 9747, "\u2581Tambi\u00e9n": 18247, "prov": 16123, "LAB": 24461, "\u2581exerc": 11382, "\u2581adding": 4417, "\u2581dynamic": 7343, "ov\u00e9": 13169, "\u0407": 30331, "\u2581<>": 15271, "\u2581Cit": 21353, "\u2581specie": 23464, "\u00edcio": 24394, "Element": 2642, "cue": 18376, "\u2581Mittel": 14848, "\u2581Victoria": 14212, "\u2581hy": 7498, "\u2581\u043f\u0440\u0435\u0434": 4570, "\u2581Render": 26000, "\u2581Feb": 26319, "\u2581Bel": 3741, "\u2581ev": 3415, "\u2581tract": 22330, "\u2581\u0434\u0435\u0442": 29788, "\u2581as\u00ed": 12606, "vano": 13288, "oka": 17029, "\u2581\u043f\u043e\u0440": 21463, "\u2581NULL": 4265, "\u2581music": 4696, "\u2581Pablo": 24770, "\u2581iz": 5951, "\u2581Search": 11856, "marks": 22848, "\"],": 12436, "gnu": 18713, "\u2581Container": 21679, "\u2581eller": 12834, "\u2581Config": 12782, "face": 2161, "\u00f3t": 15827, "\u2581\u0420\u0430\u0437": 26595, ".$": 7449, "redu": 9313, "\u2581plant": 8024, "\u2581observation": 15500, "\u2581issu": 17759, "\u2581\u0437\u043c\u0456": 24634, "\u2581Bilder": 8354, "chor": 8420, "Panel": 7490, "\u2581sab": 15296, "\")`": 20933, "\u2581\u0441\u0430\u0439": 8347, "assen": 11257, "\u1ee5": 31620, "\u2581cord": 13793, "\u2581spirits": 26829, "\u2205": 31118, "max": 3317, "\u043c\u0456": 3272, "\u2581false": 2089, "\u2581Record": 14164, "enschapp": 9217, "\u2581vb": 16822, "acc": 5753, "aling": 12818, "\u2581we": 591, "\u2581Austria": 17362, "\u2581nombreux": 20081, "\u8336": 31954, "\u2581last": 1833, "itive": 3321, "\u2581priv": 5999, "\u0434\u044f\u043d": 21127, "\u2581\u0438\u043c\u0435": 7557, "documentclass": 18329, "\u0a38": 31691, "\u2581geometry": 16303, "\u2581anonymous": 21560, "\u2581Lehr": 17603, "can": 3068, "anning": 9450, "storage": 12925, "r\u00eda": 20310, "\u2581service": 2669, "INSERT": 19460, "\u2581under": 1090, "\u2581municip": 5536, "\u2581Appro": 28268, "\u2581\u0413\u0435\u0440": 14281, "\u2581amount": 5253, "esehen": 25310, "ern": 824, "\u0447\u0435\u043d\u044c": 23963, "\u0437\u0438\u0434\u0435\u043d\u0442": 27027, "\u2581mistaken": 25257, "\u2581GC": 19983, "\u2581converts": 29436, "\u2581pi\u0142kar": 29451, "illes": 7545, "zeg": 28530, "\u2581Der": 2452, "\u2581Depending": 28277, "\u2581ASC": 18188, "\u028e": 31743, "cala": 9256, "tutorial": 12631, "\u2581quer": 22320, "\u2581Kind": 13187, "Do": 6132, "Py": 19737, "\u2581cantante": 23689, "\u2581Period": 29498, "Storage": 10486, "irie": 24135, "schutz": 18377, "\u2581Brasile": 28220, "\u2581looks": 3430, "spec": 6550, "\u043f\u0456": 7530, "mathsf": 9605, "dex": 1390, "\u2581listing": 18028, "\u2581Tour": 6371, "segu": 21664, "\u2581gelang": 25769, "\u2581arrib": 27039, "\u2581Dub": 11668, "\u2581Derby": 29520, "lin": 1915, "\u043b\u0435\u043d\u0438\u0435": 6195, "isc": 10669, "\u57fa": 31359, "\u2581tired": 23407, "\u2581license": 19405, "appe": 29065, "olo": 3543, "\u09a8": 30792, "\u2581#": 396, "\u2581maps": 11053, "yci": 20318, "\u2581DLL": 22474, "\u2581ig": 8919, "\u2581indep": 5111, "\u2581attempting": 15661, "\u2581Mountain": 18204, "\u2581\u0435\u043d": 20108, "\u2581chez": 14255, "\u2265": 30386, "\u2581Street": 7103, "\u2581ale": 8080, "solute": 14977, "aba": 5363, "uh": 16099, "At": 4178, "dw": 28012, "usepackage": 9096, "``": 16159, "\u2581abgerufen": 5157, "\u2581sexual": 18287, "arie": 19380, "\u2581kir\u00e1ly": 28317, "quet": 12621, "*.": 10521, "volume": 24623, "\u2581atom": 12301, "vari": 5927, "\u2581\u043f\u0435\u0440\u0432\u044b\u0439": 26220, "\u2581frameworks": 29143, "\u2581walls": 14603, "\u2581Beach": 17594, "oten": 16368, "ourg": 18041, "\u2581weeks": 11405, "eds": 5779, "\u2581Alb": 16197, "\u2581\u0442\u0443\u0440": 13474, "\u2581ris": 5161, "\u2581Plot": 18399, "\u2581mouse": 9495, "\u2581sous": 5898, "\u2581its": 967, "ird": 1823, "\u0f62": 31232, "\u0436\u0438\u0432\u0430": 13204, ".*": 5575, "\u0445\u0443": 12735, "N": 29940, "\u2581proceed": 8469, "op": 459, "\u2581\u0446\u0456": 20004, "\u2581cher": 14954, "gebiet": 13063, "\u00bb,": 3558, "TP": 3557, "\u2581Er": 1425, ")](": 23192, "\u2581twitter": 23394, "rick": 9131, "chr": 22495, "\u2581trick": 8938, "\u00e1c": 25968, "\u2581BO": 16437, "\u667a": 31676, "Media": 10572, "\u2581res": 620, "umbnail": 21145, "\u2581punt": 11978, "\u00e1s": 1569, "checkbox": 12348, "\u2581catalog": 16653, "cola": 15519, "oups": 4410, "vo": 1365, "RT": 13079, "olas": 16118, "\u2581Bug": 28209, "dim": 6229, "main": 3396, "\u2581his": 670, ")\"": 5513, "\u2581fog": 16847, "\u2089": 30301, "\\\"": 5931, "\u044f\u0445": 13053, "Day": 12742, "rium": 16241, "\u2581Selon": 24962, "football": 20012, "\u2581memory": 3370, "\u2581creature": 23940, "/~": 24629, "\u2581Philippines": 26260, "\u6599": 31949, "measure": 26658, "acion": 16337, "\u2581\u041c\u043e": 8936, "\u0444\u0438\u043a\u0430": 19944, "\u2581Thank": 3374, "ming": 4056, "ologie": 5458, "\u2581Information": 10343, "\u0432\u0438\u043d": 21187, "\u2581streets": 19756, "city": 12690, "iers": 4285, "\u2581vale": 20368, "\u2581zone": 10640, "\u2581trabaj": 16069, "\u0151": 30048, "ancement": 27967, "\u2581bounds": 13451, "\u0449\u0451": 18141, "Auth": 6444, "alert": 12888, "\u2581Magic": 26494, "\u1e29": 31444, "Louis": 25216, "\u2581\u00e1prilis": 28187, "\u0428\u0410": 10941, "\u2581installing": 15476, "\u0942": 31413, "i\u00eb": 19425, "\u2581Begriffe": 19379, "pta": 28363, "\u2581alarm": 21200, "TA": 6040, "\u043b\u0441\u044f": 4633, "ionales": 28509, "mana": 25096, "stat": 6112, "\u0621": 30992, "\u2581electrons": 27149, "suite": 13495, "\u2581\u0456\u043d\u0448\u0438\u0445": 28825, "\u2581largely": 18425, "<0x43>": 70, "orders": 20488, "\u2581V": 478, "\u2581\u0441\u0435\u043b\u043e": 11166, "CCE": 19043, "machine": 23523, "\u2581Oktober": 7619, "\u2581SQL": 3758, "fasst": 25536, "\u2581Db": 24331, "engl": 6180, "\u2581\u00ed": 14468, "|}{": 29632, "\u2581\u0410\u043b\u044c": 17908, "\u2581mar": 1766, "Config": 3991, "\u2581Krist": 17773, "\u00ebl": 13929, "rame": 3128, "\u2581encrypted": 23220, "\u2581Westen": 26582, "\u2581Electron": 28251, "\u2581tomcat": 29432, "\u2581respons": 5544, "\u2581monuments": 22586, "\u2581officiel": 14798, "\u2581der": 589, "icker": 6541, "\u2581damals": 28740, "ied": 1000, "static": 7959, "\u2581\u043d\u0430\u043f\u0438\u0441\u0430": 25043, ".\")": 23157, "\u2581fois": 10098, "\u2581Returns": 16969, "Pay": 15467, "\u8ba4": 31439, "filename": 9507, "\u2581cs": 5939, "CheckBox": 28360, "\u2581br": 1506, "sk\u0105": 24680, "server": 2974, "\u2581Rav": 28093, "\u2581estruct": 26530, ")\u00bb.": 25756, "\u0437\u044b": 4536, "\u2581Fact": 26748, "\u2581altres": 24593, "\u2581Connect": 14971, "\u2581\u043f\u043e\u0437\u0432\u043e": 26149, "\u2581andra": 21912, "tte": 24087, "\u2581Using": 5293, "\u2581Wend": 29022, "\u09c0": 31595, "\u2581hadn": 27222, "Foundation": 28077, "\u2581Bal": 7392, "Param": 4736, "reten": 22290, "char": 3090, "TAC": 8687, "atz": 4101, "sterdam": 15372, "\u2581lire": 22272, "latex": 25694, "\uff1f": 30882, "\u2581iOS": 10012, "arbeit": 15564, "\u2581\u0440\u0443": 5368, "\u2581\u00faltima": 19463, "\u2581Population": 24810, "\u2581prisoners": 22979, "video": 9641, "\u2581Alo": 29506, "\u5fae": 31935, "\u2581sum": 2533, "\u2581Liv": 16238, "\u2581\u043d\u0430\u0433\u0440\u0430": 21295, "wi\u0119": 15152, "aff": 3470, "\u2581civ": 14175, "raum": 19527, "obe": 16945, "rado": 26881, "abling": 17961, "\u00e4ger": 19586, "atto": 16234, "\u2581conflicts": 28792, "\u2581Ciudad": 25757, "gi": 3146, "untu": 4159, "Secret": 28459, "rop": 1336, "\u2581lit": 11872, "\u2581onde": 16504, "Basic": 16616, "\u2581\u0414\u0440\u0443": 20637, "\u2581p\u0159ek": 29681, "Func": 14400, "extensions": 24299, "\u2581poly": 15680, "\u2581thus": 4550, "\u2581pr\u00e8s": 16573, "\u00edlia": 12576, "\u2581Mul": 21193, "\u0e29": 31964, "\u2581colored": 28684, "\u2581m\u00e1": 10269, "navigation": 15466, "ospital": 8189, "\u2581toujours": 15237, "\u2581pa": 3300, "admin": 6406, "section": 2042, "\u2581Karl": 8425, "\u2581trouble": 7458, "\u2581corps": 14913, "\u2581Golden": 16108, "TB": 24895, "structure": 23905, "\u2581diag": 7936, "\u2581longer": 5520, "\u2581Perl": 23907, "nu": 3433, "\u0432\u0435\u043d": 12638, "\u0902": 30757, "\u2581ging": 12773, "saved": 17314, "eb": 774, "postgresql": 29272, "\u2581Activ": 21775, "\u2581XIX": 10634, "\u2581\u041a\u0443\u0440": 27812, "ops": 3554, "\u2581Jur": 16081, "idel": 10652, "\u2581Sel": 8365, "\u0413": 30040, "bare": 18354, "acco": 17970, "ac": 562, "\u0433\u0440\u0435": 14370, ">,": 10202, "ias": 3173, "background": 7042, "\u2581cleared": 24639, "\u00fch": 8757, "\u2581wireless": 26677, "lica": 10123, "\u2581appropriate": 8210, "\u2581ELSE": 26446, "method": 5696, "\u2581hor": 4029, "ACT": 17923, "bour": 6526, "month": 10874, "Pop": 12310, "\u043a\u0442\u0430": 24871, "\u884c": 30448, "\u2581dismiss": 18918, "\u2581ATP": 27884, "\u2581droite": 29262, "\u2581killed": 9445, "\u2581Lo": 4309, "___": 22359, "above": 27215, "ultimo": 26752, "\u2581investig": 7405, "\u2581macro": 11758, "\u2581p\u0142": 23506, "irse": 24102, "\u2581hombre": 28766, "\u00fcb": 20518, "\u2581zona": 13890, "umn": 1227, "\u9686": 31788, "\u2581Chamber": 25037, "ords": 4339, "\u043f\u0435\u043d\u0438": 25958, "Microsoft": 11277, "ensure": 7469, "midt": 19720, "\u2581\u0432\u0438\u043a\u043e": 13570, "\u2581tradition": 11399, "\u2581Gi": 4406, "\u2581driven": 18225, ":=": 9361, "nez": 16617, "\u0119dz": 26372, "\u2581n\u00e4": 22248, "\u2581\u043a\u0430\u043a": 5413, "Options": 5856, "\">\r": 10175, "\u2581Hol": 4168, "\u2581vectors": 12047, "\u2581Brig": 13051, "\u2581trained": 16370, "\u2581m\u00e8tres": 22609, "\u2581augusztus": 29079, "\u2581Poly": 21755, "\u2581tenir": 29585, "\u2581clouds": 27091, "\u2581\u043a\u0432\u0456\u0442\u043d\u044f": 26334, "chen": 2724, "\u2581\u041d\u0438\u043a\u043e\u043b\u0430": 13966, "orden": 10934, "rival": 15081, "\u2581advent": 17623, "eqref": 4915, "\u2581ang": 2614, "erten": 19106, "\u2581Compos": 24497, "\u2581sitt": 24835, "\u2581Milano": 16350, "\u2581redirect": 6684, "\u2581znaj": 18657, "\u2581igual": 21432, "adding": 4676, "\u2581ac": 1274, "\u043d\u0430\u0445": 16860, "\u2581habe": 19221, "lot": 8276, "Operator": 26486, "\u2581Boston": 12115, "\u0441\u0442\u044b": 14860, "\u2581demol": 27745, "\u2581Convention": 26774, "\u2581although": 5998, "nginx": 23257, "\u2581\u0427": 3584, "arab": 25822, "<0x2D>": 48, "ingo": 20191, "Refresh": 27132, "\u6839": 31393, "itect": 4496, "+\\": 3124, "\u2581naam": 8483, "lic": 506, "\u2581consid": 16133, "listener": 25894, "\u5510": 31932, "atic": 2454, "\u2581t": 260, "\u2581add": 788, "\u2581pue": 19312, "\u2581miembros": 29406, "\u03c9": 30206, "\u2581p\u0159\u00ed": 15111, "elenium": 13462, "\u00fctt": 17635, "\u2581pounds": 24261, "\u2581d\u00eda": 17355, "\u2581Mik": 13803, "\u2581realiz": 8869, "inition": 3475, "Vector": 12877, "\u2581strictly": 18719, "\u2581Roberto": 21739, "\u2581surrender": 27503, "%=": 12222, "\u2581tej": 23311, "placeholder": 27074, "r\u00e4": 7940, "\u2581Pie": 26005, "\"": 29908, "\u2581maintain": 7344, "\u2581Juan": 8699, "}$": 1042, "\u2581gesam": 28343, "pert": 10700, "\u2581draft": 18195, "\u2581repre": 14767, "aled": 7943, "\u2581orn": 15937, "\u2581Uri": 21670, "\u2581Reform": 23933, "\u2581conser": 21929, "\u00aa": 30135, "\u2581voting": 28931, "\u2581indicated": 18694, "\u2581God": 4177, "ELD": 27286, "Ant": 13448, "\u2581pseud": 19923, "\u2581\u00e9x": 28125, "\u2581wegen": 19580, "\u2581Docker": 20868, "\u2581Sed": 20951, "\u2581Unit": 13223, "\u2581\u2581\u2581\u2581\u2581\u2581\u2581\u2581\u2581\u2581\u2581\u2581\u2581\u2581\u2581\u2581": 462, "<unk>": 0, "\u534e": 31266, "-%": 19222, "\u2581Pod": 8594, ":}": 3854, "\u2581fully": 8072, "Edge": 23894, "discussion": 26404, "\u2581gar": 7171, "\u2581flag": 7353, "\u00e6dia": 28699, "\u0398": 30546, "Exception": 2451, "tb": 22625, "Imp": 24192, "\u2581\u043f\u0440\u043e\u0434\u0443": 23092, "\u2581Quant": 22746, "\u2609": 31511, "\u2581Riv": 21505, "\u2581Chr": 18608, "\u2581EP": 16502, "Transform": 13372, "\u2581bec": 1172, "rugu": 18250, "lide": 7459, "\u2581Mys": 28924, "\u2581\u0430\u043d\u0442\u0438": 25980, "ationale": 11464, "loaded": 15638, "\u2581cens": 19343, "nar": 24156, "\u2581documented": 23531, "IAL": 25758, "oning": 28259, "arc": 5666, "\u028b": 31470, "\u2581Wisconsin": 22581, "\u2581einer": 3422, "Hz": 12661, "\u2581s\u00fcd": 14823, "{-": 8499, "blob": 10054, "\u2581Sum": 6991, "\u2581freely": 28472, "\u0439": 29977, "\u03a6": 30551, "\u2581Happy": 28569, "\u2581\u0414\u043e": 6546, "\u2581gem\u00e4\u00df": 17922, "\u2581famous": 13834, "\u2581Ant": 5459, "<0x58>": 91, "\u2581\\(": 4269, "wen": 15556, "vel": 955, "boards": 24691, "\u2581margin": 5906, "iami": 18612, "\u2581begann": 16019, "jt": 22779, "limat": 23442, "fun": 7692, "inus": 13419, "\u2581Recht": 26257, "\u2581newspaper": 19656, "meck": 23636, "Constra": 14131, "request": 3827, "itional": 3245, "blem": 1031, "\u043a\u043e\u0439": 7337, "\u2581lived": 10600, "\u2581Hier": 12433, "<0x1C>": 31, "\u2581DE": 5012, "\u2581gentleman": 16615, "\u0431\u0438\u043d": 24847, "\u2581\u00e9p": 7930, "\u2581\u0433\u043e\u0440": 24856, "\u2581keyboard": 12247, "Short": 21322, "store": 8899, "\u2581dest": 2731, "zott": 29730, "Aff": 27867, "\u2581Log": 4522, "\u2581LIN": 21724, "\u2581product": 3234, "compatible": 23712, "gerufen": 3469, "<0xBC>": 191, "\u043b\u043e\u0432": 3176, "\u2581concaten": 16125, "\u2581frequencies": 29511, "olar": 10170, "\u2581coding": 14137, "\u2581accompan": 18509, "um": 398, "itative": 23378, "\ub2e4": 30709, "\u308f": 31068, "\u2581enf": 12377, "door": 17433, "\u2581Encyc": 12145, "lst": 20155, "\u4e86": 30743, "\u8bf4": 31639, "\u2581prepar": 10223, "\u2581pseudo": 17381, "\u2581voc": 7931, "\u2581\u0427\u0435\u043c": 23214, "\u00falt": 28961, "\u2581flux": 19389, "\u770c": 31108, "ee": 3905, "\u041f\u043e": 20093, "\u2581pov": 16545, "\u2581nin": 17081, "\u2581delet": 7374, "fire": 8696, "\u2581\u0430\u043d\u0433": 16775, "\u2581starb": 28414, "\u2581steht": 16324, "Add": 2528, "\u2581afford": 21750, "xe": 17115, "\u2581wishes": 28688, "\u2581Mitt": 24532, "\u0e33": 30747, "\u2581ex": 429, "\u2581drama": 18621, "Inv": 12165, "\u2581sched": 28598, "phas": 16130, "auch": 13989, "ess": 404, "\u2581\u0447\u0443": 22021, "oca": 6400, "\u2581verw": 9540, "\u0440\u0430\u043c\u0438": 18731, "refs": 24539, "\u2581acknow": 18145, "\u043d\u043e\u043a": 13738, "\u2581Bio": 21184, "\u2581\u043f": 469, "\u2581announced": 9326, "\u2581widely": 17644, "IABot": 24291, "Die": 16334, "issions": 6847, "\u2581bitmap": 21170, "\u2581ore": 28074, "listen": 20631, "\u2581receiver": 19870, "\u2581Pennsylvania": 16636, "selector": 14357, "\u2581eigh": 29319, "href": 12653, "\u2581morph": 18131, "\u2581aurait": 26030, "akte": 17230, "ouvern": 13532, "\u2581s\u00f3n": 19121, "pret": 19819, "\u2581svensk": 29249, "_(": 23538, "aro": 8854, "\u2581});": 2604, "ors": 943, "\u2581Dar": 7335, "\u2581expon": 18709, "lijke": 25868, "\u2581still": 1603, "\u00fcnstler": 17312, "ography": 5275, "ppi": 19788, "ANCE": 23219, "\u2581okt\u00f3ber": 23882, "\u2581expres": 29150, "atures": 3698, "IZ": 26664, "\u2581\u0434\u0432\u0443": 14700, "orney": 25252, "\u2581comes": 5304, "\u2581Grand": 6265, "\u2581Driver": 26391, "Generated": 24565, "\u2581polity": 24694, "fl": 1579, "\u2581Application": 8427, "Could": 23323, "\u2581pc": 22844, "\u2581estable": 19692, "\u2581maar": 10128, "\u2581laws": 14243, "\u2010": 30304, "\u5ea7": 31780, "\u2581years": 2440, "Car": 8179, "tr": 509, "ana": 1648, "\u2581output": 1962, "\u043a\u0435\u0440": 28946, "\u2581occas": 14882, "ederb": 12649, "\u2581dal": 2959, "\u2581Kant": 24517, "\u30f3": 30203, "mathchar": 22823, "\u2581tableView": 21247, "\u2581Units": 28386, "datetime": 12673, "\u2581Navar": 24707, "\u09bc": 31552, "\u2581solved": 7484, "\u00e9sz": 11065, "\u2581Dallas": 27043, "\u3064": 30773, "nego": 10313, "hpp": 29623, "\u2581approaching": 28702, "\u2581million": 7284, "\u10d8": 30277, "ommes": 14229, "ichts": 17815, "\u2581Anti": 18473, "\u0440\u044a": 19003, "\u2581Magn": 19975, "\u2581jquery": 5804, "byte": 10389, "OT": 2891, "}_{": 3227, "\u2581mu": 3887, "\u00e9vel": 27145, "signed": 7433, "(__": 22168, "\u2581appearances": 21712, "illery": 19486, "comments": 21032, "\u2581Sir": 6290, "\u2581Piet": 14929, "\u2581made": 1754, "iry": 16129, "GR": 14345, "STRING": 20785, "iod": 2660, "\u2581Bra": 5032, "\u2581Ian": 22291, "\u2581consequence": 17004, "\u2581Indones": 16704, "\u2581\u00e1rea": 17335, "\u043d\u0438\u0446\u0435": 23256, "\u00e8me": 5000, "\u2581Liberal": 25910, "define": 7922, "Invalid": 13919, "\u0433\u0435": 5035, "embros": 26557, "\u0434\u0430\u0445": 27920, "\u2581IR": 23292, "\u2581campagne": 28974, "\u2581analyz": 29537, "\u201d,": 9363, "\u2581MyClass": 28603, "\u2581Question": 894, "ov": 586, "\u2581occurred": 10761, "<0x2A>": 45, "_)": 19925, "\u2581ejec": 25830, "\u30b6": 31123, "\u2581Czech": 21489, "pred": 11965, "\u2581\u0410\u043b\u0435\u043a": 23225, "\u00b2": 30088, "\u2581reception": 25647, "\u2581authentic": 15585, "\u2581cmd": 9920, "yl": 2904, "\u2581td": 22599, "rant": 21867, "edi": 15844, "\u0442\u0430": 676, "\u2581complete": 4866, "\u2581__": 4770, "\u0440\u0430\u0431\u043e": 15384, "alk": 2235, "tasks": 20673, "\u2581energy": 5864, "simple": 12857, "di": 6051, "zech": 12357, "\u2581laughed": 19090, "\u0105g": 26723, "wohl": 29300, "\u2581Chron": 15336, "\u2581plug": 18665, "ervation": 20525, "\u0446\u0456\u0432": 15272, "\u2581Israel": 11996, "\u2581particolare": 27037, "Lin": 11667, "gn": 5138, "\u2581desar": 14896, "\u0435\u0442": 1257, "texttt": 16266, "\u0437\u0438\u0438": 23169, "\u2581bore": 23888, "bp": 25288, "Vol": 13072, "UG": 23338, "San": 22509, "\u2581lung": 13030, "mul": 16109, "othy": 20336, "ds": 6289, "oir": 6390, "\u2581learned": 10972, "\u2581quar": 20089, "\u2581sport": 7980, "\u2581Sony": 28465, "\u2581Hem": 20863, "ieving": 15387, "teen": 9404, "cf": 6854, "\u2581Buffered": 22217, "fileName": 28926, "xml": 3134, "sol": 2929, "\u2581represents": 11524, "\u2581Bird": 17777, "\u2581migration": 20332, "Sample": 17708, "Ber": 17104, "gemeinde": 25474, "$:": 21063, "\u2581Ald": 18242, "vement": 29841, "\u2581files": 2066, "charge": 23367, "\u041f": 30013, "\u043a\u0430": 642, "\u2581k\u00f6vet": 24100, "\u2581R\u00e9s": 20513, "<0xD9>": 220, "\u2581\u0432\u0456\u0439\u0441\u044c": 25858, "\u2581popup": 18218, "\u0437": 29972, "trim": 15450, "\u2581ui": 14313, "LECT": 3281, "ims": 9893, "\u018f": 31127, "ifts": 17741, "Theta": 17458, "\u2581Her": 2439, "\u2581Box": 11773, "\u2581tod": 7379, "\u2581echter": 24355, "\u2581march": 8575, "\u2581simplicity": 23205, "\u2581\u0446\u044c": 19940, "\u2581Norway": 27440, "ices": 1575, "\u2581dynamics": 19753, "\u2581We": 1334, "\u2581dir": 4516, "\u043f\u0430\u0440": 11396, "PD": 25014, "falls": 12559, "lets": 10376, "\u2581University": 3014, "iegel": 19369, "beta": 3571, "\u2581list": 1051, "Field": 3073, "\u2581nic": 16588,
[...]
