{"codes": 22019, "\u623f": 30376, "\u2581hot": 3296, "\u2581SOFTWARE": 14891, "ierz": 25076, "WF": 27553, "\u2581damn": 9741, "\u2581soll": 15746, "\u2581colle": 11140, "ultan": 24263, "\u2581needs": 3208, "Loading": 16031, "\u2581redd": 15512, "tu": 17512, "sender": 21910, "\u62d2": 31792, "\u2581was": 403, "\u5185": 29188, "pton": 11648, "\u00e4hrend": 14934, "\u2581developing": 10423, "\u2581impro": 3267, "herent": 21891, "\u2581often": 2608, "\u2581frequencies": 27905, "results": 10463, "\u2581Tower": 19895, "iku": 23550, "\uc2ed": 31202, "\u2581\u00f6": 6204, "}$-": 22298, "\u2581tutti": 26313, "\u2581pronounced": 28232, "\u2581expecting": 15550, "\u2581\u043b\u044e": 12566, "\u2581Budd": 13772, "yt": 4475, "\u2581Bernard": 16784, "\u2581Falls": 24538, "IEW": 19212, "\u01d4": 30466, "hentication": 9767, "aly": 8910, "\u952e": 29728, "\u2581insect": 16918, "\u2581towns": 17579, "page": 3005, "(\"[": 16848, "\u2581statt": 25183, "\u2581Bud": 7095, "\u2581fals": 27958, "verse": 4177, "\u2581\u041b\u0430": 13813, "ar": 283, "signature": 22938, "<?": 5357, "\u2581fucking": 7714, "amment": 16602, "consin": 18091, "\u2581grade": 12146, "cep": 18316, "StackTrace": 20270, "olia": 22925, "G": 28777, "\u2581requ": 1085, "\u2581relaxation": 27607, "uts": 5725, "aints": 6520, "'\"": 21236, "\u0440\u0438": 892, "<0xF0>": 243, "mas": 4876, "Retry": 23298, "\u011f": 29088, "\u2581Vlad": 20551, "\uac83": 30439, "\u2581excitement": 17163, "\u2581margin": 9829, "uvo": 25075, "omm": 26712, "hop": 19463, "\u2581Rice": 26741, "\u800c": 29746, "\u2581Gun": 20655, "ym": 1082, "\u2264": 30035, "\u2581prey": 27911, "\u5965": 31761, "\u2581Ther": 16481, "\u2581hurried": 21893, "\u2581thoroughly": 19877, "\u2581spraw": 24364, "Top": 6228, "\u2581\u0432\u0435\u0440": 12946, "\u2581imagination": 16842, "\u2581rode": 17265, "idential": 27357, "\u554a": 31308, "\u2581caf\u00e9": 28345, "\u2581volt": 9921, "IST": 8048, "\u2581\u0438\u0441": 17282, "\u2581stronger": 12774, "\u2581######": 14432, "Microsoft": 10052, "\u2581tan": 12222, "Scale": 10398, "heads": 25372, "uns": 13716, "\u2581Confeder": 22474, "\u043e\u0431\u0440\u0430": 17942, "rieb": 14945, "\u2581closing": 12984, "opy": 1600, "istically": 26588, "\u8bd5": 29592, "\u2581\u0440\u0430": 2101, "Execute": 17715, "agh": 25189, "\u2581*)&": 27349, "otype": 21475, "\u2581directed": 10666, "harm": 24418, "\u2581Local": 9553, "\u2581resort": 18969, "^-": 18092, "gles": 16984, "\u2581archae": 28426, "\u2581\u0447\u0430\u0441\u0442\u044c": 26598, "\u0178": 30322, "\u2581Sebastian": 26115, "\u0219": 28903, "DED": 16048, "\u2581Philosoph": 22156, "\u2581txt": 23027, "\u2581Kultur": 27929, "\u2581ao": 8468, "\u2581char": 1280, "ICAL": 21497, "\u2581jokes": 23872, "\u2581PD": 28054, "\u0441\u043a\u0443\u044e": 20717, "Observer": 18085, "face": 1797, "\u043c\u0435\u043d\u0442\u0430": 24455, "\u2581el\u0151": 23367, "ployment": 9129, "Last": 7202, "uses": 6912, "\u2581radial": 28021, "Join": 14136, "nal": 2340, "\u2581Beg": 25572, "\u2581extern": 7784, "\u2581Rob": 5776, "have": 15378, "allas": 14531, "\u2581concer": 14055, "\u2581Yeah": 8352, "\u2581celui": 20948, "nia": 6232, "\u2581Bomb": 25805, "\u2581\u0414\u0435": 11720, "\u043b\u044c\u043d\u043e": 17921, "\u6b62": 29885, "\u2581summary": 14060, "\u2581byl": 15722, "esi": 17897, "hh": 12653, "ides": 1926, "\u2581slip": 13070, "\u0447\u043a\u0438": 16333, "HasColumn": 17011, "Min": 5805, "\u2581equity": 22851, "\u2581ste": 2710, "\u2581cref": 14799, "structure": 18048, "\u2581handy": 26568, "CIAL": 22150, "\u2581pierws": 28448, "<0x5D>": 96, "ieron": 12721, "\u2581raw": 8435, "\u00fe": 29767, "\u2581Ka": 16121, "[[": 15537, "Item": 2042, "wave": 21884, "\u2581p\u0159ed": 22774, "\u2581\u0418\u0441\u0442\u043e": 19702, "\u2581luc": 22144, "\u2581Pier": 9101, "\u2581tone": 10294, "seau": 24554, "n\u00edho": 23720, "\u2581encouraging": 21885, "\u2581rais": 4471, "\u00f4t": 14924, "worker": 18205, "\u2581assass": 16645, "\u2581former": 4494, "\u2581Trace": 28626, "\u2581Temp": 27279, "\u8bef": 29515, "\u2581minist": 15910, "alties": 23771, "\u2581Sign": 9315, "transition": 19655, "';\r": 18759, "ctor": 1810, "\u2581website": 4400, "nic": 6374, "ample": 1662, "\u2581litt": 26261, "\u0441\u0442\u0440\u043e": 9571, "thy": 25917, "\u2581wife": 4285, "\u2581Mur": 7423, "arily": 5164, "uable": 10500, "\u2581blur": 19690, "(\"\");": 28361, "aison": 13390, "program": 13329, "\u2116": 28986, "\u2581Philadelphia": 15804, "\u0441\u0442\u0435\u0440": 16487, "IOException": 15211, "iov": 18762, "without": 20795, "mitt": 23023, "chrome": 21001, "\u2581&(": 27029, "\u0281": 30024, "emi": 17957, "\u2581fro": 8169, "\u2083": 31358, "\u5927": 29050, "\u2581dev": 1847, "\u2581ciudad": 14879, "\ucc98": 30201, "\u2581Galaxy": 28228, "webpack": 9091, "ales": 2230, "Sets": 25144, "Validator": 16738, "no": 1510, "\u2581Landes": 22924, "\u2581bomb": 9914, "\u0e08": 29789, "tb": 14238, "\u2581filtered": 25028, "\u2581Pre": 4258, "iaz": 25939, "Writ": 25287, "<'": 12729, "Xamarin": 27206, "\u5170": 31199, "quel": 21894, "\u2581young": 2518, "\u2581Hem": 21942, "\u064d": 31993, "\u2581\\[": 8761, "\u2581turning": 8528, "fica": 17643, "Member": 10553, "\u2581increasing": 6488, "\u2581Lamb": 26247, "ally": 578, "He": 2428, "\u00edses": 27075, "will": 13185, "Usage": 16200, "cret": 3927, "ugs": 19882, "\u53d6": 29012, "idle": 20240, "\u2581IO": 8795, "<0x2C>": 47, "\u2581affect": 5197, "\u2581tow": 11201, "PEND": 25902, "\u2581stead": 10445, "\u20b9": 29652, "\u2581sy": 5747, "Partition": 20435, "\u2581period": 3216, "andy": 10087, "\u2581decorated": 24616, "3": 28770, "\u2581Church": 6381, "\u2581sw": 1719, "\u2581soldiers": 8996, "Ali": 14514, "\u2581\u043c\u0435\u0436\u0434\u0443": 16360, "\u2581Gallery": 16597, "criptions": 17135, "\u2581Kings": 19188, "DIRECT": 19788, "Combo": 25141, "):\r": 20358, "\u2581Muhammad": 25605, "gold": 27783, "raid": 7370, "illes": 11619, "\u2581ott": 19137, "ages": 1291, "<0x22>": 37, "\u2581ampl": 16401, "\u0434\u0438\u044f": 20303, "BUT": 23637, "\u2581kat": 25345, "\u2581Ol": 7012, "Cannot": 22193, "rible": 7030, "\u2581they": 590, "\u2581Content": 13158, "<0xAB>": 174, "\u2581logger": 11813, "\u2581...": 3850, "ente": 3639, "\u2581confident": 10689, "\u2581Buffer": 21495, "\u2581\u00e9": 1233, "\u2581subjects": 14575, "\u89c1": 30237, "\u626b": 30997, "\u529e": 31298, "\u2581Vict": 6968, "\u5f35": 31241, "\u2581sam": 4545, "\u2581hall": 7224, "Fi": 12705, "With": 2946, "vis": 3225, "embed": 18320, "\u2581limited": 6516, "\u2581female": 7742, "\u2581engaging": 19639, "\u2581efficient": 9096, "\u2581Ben": 4121, "havior": 13625, "\u2581uno": 10956, "\u2581writes": 13883, "\u0437\u044c": 14935, "\u2581Susan": 17569, "\u2581lay": 4897, "\u2581gob": 21768, "\u2581audiences": 24460, "\u2581shy": 23589, "\u2581Simon": 10590, "\u2581prints": 25831, "\u2581contacted": 28330, "\u9891": 30030, "\u666e": 30571, "etes": 10072, "\u2581Officer": 16797, "\u0434\u0456\u0432": 25498, "\u2581metal": 7503, "\u691c": 30948, "\u2581speed": 4975, "topic": 17833, "\u2581exciting": 12536, "wire": 20934, "\u2581Pray": 27881, "\u2581phones": 18744, "\u2581Env": 12590, "\u2581Program": 7347, "\u2581Short": 11530, "\u2581\u0427\u0435": 23543, "CTOR": 20434, "\u0442\u0456": 8240, "\u2581Secret": 9233, "\u2581covering": 13974, "\u2581dtype": 17882, "arks": 7696, "Elem": 21302, "\u2581lan\u00e7": 27394, "\u02c7": 31721, "oted": 4618, "\u2581Pow": 14326, "buf": 2596, "ill": 425, "\u2581compare": 9584, "download": 17359, "\u2581Yam": 24510, "\u03ac": 29201, ".\"\"\"": 16498, "Matrix": 10701, "\u3070": 30653, "\u2581Linked": 22675, "\u2581whites": 19719, "imeter": 16659, "\u2581ment": 4498, "\u1019": 31218, "\u2581similar": 3684, "flags": 4406, "toire": 24502, "dom": 2920, "\u2581trailing": 27166, "\u89aa": 31661, "ich": 539, "\u2581panic": 15107, "\u043b\u043a\u043e": 23054, "focus": 12208, "ribu": 15149, "\u0440\u0435\u0434\u0438": 15748, "VF": 27219, "\u2581{{": 13949, "\u2581RET": 28620, "\u8ba2": 29682, "\u79d2": 30009, "tra": 1947, "using": 8521, "\u2581historic": 15799, "\u2581rod": 16439, "\u2581infrastructure": 14461, "ollow": 1257, "ifting": 13120, "\u2581pack": 2163, "('<": 23880, "\u2581sched": 22245, "\u2581js": 14034, "\u2581efficiently": 23463, "\u2581zam": 23884, "\u2581Marie": 12963, "=*/": 26932, "\uc62c": 31519, "\u043b\u0430\u0433\u0430": 22443, "\u2581Sara": 23365, "\u2581guarantee": 12587, "\u2581\u0445\u0438": 27220, "\ufeff": 31759, "\u2581printing": 19246, "\u043b\u0435\u043c": 16669, "apt": 1459, "\u2581divided": 13570, "oding": 5195, "article": 15461, "delta": 3973, "rose": 16965, "\ud83d\ude06": 31021, "\u2581Greek": 11715, "\u2581Hair": 27523, "\u2581legend": 12851, "\u2581organisations": 24202, "content": 3789, "Sigma": 9806, "\u5834": 30016, "\u0430\u043b\u044c": 8067, "}.": 2051, "exit": 9427, "\u2581Angeles": 9479, "\u2581Palm": 28234, "\u2581comparison": 10367, "ej": 15808, "\u2581June": 4212, "\u2581Archives": 28477, "\u2581England": 5783, "\u2581pseud": 22787, "\u2581Kamp": 27116, "\u0643": 29171, "\u6563": 31426, "\uad70": 31672, "UNK": 18571, "\u06d2": 30522, "Flags": 7651, "\u2581characteristic": 17845, "\u263c": 31560, "AV": 9024, "\u2581ME": 13835, "\u2581such": 1259, "\u2581touch": 4814, "-----": 13918, "\u2581flick": 15850, "\u2581\u0441\u0438\u0441\u0442\u0435": 21609, "\u2581dernier": 26592, "\u2581understanding": 6399, "\u2581musician": 26458, "\u043d\u043e\u043b\u043e\u0433\u0438": 25544, "VAL": 3668, "\u2581\u0438\u043d": 8257, "\u2581telephone": 15429, "\u2581bucket": 15552, "uced": 22333, "\u2581Dale": 25300, "usted": 16551, "oustic": 27621, "/*!": 19994, "\u2581con": 379, "\u2581patients": 6883, "Aff": 25683, "\u0443": 28805, "No": 2501, "\u062a": 28967, "\u2581me": 528, "\u17c4": 31956, "izontal": 9727, "\u2581victim": 12354, "\u2581wel": 5661, "iforn": 5507, "\u2581Method": 10011, "iation": 6752, "\u2581notion": 14086, "protocol": 12787, "\u2581cheese": 13628, "\u043f\u0438\u0441\u0438": 25525, "Page": 4068, "MODULE": 10820, "\u2581Chron": 23967, "\u52b9": 31075, "\u2581falls": 14179, "\u2581*=": 22040, "Transform": 10143, "\u2581feels": 8315, "\u0433\u043e": 803, "\u2581Ra": 11074, "mem": 3271, "\u2581expans": 28235, "\u2581echo": 3894, "\u2581capabilities": 16585, "\u2581sophisticated": 23213, "Arch": 12186, "\u2581analyst": 22275, "\u6389": 30527, "\u2581Fab": 12055, "\u2581Bon": 8500, "\u2581hanno": 23618, "sts": 21514, "lington": 26183, "\u2581Paulo": 22149, "\u2581otto": 24127, "enc": 831, "\u2581remain": 6344, "anners": 24681, "...\"": 7508, "Check": 3828, "pgfpath": 11370, "ENO": 12726, "\u2581Lemma": 13584, "\u2581estaba": 18281, "maps": 19110, "\u2581booking": 23492, "\u2581>=": 3966, "steller": 25383, "\u2581questioning": 27203, "\u30e4": 31234, "ometry": 8289, "Folder": 14550, "\u2581xml": 14502, "LES": 20335, "\u2581deployment": 23039, "\u2581while": 1312, "\u2581Invalid": 17275, "gos": 20359, "\u2581Otto": 21289, "\u0642": 29115, "\u9644": 30560, "\u2581propri": 25681, "\u2581clan": 25750, "\u5c0f": 29138, "atform": 3272, "\u2581classic": 11495, "rieben": 25077, "omet": 3424, "\u3011": 29494, "Adapter": 8683, "Query": 3294, "\u2581Tuesday": 11187, "\u2581depos": 11199, "____": 3990, "\u2581Phoenix": 23228, "\u2581phases": 23105, "\u2581mouse": 12733, "\u2581Bol": 10823, "textrm": 18118, "5": 28782, "iffe": 27007, "\u2581Venezuela": 25307, "\u2581sv": 5990, "igration": 7491, "\u2581reviews": 10237, "\u2581suspicious": 25175, "\u2581hecho": 27722, "\u2581\u043e\u043f": 17742, "curr": 14032, "\u0440\u0430\u044f": 26487, "\u2581culture": 5679, "Members": 23020, "\u2581miserable": 26779, "chestr": 26844, "Disabled": 21258, "odot": 24075, "argv": 14241, "\u2581colours": 22137, "senal": 22792, "\u2581tough": 10342, "\u2581raid": 21962, "\u2581inaugur": 28409, "\u5145": 30282, "\u0ca6": 31775, "\u2581Other": 5299, "\u2581pian": 21624, "watch": 10330, "\u984c": 31054, "pte": 25526, "\u2581in": 297, "\u2581jewelry": 25528, "\u0013": 30453, "\u0625": 29834, "\u2581ears": 12446, "cpy": 9860, "\u2581emerge": 26061, "defined": 11498, "\u2581spot": 6297, "gie": 10955, "\u2581Princess": 21408, "\u2581vas": 26452, "NODE": 15214, "auch": 21300, "anz": 4879, "k": 28729, "\u0092": 29068, "\u795e": 29836, "\u2581vo": 1776, "ionale": 12898, "\u2581bund": 22978, "\u2581tier": 24488, ")}\\": 11688, "CONFIG": 9835, "\u2581seconds": 7231, "cular": 12723, "\u2581earliest": 21864, "MY": 20801, "<0xEA>": 237, "anne": 13002, "\u2581delay": 8579, "\u2581&&": 1208, "\u2581l\u00ed": 16101, "itch": 1986, "\u2581situation": 4620, "\u2581Sant": 5095, "\u2581submit": 13914, "uffled": 26545, "\u304f": 29666, "\u5bf6": 31683, "Arguments": 19024, "\u2581scientists": 15067, "\u0447\u043d\u0438\u0445": 24409, "REEN": 25755, "\u2581backward": 19592, "iken": 21417, "\u2581expenses": 16972, "\u2581l\u00e9g": 19416, "Alex": 26189, "\u2581theme": 7335, "Func": 9715, "\u2581Net": 5269, "\u2581\u0441\u0435": 2310, "\u2581hostile": 26616, "\ucc38": 31459, "\u043d\u043e\u0442\u043e": 28337, "\u4fdd": 29321, "\u2581cached": 19970, "\u6d6e": 31171, "\u2581einen": 7897, "\u2581IS": 3396, "\u6e38": 30239, "\u2581bob": 28142, "):": 1329, "\u2581nerv": 9434, "\u2581det": 1276, "oso": 13880, "...,": 25272, "\u2581endl": 20604, "\u2581\u043e\u0441\u043d\u043e\u0432": 16810, "\u00e1t": 4566, "\u2581rapport": 18778, "RV": 19578, "\u17b7": 30845, "extensions": 22198, "\u2581voice": 3441, "Invoke": 21764, "\u2581base": 2624, "dhd": 27957, "Binding": 14792, "\u017e": 28879, "\u2581hem": 14492, "\u2581portion": 11580, "\u2581unknown": 9038, "hado": 25194, "\u2581sec": 5267, "\u2581signed": 7995, "\u00e9ral": 12036, "\u2581Helen": 18504, "\u8f6c": 29357, "But": 2438, "cie": 9041, "bitro": 18829, "\u2581Une": 16035, "\u0142a": 6905, "\u2581Psy": 13020, "\u2581urb": 26243, "\u2581specialists": 28375, "\u2581Foot": 10372, "\u2581accounts": 9855, "\u2581neuen": 28319, "found": 9016, "icc": 26867, "\u2581qu\u00e9": 25648, "axis": 8405, "iling": 5708, "CTL": 13504, "\u2581Player": 13684, "\u2581massage": 20473, "\ud604": 30205, ");": 344, "keit": 11231, "oned": 12880, "Equ": 2702, "\u1ed3": 30241, "horn": 26966, "eking": 25447, "\u2581proc": 13053, "\u2581dc": 28528, "lesh": 12953, "\u0440\u0430": 665, "\u2581brand": 5804, "\u2581indent": 23567, "\u2581autor": 13254, "\u2581hurry": 24387, "itted": 3309, "\u2581awful": 15340, "\u2581ner": 24687, "\u2581Joseph": 8218, "NING": 22021, "$.": 1715, "<0x18>": 27, "NOT": 7536, "\u2581touchdown": 27866, "\u2581sauce": 16042, "\u1f76": 30492, "statement": 22910, "nf": 23644, "ars": 1168, "\u2581lapt": 16925, "\u2581\u043a\u043e\u043c\u043f": 25603, "PART": 28069, "Log": 2763, "iami": 14581, "Account": 7820, "\u2581man": 676, "\u2581ann\u00e9es": 16010, "None": 5364, "\u2581elect": 3206, "\u2581btn": 11898, "\u2581\u0437\u043d\u0430": 9812, "\u2581entitled": 15583, "\u2581\u2581\u2581\u2581\u2581\u2581\u2581\u2581\u2581\u2581\u2581\u2581\u2581\u2581": 1417, "\u2581access": 2735, "\u2581trapped": 20868, "\u2581sister": 5668, ")&": 22743, "\u00e2tre": 25238, "\u2581iron": 8075, "\u2581voce": 27802, "\u30d5": 29412, "database": 14430, "onso": 24291, "\u2581pentru": 19493, "\u2581Welt": 13543, "\u2581sustained": 25859, "\u2581\u0440\u043e\u043a\u0443": 7339, "unted": 15227, "\u2581Config": 10566, "\u2581fur": 2982, "\u2581Jersey": 14007, "\u2581cout": 19324, "equation": 2160, "ideo": 2555, "\u2581contro": 10184, "iga": 7233, "\u2581income": 7904, "yan": 8455, "\u0441\u043f\u0443\u0431\u043b\u0438": 26352, "\u2581archive": 23794, "\u2581mothers": 21574, "apa": 10405, "met": 2243, "\u2581facts": 11412, "versation": 25422, "rol": 1438, "epper": 14781, "\u2581Washington": 5924, "\u2581navigation": 18132, "ves": 1855, "\u2581Studios": 24545, "\u2581Christ": 2393, "\"+": 13578, "\u2581\u041c\u0430": 5564, "\u2581sound": 2622, "\u2581significance": 18309, "\u2581His": 2354, "\u2581exp": 2365, "\u30ad": 29753, "\u2581Emily": 16941, "Bill": 18069, "ionen": 23613, "\u2581barr": 20427, "editor": 10692, "\u2581Jane": 10805, "\u2581json": 7611, "\u2581ende": 22834, "\u2581Harm": 26988, "\u0e28": 30859, "Serial": 9124, "\u2581enhance": 11976, "\u2581nell": 16484, "\u6cf0": 31361, "\u2581YOU": 15479, "acter": 2441, "linked": 27465, "\u7edc": 30229, "\u2581laying": 27587, "\u2581ceiling": 15273, "\u2581Develop": 8587, "\"].": 15254, "\u2581Liga": 19547, "\u2581Sax": 26974, "Phi": 8106, "Alt": 19980, "\u2581cried": 13714, "Suppress": 22229, "\u2581cel": 9645, "FR": 9790, "\u2581departments": 25626, "\u2581bem": 28111, "amt": 13805, "\u2581words": 3085, "English": 27871, "\u0441\u044f": 1931, "\u2581researchers": 15334, "tc": 8282, "DIS": 9385, "\u2581PROVIDED": 27104, "\u2581vic": 13051, "\u0442\u0442\u044f": 21074, "brid": 14519, "\u2581redirect": 16219, "\u2581seventh": 25650, "NORMAL": 27499, "\u53e6": 31127, "\u2581\u0433\u0435\u043d\u0435": 20831, "\u2581excellent": 8099, "\u2581Camb": 10597, "\u2581Walter": 13517, "rsp": 25341, "\u043d\u0433": 7521, "clone": 10519, "\u2581tres": 14009, "omorphic": 22631, "[_": 24655, "\u2581writer": 6953, "\u2581significant": 5864, "folk": 25317, "ch": 338, "\u2581thrust": 20600, "\uc21c": 30891, "\u2581=>": 953, "quare": 9415, "ine": 473, "\u2581M\u00fcnchen": 24362, "Browser": 16008, "\u2581\u00e8": 3473, "igd": 12884, "\u2581BUT": 16482, "Values": 7025, "\u2581followed": 4961, "\u2581advantage": 7859, "\u2581Bundes": 15678, "\u2581Sets": 16757, "esota": 17231, "OBJECT": 17879, "\u2581Est": 3978, "\u0447\u043d\u043e\u0433\u043e": 19957, "\u2581XML": 16537, "Norm": 25608, "\u4e07": 30568, "\uc0ac": 29315, "GLOBAL": 21742, "\u00edc\u00ed": 23098, "\u2581joke": 13015, "\u2581incl": 1171, "\u2581\u0442\u0430": 2937, "\u2581Control": 10336, "\u2581drove": 11496, "('/": 10815, "\u2581cr\u00e9": 14791, "mir": 14911, "\u2581moy": 19802, "Christ": 17701, "Even": 20520, "()));": 8797, "~$": 16621, "\u2581regex": 22899, "Split": 16990, "\uad6c": 29779, "\u2581Rober": 4542, "\u2581abort": 13515, "':": 1869, "Io": 26086, "\\|_{": 26978, "HT": 3671, "\u2581chick": 25424, "\u2581Bur": 6815, "\u2581\u0440\u0438": 18937, "icos": 8368, "ario": 3756, "sr": 13489, "\u2581Afghanistan": 19756, "div": 1538, "aser": 14068, "Ten": 22415, "\u2581ancestors": 25427, "\u1275": 31506, "u\u00df": 23016, "\u2581neuro": 20342, "\u2581####": 2476, "\u2581diciembre": 26921, "\u2581Jer": 5505, "Dot": 25520, "android": 9498, "kir": 20741, "\u2581V": 550, "\u2581what": 767, "urt": 3525, "Append": 13028, "Figure": 25665, "\u2581Where": 6926, "\u043d\u0438\u043d": 20406, "\u59d4": 31397, "\u014f": 29869, "ulse": 17494, "\u2581focuses": 21165, "abase": 3975, "\u0624": 31456, "emperaturen": 26292, "fas": 17284, "\u2581primary": 6258, "\u2581coupling": 18047, "inding": 4763, "\u2581Settings": 18923, "\u2581dic": 19184, "\u0440\u0430\u0437": 24440, "\u2581Non": 9187, "alom": 25759, "\u2581modifications": 26470, "\u2581ide": 1872, "\u2581parc": 26790, "\u301c": 31065, "\u2581spread": 6049, "CONTROL": 22826, "\u00e4sident": 25353, "stv\u00ed": 24574, "talk": 25995, "\u2581edges": 11742, "\u2581offered": 6373, "\u2581retr": 17895, "\u2581relig": 4422, "views": 13064, "erna": 17995, "\u2581eliminate": 20545, "\u043d\u0435\u0439": 12756, "\u2581mess": 4687, "\u2581\"(": 21816, "\u2581Bed": 12266, "valueOf": 19822, "\u2581deutschen": 25996, "etric": 28677, "four": 14171, ",*": 17205, "\u2581\u043a\u043e\u043c": 8540, "protobuf": 9608, "\u670d": 29430, "\u5bf8": 31222, "\u2581derived": 11236, "\u80b2": 31350, "\u2581\"\";": 11993, "\u2581Down": 8560, "Roll": 22849, "ipher": 10447, "permission": 24654, "\u2581Flag": 25156, "\u2581Schl": 21983, "\u2581Param": 10938, "\u6e2f": 30913, "\u2581house": 2134, "\u2581Tal": 10677, "\u2581orden": 23179, "\u2581act": 960, "\u2581descriptions": 25308, "ole": 1254, "sel": 2325, "\u00f1a": 8842, "\u2581Never": 9268, "\u2581gir": 27585, "elta": 2392, "ibile": 24109, "arin": 26327, "\u2581Product": 9068, "\u2581Kan": 14748, "itzer": 13744, "\u5a01": 31349, "\u2581r\u00e9gion": 23227, "\u2581deserve": 16133, "Perm": 10199, "Models": 13736, "\u2581range": 2819, "\u0441\u0430": 3281, "\u2581impact": 5088, "\u2581fd": 18111, "\u1010": 31624, "aben": 19309, "ious": 925, "\u2581Cab": 11357, "\u2581sense": 3367, "nek": 11593, "\u2581Tai": 16118, "\u2581tiem": 16365, "\u4ece": 29505, "igt": 8335, "\u2581ang": 3720, "human": 18529, "\u2581politicians": 18594, "\u2581vor": 6876, "\u2581chopped": 28393, "License": 9428, "padding": 13712, "\u2581\u043e\u0440\u0433\u0430\u043d\u0438": 18876, "\u9002": 30640, "\u2581Va": 18786, "\u2581sector": 9642, "hour": 13785, "\u2581uid": 26975, "\u2581print": 2682, "ARK": 17155, "\u7ee7": 30471, "\u30ce": 30561, "\u0441\u044c": 1974, "\u2581lights": 9416, "\u2581Neb": 21365, "\u2581helps": 7263, "\u2581neigh": 5043, "bidden": 20350, "Autow": 25789, "\u2581Francis": 6617, "\u9280": 31890, "\u0bbe": 30419, "\u2581edition": 12065, "\u2581\u0456\u0437": 23075, "\u2581FIXME": 26842, "\u2581Logan": 27072, "\u2581WARRANTY": 14437, "\u2581Bridge": 15050, "\u2581meant": 5035, "armed": 22508, "\u2581forme": 19396, "track": 7822, "HECK": 5250, "\u2581Edwards": 27336, "\u2581commit": 5453, "ited": 1345, "\u2581mov": 1806, "ora": 3428, "\u0430\u043b\u0438": 17816, "\u2581CH": 6523, "\u2581Far": 8549, "\u81f4": 30176, "commerce": 24008, "\u2581Spr": 15946, "lique": 19438, "/:": 26387, "\uac74": 30771, "\u2581Universe": 27131, "\u2581consecutive": 22162, "\u2581lif": 5678, "mmc": 28648, "\u2581spel": 28501, "\u2581industrial": 10663, "DD": 7600, "\u2581Left": 18365, "amaz": 13676, "\u2581acquisition": 23011, "uals": 13073, "\u2581cinq": 28300, "tabs": 24856, "\u6c11": 30136, "\u2581achieve": 6619, "Opt": 14205, "\u2581metrics": 17001, "urst": 24168, "\ub2f4": 31569, "cle": 1812, "ecause": 4383, "\u2581cmd": 8651, "\u2581dogs": 9540, "\u2581golden": 13863, "\u2581hoof": 28376, "\u2581cz\u0119": 22375, "+\\_\\": 25471, "ongs": 24487, "jar": 13036, "Height": 5814, "\u2581\u043e\u0440\u0433\u0430\u043d\u0438\u0437\u0430": 26266, "amine": 21928, "\u2581f\u00f6rst": 23722, "\u2581jego": 22680, "\u52a8": 29129, "\u0449\u0430": 6770, "\u2581validate": 13412, "routes": 26016, "\u0e0d": 31064, "\u2581Creek": 15480, "vik": 26951, "\uff08": 29186, "\u035c": 31878, "\u2581each": 1430, "\u2581God": 2499, "SA": 5530, "\u2581temps": 12974, "\u2581{\\": 2532, "\u2581willing": 7813, "\uac00": 29135, "\u2581captain": 13565, "\u0336": 31107, "NULL": 5992, "\u2581intermediate": 22602, "\u2581pist": 16034, "builder": 10151, "\u2581variable": 7860, "\u2581scenarios": 22141, "\u2219": 30444, "\u6682": 30547, "\u043b\u0430\u0433\u043e": 22085, "\u2581patri": 17668, "Car": 11799, "\u2581\u0447\u0435\u043b\u043e\u0432\u0435": 15811, "\u2581Phase": 26306, "\u2581bamb": 27048, "\u2581assist": 6031, "\u043b\u044c\u043d\u043e\u0433\u043e": 22821, "PM": 8597, "\u2581Import": 15747, "Operations": 23709, "\u4e00\u4e2a": 28518, "\u00ad": 28927, "\u0432\u0435\u0441\u0442": 15339, "\u2581d\u00e9c": 8738, "\u2581En": 1618, "\u09b2": 30294, "\u2581essay": 10360, "\u2581suffering": 11812, "\u0103": 28867, "\u2581youth": 9539, "description": 6518, "\u2581Feature": 22114, "\u2012": 30998, "ajo": 10125, "xd": 10044, "cknow": 8979, "ING": 2043, "\u000f": 30698, "\u2581stress": 6727, "\u2581funeral": 18979, "\u00dc": 28961, "\uc704": 29744, "ems": 7940, "market": 15594, "\uc0c9": 30508, "\u2581accepting": 22368, "\ub7ec": 30244, "\u2581err": 1166, "\u2581components": 8076, "\u2581jeans": 21576, "\u2581gras": 26517, "\u58f0": 30271, "\u0447\u0438\u043d": 23156, "\u2581lb": 23441, "\u2581total": 3102, "\u2581int": 716, "ouch": 3204, "\u2581prom": 2157, "\u2581inclusive": 25573, "lot": 22682, "\u2581apost": 26643, "\u2581siendo": 27012, "olent": 26346, "vue": 19732, "\u2581\u0432\u0456\u0434": 6233, "abile": 28573, "\u2581airport": 14400, "Should": 15035, "\u00f4le": 18606, "\u2581knife": 12579, "Modified": 19288, "IRQ": 21393, "\u2581instrumental": 28166, "\u0446\u0438\u044f": 7359, "<0x33>": 54, "\u2581question": 2996, "\u2581\u044f\u043a\u0456": 23008, "Bi": 27405, "Boolean": 9925, "\u2581suspended": 21342, "\u2581From": 3672, "isValid": 28390, "\u2581TR": 6378, "\u5bc6": 29385, "\u2581Krist": 16661, "\u2581(!": 1661, "Low": 21397, "\u2581Hav": 23780, "\u2581Cuba": 21935, "workers": 28256, "\u2581Fu\u00df": 21309, "\u2581teen": 10799, "\u2581userId": 23836, "\u79c1": 30593, "\u2581wire": 9112, "\u2581power": 1982, "ators": 3117, "\u2581operating": 10513, "ulating": 13622, "Foot": 22043, "oxy": 22428, "\u2581suspension": 26542, "\u2581equ": 1734, "\u2581ladder": 25016, "\u2581ah": 27069, "\u2581todas": 24209, "\u96be": 31407, "\u77e9": 30679, "\u2581Western": 8307, "beit": 10943, "emy": 6200, "facebook": 23744, "Linq": 25235, "\u2581withd": 23055, "Throw": 16519, "\u2581treat": 3363, "\u2581kids": 4551, "\u2581checks": 13804, "\u2581Ma": 6068, "v": 28728, "\u2581Brooklyn": 21491, "ae": 4643, "\u2581compress": 25595, "\u2581JO": 20216, "\u2581midst": 25165, "oku": 17776, "free": 3669, "\u2581largest": 7639, "*}": 4237, "\u2581calculations": 19051, "ogram": 11777, "chod": 22219, "-": 28733, "mod": 1398, "\u2581\u043d\u0438": 11413, "\u2581zwischen": 13217, "\u2581clicking": 24675, "\u2581transfer": 5998, "\u2581metadata": 11214, "\u2581\u043f\u0440\u0438": 2683, "json": 3371, "\u2581facilitate": 25729, "\u2581improved": 11957, "\u2581PARTIC": 12942, "Visibility": 19499, "DIP": 24090, "\u05b8": 29997, "\u4ed3": 31263, "\u2581Louis": 6698, "\u2581briefly": 15643, "\u2581sm": 991, "\u2581dall": 16563, "\u2581earned": 12839, "\u2581Conse": 26300, "sid": 17554, "ACE": 6116, "\u2581shots": 14487, "\u2581Dur": 8420, "\u2581dry": 6964, "estro": 21843, "\u2581Joan": 20616, "\u2581eran": 20781, "...": 1101, "\u6548": 29532, "\u0448\u0435\u0439": 22728, "ainte": 24243, "\u2581strateg": 7432, "\u60e0": 30919, "\u2581Region": 13365, "\u2581boom": 25157, "FROM": 21335, "\u0425": 28904, "\u2581Built": 25631, "\u2581consecut": 19213, "\u5ea6": 29184, "\u2581propriet": 20796, "\u2581ss": 20113, "Vo": 22619, "Ui": 24509, "\u0632": 29210, "Functions": 23072, "l": 28714, "<0x26>": 41, "uming": 21542, "IMAGE": 24947, "ract": 1836, "\u2581guerra": 15328, "\u2581targeted": 20279, "\u2581Jo": 6081, "\u2581?></": 20198, "bably": 14472, "lector": 4183, "\u0e4f": 30546, "\u2581profit": 11876, "\u2581Slow": 22272, "\u2581Eu": 28067, "\u62e5": 31855, "\u2581agricultural": 22815, "\u2581ordinary": 13207, "avor": 3115, "\u884c": 29037, "\u2581gri": 15854, "\u0164": 31277, "IDS": 19954, "\u2581Ship": 23168, "\u2581django": 24848, "\u7d1a": 31373, "\u2581etc": 4345, "ings": 742, "\u2581\u043f\u0435\u0440\u0438\u043e": 20292, "\u2581haven": 6253, "iac": 14480, "FORM": 9357, "\u8389": 31806, "\u09ad": 31819, "arent": 1422, "getText": 20821, "\u10e6": 31278, "FALSE": 12817, "\u2581Buff": 15163, "\u2581loyalty": 22295, "\u64cd": 29371, "!)": 14280, "\u2581SSL": 20669, "\u2581pieces": 7769, "\u2581strongly": 12287, "\u2581Bl": 2025, "\u2581on": 356, "atinum": 28250, "atem": 24359, "\u0440\u043e": 728, "\ub2ec": 31082, "aine": 4262, "\u2581ind": 1176, "\u2581dec": 1285, "\u2581temper": 5026, "NU": 6034, "likely": 10245, "\u2581ESP": 23369, "ANCE": 11823, "iblical": 26896, "\u2581curt": 22372, "ijing": 25168, "\u2581White": 5673, "\u00fcg": 24381, "omin": 15257, "\u2581memcpy": 27398, "\u2581polynomial": 22879, "\u2581Darwin": 27213, "\u2581computers": 18518, "bur": 7945, "ection": 10101, "\u2581storage": 7073, "/(": 20974, "<0xF7>": 250, "gp": 8399, "\u5c11": 29805, "\u2581meeting": 5283, "\u2581Tru": 13799, "\u2581becoming": 7888, "netje": 15617, "ateral": 21034, "inates": 10218, "\u2581crisis": 10788, "Occ": 22451, "\u2581needing": 25559, "memcpy": 19290, "<0xB9>": 188, "prevent": 21129, "Stub": 19823, "ighbor": 21858, "mic": 12456, "\u2581direction": 5007, "pie": 9053, "\u2581Famil": 14288, "\u2581Sta": 23019, "\u2581\u0447\u0435\u043c\u043f\u0438": 18961, "widetilde": 10215, "\u2581mere": 15315, "\u518c": 30001, "\u0986": 31496, "atto": 12676, "\u2581Observ": 15951, "ueva": 22400, "\u2581c\u0103": 17586, "\u2581Giov": 18605, "\u2581picks": 23380, "itting": 3257, "\u2581introducing": 25618, "\u2581pb": 27933, "\u2581blind": 10337, "\u4f9d": 30505, "ulf": 12981, "\u2581uncomfortable": 17785, "\u2581\u043f\u043e\u043b\u0443": 10772, "\u2581ji": 28589, "\u2581circ": 4713, "bers": 1891, "tasks": 21128, "\u2581lied": 26984, "\u00f6rt": 26105, "\u2581happiness": 15079, "breaking": 25924, "\u2581pers": 3708, "\u2581old": 1571, "\u2581-\\": 12300, "\u2581Template": 23469, "ULAR": 12103, "\u2581parsed": 18151, "\u2581med": 1342, "ie": 412, "\u0431\u043e\u0440": 12660, "riend": 1513, "deleted": 8020, "\u2581beings": 16905, "\u2581Ernst": 26013, "\u2581\u0421\u0443": 13656, "\u2581brass": 27042, "\u2581taken": 3214, "iani": 17151, "\u2581Active": 15838, "ts": 1074, "\ud83d\udcaa": 31520, "\u2581preferences": 22731, "Current": 6086, "\u2581\\]": 8425, "\u2581unable": 9638, "\u2581distinguished": 23502, "\u2581sty": 10176, "Bytes": 7976, "BI": 8758, "\u2581Culture": 17796, "\u2581Ga": 11131, "\u2581\u0447\u0430\u0441\u0442": 20035, ".*": 3752, "\u2581King": 4041, "Queue": 9583, "\u2581asympt": 22621, "\u2581carb": 24167, "\u2581Mario": 20564, "\u2581Mum": 25590, "\uac1d": 30411, "<0x79>": 124, "br": 1473, "\u00f6\u00df": 19037, "STATE": 8400, "\u2581peripher": 27707, "springframework": 9484, "AG": 2377, "\u2581Prim": 16059, "\uc558": 31877, "\u2581swallowed": 23946, "\u25aa": 30701, "\u008c": 30536, "\u05e6": 29639, "\u2581append": 10308, "\u2581themes": 18978, "ait": 1022, "\u2581test": 1369, "Come": 14724, "\u0432\u043d\u044f": 15398, "\u2581halt": 19293, "\u2581bereits": 21037, "\u2581confidential": 28451, "\u0670": 31095, "\u2581anni": 13512, "izont": 8927, "dex": 1453, "\u2581Mary": 5480, "proof": 6761, "\u044f\u0442": 13793, "between": 24829, "Mon": 7115, "\u0437\u0443": 6307, "\u2581partner": 6977, "\u2581remember": 3229, "\u2581AU": 27963, "\u2581nor": 4678, "zie": 9590, "\u2581charges": 11040, "Walk": 25228, "\u2581item": 2515, "Ass": 7226, "\u2581ideal": 8184, "\u2581located": 5651, "\u2581viewers": 24886, "\u2581carpet": 18612, "ishment": 12243, "\u2581broad": 5841, "Auth": 9083, "\u2581EL": 22630, "\u2581sure": 1864, "etc": 20477, "\u2581America": 4352, "\u2581Ran": 27193, "\u2581vod": 27420, "\ub294": 29175, "ARGET": 17985, "\u2581vers": 3502, "\u2581\u2581\u2581\u2581\u2581": 355, "\u2581component": 5641, "ieren": 11958, "Tasks": 15839, "\u2581produced": 6763, "\u2581toda": 26323, "\u0458\u0438": 11262, "\u2581altogether": 21324, "Face": 19064, "\u2581precision": 16021, "\u2581allows": 5976, "link": 2403, "signed": 2782, "\u2581sofa": 23117, "LEAN": 26925, "Hal": 26924, "nis": 11765, "\u2581tum": 14284, "orm": 552, "ager": 1742, "\u2581por": 1959, "\u2581compan": 4021, "\u2581mob": 10886, "rupal": 15030, "\u2581mountains": 13691, "\u76d1": 29999, "stmt": 15011, "\u2581describes": 13966, "\u2581scent": 21535, "\u2581Carib": 25212, "Was": 22648, "\u2581batteries": 25267, "\u2581inches": 13352, "footnote": 19129, "_*": 22291, "\u2581Length": 22856, "\u2581Rec": 3523, "\u2581nah": 20330, ".....": 24694, "\u2581Ok": 6504, "\u0442\u0430": 946, "\u2581migration": 18579, "argin": 6009, "\u2581became": 3246, "\u2581rap": 5017, "\u2581exponent": 23869, "paces": 26298, "beans": 22672, "\u2581advance": 8670, "Visitor": 24796, "\uc644": 31068, "\u2581quit": 14597, "\u2581spine": 24496, "IA": 7408, "\b": 31129, "\u65e9": 31121, "Link": 5119, "\uace0": 29511, "\u2581hav": 9993, "OPER": 24500, "\u2581Hay": 11411, "GRO": 14234, "\u2581commut": 24659, "\u2581through": 1059, "\u2581loan": 9976, "\u9593": 29996, "\u2581hy": 6521, "\u2581glass": 5252, "\u2581stage": 5430, "\u2581brow": 17867, "\u2581Jamie": 19017, "\u2581farmer": 25673, "zen": 3039, "\u2581Carr": 27639, "\u2581relaxed": 18788, "\u2581Moon": 14629, "Since": 24091, "aking": 1288, "NdEx": 19248, "\u0e43": 30096, "\uc791": 29781, "\u2581never": 1484, "\u2581yard": 13409, "\u2581LA": 15784, "ount": 696, "prop": 5607, "\u2581river": 7782, "three": 16480, "\u0438\u0442\u043e": 26439, "\u00e2t": 19322, "\u2581llev": 22290, "\ub3cc": 31597, "rite": 1967, "\u2581Ronald": 28173, "raf": 3976, "\u2581vous": 16906, "}}\\": 5260, "\u2581grow": 2333, "\u2581Band": 10521, "\u2581Wang": 23024, "\u1f14": 31781, "\u2581Serie": 20807, "\u2581inspire": 26649, "\u2581=": 327, "anal": 11267, "\u252c": 30884, "agem": 17773, "serde": 19554, "\u2581disappointed": 18913, "\u2581dri": 2768, "\u307e": 29241, "\u2581countries": 5780, "She": 4853, "\u2581Yale": 28362, "\u2581stamp": 22665, "it\u00e4": 25038, "\u2581Vor": 11975, "iev": 16198, "\u2581zo": 20372, "Processing": 27619, "\u9ad8": 29366, "igent": 21531, "\u2581Dream": 14031, "\u5bdf": 31385, "\u2581continues": 10352, "MSG": 11699, "rgb": 14226, "next": 3423, "custom": 6628, "ax": 897, "ibilities": 10796, "\u2581ihr": 11893, "staff": 27943, "adata": 3826, "\u2581Play": 6879, "\u653e": 29441, "PRESS": 21060, "\u0eb2": 31616, "aged": 2569, "zero": 8981, "gged": 10901, "\u2581headers": 12489, "\u2581row": 5150, "javax": 27184, "\u0144": 28908, "\u0441\u0442\u0435": 6825, "profit": 17940, "\u0448\u0438\u043d": 25578, "keeper": 18740, "\u0445\u043e": 2593, "Fr": 2642, "\u6269": 30708, "\u662f": 28971, "\u7eed": 30199, "\u2581\u041f\u0435\u0442": 21445, "ayer": 2386, "\u2581platforms": 14926, "\u2581Federal": 11652, "\u2581seeing": 6252, "\u2581protein": 14311, "\u2581Pointer": 28597, "riet": 13769, "Runtime": 8408, "ToString": 10152, "=[": 12303, "\u2581redu": 3230, "\u2581Mort": 14789, "\u2581implements": 10538, "\u2581Selection": 26909, "\u2581compar": 6085, "\u2581\u0421\u0435": 10329, "atin": 12844, "\u2581Buenos": 25862, "ux": 1554, "\u2581behaviour": 14006, "\u2581spinning": 26082, "ancer": 9754, "CLUDING": 16634, "\u2581np": 7494, "\u2581bunk": 27194, "\u10d7": 29953, "\u04e9": 30340, "\u2581\u0440\u0430\u0439\u043e": 14159, "\u2581distributions": 20779, "ire": 536, "\u2581cert": 5813, "nex": 19949, "\u2581Additional": 20460, "\u2581ej": 13068, "\u2581cooper": 18468, "\u0434\u0436": 19450, "\u2581hole": 9697, "bro": 5601, "\u2581Virgin": 8471, "FORE": 26755, "\u2581relieved": 23564, "\u2581cov": 16609, "\u2581gebru": 23257, "\u2581Another": 6880, "\u2581performed": 7885, "\u2581circles": 18100, "amm": 6461, "\u2581Sher": 10511, "\u5b5d": 31907, "\u2581Jake": 18742, "\u2581revolution": 11029, "\u2581publication": 14098, "))))": 22318, "\u2581Muslims": 21731, "MLE": 26555, "\u2581marg": 15003, "\u2581eliminated": 27546, "Ids": 11307, "\u2581\u0431\u0443\u043b\u0438": 24596, "okes": 9486, "length": 2143, "\u2581afford": 8205, "\u2581Holl": 14767, "\u2581unlike": 15343, "\u2581Volume": 21219, "\u2581FO": 18417, "\u00e1nak": 25452, "asion": 5797, "\u2581Nic": 11921, "\u2581Produ": 8730, "Scroll": 9889, "transaction": 14556, "\ud83d\ude29": 31800, "blem": 11706, "\u2581Dis": 3433, "\u2581easy": 3411, "\u2581kept": 4558, "inated": 5499, "imgur": 26822, "\u00bb,": 6279, "ierto": 27180, "\u2581wir": 25609, "\u2581sake": 14408, "\u2581innov": 8403, "\u2581Chase": 26668, "\u2581Build": 8245, "ght": 1026, "\u0637": 29330, "\u7f16": 29402, "\u0441\u0442\u0432\u0435": 13748, "\u2581\u00e1l": 19461, "\u2581\\|": 14688, "cci\u00f3": 25357, "\u2581nombre": 8581, "\u6025": 31653, "\u2581dub": 16050, "bbra": 25866, "ederb\u00f6rd": 18927, "\u2581decre": 8512, "Eval": 16627, "\u2581GP": 19995, "\u2581lately": 22628, "\u2581Scott": 7636, "\u2581coinc": 14143, "posing": 22935, "\u2581shiny": 27348, "iar": 9043, "\u2581chains": 20496, "\u0192": 30753, "\u2581uniqu": 20988, "ijo": 21409, "orte": 8938, "\u2581automatic": 16337, "\ub450": 30609, "\u0431": 28817, "\u2581Eine": 21144, "\u4f24": 31546, "Header": 5404, "\u2581Fast": 17539, "\u2581begins": 10658, "\u0438\u0441": 15333, "Seg": 11560, "\u2581Gian": 27090, "\u2581proceed": 8864, "\u885b": 31899, "\u2581\u0438\u044e\u043d\u044f": 26825, "\u2581trick": 10777, "\u0448\u0443": 16672, "\u2581Lin": 6678, "life": 10387, "tom": 28154, "\u2581overseas": 24102, "\u2581W": 394, "\u2581Fal": 16651, "fel": 20553, "\u3078": 30667, "io": 691, "\u2581Google": 6182, "\u2581Tony": 12040, "\u2581Enum": 26426, "Unit": 6831, "\u2581missing": 6925, "\u2581associations": 25963, "\u0565": 29849, "ure": 482, "\u2581Lap": 23760, "\u2581wash": 14338, "\u2581Time": 5329, "bio": 20699, "\u2581particular": 2830, "\u2581Partido": 26595, "}}_": 14340, "\u2581teil": 22442, "hind": 15664, "\u2581every": 1012, "\u043d\u044b\u0435": 5193, "\u2581comm": 901, "bez": 21610, "Express": 24637, "\u2581Go": 3187, "\u56db": 29882, "igin": 9840, "law": 10656, "\u2581to": 298, "Material": 12976, "\u2581her": 559, "\u2581tips": 10636, "icons": 14356, "\u2581returning": 11585, "vr": 11277, "\u2581Architect": 19608, "\u015b\u0107": 10683, "\ud83d\ude24": 31955, "cred": 14383, "\u2581kn": 747, "\u2581latter": 9827, "\u2248": 29988, "\u2581Dad": 11641, "reload": 26606, "\u2581ArrayList": 11534, "Inline": 19034, "equal": 7318, "\u2581carrier": 20320, "\u2581adapted": 22427, "\u2581cause": 4244, "\u2581J": 475, "\u0433\u0438": 3171, "\u2581Dec": 6712, "\u2581Pand": 24802, "\u2581caring": 22153, "ITER": 25784, "kb": 21799, "\u2581accidents": 26892, "irt": 2262, "default": 2833, "\u2581Andre": 17905, "shadow": 19458, "walt": 21459, "\u8d1f": 30685, "\u0e99": 31904, "Cent": 18503, "hedral": 19749, "uth": 2657, "\u2581earnings": 24431, "----------------": 1177, "ety": 4703, "\u2581br": 1170, "\u2581ingen": 27341, "\u0438\u043d": 10400, "\u2581campus": 14366, "\u2581Farm": 15420, "\u2581Also": 4840, "\u2581attributes": 9623, "\u2581tir": 24532, "})\\": 11972, "at\u00f3": 23095, "\u2581stole": 27613, "\u2581overse": 20319, "AT": 962, "\u2581hooks": 26901, "Den": 18039, "\u7136": 29713, "\u0bc8": 30576, "\u2581geometric": 28094, "\u8d5e": 31829, "Diagnostics": 18174, "}}(\\": 20960, "this": 894, "\u2581kg": 11455, "\u6df7": 31493, "pless": 19898, "\u9084": 31497, "\u2581capit": 16809, "\u2581\u0430\u0432\u0433\u0443\u0441\u0442\u0430": 25059, "isk": 2606, "_-": 26428, "\u2581meth": 24992, "\u0431\u043e\u0440\u0430": 27788, "\u2014\"": 6816, "\u2581Fran": 26578, "\u2581TODO": 9420, "node": 2315, "ONE": 6349, "rug": 10909, "HC": 16573, "\u10d0": 29134, "\u2581pushed": 9012, "\u2581Ruth": 18943, "Bus": 13989, "anni": 15054, "footer": 18743, "sol": 22501, "Local": 6154, "\u2581floating": 15689, "\u0219ti": 25252, "\u2581pour": 2669, "isset": 11582, "riteria": 12223, "Preview": 22398, "Dit": 15324, "sm": 2762, "\u00fcl": 8889, "\u2581sharp": 10227, "\u062b": 29968, "\u0430\u043d\u0434": 13435, "Changes": 19249, "\u2581\u0442\u043e": 3846, "ATCH": 12915, "\u2581Lol": 23118, "\u2581\u043a\u043e\u0442\u043e": 6543, "\u2581strange": 8708, "\u2581Medicine": 18293, "\u2581stick": 6906, "\u2581Februar": 21341, "at": 270, "\u2581sock": 13384, "\u2581north": 6120, "ium": 1962, "\u2581trial": 9070, "assign": 12895, "\u2581atmos": 12644, "\u2581commitment": 13106, "\u2581heaven": 14591, "\u2581occasions": 18323, "\u2581Definition": 24382, "\u2581Chuck": 27599, "\u0431\u0438": 3788, "\u2581Hudson": 25037, "\u2581\u00e5r": 19430, "\u2581prevents": 27878, "\u2581flo": 2175, "\u2581sl\u00e4": 11158, "\u2581welfare": 21607, "\u2581considering": 9868, "\u2581bid": 16129, "\u2581cats": 18097, "\u2581corre": 7952, "itect": 5588, "oot": 1541, "\u2581modify": 9239, "\u2581voices": 14549, "\u043f\u0430\u0434": 15655, "\\\">": 21104, "\u0caf": 31826, "high": 9301, "\u25bc": 30088, "\u2581Fred": 11317, "/**": 1922, "\u2581dr": 1605, "\u2581BR": 19721, "\u2581Spain": 12567, "\uc6a9": 29424, "\u2581prote": 2096, "\u2581robust": 16458, "\u2581naar": 12547, "\u2581Century": 22649, "\u2581summer": 5561, "sy": 3467, "\u2581junk": 23690, "\u2581cycl": 14211, "\u0e35": 29560, "\u2581enterprise": 18355, "liga": 15314, "\u2581sugar": 9984, "\u51fb": 29698, "trace": 9213, "aret": 8644, ">\\": 11266, "target": 3731, "Multiple": 26905, "po": 2345, "umin": 9867, "\u6027": 29261, ")/": 10210, "\u5386": 29868, "mediate": 12597, "ibraries": 17164, "xp": 28315, "\u2581Com": 1124, "etti": 15275, "\u2581\u0423\u043a\u0440\u0430\u0457\u043d\u0438": 22224, "\u2581sisters": 17118, "\u2581Err": 5830, "ELD": 11709, "\u2581satisfies": 19546, "Person": 14787, "\u0451\u043b": 17374, "ifik": 19758, "\u2581\u044f\u0432\u043b\u044f": 16207, "em": 366, "ura": 2614, "Document": 7364, "\u2581prize": 17848, "imes": 1198, "\u2581League": 6165, "\u201d,": 9350, "\u2581broadcast": 11837, "scar": 14723, "idity": 21545, "\"`": 8312, "\u2581traders": 28226, "CF": 7065, "\u2581waren": 10744, "\u22c5": 30020, "\u2581as": 390, "\u5bc4": 31777, "\u2581bes": 3432, "fast": 6985, "\u2581Beach": 11404, "\u30d2": 31311, "Loc": 2871, "VS": 23999, "\u2581\u044d\u0442\u043e\u043c": 26512, "\u2581Steph": 27316, "\u62a4": 30641, "AI": 11741, "\u054d": 31903, "\u2581ng": 16937, "\u2581Kansas": 17778, "\u2581combined": 9837, "\u0142": 28843, "Dist": 20965, "mission": 6306, "\u2581WordPress": 23378, "\u2581\u043f\u043e\u043c\u043e": 21589, "\u2581padding": 12342, "oj": 6054, "\u2581affected": 11180, "emb": 20603, "\u2581branches": 15407, "\u591f": 31194, "mad": 13179, "ilda": 27834, "iture": 8861, "\u2581quote": 13658, "\u84dd": 31084, "\u2581toes": 27504, "\u5f55": 29219, "Series": 20736, "\u2581Y": 627, "\u30fc": 28990, "\u2581Week": 10433, "igh": 956, "\u4f1a": 29179, "\u30a1": 30000, "\u2581Gon": 15929, "\u2581payment": 8850, "\u2581Cast": 6440, "refresh": 18968, "\u2581combinations": 26350, "\u2581vec": 13080, "\u2581Revolution": 13850, "\u2581teens": 27995, "\ud83d\ude0a": 30464, "\u2581\u041b\u0438": 11946, "\u2581sung": 27173, "\u2581fres": 28582, "'": 28742, "\u2581Fe": 4615, "\u2581coast": 9437, "\u2581noten": 13358, "Protocol": 11726, "\u0441\u0442\u0440\u0443": 17405, "\u2581threats": 19843, "\u2581bottom": 5859, "\u2581Class": 4950, "<0xC4>": 199, "\u2581\u0437": 1119, "\u2581Buck": 16577, "{{\\": 11610, "\u2581ocup": 20903, "pci": 18929, "\u2581presidential": 19268, "Border": 14943, "\u0432\u0430\u043d": 5406, "\u3084": 30696, "\u2581rapidly": 14099, "\u2581stain": 21023, "\u2581sotto": 28159, "\u2581trained": 10898, "\u30ea": 29306, "\u2581ran": 5591, "FD": 11858, "\u83b7": 29072, "\u2581scream": 8933, "atro": 12094, "\u2581Origin": 19093, "\u2581add": 967, "\u2581d\u00e9partement": 22625, "/$": 23530, "umn": 1786, "TS": 7996, "quire": 18948, "\u2581starts": 8383, "[\"": 2221, "\u2581nails": 26539, "\u2581OF": 4033, "\u2581CHAPTER": 16399, "\u2581variation": 18423, "\u2581\u043c\u043e": 4025, "URE": 5873, "\u2581Lar": 24199, "\u2581Mean": 11736, "...)": 16381, "Connector": 27563, "\u2581Individual": 27739, "\u2581scene": 6337, "Scheme": 23171, "\ud83c\udf0d": 31057, "comp": 3086, "media": 9660, "ject": 664, "\u2581Myst": 22737, "?_": 13900, "asant": 10482, "\u2581bags": 14616, "izers": 17916, "\u2581Ted": 15268, "BU": 3470, "\u03a5": 30549, "rz": 20443, "\u2581legendary": 26361, "\u2581works": 3791, "\u2581Desc": 18869, "opt": 1642, "eni": 17914, "\u2581yield": 8109, "iera": 10608, "sek": 25933, "\u544a": 29915, "learning": 27936, "\u6b64": 29320, "\ud83d\ude14": 31303, "\u2581charge": 5685, "\u2581demand": 5637, "\u00cb": 31108, "ioso": 28328, "\u2581porch": 22252, "\u5faa": 30484, "aval": 12239, "\u2581Sony": 21360, "\ub864": 31953, "tml": 7684, "\u2581\u043c\u043e\u0440": 23882, "\u2581Corpor": 9764, "\u2581schemes": 23812, "\u2581adapt": 8018, "Support": 9452, "\u2581safe": 5023, "DR": 4232, "\u2581\u043f\u0440\u0435\u0434\u0441\u0442\u0430\u0432": 18006, "\u2581Atl": 7751, "otte": 10803, "\u5382": 31228, "emark": 21819, "\u2581hon": 3243, "\u2581reduced": 9397, "arest": 11713, "uni": 10810, "\u2581advice": 7478, "\u2581transform": 5516, "\u2581testim": 16620, "Zoom": 24573, "\ub8e8": 31602, "option": 4694, "\u2581aged": 17859, "\u2581v": 363, "\u2581capacity": 8444, "\u2581volume": 7531, "\u90e8": 29237, "\ub9c9": 31655, "\u2581oppos": 5793, "\u2581feelings": 9388, "poly": 20788, "\u30f3": 29044, "\u2581Okay": 19811, "\u2581provided": 3857, "trans": 1281, "\u2581De": 1343, "\u9019": 30367, "\u2581creation": 9313, "\u8b66": 30348, "\u2581trem": 11248, "lich": 3744, "\u2581Whenever": 27235, "\u2581Guard": 12391, "Buf": 12398, "\u2581Meg": 14919, "\u5229": 29819, "\u2581Round": 15042, "atura": 14753, "\u2581cle": 1544, "\u2581candid": 5767, "\u2581craw": 16217, "ication": 3696, "\u2581adv": 2057, "clock": 10487, "\u2581compens": 12613, "\u043f\u0456": 10620, "\u2581Suppose": 21212, "\u63a2": 31498, "Basic": 15580, "\u2581\u0440\u043e": 2527, "unting": 20128, "\u2581Te": 2263, "\u2581plaats": 18886, "catch": 12256, "\u2581wurden": 9031, "\u2581sliding": 25152, "itzerland": 21245, "\u2581bezeichnet": 26314, "\ud83d\ude05": 30379, "NV": 16106, "wort": 28577, "\u2581Death": 13611, "\u2581ingredients": 13506, "im": 321, "\u2581stone": 7253, "\u00f6m": 16707, "Pse": 28391, "spect": 7002, "moment": 26471, "\u2581mor": 2544, "\u2581Harris": 16692, "\u0441\u043d\u0438": 22618, "\u2581integrate": 28618, "\u2581SH": 8604, "urm": 24563, "\u2581UK": 6194, "Graph": 8380, "\u2581stom": 10442, "\u2581explicitly": 15956, "\u2581answ": 2965, "},{": 23897, "\u2581Clean": 14510, "<0xB2>": 181, "character": 19933, "\u0442\u0438\u043d": 14981, "band": 3785, "David": 28396, "\u2581Masters": 24522, "\u2581Coach": 24847, "]\r": 18766, "\u2581politics": 9800, "Adjust": 23442, "oval": 9395, "tk": 9808, "\u2581either": 2477, "ities": 1218, "\u2581until": 1996, "\u2581for": 354, "\u043f\u0430": 2789, "Donald": 18379, "\ud568": 29938, "Loader": 11420, "\u2581uw": 14190, "\u2581ash": 15272, ".": 28723, "sub": 1666, "\u10e2": 30119, "\u2581pace": 13681, "\u2581delivering": 22119, "\u738b": 29825, "\u2581withdrawal": 27289, "iders": 6035, "\u2581Jug": 18243, "\u2581Em": 2929, "\u2581Self": 8916, "\u2581primera": 14422, "\u2581\u043f\u043e\u0441": 18678, "\u0e47": 30497, "\u2581realized": 7185, "\u2581sf": 22552, "\u2581?": 1550, "int": 501, "remark": 22569, "o": 28709, "Global": 8985, "Final": 17500, "\u0448\u0438\u0439": 18702, "\u2581extrem": 6215, "\u0b95": 29856, "\u2581agenda": 20758, "\u2581p\u0159\u00ed": 23582, "\u2581Dir": 19926, "appro": 9035, "CG": 19354, "nals": 25813, "\u2581father": 3140, "orth": 2217, "urers": 13505, "\u2581request": 2159, "temp": 7123, "asures": 20139, "\u2581discre": 23420, "ske": 26254, "\ub9ac": 29288, "Pen": 26950, "\u7ea2": 30311, "\u2581\u0447\u0430\u0441\u0442\u0438": 14881, "\u00e1z": 8905, "\u2581Provinc": 27600, "xx": 5735, "\u2581classified": 22260, "\u2581gioc": 27491, "\u5c01": 30503, "ip": 508, "StatusCode": 19809, "\u2581Example": 16693, "\u30bb": 29932, "\":": 1264, "($": 1501, "\u2581filter": 5531, "\u2581sides": 8480, "small": 9310, "\u5b98": 30639, "include": 1631, "\u2581\u0438\u0441\u0442\u043e": 13196, "\u8db3": 30303, "\u9f99": 30404, "tl": 9563, "\u2581Sing": 7572, "\u2581pages": 6718, "\u2581rights": 4495, "imi": 13840, "oge": 27695, "nero": 19684, "\u2581Voice": 25815, "\u7d71": 31607, "mile": 23881, "\u2581neces": 24101, "\u2581f\u00f6r": 4793, "vin": 8830, "Self": 13547, "Length": 4645, "\u0442\u0435\u0439": 22635, "<0x16>": 25, "\u2581Entity": 20465, "\u2581shru": 13922, "prints": 25580, "\ud45c": 30191, "Testing": 20618, "optional": 14496, "\u2581Ach": 26067, "\u00fcber": 20173, "ussy": 23215, "\u2581professional": 5024, "\u2581\u00e0": 1289, "\u2581tous": 16065, "\u2581citt\u00e0": 20377, "Hit": 17165, "\u2581\u2581\u2581\u2581\u2581\u2581\u2581\u2581": 273, "\u0442\u0435\u0440": 8900, "\u2581Muham": 24323, "\u2581white": 3075, "\u2581consumers": 13776, "cancel": 14883, "\u0441\u044c\u043a\u0438\u0439": 10379, "aqu": 19424, "ka": 2117, "\u2581longer": 3774, "him": 24669, "img": 5422, "\u2581Girl": 10850, "\u043e\u0433\u0440\u0430\u0444\u0438\u044f": 18168, "\u2581Anything": 27985, "\u2581fer": 7724, "LENGTH": 17307, "\u2581\u0441\u0432\u0456": 25271, "\u2581Pete": 21388, "jd": 28215, "Rob": 22268, "\u2581preferred": 11719, "owa": 8253, "tex": 4690, "Admin": 11744, "Into": 20184, "BN": 6848, "\u6d41": 29642, "\u2581Grace": 15281, "\u2581yet": 2783, "owe": 7443, "\u2581isolated": 18545, "Collections": 10211, "\u0441\u044c\u043a\u0438\u0445": 19799, "packed": 26713, "avax": 6598, "\u2581compiler": 23198, "\u2581places": 5563, "\u5065": 30945, "ocon": 24859, "uture": 8649, "\u0447\u0443": 15098, "ctx": 3077, "buttons": 27269, "\u2581divid": 17436, "\u2581altern": 5720, "quad": 3613, "Parse": 9961, "Conv": 25946, "\u2581packet": 11200, "aj\u0105": 12152, "\u2581\u041f\u0435": 18335, "\u2581Tig": 26222, "\u2581elementary": 24267, "\u2581garage": 16699, "\u2581legisl": 15405, "function": 2628, "\u2581Saw": 25594, "\u4ee3": 29314, "\u2581Kl": 7211, "\u2581stars": 7448, "\u2581ALL": 17565, "\u2581commented": 22191, "\u2581Statement": 28055, "\u82b1": 30064, "zeichnet": 18153, "\u2581Eg": 22684, "\u2581Isaac": 25548, "\u0906": 31297, "iesz": 17944, "\u3057": 29111, "\u2581julio": 26018, "\u2581continued": 5317, "\u2581west": 7635, "\u2581bump": 26563, "\u2581Guide": 14555, "})$": 9340, "\u2581armor": 21729, "HD": 12591, "iral": 10097, "FS": 6934, "icken": 9373, "\u2581Clara": 27901, "\u2581handles": 19754, "\u2581cannot": 3573, "\u2581Nel": 10985, "\u2581\u0441\u044a": 9448, "\u2581treasure": 25496, "\u008d": 29987, "\u2581reference": 5633, "\u2581Men": 7670, "Margin": 21938, "\u2581intentions": 25087, "\u2581troubles": 21477, "\u010e": 31461, "\u2581seinem": 17342, "\u2581Azure": 24769, "\u2581occurred": 9894, "iser": 7242, "umbled": 12802, "\u2581anderen": 19532, "\u2581L": 393, "\u2581Small": 12827, "oute": 3241, "um": 383, "\u2581Cra": 17129, "\u2581stored": 11141, "\u2581degener": 24507, "\u2581Syria": 23216, "\u2581voltage": 24661, "it\u00e9s": 13782, "cript": 2489, "\u2581flying": 11470, "\u2581Pal": 4187, "\u2581compt": 27821, "\u2581Download": 16220, "\u0148": 29026, "\u0432\u0430\u043b": 16122, "\u2581War": 3273, "\ud134": 31167, "\u2581thats": 26748, "STR": 4572, "\u2581gray": 11870, "\u2581lamp": 21157, "lessly": 12298, "\u2581Song": 11509, "execut": 15873, "angen": 26047, "\u526a": 30040, "\u0441\u0442\u0432\u0430": 6238, "\u00e4l": 8146, "\u2581crime": 9311, "\u2581Eric": 12867, "\u2581dove": 15622, ",&": 17610, "multip": 20317, "\u2581swept": 20643, "\u2581analyze": 20765, "ications": 10399, "\u2581Herz": 22026, "VR": 18240, "abor": 3226, "\u2581talks": 15066, "\u2581emphas": 10574, "\ud53c": 31306, "ently": 2250, "rend": 5082, "\u2581ERROR": 16383, "\u2581es": 1037, "uits": 23843, "\u2581military": 5469, "stat": 5975, "\u2581shoot": 6041, "\u0cae": 31941, "\u2581shared": 6431, "\u2581Sov": 8872, "\u2581ago": 3584, "culate": 16914, "\u2581\u0431\u0440\u043e": 19567, "DateTime": 11632, "tesy": 18414, "\u2581SN": 14722, "\u2581pill": 10837, "\u0531": 30953, "\u2581Index": 12348, "\u2581XXX": 21027, "\u2581weapon": 11380, "cean": 8983, "\u2581pt": 16533, "\u2581eval": 28036, "\u270c": 31906, "\u2581choosing": 14517, "\u2581strang": 26427, "\u2581Nature": 19013, "\u2581growing": 6485, "\u2581options": 2877, "\u2581App": 3122, "strings": 16156, "\u2581remaining": 8409, "\u2581neighbour": 18583, "\u2581aws": 20933, "anje": 27858, "\u2581Delhi": 21548, "Structure": 20897, "rooms": 14520, "Did": 10277, "\u2581\u0434\u043b\u044f": 6286, "your": 19262, "\u83b7\u53d6": 26257, "\u4eba": 29086, "\u2581Reagan": 26294, "\u2581drive": 5009, "\u00e1g": 8043, "\u5357": 29680, "(_": 4831, "photo": 25903, "\u2581cluster": 9194, "bury": 12272, "\u2581force": 4274, "*\r": 13667, "irling": 26692, "osto": 10583, "natural": 17568, "\u2581peoples": 22529, "\u043f\u0435\u0440": 10890, "\u00eat": 18774, "\u2581Agency": 18498, "Server": 5334, "WRITE": 12746, "\u2581Honestly": 25530, "\u2581Ire": 9910, "\u2581natur": 10588, "clude": 12856, "asets": 20363, "\u2581expand": 6710, "connector": 23995, "eff": 6610, "\u2208": 30751, "eyed": 20732, "take": 20985, "\u2581Fourth": 28185, "\u672f": 30485, "\u2581Reddit": 22233, "\u2581Lewis": 13131, "\u2581countr": 24526, "removed": 28292, "\u2581Pra": 16997, "Keyword": 24318, "\u2581symbol": 5602, "\u2581\u0219i": 6944, "slice": 11485, "\u2581strikes": 24128, "\u2581Global": 9970, "\u043d\u0430\u0442\u0430": 10792, "Board": 25561, "\u0441\u044c\u043a\u043e\u043c\u0443": 26360, "normal": 8027, "\u2581fuer": 12535, "\u2581engl": 24670, "\u2581Speed": 19586, "\u2581Ste": 2349, "threshold": 21286, "\u2581Mount": 7612, "ci\u00f3n": 7909, "\u2581redistribute": 15963, "\u2581Auch": 23337, "\u7a2e": 31209, "\u2581\u043c\u0435\u0441\u0442": 25839, "\u4e70": 30704, "elle": 3222, "\u2581#!/": 23597, "\u2581tel": 18408, "\u2581traded": 27111, "USED": 17034, "\u1038": 30773, "empt": 3310, "\u2581Que": 6018, "\u2581\u043f\u0438": 10484, "urope": 2989, "appy": 9813, "\u043f\u0438\u0441": 13014, "\u2581continu": 5012, "patch": 5559, "icy": 2451, "cycle": 15660, "\u2581\"__": 24452, "\u2581manifold": 28130, "\u2581conduct": 9086, "aters": 17244, "\u2581butt": 21921, "\u2581hips": 25760, "|\\": 5093, "\u2581communication": 8520, "prev": 10083, "ANK": 26393, "\u2581T": 320, "\u2581rubber": 20452, "opacity": 24566, "\u0cc1": 31143, "jen": 6956, "\u2581wasted": 26508, "<0xA4>": 167, "oman": 8322, "ol\u00f3g": 23552, "\u2581\u041c\u0438": 8082, "lished": 2926, "\u2581moving": 5272, "anean": 23554, "\u2581pass": 1455, "enda": 9279, "\u2581lengths": 25458, "\u2581announce": 12411, "timer": 10179, "\u2581Input": 11232, "yy": 8772, "agues": 11723, "pending": 12718, "\u2581Russia": 8433, "\u0dc0": 31886, "\u2581kilomet": 22118, "Gener": 3602, "\u2581leader": 7059, "ampionship": 6893, "\u2581interface": 4971, "RO": 1594, "\u2581cut": 3119, "pson": 12353, "\u2581belonged": 22232, ";\"": 24626, "Trigger": 16140, "\u83ef": 31365, "\u7e3d": 31936, "\u2581Bas": 6827, "\u535a": 30284, "\u2581appearances": 21190, "\u2581\u043e\u0441\u0442": 27635, "iy": 11672, "\u2581vacc": 10980, "\u2581FOR": 6907, "Security": 11017, "\u2581instructor": 27679, "gener": 4506, "\u0e37": 30008, "\u0446\u0438\u043e\u043d": 15815, "\u308d": 31149, "iative": 26938, "\u2581epid": 23624, "\u2581fastest": 25754, "\u2581sar": 24393, "\u2581reflects": 24345, "\u2581Print": 13281, "\u2581stays": 22361, "\u2581Schools": 24446, "FMT": 28571, "istan": 7694, "\u2581releases": 21446, "unnel": 11925, "ORM": 14851, "\u2581VI": 15476, "\u043d\u0456\u0439": 13238, "\u2581pg": 23245, "ingu": 7473, "\u2581nearby": 10396, "RF": 16743, "\u2581Bishop": 19683, "\u00ee": 28895, "\u0436": 28836, "Sp": 4941, "wahl": 26944, "....": 3406, "\u2581Compet": 17830, "\u2581n\u00famero": 20472, "zerw": 23244, "\u2581XIII": 27648, "\u2581_(": 22753, "\u2581lifetime": 14927, "\u2581shower": 13164, "acre": 20383, "\u2581intimate": 22772, "\u1ed5": 30686, "ucture": 8187, "\u2581Arn": 17385, "})": 1542, "\u2581compiled": 23652, "OUT": 7217, "zten": 24021, "\u2581revealing": 24593, "\u2581fool": 10776, "\u2581Here": 4003, "\u2581Cert": 12089, "essment": 23386, "vb": 26875, "\uc804": 29600, "\u2581talked": 9409, "anging": 6185, "ption": 768, "\u2581scales": 19232, "election": 9082, "TO": 3957, "\u2581scrap": 14553, "abilities": 7773, "constructor": 18245, "\u2581brew": 18098, "roud": 8568, "WS": 7965, ".}": 8089, "\u0562": 31293, "MENT": 7178, "\u2581survival": 16856, "Install": 25868, "\u2581Ath": 26716, "arry": 12255, "\u2581write": 3324, "\u2581elder": 15966, "\u2581absolute": 10287, "ali": 4827, "\u2581ay": 15250, "Alpha": 19510, "\u0432\u0430\u043d\u043e": 26170, "PREFIX": 21321, "\u2581\\\\": 2987, "OPEN": 20778, "\u2581lets": 16143, "ams": 5322, "\u2581prior": 4681, "\u2581za": 6670, "lij": 13236, "\u014c": 29417, "\u2581gr\u00f6\u00df": 22707, "Assignment": 28013, "\u2581crucial": 13040, "keeping": 26840, "\u2581REG": 13923, "\u2581date": 3608, "\u2581bare": 13034, "\u2581agency": 11344, "\u2581damages": 25547, "\u2581coun": 1902, "\u2581fing": 6634, "\u2581like": 737, "\u2581Charlie": 13195, "plier": 10724, "\u2581adoption": 24056, "ALL": 4945, "\u2581\u0436": 8937, "'])": 8757, "\u2581Will": 2875, "\u2581TEXT": 25775, "\u2581kinda": 17670, "ger": 1097, "\u2581Column": 19672, "\u2581movie": 5994, "\u2581Dob": 26737, "\u0437\u043d\u0438": 22037, "\u2581\u0434\u043e": 2149, "\u2581jur": 12310, "Effect": 8460, "\u2581grin": 17924, "ifest": 7541, "Type": 1005, "imal": 3048, "\u0441\u043b\u0456": 23588, "ulty": 13739, "validation": 16193, "rdev": 23338, "\u2581understood": 8988, "\u2581absorb": 28311, "<0x4D>": 80, "\u2581this": 456, "porter": 17175, "\u0430\u043d": 2239, ")\\\\": 23527, "\u2581clone": 17993, "\u2581resigned": 28286, "lo": 731, "\u2581price": 4144, "c": 28717, "ared": 1327, "stadt": 15999, "stance": 2410, "\u2581bigger": 9942, "unda": 12664, "\u2581Besides": 14862, "\u2581nederb\u00f6rd": 28373, "\u2581leverage": 28384, "INE": 5472, "\u2581elbow": 26433, "\u9332": 30872, "\u044f\u0431\u0440\u044f": 12251, "Method": 3942, "ysz": 27713, "\u2581SER": 16123, "\u2581incred": 8329, "\u2581reached": 5048, "usqu": 13559, ";/": 16663, "\u2581gev": 27070, "\u2581efficiency": 12832, "check": 2888, "\u2581\u0433\u043e\u0441\u0443\u0434\u0430\u0440": 20305, "\u2581tijd": 23898, "\u2581settlement": 13694, "ector": 3776, "enties": 11586, "\u041c": 28856, "\u2581flight": 9314, "\u2581Score": 18528, "\u2581Glad": 28692, "\u2581extend": 11696, "quer": 10376, "INS": 12522, "voir": 18592, "\u2581hor": 3292, "\u2581organisation": 18077, "\u2581Angela": 26991, "Comput": 21293, "\u03cd": 29459, "\u2581toString": 26297, "\u0440\u0435\u043d": 9273, "oons": 26618, "\u044a\u043b": 11134, "\u2581smell": 11016, "\u2581timestamp": 18207, "\u2581\"+": 16553, "\u2581una": 1849, "\u0440\u0438\u043e": 15604, "\u2581eleven": 19806, "eri": 21344, "\uc4f0": 31706, "substr": 23341, "iously": 7990, "\u2581law": 2309, "\u2581Function": 11347, "\u2581whereas": 14349, "<0x8B>": 142, "\u2581autom": 4607, "\u2581grip": 16593, "\u2581infection": 18197, "\u0446\u0456\u044f": 17263, "\u2581accommodate": 23926, "\u09a8": 29811, "\u7acb": 29831, "\u2581establishment": 18413, "estyle": 13030, "\u2581subm": 24301, ",.": 27608, "\u2581lived": 6262, "attach": 16689, "\u2581beta": 21559, "\u0441\u043a\u043e": 1789, "\u2581Ruby": 27127, "hc": 20167, "\u2581should": 1023, "PEG": 26180, "strong": 9849, "Resources": 13257, "inn": 2594, "\u2581Middle": 11373, "\u2581cit": 5963, "\u514b": 30329, "\u2581ps": 12384, "\u2581Dist": 12443, "conditions": 24952, "\u2581raised": 6333, "achen": 23517, "\u2581defined": 4057, "eless": 6199, "z\u0105": 10412, "\u2581\u0441\u0442\u0430\u043d": 21479, "eb": 1169, ".\r": 5488, "\u2581Moz": 20915, "line": 1081, "\u2581forgive": 24014, "\u5217": 29150, "TestCase": 18268, "\u2581help": 1316, "\u2581gent": 8888, "<0x32>": 53, "volume": 15392, "\u2581erfolg": 25066, "\u732b": 31664, "\u2581particip": 4105, "\u2581Songs": 28647, "phi": 3163, "an\u00e7": 5154, "\u0ba9": 30804, "\u2581stones": 17388, "\u2581waited": 10547, "vel": 959, "issent": 27400, "cester": 27050, "\u2581improve": 4916, "\u2581appointed": 12260, "\u2581pubblic": 17303, "IMP": 10238, "\u2581bewerken": 15695, "usement": 24862, "Sn": 10187, "\u2581also": 835, "\u2581\u0447\u0435\u043c": 23345, "ixon": 17572, "\u2581\u0441\u0442\u0443": 20558, "For": 2565, "\u2581connections": 12284, "\u2581ihn": 19467, "\u2581carrying": 10839, "\u2581privilege": 23037, "\u2581mark": 1716, "xico": 22138, "\u2581Der": 4823, "rying": 5125, "andra": 13773, "\u2581p\u00fablic": 23912, "\u0634": 29083, "\u2581York": 2726, "\u2581applied": 7589, "\u0441\u0441\u043e": 18459, "mov": 18057, "\u0445\u0438": 8009, "\u2581Neder": 14845, "\u1f04": 31822, "icense": 1823, "\u2581Carol": 7274, "\u2581Victorian": 26839, "priv": 6214, "\u2581operational": 21197, "\u2581appreciated": 22359, "\u2581skin": 4759, "\u56f4": 30174, "\u09cb": 30818, "():": 5888, "chron": 8416, "come": 4215, "\u2581delicious": 15992, "TARGET": 23187, "\u2581Rate": 27773, "\u2581inside": 3416, "\u4f1d": 31884, "Connection": 6406, "\u00f3ria": 21645, "\u2581constitution": 22120, "shader": 27049, "\u2581pac": 21632, "\u2581separately": 22264, "\u2581retire": 26033, "\u17cb": 30890, "scriber": 22941, "imiter": 27328, "\u5728": 29010, "\u2581aggressive": 18925, "\u2581utilized": 28061, "osta\u0142": 10406, "\ucc9c": 31244, "\u2581gover": 2116, "\u2581spending": 9981, "here": 7750, "<0xC1>": 196, "\u0633": 29008, "Gold": 25675, "Slider": 26952, "\u2581investment": 8542, "Equal": 4283, "urity": 5608, "\u2581murder": 6832, "\u2581exit": 7790, "\u2581Cambridge": 14751, "Les": 15685, "\u2581ti": 17061, "\u2581Ken": 8885, "\u2581paid": 5907, "Proto": 13534, "\u2581oraz": 13755, "\u2581Quick": 16652, "<0x37>": 58, "\u54e1": 30925, "\u2581tras": 11431, "\u2581Security": 9769, "\u2581If": 1047, "\u2581annoy": 13016, "\u2581fortune": 19808, "\u2d59": 31733, "\u2581Olymp": 8562, "\u2581\u0418": 3615, "Interface": 6450, "());\r": 15056, "\u2581Russ": 3770, "<0xC2>": 197, "pr": 783, "\u2581Prom": 12948, "WIN": 14655, "ipp": 15953, "\u6ed1": 31062, "\u2581drm": 23200, "\u30e9": 29281, "\u2581separate": 7681, "Credentials": 25847, "pointer": 12978, "\u00edcul": 12639, "\u2581coffee": 7045, "DT": 13203, "\u2581Arab": 9111, "\uff0e": 31181, "Attrib": 28133, "\u2581Rules": 24759, "\u5434": 31812, "xB": 18674, "\u2581\u0433\u0440\u0443": 9891, "\u2581kennis": 15389, "Cancel": 15204, "\u2581life": 1411, "\u2581pu": 5153, "\u2581dried": 20283, "hidden": 9748, "expr": 9803, "\u2581particul": 23590, "\u2581ACT": 26535, "\u2581Cas": 8194, "\u2581unless": 6417, "\u043d\u0438\u0439": 3962, "thm": 8615, "Second": 10385, "\u1f70": 31235, "\u201e": 28887, "\u2581evac": 25469, "\u2581We": 816, "serve": 7688, "VEL": 16414, "\u2581bean": 24853, "\u2581\u043a\u0430\u043e": 25501, "<0x62>": 101, "\u2581cap": 2058, "\ud2b8": 29404, "\u2581holds": 8288, "\u2581remem": 26450, "\u2581mb": 20137, "obj": 3710, "\u2581hours": 3316, "\u2581Financial": 17146, "\u1787": 31543, "miss": 7924, "limited": 18376, "UL": 1248, "\u2581genuine": 16968, "\u2581expend": 27040, "acz": 19985, "\u2581staff": 5084, "\u2581striking": 19910, "\u2581concluded": 16489, "\u2581afternoon": 8635, "\u2581whist": 20978, "\u2581dollars": 9407, "--;": 16850, "\u2581feared": 21820, "\ud305": 31589, "\u2581topic": 9067, "ilation": 11213, "\u2581\u043a\u0440\u0438": 18819, "\u2581framework": 10782, "\u0440\u0430\u0431\u043e": 22336, "\u2581pci": 27582, "\u4f18": 30077, "\ub144": 31479, "STAT": 5974, "\u2581voted": 17420, "\u2581Additionally": 16569, "\u2581wasn": 2723, "own": 656, "\u2581discipl": 11760, "\u7ed1": 30384, "\u2581sensation": 23413, "\u5144": 31944, "endant": 8090, "\u2581jaw": 16223, "\u7aef": 29594, "\u2581conventional": 17215, "\u2581Cort": 22949, "Fat": 24076, "\u2581prohib": 16128, "\u2581nost": 19098, "\u2581craft": 9949, "\u2581orient": 9093, "AMP": 17558, "Z": 28828, "tagHelper": 16724, "tv": 9791, "\u2581endless": 18284, "Accept": 17589, "\u2581aller": 23803, "x": 28744, "\u52b1": 31613, "Row": 5590, "cy": 2706, "\u2581Drive": 16857, "\u01c0": 31870, "PHY": 21852, "ape": 1748, "\u2581skills": 6266, "\u2581West": 3797, "black": 10323, "crim": 25489, "\ub354": 30519, "\u2581austral": 27162, "\u2581elif": 16422, "\u0459\u0443": 19743, "trigger": 11391, "lit": 18600, "\u2581anci": 21267, "\u2581authorized": 23243, "\u2581bc": 27547, "ernel": 6453, "\u2581claims": 9278, "\u2581Ball": 11828, "tr": 434, "ashi": 19915, "\u2b50": 30130, "\u2581constantly": 10876, "\u2581jak": 19755, "\u2581hierarchy": 25846, "<0x98>": 155, "\u2581girl": 2746, "\u2581Jesus": 6466, "\u2581BAS": 11502, "Lock": 9192, "\u2581judges": 23233, "\u2581cz": 8726, "\u2581crowd": 8954, "rive": 6016, "\u2581selbst": 22347, "\u4ea7": 29818, "SSL": 14330, "<0x8D>": 144, "index": 2033, "\u2581enthus": 12374, "\u2581Mississ": 19294, "\u2581services": 3345, "Fac": 20286, "ushing": 9305, "Start": 4130, "\u2581\u043f\u043e\u043b\u044c": 27904, "\u2581conflic": 17358, "Include": 26438, "\u2581newsp": 9137, "\u2581fmt": 9755, "MP": 2059, "ouble": 1965, "wohner": 18391, "\u2581editor": 7546, "match": 5644, "ACC": 26749, "\u2581Danny": 18709, "ACH": 16522, "\u1791": 30973, "ead": 1109, "lege": 3528, "\u6d0b": 31434, "eturn": 3097, "\u2581fate": 16942, "\u2015": 29370, "iat": 9348, "town": 19669, "<0x05>": 8, "elin": 26310, "ikk": 28169, "\u2581Salt": 21943, "\u043d\u0430\u0440": 28019, "\uff1a": 28994, "*),": 9151, "Bind": 12741, "\u2581sort": 3127, "\u2581Herr": 17127, "\u5956": 30598, "\u6216": 29355, "fur": 26711, "\u2581getting": 2719, "\u2581stri": 4216, "verter": 14002, "\u2581decrease": 17889, "owed": 10552, "\u2581\u044f\u0432\u043b\u044f\u0435\u0442\u0441\u044f": 23036, "translate": 18094, "\u77e5": 29661, "ivals": 24363, "\u7231": 30731, "\u2581Bureau": 18052, "Mu": 24887, "\u7b54": 30620, "detail": 16017, "\u2581chair": 6225, "rr": 1244, "\u2581Kur": 15740, "rix": 2908, "\u2581auss": 10471, "\u2581positions": 9161, "\u2581Properties": 23774, "\u2581flexible": 17574, "\u2581sim": 1290, "\u2581Politiker": 28510, "\u2581animals": 8222, "\u0441\u0442\u0432\u0435\u043d": 7265, "\u0444": 28846, "\u0432\u044b\u0439": 16265, ">{@": 22084, "enge": 5451, "\u043d\u043e\u0432\u0438": 12129, "\u2581painful": 17340, "elm": 22329, "\u2581\u0411\u0438\u043e\u0433\u0440\u0430\u0444\u0438\u044f": 25097, "uki": 17299, "bo": 1798, ")).": 8698, "\u2581invoked": 26377, "wr": 7067, "ponse": 1405, "pu": 2498, "False": 6995, "\u2581:": 714, "VICE": 17762, "\u2581associate": 18560, "\u2581cult": 3056, "\u2581reduces": 21123, "\u2581smoke": 10619, "Deep": 23229, "\u2581discrimination": 23354, "impl": 9252, "\u2581Isabel": 21274, "\u2581Hook": 26154, "\u2581sle": 7767, "\u2581underlying": 14164, "\u2581eating": 8652, "\u2581shift": 6139, "\u2581shaking": 17030, "\u2581were": 654, "stell": 11647, "Warn": 17291, "\u2581\u043f\u043e\u0441\u043b\u0435": 10444, "roups": 3515, "\u2581snapped": 18190, "\ud65c": 31273, "\u2581Att": 5288, "ofs": 24103, "\u2581Faith": 25098, "\u2581initialization": 27620, "\u88ab": 29458, "mos": 7186, "\u5716": 30984, "\u2581ARM": 23544, "\u2581Console": 19518, "atten": 11110, "\u2581comme": 6702, "\u2581Tam": 17821, "Uniform": 23472, "\u2581initiative": 19410, "\u2581Maryland": 20261, "\u1ea3": 29508, "\uad00": 30224, "\u2581farms": 27228, "eno": 11174, "Time": 2098, "ach": 595, "\ue934": 30597, "Direction": 14757, "ok": 493, "\u2581It": 661, "ension": 2585, "\u2581permanently": 26815, "\ub300": 29634, "\u2581Express": 16722, "[-": 11440, "\u2581\"{": 25002, "\u2581audit": 24790, "\u2581Wire": 26375, "\u2581Raf": 21926, "iore": 27868, "\u2581Franz": 17672, "Certificate": 19119, "year": 4395, "\u2581defens": 26479, "\u2581Fue": 21407, "\u305d": 30292, "\u2581solved": 21994, "ammed": 13555, "install": 10432, "\u2581Among": 13927, "\u2581bad": 2607, "\u2581vari": 3090, "repeat": 25997, "oped": 11416, "\u2581veterans": 28041, "rugu": 27300, "produ": 7309, "\u2581account": 2708, "\u2581slammed": 27165, "invoke": 21658, "pher": 23370, "\u2581Mus": 3779, "fly": 16210, "cken": 18422, "('\\": 21421, "\u2581elev": 9896, "\u2581HP": 22379, "ius": 3170, "Actions": 15826, "\u2581wax": 26627, "]\",": 23772, "xD": 18915, "agner": 23862, "\u0129": 30400, "\u6d4f": 30796, "\u5802": 30938, "\u2581placed": 6838, "\u2581o\u00f9": 11109, "\u2581residence": 18016, "obre": 14782, "\u2581Consider": 11772, "\u8d26": 29918, "\u2581narrow": 8484, "\u00f7": 29582, "l\u00e4": 15135, "\u2581Hern": 28521, "\u2581bekan": 21989, "\u2581interaction": 11186, "\u2581dere": 20705, "Chunk": 17124, "\u2581gold": 5014, "\u2581Record": 12496, "\u2581stood": 4857, "\u2581Sierra": 26048, "\u2581match": 2918, "\u2581twisted": 18337, "dims": 25056, "\u8f6f": 30769, "\u01dd": 31948, "\u2581fight": 3992, "\u2581farther": 20936, "\u2581reward": 11499, "QUE": 20749, "EO": 7438, "\u2581Environment": 14802, "\u2581sept": 10344, "\u2581consultation": 24880, "*:": 16550, "\u2581\u0448\u043a\u043e": 19671, "\u2581Development": 10340, "\u2581giv": 1498, "ishes": 8137, "\u2581work": 771, "anges": 5897, "\u963f": 30564, "\u2581deb": 5665, "\u2581River": 6396, "Constants": 11668, "\u2581affairs": 17313, "\u03ad": 29271, "\u683c": 29293, "\u2581oil": 5503, "\u2581Canada": 6082, "\u2581quoted": 19315, "\u2581newly": 12486, "klahoma": 22097, "\u2581resulted": 16960, "\u2581Hand": 6322, "\u008b": 30474, "\u226e": 31656, "\u2581cher": 18707, "\u2581entered": 8426, "\u2581familjen": 11847, "illery": 19431, "\u2581calcul": 4900, "\u2581Ax": 24749, "Rate": 12218, "metadata": 9609, "\u2581als": 2835, "\u2581thousand": 8028, "$),": 27517, "\u2581signature": 12561, "\u2581veter": 13000, "\u2581Freedom": 22429, "\u2581hire": 15270, "\u2581Shel": 18601, "kc": 17017, "rient": 15154, "\u2581Kunst": 19280, "\u2581heritage": 22597, "\u2581climb": 17176, "boot": 9446, "ollar": 20588, "\u30af": 29221, "\u2581imp": 2824, "\u2581Liv": 23121, "ader": 4928, "\u2581seriously": 10160, "\u0434\u043e\u043c": 13503, "ola": 4362, "av": 494, "\u2581collaboration": 15609, "Request": 2212, "entials": 10633, "\u5929": 29354, "\u2581Poss": 19796, "\u2581penal": 15572, "\u2581kor": 18054, "\u2581Lay": 26271, "we": 769, "\u2581hiding": 16622, "\u2581achievements": 27864, "\u2581asks": 12373, "\u2581Youth": 20711, "\u2581realise": 27457, "\u30b1": 30602, "\ud0a4": 30649, "\u2581parks": 24682, "\u2581Le": 1337, "\u2581colony": 28115, "\u2581qualities": 20800, "\u0448\u0435": 3647, "\u2581remote": 9308, "\u2581coding": 22363, "tty": 3003, "\u2581believe": 3091, "ographical": 21623, "\u2581Quant": 22655, "\u2581forest": 8613, "FAIL": 12546, "req": 3644, "\u2581ved": 16986, "$;": 24912, "CONNECT": 27482, "\u2581Stud": 4906, "unction": 19879, "\u2581inhib": 22358, "\u2581belief": 12519, "\u2581relie": 14267, "igkeit": 17134, "\u2581brush": 16284, "\u2581tray": 22517, "\u2581misunder": 26670, "\u2581ordin": 28058, "\u2581girls": 6093, "\u2581dynam": 10207, "\u2581kernel": 13653, "Compare": 22095, "Reg": 2861, "\u2581Norman": 22545, "Mod": 1701, "local": 3959, "\u2581nullptr": 7648, "\u2581Greece": 20438, "\u2581compile": 25584, "\u2581quasi": 19339, "\u2581precip": 27640, "\u30d9": 30277, "\u2581exist": 2588, "\ub4f1": 30390, "\u2581ship": 4309, "+'": 23922, "\u2581lanz": 26682, "uur": 18287, "\u2581CEO": 13117, "uspend": 16547, "\u2581recognize": 11286, "\u2581trib": 11309, "\u2581voc": 7901, "\u5806": 31732, "\u2581impression": 13700, "\u2581Train": 27035, "\u2581miracle": 27569, "\u94f6": 30661, "ut": 329, "\u2581cops": 19407, "\u2581someone": 2493, "\u202a": 31791, "\u2581outs": 19717, "variables": 24227, "\u2581participation": 17002, "\u2581enum": 10873, "\ud788": 31909, "\u2581suffered": 12847, "\u2581fisher": 27253, "ood": 1004, "styles": 11072, "\u2581Islam": 10251, "\u2581Trad": 17581, "bootstrap": 19453, "\u2581[]": 3980, "\u2581despair": 25477, "\u2581desired": 11785, "\u767d": 29917, "\ud560": 29723, "\u2581fou": 19893, "\u2581sacrific": 22074, "\u2581surve": 14989, "\u2581aria": 19787, "\u2581Gel": 23704, "\u2581complicated": 13140, "\u2581Jonathan": 16656, "\u2581decimal": 25888, "\u0577": 31801, "\u2581auto": 4027, "tn": 6888, "\u2581rectangle": 26900, "\u2581Wald": 24050, "\u2581south": 6287, "\u017f": 30515, "\u2581Nathan": 20514, "tid": 18294, "\u2581FBI": 18622, "\uc810": 30589, "\u0307": 31635, "\u2581bull": 10386, "\u06c6": 31252, "\u2581questions": 4224, "\u0432\u0441\u044f": 17425, "\u2581Ing": 19848, "\u2581blessing": 27468, "\u0631": 28947, "\uc77d": 31815, "FileName": 17060, "CPP": 18954, "ds": 3673, "\u2581}),": 15391, "ur": 324, "olation": 21570, "\u2581natural": 4229, "\u0447\u043d\u043e\u0439": 24607, "\u2581Service": 5836, "jev": 24896, "\u2581California": 6247, "\u0433\u0435\u043d": 18814, "\u2581wanted": 2613, "\u2581needle": 25710, "\u2581drum": 16049, "\u2581Colonel": 18464, "UPDATE": 18769, "\u2581Magn": 19654, "club": 25169, "\u044b": 28829, "nt": 448, "iel": 755, "\u2193": 30036, "\u043a\u0430\u0437": 25672, "ivia": 19278, "\u2581ak": 13067, "\u2581Frame": 17624, "\u2581Keith": 22759, "\u2581diz": 28014, "\u96e8": 31115, "\u2581Krieg": 19020, "*": 28736, "aci": 13114, "\u2581manuscript": 20869, "Return": 6168, "height": 4880, "inct": 5654, "\u2581shorter": 19367, "\u2581page": 2884, "\u2581Carlo": 21167, "igen": 3347, "like": 4091, "super": 8554, "\u1fe6": 30622, "\u2581goals": 7661, "bool": 5416, "Duration": 13297, "\u2581curse": 27960, "\u274c": 31200, "\u2581roads": 15014, "rho": 4132, "\u9ed2": 31911, "\u0432\u044b\u0445": 17033, "fail": 9267, "\u2581writ": 2281, "ua": 3772, "esto": 10631, "Ste": 6732, "GUID": 24591, "\u120d": 31741, "\u5427": 30912, "\u2581Hist": 4044, "\u2581ave": 14257, "\u2581column": 4419, "<?>": 25955, "elli": 8763, "hall": 26912, "\u2581NBA": 21041, "\u2581belongs": 17827, "\u2581III": 6950, "Listener": 5031, "Packet": 13598, "-,": 24244, "\u2581Monday": 9262, "\u2581russ": 25044, "\u2581Protocol": 28564, "HP": 22106, "\u2581junto": 21396, "\u2581married": 6368, "\u2581Blockly": 25247, "atti": 16708, "\u0442\u0440\u0430": 9745, "\u5bbd": 30236, "act": 572, "\u045a\u0435": 11970, "assert": 2891, "\u2581Off": 3984, "\u2581'../../": 14339, "\u2581sh": 480, "ite": 570, "buffer": 4260, "\u2581less": 2108, "\u2581Elle": 9801, "\u043d\u0435\u043d": 13226, "\u2581etern": 16701, "\u2581Token": 16625, "\u2581mismo": 16511, "Fetch": 18527, "\u0e34": 29568, "\u2581Friends": 22371, "\u0448\u043e": 9334, "].": 1592, "\u0440\u043e\u0439": 11835, "\u2581biologie": 17149, "pis": 9455, "tta": 19016, "ngth": 24575, "hooks": 25142, "\u2063": 31212, "\u306a": 29270, "\u25a0": 29094, "\u2506": 31172, "password": 7349, "trag": 18820, "\u2581essays": 22507, "\u2581twin": 21809, "\u53cb": 30060, "\u0ca4": 31849, "\u2581phys": 3256, "\u2581alle": 8477, ")>": 27364, "\u2581\u043f\u043e\u0441\u0442\u0440\u043e": 28342, "tons": 8901, "\u0648": 28962, "\u2581Generic": 26348, "\u2122": 29014, "\u2581\u041e\u0434\u043d\u0430": 28491, "\u5356": 31337, "\u2581crow": 6070, "\u2581Bru": 8944, "owa\u0142": 11406, "\u2581Hart": 13796, "\u02da": 31058, "\u2581revers": 16876, "weight": 7019, "\u2153": 31216, "\u2581research": 3332, "\u2581missed": 10012, "\u2581decid": 26208, "\u85e4": 30864, "\u2581mel": 8970, "Fe": 5980, "antes": 6682, "ures": 1238, "\u2581false": 1341, "\u2581Mi": 13609, "\u2581het": 3010, "\u2581countless": 23387, "\u2581gruppo": 28163, "\u2804": 30897, "\u2581acc": 932, "subscribe": 19128, "\u2581ere": 15699, "\u2581able": 2358, "\u2581warrant": 9775, "\u8d27": 30227, "mathbb": 2916, "ution": 17841, "\u2581hardware": 13218, "\u2581succeeded": 17751, "\u2581Luis": 16945, "uli": 11815, "\u0399": 29864, "\u2581searched": 22671, "\u2581Administration": 17186, "\u2581allocate": 21637, "\u2581gay": 11997, "\u2581games": 3897, "\u2581Club": 5933, "there": 15325, "aff": 2146, "Warnings": 24708, "\u5e08": 30581, "else": 2013, "-----------": 26684, "\u2581planted": 24571, "\u2581attacking": 23627, "graphics": 6648, "ap": 377, "indo": 22641, "ersion": 3240, "onces": 22947, "\u2581Ash": 10973, "\u2581expedition": 24350, "bbing": 28259, "\u2581Core": 12197, "\u2581MIT": 17156, "\u0578": 29837, "\u5b63": 31740, "\u2581seem": 1709, "\u529f": 29206, "\u2581Eisen": 20924, "lc": 24228, "\u2581additional": 4870, "aglia": 25413, "POINT": 21085, "\u2581betting": 22567, "Bucket": 21215, "\u2581CF": 16308, "\u949f": 30612, "\u2581\u043a\u043e\u0440\u043e": 16673, "guard": 16191, "\ub2f9": 30287, "(-": 6422, "\u2581winter": 8539, "warz": 25718, "\u2581dish": 14523, "\u2581horizon": 18259, "Con": 856, "\u2581chairman": 21572, "payment": 18589, "\u2581www": 9404, "_->": 8276, "\u2581Fra": 12699, "<0x81>": 132, "period": 14977, "\u00e4re": 26963, "\u2581Admin": 28418, "\u2581intent": 8284, "cks": 8503, "MR": 16226, "ikel": 7104, "\u2581dug": 21616, "\u2581ValueError": 26378, "mina": 28085, "\u2581Labour": 16873, "ENTRY": 19839, "\u06a9": 29130, "\u8eab": 29894, "sbi": 28334, "\u2581Roger": 14115, "dependent": 23751, "\u3053": 29543, "\u2581ub": 16179, "\u2581toggle": 23635, "aku": 17103, "Overflow": 24181, "\u2581premium": 16317, "\u2581stan": 17920, "athon": 19653, "geme": 18232, "\u5982": 29118, ",{\\": 26225, "\u2581doc": 5844, "\u2581county": 12952, "GER": 11832, "<0x3B>": 62, "\u2581gym": 14310, "\u2581~=": 28515, "ug": 786, "d": 28715, "store": 5987, "\u65e0": 29375, "\u2581\u0434\u0435\u0439": 20592, "\u2581begg": 28195, "fetch": 11362, "\ub529": 31836, "ford": 4401, "\u043d\u0438\u043a\u043e\u0432": 18154, "\u2581Join": 18465, "pared": 21997, "\u2581Sub": 5078, "\u2581After": 2530, "cast": 2867, "\u2581equipped": 17042, "aye": 24195, "\u2581Ghost": 25821, "PF": 12390, "\u2581insp": 5687, "\u2581Illinois": 15632, "\u2581preview": 25203, "Encoding": 19077, "\u2581tob": 24089, "\u2581cp": 14173, "\u2581huvud": 19295, "\u2581AM": 10401, "})}": 27276, "\u30d1": 29888, "\u0441\u0442\u0443": 6777, "\u2581detective": 25646, "\u2581Isa": 17578, "\u2581UnityEngine": 14677, "agnostics": 14127, "\u2581attorney": 15085, "\u5316": 29192, "\u2581___": 13192, "\u2581rc": 8921, "Counter": 15805, "\u2581atomic": 19091, "\u2581lips": 8852, "\u2581nar": 21119, "\u2581point": 1305, "=$(": 26111, "\u2581literally": 8350, "\u63a5": 29076, "\u2581Nice": 22277, "\u2581evalu": 6548, "\u00edas": 12697, "\u2581target": 2718, "\u2581Write": 12018, "online": 20154, "\u2581around": 1401, "ggi": 24816, "\u2581Plot": 27171, "\u2581know": 873, "\u2581pet": 5408, "mill": 13134, "\u2581during": 1938, "\u2581switch": 4933, "\u017ce": 10564, "an": 276, "\u2581\u0433\u0434\u0435": 17912, "bow": 11809, "WISE": 26251, "idy": 26576, "\ud83d\udc4c": 31156, "\u9694": 30451, "\u2581\u2019": 24978, "\u2581streak": 23210, "\ud55c": 29282, "\ud83d\ude00": 30575, "\u2581taste": 9230, "\u0440\u0430\u043a": 15936, "\u2581logged": 27036, "\u0639": 29040, "ugno": 24099, "ponent": 2462, "\u03c6": 29307, "Si": 20809, "\u2581desire": 8646, "\u2581remot": 28601, "Ip": 18917, "\u2581\u0432\u0440\u0435\u043c\u044f": 13493, "\u2581kall": 26608, "\u2581illusion": 27812, "\u2581\u0430": 1622, "\u2581iterator": 24119, "\u2581quot": 17528, "windows": 12113, "ey": 1437, "\u2581Wes": 19860, "asma": 21299, "Rendering": 25523, "Cap": 9953, "quier": 22253, "berries": 28363, "\u2581\u043b\u0443": 24641, "elve": 11047, "\u2581b": 287, "\u0447\u0435\u043d\u0438\u0435": 18326, "\u2581Ti": 24881, ")$,": 7927, "\u2581Management": 9466, "Sal": 18461, "neurs": 24283, "\u043a\u0438\u0445": 9422, "\u2581quel": 12971, "\u2581advertis": 21662, "<0x27>": 42, "\u2581begann": 25328, ":</": 11423, "\u2581---": 11940, "\u2581encounter": 10301, "\u2581pros": 14138, "\u2581scal": 10431, "\u2d30": 30654, "aha": 12980, "\u2581strugg": 6040, "ADDR": 12617, "\u2581centers": 18015, "\u2581do": 511, "\u2581\u0412\u0435\u043b\u0438": 16690, "\u2581Sum": 6927, "\u2581ski": 21916, "fw": 13655, "\u2581rede": 27503, "etary": 23101, "\u1784": 30765, "\u2581quickly": 4377, "eden": 11245, "translation": 1694, "ymbol": 2709, "\u0440\u0430\u043b\u044c": 13906, "charge": 14978, "oken": 2196, "\u2581Early": 12138, "\u2581ethnic": 18433, "\u2581arena": 24059, "embre": 8058, "iod": 2563, "licenses": 9146, "\u2581')": 27890, "\u8c37": 30894, "\u2581MD": 15834, "gem": 20898, "Selected": 9062, "\u2581hang": 9644, "ystem": 906, "t\u00f3": 9709, "(\"\\": 10592, "\u0449\u0435\u043d": 17612, "vote": 22644, "\u2581cannab": 25761, "Activity": 8559, "\u2581\u043f\u043e\u0441\u0435": 16162, "apest": 20804, "\u2581similarly": 21922, "\u2581strictly": 19470, "\u00e1ra": 24570, "\u2581san": 8417, "evin": 12278, "\u2581ruling": 21955, "Conne": 4523, "\u2581neg": 3444, "\u2581offic": 2771, "\u2581equally": 13387, "\u2581Para": 19562, "ION": 1702, "\u2581len": 3919, "\u2581seiner": 11366, "\u2581rejected": 15585, "rique": 15663, "\u2581chest": 8118, "bean": 16504, "ICT": 22521, "\u2581Ro": 5243, "\u2581Kel": 21564, "\u2581Bark": 27542, "\u2581FUN": 28318, "\u5740": 29468, "\u2581Che": 4537, "iero": 23419, "Listeners": 28523, "\u2581Holland": 23555, "\u2581android": 5791, "ines": 1303, "\u2581vest": 16568, "\u2581radiation": 19308, "ather": 1223, "\u2581buildings": 9702, "\u2581\u0425\u0430": 15741, "oma": 6943, "\u2581Democrats": 17016, "\u2581represent": 2904, "ours": 2020, "pdf": 8984, "anti": 7764, "tor": 6909, "\u2581\u041d\u043e": 11058, "\u2581Rangers": 28371, "Es": 19281, "\u2581Count": 4165, "\u043a\u0443": 2201, "\u2581represented": 10483, "awn": 11646, "\u2581reliable": 13227, "ld": 417, "\u2581fonction": 23473, "\u2581discrim": 14256, "ialize": 4448, "omitempty": 15509, "\u2581invariant": 18567, "pieler": 24854, "\u2581stab": 21670, "\u2581Admiral": 23895, "AtA": 26570, "\u03b4": 29158, "\ud37c": 31902, "\u2581SHA": 18970, "\u5c5e": 29438, "<<": 5275, "\u2581mas": 6769, "\u2581wind": 5535, "ino": 2164, "\u2581testing": 8260, "\u2581Dat": 9888, "\u2581sail": 12432, "\u2581universe": 11717, "\u2581Gary": 18162, "monitor": 22330, "\u2581Grow": 18456, "\u2581verse": 20016, "Rele": 14768, "\u0432\u044a\u0440": 22797, "PECT": 5519, "\u2581bars": 13529, ":`": 21502, "Sh": 1981, "cht": 5862, "\u2581hab\u00eda": 11044, "ptember": 3666, "\u049a": 31419, "\u2581image": 3469, "\u2581conclusions": 24242, "zed": 12616, "\u2581individual": 3235, "\u03b5": 28981, "\u2581prost": 16306, "itsch": 22158, "\u2581journalist": 19226, "\u2581pictures": 8310, "umed": 22477, "\u1d0f": 31153, "\u2581blinked": 27800, "\u2581rewards": 22989, "\u2581apply": 5580, "ENTER": 21214, "IND": 6733, "\u2581guard": 6980, "\u2581Rio": 15707, "\u2581Referee": 17641, "\u043d\u0456\u0441\u0442\u044c": 19147, "\u2581catal": 21348, "::~": 27893, "\u2581decide": 7964, "\u2581correl": 22489, "disabled": 13375, "\u2581$|": 17429, "\u91d1": 29452, "\u043d\u0438\u0446": 13042, "\u2581OK": 12206, "amo": 14156, "\u300b": 30028, "ODO": 8267, "mult": 5409, "\u2581\u0437\u0456": 26883, "\u2581forth": 9853, "global": 5515, "\u2581hearts": 17758, "ee": 2443, "\u2581ice": 7515, "\u2581\u0441\u043e\u0441\u0442\u0430": 24285, "dash": 24917, "SI": 3055, "opp": 25643, "\u00d4": 30452, "\u2581*)": 4491, "ving": 3844, "pool": 6474, "\u2581flags": 6809, "Process": 6007, "\u0441\u0435\u043d": 19709, "\u2581PORT": 23974, "upload": 12657, "wn": 880, "\u043f\u0438\u0441\u0430": 13099, "\u2581autumn": 24818, "seek": 18694, "\u026f": 31678, "Encoder": 22352, "\u2581article": 5447, "quin": 26611, "\u2581its": 871, "\u2581DATA": 21578, "\u2581singular": 15816, "\u2581rand": 27586, "\u2581More": 3764, "\u2581Queen": 10224, "<0xE3>": 230, "urations": 16963, "alen": 16777, "\u2581shopping": 11157, "ible": 1070, "mock": 8903, "EC": 8619, "\u2581hig": 3259, "\u2581\u043e\u0434": 5524, "\u2581integr": 4507, "igible": 13538, "\u2581efforts": 8280, "headers": 9899, "dev": 1363, "\u2581\u043d\u0430\u0447\u0430": 11084, "Design": 18479, "Tw": 21173, "moz": 24601, "naissance": 24944, "\u2581k\u00f6nnen": 19766, "mine": 16350, "\u2581Ges": 11461, "\u2581Common": 10757, "\u2581\u00ee": 4591, "rical": 11524, "\u2581wider": 17525, "ptr": 2619, "Eng": 5871, "\u2581Lors": 28462, "\u2581open": 1565, "\u2581rape": 21170, "HTTP": 12528, "LBL": 26928, "\u52a1": 29224, "\u2581Enter": 9810, "\u0446\u0435\u0432": 21766, "\u0441\u0442\u0443\u043f\u0438": 21008, "\u2581oral": 21210, "\u2581stata": 20879, "Labels": 21239, "Area": 12026, "\u2581MA": 6540, "\u2581quant": 4664, "\u7236": 30276, "\u2581true": 1132, "UB": 6870, "\u2581Cand": 26614, "\u2581'$": 22373, "weights": 26911, "Mult": 7180, "\u2581though": 2070, "\u2581Nicole": 27688, "\u2581brushed": 28427, "<0x9C>": 159, "NaN": 27759, "\u2581analog": 16468, "\u7075": 31310, "\u2581magic": 9693, "Rev": 11165, "\u30e6": 30775, "<0xE4>": 231, "\u2581back": 852, "\u2581classe": 20351, "azu": 22960, "may": 12001, "High": 12822, "\u2581bew": 20039, "ieden": 20664, "\u2581goodness": 27624, "\u00f6t": 15809, "\u2581Two": 6005, "subset": 9501, "element": 4172, "\u0436\u0434\u0435\u043d\u0438\u044f": 28253, "ories": 2420, "\u7ec3": 30947, "Har": 23653, "\ubd84": 30217, "lets": 7835, "rai": 27097, "\u2581graph": 5246, "\u2581Sh": 1295, "\u2581arguments": 6614, "Clone": 18991, ".\u201c": 24033, "\u2581Premier": 16103, "pcm": 20610, "\u2581creativity": 22317, "\u2581contribution": 11817, "S": 28735, "\u0419": 28996, "derive": 21303, "city": 18373, "\u5de8": 31786, "\u2581\u0441\u0442\u0435": 19776, "\u2581'[": 26583, "\u2581association": 13895, "][<": 20411, "templates": 28179, "TR": 2050, "\u043a\u0442\u0438": 11856, "\u2581hast": 25017, "\u2581chemistry": 25691, ")},": 14810, "andro": 20082, "\uc158": 30457, "\u2581his": 516, "rt": 2576, "\u2581if": 513, "essions": 8642, "}\\,": 12480, "SE": 1151, "BAD": 23787, "\u2581d\u00e9f": 19907, "\u2581mean": 2072, "oter": 26511, "\u2581confused": 13803, "\u2581(\u00ab": 20790, "theme": 12679, "\u2581Theater": 19725, "\u2581functioning": 26945, "Exp": 8003, "alf": 2121, "\u2581Gay": 22460, "\u0441\u043e\u0432": 16581, "\u2581highlights": 23089, "HR": 16197, "\u0e42": 29368, "\u2581lighting": 15912, "anqu": 20668, "\u2581l": 305, "Chat": 18165, "2": 28750, "Level": 6268, "airy": 23421, "acci": 28127, "ret": 1441, "dern": 22502, "\u2581\u043a\u043e\u043b\u0438": 19519, "net": 1687, "\u2581software": 3930, "\u2581rows": 11926, "Notify": 22596, "\u2581RES": 20308, "\uac1c": 29893, "\u2581Ster": 26103, "hum": 18500, "Cross": 26068, "conc": 26145, "inline": 10265, "\u0433\u0435": 8219, "\u2581bringing": 10279, "days": 13298, "\u2581motor": 8609, "Network": 8653, "\u2581ink": 20195, "\\\",": 22334, "\u2581mk": 25145, "Review": 25861, "icult": 3366, "\u2581'-": 16763, "\u2581Ur": 11149, "\u2581Jr": 12698, "\u2581forum": 21516, "\u2581surroundings": 28220, "\u2581fait": 8159, "\u2581cabinet": 18266, "\u2581que": 955, "ivid": 2397, "\u043d\u0438\u0445": 5109, "\u2581dispos": 12761, "icking": 16402, "\u2581Formula": 28532, "\u3082": 29778, "CLU": 28354, "icip": 4363, "\u0440\u0443\u043f": 20864, "\u2581**\"": 24079, "\u00b1": 29023, "\u2581allowing": 9836, "upper": 17687, "\u2581UINT": 25376, "slot": 12685, "\u2581maint": 5384, "Java": 15473, "ission": 1937, "\u2581elected": 11401, "\u2581\u0417": 3940, "\u2581SND": 27126, "ime": 545, "yle": 1487, "Operator": 13583, "\u2581excit": 14596, "}}(": 12900, "\u2581m\u00e5naden": 27432, "iop": 19072, "\u2581juris": 21716, "GI": 22576, "\u2581potentially": 13957, "\u2581Cut": 18514, "}\"": 7935, "\u2581collapse": 17347, "\u2581vendor": 24578, "\u2581Having": 11682, "\u2581Sach": 23447, "\u2581Gym": 28673, "\u2581Reading": 19118, "\u2581guerre": 20301, "\u2581Disc": 23294, "\u2581$('#": 23927, "\u5a92": 31838, "\u2581ugly": 19279, ",(": 20786, "\u2581surface": 5439, "init": 1783, "\u2581drawing": 10916, "\u2581\u0418\u0441\u0442\u043e\u0440\u0438\u044f": 24439, "\u2581Sandy": 27925, "kreis": 22717, "veh": 25973, "\u2581\u2020": 12175, "\u2581helpless": 25240, "\u8fdc": 30758, "\u2581Harvey": 26101, "itime": 26843, "\u2581dependency": 26473, "\u2581luminos": 27829, "\u2581anc": 5930, "uate": 11931, "\u2581healing": 15932, "\u2581Exp": 16790, "Padding": 18273, "\u2581rehe": 25562, "\u2581attended": 12359, "Future": 17147, "\u00e8rent": 24087, "linewidth": 17685, "vers": 740, "\u2581\u0428": 6606, "\u2581Mey": 22586, "\u2581aber": 11554, "rust": 19842, "\u0432\u0430\u043d\u0438\u044f": 22588, "\u0442\u0438\u044f": 14207, "seen": 18226, "querySelector": 17238, "iss": 815, "endment": 18920, "vised": 23313, "ComponentModel": 24306, "commands": 22738, "\u2581Ukr": 11712, "\ud569": 29770, "amazonaws": 26919, "alia": 15450, "\u2581\u00d6": 10994, "\u2581Nicol": 18338, "cap": 4996, "\u2581acknowledge": 20199, "\u2581augment": 20836, "et": 299, "\u2581equipo": 23742, "\u1edd": 30092, "\u2581debut": 9928, "\u2581'\\": 8846, "\u2581Bear": 21425, "cover": 3649, "ivel": 17414, "\u0441\u0443\u0434\u0430\u0440": 16747, "\u2581dict": 8826, "\u2581optimization": 18586, "stand": 1793, "UN": 2168, "\u2581singles": 16975, "\u2581VT": 24710, "\u4ed6": 29440, "\u2581queen": 18204, "aired": 27183, "\u2581della": 3503, "\u2581Our": 3489, "izard": 14640, "\u2581Corps": 16061, "\u2581hunger": 24358, "\u2581celle": 21401, "\u2581cor": 1275, "\u2581nerve": 23284, "\u2581equations": 12501, "\u2581months": 3370, "\u2581Crim": 24849, "\u2581file": 1729, "\u2581Liz": 24044, "\u2581loading": 14617, "BR": 11145, "\u2581centro": 19905, "break": 2876, "ript": 6473, "\u4f86": 30425, "\u2581Les": 4573, "Direct": 7746, "unsigned": 4447, "Could": 17024, "\u2581derni": 23551, "\u2581sust": 8131, "\u2581\u0441\u0442\u0440\u0443": 27471, "\u2581beat": 8239, "Desc": 8332, "liest": 18067, "\u2581vice": 12465, "\u0102": 30148, "diag": 26551, "blue": 12349, "ivot": 18807, "\u2581Layout": 23479, "\u2581\u0442\u0435\u0445": 17817, "\u2581readonly": 10257, "\u2581borders": 22902, "\u043f": 28807, "\u2581diss": 9792, "\u2581she": 630, "bee": 28255, "Symbol": 9996, "\u2581JavaScript": 26281, "river": 5350, "\u2581contrast": 9349, "Shell": 15718, "ITEM": 19977, "\u00f3n": 3203, "his": 16355, "\u2581Saturday": 8513, "\u2581Hamb": 18540, "\u2581Isn": 28026, "\u2581fue": 5631, "aware": 15950, "Bits": 14721, "\u2581TV": 5046, "ingham": 15419, "xa": 8705, "}_": 2427, "\u2581priv": 5136, "allow": 5618, "\u2581teachers": 10880, "bid": 9679, "ountry": 12612, "disk": 17460, "\u2581hockey": 21199, "\u2581Mountains": 26425, "udad": 12087, "ipedia": 13189, "\u2581Creat": 9160, "ras": 5895, "\u2581essentially": 13315, "\u0442\u0432\u0435\u0440": 24153, "colm": 28425, "ViewById": 21374, "textbf": 7343, "mr": 17886, "\u2581bo": 1359, "zes": 12189, "points": 8362, "\u00ec": 28943, "\u2581heute": 21602, "\u2581ace": 23705, "\u2581Panel": 27968, "\u2581Butler": 28070, "OK": 4903, "ployee": 16199, "\u00e4nde": 18919, "INK": 13244, "Pane": 17883, "\u6162": 31480, "\u00e4s": 11227, "speed": 12549, "\"?": 27257, "ios": 2806, "rename": 22778, "\u2581imped": 27988, "\u2581\",\"": 28685, "\u2581prop": 3313, "\u2581club": 4489, "\u2581patch": 11780, "\u2581indicating": 17888, "house": 6186, "prov": 11951, "\u2581Aw": 21960, "icans": 6835, "Paint": 22795, "way": 1128, "vv": 27176, "\u1edf": 30849, "\u09ac": 30099, "\u30d4": 30545, "neys": 26983, "]);": 3759, "\u2581Notes": 16254, "\u2581een": 2817, "\u2581replacing": 20313, "\u2581explosion": 22258, "\u2581f\u00fcnf": 27373, "\u2581Display": 20121, "\u2581numerous": 9696, "\u2581hospitals": 21737, "\u2581Person": 6441, "iqu": 2741, "details": 13856, "intage": 21153, "\u0442\u0430\u043c\u0438": 27411, "\u0441\u043a\u043e\u0458": 24736, "\u2581rag": 13017, "\u2581July": 4398, "\uc801": 30151, "body": 2680, "JSON": 8438, "vp": 15968, "\u2581irq": 23747, "ought": 1322, "\u2581eleg": 12999, "MBER": 26172, "\u2581Theme": 22888, "\u2581Others": 19038, "\u2581il": 1521, "\u00df": 28880, "\u2581low": 2859, "\u2581statements": 12908, "\u2581crash": 14456, "\u2581Easy": 18945, "Typ": 14169, "Weight": 16310, "\u2581Rug": 21769, "\u2581Agent": 23393, "\u2581did": 863, "ou": 280, "\u2581ANY": 5788, "\u043e\u0433\u0440\u0430\u0444\u0438": 14784, "\u2581Florence": 24929, "ik": 849, "\u2581puzzle": 28071, "\uac11": 31090, "adas": 5959, "\u10de": 31053, "\u2581newspapers": 19466, "\u9801": 31693, "ioned": 21856, "\u898f": 31333, "?": 28804, "vo": 3144, "\u2581business": 1955, "vert": 2035, "\u2581management": 5411, "\u5c31": 29379, "bie": 12868, "\u2581cultural": 8932, "ilis": 26543, "\u2581introduced": 8160, "argument": 14635, "\uc88c": 31455, "()->": 4330, "\u2581diagn": 12008, "\ud83d\ude42": 29340, "\u2581Game": 8279, "ounters": 19610, "\u2581Miss": 5586, "\u2581machine": 5599, "\u2581\u043f\u0440\u043e\u0438\u0437": 15393, "ovi": 17694, "\u2581conce": 13270, "\u2581Urs": 28305, "dao": 28218, "\u2581aunque": 23510, "bara": 14660, "\u2581trans": 1203, "\u2581Britain": 10174, "\u2581proper": 4979, "Be": 3574, "\u2581Roberto": 27996, "memory": 11336, "\u2581\u0441\u0432\u044f": 15520, "agra": 16208, "\u2581nodes": 9249, "xs": 19381, "\u2581tale": 15642, "Disable": 22497, "\u2581African": 8623, "\u2581```": 8789, "osity": 24879, "<0xDF>": 226, "Subscription": 19590, "\u66f4": 29250, "\u2581economic": 6638, "night": 6988, "},\r": 17695, "\u2581Article": 20108, "\u2581profitable": 27822, "\u0432\u0440\u0438": 21677, "\u2581last": 1432, "\u2581eggs": 14636, "\u2581aircraft": 11475, "\u2581termin": 13552, "\u2581foods": 14082, "\u2581Head": 9655, "\u2581organis": 14658, "ycl": 9591, "\u2581formula": 11303, "\u2581pued": 11127, "Tra": 14839, "HL": 11758, "enci": 24086, "\u2581suspicion": 27865, "\u2581Pr": 1921, "\u3054": 31193, "\u2581Does": 9377, "\u2581possibility": 10065, "\u2581slic": 17341, "adt": 25916, "\u2581enero": 26291, "\u03ce": 29803, "\u0158": 29420, "k\u00e9": 10641, "snd": 20027, "Media": 9426, "\u2581assure": 25510, "env": 4227, "hausen": 24813, "ml": 1653, "\u2581lovers": 24883, "\u2581guilt": 19150, "\u2581otros": 17731, "\u2581variables": 8925, "\u6c0f": 31320, "\u2581pipe": 13661, "\u03c0": 29030, "\u2581terrible": 9783, "\u2581Task": 10290, "incipal": 15934, "\u2581fict": 24138, "cert": 8422, "\u0434\u0435\u043b\u044c": 21054, "\u2581mon": 1326, "\u2581fire": 3339, "AUT": 11489, "enger": 9243, "\u2581tablet": 24296, "\u2581s\u0105": 23435, "\u2581format": 5032, "\u2581Pun": 22495, "\u2581Associ": 6097, "\u2581COP": 16572, "\u2581comput": 3633, "\u6c34": 29692, "\u05d3": 29317, "\u2581fully": 5894, "\u2581accepts": 26223, "\u2581corporation": 27750, "\u2581conj": 11365, "bottom": 10450, "\u2581trouble": 7598, "\u2581transport": 6209, "\u2581corrections": 27956, "\u001b": 30246, "\u2581Nin": 24845, "release": 11023, "Test": 1963, "\u2581Ke": 4702, "\ub7c9": 31314, "\u2581comes": 3435, "\u2581Barn": 15002, "\u2581Ludwig": 24628, "\u2581pare": 13103, "\u2581++": 6537, "\u2581du": 1415, "\u2581losing": 10121, "\u2581cos\u00ec": 26052, "SRC": 27145, "0": 28734, "\u2581PARTICULAR": 13094, "aru": 24344, "\u2581EV": 10752, "\u2581rs": 19292, "achment": 9809, "\u2581Prin": 14495, "\u2581beloved": 21708, "\u2581About": 7634, "\u2581Setting": 23433, "\u2581meets": 18487, "\u2581foreach": 11927, "written": 15957, "ael": 4152, "compar": 24218, "<0xDE>": 225, "\u2581David": 4417, "ENTIAL": 26567, "\u2581g\u00e9n": 10979, "Orient": 25616, "\u2581leurs": 17951, "\u2581Aqu": 16979, "fan": 11479, "\u2581frank": 23580, "dem": 8343, "\u092f": 29896, "extension": 14530, "frak": 7917, "\u2581\u0440\u0435\u043a\u0438": 27935, "\u9898": 29264, "\ud589": 30094, "\u2581Nie": 27805, "stack": 6637, "best": 13521, "\u2581wound": 10063, "outer": 6753, "ilen": 27748, "\u2581are": 460, "\u2581Dark": 12361, "\u2581our": 813, "side": 2205, "orer": 14465, "hm": 16913, "Manager": 3106, "\u2581racism": 22409, "\u2581graphic": 22693, "\u2581Attorney": 23064, "handed": 27008, "\u2581\u00b7": 1766, "\u2581preparation": 16744, "\u2581av": 1182, "\u2581They": 1306, "\u2581\u0432\u043e\u0435\u043d": 20641, "\u2581Grant": 14301, "\u2581knees": 13431, "\u2581tut": 8311, "\u2581whom": 6105, "\u2581url": 6855, "\u2581University": 2900, "\u2581SV": 15952, "\u2581denotes": 21481, "\u2581penis": 23735, "\u017een": 27488, "\u2581owners": 10703, "total": 6828, "\u2581activation": 25159, "Lif": 28461, "\u00ce": 28992, "\u2605": 29168, "\u2581intel": 9568, "\uc5d0": 29148, "ument": 1320, "\u2581fel": 11316, "-->": 26345, "\u2581pr\u00e9c": 18308, "\u00fa": 28863, "\u2581relate": 21506, "\u0002": 30551, "]+": 13381, "\u0441\u043e\u043c": 21323, "\u2581illness": 13214, "\u2581whispered": 12916, "\u2581Tol": 15893, "BA": 4844, "\u2581initialize": 15267, "bridge": 15401, "\u2581goes": 4859, "\u2581Description": 10220, "\u0431\u0440\u0430": 8345, "\u2581Always": 17484, "\u2581steps": 5944, "orge": 3816, "\u2581boats": 19706, "\u2581utilizing": 28464, "Signal": 21643, "\u2581lur": 26914, "bros": 25851, "\u2581sevent": 11130, "\u8089": 31736, "\u2581humans": 10589, "\u2581Nap": 11629, "\"]": 2242, "\u0393": 30149, "\u2581lac": 24722, "::": 564, "\u2581\u0433\u043e\u0434\u0438\u043d\u0435": 14027, "\u2581italiano": 18348, "\u2581Throughout": 23501, "\u2581people": 905, "slash": 25779, "\u2581Limited": 19637, "Api": 7119, "\u2581effect": 2030, "\u2581Cec": 22022, "Drag": 18383, "\u2581Focus": 24408, "\u2581opinions": 15028, "\u2581MAC": 23584, "iment": 2487, "\u2581revel": 17120, "\u2581architect": 7821, "\u2581Use": 5938, "\u2581border": 6765, "\u2581prep": 5015, "\u0395": 29563, "\u2581random": 5509, "\u2581Bra": 11830, "\u2581Know": 11308, "kit": 11153, "\u52dd": 31400, "\u2581niet": 14654, "\u2581Host": 15511, "\u0432\u043e\u0440": 15769, "test": 1613, "\u2581broker": 22670, "Permissions": 24338, "Names": 5686, "\u031e": 31327, "iembre": 15522, "mbox": 7602, "<0x64>": 103, "\u2581reserv": 6047, "\u2581'')": 20237, "pal": 11920, "\u2581Alexand": 18275, "\u2581Cross": 10464, "\u2581dem": 1493, "percent": 18799, "\u2581College": 6136, "\u2581Marina": 27926, "\u2581start": 1149, "\u2581worden": 13348, "submit": 13816, "\u0325": 30808, "\u0448\u0438\u0445": 15994, "Pos": 3529, "\u2581\u0441\u043f\u043e": 11275, "\u2581sd": 19515, "aug": 11614, "\u043e\u043d\u0435": 23703, "IF": 4066, "\u2581Different": 27588, "\uc560": 31957, "\u7dda": 30501, "crate": 18298, "Lean": 25713, "\u2581tired": 10272, "ktet": 12054, "\u2581si\u00e8cle": 13717, "\u00f1": 28877, "mathsf": 12009, "\u2581wearing": 8192, "\u2581Billy": 14532, "\u2581Pin": 17929, "ere": 397, "\u2581vine": 21375, "bey": 23815, "\u2581Statistics": 28091, "uj": 5872, "name": 861, "\u2581spe": 1886, "\u2581gross": 17725, "\u2581actress": 18334, "l\u00e9": 19838, "\u2581Ki": 22485, "\u00a8": 30312, "\u043d\u0438\u0447\u0435": 17856, "\uc131": 29465, "Hint": 18175, "\u2581Port": 4194, "<0x00>": 3, "Public": 14140, "LABEL": 22592, "CLUD": 16613, "\u00e9r": 3160, "nil": 9454, "Kind": 6660, "\u8aaa": 31566, "INPUT": 20309, "leans": 20803, "umps": 10575, "Chart": 19275, "Dig": 14894, "Apply": 21597, "verso": 27484, "omon": 20785, "erry": 13327, "\u2581hatred": 25944, "\u2581CT": 22023, "\u0432\u043b\u044f": 10646, "ination": 2235, "\u03c9": 29214, "println": 7561, "\u2581facilities": 11675, "uniform": 26786, "uj\u0105": 20606, "\u2581pon": 17984, "\u73e0": 31845, "\u2581==": 859, "\u2581janvier": 17710, "prit": 25450, "\u2581Tok": 12925, "ysk": 18825, "winning": 24082, "osta": 23363, "ston": 6549, "\u2581liqu": 9491, "hend": 12669, "\u2581algebra": 13397, "\u00e9vrier": 20158, "import": 7841, "<0xDB>": 222, "adi": 12035, "estly": 19067, "mgr": 20070, "WO": 20463, "\u2581Energy": 14270, "Used": 21601, "inks": 20523, "\u2581formats": 23468, "\u2581Dopo": 28170, "stud": 13082, "umm": 17068, "\u2581private": 1597, "\u2581thick": 6931, "\uc73c": 29583, "\u2581numerical": 18125, "NEXT": 14026, "table": 2615, "\u987a": 30626, "\u0442\u0440\u043e": 14162, "idth": 1634, "\u2581sl\u00e4ktet": 12645, "APP": 16364, "phys": 13432, "\u2581crystal": 20710, "\u6768": 31617, "\u2581own": 1216, "\u6b21": 29245, "\u2581\");": 14588, "\u2581Professional": 16081, "\u2581Pir": 19346, "eca": 19296, "paragraph": 24926, ".',": 13007, "href": 16558, "\u3061": 30173, "\ube14": 30502, "\u2581CE": 21666, "\u2581\u043a\u043e": 1619, "\u2581catalog": 18255, "\u2581t\u00edtulo": 27923, "word": 2186, "\u2581Gro": 8697, "\u2581rendered": 21795, "\u2581rhs": 25490, "\u2581Bever": 28526, "\u2581veh": 5639, "\u2581bird": 7727, "AF": 8116, "\u5e7f": 30017, "\u2581Prince": 11567, "\u2581planet": 9873, "\ubabb": 31408, "\u8c61": 29254, "ante": 2237, "rv": 9084, "\u2581PI": 28056, "\u2581guided": 23701, "\u2581brief": 6817, "\u2581Josh": 14648, "\ub825": 29626, "code": 1409, "leton": 9224, "\u2581Euro": 14869, "strip": 18184, "\u2581union": 10784, "Effects": 27175, "dropdown": 21898, "Asp": 12580, "ules": 2464, "oved": 2947, "\u2581Natural": 16725, "\u2581Wayne": 21433, "\u2581Mechan": 27164, "gar": 4749, "estern": 5190, "\u2581\u0441\u0432\u043e": 6278, "\u2581remarks": 24370, "\u2581boolean": 3695, "\u2581Often": 24640, "king": 8328, "\u2581community": 3618, "\u2581\u0432\u043e\u0437": 11235, "\u2581replaced": 8939, "\u2581\u0440\u0430\u0439\u043e\u043d": 20656, "\u2581env": 2881, "\u2581heard": 3364, "si": 4043, "\u2581safely": 16367, "versions": 26149, "\u2581deg": 3705, "aught": 4016, "\u2581naval": 23850, "\u2581leaning": 21208, "\u0446\u044e": 23997, "\u2581Support": 10731, "icles": 4992, "contin": 7243, "rezent": 24662, "\u2581looking": 2526, "\u2581geh\u00f6r": 17421, "\u2581fem": 4141, "PUT": 9838, "elt": 1807, "\u2581Schaus": 26693, "constants": 23610, "olare": 19389, "\u2581de": 340, "\u00d9": 31619, "LOC": 9668, "\u2581Franc": 4696, "str": 1042, "\u2581satell": 17345, "Af": 24505, "\u2581graz": 27004, "\u043c\u043e\u0440": 17595, "\u2581Pierre": 13639, "\u5148": 29596, "\u2581Ped": 11943, "\u043f\u0440\u0438": 10804, "\u5c97": 31983, "Url": 5140, "ebug": 5986, "\u2581\u0438\u0441\u0442\u043e\u0440\u0438": 25070, "\u2581remark": 9174, "\u2581\u0431\u043b\u0438": 22228, "onie": 21223, "Repo": 26280, "support": 6658, "\u2581magnetic": 12485, "\u2581woman": 2971, "\u2581ImGui": 21316, "ierte": 8912, "~~~~~~~~": 22770, "\u2581orders": 8636, "\u2581guidance": 15988, "\u2581Sver": 28238, "\u2581happened": 4243, "MO": 4095, "\u2581.=": 11930, "\u2581FIX": 21467, "\u2581Points": 24304, "REGION": 27291, "hot": 10672, "eg": 641, "ULT": 4874, "\u4e4b": 29332, "\u0327": 31968, "Option": 5425, "\u0144sk": 12447, "\u2581forced": 7207, "maz": 3492, "\u2581share": 4098, "\u2581Accept": 26953, "\u2581Mos": 7292, "TRACE": 14985, "tere": 20291, "\u2581nv": 25962, "\u2581fixed": 6321, "Controls": 14172, "show": 4888, "\u2581siblings": 27139, "\u2581nav": 5697, "ky": 4845, "\u2581Disney": 14665, "\u2581\u041a\u0443": 11467, "ogene": 17344, "\u2581reminds": 25639, "\u2581zwe": 8047, "logo": 17506, "\u0942": 30957, "\ud574": 29426, "\u2581Sa": 7506, "\u2581bike": 13045, "}({\\": 22845, "\u2581gate": 9862, "\u2581\u043d\u0435\u0437\u0430": 27476, "fy": 26253, "security": 10165, "\u2581beard": 25293, "\u2726": 31709, "\u2581twenty": 5969, "hora": 18701, "\u2581fiscal": 24937, "\u043c\u043e\u0439": 24931, "\u8d77": 29676, "\u2581WAR": 6180, "aps": 1882, "\u2581pilot": 13448, "\u2581CONTR": 17453, "\u2581assum": 4936, "\u2581Legal": 22010, "Emb": 25841, "\u2581artillery": 27262, "\u2581guys": 6246, "aa": 4474, "\u2581Fail": 28278, "TRA": 22057, "\u2581Vis": 6908, "het": 4103, "\u2581productivity": 24504, "\u2581memorable": 27661, "\u2581soup": 18851, "riv": 814, "\u2581conver": 9105, "sex": 12396, "Android": 15225, "\u2581septembre": 18599, "\u0448\u0456": 20159, "\u5f02": 29761, "\u2581nominated": 27242, "\u2581Introduction": 23628, "VC": 17832, "\u2581composed": 15021, "WAR": 9272, "\u2581Julie": 22706, "Config": 2227, "\u2581(\\": 3566, "\u2581Sleep": 24027, "\u2581The": 415, "hemal": 22678, "optim": 18425, "wicklung": 25739, "\u2581sans": 12062, "\u2581encryption": 27591, "\"),": 3548, "uther": 14425, "Spell": 20130, "\ubc95": 30979, "\u2581their": 652, "\u2581Queens": 19689, "pet": 6193, "\u2581Baby": 18719, "\u2581die": 1202, "\u2581daughter": 5690, "iale": 9712, "\u2581Release": 19864, "\u2581coefficients": 19955, "\u2581dyn": 16150, "\u255d": 30494, "\u0441\u043a\u0430\u044f": 8224, "\u2581workout": 26039, "comes": 5254, "CAN": 25798, "SION": 8439, "\u2581Criteria": 26496, "\u2581didn": 1539, "\u2581cure": 22457, "\u00e8re": 3228, "<0x68>": 107, "\u2581Old": 7470, "\u2581Anton": 8999, "\u2581Chicago": 8449, "\u2581beside": 9439, "\u200e": 29207, "\u7389": 30927, "open": 4124, "wa": 4985, "ven": 1434, "dbg": 14962, "\u2581gewann": 26778, "FER": 19627, "YN": 26687, "well": 5458, "Sync": 10567, "angs": 23766, "array": 2165, "\u2581Night": 10357, "ceil": 28379, "search": 2360, "\u2581division": 9652, "Ga": 25872, "DAP": 25857, "NR": 20409, "\u2581souls": 23804, "vre": 19465, "ifferent": 15791, "\u043b\u0438\u044f": 13124, "]$": 14674, "vy": 12246, "atre": 7195, "\u2581without": 1671, "eten": 14478, "\u0119\u017c": 28453, "\u0432\u0435\u0434": 20183, "Called": 22614, "\u2581Tyler": 23307, "\u2581Villa": 21192, "igu": 8499, "<0xAD>": 176, "Equals": 5634, "usive": 6657, "\u2581pr\u00e9sident": 25446, "Position": 6111, "\u2581carry": 7096, "<0x6E>": 113, "\u2581prend": 16086, "\u2581laughter": 18211, "\u2581user": 2188, "\u2581interests": 10299, "('./": 21093, "Set": 1436, "ipage": 23506, "\u2581supplier": 25877, "\u2581proven": 12598, "faced": 28678, "\u2581\u0424\u0435": 18329, "\u2581girlfriend": 16391, "\u2581dense": 19319, "\u2581transformation": 12958, "Sql": 11803, "\u90fd": 29460, "ako": 7050, "\u2581Russian": 8098, "\u2581While": 4023, "\u2581Lanc": 23141, "\u2581field": 1834, "ista": 3581, "stone": 9966, "\u2581NEW": 24746, "orno": 13312, "\u2581\u044f\u043a": 15143, "Exists": 15862, "\u2581Block": 9063, "\u00e9rica": 21698, "\u2581inferior": 24797, "\u5c45": 31055, "fore": 994, "\u0440\u0443": 1728, "Delta": 4773, "\u2581Jew": 5808, "\u2581nurs": 13797, "\u2581possessed": 26132, "\u2581five": 3359, "\u2581station": 5086, "hook": 10872, "\ub828": 31608, "\u8f66": 30062, "vt": 14029, "\u2581sta": 20295, "\u2581amplitude": 24157, "\u2581beds": 21137, "\u2581Basket": 25258, "done": 10381, "\u2581susp": 18734, "zial": 18574, "\u2581Analysis": 19442, "contents": 15931, "\u2581carved": 26464, "\u2581stop": 2115, "\u2581dealing": 12292, "\u00fcss": 18394, "camp": 18405, "\u2581diese": 16936, "floor": 15261, "\u0d15": 31611, "unned": 25704, "\u039d": 29966, "\u2581(*": 2253, "\u2581Sept": 22638, "hip": 1557, "\u2581leaving": 6285, "\u00fat": 24043, "\u5149": 29762, "\u2581lib": 6538, "\u2581lov": 5718, "\u2581Made": 16970, "\u2581Kay": 17399, "\u2581Filip": 19991, "Copy": 8546, "\u2581DateTime": 20917, "\u0645": 28954, "\u5939": 30900, "\u2581java": 3070, "<0x28>": 43, "\u00f6": 28834, "\u2581preserve": 18018, "\u2581synchron": 14941, "kat": 22332, "\u2581join": 5175, "\u2581alert": 10977, "\u2581Seine": 25517, "\u2581continue": 3688, "Str": 3490, "\u2581\",": 7717, "\u2581\u043e\u043a\u0442": 22546, "\u2581Sie": 7075, "\u2581proble": 1934, "\u2581\u041a\u043e": 5779, "porte": 24095, "r\u00e9": 9946, "only": 5041, "density": 26753, "\u2581Nat": 9736, "\u2581roman": 18041, "\u2581Sean": 20468, "notations": 19254, "exception": 7703, "\u2581probe": 21227, "s": 28713, "\u2581contest": 13968, "\u2581correction": 22561, "ERO": 20574, "\u2581Metro": 25289, "\u2581homeless": 22354, "itol": 24250, "WIDTH": 24278, "\u2581inv\u00e5n": 26939, "\u2581fixture": 20284, "=\"_": 28359, "Cred": 15453, "ecycle": 22832, "\u0432\u0448\u0438\u0439": 27386, "\u2581bound": 3585, "olved": 7060, ":_": 19746, "Home": 14265, "ina": 1380, "\u2581aspect": 6563, "\u2581\u0430\u0440": 8691, "textit": 10162, "\u6b3e": 29994, "\u604b": 31472, "\u2581drug": 7876, "\u0448\u0435\u043d\u0438\u0435": 27372, "\u2581gathering": 17243, "\u2581fairly": 11735, "boy": 14803, "\u2581secret": 5169, "\u2581},": 1630, "\u2581Bank": 7838, "query": 3385, "du": 670, "Iter": 8135, "agr": 13947, "odio": 26301, "re": 267, "shit": 16371, "ulously": 26344, "ini": 3494, "<0x1F>": 34, "\u2581expected": 3349, "ocked": 7214, "th": 362, "pg": 3386, "abad": 20882, "GE": 4896, "Launch": 27514, "\uc124": 30058, "(\".": 15560, "\u7a0b": 29265, "\u2581Tom": 4660, "\u2581retrieve": 20132, "\u2581plural": 26001, "\u2581laboratory": 24583, "\u2581perhaps": 5230, "\u2581quale": 22553, "\u2581Sat": 10586, "\u2581Die": 2941, "\u2581draw": 3924, "\ud83d\ude0d": 30819, "ENC": 20314, "\u7eaa": 31466, "\u2581DEFAULT": 17537, "\u2581noch": 11039, "\u2581nep": 22798, ";}": 26070, "\u2581:=": 2137, "\u0443\u043d": 9511, "ower": 1072, "\u2581theorem": 16980, "\u2581born": 5381, "\u2581reinforce": 25234, "place": 2912, "eltemperaturen": 26718, "\u2581made": 1269, "\u2581indic": 4073, "\u2581Ye": 22702, "\u2581defe": 8464, "\u2581dependent": 15365, "\u7387": 29886, "\u2581seems": 3969, "\u2581fit": 4646, "igenous": 20164, "\u2581knew": 2580, "agn": 3450, "\u2581release": 5614, "DOM": 15421, "\u2581metres": 18751, "\u0414": 28868, "Rep": 4781, "\u2581turno": 27200, "\u0440\u0438\u0438": 10033, "\u2581had": 553, "\u2581args": 4707, "proto": 5346, "\u2581unter": 7014, "\u2581clar": 16066, "\u2581Cl": 1366, "\u0a3e": 31714, "Shape": 11124, "\u2581Bryan": 27919, "\u2581units": 8007, "\u2581\u00e1": 8533, "\u2581rounds": 18638, "transl": 21175, "\u2581grants": 26218, "\u0442\u044c\u0441\u044f": 6877, "\u2581shel": 8816, "lem": 2933, "load": 1768, "\u2581utility": 18936, "\u2581Hur": 15697, "\u00e9rc": 23219, "\u2581warnings": 24052, "descriptor": 17325, "Sent": 26968, "\u2581simpler": 27013, "\u2581keywords": 28049, "\u591c": 30755, "\u2581recalled": 16831, "\u2581rhet": 25905, "\u2581schedule": 9442, "\u2581innoc": 12686, "c\u00e9": 22034, "sten": 6062, "getMessage": 18219, "\u2581recuper": 28109, "\u2581correct": 4714, "ila": 5945, "\u2581Democrat": 28540, "After": 9169, "\u2581anywhere": 9530, "Widget": 7728, "state": 2027, "\u2581supports": 11562, "$(\"#": 26690, "\u2581neutr": 25296, "\u2581crying": 15671, "\u2581next": 1679, "********": 812, "Real": 12995, "raft": 2869, "\u53d1": 29099, "\u2581byte": 7500, "\u039a": 29659, "\u2581wr": 1425, "\u5947": 30786, "actly": 19241, "oked": 8641, "\u2581u": 332, "scribe": 11666, "\u2581Craw": 27580, "\u2581oder": 7765, "colo": 17382, "liferay": 18802, "<0x52>": 85, "\u0441\u0442\u0443\u043f\u0430": 19651, "}+\\": 13582, "\u2581fif": 5911, "\")]": 6564, "\u2581Dublin": 22263, "\u2581infant": 23116, "\uc870": 29841, "alo": 8344, "UTE": 13401, "wind": 14401, "\u2581wis": 14729, "\u2581stock": 5756, "\u2581outside": 3536, "aines": 17251, "Fragment": 13132, "\u2581sizes": 13282, "#{": 16775, "\u2581legs": 7969, "\u2581convenience": 20185, "\u2581Buen": 22666, "nel": 8062, "\u2581decisions": 9549, "\u0432\u0438\u0445": 18095, "Apr": 27754, "\uc9c0": 29161, "WORD": 10993, "\u2581delen": 24002, "\u00f6ff": 14505, "\u2581'</": 20182, "\u2581Union": 7085, "\uc678": 31132, "\u2581intens": 16698, "\u2581Robinson": 20191, "jel": 24457, "\u2581disaster": 17273, "\u2581imag": 3809, "\u2581\u0421\u0442\u0430": 9739, "Av": 9269, "\u2581schedul": 10119, "IX": 6984, "\u0ba4": 30100, "agan": 12538, "IB": 6147, "\u2581publications": 23311, "deserialize": 25689, "\u2581Aff": 9691, "fu": 21278, "\u0441\u0438": 2206, "\u2581sul": 10577, "\u2581partial": 10473, "\u2581chall": 4233, "osed": 2352, "\u2581kit": 5282, "\u2581deutsch": 14387, "old": 738, "\u2581stream": 4454, "Web": 5392, "\u2581\u041d\u0438": 11504, "\u2581arrow": 18623, "irmingham": 24467, "\u2581Sull": 25519, "dots": 10234, "\u2581mainstream": 23199, "\u2581batter": 7994, "\u2581infected": 26557, "Alert": 18852, "\uc0b0": 30336, "package": 7573, "\u2581procedures": 15251, "caps": 23438, "st\u00e4nd": 21591, "ens": 596, "\u2581stolen": 18318, "\u2581M\u00e4r": 16851, "\u0437": 28812, "urious": 26095, "VE": 3728, "services": 12451, "single": 14108, "\u2581alla": 6625, "ologists": 17736, "\u2581lavor": 21785, "aceut": 24834, "yard": 10892, "\u2581Mars": 15798, "\u2581Rule": 19712, "mobile": 19022, "\u2581regarded": 15390, "<0x80>": 131, "\u2581Perry": 24150, "\u0142\u0105": 22660, "\u2581Mart": 4437, "\u2581freed": 21563, "LOCAL": 24528, "\u2581rigid": 25323, "!\\": 8263, "\u2581sip": 28581, "\ud83d\udc4f": 30664, "kehr": 19177, "\u2581\u015b": 10446, "\u0432\u0430\u043d\u0435": 15064, "\u2581Git": 27903, "role": 9606, "www": 2849, "cia": 5011, "J": 28798, "<0x97>": 154, "\u2581fruits": 21566, "\u2581freely": 21964, ">(": 3323, "\u2581assured": 17903, "\u2581balance": 7873, "\u2581Jos": 9574, "\u6280": 30021, "loc": 1614, "\u043b\u0435\u043d": 3997, "\u2581USB": 11588, "\u2581pup": 18781, "anced": 3692, "\u2581packaging": 24501, "\u2581trois": 14956, "isible": 17727, "Navigation": 17896, "\u62bd": 30885, "\u2581Weight": 19785, "\u2581signs": 10090, "PC": 4199, "Route": 9858, "nament": 10059, "\u2581trying": 2942, "\u2581CO": 5006, "\u2581\\": 414, "\u2581fixing": 28341, "otherapy": 27843, "\u2581Ha": 7737, "\u2581Ten": 11819, "\u2581clo": 23390, "\u2581\u043f\u0440\u043e\u0446\u0435": 23146, "\u4ec5": 30472, "\u043b\u0430\u0441\u044c": 12147, "\u01ce": 29788, "ning": 971, "]:": 9582, "tha": 15716, "\u8881": 31979, "\u2581safer": 25844, "\u2581Pretty": 24111, "\u2581tub": 11988, "\u043d\u043e\u0441\u0442\u0438": 8849, "\u2581fot": 16111, "\u2581Amy": 17723, "\u2581\u0434\u0435": 3697, "\u2581lingu": 24017, "\u9152": 30887, "\u041a\u0430": 22117, "xy": 4263, "\u0442\u0435\u043b": 12516, "z\u00e1": 16845, "\u2581Returns": 6699, "\u0433\u043b\u044f": 27254, "\u2581[\"": 7367, "\u4e4c": 31854, "(\"/": 9933, "\u2581two": 989, "\u1e43": 30454, "Coord": 15082, "\u02bf": 29343, "Dict": 16840, "ella": 1994, "\u2581Bau": 16095, "\u2581parliament": 20848, "LL": 5292, "save": 6568, "\u2581Bos": 13541, "\u2581Saud": 20605, "\u2581toy": 21372, "\u2581pressed": 12263, "\u2581hum": 1997, "\u5909": 30274, "\u6c14": 30627, "\u2581resting": 25280, "langle": 8214, "\u2581*/\r": 7608, "\u2581delegate": 21063, "\u2581priorities": 28231, "\u0ba8": 31393, "\u2301": 30413, "result": 2440, "cat": 6272, "__[\"": 25053, "\u017e\u00ed": 25991, "\u2581Child": 8183, "\u2020": 28932, "\u2581Nation": 14317, "ylvania": 14194, "secondary": 26373, "\u2581greatly": 15702, "\u2581neur": 24170, "\u2581Int": 4666, "LECT": 8785, "\u2581greatest": 9932, "\u2581black": 2687, "Interval": 14484, "paths": 19366, "\u2581\u041b\u044e": 24667, "\u2581whole": 2894, "slug": 23983, "\u2581Ces": 17097, "compiler": 19874, "Dao": 20660, "\u2581Flo": 14819, "\u2581anticipated": 25024, "DN": 28385, "INDEX": 16358, "elseif": 27636, "\u2581==>": 27752, "\u2581order": 1745, "\u2581many": 1287, "\u2581Duke": 15619, "\u2581caught": 6236, "cor": 4754, "jpg": 11692, "\u2581simplicity": 25233, "\u2581purchases": 25596, "\u2581supporters": 18909, "\u975e": 29764, "\u2581thing": 1970, "az": 941, "\u2581Len": 16216, "\u2581Scottish": 17717, "\u2581px": 22844, "udo": 9297, "\u6bd4": 29605, "\u2581pela": 16649, "\u2581Suddenly": 21455, "ktur": 25947, "tbody": 28383, "Parallel": 26549, "\u2581reply": 10071, "\u2581raises": 26721, "<0xA1>": 164, "\u2581Wrest": 28444, "\u2581servers": 18515, "\u0163": 29360, "\u2581WARRAN": 6784, "\u2581Oz": 28321, "ABLE": 4327, "\u2581uncertain": 12518, "\u2581Compan": 21096, "\u2581(@": 23968, "\u2581Priv": 15650, "\u2581bud": 5369, "ifndef": 17981, "\u2581spray": 19084, "eres": 12343, "ve": 333, "oc": 402, "\u2581jou": 13087, "\u2581residential": 18350, "\u0dc3": 31963, "\u2581creating": 6818, "\u62ec": 30574, "algorithm": 22211, "Tax": 27537, "\u2581Gest": 25417, "alie": 26877, "\u2581clearing": 22639, "\u2581Above": 28301, "\u0452\u0435": 27214, "\u2581Grande": 18446, "\u2581increases": 12095, "storage": 11105, "\u2581initialized": 24121, "\u2581comparing": 21400, "fc": 6837, "ibr": 2792, "atz": 6124, "\u2581families": 6812, "itals": 14427, "\u2581Eug": 18234, "\u2581American": 2556, "\u2581coalition": 28131, "\u2581score": 7420, "properties": 10723, "\u2581structural": 21431, "\u2581bl": 843, "\u2581K\u00f6": 19253, "char": 3040, "\u5bae": 31116, "Game": 8965, "\u2581differential": 21813, "\u2581surpr": 4181, "\u8bf4": 29616, "\u03bb": 29027, "\u2581fever": 22041, "\u2581stack": 7232, "Pay": 9602, "\u2581HTML": 13987, "owany": 19035, "\u2581pleased": 12846, "\u2581bold": 15860, "\u2581popped": 28152, "ln": 4778, "\u2581pione": 21235, "\u2581Jesse": 26689, "\u2581sought": 13033, "\u2581varying": 22312, "\u2581Sql": 20950, "\u2581familie": 14875, "inely": 16297, "\u2581drain": 18946, "\u00e9re": 24454, "INSTANCE": 25956, "<0x07>": 10, "ili": 2689, "ks": 2285, "Common": 12081, "\u2581Find": 8769, "\u2197": 29299, "\u2581Press": 6127, "\u0f62": 31185, "\ud1a0": 30776, "\u043d\u044c\u043e": 21738, "iciency": 9375, "\u0255": 30621, "ro": 311, "\u2581Parse": 19468, "\u043a\u0438": 1107, "\u2581cuatro": 27429, "\u2581klass": 27898, "\u9ede": 30718, "\u2581tons": 15995, "Capacity": 28004, "\u2581frustrated": 25511, "\u2581eng": 2536, "\u2581situ": 2921, "\u2581Abd": 18386, "\u2581Hier": 20722, "\u2581Parte": 24162, "\u2581Samsung": 26845, "BT": 12656, "\u2581jsou": 25954, "\u2194": 30375, "\u2581balls": 16852, "\u2581\u041d\u0435": 12112, "\u2581plastic": 10409, "\u2581Poland": 17812, "\u2581perfectly": 9943, "\u2581propag": 11166, "\u2581exagger": 25945, "\u00e9ge": 24981, "ulations": 6341, "attrs": 15215, "\u2581Gree": 15752, "BUG": 5506, "Pool": 9022, "\u00e4t": 5291, "utils": 7284, "Expression": 8055, "\u2581req": 7275, "\u2581deck": 11388, "pattern": 12392, "\u2581gy": 14229, "\u2581Ident": 15220, "\u2581OS": 12818, "<0xA8>": 171, "\u2581embedded": 20007, "shirt": 21122, "\u2581types": 4514, "\u2581obey": 28414, "\u95ee": 29562, "\u2581determined": 7798, "itta": 24725, "nit": 28023, "hat": 3617, "\u2581circle": 9661, "\u2581SQL": 13208, "\u0441\u0442\u0438\u0442\u0443": 17356, "anj": 18621, "omas": 23856, "TAG": 12137, "linux": 8502, "visor": 16529, "\u2581swift": 20029, ")))": 5429, "cha": 8136, "\u2581Act": 3782, "\u2581valuable": 12302, "uese": 23663, "izia": 24536, "pos": 1065, "\u2581kam": 14899, "\u2581marca": 24870, "\u2581bounded": 17443, "\u2581noise": 8498, "\u2581veteran": 23960, "ents": 788, "\u2581Walker": 17734, "\u0442\u043a\u0438": 27110, "leaf": 22542, ")-": 9572, "<0x7A>": 125, "\u2581principale": 25147, "rer": 17749, "\u2581ils": 19255, "\u2581marginal": 25286, "\u2581baby": 5982, "\u2581dest": 2620, "\u2581Effect": 16782, "ubl": 12337, "filled": 16683, "\u2581truth": 5307, "\u30ae": 31307, "riages": 28347, "\u2581BM": 20179, "got": 6066, "\u2581react": 13035, "\u2581===": 2772, "\u2581Dry": 27064, "\u2581per": 660, "\u2581scale": 5657, "\u2581definit": 4952, "ustral": 16472, "\u9020": 29925, "GBT": 26647, "\u2581Joh": 8870, "\u2581define": 6600, "\u2581f\u00e5": 28680, "DC": 6513, "\u2581headed": 11256, "apture": 13568, "choice": 23817, "\u2581Gam": 24383, "\u0426": 28928, "Range": 6289, "ry": 643, "AS": 2109, "\u2581cb": 15623, "=\"-": 23013, "\u2581zn": 13288, "\u2581GA": 24083, "\":\"": 10549, "\u2581location": 4723, "\u0451\u0442": 14687, "\u2581stir": 13535, "orship": 9579, "group": 3063, "Client": 3166, "\u2581september": 25494, "\u2581development": 4099, "\u2581S\u00fcd": 21449, "separ": 17519, "\u2581\u044f": 3806, "vscale": 24713, "\u2581appe": 2104, "\u2581Jeff": 8678, "\u0440\u0430\u0431": 24462, "iction": 3033, "application": 9113, "\u0446\u0456\u0439": 16680, "html": 3391, "\u2581lifestyle": 16218, "\u2581nov": 4147, "chart": 16617, "\u03a7": 30438, "\u2581DJ": 18767, "auses": 23829, "\u2581Perhaps": 9447, "\u2581Michel": 12622, "isen": 10555, "rices": 17783, "ws": 6420, "\u2581satisfaction": 16456, "\u2581promotion": 16771, "Less": 28360, "\u2581copper": 21569, "\u2581EX": 4175, "usions": 12378, "gal": 7846, "\u2581Vere": 15088, "ROM": 6224, "Dark": 25732, "\u2581Line": 9127, "\u2581konnte": 19059, "gers": 7850, "Reset": 13709, "\u200d": 29274, "\u5c3c": 30854, "Metric": 21443, "\u2581tropical": 21257, "eles": 6179, "\u2581kter\u00fd": 28162, "\u0437\u0435\u0440": 20450, "\u2581pos": 977, "Collect": 27991, "Product": 7840, "\u2581NA": 20258, "title": 3901, "so": 667, "\u2581into": 778, "tee": 6267, "\u2581favorite": 6656, "roup": 1099, "\u2581constant": 5957, "ville": 5485, "\u2581Hy": 10540, "\u2581SU": 13319, "ted": 17850, "spr": 22694, "\u2581periodo": 26959, "\u2581Clin": 19950, "\u06cc": 28975, "\u7b56": 30777, "\u2581\u041f\u0440\u0435": 10164, "\u2581supplied": 16584, "includes": 19459, "\u2581Au": 9779, "\u2581notification": 14901, "usc": 15229, "odi": 16267, "\u00eam": 26288, "chat": 12932, "\u907f": 31059, "ourse": 8306, "\u2581\u043a\u043c": 12400, "ureau": 11242, "\u1000": 31158, "iji": 17062, "\u2581\u0441\u0430": 4468, "servers": 21032, "\u2581occupied": 16512, "entieth": 22606, "}}}": 14111, "\u2581Bah": 20057, "\u2581provides": 5312, "\u2581Creative": 23626, "Order": 6022, "\u2581couldn": 3481, "SON": 4780, "\u2581Junior": 17876, "\u4fa7": 30994, "servlet": 22029, "irtual": 4757, "\u2581with": 395, "opic": 22773, "\u2581\u043a\u0430\u043a": 8600, "Am": 7118, "istence": 10070, "\u2581Stay": 20066, "\u2581situ\u00e9e": 27250, "som": 15415, "\u2581Television": 22730, "TREE": 26522, ".');": 27148, "\u2581pocket": 10585, "\u0654": 31865, "\u2581speakers": 20872, "\u2581saying": 3677, "\u2581owns": 25061, "child": 4657, "\u00e4st": 28068, "\u2581`": 1552, "ieler": 11963, "asta": 7788, "attice": 16003, "agma": 18102, "ublic": 651, "\u2581process": 1759, "bag": 19001, "\u2581Baker": 19803, "\u2581Cy": 12080, "hub": 21230, "undef": 25083, "\u2581Compar": 21963, "\u2581shake": 17138, "autre": 25538, "\u2581gleich": 27362, "\u751f": 29128, "\u8fd4": 29139, "\u682a": 31724, "object": 2814, "\u2581metric": 12463, "\u2581Ms": 16870, "otion": 5318, "\u2581Jackson": 9955, "\u4e60": 30978, "flash": 21473, "panic": 19771, "\u2581tact": 12529, "\u2581colon": 8039, "othy": 18478, "\u2581vegetables": 19045, "doc": 4196, "Subject": 22210, "ieval": 19168, "\u2581Bil": 24012, "\u2581Caroline": 23217, "TD": 21339, "\u2581heading": 13573, "Managed": 26215, "augh": 3740, "\u2581so": 579, "\u2581geb": 10560, "j\u0105": 12004, "MIT": 24791, "\u2581star": 4580, "\u2581indices": 17853, "scheme": 28338, "\u2581congreg": 25324, "Create": 3998, "Fall": 28072, ".'\"": 26773, "\u2581keyword": 23247, "\u2581objects": 6697, "\u2581Texas": 7826, "NA": 3384, "\u2581convin": 13058, "Constructor": 15940, "National": 24939, "scriptstyle": 26715, "\u67d3": 30623, "\u2581Halloween": 28016, "\u2581\u0431\u043e": 5536, "\u2581cook": 4600, "\u2581Har": 3407, "\u2581Boston": 9143, "\u2581poder": 20500, "POWER": 23453, "\u2581Milan": 23600, "\u2581\u041a\u043e\u043d": 16954, "\u2581/*!": 17847, "\u2581\u0434\u0438\u0432\u0438\u0437\u0438": 27728, "\u4f3c": 30694, "\u2581Ev": 5740, "EXP": 22136, "\u2581banks": 13283, "\u2581commonly": 14473, "\u2581Blood": 17143, "changing": 26181, "\u2581that": 369, "\u2581\u043d\u0430\u0439": 15977, "addle": 14539, "\u2581HAL": 16879, "nam": 6701, "\u2581clas": 23087, "astr": 7225, "\u2581\u041c\u0430\u0440": 13666, "\u2581labor": 7579, "\u2581lens": 19642, "Serv": 11529, "\u2581els\u0151": 28248, "\u2581rund": 24187, "govern": 26447, "\u2581Mor": 4151, "\u2581Saison": 19031, "\u7535": 29742, "\u2581beneath": 10042, "ursor": 12558, "uest": 24437, "\u2581proportion": 19938, "HY": 27334, "}',": 23930, "\u2581navy": 28433, "\u2581cls": 15488, "Font": 7168, "\u2581medium": 10312, "\u961f": 30031, "sent": 16788, "\u2581nature": 4735, "ib": 593, "holm": 18830, "Sub": 3540, "\u2581recommend": 6557, "ja": 2831, "\u2581est\u00e1": 11176, "ilers": 27693, "ratio": 22287, "should": 6716, "erv": 784, "heap": 22937, "Operation": 6972, "\u2581talented": 21712, "imos": 23695, "ermine": 21824, "\u65c5": 31414, "\u2581vibr": 13546, "\u2581silly": 18715, "\u2581Safe": 24092, "\u2581Coal": 25243, "\u0c02": 31548, "\u2581dude": 16924, "imo": 6872, "\u2581Character": 23471, "\u0442\u0430\u043b\u044c": 16301, "\u2581Begin": 15152, "\u2581anniversary": 21101, "\uac01": 30750, "\u00cf": 31210, "\u2581habitants": 19414, "consum": 17125, "\u2581university": 10539, "\u2581ARE": 20752, "\u2581listening": 9857, "Suite": 25138, "Union": 20981, "\u2581Dance": 21015, "\u2581exceed": 12436, "\u2581train": 5835, "bling": 6357, "\u2581worrying": 27453, "\u2581Asia": 11065, "\u2581persona": 22962, "\u2581qual": 4109, "liver": 16342, "izza": 13983, "\u2581keeping": 7603, "Program": 14352, "\u2581Yu": 26424, "ah": 912, "\u2581reports": 7959, "hythm": 16321, "\u2581typedef": 18400, "uje": 12214, "\u2581Cover": 16881, "\u2581stud": 1362, "assertTrue": 18455, "TMP": 15916, "\u7c7b": 29066, "\u2581Oxford": 13434, "acters": 5632, "boxes": 26498, "\u2581commer": 6002, "\u2581bru": 16575, "\u2581trump": 22945, "\u2581At": 1794, "\u2581Type": 5707, "\u00e4ude": 24576, "\u0436\u0435\u043d\u0438\u0435": 16525, "bec": 12328, "\u2581Tob": 20479, "acions": 20298, "\u0437\u0430": 2978, "\u2581President": 5120, "\u2581recruit": 20396, "\u2581distribut": 2886, "\u2581footage": 26536, "\u2581institutions": 12638, "\u6d3e": 31006, "origine": 26003, "\u2581override": 8013, "Kit": 25565, "borough": 23056, "\u0e32": 29103, "Dom": 7781, "\u2581kne": 7770, "\u2581sufficient": 9406, "\u2581planets": 28312, "\u2581outline": 22327, "Extension": 10430, "\u2581meta": 11678, "\u2581per\u00ed": 27601, "\u2581events": 3926, "\u2581Israel": 6532, "\u2581introduction": 14300, "\u2581Point": 8571, "Consumer": 23123, "select": 5033, "\u2581neighborhood": 10501, "Cookie": 22519, "\u2581Welcome": 19417, "TE": 3392, "\u2581going": 1404, "TIME": 8197, "\u2581momentum": 14019, "\u2581affects": 20777, "\u2581bajo": 22418, "ampions": 5624, "\u2581indul": 24155, "Matcher": 28466, "\")\r": 16949, "\u2581geometry": 17639, "icer": 10408, "\u2581Circ": 20861, "Distance": 20701, "Back": 4974, "aturday": 8026, "inos": 7905, "\u2581Camera": 24361, "Aud": 24761, "\u76d6": 31133, "\u00af": 29948, "zip": 13249, "\u2581bree": 18321, "\u2581Barb": 25223, "\u2581AA": 24724, "\u30ac": 30613, "\u2581Philip": 7772, "\u2581PS": 12993, "\u21b5": 31215, "inburgh": 24464, "yect": 23132, "\u2581sist": 12289, "\u2581warmth": 21606, "aging": 4054, "perm": 13781, "\u2581Chris": 9900, "\u2581>>>": 18343, "\u0441\u0438\u044f": 27782, "\u2581peque": 25104, "\u2581noviembre": 26634, "\u2581whether": 3161, "Aug": 21575, "\u2581education": 5362, "\u2581medieval": 23223, "\u2581bath": 7044, "\u2581matching": 11623, "\u2581Trib": 18911, "\u2581moist": 17261, "\u2581remove": 5281, "\u2581short": 2485, "i\u0119": 14528, "\u0441\u044c\u043a\u043e": 5205, "\u0431\u043b\u0438": 8334, ">();": 7100, "\u2581wisdom": 16679, "\u2581Race": 20056, "\u2d4f": 31443, "\u2581worse": 6871, "\u2581starting": 5615, "\u2581JS": 16315, "\u2581gab": 18221, "eman": 11513, "PA": 7824, "\u0433\u0430": 2618, "spir": 14079, "Op": 5018, "\u0445\u0435": 21207, "unches": 28625, "\u2581exam": 4174, "callback": 7609, "\u8054": 29821, "\u4ef7": 29970, "\ud3b8": 31630, "nem": 22890, "lp": 12312, "Character": 15962, "\u2581immigration": 21715, "\u2581\u043a\u043e\u0433\u0434\u0430": 28164, "\u2581priority": 11801, "icio": 14957, "\u2581traveling": 16071, "eph": 27140, "\u2581So": 1537, "\u2581directions": 14278, "\u8863": 31524, "\u2776": 31739, "\u2581contre": 13791, "\u2581gar": 5925, "\u2581\u043f\u043e\u0431\u0435": 23136, "asp": 10124, "\u2581utf": 26238, "\uc694": 29517, "Photo": 25379, "\u00e9ta": 25545, "alle": 4504, "host": 3404, "\u2581featuring": 16312, "\u2581fail": 3747, "\u2581deven": 24999, "cro": 22171, "\u2581GFP": 23577, "large": 16962, "EVENT": 11185, "\u2581luxury": 17211, "SOURCE": 17426, "itar": 5098, "\u2581density": 8353, "cery": 20322, "=": 28746, "\u2581operators": 12765, "alion": 20236, "\u2581NASA": 26164, "\u0432\u0438\u0439": 18135, "\u6e56": 30480, "\u627f": 30761, "\u2581EXPECT": 7270, "nh": 25011, "Net": 4428, "heast": 13784, "\u2581NV": 27470, "\u2581S\u00fc": 24365, "ille": 2457, "\u2581Eli": 17177, "\u2581inherited": 22993, "<0x58>": 91, "\u2581iz": 9345, "\u2581December": 4925, "\u2581home": 1611, "\u2581ruin": 21878, "\u2581Auss": 27775, "\u2581Ir": 4747, "\u2581astr": 15311, "\u2581octobre": 19171, "\u2581rit": 9935, "\u043b\u0451\u043d": 24731, "but": 2391, "\u2581Mr": 2964, "\u2581topics": 13817, "\u2581bought": 7620, "Feed": 20967, "\u2581loves": 13468, "agen": 5786, "m": 28719, "\u8f7d": 29435, "\u2581geme": 15086, "box": 2858, "\u2581decomposition": 28079, "sson": 14542, "\u2581happening": 9615, "\u2581use": 938, "\u2581men": 1683, "\u2581owner": 7162, "\u2581mathemat": 16872, "ash": 1029, "\u2581other": 799, "\u26d4": 30184, "\u2581plant": 5100, "amb": 1379, "\u2581tend": 6273, "\u2581town": 3736, "\u2581Activ": 18359, "\u2581\u0431\u0443\u043b\u043e": 18395, "aciones": 8227, "administr": 28181, "\u2581legally": 24025, "\u2581Gast": 28505, "t\u00e9": 11414, "ailed": 2384, "\u10e0": 29449, "\u2581ord": 4574, "\u2581Commons": 21470, "\u2581terror": 9107, "\ub9c8": 30103, "ByName": 23177, "\u2581Commun": 5795, "\u2581Cal": 2984, "\u2581wonder": 3383, "DE": 1336, "\u04cf": 31469, "ferences": 8831, "\u2581text": 2245, "\u2581gives": 5212, "\ubcf4": 29477, "\u2581Software": 6583, "mons": 22863, "ief": 3417, "Tx": 12593, "\u4eec": 29550, "\u2581Bulgar": 22390, "\u2581secondo": 23958, "\u2581Lake": 8703, "\u2581wagon": 26098, "\u0430\u0440": 2362, "\u2581phrase": 14804, "kw": 8486, "heid": 16731, "\u2581ordered": 8346, "\u2581purchasing": 21320, "modules": 7504, "UP": 3571, "efficient": 28627, "\u2581brain": 6387, "\u2581DMA": 23173, "\u2581up": 582, ".(": 21057, "numer": 13372, "<0x8A>": 141, "\u2581hack": 14413, "\u2581fitting": 20068, "\u2581Independent": 20379, "cl": 512, "prob": 22083, "preview": 21900, "\u2581promise": 9081, "\u2581momento": 19131, "\u2581extens": 22996, "b": 28726, "\u2581Operation": 16536, "\u2581Json": 17750, "\u2581expect": 1675, "\u2581actions": 6768, "::<": 23015, "\u2581voters": 17947, "\u9690": 30356, "\u2581f\u00f6": 14000, "\u2581Hawai": 18839, "zahl": 27483, "\u2581here": 1236, "occup": 18562, "erde": 19161, "\u2581rope": 19818, "\ud83d\ude1b": 31754, "\u03af": 29121, "\u2581Biden": 21377, "\u7d00": 31614, "\u2581phil": 6862, "Vis": 5198, "\u0e2d": 29228, "\u2581toler": 13393, "Du": 17379, "\u2581attack": 3517, "\u2581necessary": 4892, "\u2581thumb": 15762, "\u2581Werk": 26444, "orden": 19220, "rena": 14248, "annte": 25542, "\u2581Float": 27914, "issions": 5091, "\u2581pay": 2136, "\u2581rub": 7294, "CAP": 13706, "ering": 2131, "range": 6347, "idays": 16642, "Allow": 20230, "\u2581packed": 14703, "gor": 4553, "\u2581Matt": 7149, "\u043d\u0438\u043c": 8895, "\u2581tatto": 21941, "\u2581cual": 13023, "\u2581Lev": 10249, "Mobile": 23090, "\u2581app": 954, "Parser": 8323, "\u2581Mathemat": 26698, "\u2581lightning": 25456, "\u00f3d": 9666, "\u4f7f": 29154, "prod": 13135, "'+": 18660, "\u2581bronze": 20067, "elia": 21657, "pmatrix": 22469, "\u2581\u0430\u043a\u0430\u0434\u0435": 27820, "\u2581doing": 2548, "\u2581Mot": 8854, "\u2581cloud": 6945, "Success": 11034, "\u2581broken": 7098, "\u2581clinical": 15193, "\u2581Unless": 9954, "gorithm": 6433, "circ": 9565, "\u013d": 30833, "\u8d2d": 30207, "oded": 6546, "\u2581landsc": 27308, "\u2581MP": 13259, "Pal": 14394, "\u2581responding": 26167, "\u2581vagy": 28666, "ww": 1566, "\u2581party": 4150, "\u2581\u044e": 11531, "Promise": 16853, "\u2581\u0456": 3213, "\u2581consistency": 23074, "\u2581Agr": 18546, "\u2581uk": 20028, "\u2581light": 2061, "Main": 9000, "dale": 21352, "\u2581Level": 16543, "\u2581Gol": 27085, "\u30cf": 30483, "econom": 26390, "stein": 6559, "\u2581booth": 26868, "\ud83d\udd34": 31928, "\u044a": 28870, "sn": 6713, "bres": 13243, "VAR": 13408, "\u2581lid": 16006, "\u2581jumping": 23058, "\u2581cells": 8894, "ull": 678, "omorph": 11179, "\u2581oven": 19126, "\u6c5f": 29920, "something": 24674, "\u2581welcomed": 26097, "\ub123": 31550, "\u0096": 29636, "\u2581languages": 14028, "\u2581tid": 12158, "\u2581unple": 28331, "arrow": 3362, "\u2581Times": 8359, "\u2581foot": 3331, "\u2581buyers": 21872, "snap": 26597, "\u4e00": 28969, "\u0434\u0430\u043d": 19872, "apon": 13181, "fprintf": 23833, "resp": 12002, "\u2581charm": 22533, "col": 1396, "symbol": 11535, "esen": 23668, "WL": 22385, "acker": 21172, "\u2581Storm": 21281, "\u2581official": 5189, "itive": 2468, "\u2581Gren": 18347, "\u2581control": 2602, "\u2581mai": 8212, "\u2581DA": 13060, "\u2581Earth": 8599, "\u2581pdf": 26562, "<0xD4>": 215, "\u2581Anc": 23952, "alue": 672, "cen": 15698, "Invalid": 6976, "ekt": 10906, "\u2581\u0411\u0443": 15195, "\u0434\u043d\u0430": 13373, "\u0093": 29331, "ore": 431, "\u0442\u0443\u0440": 9939, "\u2581fier": 16307, "\u2581sede": 26784, "\u2014\u2014\u2014\u2014": 27920, "ional": 1479, "\u2581ren": 6419, "\u2581Moreover": 11302, "ynam": 3792, "utt": 7538, "\u2581initi": 8756, "Copyright": 20505, "TON": 17517, "\u2581wird": 7534, "lst": 26816, "pons": 13532, "\u2581pol\u00edt": 14429, "DMA": 17632, "bru": 13065, "ont": 677, "ethod": 1301, "\u2581Order": 9006, "\u2581\u0421\u0430\u043d": 18475, "\u2581Dise": 26782, "inery": 17171, "\u2581racist": 19139, "Store": 6229, "\u2581Deal": 27734, "\u2581might": 1659, "\u2581Marcus": 22194, "\u0433\u0443": 5378, "water": 9175, "\u044a\u043d": 26561, "\u1ff6": 30866, "Sy": 13403, "\u2581fet": 16685, "niej": 20386, "MSM": 21430, "\u30d3": 30385, "\u2581Philippines": 21937, "\u2581Friend": 13109, "{-": 9817, "\u043e\u0442": 15242, "\u2581Ensure": 25217, "\u2581\u043e\u043a\u043e\u043d": 27383, "Contains": 17576, "unfinished": 6921, "dal": 20576, "IDE": 15087, "\u2581ging": 21534, "\u2581sore": 23176, "<0x53>": 86, "\u2581Bar": 3011, "\u00e6r": 26384, "seg": 8111, "cas": 11768, "\u2581\u043d\u0430\u0445\u043e\u0434\u0438": 20772, "\ud83e\udd14": 30255, "\u2581Obama": 11764, "\u2581\u0430\u0434": 16833, "\u2581performances": 17487, "\u2581Ger": 7801, "\u2581reminder": 25563, "\u2581Om": 17852, "\u2581whis": 8037, "\u0115": 31371, "\u2581\u0434\u043e\u043c\u0430": 21807, "create": 2578, "stats": 8751, "Codec": 23186, "\u2581operand": 27455, "\u2581accessible": 14494, "\u2581slide": 16513, "\u2581gradient": 21135, "\u2581penalty": 19140, "\u2581fprintf": 21098, "DIO": 18036, "\u2581worth": 4407, "\u2581\u0431\u044b\u043b\u0438": 13698, "unde": 13596, "unused": 20961, "BO": 5759, "\u57fa": 29691, "\u2581Mission": 18573, "data": 1056, "\u2581bride": 25248, "\u2581Tri": 9982, "jango": 11913, "medium": 25095, "\u2581bit": 2286, "Errorf": 12460, "\u2581agriculture": 24843, "factory": 13001, "\u2581proposed": 8278, "\u2581punk": 22900, "nar": 24837, "irus": 15959, "\u2581Mississippi": 20455, "\u2581pert": 10795, "Never": 22855, "\u2581COPYRIGHT": 23493, "lick": 3438, "\u2581taking": 3344, "\u2581teaches": 28488, "\u2581Gott": 24543, "\u0442\u0435\u043c": 18988, "\u2581Juli": 17570, "\u2581believed": 7761, "\u2581surrounded": 14161, "\u2581seasons": 15238, "Score": 18120, "\u2581collecting": 22852, "\u2581zum": 6103, "\u756a": 30815, "\u2581stories": 5979, "\u2581lut": 21285, "sung": 23361, "\u2581arrive": 12688, "reck": 16136, "\u007f": 30982, "\u2581\u017c": 24579, "\u2581Whe": 6738, "\u9645": 30604, "\u2581Squadron": 27081, "\u2581ds": 18099, "Comp": 5839, "\u2581admin": 11173, "r\u00eda": 23048, "\u2581/>": 4884, "nten": 20340, "\u2581galaxy": 20539, "\u2581call": 1034, "\u2581Spiel": 14755, "\u09ae": 30319, "\u2581LIMITED": 20881, "(),": 1648, "\u2581Pub": 8742, "nehmen": 22839, "\u0442\u043e\u043a": 20264, "\u2581commission": 10418, "\u2581caut": 13831, "EMP": 15290, "\u2581mientras": 22188, "\u2581|=": 6764, "\u2581|\\": 17446, "emon": 7884, "Guard": 24093, "vano": 27000, "\u10d2": 30218, "\u2581el": 639, "rie": 3552, "\u2581absolut": 5101, "bell": 10027, "\u2581repr\u00e9sent": 23853, "qu": 364, "\u2581trag": 20751, "\u2581wholes": 25911, "\u2581chemicals": 24920, "ohn": 1953, "\u2581irrelevant": 27731, "\u2581measures": 10582, "\u2581placing": 20632, "\u2581aside": 10276, "\u00e8ge": 24399, "\u2581revision": 24935, ").": 609, "ace": 561, "\u2581quest": 1825, "\u2581essential": 7974, "\u2581linked": 11748, "ientes": 17459, "Unable": 24085, "esian": 17754, "\u2581SDValue": 27265, "azioni": 13919, "GD": 25730, "\ud6a8": 31481, "\u2581sitting": 6398, "\u770b": 29466, "cer": 2742, "\u2581appointment": 14351, "\uacb0": 30075, "\u0432\u0435\u0440\u043e": 27489, "hor": 1752, "\u2581parse": 6846, "\u2581original": 3493, "ieder": 7102, "\u2581sac": 6923, "aken": 2589, "Appe": 16929, "\u2581sealed": 21998, "mx": 19737, "\u2581ctrl": 27733, "Commands": 27458, "\u2581titolo": 21266, "\u2581enem": 13595, "\u2581Geoff": 25136, "MD": 4915, "\u2581tak": 10644, "\ub610": 31292, "\u2581stated": 9256, "effect": 9846, "\">\r": 14980, "\u2581sym": 4297, "rey": 6439, "ois": 5628, "\u2581Nak": 24828, "\u2581funded": 25178, "\u2581este": 7021, "\u2581AND": 5771, "\u2581noon": 26873, "\u7e41": 31839, "\u0449\u0438": 4522, "\u2581jail": 16215, "\u2581};": 2337, "Integr": 23636, "\u2581joining": 15508, "\u2581compliment": 23085, "\u2581trails": 28280, "NUMBER": 23776, "<0x2E>": 49, "\u2581Nevertheless": 18828, "regon": 17855, "igte": 23355, "\u2581\u00c4": 18912, "overline": 7595, "klass": 24660, "CHAN": 7295, "bil": 26702, "Is": 2301, "\u2581capitalism": 26540, "\u2581Right": 9554, "abc": 16612, "\u2581pil": 7586, "\u6837": 29675, "\u00f3g": 14376, "\u2581Ave": 27170, ".\u201d": 2435, "\u2581hair": 3691, "\u2581cursor": 14622, "\u2581Lov": 24636, "\u2581reported": 5745, "\u2581stagger": 25132, "\u2581checked": 9681, "\u2581conservation": 21088, "\u0433\u043e\u0432": 25873, "%": 28823, "\u2581vulnerable": 17508, "\u2581Saint": 6393, "esa": 11207, "\u2581fest": 12649, "ecut": 2717, "\u2581\u0458\u0435": 4557, "\u2581Palest": 13897, "entries": 14849, "\u2581Buy": 14824, "\u2581reaching": 13323, "\u0e19": 29178, "pp": 587, "Blue": 17596, "\u2581Parameter": 26059, "\u2581shelter": 18596, "\u2581functional": 14573, "\u2581viv": 13686, "\u2581consisting": 20922, "skich": 26079, "\u2581XIX": 17757, "component": 7451, "\u2581sin": 5450, "eqn": 5030, "\u0105": 28866, "\u2581establishing": 24491, "ign": 603, "\u2581dia": 24558, "\u2581Er": 2852, "bis": 24971, "theta": 4280, "num": 2575, "\u2581Didn": 27326, "successful": 28452, "\u2581height": 5110, "\u2581compensation": 19204, "\u00c8": 29029, "\u80a1": 30889, "dzie": 23813, "\u2581ii": 23302, "^{\\": 3394, "lean": 7962, "\u2581\r": 1302, "\u2581seit": 13959, "\u2581nahm": 28196, "\u2581Sil": 6044, "schen": 12417, "\u2581Hou": 14180, "MF": 24721, "\u2581handle": 4269, "vs": 10296, "\u2581acceler": 13057, "\u2581cru": 5337, "\u2581rare": 9964, ")_": 14080, "\u2581Richard": 6359, "\u2581Owen": 24352, "ahr": 8775, "estr": 25926, "tiny": 25149, "Unicode": 27977, "\u2581AUT": 18453, "\u0454\u044e": 23667, "\u2581{}\",": 26695, "\u2581decides": 24928, "\u8861": 31632, "\u2581drivers": 13696, "\u250c": 31294, "\u2581registers": 23826, "\u2581\u041a": 1688, "\u2581rings": 18947, "ilio": 21841, "\u0413": 28872, "dim": 5449, "\u2581winning": 9821, "\u0433\u0440\u0430\u0444\u0456": 23006, "\u2581\u0421\u0428\u0410": 17195, "\u2581spirit": 5838, "izi": 15323, "\u2581Moh": 13610, "PROC": 15812, "\u2581illustr": 8740, "\u5b8f": 31934, "\u2581Fi": 24061, "\u2581schol": 17733, "\u2581ate": 15732, "\u2581venture": 21106, "illet": 13309, "fem": 26857, "\u043a\u0430\u0442\u0430": 24648, "\u663e": 29446, "player": 7449, "\u2581Past": 17860, "uing": 10523, "<0xD1>": 212, "\u2581proto": 10209, "\u0434\u043e\u0432": 10410, "edly": 12395, "saved": 21428, "hba": 20544, "\u2581Dod": 22790, "\u2581bor": 24863, "f\u00f6r": 14634, "\u4e36": 31734, "\u2581upgrade": 16518, "\u2581sor": 5279, "\u2581~~": 18881, "\u2030": 30412, "\u2581Sc": 2522, "\u2581Partner": 28382, "\u00a0": 29000, "\u2581rear": 12110, "\u2581Extension": 28664, "\u2581Budapest": 26094, "agon": 4959, "\u2581brown": 9060, "BACK": 12437, "\u2581clearly": 6315, "\u2581injuries": 15871, "\u2581engineers": 22488, "\u0448\u0438\u043c": 27066, "\u2581monaster": 27128, "oph": 3126, "\u2581\u0442\u0435\u043b\u0435": 21094, "\u2581perfection": 27363, "\ubc29": 30240, "\u2581transparent": 20175, "k\u00f3w": 26701, "no\u015bci": 20951, "\u5462": 31351, "DU": 11788, "\u2581sed": 9178, "\u0917": 30167, "\u2581Upper": 25407, "\u2581buzz": 21242, "Lite": 24701, "General": 15348, "\u73af": 29887, "\u041f": 28847, "tol": 20181, "\u2581stroke": 14684, "<0xF5>": 248, "\u2581fr": 1104, "\u2581Fire": 8643, "\u0432\u043e\u0434\u0438": 14807, "\u2581arr": 4476, "\u2581far": 2082, "\u2581Dog": 13311, "atively": 6308, "\u043f\u043e\u0437\u0438": 24326, "\u2581North": 3964, "ising": 2979, "\u2581Wel": 10699, "\u0431\u0440\u0438": 20940, "\u2581destin": 25791, "arance": 13705, "\u2581Bot": 17174, "\u2581suscept": 27595, "\u2581techn": 2412, "\u793c": 31195, "\u2581screening": 23191, "ps": 782, "earch": 3625, "cluster": 12027, "\u2581'#": 12252, "\u2581franc": 13004, "bounds": 22048, "VERT": 24149, "\u2581run": 1482, "CO": 1998, "\u2581lot": 2055, "etzt": 17982, "\u043c\u0430": 1530, "Img": 24088, "\u2581Ott": 14982, "\u2581Mas": 9183, "\u2581District": 8207, "\u2581Qual": 9480, "Out": 2919, "\u2581heart": 3031, "++){": 23385, "\u2581dramatically": 25797, "\u2581recommended": 11572, "\u043b\u043e\u0436\u0435": 28489, "\u3058": 30692, "\u2581manual": 15561, "\u2581fighter": 23865, "\u77ed": 30132, "<0x7B>": 126, "\u2581leather": 13508, "\u2581conviction": 24594, "\u0458\u0435": 3129, "textsc": 22564, "Properties": 6509, "oples": 19619, "\u0623": 29388, "\u2581Ira": 11721, "\u2581Dead": 14292, "i\u00e3o": 23978, "\u2581moment": 2470, ">,": 6550, "ido": 2750, "\u2581extends": 4976, "\u2581consum": 6288, "\u0019": 30969, "apsed": 11834, "\u2581Dear": 22143, "KS": 23143, "gun": 7429, "\u2581Ivan": 18559, "Select": 7464, "aggi": 24069, "\u2581state": 1665, "nullable": 21777, "our": 423, "fm": 21019, "UID": 8446, "\u2581oscill": 21068, "adjust": 22562, "\ucd9c": 29858, "\u2581Az": 7393, "switch": 7252, "\u2581realistic": 19595, "\u2581desperately": 24254, "library": 16228, "EXIT": 28344, "\u2581manner": 8717, "\u2581\u043d\u043e": 5304, "exper": 17245, "bia": 20565, "aris": 17971, "\u2581chosen": 8729, "\u677f": 29561, "\u2581ye": 14764, "itches": 15868, "\u2581administrative": 17093, "\u2581typical": 10842, "\u2581IMPLIED": 20282, "\u2581Leave": 25487, "\u2581questioned": 26812, "LM": 27149, "lookup": 16635, "\u2581qued": 23288, "\u2581especially": 4012, "\ub9c1": 31689, "<0xE9>": 236, "\u9a6c": 30259, "ledge": 3829, "istribution": 12074, "\u00b3": 29203, "oss": 2158, "nung": 15065, "\u2581Were": 25020, "\u2581distance": 5328, "\u2581mold": 20880, "origin": 14651, "Keep": 24205, "\u2581fileName": 25865, "\u1eb7": 30681, "\u2581nicely": 26465, "itionally": 14586, "\u2581affair": 19179, "Source": 4220, "\u2581colour": 11474, "\u2581\u2581\u2581\u2581\u2581\u2581": 428, "\u2581equal": 6530, "\u2581surfaces": 19454, "\u2581Universal": 21874, "\u6848": 30002, "Zone": 13962, "\u2581teams": 6941, "\u2581lies": 10427, "perty": 1612, "\u043a\u0456": 6531, "\u2581\u041e\u0440": 20805, "\ub4e4": 29939, "\u8bba": 30144, "hi": 5365, "\u7ad9": 29992, "spring": 7558, "Override": 3398, "\u2581kt\u00f3re": 26320, "\u2581heter": 23402, "iveness": 9992, "\u2581flame": 23570, "cpp": 5222, "\u2581\u0430\u0432": 8664, "\u2581picked": 7715, "oping": 22970, "partial": 4364, "\u2581elevator": 26445, "uto": 8487, "\u2581mother": 3057, "\u2581locked": 11422, "Inject": 22079, "REL": 27089, "\u2581Can": 2418, "\u2581animal": 8527, "radio": 19036, "W": 28780, "\u2581Outside": 25116, "\u0574": 30569, "\u2581lease": 23741, "\u2581exchange": 8877, "\u2581\u0413\u0443": 24672, "Dam": 18312, "\u00fcd": 12484, "bank": 13719, "\u2581discuss": 3342, "\u2581pot": 2513, "Schema": 7435, "\u2581disable": 11522, "system": 6574, "hero": 28241, "LONG": 20138, "\u0457\u0432": 24299, "\u2581exact": 3459, "\u2581Gl": 3651, "apshot": 8674, "roller": 3462, "\u2581Mobile": 16430, "\u4eab": 30461, "\u2581failure": 7719, "iju": 17411, "\u2581actual": 4695, "--)": 26107, "Pub": 17878, "\u2581disk": 11295, "\u2581m\u00fasica": 23522, "raction": 18296, "\u2510": 31175, "\u2581ge": 2970, "\u2581\u0434\u0430": 5005, "\u043e\u0433\u043e": 14197, "\u2581Historical": 23625, "setText": 15206, "\u2581warrior": 25838, "ixa": 27375, ")^{": 10825, "\u043d\u043e\u043c": 4967, "\u2581Luther": 22370, "reduce": 21334, "orous": 15138, "SG": 18656, "ist": 392, "semble": 11820, "\u2581fueron": 18482, "\u2581submission": 23496, "\u2581unsafe": 15426, "interrupt": 23801, "nc": 14770, "\u2581hal": 10846, "\u2581approach": 4431, "\u2581follow": 1372, "CAM": 21480, "\u2581objectives": 22134, "\u2581parti": 28403, "\u2581ser": 1201, "ctors": 6475, "\u2581tournament": 14809, "\u2581tanto": 17689, "\u2581Medic": 12808, "\u2581deter": 19211, "\u0441\u0442\u0443\u043f": 15796, "\u2581Trans": 4335, "ienne": 10605, "Fatalf": 28423, "emos": 24852, "two": 10861, "lon": 15161, "\u0445\u043e\u0434": 16363, "\u2581Tel": 18358, "\u2581itself": 3837, "\u2581Stock": 11548, "\u2581Friedrich": 17277, "\u2581Council": 7457, "\u2581recently": 5915, "\u5d0e": 31686, "ulus": 16894, "limp": 22305, "Prim": 18888, "\u2581fears": 20142, "pu\u00e9s": 12873, "\u2581Indeed": 12876, "\u2581Corn": 12506, "\u2581actor": 10964, "ano": 2503, "\u2581enc": 2524, "Phone": 11181, "\u2581reads": 16336, "\u2581m\u011b": 18076, "\u2581Filter": 19207, "\u2581befind": 19856, "\u2581giugno": 25442, "\u2581AR": 6108, "cciones": 24598, "kwargs": 12570, "\u0151s": 28153, "\u2581Pays": 26828, "\u2581Better": 18862, "cola": 26871, "().": 1546, "\u2581\u0433\u043e\u0434": 16994, "\u2581held": 3336, "\u2581colleg": 15955, "parameters": 11438, "\u2581only": 865, "\u2581simple": 3588, "\u04b1": 31357, "\u8bb0": 29442, "\u2581cin": 7132, "dates": 8097, "\u2581Engine": 9387, ",\"": 862, "ubernetes": 20563, "\u2581Appe": 24876, "tik": 21573, "\u2581Zag": 28145, "\u015a": 29009, "\u2581MT": 23619, "neath": 20316, "\u2581Elect": 10394, "People": 21794, "\u2581custody": 28103, "\u2581wur": 2826, "aut": 1228, "\u2581deeply": 11869, "\u2581persu": 14861, "\u3046": 29620, "imental": 15402, "\u2581traff": 7676, "EXT": 4036, "\u2581joint": 9353, "dataset": 18200, "\u2581mole": 12160, "\u2581Ek": 27659, "\u2581strong": 2967, "\u2581death": 3168, "\u2581colleagues": 15137, "\u2581self": 1008, "\u0439": 28819, "\u2581{};": 10451, "\u2581Day": 5399, "]}": 9205, "raz": 5237, "aten": 6486, "\u2581harm": 6241, "\u2581Bloom": 23451, "ktr": 20412, "\u0e50": 29225, "\u2581IE": 20244, "\u2581upright": 27525, "ke": 405, "rente": 17228, "\u2581coordinate": 17237, "\u2581routine": 11935, "console": 14124, "\u5e10": 31790, "getData": 25842, "={": 2408, "\u2581Ord": 22404, "\u2581women": 2525, "stock": 16471, "\u2581centuries": 14997, "marks": 17181, "Windows": 7984, "\u2581cours": 19780, "C": 28743, "\u5219": 29310, "\u2581sorted": 17952, "proc": 11274, "\u2581\u00e9qu": 18124, "azi": 19597, "\u2581Mo": 6885, "athol": 23593, "agu": 12736, "!\");": 22896, "\u2581parked": 23643, "<0x34>": 55, "atra": 21909, "\u2581Maz": 25131, "\u2581second": 1676, "\u2581Por": 12401, "\u2581energ": 14192, "\u2581complex": 4630, "\u2581Holmes": 20860, "\u2581degree": 6153, "\u25b8": 31939, "andom": 3318, "\u2581Una": 19472, "\u2581emerged": 16188, "\u2581chunks": 28632, "existing": 24049, "ANY": 20601, "aren": 4184, "\u2581transaction": 8966, "\u043c\u0435\u043d": 4029, "\u2581ignor": 15294, "amous": 22226, "\u2581mis": 4052, "\u2581exercises": 20858, "\u2581%.": 23301, "elij": 6796, "opcode": 25304, "\u2581menos": 22148, "}^\\": 11808, "ailability": 13011, "ardless": 26343, "widehat": 11896, "\u2581Kenn": 10960, "such": 18210, "\u2581Polish": 20329, "\u2581wet": 7569, "\u2581Fund": 11051, "useppe": 28697, "\u2581motiv": 8972, "\u043a\u0440\u0430\u0457": 11292, "\u2581Law": 5802, "\u2581inline": 12901, "\u2581hotels": 21739, "\u2581\u0434\u0435\u043a\u0430": 21871, "rase": 10838, "\u2581hyp": 8178, "\u044d": 28888, "ADDRESS": 25100, "\u2581English": 4300, "\u2581convention": 18698, "\u2581Roland": 28552, "\u2581trade": 6226, "ol": 328, "\u2581anx": 8662, "\u2581maintained": 15861, "Upload": 15888, "\u2581pi": 5548, "\u2581duplicate": 27071, "Window": 3899, "\u2581distant": 15569, "colors": 21249, "\u2581pint": 20453, "\u2581Meeting": 25961, "reated": 10322, "\u5c3d": 31430, "acts": 9664, "\u00e8tres": 21412, "olen": 12115, "\u2581Hug": 13287, "Strings": 24567, "LED": 15319, "lict": 7410, "\u2581LLC": 19401, "pdata": 19890, "\u2581publishing": 20449, "\u2581Julian": 23566, "wend": 23466, "\u2581sources": 7291, "\u2581loro": 16491, "imation": 8258, "cir": 5955, "ML": 3827, "\u2581variations": 19718, "elled": 6099, "\u2581Bag": 17699, "orph": 7591, "ilar": 3052, "nonumber": 8747, "\u2581\u0440\u0430\u0439\u043e\u043d\u0430": 22243, "\u2581screaming": 19455, "\u2581stared": 10138, "\u043b\u0438\u0439": 17000, "\u8de8": 31864, "agg": 7058, "\u2581enjoyed": 10306, "\u2581formation": 11515, "(@": 10680, "\u2581Korean": 17394, "\u2581trees": 7099, "iversary": 17250, "LAN": 9559, "\u2581lasting": 24266, "\u2581mars": 13247, "\u2581terrorist": 25891, "\u7206": 31817, "\u2581likely": 3917, "\u2581resp": 10840, "\u2581softly": 18345, "WR": 7210, "rb": 9312, "\u0439\u043d": 19522, "\u2581coin": 16544, "\u2581HashMap": 20013, "\u2581Garden": 15875, "won": 17959, "Pair": 14064, "\u2581eighteen": 24196, "\u2581verschied": 24360, "\u05d8": 29684, "\u989d": 29880, "\u4ee4": 29752, "\u1e93": 31905, "\u2581\u043c\u0430\u044f": 25034, "\u2581gotten": 10930, "rog": 9617, "riculum": 21582, "\u2581thro": 8379, "<0x57>": 90, "\u0442\u0443": 2509, "\u5fc5": 29593, "ia": 515, "Branch": 21822, "xpected": 9456, "\u2581modo": 20273, "\u2581logic": 11408, "\u2581INFO": 22977, "\u2581region": 4424, "ized": 1332, "Make": 13806, "issenschaft": 16440, "\u2581torture": 26026, "allen": 24878, "\u2581Sol": 6849, "obile": 4414, "\u2581Brand": 14135, "\u2581elsewhere": 14816, "\u2581splitting": 28578, "\u2581Conserv": 12200, "ile": 546, "adays": 25182, "usch": 26628, "\u01b0": 29323, "ubre": 19773, "product": 5646, "ills": 2767, "\u043d\u0438\u043a": 5647, "\u2581bother": 11026, "\u2581bless": 14389, "CLK": 14711, "\u2581Bent": 22094, "\u2581morning": 3970, "\u5706": 30952, "Description": 7301, "ARD": 11101, "<0x3D>": 64, "\u9580": 31031, "owners": 24689, "\u2581Bened": 23391, "pection": 16455, "trfs": 26969, "Id": 1018, "ique": 1651, "ienia": 24817, "\u2581unconscious": 21580, "}/": 5865, "\u2581engineering": 13320, "eper": 7928, "\u8986": 31079, "\u2581conversation": 7114, "\u2581Jung": 28551, "\u2581thirty": 9418, "\u5c42": 29990, "\u2581who": 693, "\u2581angel": 23190, "/\\": 8673, "\u04c0": 31731, "\u2581kom": 5626, "ieme": 24755, "\u2581Gra": 19095, "Month": 15605, "BUS": 18680, "touch": 20136, "v\u00e1": 15504, "isc": 8286, "\u2581Exper": 11135, "\u2581evt": 25042, "Key": 2064, "adio": 24745, "\u2581According": 6586, "\u2581materials": 7069, "\u2581burden": 18396, "\u2581eternal": 25391, "\u00d3": 29125, "\u2581enh": 8050, "\u2581LI": 12149, "\u010de": 27351, "irect": 1297, "\u2581\u043a\u043e\u0442\u043e\u0440\u044b": 10266, "\u2581fran\u00e7": 10530, "\u2581promised": 13272, "\u2581flower": 14994, "CESS": 7077, "\u2581\u041a\u0438": 11364, "\u2581comply": 27439, "neut": 23806, "\u044e\u0449\u0438": 10645, "Enabled": 7315, "aping": 13887, "\u2581concerned": 9059, "\u2581Med": 2998, "\u2581bij": 10826, "\u2581Innov": 24013, "\u2581hr": 15384, "\u9675": 31593, "\u2581behavior": 6174, "erie": 15519, "\u2581Engineering": 17202, "\u2581theories": 17234, "\u4f4f": 30705, "\u2581vie": 11198, "\u2581machines": 12155, "resume": 24166, "\u2581News": 7615, "\u2581gathered": 13398, "\u2581individuals": 6992, "\u2581appreci": 7415, "\u3087": 31628, "\u2581Certain": 20828, "\u2581drift": 18101, "\u2581hallway": 23655, "\u2581registration": 14409, "\u2581delet": 21750, "\u2581module": 4597, "\u2581exemple": 26260, "\u00e9sz": 18431, "\u2581ranking": 21620, "\u2581loyal": 13457, "cycl": 21369, "\u2581prem": 5146, "\u043b\u043e\u0432\u0435": 13587, "\u2581rx": 21451, "\u2581apparent": 7566, "Sk": 9150, "\u2581gouvernement": 27125, "\u2581epoch": 23784, "\u043d\u0443\u0442": 27452, "fish": 16483, "Destroy": 17520, "Buttons": 27178, "\u2581crown": 22718, "\u2581Dav": 3476, "\u2581appealing": 27168, "ORK": 13351, "\u2581tackle": 23907, "undo": 8569, "iking": 16040, "\u2581Opt": 15767, "\u2581story": 2838, "Loaded": 24368, "\u2581<": 523, "Stop": 10543, "\u514d": 30596, "la": 2220, "\u2581haut": 24373, "{\"": 6799, "\u2581include": 3024, "orage": 3374, "\u2581license": 6801, "\u2581shipping": 13369, "ride": 2579, "atalogue": 10626, "uve": 22322, "Rom": 28018, "u": 28718, "\u2581Kids": 21186, "\u10ee": 30306, "eted": 14610, "\u2581inequality": 17522, "\ud83d\udc40": 31232, "\u2581mad": 7245, "\u2581Lloyd": 23768, "neh": 12667, "eto": 5655, "\u2581shortly": 16434, "unlikely": 21956, "\u2581Micro": 20171, "\u2581alternate": 24597, "ittle": 1490, "\u2581zaj": 28193, "\u2581Squad": 16756, "\u0f7a": 31858, "\u2581\u0446\u0435\u043d\u0442": 12968, "\u040f": 29473, "world": 9471, "\u2581borrow": 14219, "\u2581startup": 25325, "\u2581calling": 6852, "\u2581roz": 9335, "\u2581Sw": 3904, "dup": 20267, "\u2581grande": 11807, "\u2581mand": 9915, "\u2581Nobody": 19816, "\u2581don": 949, "\u2581war": 1496, "ennial": 28339, "Address": 5049, "\u2581haul": 20743, "\u2581venue": 20906, "\u2581py": 8242, "comm": 1805, "\u5f90": 31921, "layer": 10204, "ells": 8855, "ath": 498, "EINVAL": 10902, "maybe": 22817, "\u2581\u0445": 6457, "\u03b9": 28980, "rees": 7803, "\u2581cer": 6942, "\u6865": 31539, "\u2581\":": 20299, "ially": 1929, "once": 11069, "\u2581Album": 13449, "\u2581showing": 8102, "\u2581nouveau": 19341, "\u2581ore": 14712, "\u2581Survey": 24004, "\u2581Eld": 22810, "Search": 7009, "\u2581\u0417\u0430": 6369, "\u2581runs": 7825, "\u2581asset": 13458, "\u6230": 31680, "\ub108": 30933, "\u2581ancora": 28078, "\u2581anchor": 19042, "\u2581dollar": 16996, "\u2581Municipal": 25915, "ilst": 15078, "\u2581Moses": 26625, "agne": 8998, "\u2581XVI": 23528, "\u0441\u0442\u0432": 5050, "\u2581odd": 6939, "\u5fa9": 31711, "eme": 5037, "\u2581slightly": 7191, "\u2581beginnetje": 15739, "\u2581Watson": 22603, "xis": 12658, "ustom": 1635, "\u2581dil": 15872, "\u2581eager": 15381, "\u0434\u0430": 1225, "pod": 16339, "\u2581purposes": 10700, "\u6b0a": 31923, "seven": 28098, "\u2581d\u00e9cl": 27215, "\u2581genu": 11624, "\u2581lig": 18985, "\u2581favourite": 16020, "\ud130": 29665, "peg": 16600, "\u2581conspiracy": 25263, "\u2581dock": 20097, "\u2581ratio": 10554, "\u2581Alexander": 11055, "ulle": 17040, "\u2581bankrupt": 25393, "\u2581processor": 20846, "Re": 1925, "\u2581leur": 10441, "msg": 3932, "Center": 15917, "address": 5540, "\u2581vehicle": 8114, "\u5ddd": 30133, "itt": 785, "\u2581Este": 20586, "\u2581Flash": 25164, "\u0144ski": 20939, "Action": 3795, "\u2581workspace": 28640, "\u2581\u00fa": 6149, "stri": 26229, "\u2581Egyptian": 23900, "jQuery": 15442, "\u2581Tim": 7240, "\u2581upstairs": 21855, "\u2581Start": 7043, "\u2581asshole": 25676, "\u2581jug": 11786, "\u2581wer": 3037, "\u2581\u2013,": 20120, "\u2581viable": 27826, "archive": 23682, "\u00e9rieur": 21641, "\u2581depends": 9618, "itos": 17122, "\u2581subject": 3817, "Push": 19086, "VOL": 25387, "NESS": 11818, "\u2581critical": 7276, "\u2581sober": 26903, "\u2581\u043f\u0440": 25431, "KEY": 6478, "\u5fae": 30091, "sil": 22585, "\u654f": 31703, "\u2581Ground": 22455, "move": 7125, "\u6863": 30532, "sko": 21821, "\u0005": 30550, "itan": 11374, "\u2581decom": 18626, "\u95a2": 30783, "regex": 19782, "\u2581bord": 22183, "\u2581pad": 9010, "\u2581registr": 24113, "\u2581\u0415": 5612, "Loop": 14960, "\u2581Sorry": 19385, "\u0448\u0442\u0430": 26960, "\u0653": 31994, "client": 3305, "\u2581gown": 26736, "Built": 28002, "\u2581Hom": 11537, "\u2581{})": 25226, "\u5f9e": 31517, "\u0432\u043e\u0435": 19224, "anya": 19791, "\u2581glow": 22998, "nested": 28239, "ss": 819, "\u2581manifest": 11052, "\u2581klikken": 15708, "\u2581gradually": 17885, "\u30c1": 29973, "\ud83c\udf89": 31862, "ner": 1079, "\u2581zur\u00fcck": 16460, "edit": 7128, "\u2581Cow": 19283, "\u2581deport": 22146, "Gr": 7406, "\u2581\u0432\u0440\u0435": 8614, "\u2581Diet": 17894, "\u6211": 29242, "Exit": 18385, "\u2581bill": 4875, "\u2581managed": 6900, "\u2581Room": 14463, "xml": 6459, "\u2581unh": 20581, "lv": 21055, "LIC": 24297, "\u2581Setup": 27054, "\u2581Like": 5410, "));\r": 10941, "\u6536": 29507, "plane": 13209, "pped": 3641, "\u2581byla": 23070, "\u2581Warner": 25533, "pse": 19229, "\u2581isn": 3157, "\u5b8c": 29474, "Toggle": 20464, "\u0dba": 31857, "twitter": 22747, "\u8bad": 31154, "\u2581won": 1747, "\u30c4": 30267, "\u2581sein": 6578, "antly": 4218, "\u2581Soul": 20432, "FO": 4521, "\u2581refused": 11390, "\u2581resume": 17863, "hpp": 20567, "\u2581Cha": 23330, "\u2581Pop": 7259, "<s>": 1, "\u2581-*-": 25640, "er": 263, "\u2581In": 560, "tim": 7452, "orial": 8525, "Radio": 21932, "\u2581worm": 25736, "\u2581junio": 25942, "\u2581pump": 12048, "eks": 23810, "h": 28716, "\u0e14": 29488, "ne": 485, "uel": 3009, "\u9928": 31595, "\u2581juillet": 18458, "cdot": 5468, "arget": 1533, "\u2581registered": 11028, "ula": 3712, "dar": 22421, "getCurrent": 28040, "Impl": 6404, "\u2581\u00dcber": 19265, "\u2581Pi": 19488, "\u2581province": 14707, "prim": 15879, "\u4f01": 31159, "\u2581AF": 19577, "emor": 28704, "CC": 4020, "\u2581Fried": 10763, "\u2581effectively": 11466, "\u2581Dylan": 24288, "\u2581Sv": 20810, "Initialized": 24923, "\u2581concert": 14560, "\u2581gardens": 22461, "\u2581Labor": 14160, "\ud50c": 31286, "\u2581/**\r": 20418, "vertical": 24313, "cloud": 8180, "\u2581Ros": 8550, "\u2581dalla": 12102, "\u2581'.": 14067, "\u2581resistance": 12568, "\u6c92": 30931, "\u2581\u0444\u0435\u0432\u0440\u0430\u043b\u044f": 28240, "\u2581plays": 8928, "cipl": 8935, "\u10e4": 30880, "disp": 28223, "\u0434\u0435\u0439": 17650, "\u2551": 30019, "sed": 10192, "Other": 15681, "\u2581llvm": 17629, "\u2581spoken": 14382, "\u2581insurance": 6919, "\u2581recall": 8596, "\u7ffb": 31051, "\u2581tendency": 24516, "oly": 20055, "oyal": 5703, "\u2581BO": 12070, "\u2581Assume": 28024, "BS": 8340, "\u2581beautiful": 4672, "on": 266, "\u6263": 31444, "\u2581drama": 13792, "\u2581Stan": 9034, "DOWN": 17601, "\u2581rifle": 19427, "middle": 25692, "riter": 4178, "igr": 3421, "\\,\\": 15877, "bras": 21420, "\u2581Per": 2744, "\u2581scroll": 11445, "\u5bcc": 31017, "\u00e8ce": 20456, "\u0432\u0438\u0437\u0438": 20943, "recv": 22344, "alph": 18089, "ists": 1583, "oir": 7236, "n\u00ed": 3771, "ims": 7805, "\u2581serve": 7031, "argo": 8473, "\u2581due": 2940, "\u2581fishing": 15189, "\u2581ladies": 16009, "\u2581entr": 7142, "nd": 292, "\u2581competed": 27406, "\u2581navig": 27555, "ined": 1311, "property": 6558, "ouses": 16807, "\ubb3c": 30895, "},": 881, "\u2581Rome": 10827, "Like": 14454, "helpers": 19943, "\u2581Matthew": 15305, "\u2581pushing": 13884, "\u2581dinner": 7854, "\u2581claimed": 10335, "\u2581*\u00ab": 26811, "=\"": 735, "UR": 1990, "\u2581origin": 5016, "\u2581Nach": 7496, "\u2581critics": 20557, "\u2581championship": 16928, "\u2581memory": 4733, "\u2581Ts": 17718, "jj": 23659, "\u2581recommendation": 26077, "frica": 23398, "\u201c": 28835, "ster": 2406, "Sum": 9881, "\u0441\u0442\u0432\u0435\u043d\u043d\u043e\u0439": 25166, "\u2581Bath": 18512, "ij": 1230, "\u2581bonus": 14023, "copyright": 28608, "\u0434\u044f": 10926, "Configuration": 6365, "\u2581Pedro": 18444, "text": 772, "Gl": 6197, "\u2581Assert": 7360, "\u2581Water": 8632, "\u2581enormous": 15322, "\u2581Mercedes": 26501, "\u2581transmit": 20689, "\u2581demonstrate": 16499, "boost": 25658, "\u2581affiliates": 27833, "ad": 316, "\u2581od": 4321, "\u2581overhead": 20679, "wd": 9747, "\u2581drinks": 16195, "INIT": 11613, "cules": 21649, "<0xF2>": 245, "tp": 8024, "features": 14663, "gain": 23634, "\u2581Dennis": 24047, "unregister": 28535, "\u2581Iran": 10942, "iglia": 22616, "\u2581CS": 16594, "\u2581Sarah": 12642, "\u064f": 29587, "it\u00e0": 7327, "univers": 21426, "\u2581cities": 9245, "commons": 26527, "\u2581capital": 5565, "\u2581committee": 13414, "Il": 11356, "\u2581allocated": 19979, "atis": 26709, "\u2581\u0433\u0443": 19210, "\u2581ignorant": 27972, "\u5176": 29450, "\u0650": 29421, "\u2581insights": 20715, "\u2581der": 891, "shaller": 21771, "\u2581Abraham": 22384, "EventHandler": 23273, "ayout": 2633, "\u2581technical": 10067, "\u00e0": 28839, "\u2581knock": 13476, "Where": 9607, "\u2581Staats": 28560, "\u2581presentation": 14909, "poll": 15598, "\u2581worship": 15124, "\u8ba9": 30447, "All": 2595, "\u2581shiver": 25564, "\u2581comprehensive": 15313, "omot": 19614, "square": 21627, "\u2581concern": 4368, "\u2581grandes": 20892, "yer": 8293, "airs": 3379, "Tool": 6778, "Sign": 7384, "\u3083": 31028, "\u043b\u0443": 2932, "]=": 11868, "\u2581spin": 7344, "\u2581choice": 4782, "\u2581denied": 16703, "\u2581habits": 19305, "\u2581embarrass": 13648, "\u2581drink": 4663, "Pattern": 11372, "inode": 9924, "\u2581crypto": 21066, "\u2581cracked": 24734, "\u2581limit": 3607, "owo": 15097, "\u6e90": 29512, "\u2581disc": 2312, "\u2581se\u00f1": 23944, "\u2581magnificent": 27574, "uter": 20073, "\u2581mig": 16089, "iven": 5067, "\u2581Dow": 20271, "\u2581al": 389, "\u2581evil": 10875, "\u2581Mine": 21134, "\u0119": 28864, "\u2581journey": 8123, "\u2581l\u00e0": 26941, "\u2581incredible": 13978, "\u2581schema": 12493, "ussen": 18682, "TOP": 19738, "\u2581\u0161": 10531, "\u2581swung": 21701, "checked": 12413, "\u540d": 29046, "\u2581Murphy": 23940, "\u2581Kim": 10791, "}$": 1211, "\u2581abandoned": 14818, "ATE": 3148, "\u2581Font": 15464, "\u9054": 31246, "western": 22274, "voice": 14199, "\u2581\u0431\u0443\u0432": 17623, "\u2581reason": 2611, "\u2581royal": 13753, "\u2581k\u00f6r": 28059, "\u2581have": 506, "!'": 8873, "ily": 1106, "jsce": 19509, "hold": 5750, "\u2581Police": 12338, "plement": 3793, "\u2581germ": 23157, "\u2581course": 2363, "Found": 8127, "\u2581\u00e4r": 3554, "\u2581dummy": 24084, "\u2581articles": 10437, "compress": 26973, "(%": 16256, "\u2581);": 1936, "\u2581Germany": 7293, "TRY": 13224, "\u2581Lie": 9020, "\u2581luglio": 27059, "\u2581schools": 7373, "POL": 21411, "\u2581cod": 18128, "\u2581retained": 25764, "\u2581function": 908, "urls": 25110, "\u2581econom": 3620, "\u96f2": 31986, "\u0441\u0442\u044b": 20495, "\u2581gallery": 18805, "\u2581achievement": 22196, "seconds": 23457, "ze\u015b": 21902, "\u2581fra": 6388, "************": 17328, "\uccb4": 29823, "\u2581musical": 9158, "\u2581denen": 27796, "\u2581warriors": 26510, "**": 348, "\u2581parameter": 5621, "activate": 21452, "\u2581Letter": 22279, "\u2581Tun": 22756, "\u2581outfit": 24842, "\u2581nic": 15750, "\u2581intr": 7677, "\u2581december": 22155, "\uc6b8": 31758, "makers": 22016, "\u014d": 28934, "pyx": 9004, "\u2581esta": 12404, "\u043d\u043e\u044e": 19130, "RPC": 22115, "\u2581threatened": 17351, "\u2581Butter": 28182, "\u788e": 31898, "\u2581nouvelle": 24303, "Sec": 6291, "<0xE8>": 235, "\u2581tren": 20704, "\u2581Institute": 8624, "\u5e73": 29549, "\u2581i": 613, "\"},": 7706, "\u5e97": 30219, "f\u00fchr": 15491, "\u2581Linux": 19486, "\u2581get": 625, "\u2581Cole": 15128, "\u2581comb": 3006, "ested": 7848, "\u1f00": 30529, "\u2581shore": 17298, ".;": 19362, "charg": 14950, "iddle": 3287, "\u5bfa": 30799, "skiej": 21603, "\u2581Memorial": 18506, "\u2581submar": 26680, "amente": 3958, "\u2581\u043d\u0435\u0441\u043a\u043e": 24503, "\u2581lag": 16369, "\u2581honest": 6858, "\u2581Thanks": 8868, "hav": 8832, "\u2581spotted": 20958, "########": 3590, "Native": 12557, "\u2581mens": 24644, "\u2581Starting": 25503, "\ub79c": 31256, "\u00e8res": 9603, "abstract": 15474, "\u2581\u0444\u0435\u0432\u0440\u0430": 25224, "GB": 6903, "\u2581\u043d\u0430\u043b\u0430\u0437\u0438": 27108, "ight": 454, "mente": 4379, "jud": 14042, "\u2581Missouri": 20611, "follow": 23951, "unts": 25985, "\u2581mom": 1948, "\u2581rush": 16002, "uff": 1292, "Info": 1895, "\u6cb3": 30143, "itty": 12032, "soc": 10267, "attery": 18286, "modal": 13742, "\u2581bloody": 17880, "$('#": 24546, "\u2581READ": 24805, "\u52a0": 29058, "\u5019": 30054, "\uae4c": 30578, "iew": 825, "setminus": 19847, "nl": 14476, "interest": 20835, "\u8fbc": 30974, "\u5403": 31182, "\u2581Barcelona": 16835, "\u2581cock": 12408, "\u2581\u044f\u043d\u0432\u0430": 22697, "\u2581Kaz": 16359, "\u2581mind": 2273, "\u2581\u0430\u0432\u0442\u043e": 14460, "\u2581GC": 22278, "\u2581grud": 24332, "cipe": 24535, "icky": 19722, "\u2581advocate": 25320, "atable": 18671, "ghai": 25801, "\u2581Taiwan": 22463, "\u2581recur": 18901, "\u2581sheer": 23339, "off": 1769, "\u2581sharply": 26002, "\u95e8": 29870, "bst": 14370, "htt": 1920, "random": 9121, "Clip": 21271, "Http": 5775, "\u2581volunteer": 21311, "})$,": 25744, "\u2581bog": 24838, "\u2581sod": 19769, "\u2581extraord": 14577, "\u30eb": 29182, "\u2581energy": 3408, "\u2581[];": 9965, "\u0e0b": 31049, "\u2581described": 5397, "\u2581arriving": 24212, "ly": 346, "\u2581Ag": 3786, "\u2581Amer": 1660, "builtin": 24916, "\u201f": 31925, "\u2581Computer": 20466, "Accessor": 24123, "\u2581Terry": 21373, "\u2581programme": 14441, "Multi": 10889, "\u2581factor": 6999, "\u2581Grey": 22064, "\u2581static": 1062, "\u2581Crime": 25126, "unal": 24764, "\u2581retail": 11603, "\u2581blue": 5045, "eping": 11734, "ograf": 5285, "\u2581punto": 22791, "Convert": 16311, "XR": 23576, "size": 1428, "\u2581shocked": 18809, "\u2581Norweg": 25067, "\u2581larg": 3201, "\u2581Spect": 22636, "ylon": 22956, "\u2581a\u00f1os": 11048, "\u2581cro": 7950, "\u2581waste": 9396, "ross": 1556, "posed": 4481, "stan": 13511, "\u2581Lond": 17681, "\u2581tremendous": 23943, "\u2581repeatedly": 20253, "\u5922": 31494, "RESET": 22867, "oooo": 24438, "\u2581reminded": 14795, "\u2581Wednesday": 11463, "Constraints": 24451, "\u2581Mc": 3283, "\u2581df": 13808, "Battle": 24747, "\u2581Size": 13909, "\u2581d\u00e9m": 25504, "isches": 23458, "\u2581*(": 6902, "\u2581bibli": 22426, "zung": 25397, "Period": 18749, "\u2581rolled": 12183, "\u2581Http": 11161, "\u2581dropping": 19183, "\u2581authentication": 20658, "\u2581\u0443\u0447\u0430\u0441\u0442\u0438": 25337, "inand": 24858, "(:": 7306, "\u2581\u2026": 8140, "\u2581desktop": 24702, ",\\,": 21946, "space": 3603, "Body": 6982, "\u2581coach": 7786, "unc": 10474, "\u00f6ffentlicht": 28106, "est": 374, "MAG": 16271, "\u0440\u0435": 800, "--": 376, "\u2581filling": 15990, "\u2581lon": 16341, "Contin": 22610, "Chain": 15162, "\u2581meille": 24515, "nitt": 20845, "\u2581Craig": 21260, "\u00aa": 28956, "\u2581extract": 9131, "Selector": 8185, "Because": 17098, "typ": 23306, "\u2581teas": 24789, "imat": 24022, "grade": 7844, "&#": 27440, "Authentication": 19504, "\u2581(!$": 23942, "etta": 16631, "\u201d.": 7445, "xygen": 19303, "\ud310": 31334, "\u043d\u0430\u043b\u0438": 24229, "\u2581Gh": 15526, "\u041c\u0430": 21995, "\u2581hard": 1856, "\u0440\u044b": 4092, "\u2581n\u00e9cess": 25881, "\u2581Apply": 23160, "\u2581Estado": 26507, "\u2581Drag": 23185, "\u00edcula": 19858, "ieb": 25295, "\u2581boat": 9088, "\u2581att": 998, "Ill": 15497, "icher": 16151, "\u2581presc": 20791, "\u723e": 31827, "abet": 20213, "\u2581pulse": 20984, "\u0445\u043e\u0434\u044f": 21647, "\u2581gal": 7514, "rez": 11223, "USB": 16323, "ijk": 17722, "\u2581inverse": 22668, "\u2581fut": 2765, "\u0418": 28892, "\u2581Imm": 25555, "\u2581Rub": 12178, "eur": 7093, "\u2581breeze": 24284, "\u0434": 28799, "issant": 28438, "\u2581Lo": 7300, "mond": 8025, "HW": 16352, "\u2581volunte": 10917, "\u2581screamed": 22878, "\u2581True": 6110, "\u2581myth": 13345, "\u2581Cloud": 13832, "\u2581overview": 23094, "\u2581individ": 3004, "van": 7675, "\u2581Geb": 11848, "NonNull": 22247, "fragment": 23499, "\u2581Fernando": 24302, "\u2581Golf": 22932, "\u2581albums": 19888, "\u2581contents": 11337, "\u043d\u043e\u0457": 10625, "ici\u00f3n": 10910, "\u2581SL": 20375, "\u0570": 31378, "\u2581temple": 14842, "\u2581apr\u00e8s": 12986, "VIDEO": 28323, "lyn": 12998, "\u53f0": 29677, "\u2581conced": 25402, "zh": 13881, "\u2581caract": 21825, "\u2581exports": 10679, "Det": 5155, "\u2581&\\": 9223, "\u2581fr\u00e5n": 13738, "\u2581released": 5242, "\u2581non": 1843, "\u043f\u0435": 3703, "\u00e9d": 4652, "\u2581Commander": 22690, "\u0434\u0430\u0440": 9211, "language": 11904, "\u2581upcoming": 17962, "\u2581portfolio": 19125, "ads": 6722, "izing": 3864, "\u2581Frederick": 21880, "\u2581quart": 14070, "\u2581garlic": 25795, "()}": 25800, "\u2581Commerce": 27535, "\u064e": 29104, "\u2581multi": 6079, "\u5f85": 29876, "\uc608": 30542, "\u99c5": 31018, "\u5473": 31170, "Contact": 18003, "\u2581diagonal": 25202, "ech": 5295, "\u2581zap": 19060, "Shop": 22775, "\u2581Haw": 9402, "\u0441\u043a\u043e\u0439": 4683, "\u2581adult": 6555, "CLO": 22132, "\u8fde": 29641, "\u2581psy": 5523, "\u2581pam": 26362, "\u2581fert": 16559, "\u2581Report": 7431, "\u2581Vent": 22524, "\u2581pockets": 21702, "\u2581\u0440\u043e\u0437": 9355, "\u2581migr": 11205, "\u2581\u041c\u0438\u0445\u0430": 22887, "\u2581token": 6029, "\u2581digging": 27645, "\u2581WM": 27704, "\u4fe1": 29080, "Errors": 16958, "\u2581Sue": 22516, "\u063a": 29621, "amps": 10991, "ade": 770, "\u2581flames": 24677, "\u2581).": 11505, "\ufe0f": 29096, "etheless": 19159, "berg": 4146, "\u2581Builder": 14942, "\u2581sz": 4301, "\u2581afterwards": 19272, "NM": 25860, "ling": 1905, "run": 3220, "events": 10829, "\u2581Tat": 28087, "\u2581kingdom": 17782, "\u2581Marcatori": 27916, "ital": 1803, "\u2581additionally": 26457, "\u2581same": 1348, "\u2581abruptly": 28586, "\u2581probable": 22124, "tab": 4252, "Tok": 14563, "----------": 16417, "\u0436\u0438": 3139, "CSS": 19633, "\u2581National": 3610, "\u7814": 30943, "\u2581jan": 10060, "aire": 5731, "\u2581deleted": 15185, "\u5df2": 29235, "ockets": 18473, "\u2581fist": 21952, "\u2581Gordon": 15937, "}^{": 3041, "RIP": 16373, "\u2581courtesy": 25826, "\u2581Over": 5235, "\u2581diseases": 18257, "\u00e9ment": 22952, "eken": 23715, "\u2581investigate": 17214, "\u2581quelques": 22789, "\u2581generate": 8270, "arg": 926, "\u0442\u0435": 1078, "Ship": 24946, "rob": 18443, "\u2581beast": 23688, "fall": 9197, "\u17b6": 29847, "Database": 9906, "\u2581Android": 12654, "\u8bbf": 30164, "\u2581generous": 20161, "\u2581realize": 8168, "\u28ff": 29934, "\u2581restaurant": 9926, "\u0447\u043d\u043e": 7869, "\u2581XVIII": 23984, "\u2581return": 604, "published": 27414, "Submit": 19832, "\u8d5b": 31281, "\u2581As": 1136, "blog": 14275, "Sure": 22099, "tem": 20515, "\u2581strongest": 27686, "removeClass": 22705, "\u2581images": 6203, "\u2581interval": 12571, "\u2581Matrix": 22711, "\u2581)": 1143, "`": 28832, "\u2581indicator": 24492, "member": 9978, "opter": 15136, "\u0449\u0443": 23904, "iced": 5200, "\u2581caf": 18302, "\u2581Rah": 20398, "!=": 14379, "\u2581im": 503, "\u2581Agreement": 23377, "hetic": 8696, "Al": 2707, "closed": 12848, "\u786e": 29529, "\u2581poco": 20324, "ody": 1174, "cons": 6524, "\u2581<!--": 12828, "\u2581east": 9005, "Times": 17473, "\u2581intimid": 26157, "PR": 4402, "tz": 19540, "\u4e61": 29971, "\u2581condu": 8667, "\u2581plus": 3285, "pair": 10402, "\u2581exotic": 27541, "first": 4478, "\u2581Please": 5919, "\u2581Liberal": 18736, "\u043b\u0435\u043a\u0441\u0430\u043d\u0434": 16109, "egin": 1278, "\u2581obligations": 26405, "\u2581\u0408": 22892, ")$.": 7239, "progress": 13763, "\u0432\u0430\u043d\u0430": 28358, "EL": 2980, "******/": 15212, "\u043c\u044b": 9379, "\u2581consequence": 17255, "\u2581Verein": 20017, "\u2581warning": 9536, "\u2581municipal": 15539, "\u2581WP": 26764, "\u043e\u0432": 14592, "avity": 16012, "\u2581tissue": 18983, "\u2581case": 1222, "$$": 10811, "\u2581\u00d7": 15770, "Cmd": 10490, "riterion": 23218, "()[": 19482, "bound": 7250, "ab": 375, "Dr": 9587, "\u2581biological": 21549, "\u2581sap": 23061, "lica": 24534, "\u2581ib": 12964, "DATE": 13495, "\u2581impacts": 26336, "\u8f74": 30788, "find": 3326, "\u2581Bro": 4168, "CPU": 16102, "\u2581Negro": 23725, "\u2581Mon": 3217, "\u2581complained": 25057, "\u2581!": 918, "aco": 11536, "agine": 16816, "grund": 19878, "Hot": 22539, "\u2581recipient": 23841, "\u573a": 30082, "\u2581eine": 3834, "\u2581/*": 1385, "\u0916": 31230, "\u2581suggested": 8750, "\u677e": 30617, "\u2581Cette": 17365, "replace": 6954, "pdev": 14337, "\u2581Own": 16545, "poss": 6338, "\u2581however": 3545, "require": 6351, "lio": 11126, "\u043a\u0440\u0438": 17072, "\u2581quick": 2936, "ournal": 7116, "\u2581engines": 17048, "\u2581cement": 22701, "rotation": 26688, "\u2581helped": 6481, "\u0442\u0435\u043b\u0435\u0439": 16871, ".).": 15745, "\u05d9": 29005, "\u2581restrict": 8336, "ild": 666, "[\\": 7535, "\u2581Illegal": 17352, "resolve": 12555, "\u2581pip": 25416, "referto": 28557, "\u2581\u0457": 17452, "WC": 23046, "\u2581assertTrue": 21923, "\u7c73": 30752, "\u2581poz": 22571, "\u6613": 29945, "igua": 27614, "\u2581November": 4349, "\u2581alive": 8630, "arding": 20003, "EV": 7321, "\u043d\u0435\u043d\u0438\u044f": 23993, "\u0441\u043b\u0443": 16467, "\u2581[\u2026]": 22819, "\u2581meal": 11314, "\u00e9m": 4854, "\u2581developments": 22310, "\u2581dou": 4259, ";\r": 1271, "\u2581Asian": 13464, "\");": 1041, ">?": 23911, "\u2581thermal": 18966, "ookie": 10235, "\u2581writers": 12488, "_": 28730, "\u2581Jord": 12116, "\u2581poet": 8796, "\uc8fc": 29557, "\u2581besk": 11899, "ots": 1649, "<0xCD>": 208, "\u2581bat": 9753, "amar": 11369, "Static": 13232, "rif": 10786, "\u2581AG": 14778, "lineto": 12582, "Lines": 21837, "\u2581apart": 7413, "usion": 3623, "\u0415": 28907, "\u2581Leonard": 25298, "\u2581posts": 10005, "\uff5e": 30328, "\u2581accus": 21786, "jo": 4881, "mand": 20478, "\u6240": 29163, "\u2581corresponds": 16535, "isha": 22674, "\u2581soph": 16500, "Mart": 21787, "\u2581marine": 22983, "\u2581puls": 26691, "\u1e29": 31913, "\u2581hydro": 15208, "\u4eca": 30316, "\u2581febrero": 27906, "aligned": 15742, "columns": 15184, "\u805a": 31897, "\u2581art": 1524, "\u2581Sport": 11093, "zig": 16318, "\u2581Convert": 16186, "aci\u00f3": 7094, "ISTER": 22633, "\u60f3": 30023, "Sch": 9979, ".[": 20011, "\u2581angles": 22289, "\u5207": 29961, "igs": 11878, "\u2581diet": 9751, "filename": 9639, "\u2581\u0440": 13318, "don": 11112, "\u2581interrog": 28197, "helm": 15980, "aj": 1150, "falls": 16768, "\u2581revenue": 14008, "phy": 8071, "\u2581took": 2056, "\u2581hop": 4654, "\u043f\u0440\u0430": 7143, "OM": 4341, "\u2581Session": 18824, "Download": 20454, "\u2581anything": 2424, "<0x31>": 52, "\u2581circumstances": 10139, "\u2581Yan": 18421, "compile": 18434, "\u0e1e": 29786, "\u2581pract": 2844, "anks": 3750, "price": 11020, "Namespace": 13292, "\u2581n\u011b": 21500, "\u2581wyn": 27769, "\u043b\u0435\u0442": 20043, "mysql": 20235, "\u6d1e": 31242, "\u5934": 29640, "\u2581sour": 18193, "\ud83d\udc95": 31551, "\u044c\u044e": 16283, "Engine": 7003, "\u2581occurring": 28265, "aba": 5544, "\u2581HE": 14904, "DITION": 11160, "\u2581entering": 15435, "typen": 25835, "\u2581enter": 5870, "Manifest": 27980, "\u2581seek": 5695, "<0x3C>": 63, "xspace": 15372, "','": 6078, "\u2581attribut": 19096, "canvas": 19670, "ook": 600, "Props": 7314, "xC": 9075, "lings": 15073, "agnostic": 13685, "\u2581idi": 25927, "\u7fa4": 30204, "\u538b": 30563, "\u2581seeking": 11246, "i\u00e8me": 17803, "\u2581Dev": 6624, "\u2581walls": 8133, "\u2581camb": 15700, "Bot": 25288, "\u2581Recent": 27727, "\u2581fe": 701, "nas": 16405, "\u2581sir": 10116, "\u2581distingu": 11731, "\u2581Keep": 10339, "\u2581method": 2038, "\u2581Jos\u00e9": 12369, "{},": 15691, "\u2581hey": 28139, "\u2581determines": 25374, "\ub85d": 29832, "\u8fce": 31366, "\u0442\u0435\u043b\u044f": 17371, "r": 28712, "\u51b3": 30668, "\u2581Gen": 6242, "abs": 4737, "\u2581small": 1741, "ass": 489, "_{": 787, "\u2581/******/": 19250, "\u2581Adv": 10822, "\u2581reaction": 10285, "\u2581initiatives": 25060, "\u2581TABLE": 23740, "rn": 27094, "\u7ed8": 30684, "arna": 10903, "ther": 620, "\u2581Diego": 15289, "\u2581pelo": 16432, "\u2581PER": 22015, "\u2581closer": 7887, "\u2581..": 8072, "Mil": 28355, "uum": 14388, "\u2581Media": 9347, "\u2581Community": 11027, "\u2581discovery": 15043, "We": 2324, "ana": 2238, "\u00bf": 28970, "\u9060": 31764, "\uc2dc": 29236, "\u2581priests": 27677, "\u2581funding": 12131, "\u2581sensitive": 13509, "\u2581clip": 13061, "\u2581involving": 14971, "gb": 15881, "\u2581Fern": 10830, "Seconds": 20852, "Dem": 16989, "\u2581$\\": 878, "\u2581foo": 19222, "\u0441\u0442\u043e\u0432": 27321, "(\"#": 11082, "ancel": 8046, "\u2581ly": 18467, "idden": 4131, "\u2581S\u00e3o": 18615, "iblic": 25624, "\u2581experiencing": 20998, "FA": 3120, "apan": 4209, "reement": 18090, "models": 8676, "spl": 15213, "\u2581intersection": 19837, "\u2581Viet": 11224, "\u8d70": 30585, "\u2581estim": 6010, "\u2581amazing": 6821, "\u5199": 29503, "\u2581Sim": 3563, "\u2581Mess": 13976, "\u2581soon": 3403, "jection": 7183, "\u2581term": 1850, "\u2581Features": 20900, "ateg": 2026, "\u2581Five": 15243, "\u2581unnecessary": 22376, "olin": 27545, "compute": 16753, "\u2581Expl": 13702, "zte": 14798, "SYMBOL": 17248, "OUTPUT": 23923, "\u2581laughing": 14827, "\u2581aims": 20566, "\u0447\u0430": 1956, "*).": 12619, "Pan": 22922, "\u00e1j": 25187, "\u529b": 29588, "emph": 7883, "\u2581Holy": 12830, "\u2581end": 948, "dir": 3351, "\u2581Unlike": 17383, "MARK": 27466, "\u2581\u0441\u0435\u043c": 28533, "\u0c30": 31190, "Ed": 3565, "fa": 6024, "\u2581\u043f\u0440\u0430\u0432\u0438": 18534, "\u0431\u0435\u0440": 10254, "\u043a\u0442\u043e": 13483, "\u2581populations": 19439, "imag": 25069, "endl": 15858, "\u2581\u043e\u0441\u043d\u043e\u0432\u0430": 25621, "ART": 4520, "\u2581membr": 25983, "\u2581cottage": 27270, "ave": 458, "\u2581hidden": 7918, "Tab": 7560, "\u7a0d": 31425, "\u2581Natur": 21749, "\u2581hoping": 11114, "board": 3516, "\u2581standard": 4787, "\u2581dice": 22544, "Fil": 4193, "\u2581issued": 11793, "\u2581merely": 10783, "onomy": 15631, "\u05d2": 29632, "opyright": 4477, "n\u00e1": 20946, "gro": 25344, "\u010f": 29365, "what": 6802, "goto": 5257, "\u2581worry": 7980, "\u5220": 29327, "Miss": 14252, "okrat": 27765, "\u2581Ukraine": 16654, "\u2581\u043a\u0430\u0440": 17438, "\u041d\u0430": 24192, "\u2581intense": 14373, "aaaaaaaa": 25332, "\u2581gaz": 14961, "oses": 14779, "resse": 25848, "ondo": 23743, "\u21a9": 30954, "oshi": 27605, "\u6a02": 31918, "Context": 2083, "die": 16305, "\u2581champions": 27345, "ever": 1548, "ware": 1706, "ABILITY": 9287, "erra": 9718, "\u2581regards": 22573, "\u2581\u0432\u0443": 27983, "udge": 24763, "zone": 7795, "\u2581s\u00f3n": 28155, "\u043d\u0443": 2954, "\u2581Thus": 7110, "\u2581facial": 27187, "\u2581Fed": 22377, "annels": 7229, "status": 2837, "late": 10020, "\u2581position": 2840, "upp": 13213, "approx": 14561, "\u2581Pa": 8144, "\u2581Blog": 21095, "\u00f6lker": 26087, "\u8fd0": 29798, "\u2581Como": 24428, "urn": 453, "parents": 20415, "command": 6123, "\u044c\u044f": 23224, "\u2581ges": 10665, "ribut": 1030, "\u2581chocolate": 14403, "\u2581portable": 26337, "izione": 12769, "\u0446\u0438\u0439": 22940, "insula": 27155, "ISD": 24375, "\u9648": 31258, "\u0434\u0435": 1903, "\u2581Ah": 10103, "\u0446\u0438\u043e\u043d\u0430\u043b\u044c": 20104, "State": 2028, "El": 5773, "Instruction": 18066, "\u2581sost": 27498, "\u2581Sym": 12356, "\u2581argued": 14939, "\u2581friendship": 17511, "sources": 26155, "Word": 15170, "\u2581fusion": 22104, "\u2581Java": 11639, "nio": 22943, "ce": 358, "\u043b\u0435\u043d\u0438\u044f": 9324, "USER": 11123, "\u2581China": 5077, "\u0441\u043a\u043e\u043c": 9330, "append": 3308, "\u0018": 30555, "\u2581contributions": 14036, "immer": 14917, "antine": 24120, "\u2581\u00f6ver": 14509, "\u2581rug": 13644, "urd": 12725, "disable": 9613, "\u2581Virtual": 19032, "ajor": 2577, "hist": 6575, "\u2581exceptional": 20202, "\u2581Controller": 25677, "\u2581s\u0103": 14377, "\u1f08": 30966, "irst": 777, "\u2581Dire": 19370, "\u2581az": 4767, "&\\": 12331, "\u8bf8": 31205, "\u2581Jed": 24987, "\u2581faculty": 18938, "rake": 21868, "\u2581bre": 3412, "\u2581complexity": 17599, "iginal": 11608, "\u2581preventing": 26031, "**/": 26221, "\u2581Promise": 10197, "quote": 14307, "IS": 1851, "\u2581Fresh": 27376, "\u2581Kil": 16098, "unci": 14281, "DM": 9286, "\u2581Roberts": 18021, "reens": 15565, "://": 1508, "\u2581inhabitants": 23936, "\u2581Rosen": 23368, "<0x0F>": 18, "bour": 6814, "adows": 13456, "\u2581cub": 13563, "\u2581Kentucky": 21509, "\u2581Nations": 16419, "\u2581slim": 24530, "There": 5816, "selves": 3083, "actor": 6875, "\u2581\u0441\u043a\u043b\u0430": 14094, "leted": 5627, "\u2581curiosity": 22953, "\u2581sciences": 23824, "\u0109": 31962, "\u2581classical": 13378, "\u5458": 29602, "\u2581MVT": 26525, "ottage": 21881, "pl": 452, "\u2581plug": 16605, "peat": 15882, "\u0437\u044b": 7763, "\u2581Created": 22982, "\u2581Peak": 27416, "\u2581sale": 7796, "\u2581Giovanni": 21114, "ctr": 12017, "\u2581drunk": 12731, "\u00fclt": 19141, "Setup": 17707, "\u2581sucks": 25033, "\u00e9n": 2864, "hest": 6426, "\u2581operated": 16985, "\ud559": 30711, "\u2581Valid": 12777, "\\_": 14048, "\u2581wooden": 12602, "\u2581village": 6435, "umper": 26089, "\u0baf": 30687, "\u2581approaches": 13945, "\u2581toilet": 19580, "green": 13234, "\u2581sports": 8657, "Named": 21949, "pute": 8145, "ll": 584, "oto": 2587, "SQL": 9295, "\u2581m\u00fas": 18855, "em\u00e1s": 20540, "\u2581Bez": 22627, "\u59cb": 29197, "n\u00e9": 8269, "\u2581stomach": 11752, "\u2581embod": 21322, "CB": 10957, "emplate": 3949, "i": 28710, "\u2581televis": 25483, "\u2581Woman": 20010, "ta": 1100, "urches": 18088, "\u2581onClick": 17201, "\u2581destroy": 6665, "\u2581blow": 9716, "\u2581Railway": 22687, "=\"../../": 9765, "\u2581\u0441\u0442\u0430\u043d\u043e\u0432\u0438": 21206, "plug": 24960, "\u2581logical": 16441, "\u2581m\u00e9d": 15454, "Seq": 25441, "summary": 3499, "idx": 5251, "\u2581viene": 17145, "\u2581criminal": 11392, "\u2581computed": 16860, "\u2581Buch": 17680, "\u2581statue": 22594, "\u300e": 31176, "System": 3099, "\u2581scar": 13356, "}+": 9969, "\u552e": 30917, "\u2581proces": 22234, "verb": 12715, "TRANS": 24941, "ancellationToken": 26217, "\u2581Sor": 21476, "\u2581taught": 9621, "party": 14999, "\u2581\"\"\"": 3504, "`)": 25920, "\u2581impl": 5475, "anter": 27513, "\u2581agric": 11885, "forall": 21524, "\uff0d": 31140, "\u4e2d": 28991, "ev": 828, "leep": 3109, "attachment": 28150, "ain": 426, "be": 1105, "FLOAT": 22695, "habil": 23005, "\u2581innovation": 16863, "\u2581instruct": 12317, "\u2581Mask": 23919, "\u2581z": 686, "ope": 1845, "\u2581neglect": 26902, "AX": 15385, "\u2581ein": 1796, "\u2581matters": 9760, "ynamics": 25705, "idas": 12563, "\u2581Private": 14363, "ISING": 26265, "\u2581box": 3890, "\u80fd": 29084, "\u8d25": 29384, "dot": 7623, "column": 5571, "\u2581spun": 26199, "\u05d1": 29166, "generic": 19105, "\u2581grave": 14272, "kamp": 26747, "\u2581mog": 19841, "\u2581critic": 8394, "elem": 12034, "\u2581devient": 23125, "\u2581Ich": 27774, "\u2581\u00c9t": 14011, "\u2581ghost": 12975, "\u0441\u0442\u043e\u044f": 10185, "\u2581Jama": 26152, "\u2581tenant": 26057, "_,": 6930, "gan": 1262, "\u2581oc": 17918, "\u2581\u0435": 2385, "VER": 3491, "\u2581ids": 26214, "pective": 8524, "\u4ecb": 30739, "anch": 3583, "count": 2114, "pread": 22129, "|^": 16404, "\u2581Api": 23240, "\u2581TE": 21031, "\u2581charged": 11226, "minecraft": 22875, "\u2581circulation": 27307, "lig": 4310, "ename": 2975, "ki": 3430, "\u2581spoke": 7310, "\u2581Graph": 15146, "inth": 18618, "\u2581d\u00e9velopp": 26601, "rieve": 12891, "\u2581Floor": 23395, "Country": 28073, "ungs": 6571, "\u00e7": 28857, "sp": 886, "\u2581based": 2818, "yl": 2951, "\u2581illustrated": 24210, "\u9b3c": 31435, "\u2581adjust": 7392, "uzz": 9046, "aki": 10270, "\u2581evening": 6856, "RES": 9204, "\u0440\u0438\u0439": 16278, "iti": 8236, "oriented": 28113, "\u2581alt": 5054, "\u2581others": 2663, "\u2581Jose": 6282, "\u2581science": 6691, "\u2581\\,": 6545, "\u2581stats": 14269, "\u201c.": 14771, "\u2581exh": 26112, "\u2581Jones": 9383, "\u2581\u00e9d": 21710, "ained": 1738, "\u2581naj": 14110, "\u2581DL": 23478, "uper": 19375, "\u2581conclusion": 12886, "\u2581when": 739, "\u2581Con": 1325, "\u2581speech": 8666, "\ub97c": 29200, "surface": 20942, "\u2581nn": 26699, "\u2581space": 2764, "ede": 6497, "eve": 21111, "\u2581vacation": 16829, "\u2581Board": 9217, "uary": 4084, "ologically": 23651, "\u2581Altern": 16677, "expand": 20994, "\u5b66": 29500, "),": 557, "\u7565": 30223, "\u2581installation": 14843, "Dynamic": 18202, "\u2581theatre": 18635, "python": 17667, "\u1ed9": 29784, "iller": 8878, "shared": 9622, "Connect": 16644, "Sort": 13451, "\u2581beginning": 5398, "FREE": 28137, "\u2581NOT": 5457, "\u2581mapping": 13152, "end": 416, "\u2581heavy": 5917, "\u2581Berg": 14813, "\u00e8te": 21056, "\u2581weren": 8658, "\u2581Lower": 21457, "\u0e49": 29318, "\u2581stepping": 25719, "\u044a\u0442": 14015, "\u2581NAS": 18064, "rench": 4284, "\u2581fix": 6293, "\u2581Stadt": 11363, "\u2581Prop": 12082, "\u2581statistics": 13110, "\u2581regime": 13357, "\u044e\u0449\u0438\u0435": 27615, "ize": 653, "\u0433\u0440\u0430\u0444\u0438": 11075, "Progress": 11195, "Reflection": 24633, "\u2581ut": 3734, "Pending": 18826, "aille": 14286, "\u2581\u041c\u043e": 8968, "\u5ff5": 31329, "parts": 14565, "\u2581blacks": 28101, "\u2581likelihood": 24277, "ison": 2350, "\u2581points": 3569, "\u2581DAG": 24821, "isa": 7682, "others": 15869, "sylvania": 14790, "tos": 28047, "\u0626": 29690, "innen": 17190, "arel": 24104, "\u7f29": 30250, "<0x2B>": 46, "__);": 13928, "\u2581\u0446\u0438": 18950, "ibility": 3032, "\u2581distribution": 6023, "ir": 361, "\u2581Pay": 9260, "\u2581Usually": 23617, "\u2581climate": 11259, "\u2581victims": 13980, "\u5c07": 30858, "i\u010d": 13096, "\u2581respected": 23425, "frastructure": 11932, "\u2581tribe": 25315, "\u2581chances": 14562, "angled": 21086, "\u2581Object": 4625, "Replace": 21392, "\u2581permit": 12748, "iw": 11889, "\u2581preg": 25882, "\u2581tv": 9781, "\u2581chem": 7462, "ffff": 10756, "\u2581crypt": 18649, "\u2581injured": 15714, "\u2581\"</": 23616, "sembled": 20221, "ining": 4038, "\u2581coastal": 27809, "\u00fb": 28951, "\u2581puis": 12410, "\u2581colonial": 20150, "\u2581answer": 4372, "\u043b\u043b\u0435": 16832, "\u2581Ce": 12494, "Writer": 9543, "\u2581CHECK": 9128, "\u2581Student": 15965, "\u2581Against": 27506, "\u2581\u0431\u0435\u0440\u0435": 19945, "\u2581hate": 7665, "Activ": 18127, "\u2581Star": 7383, "ricane": 25253, "\u5c0a": 31935, ".,": 2063, "iterator": 11188, "werk": 16817, "\u2581sacrifice": 19480, ".),": 14439, "\u2581\u043a\u043d\u0438": 21247, "\u2581welcome": 10058, "suspend": 21836, "\u043d\u0435": 1185, "\u2581students": 3567, "virtual": 16604, "\u2581Don": 3189, "ane": 1564, "RD": 15363, "\u2581existe": 26766, "\u2581gener": 1350, "\u2581\u0431\u0443": 5213, "VO": 12539, "\u2581passes": 15167, "\u2581Emer": 16762, "\u2581Lisa": 18999, "Modal": 14025, "\u2581alpha": 15927, "upt": 20413, "\u2581Her": 2584, "\u2581Making": 19387, "Blob": 22388, "underline": 15031, "\u2581queries": 23681, "xt": 510, "alloween": 25434, "\u2581commod": 25794, "\u2581Mic": 8990, "orest": 18115, "\u2581vent": 8061, "alert": 14762, "force": 5712, "stdout": 25080, "\u2581nation": 5878, "diff": 11836, "\u2581adopt": 8799, "ata": 563, "\u2581distinct": 9494, "tmp": 4964, "Li": 27566, "Marker": 19854, "\u2581\u0441\u0435\u043d\u0442": 22283, "\u5b8b": 31403, "\u2581clinic": 24629, "tle": 12834, "Nullable": 16112, "\u2581diabetes": 22794, "OFFSET": 16562, "xA": 18178, "tokens": 20228, "\u2581radical": 14358, "bert": 4555, "\u00e1n": 2892, "\u2581gaze": 12438, "RS": 11306, "\u00eet": 21155, "\u2581autre": 20638, "\u2581Avenue": 13994, "grav": 25849, "\u2581Memory": 19153, "auf": 7397, "__,": 8934, "\u6069": 31866, "\u2581casino": 13638, "\u2581speaker": 17153, "\u2581sur": 1147, "ears": 5940, "\u2581workshops": 26329, "\u2581which": 690, "\u2581district": 7181, "hus": 9710, "\u2581dro": 3483, "\u2581inspiration": 16463, "\u65b0": 29056, "\u0445\u0443": 18668, "\u2581\u043f\u0435\u0440\u0435\u0434": 27844, "valid": 2398, "\u2581highly": 6416, "tainment": 19019, "\u2581CR": 12007, "\uc798": 31484, "\u2581sen": 5351, "Access": 6169, "FW": 18254, "<0x75>": 120, "\u2581jours": 25662, "odd": 26626, "alter": 19831, "OFF": 9770, "\u1e25": 29624, "west": 7471, "\u2581attempting": 18289, "\u1e24": 30231, "\u2581Andr\u00e9": 24046, "\u0441\u0442\u0438": 2266, "cel": 4070, "DAT": 23775, "lights": 12918, "Tube": 13941, "\u2581Condition": 28237, "\u2581curr": 19494, "\u2581consultant": 28459, "plic": 1256, "\u00dfe": 9526, "\u2581temporary": 13415, "\u2581appearing": 19711, "\u2581Edge": 22472, "ensing": 18130, "overn": 5794, "card": 5538, "\u2581incoming": 21850, "uction": 15029, "\u2581vig": 15068, "\u042b": 30584, "\u025b": 29328, "\u2581t\u00e9l\u00e9": 27961, "ixels": 11122, "gren": 27526, "ton": 1158, "\u2581historical": 10578, "ically": 1944, "Ne": 6947, "\u2581physician": 21765, "iro": 4812, "owing": 15675, "\u2581Hunter": 18476, "\u2581heads": 10478, "stre": 12776, "\u2581thinking": 4195, "\u2581dello": 23864, "ports": 2729, "ations": 697, "\u2581beaten": 22771, "ffic": 21533, "hs": 6270, "\u2581undert": 16353, "lam": 5989, "\u2581suicide": 16240, "shots": 26339, "\u5b59": 31206, "\u2581Stalin": 24068, "\u2581ensures": 21091, "\u2581Zero": 23697, "\u2581Ministry": 17036, "\u2581Victor": 12177, "\u2581Average": 27701, "\u2581piss": 17945, "\u093f": 29554, "\u2581oktober": 27660, "\u0153": 28952, "built": 12747, "rus": 17355, "\u2581basically": 10321, "\u2581lust": 28249, "unch": 3050, "nico": 24280, "\u2581caval": 23481, "))": 743, "\u010den": 28616, "\u2581designated": 20444, "\u2581Gene": 25321, "\u2581dai": 22073, "\u2581send": 4080, "\u2581glo": 19720, "arl": 1977, "\u2581tak\u017ce": 25717, "\u043b\u043e\u0436\u0435\u043d": 27137, "\u0448\u0435\u0433\u043e": 26459, "navigation": 22416, "\u2581moisture": 28224, "Value": 1462, "\");\r": 6913, "\u2581mois": 27019, "errno": 17818, "\u2581museum": 13041, "imp": 10750, "Columns": 15468, "\u2581Chain": 28454, "\u2581ki": 12883, "tech": 13429, "\u2581contempor": 23541, "\u2581\u043a\u0430\u0442\u043e": 14126, "oct": 22008, "r\u00e4": 16718, "\u2581Verify": 24544, "esh": 9366, "\u0441\u0441\u0430": 19750, "\u2581climbing": 20873, "inv": 9102, "\u2581blond": 28506, "\u2581collections": 18430, "THOD": 15106, "\u2581downtown": 18530, "printk": 18548, "Role": 10047, "\u2581Ber": 3405, "\u067e": 29483, "\u2581meat": 10228, "\u2581mal": 6125, "attributes": 11855, "\u2581Factory": 24264, "\u2581morte": 24116, "\u7f3a": 31040, "roll": 1584, "\u2581Burn": 13708, "\u2581sop": 16766, "\u2581\u043f\u043b\u043e": 17223, "\u2581Jefferson": 18513, "\u2581reporting": 14438, "\u0441\u0438\u0442\u0435": 15327, "\u2581parl": 18435, "\u2581flowing": 25757, "\u2581erre": 19473, "\u2581Move": 13663, "\u2581niveau": 26706, "yr": 4369, "\u2581Bell": 11395, "\u2581Cry": 20254, "\u2581assume": 7146, "\u2581Protection": 21154, "\u2581cogn": 17464, "\u2581Reich": 16091, "\u0441\u043e\u0431": 26913, "\u043e\u043d\u0430\u043b\u044c": 11954, "vier": 14895, "\u2581Ku": 19698, "\u064b": 30743, "Decl": 7557, "\u2581Chile": 17406, "\u2581Alt": 16589, "\u2581ga": 17041, "mut": 3244, "[:": 7720, "\u030c": 31891, "HOME": 28547, "ainers": 23606, "ully": 21471, "\u2581Chinese": 6707, "\u2581Cons": 5504, "\u2581Henry": 6808, "blocks": 14965, "label": 1559, "\u2581provisions": 22321, "door": 9405, "\u00edlia": 19982, "\u2581flow": 4699, "\u2581climbed": 17070, "\u2581Islamic": 18918, "ren": 951, "\u2581beautifully": 27088, "\u2581connect": 5789, "\u12a0": 31942, "\u2581faces": 10190, "\u2581contrary": 19909, "\u2581smoothly": 28147, "\u2581jam": 15219, "\u0441\u043b\u043e": 12309, "rate": 6036, "github": 6222, "(\"%": 6996, "\u2581depression": 14992, "\u2581keeps": 11478, "\u2581Valley": 10509, "velle": 17348, "\u2581Advanced": 22742, "\u897f": 29633, "\u2581\"$": 7685, "\u2581memor": 15586, "\u043d\u043e\u0432\u0435": 23791, "\u2581un": 521, "cache": 5319, "\u2581Changes": 27157, "\u044e\u0442\u044c": 14611, "PROPERTY": 28575, "\u2581consist": 4817, "nde": 18773, "\u2581Franco": 28289, "\u2581soft": 2664, "\u2581quarters": 22142, "parentNode": 27123, "\u2581evaluated": 23001, "utes": 2907, "PE": 1767, "\u2581Document": 14873, "\u00edm": 9619, "clos": 10413, "cam": 9125, "MESSAGE": 22391, "umph": 14170, "\u54c8": 30737, "avorite": 28463, "\u0441\u0456\u0439": 24020, "\u2581Menschen": 24820, "\u6700": 29190, "\u2581communities": 9750, "\u2581Thought": 26142, "\u2581weit": 17642, "\u2581Further": 9444, "form": 674, "yll": 19530, "addy": 13774, "\uc57c": 30263, "\u2581sweat": 13898, "je": 2099, "heet": 17367, "\u2581Hig": 14327, "agraph": 11280, "\u2581thunder": 25752, "\u2581cyber": 23449, "\u2581minister": 10170, "\u2581END": 21288, "\u2581wise": 16446, "\u2581Heart": 14552, "\u2581Direct": 6055, "\u043f\u0440\u0435\u0434\u0435": 23569, "\u2581conducting": 28698, "\u2581Tree": 14653, "trm": 17800, "\u6258": 30955, "\u2581appet": 22145, "<0x44>": 71, "\u2581argc": 24905, "\u2581\u0439\u043e": 16394, "\u521a": 31319, "\u2581Ad": 1964, "\u2581jul": 17521, "\u2581Churchill": 23142, "\u2581enjoying": 16269, "\u2581otherwise": 5860, "\u2581pm": 10632, "Surface": 18436, "want": 25265, "\u043d\u0430\u0440\u043e\u0434": 19388, "\u2581deserves": 24985, "\u2581twe": 9394, "\u2581gam": 11129, "Boot": 21270, "loads": 28516, "ALLOC": 23513, "\u60a8": 29689, "court": 28129, "\u2581mol": 10250, "iday": 5036, "\u2581Gef": 26566, "\u7db2": 31470, "rotate": 26139, "gebra": 10343, "\u2581Free": 5228, "\u2581terr": 4462, "math": 928, "\u7a31": 31599, "Enumerable": 25303, "\u2581required": 3030, "\u2581Clar": 20225, ":": 28747, "\u2581trading": 11674, "\u2581ents": 20248, "listener": 21904, "Expected": 17015, "arte": 16313, "\u2581crowds": 26674, "\u2581Sweden": 19652, "\u2581Morgan": 15165, "\u2581differently": 16841, "\u2581Dialog": 27304, "\u0275": 29102, "]).": 17927, "egu": 20771, "\u2581R\u00fcck": 25539, "MI": 5877, "\u2581holy": 19214, "Feature": 11636, "\u2581knows": 5960, "\u2581extreme": 12290, "ans": 509, "Force": 19714, "vod": 21166, "\u2581Cameron": 23028, "ov": 626, "REF": 14329, "\u5f8b": 31424, "\u2581Contact": 12603, "\u2581trend": 9156, "\u0434\u0438\u043d": 10173, "\u2581deux": 6935, "\u2581Kol": 15018, "illance": 22740, "cope": 6865, "ilde": 7894, "\u2581containing": 8707, "\u2581treatment": 5827, "cheduled": 23382, "\u3001": 29041, "thumb": 20152, "Som": 22767, "\u2581desert": 13453, "\u043a\u043e\u0432\u0430": 14069, "\u2581AS": 8128, "\u2581updating": 26187, "\u2581regional": 11908, "\u2581abs": 2873, "\u2581mat": 1610, "\uad50": 31012, "\u2581shooting": 11743, "\u2581syst": 18874, "MAIL": 28297, "\u0392": 30431, "\u2581O": 451, "\u2581institut": 9557, "User": 730, "\u6559": 30166, "\u2581subtle": 18842, "\u2581caso": 18980, "\u5df4": 30824, "reedom": 6868, "\u0c97": 31789, "\u2620": 31840, "\u2581anal": 2880, "\u2581max": 2666, "\u2581chaos": 21007, "\u2581dick": 23108, "aus": 1899, "fix": 7192, "\u2581reaches": 18710, "\u2581manufacturers": 19245, "\u0292": 30299, "ionato": 24238, "\u2581\u041c": 1894, "\u5708": 31328, "\u2581backup": 17503, "iffer": 10871, "pletion": 14621, "\u2581James": 4797, "\u2581DB": 11664, "\u00f0": 29092, "\u0007": 30963, "\u2581Br": 1896, "\u2581mag": 2361, "\u6982": 31137, "\u2581Hero": 20827, "\u2581\u041f\u0435\u0440": 14353, "\u0432\u0440\u0430": 27767, "\u2581artic": 22187, "Wall": 27046, "\u2581blob": 25828, "\uc0c1": 29578, "Of": 2862, "oche": 11222, "ENABLE": 12050, "Day": 12422, "\u2581representative": 15312, "\u2581finale": 13163, "\u2581maybe": 4357, "\u2581printf": 11566, "overlay": 27163, "qq": 22736, "NON": 20232, "imb": 18931, "\u5b88": 30992, "\u2581Zealand": 12696, "\u2581INT": 13289, "getValue": 12448, "elde": 27675, "\u2581Russians": 27232, "\u2581imm": 4493, "Hello": 16230, "\u2581ident": 2562, "\u2581males": 21071, "yd": 3389, "];": 1668, "enschapp": 15277, "\u2581purely": 21690, "\u2581Sha": 24872, "\u00e9ben": 23825, "\u2581Bere": 19911, "perp": 21280, "\u3073": 31050, "\u2581Anna": 11106, "lers": 8531, "fully": 3071, "Hor": 16606, "\u2581continuing": 15317, "\u2581Larry": 19861, "\u2581Need": 13678, "\u53ef": 29052, "\u2581Ign": 15923, "\u2581correspond": 10384, "\u2581particularly": 6311, "\u2581vain": 23204, "SSION": 10946, "\u2581\u0444": 2638, "\u2581database": 7499, "ami": 6449, "\u2581inv\u00e5nare": 27158, "\u2581\u0410\u0432": 18031, "\u901a": 29217, "\u2581MO": 9875, "azz": 7130, "\u2581challenging": 14361, "NEW": 19917, "Priority": 21076, "\u2581SET": 17638, "\u2581medic": 7861, "icating": 27623, "\u2581Bruce": 16668, "\u89c9": 31345, "\u2581boss": 10949, "\u2581cpu": 12021, "\u6708": 29376, "\u53d7": 30154, "ito": 3068, "\u00ed": 28827, "ribe": 5748, ":\r": 8230, "\u2581\u0420\u043e\u0441\u0441\u0438": 13325, "\u2581Either": 19551, "MAN": 16357, "\u00a7": 29038, "\u88e1": 31875, "Comb": 22865, "nm": 14946, "make": 6539, "________________": 17226, "Children": 13868, "Write": 5238, "\u2581upload": 12299, "'$": 15023, "tax": 16019, "\u2581silver": 9746, "\u2581lad": 9776, "\u2581'',": 9815, "='": 2731, ",_": 5796, "mutex": 7686, "\u2581zich": 19517, "\u2581scattered": 20995, "\u2581bou": 16720, "\u2581rolling": 15483, "\u2581neither": 9159, "uce": 12783, "\u2581*\"": 20694, "\u2581peaceful": 21229, "\u2581Your": 3604, "\u2581Raymond": 23540, "ost": 504, "cite": 1935, "bris": 24220, "\u05b7": 30175, "\u7063": 31521, "\u9023": 30592, "\u2581config": 2703, "\u2581STE": 26178, "\u2581camps": 18497, "\u178f": 30460, "coord": 17213, "\u2581studio": 9659, "\u2581trab": 11968, "\u2581expense": 19475, "Dev": 4991, "\u2581ruined": 25151, "\u2581),": 6223, "\u72ec": 30843, "\u0442\u043e\u0440": 6826, "\u2581bone": 14056, "zens": 18218, "hn": 10721, "loop": 9374, "rap": 1242, "\u69cb": 31833, "\u2581Hal": 10262, "\u2534": 31268, "\u2581roots": 14766, "\u2581\u015a": 18730, "\u2581fled": 20841, "\u2581\u00da": 28046, "\u045d": 29498, "\u9577": 30531, "\u2581Command": 11618, "Translation": 25825, "\u6cd5": 29095, "Skip": 24322, "\",": 548, "\u2581\u0440\u0443": 8857, "\u2581Navy": 12796, "\"><": 10123, "\u2581Peace": 18864, "HANDLE": 24292, "\u2581G": 420, "NE": 4390, "\u2581occup": 6958, ")?;": 24909, "ancia": 17322, "Cloud": 13113, "\u0440\u0438\u044f": 7199, "ph": 721, "<0xB8>": 187, "\u0259": 29108, "\u2581Again": 9706, "\u2581shallow": 21660, "\u2581spoon": 28662, "\u0153uvre": 28694, "<0x86>": 137, "sembly": 7148, "key": 1499, "Has": 5402, "\u0441\u044c\u043a\u043e\u0433\u043e": 10120, "ier": 749, "\u2581herself": 4746, "hes": 2053, "\u2581md": 12358, "\u2581aj": 23371, "\u2581disse": 23437, "\u2581inf": 4319, "Div": 12739, "duration": 15458, "APTER": 13531, "dog": 17693, "\u2581Qt": 20975, "Too": 25679, "username": 10671, "\u2581behind": 2910, "\u2581jud": 4612, "\u2581shame": 14717, "adora": 20916, "OC": 16079, "\u2581pride": 14384, "Dead": 25724, "Records": 27129, "\u2581soldier": 15232, "\u2581Register": 10397, "sw": 1616, "Batch": 14713, "\u7f00": 30958, "\u2581protecting": 20533, "zing": 14508, "\uc624": 29647, "\u2581stere": 19541, "ancell": 13759, "neo": 17462, "\u2581Benj": 17082, "\u2581refresh": 19070, "\u2581Adult": 24765, "activ": 10375, "\u2581spectrum": 12066, "\u2581r\u00e9alis": 21090, "\u2581harmon": 26739, "\u865f": 30809, "osti": 22160, "\u2581Afghan": 16320, "current": 3022, "\u2581Maine": 23579, "\u2581counsel": 14625, "\u2581\u043c\u0443\u0437\u044b": 27277, "\u2581pal": 4785, "\u2581</": 1867, "\u2581bom": 12793, "\u2581oxygen": 21058, "\u2581compre": 10715, "\u5609": 31369, "\u2581reduction": 13388, "\u2581Serge": 16866, "\u2581\u00c9": 4926, "\u2581stag": 19399, "\u2581unc": 9967, "\u2581Pittsburgh": 25536, "\u2581Roman": 8325, "\u2581RF": 27063, "\u00f6tt": 14521, "uri": 6395, "Record": 7079, "\u00fablic": 11850, "\u2581Philippe": 26637, "\u2581parts": 5099, "...</": 23032, "izaci\u00f3n": 24469, "Only": 8390, "amber": 9649, "merge": 13180, "MESS": 18747, "rijk": 23192, "\u2581bez": 18037, "\u2581Issue": 27766, "och": 4042, "\u0442\u043e\u0440\u0430": 22009, "\u0443\u043d\u043a": 21051, "\u2581touched": 12527, "present": 12497, "\u2581bottle": 10859, "\u2581Bird": 18213, "\u2581baking": 22411, "\u2581link": 3062, "\u2581Cong": 6201, "\u2581divis": 21707, "\u2581channel": 5866, "\u2581\u043c\u0435\u0442": 25276, "\u6a94": 30652, "\u2581Error": 7419, "poser": 25155, "\u2581punt": 16875, "lement": 1044, "Opcode": 23835, "\u500b": 30070, "\u2581prevention": 27539, "\u0430\u043d\u0433": 15528, "wide": 5734, "\u2581ware": 21110, "\u2581axis": 11022, "Le": 3514, "\u2581victory": 11115, "that": 6087, "</s>": 2, "\u2581k\u00f6z": 13271, "\u2581\u0435\u0451": 19487, "\u2581handful": 18303, "){": 3311, "\u2581fortunate": 28595, "\u00e4hlt": 25409, "\u2581implementation": 9786, "exec": 12479, "(/": 16552, "OST": 21052, "Clear": 13012, "atta": 16374, "\ud83d\ude80": 30012, "\u2581Ant": 3821, "TIM": 16636, "\u021bia": 26946, "\u09b8": 30234, "\u2581Lan": 21992, "benfalls": 25780, "\u2581Lux": 18194, "\u2581stam": 25005, "\u263a": 30601, "\u2581heap": 22340, "lagen": 21463, "}$.": 5124, "\u518d": 29740, "\u2581enforcement": 19046, "\u2581profile": 7741, "\u2581adds": 13633, "Payment": 19835, "\u91ca": 30334, "NET": 11698, "\u2581running": 3822, "\u2581disappoint": 10734, "becca": 24696, "\u674e": 30548, "\u2581var": 963, "\u2581collected": 12469, "CTRL": 14419, "\u2581Third": 14671, "\u00fd": 28889, "\u2581Lawrence": 16506, "kind": 9186, "]])": 28424, "\u17c1": 31396, "\u2581Mitchell": 21072, "asury": 26440, "}{\\": 3803, "GPL": 20405, "\u0437\u044f": 15876, "\u2581nos": 10404, "ang": 602, "scribed": 27676, "tip": 8451, "\ube44": 29859, "\u2581frustration": 22802, "\u2581serious": 4592, "\u2581allow": 1914, "align": 3737, "\u2581Green": 6248, "\u2581arch": 4219, "\u2581toss": 13647, "Double": 10260, "\u2581lands": 15909, "\u2581kommun": 18815, "h\u00f6": 21017, "\u54cd": 30249, "IMIT": 12315, "\u2581dentro": 24219, "\u2581incons": 25331, "\u2581normalized": 24814, "aller": 7590, "ains": 1606, "\u2581moder": 11323, "isse": 6813, "visible": 13556, "\u2581neighb": 13869, "olph": 23814, "SCAN": 27849, "dtype": 18921, "\u2581dimension": 9711, "led": 1006, "\u2581Same": 18081, "ograf\u00eda": 18687, "\u2581accompanied": 16085,
[...]
