{"\u0451": 28881, "kov": 12577, "\u2581ri": 3191, "ect": 530, "Lower": 12592, "Enumerable": 25303, "\u2581\u0446\u0438": 18950, "\u2581Anti": 23331, "\u0454\u044e": 23667, "\u2581Dylan": 24288, "pv": 26237, "ros": 2737, "condition": 12058, "\u2581eran": 20781, "\u2581abundance": 25468, "\u2581Aff": 9691, "mitted": 10286, "\u00eas": 17194, "\u09b9": 31245, "\u044c\u044f": 23224, "\u2581attempts": 13199, "\u2581users": 5443, "\u2581Fran\u00e7ois": 21976, "supp": 18722, "ynamic": 5706, "gamma": 3933, "\u2581coins": 18683, "\u5f52": 30588, "imat": 24022, "\u2581description": 5436, "\u2581Thank": 7812, "\u2581quatre": 19419, "\u2581badly": 15494, "\u2581occurring": 28265, "\u2581Stadium": 8993, "\u2581franchise": 21014, "\u2581somewhere": 8622, "<0x8F>": 146, "MI": 5877, "\u2581breathe": 20445, "projects": 21080, "Secret": 17657, "\u2581rocks": 15599, "\u2581projection": 18975, "\ube14": 30502, "pars": 16490, "\u2581series": 3518, "\u2581requiring": 22579, "\u6c49": 30688, "Bul": 18775, "youtube": 20502, "ACHE": 15597, "fund": 23158, "guid": 26793, "\u2581Wild": 10668, "\u2581simpler": 27013, "ething": 1446, "\u2581Bruce": 16668, "WriteLine": 23315, "holder": 8229, "Launch": 27514, "\u2581hell": 6312, "\u2581communication": 8520, "\u2581dieser": 13815, "<0xFC>": 255, "interest": 20835, "\u2581imagin": 26671, "\u2581zak": 24473, "\u2581lov": 5718, "\u2581Pand": 24802, "ense": 1058, "\u30dd": 30269, "Warnings": 24708, "\ud83d\ude42": 29340, "bound": 7250, "\u2581Frances": 15093, "ippi": 17609, "\u2581horizon": 18259, "Modal": 14025, "\u2581stand": 1876, "tau": 4288, "\u0442\u043e\u043c": 7852, "Contents": 18045, "plement": 3793, "joint": 16858, "ponent": 2462, "\u2581coordinate": 17237, "\u2581Chem": 18199, "\u5e1d": 30607, "pr\u00e9s": 12180, "aken": 2589, "geq": 7834, "dw": 13233, "\u2581order": 1745, "Pol": 5096, "\u7387": 29886, "\u2581Comp": 3880, "Read": 3390, "\u2581focusing": 18319, "a\u0142a": 23234, "\u0436\u0435\u043d\u0438\u044f": 17373, "TEMP": 21291, "\u0e04": 29546, "\u2581Patrick": 13687, "kg": 8087, "\u00e1st": 14637, "\u2581NE": 9991, "\u2581klass": 27898, "strument": 15549, "\u2581manus": 17935, "\u2581Dom": 6711, "\u2581upcoming": 17962, "\u2581\u0441\u0432\u0456": 25271, "\u03b8": 29255, "COL": 9600, "\u6dfb": 29445, "\u2581au": 2505, "\u2581shift": 6139, "\u2581titre": 20360, "\u2581listed": 9206, "\u2581ancora": 28078, "\u0151l": 15930, "<0xF9>": 252, "\u2581midnight": 22494, "Role": 10047, "\u2581vend": 13479, "\u2581estaba": 18281, "\u2581decre": 8512, "\u2581artists": 10611, "\u0435": 28773, "\ud638": 29730, "\u2581elections": 15517, "\u2581received": 3874, "gew": 16539, "Us": 5495, "\u2581server": 5116, "king": 8328, "\u2581stato": 11995, "lie\u00df": 13920, "\u7ffb": 31051, "\u2581Bronnen": 13228, "xFC": 19507, "\u2581'\"": 14503, "\u2581Past": 17860, "\u2581Claud": 25630, "amente": 3958, "\u2581parsed": 18151, "\u2581casting": 24668, "\u2581Such": 10373, "\u2581lang": 9848, "stadt": 15999, "\u2581ausge": 26227, "\u2581conse": 15188, "\u2581Zu": 22231, "\u2581fucking": 7714, "sty": 22958, "ashes": 14650, "essen": 21951, "\u2581conn": 12513, "rh": 28352, "\u1d07": 30774, "\u2581signing": 18525, "adata": 3826, "\u2581forest": 8613, "\u0435\u043d\u0435": 8977, "sqrt": 5840, "\u2581copies": 12221, "American": 12188, "\u2581still": 1309, "\u2581\u0414\u0430": 13608, "\u2581mad": 7245, "\u2581reducing": 17032, "loe": 27823, "\u2581kill": 4015, "\u2581cents": 27337, "\u009d": 29272, "\u06c1": 30235, "\u5750": 30150, "\u8a3c": 31592, "codegen": 20686, "\u0434\u043d\u0430": 13373, "emy": 6200, "\u2581cancell": 12136, "\u2581Until": 17703, "diag": 26551, "'},": 16041, "red": 893, "NG": 17167, "hor": 1752, "\u2581Werk": 26444, "system": 6574, "\u2581collabor": 8248, "overn": 5794, "ither": 1940, "\u2581Sver": 28238, "\u0159i": 28180, "\u2581d\u00e5": 19774, "\u2581Aw": 21960, "fp": 8808, "pression": 2670, "leaf": 22542, "\u2581specify": 15759, "\u2581posts": 10005, "erre": 12130, "\u4e49": 29476, "\uc9d1": 31056, "\u2581belie": 1989, "z\u0151": 13765, "fico": 24465, "\u2581Wars": 12096, "yk": 27816, "ificate": 8053, "Full": 10395, "PRESS": 21060, "do": 2432, "ennessee": 18895, "REG": 5216, "\u2581Args": 24997, "\u2581industries": 17909, "\u62db": 31654, "cccc": 22827, "\u2581formation": 11515, "\u2581Mach": 16290, "\u2581Harrison": 23323, "\u2581destroyed": 11575, "\u2581trigger": 8366, "\u2581emer": 5177, "Lou": 24618, "imated": 22994, "\u041e": 28874, "\u2581told": 2240, "smithy": 23512, "\u2581Windows": 8955, "\u2581gew": 9514, "\u30c9": 29335, "\u2581temps": 12974, "atz": 6124, "***": 16623, "\u2581moving": 5272, "\u2581providing": 7501, "\u2581spokes": 23287, "\u2581el": 639, "\u2581claims": 9278, "Window": 3899, "\u2581\u2581\u2581\u2581\u2581": 355, "Student": 28514, "\u2581Notice": 21933, "uk": 2950, "jes": 16967, "\u2581Seine": 25517, "\u2581dw": 10743, "\u2581Works": 19012, "ifting": 13120, "System": 3099, "\u0095": 29809, "collapse": 25936, "\u2581Andrea": 24009, "\u2581This": 851, "\u2581complaint": 22105, "okes": 9486, "\u000f": 30698, "<0x54>": 87, "gin": 6207, "\u2581consensus": 24337, "\u2581Januar": 17649, "staw": 24225, "\u2581choosing": 14517, "\u2581cancellation": 27918, "\u2581Luke": 15425, "OBJECT": 17879, "\u2581Hair": 27523, "\u2581px": 22844, "cent": 1476, "not": 1478, "\u2581Phys": 12051, "\u00fdm": 15690, "\u2581\u0422": 2775, "Pod": 13740, "\u026f": 31678, "\u5f53": 29162, "\u09a6": 30870, "\u2581Share": 21115, "\u652f": 29428, "\u2581Bomb": 25805, "\u2581mare": 25420, "\u2581months": 3370, "inus": 22914, "\u2581painful": 17340, "iker": 9225, "rc": 1718, "\u2581Jeremy": 24251, "rec": 3354, "portal": 19395, "\u00c0": 28964, "\u2581fee": 10351, "\u2581speech": 8666, "\u2581Square": 15308, "\u2581absolutely": 7771, "fers": 17556, "\u2581attempting": 18289, "CG": 19354, "lle": 20703, "VO": 12539, "eng": 980, "\u2581nervous": 13665, "\u671b": 30606, "\u2581empt": 28534, "\u0121": 31173, "spect": 7002, "\u5149": 29762, "like": 4091, "\u2581\u043f\u0456\u0432": 21350, "begin": 1357, "memcpy": 19290, "\u2581appearing": 19711, "wi\u0119": 24938, "\u2581Mon": 3217, "aland": 11243, "AppCompat": 11707, "om": 300, "ajo": 10125, "Alias": 20766, "\u2581Mason": 21507, "igr": 3421, "\u2581tourists": 25313, "\u2581Force": 10017, "\u2581Vincent": 20403, "\u2581traff": 7676, "\u2581sir": 10116, "\u2581Lic": 8851, "\u2581vine": 21375, "\u2581Falls": 24538, "chell": 16729, "\u2581secretary": 16916, "\u2581guerre": 20301, "\u2581scale": 5657, "\u2581Tensor": 24716, "posing": 22935, "\u2581tous": 16065, "\u30d7": 29522, "\u00a2": 29656, "\u2581\u0446\u0435": 13536, "aur": 3507, "\u2581performed": 7885, "cleanup": 23642, "Selected": 9062, "Fatalf": 28423, "agy": 11644, "\u2581Furthermore": 13695, "\u2581principles": 13818, "<0x0F>": 18, "\u2581animal": 8527, "icide": 12414, "\u02b7": 30847, "coin": 10817, "\u00e9rie": 10326, "icients": 18315, "\u2581mar": 1829, "\u2581Jew": 5808, "\u2581Larry": 19861, "\u2581(%": 14959, "fif": 20773, "\u2581racing": 16470, "Config": 2227, "rias": 23603, "\u0441\u044c\u043a\u0430": 12533, "stra\u00dfe": 20134, "pause": 26431, "\u2581war": 1496, "regation": 28260, "\u0441\u0442\u0440\u0430\u0442\u0438\u0432": 21636, "Parser": 8323, "il": 309, "\u2581python": 21966, "acle": 7338, "unn": 5494, "\u043a\u0442\u0438": 11856, "cht": 5862, "asse": 4550, "Img": 24088, "\u2581surgery": 13301, "\u2581licenses": 19984, "\u2581candid": 5767, "nh": 25011, "\u2581executed": 15731, "\u2581healthcare": 15240, "\u2581processes": 9537, "}',": 23930, "\u2581remem": 26450, "\u2581CL": 12296, "helm": 15980, "\u201d.": 7445, "commun": 15976, "\u2581better": 1873, "\u2581januari": 23162, "\u2581mong": 28011, "unct": 18181, "anguages": 11132, "Live": 18119, "\u2581Federal": 11652, "\u2581honestly": 13975, "tek": 17890, "\u2581credits": 21762, "\u2581Dal": 12732, "ropri": 6401, "\u2581LIMITED": 20881, "orsz\u00e1g": 22825, "\u00e4sident": 25353, "ais": 1555, "\u043c\u0435\u0442": 17480, "\u2581Sydney": 14469, "\u0436\u0434\u0435": 13727, "\u2581Luc": 6689, "used": 3436, "mux": 27884, "\u2581mature": 19798, "\u2581plac": 20227, "\u02be": 30156, "\u0432\u0430\u0440": 15669, "\u2581invalid": 9109, "External": 17756, "onomy": 15631, "beit": 10943, "Cent": 18503, "\u2581diversity": 18644, "\u2581Dre": 20806, "\u2581).": 11505, "\u2581wife": 4285, "\u2581Abd": 18386, "\u2581ion": 19464, "Yes": 5613, "Shift": 23328, "ope": 1845, "quin": 26611, "autor": 28160, "\u2581caut": 13831, "}{(": 25731, "DF": 6071, "\u2581Unless": 9954, "orb": 19894, "\u03a9": 30146, "\u5206": 29062, "\uc77d": 31815, "\u2581removal": 17078, "\u2581Legisl": 26216, "\u2581BT": 23126, "estly": 19067, "\u0441": 28788, "\uc7ac": 30014, "\u2581within": 2373, "\u2581opposite": 9089, "time": 1536, "ive": 495, "\u2581Are": 4867, "\u0433\u0443": 5378, "\u2581plain": 10835, "\u2581encuentra": 22877, "\u4e14": 29958, "about": 14146, "commons": 26527, "\u05d6": 29913, "fully": 3071, "agram": 6806, "getClass": 21661, "oku": 17776, "ieurs": 14544, "\u2581surrounding": 12028, "\u2581res": 605, "\u2581vag": 23195, "\u2581Mong": 23640, "\u2581governments": 17475, "\ub2f9": 30287, "\ue934": 30597, "Criterion": 28336, "\u2581Do": 2378, "vier": 14895, "\u2581\u0447\u0430\u0441\u0442\u0438": 14881, "\u2581ram": 15355, "\u2581nouve": 16421, "\u2581Emer": 16762, "picture": 15847, "\u2581RT": 17059, "\u5df2": 29235, "\u2581disaster": 17273, "aines": 17251, "\u2581wet": 7569, "\u2581worrying": 27453, "\u2581AC": 11949, "selection": 15856, "\u2581erfolg": 25066, "archy": 12940, "\u2581number": 1474, ")=": 6706, "\u2581Dist": 12443, "\\'": 12919, "\u2581Kont": 28631, "\u2581numerous": 9696, "\u8acb": 30539, "\u2581unsigned": 5479, "refer": 16769, "WAIT": 23808, "\u2581$\\": 878, "\u2581elementary": 24267, "loader": 12831, "wo": 809, ".\u201d": 2435, "John": 14964, "\u2581introduced": 8160, "\u2581$$": 5623, "\u2581ref": 1792, "\u2581justice": 10754, "\u2581secrets": 19376, "\u2581tt": 28652, "\u3092": 29078, "\u2581Luck": 22781, "\u30c3": 29213, "\u8d8a": 30619, "\u2581universe": 11717, "Message": 2649, "\u2581bob": 28142, "\u2581coefficient": 23982, "cord": 19056, "uh": 8884, "\u2581Specific": 23518, "\u2581periodic": 23404, "\u2581occ": 2271, "protocol": 12787, "\u2581cual": 13023, "\u2581Maryland": 20261, "\u2581Barcelona": 16835, ",*": 17205, "ogs": 22990, "\u0441\u0442\u043e\u044f": 10185, "club": 25169, "RAY": 12661, "esis": 14699, "\u2581Tibet": 28288, "\u2581afterward": 28587, "setminus": 19847, "\u2581Liberty": 27370, "\u013d": 30833, "\u2581Actually": 20290, "Times": 17473, "ratio": 22287, "\u2581fighting": 8552, "\u5e86": 31301, "\u2581famille": 18481, "Look": 9291, "\u0645": 28954, "ure": 482, "\u2581democracy": 17548, "\u2581Complete": 21929, "osten": 17074, "liferay": 18802, "\u00fcl": 8889, "\u0153uvre": 28694, "\u0102": 30148, "seen": 18226, "\u2581era": 4204, "arget": 1533, "\u2581strang": 26427, "turn": 499, "\u2581\"<": 6647, "\u0433\u0440\u0430": 3634, "pler": 14932, "-->": 26345, "oni": 7997, "\u2581typ": 2514, "stellung": 20509, "aphor": 27041, "\u2581code": 2696, "\u2581related": 5202, "\u2581tea": 9510, "\u2581thou": 28112, "Vo": 22619, "BUS": 18680, "\u2581elaborate": 24340, "\u2581overnight": 22128, "\u83dc": 30038, "\uff08": 29186, "\u2581tragic": 28449, "\u4e2d": 28991, "\u2581saving": 14285, "\ud604": 30205, "\u2581alleg": 10150, "\u2581company": 2496, "\u2581aggressive": 18925, "\u901a": 29217, "<0xCF>": 210, "\u2581Write": 12018, "OO": 17409, "\u2581jak": 19755, "itating": 23251, "\u306d": 31197, "\u2581areas": 5020, "\u2581jul": 17521, "\u2581Volume": 21219, "ships": 14498, "ifference": 21423, "\u2581Project": 7759, "\u2581even": 1019, "\u2581Associ": 6097, "(\r": 17334, "<0x78>": 123, "\u2581wyn": 27769, "\u2581Row": 14392, "\u2581duplicate": 27071, "\u2581Hung": 15171, "\u2581LLC": 19401, "ums": 7610, "cp": 4743, "\u2581outdoor": 15382, "\u2581Example": 16693, "\u7bc4": 31974, "entry": 3991, "\u2581Fr": 1361, "\u2581arriv": 4266, "iore": 27868, "\u2581souvent": 28120, "\u2581Jonathan": 16656, "\u2581heritage": 22597, "\u2581Ten": 11819, "\u2581Cancer": 25437, "\u2581ours": 22911, "available": 13952, "($": 1501, "\u2581renamed": 25581, "\u2581mining": 15121, "\u2581ib": 12964, "\u2581\u042f": 10019, "serve": 7688, "\u2581Stat": 9248, "\u2581Piet": 19786, "\u2581anxious": 19695, "\u2581deeply": 11869, "ocol": 3873, "\u2581Container": 25204, "\u2581vulnerable": 17508, "eries": 12865, "icing": 9065, "analysis": 23206, "eben": 8960, "\u021ba": 25814, "\u2581Cycl": 27548, "\u5047": 30826, "Eng": 5871, "\u2581influences": 26386, "\u2581Need": 13678, "cola": 26871, "Exp": 8003, "\u027e": 30242, "\u2581suspend": 14551, "\u2581str": 1117, "\u2581Virgin": 8471, "\u2581argv": 21863, "\u0441\u0438": 2206, "\u2581Pol": 2538, "\u2581\u041e\u0442": 18998, "\u2581calls": 6470, "\u2581Craw": 27580, "\u2581trop": 12090, "\u2581Thursday": 10983, "\u2581policies": 10086, "QU": 7855, "\u0434\u0438": 1454, "\u2581beg": 2049, "\u2581\u043f\u043e\u0441\u043b\u0435": 10444, "\u2581task": 3638, "nat": 9569, "fm": 21019, "\u2581lied": 26984, "\u2581\u0420\u0443": 14116, "\u2581reader": 8847, "IES": 17770, "icion": 26357, "\u673a": 29363, "\u2581Archives": 28477, "\u2581trans": 1203, "\u2581text": 2245, "uzz": 9046, "GIN": 20856, "\u2581critic": 8394, "\u008b": 30474, "\u2581strain": 20842, "Sigma": 9806, "\u2581Ep": 14710, "ild": 666, "dma": 11492, "TCP": 22331, "\u2581Had": 11238, "\u2581Raymond": 23540, "\u2581ninete": 18367, "\u2581off": 805, "\u2581Ac": 4868, "\u2581tegen": 26602, "\u0442\u0430\u0440": 18613, "\u2581Length": 22856, "\u2581lip": 11144, "uv": 5388, "\u66f4": 29250, "\u2581une": 2219, "Uint": 19901, "i\u00e9n": 8603, "\u2581resur": 28308, "\u2581Which": 9595, "Day": 12422, "mp": 1447, "\u2581intentions": 25087, "\u2581hex": 19703, "erv": 784, "\u2581logo": 16388, "\u2581Last": 7690, "\u2581parks": 24682, "so": 667, "<0x1A>": 29, "ht": 407, "html": 3391, "respons": 23120, "\u2581larger": 6084, "\u8457": 30878, "\u2581tasks": 9796, "\u2581p\u00e9riode": 28546, "\uc911": 30027, "SINGLE": 26117, "\u9ad4": 31155, "\u2581fuer": 12535, "\u2581rebel": 28020, "amm": 6461, "\u2581Wed": 7842, "amon": 22686, "\u897f": 29633, "Ms": 16023, "ork": 580, "direct": 9423, "rug": 10909, "ixer": 11737, "ACH": 16522, "\u2581reserv": 6047, "\u2581thinks": 10896, "<0x24>": 39, "rible": 7030, "\u2581p\u00fablic": 23912, "Theta": 16643, "gl": 1727, "accur": 25318, "prof": 18212, "\u043d\u0430": 612, "\u2581fle": 6742, "\u2581cad": 13150, "yll": 19530, "\u2581lines": 4715, "\u2581affirm": 25758, "\u2581per\u00f2": 19005, "\u2581nurses": 26579, "opacity": 24566, "Register": 7832, "\u2581intro": 24671, "absolute": 26022, "\u2581\u043f\u0430\u0440\u0430": 28370, "\u2581Invest": 11606, "\u2581discipline": 18714, "\u2581waste": 9396, "\u2581Advent": 19772, "Authorization": 26369, "\u2581gras": 26517, "\u2581Hern": 28521, "ue": 441, "\u6765": 29263, ">{": 13216, "\u2581tone": 10294, "\u2581poblaci\u00f3n": 20004, "posed": 4481, "\u2581enhancement": 27764, "\u2581--(": 20224, "operatorname": 12614, "language": 11904, "\u2581dependent": 15365, "\u2581\u0441\u0442\u0440\u0443": 27471, "\u2581tissue": 18983, "annotation": 10066, "\u2581sj": 17881, "\u2581countr": 24526, "\u2581Township": 25889, "\u2581parameter": 5621, "\u2581rede": 27503, "amarin": 25174, "\u2581age": 3595, "\u2581Coll": 9215, "\u513f": 30915, "\u2581BY": 11732, "\u2581fulfill": 16427, "\u2581imports": 28365, "being": 15823, "ply": 3043, "plic": 1256, "\u2581uses": 6098, "\u2581flu": 13857, "ird": 1844, "\u2581compens": 12613, "\u2581tack": 13616, "asper": 25177, "\u2581spine": 24496, "versions": 26149, "\u2581\u0431\u0443": 5213, "\u2581{}\",": 26695, "\u2581Saturday": 8513, "\u2581Labor": 14160, "\u2581fier": 16307, "Exper": 26011, "\u2581Una": 19472, "mir": 14911, "\u2581discover": 5191, "\u2581bent": 16127, "\u2581life": 1411, "\u2581explo": 12573, "\u2581switch": 4933, "\u2581//\r": 26083, "VM": 8572, "rip": 5386, "\u2581facil": 13031, "\u8fdc": 30758, "artment": 4502, "atar": 9517, "Cluster": 10848, "\u2581instances": 13290, "\u2581introducing": 25618, "\uff09": 29185, "\u2581Turn": 8406, "\u2581Johnny": 18354, "\u2581manufacturing": 15186, "\u4e61": 29971, "\u25b8": 31939, "\u2581\u043a\u043e\u043b\u0438": 19519, "\u2581Optim": 27268, "\u2581payload": 13988, "\u2581Lawrence": 16506, "\u2581Cher": 12913, "Font": 7168, "\u2581ox": 18229, "\u0003": 30662, "\u2581\u0441\u043e\u0441\u0442\u043e\u044f": 22202, "\u2581manuscript": 20869, "\u2581Terr": 13151, "\u2581night": 2125, "];\r": 14420, "\u2581Power": 8442, "Builder": 3686, "\u2581FA": 13353, "\u2581Dev": 6624, "\u2581weak": 6334, "\u2581Ny": 20268, "ount": 696, "\u2581\u0422\u0438": 19160, "\u2581prom": 2157, "Compat": 7789, "arms": 18466, "\u2581sympathy": 26453, "hip": 1557, "odot": 24075, "\u2581hem": 14492, "\u2581hans": 24401, "\u2581Moh": 13610, "elijk": 11667, ".\"]": 28659, "oki": 23778, "\u0bcd": 29431, "TYPE": 3657, "beta": 3484, "\u2581Div": 5812, "reci": 6506, "decode": 13761, "={{": 14039, "\u2581a": 264, "READ": 8172, "\u2581gouver": 20401, "-------": 25702, "\u2581advised": 21020, "ua": 3772, "\u0450": 31773, "\u2581delivery": 9562, "orio": 26794, "START": 12241, "ifr": 23568, "\u0574": 30569, "\u2581dust": 9188, "\u2581\u0434\u0432\u0430": 17489, "\u2581deb": 5665, "amber": 9649, "\u0250": 30469, "ip": 508, "\u0444\u0456": 11206, "\u2581react": 13035, "\u2581pizza": 20727, "\u2581Gast": 28505, "mas": 4876, "\u2581steam": 15291, "ppo": 17652, "\u2581cotton": 18633, "erset": 27236, "\u2581Angel": 15878, "\u2581gradually": 17885, "\u2581capture": 11319, "\u2581justify": 16205, "\u0437": 28812, "\u0432\u0438\u0439": 18135, "\u2581Rug": 21769, "\u2581consum": 6288, "\u10eb": 31464, "\u2581investigation": 11597, "\u2581ME": 13835, "SIZE": 5145, "\u2581\u0423\u043a\u0440\u0430\u0457\u043d\u0438": 22224, "as": 293, "\u2581banks": 13283, "\u20b1": 31535, "\u2581layer": 7487, "\u2581console": 5921, "\u2581stands": 10969, "\u26a0": 31433, "Core": 5908, "\u2581The": 415, "\u2581drink": 4663, "\u2581cul": 13463, "\u2581Love": 7481, "\u2581Description": 10220, "\u2581standards": 9890, "ise": 864, "pread": 22129, "\u2581R\u00fcck": 25539, "nals": 25813, "\u2581vector": 7206, "\u2581popular": 4387, "\u2581\u0430\u043a\u0442\u0438\u0432": 24735, "\u2581'\\": 8846, "amd": 27874, "IS": 1851, "\u2581Census": 27938, "\u2581wrapper": 18491, "\u2581achievement": 22196, "\u2581Search": 11147, "Aff": 25683, "\u2581made": 1269, "\u2581\u0440\u0430\u0439\u043e": 14159, "\u2581\u0420\u043e": 5850, "\u043a\u0430\u043d": 9368, "\u2581February": 5353, "\u2581Shel": 18601, "\u2581Raf": 21926, "ause": 869, "\u2581brother": 5510, "literal": 25853, "hspace": 13368, "\u2581==": 859, "\u2581upp": 21343, "information": 20590, "\u0caf": 31826, "stre": 12776, ")^{\\": 23022, "printk": 18548, "\u2581railway": 18051, "isely": 11973, "\u2581accord": 13246, "}$": 1211, "aggio": 14061, "abi": 16075, "\u2581Lauren": 23119, "\u2581window": 2924, "\u2581Portuguese": 27202, "\"": 28739, "zw": 12912, "\u2581listener": 14078, "heads": 25372, "\u2581Learning": 17504, "\u2581\u043a\u0443\u043b\u044c": 21828, "aran": 22754, "\u2581franz\u00f6s": 24869, "\u2581silently": 24435, "\u2581\u0444\u0438": 8456, "ria": 3931, "jet": 8358, "\u2581degli": 13810, "atures": 2863, "\u2581notation": 22499, "\u2581survive": 13145, "\u2581Pont": 19745, "\u2581flowers": 11888, "\u2581Jeff": 8678, "\u2581patrol": 22294, "setValue": 26532, "\u2581Eventually": 20825, "\u0e42": 29368, "\u2581Visit": 16660, "Google": 16922, "\u2581asc": 13294, "Error": 1708, "\u0159\u00ed": 9528, "\u2581unter": 7014, "\u2581***": 17976, "visor": 16529, "\u2581Especially": 20538, "\u2581\u0431\u043b\u0438": 22228, "stan": 13511, "porte": 24095, "\u2581regia": 19009, "\u2581strat": 27857, "\u2581regional": 11908, "\u2581distribut": 2886, "\u2581bronze": 20067, "\u677f": 29561, "\u2581Cast": 6440, "pk": 16270, "izi": 15323, "![": 25531, "\u865f": 30809, "\u2581univers": 5137, "\ub958": 30810, "inst": 4138, "GR": 8369, "ions": 594, "\u2581vil": 16767, "\u2581url": 6855, "\u2581Morris": 18865, "=\"{{": 21686, "Entries": 21222, "Comparison": 27869, "code": 1409, "\u96f7": 31047, "\u2581eliminate": 20545, "\u2581Bild": 15582, "attribute": 9122, "\u2581presented": 7567, "Proto": 13534, "\u1e28": 31949, "\u00e7\u00f5es": 10315, "ployed": 28246, "ories": 2420, "\u2581Poz": 25392, "Dead": 25724, "\u5e8f": 29313, "\u2581presidential": 19268, "\u2581\u0437\u0456": 26883, "\u96c5": 31178, "\u043c\u0438\u0440\u0430": 23797, "\u0442\u0435\u0442": 22811, "\u2581dirig": 16263, "\u2581stopping": 17203, "HE": 1821, "\u2581sent": 2662, "\u3069": 30496, "\u2581All": 1682, "\u2581two": 989, "wiki": 15941, "\u2581flav": 15637, "\u9884": 30098, "person": 9701, "\u2581std": 2829, "\u2581route": 7103, "\u043e\u0440": 3135, "\u2581okay": 8810, "\u2581fo": 12459, "}$)": 28511, "\u2581Question": 22478, "It": 1313, "\u2581tragedy": 25466, "\u2581Situ": 28119, "\u2581Boston": 9143, "\u2581veget": 10035, "O": 28762, "\u2581COVID": 11747, "\u011d": 31720, "Replace": 21392, "UN": 2168, "\u2581colleges": 26819, "\u3048": 30145, "\u7ed1": 30384, "ska": 9883, "cq": 27009, "orted": 10720, "\u2581theft": 27119, "reib": 20628, "\u2581v\u00e9": 20249, "\u2581LED": 19937, "\u2581exactly": 4668, "\u0441\u0443": 4878, "\u2581say": 1315, "\u8c61": 29254, "chester": 11841, "\u51fb": 29698, "pos": 1065, "PCM": 23758, "\u2581productivity": 24504, "Interface": 6450, "Inline": 19034, "\u2581participated": 21510, "Attrib": 28133, "\u2581JavaScript": 26281, "\u2581rend": 6884, "lg": 10950, "\u2581declare": 13242, "register": 5724, "\u043f\u0435\u0440\u0430": 11687, "\u2581says": 2627, "{})": 21914, "\u2581pills": 19436, "\u2581Haven": 24077, "\u2581agre": 6271, "alen": 16777, "atable": 18671, "mask": 5274, "jer": 18900, "y": 28724, "\u2581nuclear": 12025, "\u62c9": 29899, "\u7535": 29742, "Checker": 27229, "UG": 12894, "\u2581payment": 8850, "Clock": 24041, "\u2581suspicion": 27865, "\u5de5": 29487, "\u0e1e": 29786, "\u2581UnityEngine": 14677, "\u2581associ": 3509, "scious": 6757, "\u2581youngest": 25806, "\u2581finds": 12397, "insula": 27155, "\u2581\u043f\u0440\u0435\u0437": 15855, "\u2581iOS": 23487, "\u2581shouting": 23861, "\u2581ranked": 19964, "\u2581Ach": 26067, "wie": 15763, "\u2581\u2581": 259, "\u2581Mol": 16387, "Dispatch": 15844, "\u2581browser": 11806, "\u2581directors": 22650, "\u2581Lisa": 18999, "\u2581Secret": 9233, "orna": 25190, "izing": 3864, "FFFF": 14260, "\u2581planted": 24571, "\u043b\u0435\u043a\u0442": 18981, "Accept": 17589, "\u09bc": 30990, "WID": 19335, "\u2581Historical": 23625, "\u2581deven": 24999, "\u4ecb": 30739, "\u2581nem": 10766, "rou": 518, "\u2581sake": 14408, "Very": 26119, "comput": 21862, "\u2581enforcement": 19046, "cess": 964, "\u2581sig": 4819, "\u4f4f": 30705, "\u2581Grab": 23924, "wig": 14759, "empl": 2713, "driven": 27369, "\u043b\u043e\u0433\u0438": 13428, "reply": 16054, "\u2581bone": 14056, "\u2581};\r": 23139, "\u0447\u043d\u043e\u0433\u043e": 19957, "\u2581Jur": 22011, "\u0491": 29211, "\u2581\u041f\u0440\u0430": 25074, "\u2581largely": 12282, "hin": 15176, "}}$": 8112, "\u898b": 30599, "<0x33>": 54, "overty": 14937, "\u2581donde": 12943, "\u2581todos": 14920, "\u0582": 30291, "Blob": 22388, "\u2581avoiding": 23329, "\u2581layout": 9866, "SHA": 18577, "\u2581//!": 19497, "Based": 24207, "Geometry": 20052, "\u2581fundament": 9676, "CPP": 18954, "patch": 5559, "\u2581avait": 13212, "\u2581Frame": 17624, "your": 19262, "\u2581Swiss": 22255, "\u7684": 28914, "velt": 16920, "ego": 6221, "\u2581Dak": 21490, "\u2581TL": 24783, "\u2581distinct": 9494, "\u2581entr": 7142, "Parent": 7401, "boat": 25343, "inted": 27700, "\u2581EX": 4175, "\u2581\u0446": 6033, "uras": 13798, "\u2581Att": 5288, "\u2581jail": 16215, "\u2581aws": 20933, "\u2581overs": 13775, "\u2581Dear": 22143, "\u2581inc": 2258, "\u2581Param": 10938, "story": 18387, "els": 1190, "\u2581Coff": 22967, "\u2581mountain": 10660, "\u5b78": 30923, "\u2581large": 2475, "vv": 27176, "itories": 27799, "\u2581sock": 13384, "n\u00e1": 20946, "\u2581instrument": 10623, ".~": 10749, "\u2581nurs": 13797, "\u2581Integr": 18208, "\u2581bean": 24853, "\u62e9": 29608, "fmt": 8920, "Om": 5943, "\u2581newspapers": 19466, "\u2581finale": 13163, "\u2581forum": 21516, "\u2581Crown": 24154, "cro": 22171, "\u2581gene": 17198, "\u0442\u0443": 2509, "\u2581SL": 20375, "\u5b59": 31206, "\u2581Bun": 28199, "\u2581flows": 21142, "\u2581ES": 28151, "\"],": 8883, "\u2581pre": 710, "\u2581Athlet": 19092, "\u2581chez": 22440, "\u2581Bachelor": 28404, "Paul": 22241, "Runner": 18460, "\u2661": 31104, "\u2581Amazon": 8701, "\u2581LGBT": 28400, "uela": 13482, "\u2581Het": 10172, "ague": 3512, "\u2581AF": 19577, "\u540d": 29046, "\u2581Muham": 24323, "\u2581editing": 19617, "\u2581windows": 8412, "II": 2559, "prepare": 16180, "\u2581involvement": 20447, "owym": 24547, "\u2581Tab": 14319, "properties": 10723, "\u2581itself": 3837, "\u2581standard": 4787, "\u2581Cameron": 23028, "roid": 2938, "\u2581pipeline": 16892, "\u2581NAS": 18064, "\u0445\u0456\u0434": 16144, "vt": 14029, "\u00f3wn": 16213, "\u2581Faith": 25098, "\u0a30": 31880, "writ": 10253, "\u2581hosp": 17688, "\u2581edit": 10659, "threshold": 21286, "occ": 21450, "elasticsearch": 28350, "3": 28770, "FIX": 13286, "\u7aef": 29594, "\u2581Bang": 13261, "Bet": 17044, "\u2581workshop": 20156, "\u2581Building": 14578, "\u2581function": 908, "\u2581understands": 27422, "\u2581old": 1571, "\u2581'{": 22930, "\u2581existence": 9025, "\u043a\u043e\u0457": 26962, "\u2581note": 5039, "task": 5553, "nament": 10059, "\u2581hip": 12323, "\u2581{": 371, "\u2581penalty": 19140, "\u2581pe": 757, "feature": 10453, "olds": 4858, "ecut": 2717, "\u2581levels": 6157, "super": 8554, "Appe": 16929, "\u2581threats": 19843, "\u2581damit": 23929, "\u4e8b": 29339, "\u2581functioning": 26945, "\u2581Glen": 17529, "\u0402": 29278, "\u2581Castle": 17085, "strong": 9849, "\u00dc": 28961, "\u2581Obviously": 22042, "cards": 24073, "yd": 3389, "\u2581abund": 15116, "inge": 22503, "\u2581gains": 21722, "\u2581try": 1464, "uated": 25473, "\u2581upset": 13265, "\u2581Madison": 20503, "\u2581Sort": 24822, "ye": 7187, "\u2581luego": 26899, "\u512a": 31743, "\u2581serves": 14449, "alling": 20441, "\u2581alien": 17054, "\u2581ok": 3614, "ois": 5628, "\u2581Wh": 943, "\u0431\u043e\u043c": 26367, "\u9047": 31716, "\u2581Hand": 6322, ":-": 18684, "\u2581Hold": 15960, "\u2581Engineering": 17202, "\u2581Chris": 9900, "avis": 19677, "\u2581dut": 7756, "EventArgs": 26809, "\u2581compatibility": 25419, "\u00e4ter": 13201, "\u2d4f": 31443, "isterschaft": 17651, "{{": 6652, "\u0432\u0438\u0447": 7701, "\u2581recorded": 9364, "\u2581queue": 10159, "century": 15900, "\u2581sulla": 20987, "uffy": 23892, "efe": 25922, "\u0e25": 29394, "\u2581offering": 9055, "\u2581slope": 20912, "\u2581ignoring": 22484, "\u2581stark": 20753, "\u043d\u0435\u043d\u0438\u044f": 23993, "ney": 2705, "\u2581literally": 8350, "\u2581scatter": 11190, "\u2581selfish": 26206, "ieck": 27578, "\u72b6": 29334, "\u2581executive": 12212, "\u2581municip": 8616, "\u2581enorm": 12151, "\u6279": 30335, "Optional": 15115, "Fig": 10638, "latest": 21528, "\u9891": 30030, "=\\\"": 9047, "\u2581Syd": 13239, "\u2581\u043d\u0435\u0437\u0430": 27476, "\u2581foss": 21036, "\u2581Hans": 10518, "\u2581McDonald": 25999, "\u2581golden": 13863, "uty": 14998, "\u2581wealth": 9120, "\u2581dis": 704, "\u2581fu": 6649, "rior": 6654, "cies": 20023, "\uc6d4": 30839, "rav": 20524, "\u2581associate": 18560, "Create": 3998, "iversary": 17250, "\u2581version": 2751, "\u2581Client": 13522, "\u2581ERROR": 16383, "\u0419": 28996, "redit": 10709, "\u304f": 29666, "~~~~": 11902, "\u2581out": 575, "with": 3415, "orie": 12067, "\u2581\u041d\u0430": 3760, "\u2581having": 2461, "lett": 15418, "\u2581Never": 9268, "Seq": 25441, "\u2581\u0440\u0435\u0436\u0438": 23903, "usal": 13396, "\u2581uw": 14190, "\u00edses": 27075, "\u2581correspon": 4408, "(!": 6469, "\u2581aug": 11146, "\u2581Brand": 14135, "\u2581resent": 26159, "\u0575": 30428, "\u2581and": 304, "Request": 2212, "\u2581Bio": 26752, "\u2581adoles": 23988, "\u2581dependencies": 24940, "urent": 17178, "gs": 2626, "\u2581journal": 7024, "\u2581heute": 21602, "\u2581pregnant": 15446, "\u2581shitty": 23933, "=\"../": 7704, "\u2581Summer": 13211, "ussen": 18682, "\u00be": 29867, "abad": 20882, "\u2581scan": 12794, "\u0434\u0435\u043b\u0430": 19656, "seg": 8111, "riel": 13374, "\u884c": 29037, "\u2581nan": 23693, "\u2581over": 754, "(()": 10289, "\u2581urgent": 25976, "\u2581sons": 15103, "\u5220": 29327, "\u4ea4": 29471, "\u2581culture": 5679, "mos": 7186, "\u2581possess": 14612, "\u2581\u0412\u0435": 10854, "']);": 13932, "\u7ed9": 29709, "\u6563": 31426, "iko": 13370, "\u2581contest": 13968, "resc": 25684, "\u2581actions": 6768, "\u2581Wes": 19860, "AND": 5208, "\u2581accompan": 13498, "\u2581disturb": 17199, "ooth": 6771, "ga": 2504, "\u2581releases": 21446, "\u2581banned": 20420, "\u2581Saint": 6393, "kn": 13223, "\u5b5d": 31907, "statement": 22910, "\u2581WIT": 6626, "\u00e9p": 13901, "one": 538, "\u671d": 30746, "\u2581s\u00e9": 7553, "\u2581directly": 5090, "Private": 12455, "\u2581regime": 13357, "DBG": 14701, "\u2581approaches": 13945, "heart": 14754, "uri": 6395, "Default": 4158, "iciency": 9375, "pragma": 20812, "\u2581\u0434\u0435\u044f\u0442\u0435\u043b\u044c": 26787, "\u2581kw": 11038, "\u2581mort": 5461, "\u2581fail": 3747, "care": 8001, "asury": 26440, "\u526f": 31429, "\u2581af": 3833, "\u2581essays": 22507, "mysql": 20235, "\u2581pad": 9010, "agation": 28419, "\u2581erst": 15825, "\u2581AR": 6108, "FILE": 7317, "\u2581cells": 8894, "\u2581Argument": 19189, "\u2581scratch": 15147, "\u2581toujours": 23800, "edes": 20124, "DL": 14148, "\u2581SS": 13823, "cury": 25812, "around": 20886, "\u0432\u043e\u0433\u043e": 11877, "\u2581pair": 5964, "dings": 23127, "\u2581humans": 10589, "\u2581civilian": 25120, "even": 8790, "\u2581discussion": 8387, "ools": 20498, "\u2581Guerra": 21913, "LES": 20335, "yna": 22335, "\u2581g": 319, "\u2581popul": 21751, "ocate": 22337, "\u2591": 29782, "\uc138": 29721, "\u89c1": 30237, "\u2581Israeli": 19142, "\u2581governor": 17116, "\u2581Nov": 8515, "\u2581ARISING": 28580, "\u2581feature": 4480, "\u2581anticip": 12595, "\u2581Catherine": 20126, "Leave": 26639, "\u2581Click": 10213, "ALIGN": 26380, "\u5b87": 31729, "\u2581Enable": 22177, "ollary": 21120, "\u2581proces": 22234, "ct": 310, "pages": 9929, "mile": 23881, "act": 572, "itol": 24250, "\u2581cache": 7532, "ardon": 25021, "\u2581__(": 25185, "Actor": 25461, "\u2581wait": 2444, "\u2581dy": 15513, "iros": 26788, "Dao": 20660, "ellt": 17633, "\u2581disabled": 11426, "\u2581metres": 18751, "\u2581Thought": 26142, "\u2581thirty": 9418, "\u2581voices": 14549, "\u2581subsequently": 18410, "\u2581pixel": 18012, "\u2581bo": 1359, "stylesheet": 25984, "\u2581influ": 4765, "\u2581\u041f\u0440\u043e": 12119, "\u2581Alan": 15444, "\u2581maintaining": 17877, "Warn": 17291, "\u2581Rhe": 23214, "\u2581criminal": 11392, "...</": 23032, "delta": 3973, "asing": 3706, "abb": 13277, "^\\": 4217, "$\\": 4659, "izione": 12769, "\u031e": 31327, "ended": 2508, "\u2581clean": 3587, "\u2581roz": 9335, "\u2581compr": 14333, "?)": 15009, "\u2581kissed": 18792, "^{-\\": 18910, "\u2581\u0441\u043e\u0441\u0442\u0430\u0432\u0435": 27653, "inking": 10593, "DEC": 23763, "\u2581Mouse": 27873, "\u2581Tools": 26258, "ometric": 14840, "phys": 13432, "\u2581hide": 9123, "Callback": 6310, "\u2581critique": 27306, "\u2581til": 9757, "\u2581marg": 15003, "groups": 12420, "\u00f6rd": 12462, "\u2581Extra": 26494, "\u2581FREE": 22995, "\ud589": 30094, "\u2581identification": 19451, "DELETE": 22070, "iter": 1685, "\u0447\u043a\u0438": 16333, "\u2581improvement": 14204, "\u2581wave": 8333, "\u2581Due": 16043, "}\"": 7935, "omon": 20785, "\u55ae": 30820, "}\\,\\": 26758, "\u2581dual": 13350, "\u2581laws": 8427, "\u2581optical": 19028, "gly": 13127, "\u0435\u0442\u043e": 24525, "\u2581takes": 4347, "<0x85>": 136, "\u0e15": 29567, "\u2581Blue": 8836, "\u2581suicide": 16240, "equation": 2160, "appers": 27135, "\u2581ward": 17874, "\u2581educated": 20579, "Used": 21601, "\u2581dann": 18093, "\u2581quella": 26818, "UC": 23271, "<0x7F>": 130, "\u2581Know": 11308, "\u0448": 28841, "\u2581insights": 20715, "\u2581Ron": 9975, "\u2581sharp": 10227, "\u2581carefully": 9547, "tenance": 9944, "\u2581bold": 15860, "\u2581smoking": 17105, "\u66fe": 31676, "vars": 13819, "\u2581worldwide": 15245, "\u2581weekly": 16496, "\u2581everyday": 15048, "\u2581entry": 4905, "\u2581costume": 27239, "*\\": 19008, "\u2581Films": 28243, "\u2581exponent": 23869, "Photo": 25379, "got": 6066, "?,": 24542, "liest": 18067, "ap": 377, "\u2581Russia": 8433, "resize": 16138, "sembl": 14763, "Comb": 22865, "Price": 12304, "apa": 10405, "\u043d\u0435\u043d\u0438\u0435": 23480, "\u4f86": 30425, "\u6797": 30158, "WITH": 21646, "SE": 1151, "\u2581rest": 1846, "\u98de": 31259, "empt": 3310, "\u555f": 31477, "part": 1732, "\u2581fac": 3252, "Rep": 4781, "\u2581sym": 4297, "\u2581\u0433\u0435\u043d\u0435": 20831, "\u05d1": 29166, "\u0e43": 30096, "\u2581Day": 5399, "Take": 19850, "\u2581uso": 27427, "multiple": 27772, "oard": 20446, "\u2581vid": 10954, "\u2581females": 21903, "\u02dc": 30742, "\u2581sempre": 22637, "\u2581reput": 10459, "\u2581genetic": 19869, "\u2581shook": 7989, "rowning": 28496, "\u2581Format": 18748, "\u2581Af": 8786, "\u2581demonstr": 6695, "\u2581depressed": 27696, "\u2581Mount": 7612, "\u30e3": 30026, "kehr": 19177, "\u2581interven": 23807, "\u2581Comb": 19422, "\u2581Lud": 13953, "\u2581parliament": 20848, "\u2581perman": 8706, "\u2581training": 4154, "\u2581ready": 4313, "TIMEOUT": 21911, "\u2581rolled": 12183, "ait": 1022, "pson": 12353, "\u2581Fellow": 23783, "\u2581Reagan": 26294, "\u2581\u0441\u043e\u0441\u0442\u0430": 24285, "\u5fe0": 31615, "include": 1631, "Monitor": 19606, "wd": 9747, "rz": 20443, "Category": 9633, "\u2581compute": 12881, "Inputs": 28681, "kal": 16192, "\u67d3": 30623, "science": 17819, "oples": 19619, "Binary": 15692, "\u5f80": 30717, "\u09af": 30365, "\u2581cream": 10558, "limit": 9203, "\u7f57": 30767, "\u2581experimental": 14593, "\uadf8": 29614, "|": 28766, "}),": 6994, "\u6001": 29283, "\u064b": 30743, "mary": 2754, "Rem": 5139, "\u2581intellect": 11612, "\u2581Canadian": 10435, "\u2581Moses": 26625, "high": 9301, "\u585e": 31411, "\u2581Palm": 28234, "\u2581Copyright": 5259, "ropy": 14261, "ambers": 25172, "\ub420": 31705, "\u2581Hart": 13796, "Prim": 18888, "\u2581strengths": 28136, "zeit": 11649, "\u2581FBI": 18622, "\u2581written": 4241, "\u2581\u041b": 3218, "\u2581somewhat": 10963, "lished": 2926, "....": 3406, "\u2581Ru": 12562, "\u1ecf": 31233, "\u2581forgotten": 13652, "\u2581submar": 26680, "\u2581geb": 10560, "\u2581equilibrium": 24699, "\u2581Super": 6077, "igt": 8335, "\u2581\u043f\u0435\u0440": 7726, "\u2581U": 500, "*-": 13725, "\u2581assigned": 11400, "\u0441\u0430": 3281, "\u2581pou": 8631, "\u2581climbed": 17070, "\u2581Vill": 10494, "\u2581plaats": 18886, "\u2581J": 475, "\u2581PER": 22015, "\u2581Kap": 14457, "\u2581forg": 12706, "uses": 6912, "\u2581Squadron": 27081, "\u2581\u0433\u0440\u0443": 9891, "\u2581Tor": 5727, "\u2581Cut": 18514, "\u2581detection": 15109, "mapping": 15889, "rx": 7144, "\u663e": 29446, "Love": 23220, "\u2581ten": 3095, "matrix": 8054, "\u2581Kol": 15018, "\u2581Temple": 16099, "\u2581Alaska": 23956, "\u2581BSD": 26409, "ottom": 3757, "\u2581Hu": 16168, "\u2581condu": 8667, "\u043d\u0430\u043c\u0438": 25039, "sek": 25933, "nex": 19949, "Dark": 25732, "\u0275": 29102, "\"):": 21021, "\u57f7": 31996, "hof": 14193, "\u2581profiles": 19727, "bas": 8452, "\u2581Dan": 4294, "\u2581pace": 13681, "\u2581attendance": 25269, "\u0bc6": 31576, "\u2581litter": 25990, "\u2581ris": 6599, "\u2728": 30816, "\u2581gotten": 10930, "\u2581versch": 12545, "\u2581Conservative": 21753, "\u2581North": 3964, "override": 23754, "\u2581Diff": 28450, "\u2581despite": 7577, "\u2581organic": 15897, "\u2581Robin": 18486, "oen": 13280, "\u2581dens": 16687, "Close": 8994, "inks": 20523, "ders": 10802, "\u2581pes": 13169, "\uc601": 30478, "\u2581#####": 5609, "ut": 329, "\u2581Catholic": 11377, "Users": 14308, "inson": 11827, "Emp": 25225, "\u2581tube": 17735, "\u2581Unit": 13332, "\u2581Unidos": 16579, "\u2581dress": 5188, "\u2581presid": 23790, "tile": 18196, "\u2581seller": 26824, "akes": 1593, "\u0435\u043c\u044b": 21663, "ante": 2237, "\u0451\u043c": 18452, "Net": 4428, "\u4f53": 29337, "\u2581breed": 14559, "\u2581prime": 8139, "\u2581uma": 5912, "\u2581behind": 2910, "\u2581Chrome": 25921, "ge": 490, "\u2581ops": 23002, "widehat": 11896, "bss": 26727, "\u2581m\u0171": 28122, "querySelector": 17238, "input": 2537, "elijke": 11718, "amps": 10991, "\u2581Gree": 15752, "/": 28748, "\u5237": 30426, "\u2581hood": 21224, "ashion": 7106, "\u2581M\u00fcn": 17308, "\u2581insert": 8561, "inkle": 26630, "\u2581Moon": 14629, "<0xBD>": 192, "\u2581song": 4034, "estone": 18557, "worthy": 25336, "\uad6d": 30779, "\u2581MIT": 17156, "\u2581bij": 10826, "\u2581An": 1094, "\u0441\u044c\u043a\u0438\u0439": 10379, "\u2581string": 1423, "\u2581negoti": 12060, "Helpers": 15506, "\u2581clarity": 25312, "mx": 19737, "ij": 1230, "\u2581sn": 2502, "\u0440\u0456\u044f": 23477, "\u2581apt": 24932, "\u2581ple": 4031, "\u2581four": 2308, "AY": 3836, "\u8907": 31119, "\u2581responsibility": 9680, "\u2581generic": 12921, "\u266d": 30420, "ateur": 10229, "throw": 10847, "arius": 23989, "aching": 10028, "\u010d": 28862, "\u76ee": 29222, "\u2581\u00e9poca": 26915, "eless": 6199, "\ubaa8": 29820, "\u2581host": 3434, "\u2581Exp": 16790, "\u2581rape": 21170, "\u0013": 30453, "\u2581Strong": 23516, "\u2581outputs": 21842, "\u53eb": 31219, "ff": 496, "\u2581Fitz": 21107, "orf": 7800, "OFF": 9770, "icates": 23860, "\u2581Apparently": 24098, "\u2581Professional": 16081, "aju": 24072, "[:": 7720, "h\u00f6": 21017, ")|": 12362, "MEM": 9210, "\u2581Context": 14268, "\u2581isolated": 18545, "\u2581membres": 28356, "\u0085": 31363, "\u2581raw": 8435, "\u2581Arbitro": 26607, "\u2581adm": 5055, "Actions": 15826, "\u2581eigen": 11060, "sdk": 17287, "\u2581geldig": 19088, "\u2581sch": 1543, "\u2581rep": 1558, "\u2581why": 2079, "\u2581rural": 13359, "\u2581shine": 27882, "\u2581sponsored": 28332, "\u2581KIND": 11067, "lem": 2933, "\u2581Political": 21684, "UNKNOWN": 24652, "\u1d1b": 31083, "4": 28781, "hop": 19463, "\u5bb3": 31346, "\u517c": 31474, "arto": 25969, "mac": 7502, "\u91cd": 29249, "\u2581greed": 25173, "\u2581che": 997, "\u2581stranger": 19625, "wohner": 18391, "\u2581therefore": 6166, "\u2581va": 4536, "SON": 4780, "\u2581Storm": 21281, "\u2581translation": 13846, "\u0905": 30766, "\u057d": 30506, "\u2581PR": 10517, "\u2581UP": 23128, "\u2581een": 2817, "\u2581oil": 5503, "\u2581couples": 18576, "\u2b1c": 31636, "\u2581sk": 1321, "\u2581pie": 3447, "\u62fc": 31214, "orus": 18235, "Add": 1991, "ower": 1072, "ly": 346, "\u043b\u0441\u044f": 7659, "\u2581Lub": 25115, "air": 992, "\u2581Mess": 13976, "\u2581liberal": 14987, "Who": 11447, "\u2581Aber": 25601, "\u2581brains": 26615, "\u2581\u043c\u0435\u0434\u0430": 28165, "Fn": 13991, "\u2581('": 8272, "\u2581mismo": 16511, "yar": 17073, "Connection": 6406, "\u2581Sid": 20315, "anco": 16326, "\u043d\u0438\u043a\u0430": 6990, "className": 17220, "\u2581&\\": 9223, "TIES": 8741, "\u2581Cert": 12089, "\u2581finished": 5967, "\u2581Table": 7582, "\u2581html": 12383, "pgfpathlineto": 12683, "\u2581senses": 23086, "\u2581Cav": 24577, "notify": 15413, "\u7eed": 30199, "outine": 22458, "\u2581Aqu": 16979, "APTER": 13531, "\u2581Jahrhunderts": 28314, "ability": 2437, "opf": 24955, "\u09b8": 30234, "Norm": 25608, "\u2581ren": 6419, "getInstance": 16413, "includegraphics": 7621, "\u2581Meet": 23859, "\u2581estimate": 11679, "\u2581precisely": 14246, "\u2581EP": 16828, "\u2581Van": 7647, "\u2581Initialized": 25728, "\u2581AMD": 27837, "\u2581Bast": 27241, "\u2581unset": 22353, "\u04af": 30186, "Rad": 9771, "\u2581Easy": 18945, "\u2581worth": 4407, "';\r": 18759, "inates": 10218, "\u2581buffers": 28600, "<0x61>": 100, "unci": 14281, "lick": 3438, "\u2581depos": 11199, "auses": 23829, "\u039f": 29865, "\u2581rec": 937, "\u2581pod": 3531, "\u2581shield": 15422, "Auth": 9083, "frastr": 10512, "\u2581vot": 10454, "\u2581\u044f\u0432\u043b\u044f": 16207, "\u2581purs": 7900, "\u2581Arthur": 12185, "hello": 21558, "\u2581congr": 25686, "\u2581XML": 16537, "\u2581Kurt": 24348, "\u2581agree": 5861, "\u2581advers": 19998, "amil": 8551, "Data": 1333, "\u2581pack": 2163, "wicklung": 25739, "emplate": 3949, "\u2581definitions": 20343, "\u6cb3": 30143, "\u2581maggio": 24080, "\u2581resistance": 12568, "ach": 595, "\u2581started": 2774, "Control": 5452, "\u2581download": 6726, "\u3057": 29111, "\u2581Pr": 1921, "Next": 6693, "\u2581foi": 7644, "likely": 10245, "\u0433\u0440\u0430\u0444\u0438": 11075, "\u2581Nation": 14317, "\u1000": 31158, "API": 6688, "\u2581Enjoy": 22823, "\u2581allow": 1914, "\u021b\u0103": 25055, "heet": 17367, "ind": 507, "nement": 14482, "\u2581\u0440\u0435\u0437\u0443\u043b\u044c\u0442\u0430": 20959, "JSON": 8438, "\u2581easiest": 28605, "eq": 1673, "Del": 9489, "\u2581enabled": 9651, "\u2581Om": 17852, "\u5ba1": 30220, "\u2581causes": 10110, "rugu": 27300, "\u2194": 30375, "LOC": 9668, "&": 28800, "%%": 6069, "\u2581Progress": 19310, "gov": 13933, "DIR": 8238, "\u2581ignor": 15294, "compiler": 19874, "\u2581PART": 11355, "\u2581inhib": 22358, "\u2581Bev": 23344, "\u2581Rich": 4656, "Pal": 14394, "\u00bb": 28848, "\u2581hence": 12211, "\u2581surfaces": 19454, "MAT": 25412, "\u2581realistic": 19595, "MAGES": 24441, "\u2581Linked": 22675, "oyal": 5703, "player": 7449, "\u2581withd": 23055, "\u2581industrial": 10663, "\u2581threshold": 14053, "\u2581\u041c\u0438": 8082, "\u56fa": 30657, "\u2581restaurant": 9926, "\u2581counts": 17938, "HA": 13307, "\u2581advise": 25937, "backend": 19792, "\u0622": 29748, "click": 6650, "\u2581{'": 12012, "\u2581Martha": 24924, "\u2581\u0410\u0440": 13462, "ikk": 28169, "\u00e0": 28839, "ieties": 13998, "\u2581completely": 4716, "\u2581writes": 13883, "\u2581dz": 14732, "\u2581spreading": 22244, "\u2581brutal": 23736, "\u2581COL": 20101, "aci": 13114, "whe": 15831, "lu": 9072, "\u0456\u0441\u043b\u044f": 20607, "\u2581INCLUDING": 26565, "\u2581Finn": 19357, "is": 278, "\u2581forme": 19396, "\u00bc": 29472, "\u2581Remove": 13908, "\u2581\u0440\u0430\u0441\u043f\u043e": 21168, "\u2581wyst": 23196, "mapsto": 24719, "\u0441\u043c\u043e": 27231, "\u2581linked": 11748, "\u2581por": 1959, "HL": 11758, "\u2581followed": 4961, "\u2581Nu": 17712, "oss": 2158, "\u2581Inga": 12806, "\u00ce": 28992, "outing": 8892, "\u2581Crusher": 21879, "lua": 20487, "\u2581Tele": 9207, "\u2581understand": 2380, "\u2581engagement": 15613, "\u2581\u0431\u043e\u043b\u044c": 15735, "\u2581allocation": 21590, "\u0086": 31038, "\uac19": 30836, "anno": 12061, "\u2581corners": 19897, "\u9057": 31889, ".[": 20011, "rob": 18443, "\u2581got": 1433, "ager": 1742, "\u2581Agent": 23393, "\u2581Own": 16545, "\u2581arrangement": 19705, "liter": 24477, "\u7248": 29547, "Figure": 25665, "HERE": 11724, "\u2581Cette": 17365, "\u2581Lil": 24964, "olph": 23814, "\u2581generation": 8342, "\u2581Wolf": 17227, "\u2581trips": 18885, "\u2581iv": 19900, "zej": 18871, "\uff0e": 31181, "$-": 4616, "Server": 5334, "aaaa": 12648, "father": 13385, "IFT": 15688, "\u2581faithful": 26073, "\u2581rates": 7978, "ExecutionContext": 20808, "ump": 1804, "\u2581guys": 6246, "\u17bc": 31441, "\u5341": 29927, "field": 2222, "\u2581Andrew": 10390, "l\u00e9": 19838, "\u2581Premier": 16103, "<0xCE>": 209, "\u2581\u043a\u0430": 2790, "\u2581confess": 26920, "aware": 15950, "\u2581Support": 10731, "\u2581Luis": 16945, "))\r": 14668, "ibt": 15046, "\u2581Amer": 1660, "aa": 4474, "Rel": 7523, "\u2581reads": 16336, "\u2581QString": 19282, "ielte": 22360, "osti": 22160, "Luc": 27921, "\u2581seus": 17288, "\u2581Wu": 28660, "\u8a31": 31482, "mutex": 7686, "american": 22071, "**************": 20798, "\ud83d\ude00": 30575, "\u2581Rail": 13056, "ILITY": 8101, "Effect": 8460, "figure": 4608, "war": 6234, "\ud568": 29938, "ressed": 10025, "\u2581Gem": 18131, "ributes": 4302, "\u2581compared": 6731, "\u2581visitors": 12085, "\u2581closure": 22746, "\u2581objectives": 22134, "\u2581fees": 12845, "\u2581protocol": 10189, "changing": 26181, "elines": 25465, "\u2581screens": 18794, "\u2581fileName": 25865, "Pre": 4277, "Dat": 6121, "\u2581puzzle": 28071, "DUCT": 27074, "-\\": 3137, "\u00e8mes": 27973, "\u2581destination": 10316, "\u2581tribes": 26296, "\u5f69": 30902, "upp": 13213, "\u2581btn": 11898, "\ud83e\udd14": 30255, "\u2581*": 398, "ored": 2455, "\u2581provin": 24899, "~$": 16621, "\u2581several": 2856, "probe": 20369, "\u2581provide": 3084, "Resolve": 28487, "\u5370": 30169, "\u2581chairman": 21572, "\u7531": 29590, "\u2581happened": 4243, "\u2581unlikely": 15764, "\u2581greatest": 9932, "een": 9995, "\u2581alto": 28077, "\u2581nested": 23793, "\u2581neither": 9159, "\u05da": 30245, "verb": 12715, "\u0441\u043a\u043e\u0439": 4683, "\u2581Cloud": 13832, "ument": 1320, "\u2581institutions": 12638, "\u30d0": 29750, "\u2581regulations": 15885, "\u2581armed": 14630, "\u043f\u043b\u043e": 23563, "\u2581;": 2753, "\u2581relate": 21506, "(:": 7306, "\u2581Musik": 20348, "\u2581Kultur": 27929, "alg": 12394, "\u2581Environmental": 25607, "itung": 24422, "\u2581Kr": 7787, "\u2581Anc": 23952, "sections": 24415, "\u5269": 31120, "\u2581magazine": 11059, "NAME": 4833, "inf": 8879, "\\]": 25188, "\u2581blob": 25828, "\u2581creator": 25365, "exception": 7703, "\u2581Johann": 12381, "\u2581brought": 4248, "\u2581ahead": 6280, "walk": 11287, "\u2581Matrix": 22711, "benfalls": 25780, "\u2581Histor": 10236, "\u2581rand": 27586, "\u2581Something": 13264, "\u2581matches": 9019, "impl": 9252, "onen": 25893, "zeichnung": 27448, "\uc870": 29841, "party": 14999, "\u4e70": 30704, "\u1f04": 31822, "\u10e0": 29449, "\u2581fell": 5970, "\u2581price": 4144, "\u2581$|\\": 26308, "TRUE": 9331, "\u2581TIME": 25720, "\u2581matt": 17419, "\u2581entitled": 15583, "DEFAULT": 10133, "\u2581NBA": 21041, "\u2581fran\u00e7": 10530, "iero": 23419, "Pattern": 11372, "\u043a\u0442\u0438\u0432": 13418, "\u2581pulled": 5822, "\u4e8c": 29482, "lm": 24174, "\u009c": 30011, "\u2581System": 2135, "\u2581Work": 5066, "Internal": 8893, "\u2581\\[": 8761, "Loop": 14960, "\u5947": 30786, "View": 2086, "IVER": 27169, "rolling": 14342, "pires": 20470, "ya": 5157, "\u2581outstanding": 17329, "\u2581exec": 19626, "\u2581uno": 10956, "\u2581Brian": 12569, "Transform": 10143, ".\";": 22319, "wor": 22493, "\u2581Ridge": 25440, "[_": 24655, "Hi": 23809, "\u2581Terms": 23222, "\u0432\u0438\u043d": 17840, "\u2581nue": 12467, "\u2581drawings": 27763, "option": 4694, "Tool": 6778, "apply": 10877, "zed": 12616, "\u2581stata": 20879, "ane": 1564, "\u2581greeted": 27473, "\u2581i": 613, "\u03c3": 29016, "\u5ca1": 31813, "bur": 7945, "\u2581Lieutenant": 18510, "\u2581be": 347, "itch": 1986, "obe": 8898, "\uacb0": 30075, "\"),": 3548, "\u9280": 31890, "unicip": 6724, "Token": 3856, "\u2581posterior": 20862, "\u2581passage": 12280, "\u2581blanc": 28609, "\u5229": 29819, "\u2581finishing": 19564, "\u2581endpoint": 15329, "val": 1052, "pop": 5951, "icia": 17708, "\u2581Sr": 25854, "rieb": 14945, "\u2581Awards": 10882, "ce": 358, "\u2581patron": 20367, "\u2581stop": 2115, "\u2581tick": 6484, "DE": 1336, "\u2581milit": 4116, "imation": 8258, "Execution": 11244, "\u2581beloved": 21708, "\u2581portions": 23694, "\u9752": 30377, "\u2581thickness": 28032, "san": 20297, "Target": 5332, "\u2581liter": 3937, "\u2581\u0458\u0435": 4557, "\u2581\u0422\u0430": 8788, "ilo": 10630, "ouch": 3204, "\u2581onde": 25747, "las": 11215, "ibly": 4912, "On": 2486, "chter": 11769, "bat": 8682, "more": 4452, "\u2581democratic": 22303, "sen": 6448, "\u2581});": 2776, "\ud83d\udcaa": 31520, "\u2581unders": 23759, "\u2581accommodate": 23926, "Extensions": 19904, "\u2581Muslims": 21731, "\u2581open": 1565, "\u2581politicians": 18594, "\u2581yield": 8109, "inement": 28012, "void": 2828, "components": 9048, "\u043d\u0443\u044e": 10841, "ems": 7940, "\u2581tossed": 23057, "sey": 7353, "nych": 10317, "\u2581cognitive": 25746, "\u2581sector": 9642, "\u5409": 30784, "wan": 10074, "drag": 20782, "\u2581Figure": 9240, ":\\": 9941, "\u2581bild": 22052, "\u2581Sout": 25773, "\u05b4": 30225, "\u2581drei": 15898, "LE": 1180, "repo": 21150, "\u2581Award": 8199, "\u2581discrim": 14256, "Av": 9269, "\u2581uuid": 26886, "rub": 22213, "kem": 28281, "\u2581dessen": 23092, "\u2581Sch": 1609, "<0xC2>": 197, "\u6e90": 29512, "\u2581\u043e\u0442\u043a\u0440\u044b": 27028, ";\"": 24626, "\u91ca": 30334, "\u6c38": 30507, "Shop": 22775, "phy": 8071, "\u7ecf": 29464, "\uc800": 29998, "\u2581Durante": 20680, "mul": 18176, "\u2581Ruth": 18943, "\u2581usually": 4312, "}^{-": 17592, "\u2581Typ": 15633, "\u2581poc": 21688, "\u2581rob": 7006, "\u2581\u0414\u0436\u0435": 24690, "get": 527, "Resize": 27714, "idelines": 15019, "pite": 4995, "\u2581ann": 2232, "throws": 10081, "SW": 9854, "\u2581\u0414\u0438": 16189, "\u2581vault": 26850, "\u8bb2": 31952, "\u2581drugs": 10747, "keyword": 22345, "FLAGS": 16751, "\u2581studio": 9659, "\u03a0": 29575, "sup": 10809, "\u0432\u0435\u0442": 8496, "\u2581touched": 12527, "\u2581authorized": 23243, "\u2581tie": 14628, "Cat": 19962, "\u2581preference": 21448, "Pres": 19167, "arily": 5164, "\u2581rab": 16479, "\u80e1": 31669, "\u0290": 31702, "\u2581corre": 7952, "oman": 8322, "vod": 21166, "\u2581seeking": 11246, "Record": 7079, "riv": 814, "OutputStream": 20667, "KEY": 6478, "\u2581cro": 7950, "\u2581cogn": 17464, "\u2581then": 868, "\u2581Das": 7029, "\u2581Christopher": 17561, "\u2581mechanical": 18832, "eral": 9785, "\u2581incorpor": 10219, "appendChild": 22897, "\u2581Year": 7601, "\u2581Judge": 20979, "\u2581campaign": 5774, "asma": 21299, "\u2581ESP": 23369, "preview": 21900, "\u0432": 28791, "\u2581ways": 4342, "swing": 11064, "ini": 3494, "lig": 4310, "Op": 5018, "uan": 6882, "===": 14203, "\u2581lleg": 15546, "\u2581sheep": 19583, "\u2581wird": 7534, "\u2581sup": 1461, "\u0440\u043e\u0432\u0430": 7921, "\u2581straight": 4855, "\u2581legend": 12851, "React": 18096, "\u2581libre": 27922, "\u2581Dort": 27238, "itte": 26055, "\u2581couldn": 3481, "mer": 794, "\u2581soft": 2664, "\u30eb": 29182, "dims": 25056, "count": 2114, "\u2581port": 2248, "\u0430\u043b\u044c": 8067, "\u2581CONDITIONS": 12231, "\u2581fick": 26275, "\u76f4": 29589, "\u2581k": 446, "getContext": 26947, "Report": 10493, "BF": 15696, "seq": 8930, "\u2581disg": 18026, "numer": 13372, "\u2581vill": 4314, "\b": 31129, "an": 276, "\u2581represent": 2904, "\u3064": 30072, "\u2581Yam": 24510, "\u2581Rom": 3945, "btn": 8226, "**:": 9189, "\u2581locals": 23237, "CKET": 26474, "\u8017": 31188, "\u2581quoted": 19315, "\u2581spy": 21848, "\u2581benef": 3749, "<0x3E>": 65, "addEventListener": 20907, "\u2581meetings": 13251, "\u2581possession": 18149, "\u2581divisions": 23868, "nder": 2520, "\u2581momento": 19131, "\u2581severely": 28064, "cci\u00f3n": 9699, "ounge": 24346, "tests": 16735, "\u2581circul": 15092, "appen": 25150, "\ud15c": 31485, "/#": 27581, "\u0e35": 29560, "\u2581unpre": 26641, "ioni": 6579, "\u2581Indians": 18161, "\u2581seriously": 10160, "\u2581booth": 26868, "ensions": 5143, "\u2581Modern": 13950, "\ub514": 30399, "\u2581lands": 15909, "Ident": 8876, "\u2581toe": 11329, "\u2581ling": 17826, "istrict": 7486, "\u00f6lker": 26087, "\u2581utilize": 22535, "i\u00e3o": 23978, "\u2581Opera": 24795, "\u2581Mathemat": 26698, "xtures": 23049, "\u2581lav": 22181, "\u2581cig": 11595, "\u2581hyper": 11503, "\u2581owner": 7162, "CY": 26940, "\u2581nature": 4735, "ijuana": 23310, "\u2581frances": 17923, "\u00e1ra": 24570, "\u63d0": 29279, "\u2581bru": 16575, "ons": 1053, "ula": 3712, "\u043d\u0438\u0439": 3962, "\u2581perceived": 21887, "\u2581mai": 8212, "\u2581otro": 22441, "War": 24378, "\u2581NO": 7929, "\u5e84": 31372, "ceil": 28379, "W": 28780, "prison": 20485, "\u2581Chase": 26668, "umped": 19999, "]": 28793, "\u2581elem": 10550, "\u2581radio": 6480, "ificial": 14773, "\u2581dock": 20097, "popup": 21519, "\u2581Nin": 24845, "\u2581astr": 15311, "\u4f20": 29359, "anz": 4879, "\u2581implications": 22570, "\u2581Em": 2929, "\u2581lever": 22599, "\u2581Herbert": 24112, "\u2581separated": 14700, "\u2581\u0418\u0441\u0442\u043e\u0440\u0438\u044f": 24439, "cipe": 24535, "sm": 2762, "\u2581Contract": 21644, "}.": 2051, "\u043b\u0435\u043a\u0441\u0430\u043d\u0434": 16109, "\u0458\u0435": 3129, "\u2581league": 10674, "\u2581elf": 22270, "\u2581tears": 11025, "itted": 3309, "\u2581espa\u00f1": 21965, "\u2581memo": 27667, "\u542b": 29872, "\u4ecd": 31971, "\u2581eventually": 6959, "nd": 292, "Listen": 17705, "Only": 8390, "\u2581arr": 4476, "\u2581intervals": 24405, "\u2581ses": 6737, "doc": 4196, "\u2581suddenly": 6914, "\u2581equally": 13387, "\u2581riding": 14557, "ond": 1089, "\u2581Decl": 19066, "\u2581marginal": 25286, "\u1038": 30773, "\u2581chest": 8118, "\u2581Coal": 25243, "\u5d4c": 31977, "GM": 16977, "UI": 5057, "/:": 26387, "irlines": 22201, "\u2581gem": 15037, "\u2581suspension": 26542, "clipse": 11458, "\u2581arbitrary": 16711, "\u2581Ali": 15284, "\u2581kor": 18054, "finish": 22471, "\u2581Gaussian": 24247, "\u2581Smith": 6717, "\u2581remot": 28601, "\u63db": 30970, "ili": 2689, "Sequence": 13248, "obal": 1995, "\u0432\u0435\u0440": 4942, "\u2581CRC": 20731, "\u2581Michigan": 13642, "\u51b0": 31835, "\u2581propriet": 20796, "\u2581\u0420\u043e\u0441\u0441\u0438": 13325, "\u2581Ris": 25054, "\u2581Geschichte": 16088, "POINT": 21085, "\u2581Sof": 21918, "\u0432\u0443": 6725, "ay": 339, "font": 6102, "\u2581Tech": 19649, "\u2581gra": 18216, "\u2581taxi": 24550, "uch": 903, "\u2581Gon": 15929, "__(/*!": 25351, "regular": 17534, "Printf": 26462, "\u2581'_": 17671, "\u2581robust": 16458, "\u2581cycle": 10061, "\u2581poverty": 16733, "USED": 17034, "RESULT": 15132, "ther": 620, "zte": 14798, "\u2581TRUE": 11905, "hp": 18634, "True": 4365, "\u2581melt": 19542, "\u2581containing": 8707, "\u2581implied": 7668, "\u2581prosecut": 16813, "ometimes": 8367, "<0x3C>": 63, "One": 6167, "\u2581otto": 24127, "zs": 27896, "\u2581air": 2423, "Bu": 21221, "\u2581n\u00e1": 23407, "\uae09": 31563, "\u2581pro": 430, "\u2581logger": 11813, ">::": 13604, "fetch": 11362, "\u2581Bach": 24158, "Json": 6773, "\u2581especially": 4012, "\u2581Rena": 25102, "\u0db1": 31487, "\u2581Doc": 18402, "\u601d": 30450, "Cur": 4432, "\u0430\u043d\u0433": 15528, "\u2581danger": 6015, "\u2581ancient": 9467, "<0x53>": 86, "\u2581cris": 8578, "imary": 7754, "\u2581exceed": 12436, "\u96f2": 31986, "otted": 9752, "\u2581chairs": 17538, "\u2581ne": 435, "\u8bbe": 29081, "eta": 1632, "\u2581septiembre": 25403, "future": 22589, "irq": 7417, "\u2581ange": 19582, "gage": 11332, "\u2581identical": 15792, "ctxt": 27567, "\u2581sed": 9178, "\u10ec": 30937, "kel": 13766, "\u2581firmly": 19321, "\u2581prospects": 26140, "\u2581[...]": 26710, "ieu": 14021, "\u2581ear": 8120, "\u2581cent": 1595, "\u2581result": 1204, "\u2581slots": 19708, "\u0f60": 31989, "\u2581NOTE": 21125, "\u2581Hij": 17550, "\u2581await": 4293, "\u2581announced": 7004, "\uc2dc": 29236, "\u2581diabetes": 22794, "\u2581symmet": 10003, "\u2581Movement": 25361, "\u201c,": 15304, "\u2581lattice": 19124, "\u09b2": 30294, "\u85e4": 30864, "\u05b6": 30780, "\u2581arch": 4219, "\u2581tradition": 9097, "\u2581gender": 11487, "\u00edv": 21022, "2": 28750, "\u20ac": 28960, "\u000b": 30638, "e": 28706, "\u2581attorney": 15085, "\u2581dich": 19132, "\u2581wer": 3037, "\u2581Farm": 15420, "\u2581Version": 7155, "\u2581both": 1560, "idd": 2558, "\u2581Ang": 3663, "\u2581**(": 27399, "oming": 17846, "\ud83c\udffd": 31007, "adelphia": 14690, "require": 6351, "messages": 16167, "}})": 27204, "\u2581sufficient": 9406, "\u2581luxury": 17211, "\ud569": 29770, "\u2581Robert": 5606, "\u2581gown": 26736, "\u2581distinguish": 23035, "la": 2220, "ignment": 6151, "\",": 548, "iph": 16030, "\u2581YOUR": 23560, "unknown": 16047, "\u2581Street": 5383, "\u2581wsp": 26114, "\u2581insist": 26648, "iom": 19934, "\u2581nic": 15750, "\u2581Geb": 11848, "\u2581ore": 14712, "<0xED>": 240, "join": 5906, "illy": 7915, "');\r": 16943, "ailand": 21151, "ehicle": 21282, "\u03a1": 30528, "\ubca4": 31852, "sky": 10919, "\u2581installed": 11540, "\u1eaf": 30429, "\u2581Brooklyn": 21491, "ruct": 866, "state": 2027, "\u015b": 28884, "\u5c04": 30554, "\u2581$-": 24279, "\u2581amer": 10269, "\u2581ident": 2562, "\u2581iz": 9345, "\u2581judges": 23233, "\u2581fot": 16111, "\u2581transparent": 20175, "ault": 1118, "\u2581keeping": 7603, "\u2581album": 4708, "\u2581displayed": 13992, "ROOT": 20045, "Fields": 7815, "\u2581affecting": 27817, "<0xD5>": 216, "\u2581corrid": 17518, "\u2581width": 4850, "sb": 4513, "cycl": 21369, "\u2581sor": 5279, "features": 14663, "Backend": 21378, "\u2581Syria": 23216, "\u2581withdrawal": 27289, "fen": 16926, "elect": 17960, "\u2581Great": 6043, "\u2581farm": 6354, "review": 22733, "\u2581rue": 22090, "\u2581showing": 8102, "\u2581pale": 12805, "len": 2004, "\u2581reporters": 25875, "\u2581summer": 5561, "Sm": 10259, "extend": 14104, "\u8eab": 29894, "\u2581bond": 9410, "\u5929": 29354, "UM": 4171, "\u2581Spot": 24666, "\u2581sys": 11677, "\u2581CR": 12007, "\u2581Des": 2535, "\u2581horn": 16624, "\u2581mine": 6683, "AST": 12440, "\u2581hig": 3259, "ovan": 13704, "\u2581risks": 14679, "\u2581Eug": 18234, "shaped": 21501, "RAN": 4943, "\u0e29": 31135, "\u2581Fre": 5694, "airy": 23421, "\u2581rise": 8418, "crate": 18298, "<0x51>": 84, "\u0b9f": 30251, "\u2581Estados": 16737, "\u2581soccer": 22642, "\u2581measure": 5266, "\u0255": 30621, "\u2581pat": 1908, "\u770b": 29466, "ablo": 22866, "\u2581shorts": 27365, "\u2581Coord": 23184, "\u0451\u0442": 14687, "\u2581cheap": 9650, "strings": 16156, "\u2581disgust": 21536, "\u2581cur": 1191, "\u2581Vers": 12433, "xB": 18674, "\u2581GPU": 28475, "<0xE2>": 229, "anks": 3750, "\u526a": 30040, "\u2581Perfect": 24443, "\ub8cc": 30221, "ollar": 20588, "\u2581Bernard": 16784, "mesh": 18372, "\u2581cracked": 24734, "illery": 19431, "\u2581bills": 16843, "\u2581Jean": 6719, "\u0cb8": 31707, "others": 15869, "texture": 20196, "\u0006": 30314, "\u10d8": 29165, "\u2581privilege": 23037, "\u2581\u043c\u043d\u043e\u0433\u043e": 20580, "\u2581during": 1938, "\u2581USD": 22858, "\u2581Lucas": 19531, "\u2581requests": 9828, "weise": 14647, "lc": 24228, "\u2581palm": 17919, "ounter": 5415, "<0x48>": 75, "\u2581sugg": 3353, "\u2581borders": 22902, "\u0433\u0456": 10217, "nb": 8611, "atform": 3272, "\u80dc": 31830, "\u03a7": 30438, "UInt": 20103, "\u2581web": 4686, "Batch": 14713, "\u2581Revolution": 13850, "\u2581\u2116": 15778, "ivid": 2397, "\u2581Flow": 21127, "\u2581residential": 18350, "ubern": 16940, "\u307e": 29241, "\u2581Consult": 20395, "ant": 440, "\u2581Ces": 17097, "\u2581assertTrue": 21923, "Track": 8493, "spi": 17456, "ming": 4082, "(((": 11133, "RC": 6860, "\u2581Ther": 16481, "\u2581franch": 16838, "complex": 19612, "ueblo": 27393, "\u5e72": 30901, "\u00d3": 29125, "\u2581\u043f\u0438\u0441\u0430": 25216, "\u2581Stefan": 27656, "\u2581Lap": 23760, "\u2581transportation": 17408, "crement": 16554, "\u2581Vegas": 18233, "\u2581ban": 8743, "\u2581Billy": 14532, "\u2581tast": 21447, "\u2581possibility": 10065, "\u2581\"(": 21816, "hen": 540, "\u2581Stone": 11775, "Gateway": 22479, "\u2581names": 2955, "\u2581HT": 7260, "tp": 8024, "\u2581Fol": 12543, "Der": 15266, "\u2581psychological": 18835, "\u2581categ": 8510, "\u2581proportion": 19938, "uvo": 25075, "\u2581-\\": 12300, "conn": 8407, "colored": 28508, "\u0430\u043d\u0434": 13435, "\u7d50": 30486, "}}{\\": 12887, "\u2581repository": 21177, "Certificate": 19119, "\u2581considered": 4525, "\u2581abstract": 11576, "\u2581comport": 27492, "\u2581\u0432\u0456\u043d": 23290, "\u2581Bau": 16095, "****************": 1393, "\u2581llev": 22290, "\uc811": 31022, "\u2581conference": 9887, "Gate": 16485, "\u2581lowered": 19307, "\u2581Vancouver": 23250, "chestra": 18357, "\u2581bamb": 27048, "\u2581wherever": 20517, "cers": 15148, "lov": 13038, "\u2581turning": 8528, "\u1ee7": 30190, "\u2581Co": 3092, "\u039a": 29659, "\u0446\u0438\u0438": 5991, "\u2581sim": 1290, "\u2581$(\"#": 27549, "istribute": 15505, "\u0442\u044c\u0441\u044f": 6877, "\u2581panels": 18771, "CONFIG": 9835, "riors": 18152, "Worker": 18155, "\u2581villages": 18996, "Th": 1227, "\u2581implemented": 13492, "\u2581persistent": 24777, "\u2581married": 6368, "Results": 12220, "\u2581sop": 16766, "\u2581+=": 2679, "\u2581vr": 22954, "\u2581Nord": 8402, "\ud3c9": 31523, "Services": 12926, "\u2581Come": 12578, "\u2581\u00c1": 10415, "observ": 22276, "\u5305": 29333, "\u2581acquisition": 23011, "\u2581statements": 12908, "\u2581Ian": 17311, "DOM": 15421, "igger": 4079, "Threading": 24631, "\u2581\u043f\u043e\u0441\u043b\u0435\u0434": 25354, "Configuration": 6365, "\u2581Bath": 18512, "\u2581DateTime": 20917, "WORD": 10993, "\u2581\u043e\u0442": 2433, "\u2581ihre": 17080, "\u2581GNU": 7171, "NOT": 7536, "platz": 23591, "\u2581plan": 2623, "alin": 18107, "outs": 8508, "chts": 18201, "\u5b69": 31437, "\ub864": 31953, "Repo": 26280, "tra": 1947, "\u2581Sand": 7512, "\u2581extern": 7784, "rated": 27210, "----": 502, "\u2581jedoch": 16154, "\u2581Apart": 20754, "\u2581splitting": 28578, "\u0441\u0441": 13847, "\u2581barrier": 19644, "Mem": 5768, "eland": 13942, "\u8f91": 29815, "ears": 5940, "\u2581homes": 9039, "\u2581notification": 14901, "\ubc00": 31192, "\u2581tur": 8586, "\u0002": 30551, "\u2581vy": 15612, "\u2518": 31652, "ILED": 17094, "\u03ad": 29271, "\u2581nau": 26049, "\u0bb3": 31069, "\u2581proper": 4979, "\u2581around": 1401, "\u2581leap": 26745, "\u2581place": 1633, "before": 12098, "\u2581trunc": 23832, "\u2581victory": 11115, "\u2581ON": 9688, "\u2581border": 6765, "oby": 13440, "\u2581definitely": 6304, "Ro": 23909, "\u2581sample": 7324, "list": 1703, "EQ": 5692, "\u2581Valent": 18103, "\u2581celebrate": 16895, "\u2581nie": 7988, "icos": 8368, "\u2581reduction": 13388, "abase": 3975, "\u00e2nd": 16801, "Filename": 24773, "\u2581expense": 19475, "\u2581curriculum": 25763, "StackTrace": 20270, "\u2581Lyn": 15975, "\u2581\u0432\u0438": 3542, "area": 7458, "\u2581voting": 17035, "vard": 14743, "mode": 4046, "\u2581Names": 27909, "\u2581indicated": 14075, "\u2581ace": 23705, "Apr": 27754, "\u2581gard": 13837, "Application": 7951, "comfort": 12248, "vf": 25817, "\u2581Fresh": 27376, "\uae4c": 30578, "\u2581stam": 25005, "\u2581ranks": 19334, "native": 14305, "\u2581\u00c9t": 14011, "\u2581accomplished": 20141, "reated": 10322, "curr": 14032, "cookie": 19087, "aus": 1899, "kom": 9902, "\u2581Small": 12827, "\u2581Mich": 4094, "amen": 9519, "\u2581\u0410\u043b": 25214, "\u0454": 28893, "\u6768": 31617, "uve": 22322, "\u0442\u0435\u043b\u044f": 17371, "\uc628": 31386, "\u4eba": 29086, "\u2581refuse": 17720, "\u2581scarc": 28276, "\u2581East": 5691, "\u0d4d": 30691, "\u2581controlled": 12888, "\u2581\u043a\u0440\u0435": 24185, "\u00e4n": 5300, "enze": 28060, "\u2581kter\u00fd": 28162, "\u2581struggle": 11371, "\u2581Innov": 24013, "ancers": 25799, "\u2581Blake": 23450, "\u00e9n": 2864, "ibli": 10798, "Focus": 12819, "sensor": 15017, "asting": 16261, "\u2581OR": 3994, "\u043c\u0435\u0440": 8840, "useum": 5858, "\u2581Director": 9298, "\u2581authentic": 18250, "\u2581flag": 6673, "\u2581Transport": 15096, "DITION": 11160, "Nil": 24456, "Errors": 16958, "\u2581inv\u00e5n": 26939, "\u2581proble": 1934, "eb": 1169, "\u2581particip": 4105, "\u2581..": 8072, "issions": 5091, "\u2581injuries": 15871, "anon": 20931, "\u2581bibli": 22426, "\u043a\u0443\u043f": 26414, "ier": 749, "actual": 15141, "k\u00f6": 17986, "\u2581Court": 6924, "\u2581Publishing": 26999, "Throw": 16519, "\u2581Debug": 18536, "\u2581Napole": 22204, "\u2581boys": 8066, "\u300e": 31176, "\u2581tags": 12944, "\u2581cup": 6211, "\u2581Many": 6025, "\u52a8": 29129, "Xml": 9911, "\u057a": 31881, "utch": 9244, "\u4fa7": 30994, "\u2581Family": 10712, "\u2581ol": 10370, "\u2581D\u00e9": 18833, "subsubsection": 21763, "\u2581predomin": 27283, "http": 2872, "\u753b": 29696, "\u2581aesthetic": 27974, "\u2581audience": 7938, "\u2581Jahrhundert": 19297, "uint": 3577, "inton": 11462, "ained": 1738, "pe": 386, "Hex": 21934, "rict": 6385, "\u2581Susan": 17569, "\u885b": 31899, "Handle": 6028, "Raw": 11822, "\u2581balcon": 26472, "Address": 5049, "\u2581insight": 16164, "\u2581Drive": 16857, "\u2581denen": 27796, "\u2581killed": 5582, "\u2581decides": 24928, "\u2581repeated": 9332, "enci": 24086, "\u2581Below": 20811, "\u2581Books": 13540, "\u2581Balt": 17111, "\u2581query": 5709, "Play": 10045, "\u2581emerge": 26061, "\u2581events": 3926, "\u4e94": 30108, "FO": 4521, "\u2581\u00b0": 8793, "\u2581anche": 9372, "activ": 10375, "ov\u00e1": 10874, "ells": 8855, "\u2581aver": 13363, "\u2581lan": 26573, "\u2581Unter": 10952, "\u2581Ga": 11131, "\u2581zaw": 24300, "\u266a": 31020, "rename": 22778, "\u0161t\u011b": 27832, "cv": 12750, "\u043d\u0430\u0440\u043e\u0434": 19388, "\u516c": 29443, "ext": 1205, "\u2581\u041a\u043e": 5779, "anes": 8782, "\u2581sources": 7291, "ANT": 12738, "\u2581gotta": 22537, "\u2581poly": 12371, "Blocks": 23388, "\u2581Rober": 4542, "\u2581Sz": 8718, "tit": 23497, "isine": 26704, "\u2581global": 3526, "dai": 26862, "\u56fd": 29453, "\u2581\")": 20263, "\u2581Camb": 10597, "\u2581dimension": 9711, "\u2581Maine": 23579, "\u2581holding": 6632, "\u2500": 28979, "\u0459\u0430": 21284, "\u2581suspect": 12236, "\u2581nouvelle": 24303, "\u76d6": 31133, "Of": 2862, "________": 8320, "lli": 25137, "\u2581past": 2609, "\u2581remarkable": 16959, "\u2581(_": 9453, "\uba70": 31718, "ition": 685, "due": 27396, "ea": 11062, "\u2581applic": 4598, "Keep": 24205, "\u2581retire": 26033, "\u2581Order": 9006, "training": 25714, "\u2581grave": 14272, "Car": 11799, "getC": 25170, "\u00e1nd": 12849, "\u2581boring": 19757, "\u2581toggle": 23635, "cov": 25199, "escape": 19027, "otive": 28538, "\u2581attached": 11053, "=\"/": 20081, "ritz": 24855, "\u044e\u0449\u0438\u0435": 27615, "\uc0c1": 29578, "How": 5660, "\u2581theatre": 18635, "orient": 13853, "\u2026.": 20541, "\u2581Find": 8769, "\u2581rapid": 8421, "Produ": 17448, "human": 18529, "Sizes": 25735, "\u2581Prec": 28386, "\u2581sits": 19050, "\uc5f0": 30107, "\u2581barn": 18581, "\u2581horrible": 16826, "[\\": 7535, "\u2581results": 2903, "<0x1E>": 33, "\u2581classic": 11495, "auer": 10988, "\uc600": 31958, "ruction": 3112, "\u2581wax": 26627, "\u597d": 29530, "min": 1240, "\u2581mental": 8057, "\u043b\u0443": 2932, "\u2581Mock": 16093, "\u0392": 30431, "Search": 7009, "\u2581inspired": 11971, "thumb": 20152, "\u2581fill": 5211, "leq": 4688, "Men": 22963, "ovie": 12347, "ision": 1522, "\u2581compassion": 20151, "\u2581pollution": 27702, "\u30a4": 29157, "\u2581+": 648, "\u2581defend": 11754, "'].": 14303, "\u2581Ser": 3066, "\u2581Kids": 21186, "\u2581Fine": 24105, "\u2581surviving": 26248, "USB": 16323, "\u2581limit": 3607, "\u2581representing": 14030, "\u2581regret": 18369, "Observ": 23044, "\u2581quite": 3448, "\u611b": 30678, "config": 2241, "\u2581\u041c": 1894, "\u2581pistol": 24184, "\u0101": 28930, "ulf": 12981, "\u2581ads": 17644, "\u30ca": 30081, "aired": 27183, "\u2581involved": 5290, "int": 501, "\u2581Government": 9714, "\u00e4ude": 24576, "\u2581Schedule": 25874, "items": 6949, "ADDR": 12617, "\u2581san": 8417, "peror": 13910, "Buttons": 27178, "atter": 2466, "uding": 9155, "\u2581settembre": 24864, "\u2581mole": 12160, "\u2581Cross": 10464, "cap": 4996, "\u0423": 28890, "\u2581Through": 10091, "agu": 12736, "\u2581M\u00e4rz": 18035, "method": 4350, "ielen": 19127, "\u2581och": 2634, "\u534f": 30781, "See": 7992, "\",\"": 5988, "\u2581Nature": 19013, "controller": 11517, "\u2581decade": 12250, "\u2581seasons": 15238, "\u2581Blo": 9797, "\u2581Eval": 24223, "\u2581highlighted": 27666, "atched": 25925, "\u0442\u0438\u043d": 14981, "Processor": 17088, "\u0294": 30317, "\u2581Ont": 16443, "age": 465, "VB": 28576, "assador": 19536, "\u5200": 31516, "\u0442\u0430\u0445": 27747, "\u2581inf": 4319, "Summary": 17590, "\u2581\u0441\u0442\u0443": 20558, "\u2581catal": 21348, "eti": 26834, "\u2581external": 9354, "\\,": 5568, "\u2581Jun": 6641, "locale": 19237, "\u2581Cor": 3198, "'.": 4135, "\u2581traditional": 7062, "\u2581Fern": 10830, "_{{\\": 17541, "\u2581Wa": 24867, "<0x70>": 115, "\u2581ment": 4498, "\u2581lieu": 18569, "\u2581Queens": 19689, "\u2581oppos": 5793, "\u0440\u044f\u0434": 18554, "\u2581bour": 25715, "\u2581nick": 17663, "etto": 19715, "\u2581remembering": 26036, "\u2581laying": 27587, "\u2581Better": 18862, "\u0441\u0442\u0432\u0435\u043d\u043d\u043e\u0439": 25166, "inn": 2594, "\u2581furniture": 12389, "syn": 25690, "INDEX": 16358, "\u2581protect": 5321, "\u03c2": 29013, "\u21fd": 31853, "$}": 15489, "esi": 17897, "\u2581ji": 28589, "arte": 16313, "\u2581specifically": 10107, "AUTO": 24966, "\u2581asshole": 25676, "thern": 4399, "naire": 25008, "\u2581\u043a\u043e\u0440": 21146, "\u9547": 29780, "\u2581elect": 3206, "ob": 598, "UX": 12641, "\u0937": 31118, "ebug": 5986, "\u2581chances": 14562, "\u2581smile": 6458, "\u2581Walker": 17734, "reduce": 21334, "\u2581zijn": 7666, "\u2581Ram": 8839, "\u2581Broad": 12807, "awn": 11646, "ates": 1002, "\u0446\u0435\u043d": 20829, "\u2581warning": 9536, "\u91c7": 30398, "\u1f10": 30414, "velop": 1809, "\u2581uns": 10214, "Str": 3490, "\u2581canon": 28585, "\u2581increase": 5247, "CU": 24164, "Depth": 17603, "ixa": 27375, "DIO": 18036, "Container": 5738, "addy": 13774, "\u2581hij": 7174, "\u2581rice": 13825, "\u2581conservation": 21088, "erra": 9718, "expression": 15848, "Lang": 22323, "\u2581lover": 19568, "dh": 22410, "images": 10341, "!_": 19193, "ald": 3165, "\u2581devil": 23153, "<0x16>": 25, "oci": 2139, ".<": 26364, "\u011bl": 27447, "\u2581mostly": 7444, "DATA": 7954, "Al": 2707, "}`": 12504, "bag": 19001, "\u2581bitmap": 28017, "configuration": 13925, "\u2581knee": 16229, "\u2581remain": 6344, "\u00edcula": 19858, "anti": 7764, "\u99ac": 30831, "board": 3516, "\u2581Chile": 17406, "itions": 2065, "hbar": 22559, "oriented": 28113, "DED": 16048, "Index": 2359, "essage": 899, "\u2581rod": 16439, "\u2581dest": 2620, "Grid": 8625, "\u2581loc": 1195, "\u043b\u0430\u0433\u0430": 22443, "\u2581canonical": 24600, "\u2581Medicine": 18293, "\u0445\u0456": 25664, "\u2581\u0441\u043b\u0443\u0436": 26683, "\u10d0": 29134, "\uc758": 29187, "NO": 4032, "\u05d2": 29632, "\u0442\u0430\u043b\u0438": 21865, "unto": 16665, "\u2581safer": 25844, "refix": 5770, "\u2581Stadt": 11363, "\u2581its": 871, "\u2581anonymous": 23267, "\u2581Server": 13929, "\u2581Mar\u00eda": 20511, "\u2581Safety": 19412, "|_{": 28221, "\u2581depicted": 28264, "\u2581Stephen": 12332, "\u2581DATA": 21578, "\u2581damages": 25547, "ippet": 27583, "\u2581Lors": 28462, "\u2581responses": 14915, "veh": 25973, "}\\": 1137, "\uce58": 30159, "Router": 16907, "\u2581medication": 20859, "\u2581avril": 19330, "\u2581writ": 2281, "achen": 23517, "\u64c7": 31509, "\u2581included": 4658, "\u2581vertex": 14183, "\u2581Fund": 11051, "\u2581\u0442\u0440\u0435": 12405, "\u89c2": 30740, "browser": 13612, "\u2581#{": 22465, "Ha": 26135, "owed": 10552, "\u6642": 29607, "\u2581TD": 26516, "he": 265, "omorphism": 19906, "mon": 2640, "}$,": 5070, "\u2581winning": 9821, "\u2581census": 21254, "\u2581wheat": 28135, "otal": 5834, "HashMap": 20352, "\u2581exterior": 21560, "\u2581encryption": 27591, "\u2581literary": 16956, "cembre": 18764, "\u2581Sophie": 22223, "THER": 11948, "New": 2972, "\u2581significantly": 11117, "recv": 22344, "\u2581accepts": 26223, "\u2026]": 21888, "\u2581enc": 2524, "igung": 19089, "idea": 28366, "Razor": 21969, "chs": 21100, "\u2581Ant": 3821, "sort": 7653, "\u2581enterprise": 18355, "\u2581calling": 6852, "ncia": 9529, "\u2581Primary": 25938, "ioned": 21856, "His": 21860, "\u2581curves": 18469, "javascript": 20168, "nu": 3556, "\u2581central": 5971, "\u0643": 29171, "\u2581eager": 15381, "\u2581Shar": 20071, "cref": 27742, "\u2581root": 5557, "\u2581Dead": 14292, "pond": 19571, "TARGET": 23187, "tikz": 23965, "\u2581Society": 8522, "\u2581wx": 14830, "\u2581reached": 5048, "Left": 7549, "fac": 20107, "ampions": 5624, "\u5e76": 29457, "\u2581ja": 10987, "\u2581origin": 5016, "\u2581pl": 549, "\u2581garden": 8759, "Elem": 21302, "<0x8A>": 141, "\u2581Ar": 1010, "ldots": 8764, "}&": 22601, "Graph": 8380, "\ud655": 30270, "\u2581daughter": 5690, "Tr": 1470, "Sv": 26046, "epoch": 26729, "class": 1889, "\u2581hills": 18553, "\u6b3e": 29994, "\u2581racist": 19139, "ggreg": 16798, "\u2581Inter": 4287, "\u0434\u0435\u0439": 17650, "trim": 13484, ".*": 3752, "\u032a": 30956, "\u8a9e": 30321, "\u2581Switch": 20666, "\u2581survival": 16856, "real": 6487, "\u2581Georges": 28161, "ere": 397, "\u2581demo": 23969, "otype": 21475, "\u2581Gef": 26566, "\u2581fine": 4433, "ften": 14073, "\u2581texts": 19337, "\u2581[\\": 26239, "\u2581SORT": 14332, "\u043a\u0440\u043e": 26810, "\u578b": 29173, "\u6bd5": 31347, "\u0446\u0438\u043e\u043d\u0430\u043b\u044c": 20104, "oso": 13880, "JECT": 11546, "\u2581});\r": 26392, "\u040a": 29715, "\u2581sind": 6822, "\u2581Seg": 9594, "Supported": 19306, "\u2581la": 543, "ifications": 7467, "\u2581clone": 17993, "\u2581obsc": 16502, "\u6885": 31223, "\u2020": 28932, "\u0448\u0435": 3647, "mount": 13022, "\u2581Bowl": 21484, "tip": 8451, "\u2581Tan": 17157, "oric": 16891, "\u2581fract": 24632, "break": 2876, "\ud83d\ude0a": 30464, "\u2581proto": 10209, "abling": 18617, "cal": 1391, "hi": 5365, "slice": 11485, "eff": 6610, "\u2581spite": 18879, "\u968f": 30179, "\\}$": 17006, "\u044e\u0449\u0435": 19374, "\u63cf": 29697, "\u2581loss": 4320, "):\r": 20358, "ari": 1900, "\u2581owned": 10496, "\u2581chapters": 25310, "\u2581sin": 5450, "\u2581Brad": 12906, "\u2581confidence": 9843, "\u2581urg": 13839, "ERY": 19369, "\u2581welcomed": 26097, "ler": 1523, "Health": 18470, "\u2581home": 1611, "TE": 3392, "eli": 20949, "Vers": 25423, "\u7d0d": 31824, ")).": 8698, "\u2581Christians": 17209, "dig": 7845, "Err": 1534, "dynamic": 18691, "\u2581Normal": 23325, "\u2581imm": 4493, "=\"#": 15532, "license": 16576, "inale": 20971, "\u8be6": 29852, "change": 4078, "\u2581sel": 7530, "itation": 5174, "\u2581whis": 8037, "fb": 10967, "\u2581XVII": 28183, "\u2581naval": 23850, "Vec": 12790, "ega": 4770, "\u9662": 30370, "ened": 2106, "\u2581dishes": 18454, "\u2581mount": 4766, "\u03c6": 29307, "\u2581apolog": 15884, "\u2581Nicole": 27688, "\u2581options": 2877, "emplates": 16171, "\u2581Birmingham": 25613, "inode": 9924, "\u0437\u043e\u043d": 24973, "\u2581Financial": 17146, "\u0449\u0430": 6770, "\u2581clin": 8837, "\u2581byla": 23070, "<0xFE>": 257, "incing": 26455, "\u2581Math": 6960, "\u2581padding": 12342, "\u2581tanks": 20274, "osing": 8461, "\u91d1": 29452, "ROL": 19172, "\u2581breakfast": 11814, "\u2581Laura": 16145, "Angle": 17917, "ascular": 28140, "\u2581delighted": 23038, "unfinished": 6921, "ved": 1800, "\u2581suffering": 11812, "\u2581prv": 24949, "Could": 17024, "\u2581inserted": 23511, "\u2581Inside": 20726, "\u2581Erik": 25367, "\u56de": 29034, "\u2581peg": 21979, "nte": 15111, "DAP": 25857, "\u2581holy": 19214, "Transport": 20036, "\ud83c\udffb": 30084, "tn": 6888, "\u2581smoothly": 28147, "verse": 4177, "agraph": 11280, "Commit": 20629, "\ud0c0": 30304, "ata": 563, "culate": 16914, "\u2581focus": 3232, "\u2581\u0442\u0443": 19365, "ation": 352, "\u2581storm": 9735, "\u2581dys": 20840, "\u2581pup": 18781, "\u2581journalist": 19226, "\u2581biological": 21549, "\u2581nuevo": 23609, "PRINT": 18027, "ktion": 16591, "bu": 7330, "\u2581committee": 13414, "\u2581kar": 14504, "\u0437\u0430": 2978, "nier": 16408, "\u2581shortly": 16434, "\u2581Barbara": 17332, "\u2581rounds": 18638, "\u2581reste": 26124, "\u0646": 28955, "\u9759": 30709, "\u2581went": 2068, "\u2581IT": 8862, "\u09ac": 30099, "\u2581called": 1987, "\u2581projects": 7028, "\u2581im": 503, "Inv": 10188, "Met": 4680, "\u2581loaded": 10773, "signal": 16530, "\u2581\u0431\u043e\u043b\u0435\u0435": 21314, "Exit": 18385, "\u2581adopt": 8799, "\u538b": 30563, "\u2581lib": 6538, "\u2581Hom": 11537, "\u2581Games": 12339, "\u2581dag": 20144, "\u2581Qual": 9480, "\u2581Hann": 14390, "\u2581Black": 4777, "\u2581crashed": 27795, "\u17b6": 29847, "\u2581\u0442\u0440\u0430\u043d": 24407, "oirs": 27986, "\u00fcnst": 23448, "\u00c9": 28901, "cre": 961, "th": 362, "\u2581ved": 16986, "\u2581Vert": 21970, "\u2581Adams": 17079, "utat": 27426, "\u2581ser": 1201, "java": 7628, "ository": 8266, "\u0441\u043d\u044f": 26893, "DN": 28385, "\u6beb": 31331, "\u2581pregnancy": 18974, "icians": 8019, "\u2581Murray": 19973, "\u2581Christianity": 22266, "\u2581absent": 20311, "\u2640": 30155, "efore": 4329, "Check": 3828, "\u2581opinion": 7382, "\u0441\u0442\u044b": 20495, "\uc9dc": 31405, "\u2581\u041c\u0430\u0440": 13666, "\u0cc6": 31421, "\u2581sidewalk": 27430, "\u2581sar": 24393, "\u96be": 31407, "uel": 3009, "IEW": 19212, "akov": 25208, "multicol": 18223, "RENT": 22286, "oine": 21265, "Cut": 27724, "\u2581dist": 1255, "\u2581explored": 26761, "\u2581className": 4899, "\u2581flex": 7584, "\u2581value": 1192, "\u2581another": 1698, "\u2581About": 7634, "\u2581Arnold": 24396, "boy": 14803, "\u2581decor": 8059, "\u2581Throw": 20277, "compar": 24218, "ial": 505, "akten": 21305, "\u2581extension": 8223, "\u2581chosen": 8729, "\u2581mattress": 20186, "CONST": 21980, "cil": 4872, "slider": 22919, "\u2018": 28894, "ented": 12713, "\u2581occasionally": 16045, "Translation": 25825, "\u2581shining": 26575, "icional": 27391, "olv": 19680, "Form": 2407, "Ap": 4750, "types": 5630, "eda": 13170, "\u2581infer": 13701, "\u2581Mountain": 15228, "\u2581MA": 6540, "dbg": 14962, "\u2581Eight": 24182, "\u2581twentieth": 26203, "\u2581Mannschaft": 26241, "\u1e47": 29774, "Indicator": 27284, "\u098f": 31723, "List": 1245, "\u2581bor": 24863, "\u2581actors": 16760, "Fin": 11491, "\u2581Recently": 27186, "\u2581rating": 15470, "mot": 16322, "\u2581Board": 9217, "Formatter": 23533, "IOException": 15211, "example": 7476, "\u2581singer": 15307, "\u00f6": 28834, "who": 12938, "\u2581porn": 16794, "\u2581EDIT": 24645, "stop": 6898, "\u2581views": 8044, "\u2581tile": 16741, "\u2752": 31841, "\u2581Raw": 20165, "\u2581behavi": 10205, "\u2581myster": 16092, "\u2581curve": 11903, "\u2581profes": 20078, "\u2581ble": 8012, "Session": 6554, "\u2581header": 7735, "Assembly": 25617, "\u2581span": 12363, "\u2581Eric": 12867, "\u2581Dav": 3476, "\u2581victims": 13980, "Rele": 14768, "\u2581Sebast": 18935, "\u2581Connecticut": 23998, "\u2581Hig": 14327, "on": 266, "spin": 9090, "\u2581discuss": 3342, "skim": 21444, "\u2581Collections": 27395, "\u0437\u043d\u0438": 22037, "\u2581speakers": 20872, "\u2581Upon": 20921, "\u2581rent": 7358, "\u2581Monday": 9262, "So": 5142, "\u2581();": 16349, "mouth": 20123, "\ud83d\ude0f": 31574, "Break": 17240, "\u2581Nicholas": 22676, "omsnitt": 22847, "\u2581various": 4118, "\u2581Unlike": 17383, "\u2581dece": 23009, "\u2581gig": 13790, "\u53c3": 31799, "\u2581orth": 17396, "\u2581bankrupt": 25393, "Inf": 20417, "\u2581Rogers": 26484, "pert": 2482, "\u2581Rights": 12744, "flix": 22401, "EL": 2980, "onio": 23571, "Volume": 12936, "\u2581Bo": 3268, "Sys": 22824, "lif": 25092, ">&": 8591, "\u2581books": 4796, "\uc778": 29324, "\u2581positive": 5278, "\u2581Develop": 8587, "\u2581Tes": 25687, "\u2581visibility": 23446, "bench": 20986, "\u2581Garc": 26541, "\u2581afford": 8205, "teenth": 20941, "\u043b\u043e": 1120, "\u2581suppress": 22555, "\u0144sk": 12447, "Segment": 17437, "\u2581soil": 14315, "\u2581purposes": 10700, "\uc5c5": 30279, "\u021bi": 14846, "bid": 9679, "\u2581authors": 11739, "soap": 19516, "\u2581cyl": 20218, "sizeof": 9936, "\u00e9e": 2110, "\u0430\u043d": 2239, "ische": 3751, "\u0624": 31456, "\u2581bu": 957, "\u2581Credit": 18004, "DataType": 19234, "\u2581reserved": 9144, "\u2581abol": 23599, "quire": 18948, "\u2581Bitcoin": 22438, "Sub": 3540, "\u2581lag": 16369, "\u2581General": 3592, "\u5948": 31869, "\u2581Bank": 7838, "\u592e": 31769, "\u2581galax": 11407, "\u2581military": 5469, "\u2581September": 4074, "\u2581tok": 12666, "rage": 18955, "\u2581swing": 14088, "compute": 16753, "ested": 7848, "\u2581Online": 10634, "\u2581communicate": 16287, "\u2581strengthen": 15974, "Mount": 20969, "\u2581\u0443\u043b\u0438": 27633, "text": 772, "\u0119\u017c": 28453, "opt": 1642, "\u2581\u00c4": 18912, "\u2581GFP": 23577, "\u2581odds": 18585, "\u0649": 29591, "\u2581take": 1388, "\u2581cut": 3119, "\u2581Dest": 14466, "RD": 15363, "\u2581\u0160": 13688, "\u2581dign": 18485, "\u1eef": 30586, "\u2581Com": 1124, "aning": 25388, "\u2581racism": 22409, "\u0446\u0438\u0430\u043b\u044c": 18878, "\u2581ago": 3584, "\ub610": 31292, "\u2581\u043e\u0431": 2802, "\u2581WH": 14897, "Original": 20582, "\u2581fort": 5922, "merge": 13180, "\u2581pricing": 22419, "\u2581\u200b": 15758, "Product": 7840, "userId": 23490, "\u2581stiff": 16516, "c": 28717, "\u2581DCHECK": 22643, "ivamente": 18277, "false": 3952, "\u2581\u043f\u043e\u043b\u044c": 27904, "unsigned": 4447, "icon": 3790, "\u0440\u044e": 23434, "acters": 5632, "apolis": 20389, "\u7d00": 31614, "\u2581\u00c5": 15744, "innings": 21543, "fin": 3013, "\u2581\u0432\u043e\u0435\u043d": 20641, "\u2581Driver": 24420, "Queue": 9583, "\u6ed1": 31062, "were": 27609, "Mill": 14667, "\u6821": 30069, "\ucc44": 31556, "rooms": 14520, "');": 2207, "proxy": 13764, "\u2581Benjamin": 18258, "dest": 5356, "plane": 13209, "\u8a0a": 30844, "\u0433\u0440\u0430\u0434": 21947, "emperaturen": 26292, "Fact": 19558, "\u5c1a": 31291, "\u2581Make": 6746, "\u624d": 30120, "Framework": 15456, "iqu": 2741, "\u0c97": 31789, "nog": 28470, "\u2581\u0439": 22092, "<0x6D>": 112, "Red": 7516, "attr": 3457, "transition": 19655, "shape": 7015, "wb": 26078, "\u2581Rein": 24541, "\u2581Leb": 13304, "\u4eab": 30461, "\u308f": 30495, "\u2581Bal": 9573, "displaystyle": 22111, "\u00e2t": 19322, "\u2581tri": 2629, "\u2581commut": 24659, "\ub824": 30710, "\u2581Staff": 13594, "IDS": 19954, "\u2581'.": 14067, "\u064f": 29587, "\u2581profitable": 27822, "Aggreg": 21648, "\u049b": 30417, "master": 9548, "\u2581erste": 19233, "\u2581analyze": 20765, "\u4efb": 29454, "\u2581trusted": 16437, "Site": 17606, "\u2581associations": 25963, "\u2581Leip": 26417, "\u2581opponent": 20364, "\u00e1t": 4566, "ighter": 8918, "\u2581attempted": 15335, "oj": 6054, "ORS": 13520, "NdEx": 19248, "\u2581cycles": 23221, "textbf": 7343, "\u2581demonstrate": 16499, "\u2581Ost": 18220, "ational": 1249, "iert": 6257, "\u2581''": 9842, "\u2581vet": 22116, "\u2581donne": 28207, "modified": 25123, "gnu": 19588, "\u2581recycl": 20115, "\u2581jumping": 23058, "\u2581\u0447\u0435\u0440": 21592, "\u2581Neg": 12165, ".;": 19362, "warning": 15845, "\u21b5": 31215, "\u2581heads": 10478, "\u2581won": 1747, "cur": 1352, "endor": 9598, "eurs": 16465, "bras": 21420, "\u2581Sweet": 22593, "\u2581Metal": 24144, "<0x0E>": 17, "\u2581side": 2081, "existing": 24049, "\u2581philos": 28039, "polit": 20424, "\u2581preview": 25203, "\u0441\u044c\u043a\u0435": 27942, "\u2581zwischen": 13217, "\u2581\u0434\u043e": 2149, "steller": 25383, "\u091a": 30671, "\u2581yet": 2783, "\u2581bou": 16720, "azar": 21364, "iNdEx": 25900, "\u2581du": 1415, "\u2581including": 2490, "\u2581clever": 19345, "Ev": 8459, "Sam": 19777, "\u2581IX": 22343, "\u2581annual": 9558, "\u2581distribute": 22536, "\u2581regions": 10542, "\u2581homosexual": 28035, "\u2581stuff": 4705, "\u2581Legend": 26499, "\u2581Check": 4914, "\ud305": 31589, "aten": 6486, "\u2581grandmother": 19023, "https": 3887, "ses": 6065, "icks": 5446, "oggle": 9282, "\u0cb2": 31648, "endo": 4722, "\u2581capac": 17025, "\u2581Arg": 10852, "\u2581febrero": 27906, "\u2581alone": 4411, "\u2581princess": 28313, "\u0440\u0443\u0434": 22308, "(\\": 1365, "aire": 5731, "\u2581marriage": 7811, "\u2581held": 3336, "deck": 23986, "inter": 1646, "TION": 10940, "WIN": 14655, "Appro": 27885, "\u2581Imm": 25555, "verts": 24873, "\u2581occur": 5264, "\u0437\u044b\u0432\u0430": 18084, "\u0437\u044b": 7763, "\u250c": 31294, "bled": 9704, "en": 269, "\u2581|\\": 17446, "<>": 28675, "oli": 7320, "\u2581issued": 11793, "eny": 20552, "\u2581filters": 17123, "\u2581mos": 18666, "ively": 2260, "\u2581PARTIC": 12942, "\u2581tiles": 24903, "\u2581outrage": 27143, "peated": 27367, "isle": 24468, "dt": 7051, "hy": 5942, "ipt": 14345, "olution": 2100, "\u2581holder": 21496, "correct": 24555, "\ub808": 30514, ")\");": 18490, ";}": 26070, "\u2581len": 3919, "ux": 1554, "FILTER": 24139, "z": 28764, "\u2581Hit": 11288, "bour": 6814, "bles": 9343, "\u2581Vel": 14812, "anche": 14455, "ulates": 26885, "\u2581miejsc": 21719, "\u2581kilometres": 26005, "\u2581Minister": 8241, "\u2581Lay": 26271, "\u2581jQuery": 12257, "\u2581journalists": 26197, "ients": 2785, "\u0d9a": 31910, "\u2581promise": 9081, "\u2581poorly": 24122, "\u2581Bot": 17174, "\u2581certificate": 15743, "\u2581Arabia": 27264, "\u2581natural": 4229, "\u201c": 28835, "\u2581Sara": 23365, "stairs": 13477, "\u2581aggress": 12788, "chrome": 21001, "}{": 1400, "\u2581renown": 27556, "\u5347": 30401, "istribut": 7880, "gpu": 15462, "MG": 26860, "\u2581However": 2993, "ERROR": 4732, "\u2581Ireland": 11170, "<0xC5>": 200, "\u2581settlement": 13694, "xxx": 22607, "\u2581Bond": 20008, "\u2581bab": 13225, "\u2581cette": 8821, "King": 28262, "\ub2f5": 31647, "\u2581Blog": 21095, "other": 1039, "\u2581Device": 20000, "sbur": 20891, "\u2581spaces": 10599, "\u2581\u0411\u0435\u0440": 23161, "ity": 472, "\u2581violence": 9165, "========": 1647, "Emitter": 26264, "eros": 10667, "\u2581deep": 3534, "\u2581byl": 15722, "\ub9c9": 31655, "\u2581furono": 27403, "sn": 6713, "\u2581smart": 7455, "\u2581templ": 5752, "enabled": 9474, "fan": 11479, "<0xBF>": 194, "SUP": 11599, "Machine": 15183, "\u2581hosted": 18822, "\ub3c4": 29599, "){\\": 11544, "\u2581(((": 15785, "\u2581Muse": 22951, "\u2581Fernando": 24302, "\u2581Knight": 21228, "\u2581Diana": 24728, "\u2581Und": 19870, "bits": 7669, "').": 4532, "\u2581recovery": 12106, "\u2581constantly": 10876, "\u2581HO": 12203, "\u2581dyn": 16150, "\u2581\u043f\u0440\u0435": 3184, "elcome": 23079, "ablish": 27753, "\u8f6f": 30769, "\u2581giving": 5239, "Alt": 19980, "\u5a92": 31838, "idade": 8669, "\u2581headquarters": 18484, "agg": 7058, "\u2581unable": 9638, "\u2581Liver": 18432, "\u2581displays": 20989, "\u2581\u2014": 1040, "description": 6518, "\u9f8d": 30749, "of": 1009, "commit": 14118, "orth": 2217, "\u2581innovation": 16863, "\u043b\u043e\u0432\u0430": 16528, "\u2581Technology": 12511, "\u2581Cleveland": 21920, "\u2581sub": 1083, "\u043c\u043e": 2200, "\u2581buyer": 24861, "\u2581idea": 3028, "\u2581\",": 7717, "\u2581cannab": 25761, "\u2581onChange": 27530, "\u52a1": 29224, "\u7167": 30131, "\u0446\u0456\u0457": 11071, "\u2581v\u00e9g": 28486, "Basic": 15580, "\u2581disk": 11295, "\u044f\u043d": 15247, "\u2581Author": 9216, "device": 3915, "\u2581priorities": 28231, "\u2010": 29558, "\u2581humor": 17276, "XXXX": 26550, "\u2581info": 4931, "\u2581migrations": 27052, "\u1785": 31032, "\u2581ethical": 26324, "\u5b9a": 29018, "\u2581tree": 4718, "ors": 734, "\u2581Lucy": 18010, "\u2581Template": 23469, "\u2581&": 567, "\u2581java": 3070, "vec": 2704, "ono": 5875, "\u2581rotation": 15015, "\u2581\u0444\u0438\u043b\u044c": 21454, "\u2581\u0434\u0432\u0443": 23053, "\u2581mainly": 11464, "\u2581indicates": 12825, "\u2581Maggie": 25858, "<0xDC>": 223, "ous": 607, "\u2581shoes": 10716, "\u0437\u0435": 8700, "mob": 28483, "\u2581operations": 6933, "\u2581Pow": 14326, "\u2581maid": 23408, "\u9304": 31554, "\u2581Bapt": 22654, "\uae00": 30354, "\ud83d\ude01": 30707, "!\\": 8263, "\u2581Japan": 4720, "\u2581terminal": 17598, "Christ": 17701, "\u2581({\\": 28699, "\u2581jet": 14471, "\u2581health": 2528, "\u2581Bernie": 26009, "\u2581watches": 26066, "\u2581median": 16825, "onial": 23621, "\u2581novel": 7092, "\u2581McG": 18407, "\u2581Nederland": 20347, "\u2581\u043c\u0438\u0440\u0430": 27683, "WS": 7965, "lap": 15578, "\u2581tensor": 12327, "\u00e1rio": 17763, "<0xB9>": 188, "\u2581Diam": 19235, "\u2581Volk": 25377, "func": 4396, "suspend": 21836, "job": 9524, "\u2581Londres": 26432, "pgfscope": 28593, "\u043a\u0430\u0434\u0435": 21159, "\u2581academ": 8853, "MAGE": 15269, "\u2581dise": 6091, "\u2581yields": 18934, "icky": 19722, "\u2581magnetic": 12485, "\u01dd": 31948, "itty": 12032, "urious": 26095, "\u2581phase": 6896, "\u2581Lac": 24877, "\u2581army": 7837, "\u2581Jesse": 26689, "\u0115": 31371, "\u2581inferior": 24797, "\u2581\u0406": 9341, "\u6b7b": 30435, "ygon": 18993, "\u2581resolve": 11024, "usammen": 14533, "\ub3d9": 29714, "content": 3789, "esian": 17754, "\u2581bron": 14153, "anchor": 22222, "\u2581fish": 8006, "\u2581romantic": 16534, "\u2581nucle": 17336, "Feed": 20967, "\u2581When": 1684, "\u6682": 30547, "yan": 8455, "\u2581apr\u00e8s": 12986, "\u2581experts": 11725, "\u2581libert": 18655, "\u02bc": 29846, "\u2581loads": 22560, "Job": 9610, "\u2581demanding": 21427, "\u09c7": 29914, "\u2581manifest": 11052, "Ne": 6947, "vey": 5576, "\u2581simpl": 9878, "\u2581differences": 11090, "\u2581Finale": 27721, "\uc9c8": 31959, "\u2581stairs": 12997, "\u2581Bird": 18213, "\u2581circuit": 15306, "\u2581straw": 18393, "\u2581trust": 4893, "\u2581University": 2900, "va": 3026, "\u2581FIT": 12630, "\u2581renew": 13293, "EOF": 23745, "rium": 16988, "ushing": 9305, "hesis": 21537, "ister": 1330, "app": 763, "bben": 28322, "\u2581Nie": 27805, "\u0c15": 31985, "\u2581bus": 1579, "raft": 2869, "\u9014": 31787, "\u2581commer": 6002, "\u2581pag": 10913, "\u2581Second": 7052, "\u0438\u043c": 14624, "\u2581correspondence": 24911, "packages": 27368, "\u2581durante": 9794, "gz": 23746, "\u2581my": 586, "GF": 24390, "\u2581nar": 21119, "\u2581Updated": 26807, "\u0130": 29336, "linewidth": 17685, "\u5361": 29810, "come": 4215, "\u2581opts": 13069, "\u2581Cache": 25103, "\u7f29": 30250, "\u2581Services": 8074, "\u2581drag": 8211, "\u2581Hal": 10262, "\u2581deux": 6935, "ODO": 8267, "atro": 12094, "\u2581accent": 19440, "\u3084": 30696, "\u2581Lee": 8181, "\u2581pr\u00f3": 22045, "failure": 23973, "\u2581refugees": 25611, "\u4ed8": 29628, "\u2581hous": 5995, "\u2581mail": 9636, "util": 1858, "\u2581containers": 25399, "\u2581Roche": 26330, "ereg": 27740, "\u307f": 29921, "abstract": 15474, "\u2581zip": 17955, "usch": 26628, "lic": 577, "\u2581game": 2039, "\u2581bout": 21726, "\u2581cattle": 23137, "\u2581deutsch": 14387, "\u2581members": 3338, "\u2581Qu": 2332, "\u2581\u0445\u0443\u0434\u043e\u0436": 27095, "\u2581tw": 2323, "uro": 2138, "\u2581doctor": 6676, "\u2581_(": 22753, "\u00e8ncia": 19620, "\u2581Individual": 27739, "\u2581poss": 1672, "\u89c9": 31345, "\u2581CO": 5006, "\u2581voor": 5528, "\u635f": 31867, "\u2581bul": 5778, "\u2581Cur": 6119, "Foundation": 23295, "subscribe": 19128, "\u2581Given": 12628, "\u9805": 30829, "\u2581worden": 13348, "\u2581Coupe": 28650, ":\r": 8230, "ieve": 18388, "Br": 7038, "\u2581homework": 26284, "\u2581process": 1759, "\u2581Auss": 27775, "\u2581Panel": 27968, "label": 1559, "\u2581Register": 10397, "UBLE": 22873, "\u2581submission": 23496, "\u2581dynamics": 15562, "\u2581drug": 7876, "\u2581stack": 7232, "attrs": 15215, "Lean": 25713, "hour": 13785, "\u2581sender": 17560, "\u0146": 30076, "\"]": 2242, "\u2581ladies": 16009, "amerikan": 21788, "\u2581Thanks": 8868, "\u2581Nick": 10480, "\u2581Think": 15403, "\u2581Meta": 24967, "\u0441\u0442\u0435": 6825, "Notification": 13756, "QUE": 20749, "\u2581capacity": 8444, "\u6837": 29675, "theme": 12679, "Mgr": 22109, "aturday": 8026, "\u0cc1": 31143, "\u2581naj": 14110, "ajor": 2577, "Serial": 9124, "\u2581no": 708, "#[": 8801, "HOME": 28547, "\u2581Pero": 26056, "\u2581due": 2940, "ASH": 12322, "router": 15125, "acja": 22218, "\u2581bras": 20493, "\u01b0": 29323, "\u092b": 31570, "\u2581live": 2943, "lam": 5989, "\u2581DL": 23478, "fun": 1755, "iled": 4360, "\u2581HE": 14904, "\u2581\u0433\u043e\u0434\u0430\u0445": 26156, "\u2581Elizabeth": 11289, "\u2581De": 1343, "arding": 20003, "\u2581torture": 26026, "epsilon": 5956, "\u2581activation": 25159, "\u2581Well": 4673, "\u2581magnet": 9386, "\u2581statt": 25183, "\u2581Good": 5801, "\u2581\u041e\u0441": 20203, "Po": 6850, "udes": 5887, "\u4ed9": 31859, "\u0443\u043d\u043a": 21051, "dzie": 23813, "mans": 20661, "\u062f": 28968, "\u2581Conse": 26300, "\u00fchr": 7736, "metry": 16641, "\u2581sudd": 5217, "\u2581primarily": 13395, "torch": 22850, "\u0441\u044c\u043a\u043e\u043c\u0443": 26360, "\u2581WM": 27704, "\u2581indication": 24183, "\u2581keywords": 28049, "Size": 2269, "}-\\": 14038, "eron": 13618, "\u0bb1": 31002, "endregion": 26034, "lear": 5595, "\u2581outfit": 24842, "docs": 11338, "\u2581\u00b7": 1766, "/${": 23820, "\u2581responding": 26167, "\u2581worries": 28420, "\u0446\u0435\u0440": 26654, "\u2581etwa": 16588, "\u2581neck": 7215, "\u0447\u0435\u043d\u0438\u0435": 18326, "ennen": 26556, "acs": 23416, "\u2581\"-": 11645, "slave": 26277, "drive": 26725, "\u2581Wood": 8010, "\u2581Ald": 17545, "\u2581Suppose": 21212, "\u2581dialect": 26228, "\u2581Gr": 1778, "\u2581gemeente": 28482, "\u0630": 29609, "\u2581Supreme": 14887, "\u2581vegetables": 19045, "\u2581respective": 17376, "\u2581Brasil": 18341, "\u2581\u0448\u0438": 20964, "\u2581peas": 27649, ".\"": 611, "God": 17189, "\u58eb": 30392, "\u2581cleanup": 22005, "\u2581discrimination": 23354, "\u2581Sed": 23945, "\u2581nederb\u00f6rd": 28373, "\u043d\u0456\u0432": 19138, "=$": 8991, "\u2581fact": 1639, "\u2581Dakota": 27266, "\u17d2": 29732, "\u2581sorted": 17952, "\u2581intelligent": 18926, "IB": 6147, "\u2581bread": 10714, "\u2581Vor": 11975, "Year": 15679, "ray": 919, "\u2581surg": 24130, "\u2581heal": 21385, "rei": 10141, "\u2581questa": 24707, "dsi": 26416, "\u2581Sample": 27797, "\u706f": 31961, "\u2581fil": 1217, "\u2581Where": 6926, "Warning": 16185, "lr": 22259, "\u2581helpful": 10865, "\u2581\u043d\u0435\u0441\u043a\u043e": 24503, "\u2581SB": 28520, "vy": 12246, "\u2581Roc": 22152, "\u2581alarm": 14405, "ghai": 25801, "\u2581Bra": 11830, "ounds": 4647, "\u2581\u0421\u0443": 13656, "\u2581Column": 19672, "\u2581\u0438\u044e\u043d\u044f": 26825, "\u2581identity": 8208, "\u2581Caroline": 23217, "\u2581rain": 7296, "\u045c": 30904, "rdev": 23338, "\ufffd": 29137, "';": 1775, "\u2581async": 5755, "\u2581town": 3736, "\u2581s": 268, "see": 3245, "\u2581resid": 12899, "\u2581\u0442\u043e\u0432\u0430": 22550, "HAND": 15592, "\u2581hurt": 7350, "\u043e\u0431\u0440\u0430": 17942, "opl": 13317, "\u2581Express": 16722, "esta": 9221, "pieler": 24854, "very": 646, "Enumer": 14925, "\u2581Kat": 14294, "\u2581Malays": 21050, "offs": 14567, "iano": 4728, "ucture": 8187, "umbing": 27010, "\u2581\u2581\u2581\u2581\u2581\u2581\u2581\u2581": 273, "\u5ba2": 29763, "\u2581Nevertheless": 18828, "\u2581certain": 2552, "\u2581erre": 19473, "b\u00f6rd": 16681, "\u2581but": 562, "\u2581first": 907, "\u2581quantity": 15069, "ieg": 11703, "\u2581simultane": 15110, "w": 28727, "\u2581fn": 4611, "\u2581Tommy": 20893, "flow": 4356, "\u2581F\u00f6r": 26638, "\u2581reliable": 13227, "igration": 7491, "\u00e9ra": 18924, "\u2581primary": 6258, "Tab": 7560, "MAIN": 19039, "\u4e48": 29797, "energy": 18785, "\u2581teachers": 10880, "\u05dc": 29077, "\u7fa4": 30204, "\u017e\u00ed": 25991, "\u2581digest": 18922, "iego": 8956, "\u2581*=": 22040, "\u2581\u0441\u0435\u0440\u0435\u0434": 28200, "irm": 2780, "\u2581sophistic": 20327, "\u00f3m": 26153, "\u2581Mer": 5625, "istrz": 20061, "atis": 26709, "cir": 5955, "\u2581Every": 4203, "\u017d": 29022, "ificates": 23575, "\u2581disease": 8030, "\u2581Mother": 12387, "rena": 14248, "\u2581fict": 24138, "\u00fcll": 19165, "pic": 7678, "\u2581wordt": 9930, "\u2581Halloween": 28016, "ian": 753, "disk": 17460, "\u2581gibt": 21959, "\ud074": 30203, "an\u00e7": 5154, "iku": 23550, "\u2581phone": 4126, "\u2581ke": 945, "\u0e18": 30057, "\u2581Broadway": 24331, "\u2581accompanying": 23761, "idge": 4307, "(\",": 23431, "iembre": 15522, "\u2581lips": 8852, "\u2581passenger": 18990, "Initialize": 22719, "\u043e\u043b\u043e\u0432\u0456": 27496, "rup": 7064, "Opcode": 23835, "orious": 16464, "\u2581Male": 23304, "})$": 9340, "attice": 16003, "esen": 23668, "\u2581Cl": 1366, "\u2581Alban": 26037, "Directory": 11811, "Hello": 16230, "\u0446\u0438\u044e": 20483, "\u05e2": 29295, "\u0441\u043e\u0432": 16581, "ArrayList": 17027, "\u2581bre": 3412, "\u2581leading": 5374, "\u2581relev": 26340, "atively": 6308, "\u5e94": 29298, "\u2581poker": 25346, "\u2581apro": 18883, "bug": 3718, "\u2581ella": 19880, "\u2581cop": 5029, "\u2581\u0430\u043b\u044c": 20462, "\u2581SO": 6646, "\u2581flame": 23570, "\u2581glimpse": 26754, "incip": 3480, "delete": 6067, "isible": 17727, "\u00a9": 29002, "\u3002": 28944, "\u2581High": 4556, "\u2581Quality": 20612, "Extract": 24958, "\u2581\u0436": 8937, "\u2581\u0412\u0430\u0441\u0438": 26099, "\u2581Ann": 7303, "\u2581these": 1167, "acts": 9664, "ugins": 10324, "fo": 902, "xa": 8705, "\u67e5": 29110, "ech": 5295, "Channel": 7766, "ommen": 18902, "\u026a": 29603, "\uc694": 29517, "headed": 25767, "\u2581law": 2309, "ificaci\u00f3n": 28369, "\u8ddf": 30848, "\u091f": 30318, ".}": 8089, "widetilde": 10215, "sterdam": 18928, "\u2581Host": 15511, "\u7f00": 30958, "\u2581her": 559, "Bool": 15571, "\u2581Index": 12348, "\u2581sist": 12289, "\u2581decorated": 24616, "\u2581reflected": 17222, "codec": 10989, "\u1ed9": 29784, "\u2581anymore": 9229, "\u2581letter": 5498, "ality": 2045, "second": 6562, "Mapper": 15760, "\u0440\u0438\u0438": 10033, "lor": 5638, "\u2581sober": 26903, "\u2581\u00e9qu": 18124, "\u2581capit": 16809, "\u2581rage": 19490, "\u2581assault": 13349, "lv": 21055, "\u2581after": 1024, "inte": 15883, "empor": 6536, "iding": 3269, "Import": 11944, "\u2581enjo": 28033, "Network": 8653, "gd": 26211, "\u00d9": 31619, "HS": 10031, "winning": 24082, "\u2581probably": 3049, "gence": 11986, "isons": 16149, "\u2581sole": 11150, "\u043c\u043e\u043c": 27646, "\u2581fixing": 28341, "\u2581structured": 28429, "\u2581cooking": 13198, "************": 17328, "\u2581dig": 3968, "<0xF5>": 248, "\u2581Heat": 24191, "\u2581motion": 8036, "\u2581raison": 26765, "\u2581Meter": 26673, "[]{": 20992, "\u2581fuck": 4159, "rus": 17355, "\u2581lb": 23441, "orld": 2534, "\u2581appe": 2104, "\u0e50": 29225, "\u2581neighborhood": 10501, "augh": 3740, "://": 1508, "ovember": 4208, "_{": 787, "expected": 7398, "visible": 13556, "\u0451\u043d": 8576, "\u2581Chicago": 8449, "\u2581implies": 12150, "\u2581harvest": 20040, "\u2581orange": 14545, "alse": 1048, "\u2581Baltimore": 23349, "\u6253": 29576, "utenant": 12610, "\u2581London": 4222, "success": 7910, "itting": 3257, "\u793a": 29073, "\u2581discovered": 8324, "\u00b6": 29662, "\u9875": 29238, "\u2581vulner": 12985, "Pyx": 20585, "\u00e3": 28865, "\u2581\u043c\u0443": 6597, "Testing": 20618, "\u2581accidentally": 27630, "\u2581Cob": 28092, "\u00e9re": 24454, "\u624b": 29427, "\u2581anywhere": 9530, "\u2581Match": 15127, "\u2581lun": 17999, "\u82b1": 30064, "entin": 23149, "\u2581integr": 4507, "\u2581\u041d\u0430\u0441\u0435\u043b\u0435\u043d\u0438\u0435": 25089, "\u2581Mode": 21748, "ML": 3827, "\u2581sout": 17465, "\u2581crit": 3190, "\u5c14": 30333, "\u2581inequality": 17522, "\u554f": 31142, "ai": 1585, "\u2581really": 1528, "ked": 13602, "\u0435\u043d\u044c": 13597, "PORT": 5021, "angs": 23766, "\u009e": 30924, "\u2581muscles": 15922, "cn": 9832, "\u2581musical": 9158, "\u2581dominated": 20135, "\u2581\u0441\u0442\u0440\u0430": 13488, "ITY": 4966, "tim": 7452, "Me": 7121, "\u2581Wrest": 28444, "ascript": 15367, "PROC": 15812, "Field": 2297, "active": 4140, "PLY": 26126, "(\"[": 16848, "ised": 2458, "\u2581Several": 15223, "\u2581titolo": 21266, "ques": 5958, "gel": 9281, "\u2581*\u00ab": 26811, "<0x94>": 151, "\u2581grow": 2333, "tt": 781, "\u1eeb": 30965, "\u2581Body": 16250, "\u2581useless": 19209, "access": 6920, "\u2581ships": 11296, "////////////////": 5172, "\u2581offers": 5751, "enen": 12224, "Mart": 21787, "overflow": 24709, "\u2581Hugo": 24875, "anas": 16983, "emper": 13330, "\u2581work": 771, "\uac8c": 29833, "\u2581nons": 21797, "dal": 20576, "\u2581correction": 22561, "ecute": 5570, "\u2581Jap": 23106, "\u2581PAGE": 23509, "aniu": 28458, ">(": 3323, "\u0dca": 31004, "\u2581bringing": 10279, "\u8fc7": 29202, "RV": 19578, "\u2581Murphy": 23940, "\u22c6": 31288, "\u2581Rico": 26791, "\u2581al": 389, "Perm": 10199, "esty": 16944, "\u2581Florence": 24929, "_{\\": 1570, "yc": 27831, "\u2581vac": 7255, "\u2581aware": 5635, "\u2581\u041d\u043e": 11058, "\u2581\u0431\u043e": 5536, "\u2581decimal": 25888, "perp": 21280, "owski": 16987, "\u2581marijuana": 28192, "\u2581Enter": 9810, "\u2581clue": 24513, "\u2581Popular": 22864, "old": 738, "\u2581Others": 19038, "\u2581ambitious": 28213, "\u2581Sally": 27034, "\u2581experiencing": 20998, "\u2581items": 4907, "Rx": 27557, "\u2581sun": 4376, "\u2581Hol": 4170, "Metrics": 16755, "\u308c": 29387, "\u2581Nut": 22161, "\u2581respon": 2603, ",_": 5796, "ink": 655, "\u2581flies": 28030, "\u2581Kirche": 19978, "\u2581challenge": 8035, "\u2581alliance": 26162, "\u2581cab": 5677, "IND": 6733, "krieg": 21754, "\u2581face": 2105, "\u00e9rc": 23219, "\u2581Cer": 16411, "uart": 15499, "\u517b": 31868, "\u2581appar": 19744, "\u2581concl": 5233, "rar": 19581, "\u2581\u043f\u0440\u0435\u0434\u0441\u0442\u0430\u0432": 18006, "\u2581Anything": 27985, "\u2581placing": 20632, "\u043d\u0438\u0448": 17264, "}": 28752, "\u5167": 31157, "\u03a6": 30349, "\u2581people": 905, "\u2581preval": 25371, "\u2581Arizona": 17289, "CI": 5726, "\u2581\u0430\u0432\u0442\u043e": 14460, "\u2581p\u0159\u00ed": 23582, "rank": 13626, "issement": 18333, "can": 4230, "\u2581Stories": 26667, "Side": 16170, "Q": 28824, "hu": 9538, "\u2581returns": 5723, "\u2581smell": 11016, "Cancel": 15204, "Local": 6154, "\u2581\u0436\u0443\u0440": 25788, "\u8ff0": 29769, "\u2581strlen": 19817, "\u2581\u043a\u043e\u0433\u0434\u0430": 28164, "bs": 1816, "\u2581Coast": 13340, "\u2581paused": 14623, "\u2581Were": 25020, "\u2581Indiana": 19665, "aison": 13390, "Supp": 15653, "\u2581campaigns": 19886, "(\"\");": 28361, "xpected": 9456, "<0xAE>": 177, "feat": 28310, "\u2581\u0410\u043d\u0434": 22378, "\uc5c6": 29963, "\u2581cabin": 14485, "\u043b\u0438\u0437\u0430": 26594, "uu": 24173, "\u2581spend": 6305, "\u2581(+": 28367, "\u2581\u043e\u043a\u043e\u043b\u043e": 23376, "lique": 19438, "UA": 25099, "\u2581hug": 13620, "anal": 11267, "FAIL": 12546, "<0xBB>": 190, "\u2581for": 354, "\u2581fall": 2949, "Tw": 21173, "\u2581Sta": 23019, "\u2581Newton": 20281, "\u2581Fro": 18760, "\u0448\u0435\u0433\u043e": 26459, "\u00f3g": 14376, "\u2581characteristics": 15559, "\u2581Place": 11851, "\u2581attribut": 19096, "ze": 1374, "iden": 6667, "value": 1431, "obil": 20087, "hav": 8832, "gas": 20404, "\u2581Anton": 8999, "\u2581HP": 22379, "\u2581Azure": 24769, "\u00e1b": 25657, "\u9580": 31031, "sg": 3322, "\u8863": 31524, "\u0005": 30550, "\u2581integrate": 28618, "\u2581earning": 25290, "\u2581California": 6247, "\u2581\u043b\u0438": 5952, "\u0432\u0430\u043d": 5406, "\u2581intense": 14373, "\u2581ride": 9015, "\u2581record": 2395, "\u0441\u0442\u0432\u043e\u043c": 23334, "\u591a": 29292, "\u2581pr\u00e9s": 9671, "\u2581prin": 7823, "\u2581added": 3886, "\u200d": 29274, "\u2581wat": 4940, "\u2581guitar": 10686, "norm": 10767, "umm": 17068, "\u2581spirits": 20394, "\u2581miser": 22172, "\u4e3d": 31625, "\u2581Dog": 13311, "ater": 795, "ax": 897, "\u2581late": 3909, "buff": 10132, "imos": 23695, "SR": 9787, "mgr": 20070, "cas": 11768, "\u2581Ut": 13830, "fish": 16483, "Arrow": 23874, "\u2581burn": 5698, "\u25cf": 29393, "\u2581Dep": 3995, "ienia": 24817, "\u2581lets": 16143, "\u2581medieval": 23223, "\u00f5es": 7849, "\u2581container": 7640, "\u0441\u043a\u0430": 3948, "umph": 14170, "enc": 831, ")^{": 10825, "indust": 25366, "\uc791": 29781, "\u2581subscription": 15400, "\u2581wall": 3500, "\u2581European": 6392, "anch": 3583, "\u2581pushing": 13884, "Border": 14943, "\u0440\u043e\u0433\u043e": 21826, "well": 5458, "oped": 11416, "\u2581\u0443\u043d\u0438\u0432\u0435\u0440\u0441\u0438\u0442\u0435": 24884, "\u1e41": 31507, "\u2581seven": 6671, "\u2581Marshall": 18049, "\u2581Charlie": 13195, "\u2581assess": 8084, "\u2581early": 2935, "\u2581[": 733, "\u2581acceler": 13057, "\u2581dem": 1493, "Iss": 21525, "\u2581tp": 21070, "\u2581Evans": 22103, "plication": 2459, "RA": 5244, "\u2581coverage": 10866, "plicit": 6026, "assertEquals": 12135, "Star": 14765, "histoire": 25291, "jango": 11913, "\u2581\u0431\u0443\u0432": 17623, "\u6559": 30166, "\u00d2": 30565, "\u0159ed": 27962, "\u2581pulling": 13672, "\u2581passed": 4568, "ensk": 17829, "\u72ec": 30843, "\u2581choices": 10475, "inated": 5499, "wrap": 8497, "\u2581(\u2020": 19143, "buttons": 27269, "ival": 3098, "ermo": 27252, "Src": 15886, "ellow": 4149, "\u2581fly": 8547, "\u2581Mars": 15798, "kill": 20430, "\u2581dirty": 13485, "\u706b": 30479, "\u2581patient": 7749, "\u2581stalk": 25073, "ch\u00e9": 17825, "\u2581clip": 13061, "\u592a": 29975, "\u2581l\u00e4": 23855, "\u7f3a": 31040, "\u1ef1": 30500, "\u5927": 29050, "\ud588": 30676, "{}": 6397, "Reply": 23805, "\u2581Flo": 14819, "legt": 28661, "\u2581Press": 6127, "rant": 6804, "aska": 14431, "\u2581Fant": 19800, "\u2581Deutsch": 14157, "\u2581\u043a\u043e\u0440\u043e": 16673, "generated": 12169, "rac": 21182, "Emit": 17911, "alous": 14990, "\u2581las": 2635, "\u2581\"${": 12833, "colm": 28425, "\u2581shot": 5180, "\u043b\u0438\u0447\u0438": 25843, "\u2581themes": 18978, "fl": 1134, "\u2581fig": 2994, "\u2581Large": 23292, "broad": 27867, "\u2581resigned": 28286, "\u2581\u0417": 3940, "\u2581path": 2439, "\u2581sang": 15166, "\u2581Saud": 20605, "\u2581destruction": 15788, "\ub418": 29848, "\u2581scary": 23957, "\uc99d": 30713, "\u4f73": 31255, "zes": 12189, "*\r": 13667, "teen": 6498, ")**": 10095, "emit": 12265, "Tokens": 24839, "\u0572": 31565, "------------": 9762, "riages": 28347, "\u2581dad": 9493, "Anchor": 21792, "\u2581diz": 28014, "\u2581updating": 26187, "aca": 13690, "\u2581measures": 10582, "Sort": 13451, "\u30aa": 29866, "\u2581navig": 27555, "\u05ea": 29064, "\u2581\u0447\u0435\u043c": 23345, "\u0179": 30109, "possible": 7285, "\u2581DR": 22437, "berry": 14233, "\u043c\u0438\u0438": 18551, "\u2581kit": 5282, "Ptr": 5094, "\u2581requires": 6948, "proposition": 26904, "fel": 20553, "Foot": 22043, "ever": 1548, "\u2581handed": 12752, "\u8ecd": 31501, "Hand": 2641, "\u00e4hrend": 14934, "istant": 11143, "plus": 11269, "\u2581Gi": 6622, "uw": 12841, "\u2581fs": 14731, "eves": 22915, "ulent": 21834, "\u2581adv": 2057, "\u2581evangel": 24276, "\u2581*)&": 27349, "\u2581helmet": 26371, "igue": 12216, "\u6d32": 31564, "XML": 13047, "\u02b0": 30194, "agment": 6627, "ON": 832, "\u043d\u043e\u043c": 4967, "\u904b": 31704, "iny": 4279, "\u00e9sz": 18431, "\u2581corpor": 7807, "ken": 2314, "<0x87>": 138, "\u2581simplicity": 25233, "\u2581relatives": 21668, "\u2581rhet": 25905, "\u2581Hence": 12478, "\u2581fields": 5080, "\u2581ont": 7957, "\u4e3e": 31189, "\u2581ang": 3720, "\u2581AB": 18322, "LL": 5292, "\u2581vehicles": 11999, "\u2581Dragon": 19444, "puis": 13838, "\u2581Set": 3286, "rn": 27094, "\u2581URL": 9066, "\u2581speak": 4085, "\u2581chocolate": 14403, "\u2581King": 4041, "\u2581ord": 4574, "\u2581staat": 24617, "Groups": 14958, "market": 15594, "\u0421\u0421\u0420": 18140, "\u2581differential": 21813, "\u2581imaginary": 28374, "vm": 4332, "xb": 9570, "cheduler": 17474, "\u2581fled": 20841, "ards": 2178, "datetime": 16058, "level": 4404, "]])": 28424, "than": 23018, "\u043c\u043e\u0436": 27603, "\u2581socks": 27987, "\u0bc1": 29981, "\u8a18": 30288, "/\"": 17713, "ced": 1354, "\u2581Vas": 19286, "ital": 1803, "\u2581###": 774, "\u2581ging": 21534, "\u2581\u0442\u0443\u0440": 18247, "ody": 1174, "\u9810": 31283, "\u2581/>": 4884, "ina": 1380, "\u2581subject": 3817, "itter": 4706, "<0x65>": 104, "DER": 19598, "\u2581aw": 2546, "\u2581\u00e2": 22506, "\u2581brief": 6817, "tegr": 8489, "\u2581hockey": 21199, "\u2581while": 1312, "\u0442\u044c": 2289, "rente": 17228, "acker": 21172, "\u2581gloves": 25570, "lessness": 28015, "\u2581whispered": 12916, "\u2581vert": 7175, "ma": 705, "\u2581temporary": 13415, "\u2581French": 4949, "\u2581D": 384, "\u0111": 28977, "\u2581knock": 13476, "\u2581recipes": 21116, "plier": 10724, "\u2581Econom": 11003, "Aut": 3967, "axy": 22720, "\u8f74": 30788, "\u2581emphasis": 19679, "\u2581combinations": 26350, "\u2581Lad": 20542, "\u2581derived": 11236, "Peer": 22163, "\u2581mater": 17613, "\u2581Bos": 13541, "chio": 27887, "\u2581\u043f": 610, "\u0437\u0435\u0440": 20450, "\u2581Light": 9531, "WARNING": 18721, "\u2581typedef": 18400, "\u2581unem": 20955, "prime": 9302, "retval": 15063, "ms": 1033, "ibr": 2792, "\u2581aussi": 11631, "otes": 4769, "\u2581horizontal": 18116, "snap": 26597, "\u2581Statistics": 28091, "...": 1101, "\u2581Regular": 28187, "\u2581Andre": 17905, "\u2581proven": 12598, "uset": 13222, "\u2581last": 1432, "ess": 409, "\u2581duration": 11964, "\u0580": 29702, "\u2581circulation": 27307, "should": 6716, "ansas": 12288, "FLAG": 7177, "\u045a\u0430": 15857, "\u2581mac": 8338, "\u0442\u0438\u0439": 18971, "\u2581blinked": 27800, "\u2581yards": 11107, "\u2581revers": 16876, "\u7ea2": 30311, "\u2581Bund": 12583, "obj": 3710, "\u2581mi": 5192, "\u2581formal": 9907, "evalu": 20866, "\ub78c": 31390, "Sound": 18340, "\u2581colours": 22137, "\u2581hate": 7665, "\u2581fraction": 14005, "\u2581admitted": 13048, "Table": 3234, "bury": 12272, "\u2581questioned": 26812, "\u2581interference": 26994, "CAL": 22591, "\u2581precious": 17967, "\u2581hill": 12254, "<0xB0>": 179, "ercise": 25451, "Gold": 25675, "\u2581kicked": 17444, "Text": 1874, "ness": 1467, "\u2581Gall": 14225, "ped": 1973, "oring": 4590, "\u2581readily": 22058, "\u2581Expect": 28468, "\u2581Queensland": 28536, "\u2581kennis": 15389, "yme": 23389, "\u2581bunch": 11763, "\u2581automatic": 16337, "\u2581allem": 16637, "\u2581ville": 13526, "\u2581arrested": 14206, "Standard": 17899, "urch": 1826, "JO": 24714, "\u0404": 29035, "\u2581places": 5563, "SU": 4711, "Gamma": 6376, "\u2581Mans": 24800, "\u822a": 30795, "\u2581cho": 2183, "orter": 7046, "\u8d26": 29918, "\u1e6c": 31658, "\u30b6": 30362, "\u2581ad": 616, "ptions": 1720, "\u2581burning": 13136, "\u0155": 31795, "erd": 5517, "sys": 6609, "\u2581tank": 11459, "\u2581Answer": 26307, "\u2581Schwe": 18295, "\u00a6": 29854, "\u0440\u0438\u0441\u0442\u0438": 23406, "\u2581referring": 18723, "\u2581Image": 9833, "pts": 10730, "\u2581quando": 15440, "\u2581Bad": 9734, "\u0432\u0435\u043d": 16227, "\u10d4": 29286, "<0xD2>": 213, "\u2581aunt": 23785, "<0x23>": 38, "ich": 539, "\u2581inev": 14694, "An": 2820, "\u2581played": 4226, "\u2581understood": 8988, "\u0e10": 31348, "ologie": 7851, "\u2581\u0438\u043c\u0435": 11345, "Tok": 14563, "\u2581Nigeria": 22072, "dir": 3351, "\u2581establishment": 18413, "\u2581lens": 19642, "\u2581potential": 4628, "sburg": 24394, "\u2581Hard": 9708, "ixels": 11122, "Tex": 17476, "\u2581founder": 18291, "\u2581Hein": 19162, "kernel": 11694, "\u2581clicked": 26399, "\u1ec9": 30714, "a\u00e7\u00e3o": 9424, "sk\u00fd": 25811, "bast": 15174, "\u2581RET": 28620, "\u2581Pre": 4258, "\u8def": 29361, "\u2581Hav": 23780, "('#": 10457, "Before": 11273, "footnote": 19129, "\u2581configurations": 24991, "\u2581sl\u00e4": 11158, "\u2581Metro": 25289, "DateTime": 11632, "Struct": 10753, "\u2581stain": 21023, "\u043a\u043e\u044e": 27908, "aces": 2089, "Android": 15225, "Anal": 11784, "\u2581[...": 21089, "ffect": 4482, "pal": 11920, "\u0f42": 31035, "<0xD8>": 219, "\u2581sich": 3866, "\u043b\u0435\u043a": 22122, "\u2581Memorial": 18506, "ErrorCode": 26998, "\u2581performs": 25597, "<0x5B>": 94, "\u30c8": 29123, "Series": 20736, "\u2581backing": 21109, "\u2581stru": 4500, "\u2581Father": 11432, "ite": 570, "\u2581advis": 14309, "\u2581Dallas": 19041, "\u2581partir": 12599, "\u2581societies": 25342, "kat": 22332, "abol": 21530, "\u2581\u043a\u043b\u0430": 14835, "\u2581\u0440\u0435": 3172, "ATTRIB": 27502, "apore": 15710, "\u0447\u043d\u043e\u0439": 24607, "\u1784": 30765, "\u2581\u0438\u043b\u0438": 10476, "\u2581')": 27890, "KS": 23143, "\u2581\u0441\u0430": 4468, "\u2581\u0442\u043e": 3846, "numeric": 23700, "\u2581rib": 13147, "\u2581duty": 11193, "{}{": 23265, "\u2581evalu": 6548, "\u2581Bow": 11609, "\u2581fright": 14331, "but": 2391, "strcmp": 17789, "\u2581approx": 22110, "\u2581appointment": 14351, "\u2581Eastern": 13827, "\u2581performing": 13801, "\u00e9tait": 23133, "\u2581Ist": 25370, "\u2581simulation": 17230, "\u2581Mit": 6684, "\u2581today": 3154, "\u2581employed": 14675, "\u017a": 28957, "\u2581Charles": 6427, "rael": 5815, "fu": 21278, "\u6838": 30080, "\u2581ing": 4155, "\u2581_.": 17309, "\u2581mim": 26302, "\u2581grey": 15543, "\u2581fitted": 21163, "}_{\\": 6198, "\u043a\u0432\u0438": 24531, "\u2581kall": 26608, "\u2581contacts": 20075, "parseInt": 25249, "\u2581handles": 19754, "dd": 1036, "\u5212": 30791, "sound": 13752, "ensing": 18130, "\u2581bei": 5617, "\u2581looked": 2382, "eds": 5947, "ACTIVE": 17740, "\u2581relationships": 9391, "\u0f53": 31847, "\u12a0": 31942, "Methods": 20591, "categories": 24888, "\u2581Esc": 13731, "\u2581improving": 16752, "pgf": 5076, "\uacc4": 30106, "CB": 10957, "\u2581universal": 14598, "\u2581Mexico": 10242, "\u2581inaug": 17946, "\u2581passionate": 20640, "\u2581distribution": 6023, "\u964d": 30852, "CONT": 12162, "\u2581Execut": 11663, "isset": 11582, "\u2581nine": 9542, "\u2581dude": 16924, "\u2581albums": 19888, "imental": 15402, "\u2581enter": 5870, "package": 7573, "Il": 11356, "article": 15461, "\u2581diagnosis": 21967, "prob": 22083, "\u2581testimony": 23648, "aws": 6195, "\u043d\u0430\u0445": 26027, "\u2581modifications": 26470, "\u6761": 29391, "\u2581dire": 3247, "termin": 14615, "-)": 27346, "less": 1503, "\u8d22": 31779, "Thread": 6237, "\u2581Army": 8094, "\u2581gef": 17241, "\u2581Hum": 17442, "igo": 9567, "uing": 10523, "plicated": 23080, "Em": 3729, "proto": 5346, "IP": 2665, "\u2581fasc": 10532, "\u2581restaurants": 14666, "\u2d30": 30654, "imum": 3485, "ito": 3068, "\u2581rais": 4471, "\u2581Imper": 15428, "_": 28730, "r\u00eda": 23048, "\u2581therapy": 12238, "\u7eb3": 31536, "equiv": 13220, "\u2581Harbor": 28700, "orig": 5831, "\u0161e": 25306, "\u2581exact": 3459, "roupe": 14236, "<0x92>": 149, "\u95a2": 30783, "\u2581Down": 8560, "margin": 14656, "utsche": 16083, "\u2581\u041f\u043e\u0441\u043b\u0435": 17759, "calls": 28622, "\u2581intermediate": 22602, "\u2581Blues": 25027, "\u6784": 29612, "\u2581channel": 5866, "\u2581second": 1676, "IV": 6042, "\u2581certification": 24781, "Ge": 5909, "\u2581their": 652, "uman": 6366, "\u2581tail": 8675, "SO": 4989, "Dr": 9587, "\u0431\u0438": 3788, "mate": 15356, "\u2581MON": 25259, "\u0458\u0443": 11066, "\u2581\"*": 12406, "\u5f35": 31241, "Empty": 6027, "anger": 3689, "\u2581nice": 5171, "GET": 5296, "\u2581stud": 1362, "\u2581approval": 15000, "iew": 825, "\u2581computing": 21263, "\u2581CB": 25600, "\u2581retained": 25764, "\u9970": 31915, "oy": 904, "\u2581Between": 18046, "\u5831": 30544, "Native": 12557, "oid": 806, "\u2581Whether": 9989, "\u2581\u043f\u043e\u043b\u0443": 10772, "\u0438\u0441": 15333, "\u2581everywhere": 11321, "\u2581effect": 2030, "\u5357": 29680, "\u2581Holy": 12830, "\u2581incoming": 21850, "\u2581Ward": 19512, "\u2581Nik": 11952, "freq": 14436, "\u2581Hudson": 25037, "Deep": 23229, "\u2581denied": 16703, "will": 13185, "ese": 3368, "\u0443\u0440": 8339, "\u2581\u0441\u043b\u0443\u0447\u0430": 28124, "\u2581creativity": 22317, "xff": 5600, "\u2581master": 5968, "\u2581percentage": 13822, "\u2581Pop": 7259, "\u2581orig": 2172, "\u2581arm": 3648, "multi": 13102, "\u2581collection": 5442, "\u2581read": 1220, "\u2581rav": 25782, "\u2581worm": 25736, "\u2581Name": 6620, "subsection": 7074, "\u2581\u0414": 2375, "Pack": 5932, "\u2581baseball": 14672, "function": 2628, "\u2581respectively": 8628, "\u2581Total": 10711, "iginal": 11608, "\u2581monument": 17772, "\u2581St": 662, "\u0e37": 30008, "itect": 5588, "\u2581sufficiently": 20554, ">{@": 22084, "\u2581relaxation": 27607, "\u2581Prov": 7133, "f\u00f6r": 14634, "''": 5437, "\u2581sept": 10344, "\u0449\u0435": 4087, "\u00e9vrier": 20158, "\u2581accounts": 9855, "\u2581prediction": 19386, "\u7d93": 31139, "\u697d": 31973, "esso": 10284, "METHOD": 16398, "\u2581emot": 6983, "sun": 19875, "\u2581amen": 22891, "\u2581rally": 24412, "Bay": 26663, "\u2581mant": 14201, "\u0c28": 31674, "ierte": 8912, "imate": 3314, "zten": 24021, "\u2581incent": 19953, "\u2581estar": 27497, "\ud83d\ude05": 30379, "\u2581conserv": 6961, "\ud0dd": 30442, "V": 28790, "\u2581corporate": 12258, "\u7d20": 29555, "\u2581juris": 21716, "going": 9100, "migr": 22267, "\u5957": 30846, "\u2581PropTypes": 28602, "\u043d\u044b\u043c\u0438": 13981, "\u2581Hend": 18588, "\u2581toll": 24910, "\u5fc5": 29593, "oose": 12470, "roll": 1584, "als": 973, "opter": 15136, "tiny": 25149, "\u2581argue": 13391, "\u2581UE": 19783, "\u963f": 30564, "\u2581denom": 26891, "\u2581m": 290, "\u2581cottage": 27270, "\u2581Paris": 5465, "\u2581everybody": 12798, "\u2581TO": 6991, "\u2581finance": 15978, "\u2581seat": 7278, "\u2581repair": 11701, "\u2581Mult": 9713, "\u7edd": 30981, "Fix": 23201, "\u2581statue": 22594, "Labels": 21239, "\u2581registration": 14409, "\u2581gli": 9973, "ca": 2591, "\u9801": 31693, "seau": 24554, "\u2581leave": 3530, "\u2581intr": 7677, "\u2581purchases": 25596, "\u2581underneath": 21901, "\u2581high": 1486, "\u2581runs": 7825, "\u2581\u0432\u0441\u0435": 10780, "udder": 24646, "\u0444\u043e\u0440\u043c\u0430": 22131, "\u2581universities": 21356, "\u2581afin": 28389, "\u2581implement": 4808, "\u2581Art": 3951, "\u0cb5": 31802, "rep": 9157, "\u2581Bell": 11395, "\u0440\u0435\u0432": 23375, "kern": 28269, "\u2581she": 630, "\u2581damaged": 16619, "\u2581elabor": 16252, "\u4ece": 29505, "Why": 7638, "PS": 5412, "\u521a": 31319, "\u2581THIS": 13624, "stmt": 15011, "\u2581closest": 16424, "\u043a\u0456\u0432": 10180, "\u2581Sky": 14852, "acci": 28127, "\u793e": 30115, "\u2581parameters": 5287, "\u00e4hlt": 25409, "\u2581He": 650, "thers": 2199, "\u2581Operation": 16536, "\u2581propag": 11166, "Returns": 16688, "\u2581bt": 26933, "\u2581\u043f\u043e\u043c\u043e": 21589, "SEC": 18172, "Autowired": 26088, "\u2581praise": 20707, "\u2581identifying": 21653, "\u2581describe": 6685, "ructions": 8373, "Js": 23595, "\u2581wom": 1615, "MenuItem": 16675, "\u2581sword": 13443, "\u2581commonly": 14473, "+(": 24993, "\u2581Britain": 10174, "\u2581MERCHANTABILITY": 14105, "\u2581Wang": 23024, "lt": 2244, "INST": 16289, "\u2581deserves": 24985, "\u2581compris": 25093, "annt": 13104, "nas": 16405, "\u2581remained": 7568, "\u2581warrant": 9775, ")(": 3847, "\u2581Dean": 17378, "\u043c\u0438\u043d\u0430": 17622, "\u2581MT": 23619, "\u8d25": 29384, "anton": 15427, "\u2581pac": 21632, "f\u00e9": 24606, "\u2581Lanc": 23141, "\u2581Aaron": 20486, "adow": 5547, "\u2581cond": 2076, "\u2581god": 5525, "\u2581\u0410\u0432": 18031, "\u2581polite": 27057, "\u2581sear": 15321, "\u2581cigarette": 19819, "\u2581volumes": 20535, "\u2581stagger": 25132, "\u00e1nak": 25452, "\u2581(!(": 14606, "factor": 18360, "\u2581trad": 2784, "\u2581Flor": 7958, "\u2581shit": 5492, "\u2581unple": 28331, "=\"_": 28359, "oto": 2587, "\u0441\u0442\u0443\u043f\u0438": 21008, "\u2581vod": 27420, "cciones": 24598, "sp": 886, "\u2581compos": 5890, "URN": 12071, "fc": 6837, "bow": 11809, "\u65e2": 31643, ")_": 14080, "ugh": 4795, ".^{[": 22803, "\u0442\u0438\u0432": 5868, "\u2581Provinc": 27600, "\u2581\u0430\u0432": 8664, "\u21b3": 31416, "\u2581sql": 12199, "\u5b8f": 31934, "\u2581bay": 17106, "\u0109": 31962, "\u7ed8": 30684, "\u2581wake": 11088, "\u2581urge": 23151, "sten": 6062, "\u2581terrorist": 25891, "<0xBC>": 191, "\u2581\u0448": 5486, "\u2581Yeah": 8352, "\u2581continuing": 15317, "\u2581agreements": 17320, "\u2581tipo": 19054, "\u2581claim": 3452, "learning": 27936, "inate": 4296, "\u2581convers": 5315, "\u5916": 29638, "\u00ac": 29873, "\u2581gel": 12694, "\u043c\u043e\u0432": 19264, "\u2581Smart": 17285, "\ucde8": 31725, "td": 2447, "\u2581Grad": 17252, "\u2581checked": 9681, "\u2581County": 5068, "k\u00f3w": 26701, "\u2581Miller": 13674, "Called": 22614, "Profile": 8721, "olent": 26346, "castle": 25305, "\u2581Bruno": 24274, "utes": 2907, "\u2581advert": 7991, "\u2581Ground": 22455, "\u2581Fran\u00e7": 13514, "\u2581genuinely": 22448, "\u2581Handle": 16736, "\u2581Op": 6389, "details": 13856, "\u5f88": 30111, "\u2581integrity": 20489, "\u2581felt": 2770, "Fl": 3188, "\u2581\u00een": 5554, "\u2581Raj": 16818, "\u2581icon": 9460, "Cir": 19257, "\u2581Still": 9054, "\u2581case": 1222, "\u2581Arc": 19733, "\u6536": 29507, "\u6ce2": 30382, "\u2581tourist": 23254, "\u2581grab": 7290, "\u2581sorry": 7371, "\u042c": 30683, "acher": 10333, "plot": 11096, "\uac10": 31402, "itime": 26843, "aries": 4838, "\u2581folder": 14249, "ulse": 17494, "jekt": 18282, "\u2581Ukraine": 16654, "holders": 15523, "\u2581rapport": 18778, "\uff01": 29267, "GG": 22422, "File": 2171, "\u2581sixt": 17930, "\u2581Apr": 3513, "\u2581<": 523, "\u2581mum": 27870, "\u0445\u0443": 18668, "\u0581": 31440, "lace": 22918, "ClassName": 19452, "idence": 3164, "\u2581prz": 7713, "\u2581balanced": 19971, "\u2581Cars": 23508, "nf": 23644, "*;": 13732, "lookup": 16635, "Indices": 28191, "uns": 13716, "fred": 24222, "hbox": 21472, "\u2581grim": 17837, "\u012a": 31322, "\u0dba": 31857, "\u043d\u0438\u043d": 20406, "Big": 6173, "\ub05d": 31462, "\u2581skb": 22076, "\u2581Internal": 18939, "iseconds": 24589, "\u0434\u043e": 2054, "iam": 2643, "\u2581Stewart": 20681, "gets": 26176, "istas": 13501, "\uc804": 29600, "\u2581quad": 12618, "usions": 12378, "\u2581climbing": 20873, "bn": 13591, "\u2581wides": 22964, "lessly": 12298, "Bind": 12741, "\u4f4d": 29147, "UR": 1990, "Ref": 3680, "PERTY": 24298, "\u2581landsc": 27308, "\u2581loving": 16276, "\u2581Comment": 19479, "tz": 19540, "\u043d\u0430\u0447\u0430": 27690, "\u2581Winter": 13951, "anska": 26936, "Created": 18598, "\ubd80": 29775, "ulous": 9504, "\u2581mouse": 12733, "\u2581STAT": 20824, "\u2581Salv": 17857, "\u2581fever": 22041, "enez": 14936, "\u2581batch": 11386, "valid": 2398, "entr": 21683, "\u2581car": 1253, "\u2581cause": 4244, "ardo": 9749, "\u2581discussed": 9951, "chart": 16617, "anya": 19791, "peat": 15882, "\u2581tmp": 6510, "\u903b": 30928, "Any": 9653, "\ucc3d": 31476, "reme": 6730, "\u2581DA": 13060, "COLOR": 20266, "\u00e2": 28891, "\u2581approved": 12879, "\u2581producing": 15345, "\u2581fault": 9683, "amt": 13805, "\u52b1": 31613, "<0x57>": 90, "\u2581anten": 25940, "orte": 8938, "\u2581Phill": 17083, "\u2581cont": 679, "\u2581Hamiltonian": 23557, "\u2581recogn": 4169, "\u2581bag": 6635, "\u2581station": 5086, "\u2581fru": 15925, "YP": 26058, "iders": 6035, "elia": 21657, "<0x82>": 133, "\u2581oraz": 13755, "\u2581\u043a\u043e\u043d": 6361, "ByName": 23177, "$),": 27517, "<0xE5>": 232, "\u2581}),": 15391, "\u0442\u0440\u0435": 19317, "\u2581German": 5567, "\u2581IV": 9073, "\u2581perturb": 19063, "duct": 2478, "\u2581importante": 19538, "\u2581triumph": 20306, "uffs": 27355, "\u2581Carn": 27597, "\u2581treats": 27378, "eight": 23893, "\u8fd8": 29751, "\u2581complet": 2691, "\u10de": 31053, "\u2581of": 302, "\u00e4ll": 14357, "integer": 14296, "illance": 22740, "\u2581Universit\u00e4t": 24290, "inth": 18618, "ficie": 26817, "'),": 4829, "\u2581appreciated": 22359, "\u2581degener": 24507, "nis": 11765, "GPIO": 18563, "imeq": 21876, "\u2581\u0447\u0442\u043e": 7061, "\u2581plastic": 10409, "\u2581sweet": 7221, "zech": 14627, "FRA": 17012, "ider": 1184, "\u2581naz": 11728, "\u2581Anthony": 15089, "\u2581Sem": 9897, "CONNE": 20064, "\u2581advoc": 11881, "\u2581passes": 15167, "LONG": 20138, "\u2581FR": 27790, "centering": 11511, "\u8a72": 31688, "\u2581gram": 18756, "\u8ba1": 29382, "inz": 12461, "olding": 25107, "\u2581Historic": 26851, "Bro": 21404, "\u2581Real": 7960, "raf": 3976, ")\",": 10647, "ussia": 28397, "LEMENT": 20255, "svg": 14244, "\u2581influenced": 19927, "folder": 18676, "avax": 6598, "\u2581exceptional": 20202, "\u0432\u044b": 5089, "\u0ccd": 30406, "\u2581lighting": 15912, "enable": 7235, "\u093f": 29554, "\u2581rit": 9935, "\u2581dashed": 26108, "}\\,": 12480, "\u2581hydro": 15208, "\u2581begg": 28195, "drv": 15555, "agers": 9535, "\u2581sampling": 23230, "\u5730": 29146, "\u2581tomorrow": 10759, "\u2581Draw": 16412, "\u092a": 29794, "\u2581Success": 16557, "\u2581HIV": 25401, "Go": 7580, "\u2581eines": 12531, "\u2581powder": 14761, "\u2581skulle": 23093, "\u696d": 31204, "\u5854": 31166, "\u0428\u0410": 16527, "\u2581battle": 6651, "\u2581distinguished": 23502, "perform": 28340, "\u2581Barb": 25223, "asket": 8173, "\u2581Rap": 15544, "oooo": 24438, "\u2581towns": 17579, "\u2581angular": 19382, "((": 1880, "\u2581femin": 13426, "Asset": 16328, "\u2581affordable": 16662, "\u2581absolut": 5101, "}:": 11290, "\u2581barr": 20427, "\u2581Isabel": 21274, "filter": 4650, "\u2581\u0456": 3213, "\u2581\u0420\u0435": 9392, "\u2581reveals": 21579, "\u2581Foster": 28517, "chi": 4416, "\u8111": 31753, "\u2581created": 3859, "\u2581Tat": 28087, "\u2581Mam": 28388, "ween": 1367, "apes": 7722, "bp": 12005, "\u811a": 30646, "\u2581families": 6812, "UserId": 19276, "End": 3861, "\u2581confront": 12773, "\u2581obtain": 5375, "achuset": 15581, "\u2581fitness": 17950, "\u2581Dam": 8474, "gc": 18499, "oline": 20252, "\u2581Strateg": 25193, "../../": 4290, "emark": 21819, "meta": 8301, "\u2581illusion": 27812, "\u2581Spencer": 27325, "ately": 1999, "\u2581tem": 1637, "\u2581VT": 24710, "\u2581Emily": 16941, "\u2581UEFA": 26837, "\u2581payments": 14923, "\u2581Your": 3604, "\u2581CEO": 13117, "\u2581tram": 23536, "\u2581practically": 20119, "pes": 4384, "\u2581comb": 3006, "CHECK": 8856, "REQUI": 25127, "<0x2F>": 50, "\u2581Dis": 3433, "\u2581Ob": 2645, "mine": 16350, "duc": 6014, "\u2581creating": 6818, "\u178f": 30460, "\u2581onclick": 28474, "\u2581\u044f\u043a\u0456": 23008, "\u00df": 28880, "\u2581sal": 3823, "may": 12001, "\u2581\u043f\u0435\u0440\u0435": 4978, "zz": 6748, "\uc0ac": 29315, "\u5343": 30516, "\u0906": 31297, "bias": 25737, "\u2581infl": 3661, "iga": 7233, "\u2581investment": 8542, "\u2581\u0431\u0430": 7460, "mun": 9487, "ned": 12097, "\u2581Admiral": 23895, "umn": 1786, "\u2581beskrevs": 12755, "selling": 24943, "\u2581phil": 6862, "ml": 1653, "road": 8584, "NN": 11348, "tab": 4252, "\u2581coefficients": 19955, "Kit": 25565, "\u9019": 30367, "\u2581specified": 6140, "\u2581easier": 7089, "\u2581models": 4994, "atic": 1711, "pmatrix": 22469, "\u2581Ernst": 26013, "For": 2565, "\u2581NOT": 5457, "\u2581blocked": 18770, "Associ": 21515, "Sup": 22284, "lers": 8531, "\u043c\u044b": 9379, "\u2581fool": 10776, "\u043d\u0438\u043a\u043e\u043c": 20957, "Changed": 8195, "\u05e3": 31016, "\u2581hel": 1172, "yn": 1035, "\u2581Beautiful": 26547, "\ub9bc": 31165, "});": 3498, "full": 7779, "rowned": 14335, "\u2581proposed": 8278, "htt": 1920, "\u2581==>": 27752, "\u5c0a": 31935, "ille": 2457, "\u2581specific": 2948, "\u2581Invalid": 17275, "\u2581rel": 1016, "ruit": 6424, "\u2581keys": 8148, "\u2581Politiker": 28510, "\u2581Tokyo": 19887, "\u2581char": 1280, "\u2581experiment": 6878, "\u2581capt": 4286, "\u2581amplit": 18505, "\u2581composite": 24117, "uf": 1194, "\u2581rein": 11523, "\u2581commod": 25794, "\u2581offense": 19952, "\u2581h": 295, "\u2581topic": 9067, "irection": 7819, "\u2581catching": 23729, "\u2581regardless": 12907, "\u2581Active": 15838, "\u2581severe": 13645, "Sprite": 22473, "every": 19662, "<0x6A>": 109, "\u2581woke": 19157, "\u30a3": 29707, "\u2581addiction": 23823, "\u2581Shop": 14142, "citet": 15542, "\u2581Burn": 13708, "\u2581craw": 16217, "MUL": 25586, "\u6e96": 31646, "\u2581FM": 23586, "\u043d\u0438\u0446\u0430": 17970, "iced": 5200, "asticsearch": 19616, "\u2581billion": 8737, "/>": 2370, "\u5468": 29874, "umber": 1031, "\u2581cand": 13931, "\u2581jewel": 20737, "\u00f6d": 14697, "\u2581create": 2231, "\u65b0": 29056, "TP": 4904, "Workspace": 27474, "claimer": 20032, "\u2581Face": 7197, "\u2581db": 7594, "\u2581esta": 12404, "TA": 6106, "channel": 7430, "ashboard": 13569, "OST": 21052, "\u2581CC": 16900, "\u2581Frankfurt": 26858, "Fil": 4193, "under": 5664, "\u2581\u0412\u043b\u0430": 21714, "allet": 7354, "lington": 26183, "anz\u00f6s": 22979, "\u2581publications": 23311, "isValid": 28390, "\u2581FL": 13675, "\u2581naturally": 12728, "\u80cc": 30402, "sburgh": 23679, "\u2581img": 16001, "sap": 28688, "Layer": 10153, "Writer": 9543, "\u2581provisions": 22321, "Socket": 12500, "\u2581orientation": 18159, "\u0636": 29623, "\u2581Hill": 7442, "\u043b\u044c": 1049, "\u2581!!": 22459, "\u2642": 29979, "\u2581msm": 15673, "kte": 17028, "Servlet": 13588, "\u2581registr": 24113, "swap": 18206, "customer": 18523, "\u2581ener": 2960, "\u2581Astr": 25433, "\u2581q": 4256, "track": 7822, "Hom": 25792, "\u2581besch": 15049, "\u2581slides": 27331, "\u2581\u20ac": 17416, "\ubc18": 30192, "\u2581Point": 8571, "\u2581kommun": 18815, "\u6307": 29223, "u": 28718, "\u2581glo": 19720, "\u2581\u0432\u043b\u0430": 13324, "\u2581attraction": 24074, "\u2581Wonder": 21950, "%": 28823, "\u0432\u0430\u043d\u043d\u044f": 12267, "\u043b\u044c\u0442\u0430": 16389, "andal": 19216, "\u2581atr": 21857, "\u2581Survey": 24004, "\u95e8": 29870, "\u2581_": 583, "\u2581Khan": 18595, "\u2581debut": 9928, "\u2581contributor": 23040, "\u2581abrupt": 21735, "\u2581Kaiser": 27039, "coll": 10921, ">;": 10225, "\u2581threw": 11915, "\u2581K\u00f6": 19253, "\u2581Dale": 25300, "\ufb02": 31473, "\u2581Baron": 23152, "udo": 9297, "Cont": 1525, "ctrl": 8022, "\u2581video": 3798, "persistence": 23414, "\u2581stan": 17920, "\u2581Bright": 22311, "\u2581colour": 11474, "\u2581rested": 26916, "\u2581aux": 5672, "\u2581Scottish": 17717, "cknow": 8979, "elve": 11047, "\u2581paintings": 19572, "Retry": 23298, "\u2581institution": 16854, "\u2581Schools": 24446, "ulu": 20366, "\u2581\\]": 8425, "\u2581transport": 6209, "\u2581mentally": 24335, "\u2581bear": 9135, "\u2581competitive": 13473, "\u2581Nic": 11921, "\u2581Wales": 14831, "liver": 16342, "Executor": 21382, "\u2581siglo": 22017, "mc": 12961, "decess": 24915, "\u2581organ": 2170, "\u2581clients": 6819, "REQ": 8728, "\u2581investigate": 17214, "=\"$": 24235, "kv": 23546, "\u2581Pen": 9756, "kers": 21003, "iso": 12419, "\u2581thunder": 25752, "\u2581titled": 21508, "\u2581indicate": 11634, "\u0434\u044c": 14599, "\u2581gab": 18221, "\u2581\u0441\u0442\u0430\u043d\u043e\u0432\u043d\u0438\u043a\u0430": 18699, "\u626b": 30997, "\u2581lyrics": 22583, "igma": 2898, "\u2581sprint": 15409, "\u2581minist": 15910, "currency": 16714, "column": 5571, "\u2581individ": 3004, "\u5f84": 29729, "\u2581grap": 27532, "\u2581recover": 9443, "\u5fd8": 31763, "\u2581relative": 7986, "\u2581Jess": 14216, "\u2581pink": 12937, "Base": 4062, "\u2581\u0410\u043b\u044c": 27436, "\u2581front": 2778, "riteria": 12223, "\u2581mysterious": 21296, "\u9700": 29259, "\u2581Three": 9673, "\u2581manufacturer": 17746, "\u10e7": 31287, "rad": 4306, "\u8bf8": 31205, "\u2581pued": 11127, "\u2581Franco": 28289, "cher": 6113, "OR": 1017, "\u0431\u043b\u0438": 8334, "\u2581Sebastian": 26115, "\u04c0": 31731, "Plugin": 10443, "\u2581Moore": 16616, "hind": 15664, "\u0441\u0442\u043e": 2276, "\u2581minimum": 7968, "\u2581shr": 12249, "press": 1402, "phant": 17953, "\u2581pci": 27582, "\u25ba": 29413, "\u2581script": 6767, "png": 7441, "Menu": 5674, "pio": 14662, "\u821e": 31622, "Buff": 15989, "\u2581Freud": 24729, "berg": 4146, "bsite": 14868, "<0x73>": 118, "\u2581Monitor": 27838, "\u0432\u044b\u0445": 17033, "Active": 8051, "brief": 17281, "\u2581nearby": 10396, "./": 3849, "Constants": 11668, "\u2581measured": 12820, "\u2581approxim": 7288, "\u015f": 28987, "Dam": 18312, "\u2581sites": 7363, "\u2581poco": 20324, "\u2581Why": 4315, "kir": 20741, "\u2581spray": 19084, "LAB": 19331, "\u2581favor": 4268, "<0x1F>": 34, "\u2581coordinates": 15634, "yer": 8293, "\u044f\u0431\u0440\u044f": 12251, "<0xA1>": 164, "\u2581Bit": 11014, "\u78bc": 30946, "<0x07>": 10, "erial": 16299, "}(\\": 4824, "suite": 15677, "nehmen": 22839, "\u2581pr\u00e9": 12823, "\u2581outcome": 14120, "uments": 3105, "\u2580": 30374, "\u2581index": 2991, "\u2082": 30202, "\u51b3": 30668, "\u2581garage": 16699, "\u54c8": 30737, "\u2581Memory": 19153, "han": 7645, "\u2581mars": 13247, "\u2581Pac": 9682, "interrupt": 23801, "\u2581Mill": 6274, "USH": 23896, "\u041b": 28885, "\ud83c\udf0d": 31057, "\u2581Though": 10080, "\u2581diseases": 18257, "\u2581has": 659, "ins": 1126, "\u2581healing": 15932, "\u2581Americans": 8165, "\u2581\u0413\u0435\u0440": 21460, "ANK": 26393, "Help": 17302, "\u3060": 29883, "\u2581illustrated": 24210, "\u2581dol": 13824, "\u2581sur": 1147, "edo": 24436, "Generated": 11882, "\u2581Money": 17786, "itude": 4484, "incl": 1505, "Non": 7525, "\u2581org": 2247, "\u2581hands": 3038, "\u2581contract": 5001, "\u2581nod": 5460, "\u2581flat": 7007, "\u0447\u043d\u0438\u0439": 24016, "ern": 1173, "\u2581full": 2173, "\u2581ou": 3466, "ali": 4827, "\u2581End": 5764, "XX": 6135, "estamp": 7039, "\u2581Nat": 9736, "TRY": 13224, "\u2581AG": 14778, "\u043d\u0438\u043a\u0438": 16608, "loyd": 21827, "\u2581nail": 25592, "\u2581\u043e\u043a": 10525, "\u2581criticism": 17584, "\u2581overl": 27086, "ENSE": 7592, "Sim": 7554, "\u2581compound": 18300, "\u2581attracted": 18940, "pb": 11497, "\u2581meg": 9742, "\u2581fashion": 8844, "apache": 5025, "\u041d\u0430": 24192, "\u2581exploring": 21354, "aste": 4635, "opher": 12379, "enty": 3743, "SSION": 10946, "cedure": 27032, "\u2581Seit": 21761, "\u043d\u043e": 703, "\u2581Enc": 17611, "\u2581ham": 11218, "\u9020": 29925, "\u2581framework": 10782, "plo": 22433, "\u2581cheek": 10863, "\u2581Prior": 20844, "Rect": 7426, "\u5185": 29188, "ites": 3387, "\u2581dos": 4882, "prop": 5607, "\u5bbf": 31553, "*(": 13411, "\u2581orders": 8636, "\u2581sett": 4641, "\u2581forms": 6967, "uni": 10810, "\u2581upload": 12299, "\u2581hay": 16664, "\u2581lig": 18985, "\u2581Portland": 23732, "\u2581Sh": 1295, "\u2581Lemma": 13584, "\u3042": 29674, "\u2581Taiwan": 22463, "\u2665": 29664, "\u2581gle": 13123, "\u2581Hope": 12297, "verted": 18692, "\u2581masses": 17536, "\u2d59": 31733, "\u2581fing": 6634, "\u2581Arist": 24259, "Now": 8479, "peg": 16600, "nea": 19660, "\u2581saf": 4972, "\u2581achieve": 6619, "Level": 6268, "\u2581latach": 20102, "Sym": 17065, "\u00e9m": 4854, "Confirm": 22205, "\u73a9": 30656, "\u2581cops": 19407, "\u2581\u00e4": 14239, "rett": 12677, "navigation": 22416, "\u2581accompl": 9605, "\u2581Tib": 20839, "\u043a\u0438\u0445": 9422, "\ud398": 30446, "\u2581conservative": 16038, "\u2581broadcast": 11837, "\u2581Oil": 16181, "iju": 17411, "\u2581certified": 20654, "atalogue": 10626, "\u2581Kos": 20556, "\u2581aston": 21011, "\u6d6e": 31171, "\u2581wasn": 2723, "lica": 24534, "gate": 7999, "AA": 3598, "\u2581east": 9005, "\u2581VIII": 24475, "\ud14c": 30566, "journal": 22908, "ially": 1929, "\u2581Gener": 2766, "\u2581eligible": 18711, "iejsc": 18840, "setting": 15062, "\u2581lust": 28249, "\u0386": 31392, "udio": 3704, "\u2581boolean": 3695, "\u2581\u2581\u2581": 2287, "Flag": 10787, "complete": 11192, "Compar": 11481, "inating": 11251, "\u2581advanced": 10023, "\u2581END": 21288, "slug": 23983, "\\\">": 21104, "\u2581beim": 17454, "hum": 18500, "edy": 7264, "metic": 20529, "\u2581visited": 11542, "\u2581recently": 5915, "\u2581\u043d\u0456": 24445, "!'": 8873, "\u5c5e": 29438, "\u2581teens": 27995, "ior": 1782, "\u0ca8": 31066, "\u2581\u043f\u0438": 10484, "\u541b": 31097, "\u632f": 31960, "que": 1011, "\u2581fra": 6388, "prit": 25450, "scar": 14723, "question": 17496, "ifs": 12843, "await": 13513, "\u2581analys": 21974, "\u2581desperately": 24254, "\u2581formally": 25491, "\u2581punch": 19018, "\u56fe": 29183, "mid": 8041, "\u2581usage": 11753, "\u2581sucks": 25033, "\u2581buy": 3848, "\u2581optional": 11284, "\u00b9": 30047, "dots": 10234, "\u2581aims": 20566, "\u2581Braz": 11863, "\u0219i": 6284, "\u2581backpack": 28217, "\u6709": 28998, "ieb": 25295, "Previous": 28284, "kim": 23159, "PLAY": 17003, "<0x02>": 5, "+'": 23922, "\u2581Mittel": 27026, "jav": 13314, "\u0434\u043e\u043b": 24019, "\u8ad6": 31677, "\u2581clar": 16066, "\u0434\u0435": 1903, "\u2581respected": 23425, "\u2581ter": 3636, "disable": 9613, "olved": 7060, "\u2581Br": 1896, "\u2581object": 1928, "\u2581generator": 17128, "\u044f": 28811, "<0x5D>": 96, "'_": 16314, "\u2581surprise": 8982, "ONLY": 21198, "\u0e34": 29568, "dn": 13984, "\u2581extraordinary": 17809, "osph": 24512, "\u03c5": 29071, "\u7edc": 30229, "\u043d\u043e\u0433\u043e": 3111, "uelle": 19053, "from": 3211, "\u2581starting": 5615, "}}\\": 5260, "\u2581Rate": 27773, "jev": 24896, "multip": 20317, "\u0434\u0438\u0438": 24844, "\u2581Comm": 3008, "\u2581motiv": 8972, "Expected": 17015, "\u2581opportun": 4047, "lines": 8063, "\u2581Perry": 24150, "\u0431\u0430": 4820, "\u2581loan": 9976, "zung": 25397, "late": 10020, "\u2581liqu": 9491, "length": 2143, "reference": 14772, "<0x91>": 148, "UNIT": 22587, "HANDLE": 24292, "\u0648": 28962, "\u53bf": 29406, "\u2581halt": 19293, "odge": 13167, "\u2581ca": 7913, "GroupLayout": 21984, "\u2581Adm": 19426, "\u2581tracks": 11637, "spr": 22694, "\u2581Students": 17091, "\u2581arguing": 21440, "\u2581incred": 8329, "\u03b5": 28981, "aglia": 25413, "\u98df": 30716, "\u2581properties": 5508, "\u2581See": 3868, "\u2581manage": 8594, "pletion": 14621, "Refresh": 21203, "\u2581g\u00e9n": 10979, "ronic": 7624, "resa": 17677, "\u7075": 31310, "pect": 822, "\u2581guidance": 15988, "\u2581Tig": 26222, "itas": 21131, "\u2581modal": 22946, "\u2581Parameter": 26059, "\u2581himself": 2722, "\u2581fit": 4646, "\ud55c": 29282, "\u2581produ": 1219, "\u2581cpu": 12021, "aligned": 15742, "\u2581Sister": 21310, "<0x5F>": 98, "\u0e1f": 30725, "aze": 7273, "\u2581ain": 17523, ":%.*": 16772, "\ub529": 31836, "cia": 5011, "\u2581zosta\u0142": 11686, "\u5f00": 29177, "isan": 18164, "\u2581headers": 12489, "\u2581lovers": 24883, "\u2581paying": 9960, "\u03bd": 28976, "\u2581Fleet": 26220, "\u2581inevitable": 21924, "ex": 720, "show": 4888, "\u2581music": 3427, "\u2581rarely": 13977, "nut": 17964, "\u2581period": 3216, "nabla": 9190, "\u2581beings": 16905, "\u2581ly": 18467, "<0x12>": 21, "printf": 4631, "\u2581Bi": 6345, "\u2581rush": 16002, "support": 6658, "\u2581\u044d\u0442\u043e\u0433\u043e": 26347, "cached": 22080, "\u2581Net": 5269, "\u2581As": 1136, "\u2581cour": 1547, "\u2581puzz": 15386, "\u2581\u0454": 15020, "\u0434\u0430\u043d": 19872, "inos": 7905, "ace": 561, "\u00e9r": 3160, "Template": 6937, "anca": 19205, "copyright": 28608, "\u200e": 29207, "\u2581sensitivity": 22486, "module": 4895, "\u2581engineering": 13320, "\u0292": 30299, "\u2581softly": 18345, "\u2581friendship": 17511, "isson": 20947, "\u2581realised": 24425, "Language": 13843, "\u2581parts": 5099, "\u01eb": 31782, "\u2581ich": 15364, "eld": 4333, "THOD": 15106, "free": 3669, "\u2581hi": 12014, "\u2581wondering": 12785, "\u2581proves": 25832, "\u2581qual": 4109, "mathcal": 2155, "ion": 296, "\u2581heavy": 5917, "\u2581\u0441\u043f": 27780, "\ub0a0": 31033, "\u2581Customer": 16648, "raction": 18296, "\u2581Bishop": 19683, "\u2581backwards": 24324, "Multiple": 26905, "\u2581sein": 6578, "\u57ce": 29727, "Primary": 17766, "\u5dde": 29719, "\u2581it": 378, "\u2581paint": 6192, "CMD": 11261, "\u2581cell": 3601, "\u2581spot": 6297, "\u044d": 28888, "omen": 4361, "\u2581Pic": 17321, "\u2581Content": 13158, "<0x9B>": 158, "mart": 20665, "\u2581pel": 6704, "\u2581publishing": 20449, "Bas": 10836, "aut\u00e9": 27830, "Start": 4130, "\u2581convenience": 20185, "\u2581brass": 27042, "\u2581conviction": 24594, "processor": 24424, "\u2581Cap": 6275, "\u00e8te": 21056, "),\\": 19908, "rap": 1242, "\u2581\u043c\u0456": 7864, "\u2581american": 21419, "\u2581exem": 19997, "<0xD1>": 212, "\u0408": 29033, "\uc73c": 29583, "\u0432\u0456": 4093, "\u2581ideal": 8184, "\u2581Double": 15233, "ivan": 18148, "\u2581recommended": 11572, "\u2581net": 2512, "/(": 20974, "Review": 25861, "\u2581callback": 6425, "\u2581zur\u00fcck": 16460, "range": 6347, "FB": 14041, "\u2581tel": 18408, "FRAME": 20593, "mania": 25771, "ieler": 11963, "\u2581prototype": 25192, "\u5458": 29602, "\u2581arte": 27697, "\u5c01": 30503, "\u2581Hampshire": 27616, "\u2581Overall": 21013, "\u2581Relig": 18877, "\u2581panel": 8357, "\u2581Ez": 23963, "\u2581\u0436\u0438\u0432\u043e": 25455, "\u2581quale": 22553, "\u0442\u043e\u0440": 6826, "\u0448\u0435\u043d\u0438\u044f": 25912, "container": 6734, "\u2581\u00e9gal": 12951, "\u2581Kitchen": 21376, "<0xB8>": 187, "scriptstyle": 26715, "\u30e4": 31234, "working": 20867, "\u2581bless": 14389, "uffix": 18020, "What": 3195, "\u2581sitting": 6398, "\u2581produced": 6763, "miss": 7924, "\u2581preventing": 26031, "reich": 10055, "\u0445\u043e": 2593, "\u2581Card": 8564, "\",\r": 10939, "equal": 7318, "\u2581trains": 19770, "\u2581contempor": 23541, "\u2581consider": 1917, "ipping": 10206, "Listener": 5031, "WIDTH": 24278, "\u2581thousand": 8028, "noc": 15979, "\u2581IMP": 15347, "gens": 21410, "constructor": 18245, "tm": 11099, "ourt": 17007, "<0x5A>": 93, "plex": 8899, "ARK": 17155, "opsis": 22761, "\u2581relativ": 22957, "\u2581widely": 12575, "\u2581communes": 24657, "\u2581Beth": 17822, ">.": 13902, "\u2581targeted": 20279, "\u2581kan": 10353, ")+\\": 25886, "Compute": 26635, "\u2581Dr": 2985, "\u0432\u0435": 1692, "\u2581expects": 28190, "\u0490": 29559, "\u2581EXPORT": 20713, "Getter": 26270, "\u53c8": 30744, "\u2581Design": 8648, "\u2581PORT": 23974, "mk": 16259, "\u2581empire": 21225, "\u2581earthqu": 27719, "\u2301": 30413, "\u2581supporting": 11787, "\u2581Pat": 4186, "\u2581Sweden": 19652, "icker": 9253, "\u2581pressed": 12263, "\u529e": 31298, "\u2581buzz": 21242, "\u09b0": 29646, "arios": 11041, "UNT": 11111, "\u2581crowds": 26674, "\u2581stock": 5756, "\u2581Country": 13008, "pse": 19229, "Loading": 16031, "\uff1f": 29771, "\u2581shrugged": 15264, "Fore": 13275, "Bitmap": 20623, "\u2581Slov": 27347, "\u2581\u0427\u0438": 26603, "<0x4D>": 80, "<0x7D>": 128, "\u0437\u043d\u043e": 18380, "Parse": 9961, "ether": 8962, "payload": 13643, "\u2581encouraged": 15863, "insi": 11738, "ambda": 2566, "erve": 5803, "\u092f": 29896, "\u0432\u0430\u0442\u0430": 28478, "only": 5041, "\u2581distress": 25669, "\u6839": 29521, "\u2581platform": 5181, "\u2581tow": 11201, "exper": 17245, "\u2581Villa": 21192, "ografie": 16976, "avity": 16012, "More": 15279, "El": 5773, "Lead": 24353, ",\r": 4604, "\u2581<<": 2087, "paper": 19521, "\u2581SPD": 24151, "intage": 21153, "\u2581`${": 22468, "craft": 6006, "\u039d": 29966, "\u2581\u0441\u0442\u0430\u043d\u043e\u0432": 16141, "\")\r": 16949, "\u2581Holmes": 20860, "setState": 24624, "\u2581conqu": 17095, "\u2581einem": 7026, "}).": 6844, "anka": 18816, ")}(": 20089, "\u2581requ": 1085, "Rows": 13699, "\u2581Tr": 1319, "Loc": 2871, "\u2581Edu": 22726, "\uaca9": 31110, "\u2581cow": 12072, "\u2581bowl": 13494, "us": 381, "icked": 13371, "picker": 19794, "(?:": 26733, "aurus": 24308, "\u2581swallow": 25993, "vin": 8830, "\u2581Championships": 19763, "\u2581destac": 27900, "ket": 10304, "NM": 25860, "\u2581relations": 3136, "\u2581staring": 13144, "wrapper": 14718, "L": 28758, "\u2581incorrect": 16390, "\u0e01": 29256, "pare": 10350, "\u2581nullptr": 7648, "\u043f\u0430": 2789, "eqn": 5030, "\u2581invested": 24161, "\u2581practition": 24989, "\u2581local": 1862, "\u2581raising": 15851, "align": 3737, "<0x1C>": 31, "\u305d": 30292, "force": 5712, "\u2581casual": 13316, "\u043a\u0430": 917, "\u2581exercise": 9095, "\u2581retirement": 15928, "\u2581herself": 4746, "\u2581Indeed": 12876, "\u2581climb": 17176, "\u2581Ly": 10319, "\u2581sovere": 24819, "\u2581};": 2337, "\u2581creatures": 18349, "\u2581d\u00e9m": 25504, "ssl": 16134, "Db": 13171, "debug": 5201, "Heap": 22107, "kee": 21612, "\u2581Im": 2236, "\u2581estate": 9490, "\u28ff": 29934, "\u2581attitude": 12910, "sylvania": 14790, "urn": 453, "ention": 2148, "\u5f8b": 31424, "imiento": 13121, "Ann": 23894, "hd": 8385, "\u2581Lem": 10556, "\u2581crossed": 12554, "ss": 819, "COMM": 13454, "\u2581',": 15246, "(['": 18706, "\u2581saddle": 27343, "\u2581format": 5032, "\u2581coff": 6350, "\u2581comun": 18166, "\u2581\"\"\"": 3504, "\u2581contr": 4188, "<0x95>": 152, "\u2581charm": 22533, "\u2581Forum": 23525, "\u2581\u00e5": 12474, "\u2581\u041c\u043e": 8968, "stdout": 25080, "ization": 1837, "\u2581bog": 24838, "\ud83c\udffc": 30558, "etch": 4455, "\u2581exit": 7790, "\u2581arrang": 11887, "itsch": 22158, "\u2581disorders": 25237, "\u2581suggest": 3397, "\u0440\u044f": 3911, "\u2581controlling": 24148, "Write": 5238, "\u2581Fl": 2494, "\u2581naar": 12547, "\u59d3": 30747, "\u2581\u043d\u0438": 11413, "usage": 16052, "\u2581complexity": 17599, "\u2581Licensed": 10515, "\u2581avoid": 4461, "\u2581\u0427": 5477, "\u2581classroom": 19729, "}))": 21999, "\ubcc4": 31044, "\u2581scored": 13969, "umen": 20341, "\u2581Cat": 10758, "\u2581checking": 12779, "\u2581Juli": 17570, "FROM": 21335, "\u2581laughing": 14827, "\\\",": 22334, "\u2581ever": 2270, "<0xA0>": 163, "was": 9380, "\u2581telling": 7124, "flex": 13971, "\u2581anderen": 19532, "\u2581tongue": 13821, "\u2581\u043f\u0456": 28442, "izo": 19692, "cluded": 27596, "\uac1d": 30411, "\u2581inch": 17013, "\u2581rund": 24187, "\u043d\u0456\u0441\u0442\u044c": 19147, "bar": 1822, "<0x03>": 6, "\u00edo": 13826, "\u2581difficult": 3796, "\u2581wel": 5661, "\u2581restore": 13302, "\u2198": 29091, "\u2581bored": 19739, "\u2581Lav": 26469, "\u2581Will": 2875, "\u2581Theory": 27211, "\u2581scientists": 15067, "\u2581\u043e\u043a\u0442\u044f\u0431\u0440\u044f": 26490, "fang": 17907, "Cert": 12584, "\u2581\u0432\u044b": 4627, "\u2581moins": 17775, "\u2581bajo": 22418, "///": 3312, "\u2581Track": 13907, "\u2581si\u00e8cle": 13717, "Api": 7119, "\u30ad": 29753, "\u00f6ff": 14505, "\u5317": 29799, "Ctrl": 18795, "\u2581ownership": 13965, "dup": 20267, "<0xDD>": 224, "\u2581Man": 2213, "];": 1668, "\u2581READ": 24805, "\u2581litt": 26261, "\u2581CONTR": 17453, "\u2581stab": 21670, "\u2581decided": 4496, "\u2581templates": 24906, "INFO": 7571, "\u00f6l": 9958, "\u2581lifted": 11942, "\u2581Nobody": 19816, "\u2581throw": 2154, "\u2581Protection": 21154, "\u2581troops": 10746, "sk": 1252, "annot": 5886, "\u2581Ing": 19848, "(),": 1648, "\u2581Ana": 23103, "WARN": 11865, "ST": 920, "\u2581da": 1866, "\u2581helpless": 25240, "\u5c3e": 30473, "CLUDING": 16634, "ilen": 27748, "\u2581come": 1567, "\u2581lim": 2132, "\u2581Mix": 19630, "\u2581sede": 26784, "\u2581stag": 19399, "made": 15248, "\u2581et": 911, "\u2581vibr": 13546, "\u2581propri": 25681, "\u6740": 31168, "\u2581\u041c\u0435\u043a\u0441\u0438": 27720, "\u2581Shakespeare": 19155, "Url": 5140, "oga": 10491, "\u30ac": 30613, "\u2581variance": 27493, "\u2581gentleman": 24830, "\u2581Category": 18327, "\u00e4ft": 21084, "\u0441\u043e": 2688, "\u2581dram": 9473, "\u2581vertical": 13519, "\u2581vacuum": 18362, "\u770c": 31432, "\u2581accurate": 11229, "\u2581Paulo": 22149, "zero": 8981, "\u2581Marketing": 17058, "\u2581Missouri": 20611, "\u03a8": 31374, "\u2581ent": 936, "lock": 1607, "Margin": 21938, "\u5143": 29352, "Equals": 5634, "\u2581\\,": 6545, "\u2581consciousness": 16508, "\u2581Cru": 11549, "pag": 19383, "\u2581enem": 13595, "\u2581variant": 15944, "imiter": 27328, "\u2581dal": 7517, "\u043b\u043e\u043c": 14253, "\uc810": 30589, "\u2581protection": 8147, "binding": 19579, "\u2581Little": 9999, "\u2581Veg": 15408, "ilton": 9398, "\u2581sit": 1943, "\u2581jumped": 14949, "\u2581recur": 18901, "\u2581sched": 22245, "\u2581ridic": 12882, "\u2581Ess": 11299, "\u2581Peace": 18864, "\u2581$\\{": 17543, "\u2581Pedro": 18444, "BP": 9399, "\u2581shame": 14717, "\u2581True": 6110, "\u2581Sar": 7663, "\u2581Cyr": 26832, "izada": 27735, "\u8d77": 29676, "\u2581happ": 1535, "\u2581snd": 15433, "\u2581],": 12052, "MAC": 13037, "\u2581syntax": 25227, "Node": 2259, "<0xE0>": 227, "\u2581lif": 5678, "closure": 14774, "\u2581volunteers": 20826, "\u2581Poss": 19796, "ivers": 1588, "\u043b\u044c\u043a\u043e": 14451, "\u2581SY": 17121, "settings": 6465, "\u2581screamed": 22878, "chant": 11746, "\u2581mechanics": 24367, "\u2581Transaction": 26524, "\u2581regarded": 15390, "\u2581Native": 16024, "\u2581discre": 23420, "\ubb38": 29710, "\u2581photographer": 24159, "\ud83d\udc49": 31811, "hend": 12669, "RED": 12466, "\u2581prze": 10448, "Choice": 28456, "\u518d": 29740, "\u2581rac": 6567, "\u2581put": 1658, "alls": 6629, "bm": 6659, "\u2581recommendation": 26077, "\u2581madre": 26032, "\u2581treated": 9852, "\u0458\u0438": 11262, ";;": 19406, "dale": 21352, "\u9012": 30380, "\u2581Var": 12760, "rir": 28441, "\u2581Southern": 12031, "\u544a": 29915, "\u2581upon": 3714, "\u2581economic": 6638, "\u2581Negro": 23725, "\u2581permanently": 26815, "\u2581Il": 2661, "\u2581extensions": 18739, "\u2581Organization": 21919, "\u2581vessels": 22831, "ITS": 20688, "\u2581President": 5120, "\u2581annoy": 13016, "\u2581presum": 17834, "\u2581suits": 21553, "prise": 9266, "\u2581drift": 18101, "iser": 7242, "\u653f": 30378, "\u9669": 31413, "\u2581Creates": 20518, "orp": 16027, "\u2581dealt": 21759, "essed": 9740, "apple": 24175, "\u2581september": 25494, "\u2581\u0438\u043c\u0430": 19120, "PECT": 5519, "\u2581am": 837, "wall": 11653, "\u0361": 29804, "\u2581\u0422\u043e": 10378, "helpers": 19943, "\u2581David": 4417, "\u2581vocals": 20789, "Off": 3922, "\u0281": 30024, "\u2581membre": 28467, "\u2581awesome": 11923, "\u0436\u0435\u043d\u0438\u0435": 16525, "\u2581Jon": 8254, "Lib": 15640, "\u2581COP": 16572, "draft": 27490, "()[": 19482, "uros": 22751, "\u2581yourself": 3936, "\u2581operational": 21197, "dep": 8823, "\u0440": 28785, "\uc2ec": 31987, "\u0441\u0435": 2313, "\u2581opens": 15706, "\u2581concerns": 10864, "Editor": 8859, "\u00fat": 24043, "\u2581uniform": 8687, "parser": 11465, "\u8f09": 31362, "aved": 4393, "\u2581Initialize": 18737, "\u2581\u0438\u0433\u0440\u0430": 20644, "eks": 23810, "\u2581Biography": 27167, "\u2581dish": 14523, "itel": 13745, "\u2581Platz": 14822, "\u0433\u0430": 2618, "vid": 14410, "\u2581Europ": 10122, "sal": 15459, "Popup": 18643, "nov": 20920, "Som": 22767, "une": 1802, "\u2581economy": 8725, "cluster": 12027, "\ub2a5": 30364, "\u2581coat": 12620, "\u2581Sil": 6044, "\u2581Channel": 14250, "\u2581doors": 9289, "\uc885": 30490, "context": 2714, "\u2581Another": 6880, "\u2581\u0412\u0435\u043b\u0438": 16690, "anson": 21140, "\u0995": 29982, "\u2581Va": 18786, "\u2581eat": 5310, "\u2581scrut": 27352, "ime": 545, "\ub098": 29695, "\u2581Convert": 16186, "\u2581bil": 16037, "\u2581bra": 12015, "unches": 28625, "stead": 28277, "\u2581unexpected": 12799, "\u2581mag": 2361, "\u2581resulted": 16960, "\u2581\"./": 11171, "Cl": 1199, "mail": 6645, "dated": 5218, "FIL": 17168, "\u4e2a": 28995, "\u2581countries": 5780, "\u2581War": 3273, "iner": 4828, "\u2581Posted": 17317, "\u2581):": 19174, "\u2581Bloom": 23451, "Saint": 26273, "\u2581polynomial": 22879, "\u2581Von": 15025, ">\")": 26461, "\u2581nicely": 26465, "\u2581session": 5313, "\u2581cref": 14799, "\u2581Harris": 16692, "\u0441\u043a\u0430\u0442\u0430": 19537, "\u00fbt": 15452, "\u00e5g": 17843, "\u2581anth": 20019, "CREATE": 21005, "\u2581minor": 7626, "\u2581examined": 21132, "\u2581imported": 26659, "\u2581mast": 27529, "\u2581Sv": 20810, "\ubbf8": 29967, "onso": 24291, "\u2581satisf": 4864, "Stop": 10543, "\u2581believe": 3091, "\u2581acquired": 14178, "Access": 6169, "\u2581usb": 17075, "\u2581fears": 20142, "\u2581random": 5509, "\u2581optimization": 18586, "\u2581MIN": 21049, "oux": 20149, "scope": 6794, "ideo": 2555, "bul": 9258, "Seconds": 20852, "False": 6995, "\u2581NFL": 17868, "\u2581Community": 11027, "\u2581${": 6051, "\uc2e0": 30126, "velope": 17173, "ifiers": 11980, "eno": 11174, "\u2581Brig": 15114, "\u2581joined": 7298, "ventory": 16917, "\u2581Central": 7993, "\u2581accepting": 22368, "\u2581tastes": 26918, "\u2581compliment": 23085, "\u2581taking": 3344, "\u25aa": 30701, "izations": 13809, "\u2581repr\u00e9sent": 23853, "\u2581Po": 5464, "\u2581estimates": 16438, "\u2581compelling": 26295, "\u2581dri": 2768, "Analy": 27554, "ograp": 11879, "ishop": 12019, "\u2581scattering": 21635, "ialog": 3723, "\u2581pregn": 10134, "'))": 8100, "\u2581concept": 5935, "aty": 20721, "ni": 3023, "pective": 8524, "\u2581viene": 17145, "\u2581Reddit": 22233, "\u2581\u044d": 4235, "\u2581acknow": 10062, "isce": 26322, "\u9ede": 30718, "\u5141": 30253, "ERS": 10291, "\u00e1ndez": 28537, "\u2581stadium": 24096, "\u2581Definition": 24382, "i\u00e9": 26420, "unter": 16442, "\ud658": 30391, "\u662d": 31844, "BI": 8758, "\u2581biologie": 17149, "\u8a00": 30065, "lying": 4089, "woh": 17254, "\u2581Brown": 8364, "\u9762": 29181, "Test": 1963, "\u2581History": 6866, "\u2581imagination": 16842, "\u2581recurs": 19681, "\u2581Products": 21061, "\u0422": 28875, "\u2581msg": 7070, "\u2581Gun": 20655, "\ud83d\udc4d": 30195, "icate": 5749, "<0x1D>": 32, "PACK": 20683, "\u2581cluster": 9194, "\u2581Lind": 10100, "quote": 14307, "\u2581hope": 3317, "istics": 5513, "ibration": 21383, "jquery": 21126, "angu": 2374, "unit": 5306, "\u2581wants": 5659, "Ke": 7238, "ating": 1077, "\u2581singing": 14493, "\u0015": 30675, "\u2581aument": 27479, "\u2581legis": 14864, "\u2581lux": 11967, "\u2581BBC": 16309, "\u9084": 31497, "ingo": 20837, "\u2581memory": 4733, "unused": 20961, "\u8f83": 30459, "\u0435\u0442\u0441\u044f": 7357, "ansk": 18269, "\u2581Pos": 8202, "blk": 17461, "^{\\": 3394, "\u2581assistant": 13892, "logo": 17506, "Cons": 21432, "\u2581Wayne": 21433, "\u2581implementing": 27068, "\u2581maps": 11745, "\ud83d\ude44": 30323, "\u9ec4": 30658, "nav": 7141, "coming": 4343, "\u0442\u0435\u043b\u044c": 4446, "r\u00e9": 9946, "\u2581centuries": 14997, "IF": 4066, "\u2581imagined": 16435, "dependent": 23751, "\u2581this": 456, "\u2581Appendix": 26589, "tb": 14238, "strip": 18184, "some": 11183, "writer": 11660, "\u2581Service": 5836, "oise": 21985, "fake": 16325, "\u2581slaves": 17614, "spir": 14079, "\u2581amount": 3558, "scriptions": 18673, "\u2581motivation": 21594, "\u2581Kyle": 25363, "EXT": 4036, "ia\u0142": 10166, "arga": 26538, "\u252c": 30884, "\u623f": 30376, "\u4f24": 31546, "aver": 10302, "\u2581gru": 6080, "\u2581refresh": 19070, "extract": 21685, "adget": 18142, "\u2581prepar": 7892, "Lookup": 19508, "\u2581Oper": 6692, "\u2581type": 1212, "\u2581command": 3445, "\u2581conversion": 13833, "gu": 2851, "unate": 26655, "bit": 2581, "anda": 5904, "\u0e4c": 29923, "TV": 10639, "\u2581appl": 14933, "\"\r": 11525, "\u2581testim": 16620, "iece": 21422, "\u83b7": 29072, "\u2581=\\": 17988, "\u2581Caption": 6534, "\u2581capability": 21368, "\u2581Suite": 25660, "\u2581Pe": 3242, "isha": 22674, "\u8f69": 31943, "\u2581Ker": 17563, "\u2581toast": 26312, "URCE": 15375, "\u02d0": 29240, "\u2581News": 7615, "\u2581UI": 16324, "ortion": 25382, "\u2581comments": 7616, "\u2581Pittsburgh": 25536, "\u2581\u0442\u0430\u043a\u043e": 16629, "\u2581compile": 25584, "\u2581Sy": 7281, "i\u00e7\u00e3o": 18992, "\u2581Details": 16329, "\u2581whether": 3161, "\u2581drums": 25697, "\u2581nerv": 9434, "\u2581carries": 21277, "\u2581Technical": 25930, "Generation": 26971, "\u2581capital": 5565, "\u7fbd": 31475, "sequence": 16705, "\u2581City": 3805, "'],": 5807, "asa": 13937, "\u2581clearly": 6315, "\u2581Sav": 11210, "\ud83d\ude0d": 30819, "\u2581wetenschapp": 16909, "Anim": 14224, "\u2581maintenance": 12364, "\u2581Sche": 11142, "pu\u00e9s": 12873, "Re": 1925, "\u2581features": 4190, "idx": 5251, "\u2581\u0436\u0435": 9438, "\u2581invasion": 18793, "\u0938": 29671, "\uae08": 30331, "\u2581batt": 8396, "\u2581reprodu": 12487, "\u2581might": 1659, "\u0388": 31586, "\u001d": 31236, "\u2581Japanese": 8092, "icular": 18114, "\u2581Console": 19518, "amily": 5730, "\u2581Restaur": 23657, "\u2581Soci": 26008, "GUI": 21778, "raising": 27941, "\u2581mg": 18144, "\u2581Marco": 21069, "\u0432\u044b\u0435": 16072, "\u2581brew": 18098, "\u2581ears": 12446, "Une": 18813, "\u2581deployed": 26694, "\u2581zam": 23884, "reload": 26606, "#": 28771, "Item": 2042, "\u2581Pretty": 24111, "Character": 15962, "\u0cbe": 31026, "\u2581mand": 9915, "\u2581y": 337, "chiat": 20307, "\u2581thoughts": 7403, "\u2581Often": 24640, "rose": 16965, "\u2581jazz": 19460, "\u2581htt": 2336, "cie": 9041, "\u2581crisis": 10788, "\u2581dozens": 21546, "wise": 3578, "Uri": 13530, "\u0425": 28904, "DD": 7600, "claimed": 19223, "\u2581stored": 11141, "\u2581'@": 8319, "\u2581\u043e\u0441\u043e": 14512, "release": 11023, "\u2581arms": 5574, "Dest": 9277, "Reader": 8056, "uuid": 16474, "END": 5000, "\u2581division": 9652, "\u2581TF": 23260, "\u2581\u0411\u0435": 11543, "Most": 20928, "<0x3F>": 66, "ills": 2767, "\u2581crime": 9311, "\u2581experiences": 9021, "\u2581ms": 14362, "}}_": 14340, "\uff1a": 28994, "\u2581loop": 7870, "ipv": 21294, "rass": 12316, "\u2581Holland": 23555, "\u2581tattoo": 28105, "ACTION": 17615, "\u2581entertain": 12127, "ley": 2047, "mass": 18480, "<0xAA>": 173, "panic": 19771, "fab": 17547, "\u2581cf": 24211, "\u2550\u2550": 27743, "\u0437\u043e\u043c": 19359, "LS": 6687, "rew": 2516, "\u2581recommendations": 18892, "closed": 12848, "\u2581Just": 3194, "\u2581include": 3024, "mouse": 13778, "\u0142a": 6905, "isArray": 28000, "ipedia": 13189, "\u2581Training": 15394, "sil": 22585, "\u2581subur": 24832, "\u2581Q": 1186, "FULL": 26318, "oun": 1068, "\u2581ER": 21346, "ician": 8247, "\u2581Hamburg": 24608, "\u798f": 30511, "\u2581expensive": 9212, "\u2581Woman": 20010, "\u202d": 31130, "\u2581vie": 11198, "\u2581th\u00e9": 19353, ">\";": 20160, "\u9060": 31764, "\u2581ext": 1568, "\u2581'''": 23713, "\u2581load": 3442, "aked": 6343, "SESSION": 15373, "\u2581|=": 6764, "embed": 18320, "erness": 19384, "\u2581ju": 5666, "Pt": 26326, "CLU": 28354, "\u2581Mun": 15818, "\u2581llam": 17620, "\u2581HTML": 13987, "elly": 9985, "tuple": 18427, "hooks": 25142, "\u2581innov": 8403, "dp": 8805, "rowser": 5736, "\u2581Ash": 10973, "ulously": 26344, "requ": 1681, "ans": 509, "\u2581ik": 22885, "\u2581candle": 26000, "\u0445\u043e\u0434\u0438\u0442": 21870, "\u2581l\u00ed": 16101, "\u043d\u0432\u0430": 22220, "TES": 27625, "\u2581workers": 7433, "\u2581mou": 22182, "\u2581marine": 22983, "\u06d5": 29455, "\u041c\u0430": 21995, "\u2581wasted": 26508, "\u2581ctrl": 27733, "TRACE": 14985, "\u2581ERR": 12100, "EEE": 20381, "\u2581appro": 2151, "\u2581archive": 23794, "\u2581\u0441\u0442\u0432\u043e": 28490, "\u4e24": 29745, "\u2581Karl": 10648, "dropdown": 21898, "AV": 9024, "\u2581occurs": 12022, "signature": 22938, "upload": 12657, "<0x62>": 101, "\u2581newsp": 9137, "\u2581\u0445\u0430\u0440\u0430\u043a": 26209, "\u2581Pas": 12184, "zeta": 10770, "tain": 12092, "\u2581Russ": 3770, "itaire": 19682, "\u2581\u00e9t": 3763, "mf": 19263, "\u044c\u044e": 16283, "\u2581noble": 19343, "\u2581wash": 14338, "\u2581secure": 8760, "\u2581impressed": 17434, "\u2581slowly": 7160, "\u2581Beijing": 27112, "\u57df": 29829, "\u2581Penn": 11710, "\u2581Vision": 27663, "\u2581\u041a\u0438": 11364, "\u2581worker": 12933, "\u2581\u0413\u0443": 24672, "\u5931": 29268, "\u2581cod": 18128, "\u2581ensure": 5407, "?>": 15353, "ascade": 28134, "\u2581tension": 15802, "\u0948": 30950, "\u2581bi": 4240, "\u2581Lol": 23118, "\u0300": 29891, "\u2581Property": 13059, "Los": 26102, "\u2581encoding": 16087, "Adv": 20300, "Assert": 8715, "\u2581Keep": 10339, "\u2581digit": 21656, "\u6d88": 29311, "\u2581Carr": 27639, "\u2581scenes": 14380, "\u2581bon": 7944, "\u0123": 31662, "itations": 25964, "r": 28712, "\u2581goal": 5541, "\u2581parked": 23643, "\u2581method": 2038, "DATE": 13495, "Preview": 22398, "\u2581phones": 18744, "cam": 9125, "<0x8C>": 143, "\u2581subsequent": 14235, "\u2581Graph": 15146, "Debug": 7156, "\u02cc": 30636, "Run": 3877, "<0xAD>": 176, "\u72c2": 31969, "Feature": 11636, "\u88fd": 31533, "\u2581Feb": 18198, "\u2581Occ": 15819, "\u0432\u0430\u043b": 16122, "\u2581Week": 10433, "\u2581Ever": 12763, "\u2581elderly": 22476, "\u2581Mull": 27647, "\u2581Post": 5112, "ello": 4508, "avo": 17339, "\u2581\u0410": 2182, "\u2581kinds": 10698, "\u2581evaluate": 15627, "also": 18033, "\u2581discrete": 24788, "\u989d": 29880, "\u515a": 31562, "\u2581Nap": 11629, "\ud83d\ude43": 31794, "gal": 7846, "Sync": 10567, "otto": 15034, "\u2581em": 877, "\u2581guide": 8327, "\u2581similarly": 21922, "\u2581cousin": 17022, "abel": 1088, "\u9732": 31771, "irth": 4633, "Ray": 25109, "\u2581protected": 4443, "\u0432\u043e\u0440": 15769, "\u2581innoc": 12686, "atype": 25743, "\u89c6": 29850, "\u05b7": 30175, "gather": 24136, "ania": 4877, "\u2581Paper": 20038, "flags": 4406, "\u2581kilomet": 22118, "pref": 16697, "\u016b": 28985, "\u2581mem": 1626, "\u0153": 28952, "\u4f0a": 30873, "\u2581unemployment": 28634, "runtime": 8863, "\u0426": 28928, "\u2581uk": 20028, "forall": 21524, "\u2581Iter": 20436, "\u0447\u0435\u0441\u0442\u0432\u043e": 26029, "<0x7B>": 126, "Name": 952, "PD": 8268, "\u2581placement": 21783, "iliation": 22758, "Algorithm": 25302, "bolds": 8004, "\u2581particular": 2830, "\u0433\u043b\u044f": 27254, "\u2581Otto": 21289, "\u2581show": 1347, "\u2581Salt": 21943, "\u2581nevertheless": 25457, "itudes": 15787, "\u2581Cit": 16334, "WA": 12245, "\u500d": 31070, "\u2581Publish": 19675, "\u2581\u0440\u0430\u0437": 5234, "perm": 13781, "\u2581k\u00f6r": 28059, "\u2581}": 443, "arl": 1977, "\"},": 7706, "Invoke": 21764, "\u65e7": 31336, "May": 8149, "\u2581deutschen": 25996, "idential": 27357, "@": 28818, "au": 581, "\u2581infection": 18197, "oo": 3464, "intel": 26876, "ouses": 16807, "\u2581jud": 4612, "\u54ea": 30951, "\u2581printed": 15180, "CTL": 13504, "\u2581area": 2698, "\u2581labor": 7579, "Collect": 27991, "iss": 815, "\u2581congress": 22692, "\u2581member": 4292, "\u044e\u0442": 7311, "\u2581\u0442\u0435\u0440\u0440\u0438\u0442\u043e": 24891, "\u2581-----": 20041, "\u2581encour": 6191, "\u2581hash": 7135, "\u2581blanket": 21434, "\u2581(\\": 3566, "\u2581previously": 8361, "History": 13266, "============": 22568, "weak": 25668, "hid": 26096, "\u2581traces": 26354, "\u2581soph": 16500, "\u2581famous": 8376, "HAL": 19287, "\u2581Don": 3189, "iche": 5680, "\u043d\u0438\u0435\u043c": 14144, "\u2581\u0438\u0445": 18028, "\u52bf": 31728, "\u2581court": 5484, "\u2581\u043a\u043e\u043b\u043e": 28242, "mor": 21621, "rotate": 26139, "single": 14108, "\u2581forma": 10997, "\u2581Commander": 22690, "ertain": 2029, "izont": 8927, "Fast": 23252, "\u2581ide": 1872, "\u63a8": 30063, "\u2581interrupt": 10256, "\ubabb": 31408, "\u2581computer": 6074, "\u2581handy": 26568, "\u2581jou": 13087, "\u2581\u043a\u043e\u0442\u043e\u0440\u044b\u0439": 19676, "updated": 18169, "\u2581\u2013": 764, "\u2581\u00e1lbum": 21231, "Tri": 18332, "Stud": 18262, "\u2581arrow": 18623, "\u2581tamb\u00e9": 27144, "\u2581virus": 15022, "ube": 4276, ".~\\": 8080, "\u2581failure": 7719, "apture": 13568, "EventListener": 14101, "\u2581deput": 17928, ",,,,": 20863, "\u2581comp": 623, "\u2581designers": 24518, "\u2581mark": 1716, "\u00e4d": 16902, "\u2581genius": 22027, "mons": 22863, "\u2581Players": 26500, "\u5efa": 29193, "emp": 3938, "clusive": 21981, "\u2581mild": 16583, "\u2581License": 2319, "\u2581\u0441\u0432\u043e\u0438": 25589, "\u17c2": 31692, "product": 5646, "\u2581Bil": 24012, "ening": 3250, "ron": 1689, "\u2581nd": 21706, "\u2581operated": 16985, "\u2581damp": 19151, "ieur": 22534, "itta": 24725, "',": 647, "\u2581outcomes": 18014, "\u2581lock": 4344, "\u2581maint": 5384, "Dialog": 7082, "\u2581Prim": 16059, "\u2581zd": 20133, "uts": 5725, "iska": 13475, "\u2581walks": 16830, "\u2581Door": 26519, "Tur": 28348, "ued": 2465, "\u057e": 30907, "states": 17631, "\u2581key": 1945, "\u2581controversial": 24720, "portun": 3766, "contact": 16570, "aim": 2371, "\u2581nightmare": 27390, "\u2581injection": 28291, "\u2606": 29839, "\u2581convenient": 13767, "\u2581Play": 6879, "rov": 11620, "cean": 8983, "\u2581bol": 16361, "\u2581intensity": 16800, "\u2581canal": 21586, "\u2581fon": 15775, "clk": 9061, "=[": 12303, "ted": 17850, "\u2581jokes": 23872, "\u2581studying": 14328, "WAR": 9272, "basic": 18681, "\u2581collected": 12469, "\u2581dai": 22073, "\u2581Exhib": 28522, "\u5b8c": 29474, "\u1f78": 30802, "uries": 8627, "'}": 14491, "\u2581WARRANTY": 14437, "anel": 6843, "\u2581nella": 8360, "\u6625": 30643, "dorf": 24705, "MBER": 26172, "}=": 6429, "\u0308": 30814, "\u2581Buffer": 21495, "Features": 22227, "\u2063": 31212, "\u045e": 29931, "\u2581Root": 23585, "sterreich": 17844, "\u2581Bey": 16015, "\u2581trials": 19993, "\u2581bien": 9628, "\u0570": 31378, "\u2581esper": 22498, "HAS": 27889, "account": 8132, "\u2581imposed": 24739, "Convert": 16311, "lez": 19557, "\u2581below": 3624, "\ubd84": 30217, "\u2581zona": 21193, "olate": 19807, "ensus": 9898, "\u2581police": 4758, "\u2581accessories": 25667, "\u2581dup": 22669, "\u2581outbreak": 26030, "SC": 3315, "FAILED": 19413, "<0x84>": 135, "\u043c\u0435": 2084, "(/": 16552, "neath": 20316, "\u2581[\u2026]": 22819, "\u2581\u041f\u0440\u0435\u0437": 22301, "igh": 956, "CREF": 25627, "<0xD3>": 214, "oved": 2947, "black": 10323, "\u2581reign": 21539, "\u2581recognized": 10099, "\uff0d": 31140, "\u2581tips": 10636, "RECT": 13162, "asure": 3275, "\u2581somebody": 12421, "]['": 13601, "\u2581a\u00f1o": 13680, "\u0441\u0442\u0432\u0430": 6238, "\u2581Empire": 13657, "\u2581ordered": 8346, "<0xDB>": 222, "\u2581": 28705, "\u2581symptoms": 12380, "\u2581reaches": 18710, "STEM": 22526, "\u2581lazy": 17898, "erek": 21499, "Great": 26315, "\u2011": 29694, "replace": 6954, "\u2581desired": 11785, "\u2581Medic": 12808, "\u2581slic": 17341, "DTO": 17549, "\u2581nas": 12472, "\u2581Ukrain": 23129, "rial": 6144, "\u2581embr": 12434, "\u2581depression": 14992, "\u043f\u0440\u0430\u0432\u0438": 27730, "PRE": 6314, "verage": 4064, "\uc774": 29015, "ying": 2983, "\u2581missing": 6925, "\u2581floating": 15689, "atie": 11541, "iously": 7990, "\u2581plt": 17768, "\u2581Admin": 28418, "\u2581dispos": 12761, "ora": 3428, "\u043d\u0438\u043c\u0438": 15610, "\u2581paper": 3830, "INS": 12522, "icture": 10358, "\u00b5": 29514, "repository": 19944, "\u2581bars": 13529, "hus": 9710, "previous": 19740, "OF": 10907, "dat": 4201, "seh": 22001, "\u2581Warner": 25533, "AIN": 18059, "\u2581doorway": 20702, "oly": 20055, "\u2581competing": 23183, "\u2581Character": 23471, "encoded": 27208, "\u2581tut": 8311, "\u2581rushed": 19408, "\u2581stayed": 10452, "\u2581Official": 26356, ",$": 13948, "alie": 26877, "\u2581hommes": 27678, "\u2581Gre": 9261, "\u0441\u043a\u0438\u0439": 4704, "\u121d": 31798, "\u2581km": 3535, "\u2581drawing": 10916, "\u2581Tot": 17471, "adays": 25182, "\u2581Setup": 27054, "\u542c": 30005, "\u2581brush": 16284, "\u2581Canad": 8544, "\u2581check": 1877, "mates": 15123, "\u2581recipe": 13405, "\u2581depress": 28285, "\u2581scientific": 10469, "\u2581\u043d\u0430\u0447\u0430": 11084, "\u3072": 31274, "CTOR": 20434, "\u2581delight": 11839, "\u2581hated": 16282, "\u2581r\u00e9": 3264, "Simple": 13256, "\u5386": 29868, "life": 10387, "\"\"": 2539, "\u2581Ott": 14982, "\u2581asks": 12373, "\u2581operator": 7906, "akt": 7302, "chaft": 6655, "\u2581classes": 6709, "\u2581Resources": 20114, "\u2581Silver": 14511, "ushes": 17625, "\u2581boom": 25157, "AR": 1087, "Pl": 2249, "\u2581Train": 27035, "\u5802": 30938, "\u2581u": 332, "General": 15348, "irling": 26692, "eze": 19961, "\u010e": 31461, "type": 1123, "\u2581lid": 16006, "owi": 24810, "\u2581Clark": 15006, "\u2581Orth": 25663, "q": 28775, "\u0e1d": 31620, "\u2581\u043f\u043e\u0441": 18678, "\u2581improvements": 19664, "\u2581ET": 27570, "\u2581as": 390, "\u2581plusieurs": 17071, "\u2581shelf": 22895, "\u0446\u044e": 23997, "\u7b7e": 29619, "\u2581Kas": 22965, "AUT": 11489, "\u044e\u0449\u0438": 10645, "Bank": 25022, "\u8ddd": 30369, "hing": 2299, "\u2581national": 4282, "\u2581esp": 7581, "\u2581identify": 9051, "\u2581alignment": 19492, "\u2581import": 726, "\u2581Wy": 13178, "EY": 17306, "\u2581flesh": 14063, "\uc6d0": 29816, "USER": 11123, "vention": 6254, "\u2581craft": 9949, "\u2581Sum": 6927, "\u2581li": 635, "ycle": 14302, "\u2581Pap": 16028, "\u2581suc": 9094, "\u0456\u0432": 2813, "\u2581slip": 13070, "\u2581June": 4212, "listen": 20246, "\u2581\u2581\u2581\u2581\u2581\u2581\u2581\u2581\u2581": 2600, "\u2581cher": 18707, "\u17a2": 31379, "\u2581Chel": 21996, "re": 267, "\u2581\",\"": 28685, "shell": 21678, "\u2557": 30628, "\u2581Fil": 4059, "nel": 8062, "\u2581\u043c\u0430": 3845, "\u2581\u00e9l": 10760, "\u2581soon": 3403, "URL": 5343, "\u2581belonging": 23921, "\u0434\u0430": 1225, "\u2581desc": 2283, "\u2581learn": 2822, "NULL": 5992, "\u2581Chap": 14381, "atto": 12676, "\u2581concern": 4368, "\u2581Germans": 18121, "<0xB7>": 186, "\u043d\u0433": 7521, "\u0e07": 29285, "\u2581reports": 7959, "PY": 11519, "\u2581blew": 21798, "connector": 23995, "\u2581warnings": 24052, "\u2581explained": 7955, "cow": 14450, "\u2581guid": 12412, "iek": 18627, "\u5316": 29192, "\u8bc1": 29425, "efined": 4761, "\u2581awarded": 14059, "email": 6604, "\u0e2b": 29601, "\u2581sat": 2495, "\u2581longer": 3774, "\u2581Quest": 11657, "ieri": 20048, "\u2581mus": 2009, "achers": 26120, "\u2581toward": 4112, "Folder": 14550, "\u2581support": 1760, "zia\u0142": 27320, "\u2581\u0441\u043c\u0435\u0440": 28271, "Ob": 1445, "\u2581Tennessee": 19793, "\u7c7b": 29066, "\u2581dance": 9773, "\u2581CHECK": 9128, "options": 3538, "source": 1394, "\u2581Bab": 15726, "\u2581initiated": 28086, "\u2581bere": 14325, "\u2581rate": 4338, "Failed": 9523, "\u00fd": 28889, "i\u00df": 21395, "\u2581GT": 19713, "oping": 22970, "\u2581stumbled": 27907, "\u2581tiene": 16262, "Dir": 6674, "\u6570\u636e": 21642, "\u2581Fuck": 19449, "\u2581sexual": 6965, "\u2581\u0443\u0447\u0435": 28472, "\u2581/": 732, "\u2581satisfied": 13671, "\u2581pil": 7586, "getType": 16053, "Constraint": 18017, "b": 28726, "\u8499": 31631, "\u2581\u043e\u0440": 8973, "bing": 7551, "ventions": 27319, "\u2581recent": 5391, "\u2581warranty": 12864, "\u2581locate": 22920, "izarre": 27770, "\u2581gesture": 19313, "NT": 8124, "\u2581gar": 5925, "alo": 8344, "\u2581person": 1338, "\u2581\u0440\u0435\u043a\u0438": 27935, "\u2581rum": 10203, "\u2581equity": 22851, "\u2581Old": 7470, "\u2581Ark": 17965, "\u2581\u043e\u0431\u0435": 26949, "\u7acb": 29831, "iale": 9712, "transfer": 19513, "\u0442\u0435\u043b": 12516, "\u2217": 31088, "pected": 3732, "\u2581book": 1820, "\u2581retriev": 17913, "asset": 17702, "\u2581Head": 9655, "\u2581believed": 7761, "\u0447\u0435\u0441\u043a\u0438\u0435": 24458, "\u6b4c": 30509, "itemize": 14287, "CLO": 22132, "\u2021": 30053, "\u2581\u0432\u043e\u0441": 26957, "\uae40": 30869, "CAST": 27196, "uj": 5872, "\u2581observer": 21854, "\u2581juillet": 18458, "\u2581grandes": 20892, "\u2581sha": 23671, "entries": 14849, "p": 28720, "Clear": 13012, "\u2581familiar": 8228, "\u2581operating": 10513, "\u2581des": 634, "\u2581architecture": 13811, "\u2581lawsuit": 28674, "\u2581\u0432\u0440\u0435": 8614, "\u2581Boys": 20344, "\ub978": 30879, "\u042a": 31045, "\u7d71": 31607, "uda": 9657, "\u5965": 31761, "seconds": 23457, "\u2581energies": 22972, "move": 7125, "\u2581Rel": 5855, "\u2581\u0428": 6606, "\u2581quote": 13658, "\u2581highway": 20127, "\u2581\u043f\u0440\u043e\u0444\u0435": 21818, "\u2581rushing": 27441, "$(": 13299, "\u2581nobody": 11684, "\u0431\u0443": 5512, "plies": 7631, "\u2581began": 3125, "\u2581alias": 18960, "\u2581locally": 17600, "\u2581issue": 4291, "kt": 2254, "\u5716": 30984, "Action": 3795, "jd": 28215, "\u4ec5": 30472, "OT": 2185, "diff": 11836, "peed": 6714, "\u2581clan": 25750, "\u2581Johnson": 9370, "\u2581sure": 1864, "\u2581information": 1871, "Cred": 15453, "\u2581Zen": 25153, "Mock": 8541, "\u10db": 29629, "\u2581may": 993, "tocol": 4851, "\u2581District": 8207, "\u2581ie": 21179, "crete": 7916, "rss": 27508, "\u2581minimize": 26518, "\u0441\u0442\u0440\u0438": 27342, "\u2581'</": 20182, "\u2581ARE": 20752, "Browser": 16008, "gray": 17645, "Oper": 3935, "\u2581corn": 16869, "\u2581rescue": 16011, "\u2581Dit": 24395, "\u043a\u0440\u044b": 16131, "\u2581Jes": 5215, "urls": 25110, "\ub0b4": 29911, "ome": 525, "\u0444\u043e": 21103, "\u2581deutscher": 16765, "Authentication": 19504, "branch": 19175, "\u2581DI": 12751, "h\u00f6r": 11730, "\u2581territory": 14293, "icle": 2660, "\u2581alc": 15207, "Connect": 16644, "\u2581Anyone": 21012, "intr": 20608, "\u2581nob": 7169, "++]": 21371, "toolbar": 23465, "\u2581Az": 7393, "\u2581bew": 20039, "\u7814": 30943, "\u6ca1": 29444, "\u2581\u2581\u2581\u2581\u2581\u2581\u2581\u2581\u2581\u2581\u2581": 17422, "\u2581\u043f\u043e\u043b\u0443\u0447\u0438": 18977, "ott": 1562, "\u2581strikes": 24128, "manuel": 27551, "ironment": 3333, "\u2581admin": 11173, "relative": 19814, "\u2581qualified": 14786, "\u272d": 31776, "otion": 5318, "\u0dbb": 31532, "\u2581Joy": 17780, "\u25c4": 29643, "tmp": 4964, "\u2581Franklin": 15181, "\u2581\u043f\u0440": 25431, "endif": 3597, "outh": 1881, "RP": 28543, "\u2581Stein": 18810, "\u2581labels": 12499, "\u4f5c": 29089, "umi": 12965, "error": 1958, "hci": 17208, "ification": 2500, "\u2581map": 3341, "\u2581attractive": 13999, "pleted": 14258, "\u2581bez": 18037, "omas": 23856, "\u0e32": 29103, "\u2581suggested": 8750, "\u0441\u043b\u0435": 5333, "\u5b63": 31740, "<0xF3>": 246, "LOAD": 10614, "\u2581see": 1032, "\u2581Security": 9769, "\u2581Guide": 14555, "\u2581buffer": 5496, "yrics": 19591, "Board": 25561, "\u2581Del": 5526, "\u2581talks": 15066, "\u2581t\u00e9": 20659, "\u2581collective": 17236, "\u2581Mar": 1471, "idad": 4526, "ek": 950, "\u043b\u044e": 4438, "\u2581Industry": 21268, "olutions": 5533, "called": 11565, "\u2581complement": 16696, "\u2581equal": 6530, "\u043d\u0430\u0440": 28019, "\u043b\u0438\u044f": 13124, "\u2581prot": 18696, "SERVER": 18299, "*.": 2414, "\u2581\u0420\u0438": 19752, "\u221e": 29725, "\u2581orb": 19935, "\u043d\u0438\u0446\u0438": 16370, "walt": 21459, "\u2581calculated": 13507, "ustain": 27301, "ample": 1662, "Events": 11208, "\u80b2": 31350, "\u2581further": 3629, "naissance": 24944, "\u2581Cart": 13870, "tery": 15527, "share": 16864, "\u691c": 30948, "\u0151": 28886, "\u2581SF": 21890, "\u2581overseas": 24102, "robe": 26151, "\u2581Que": 6018, "\u2581grat": 15177, "habil": 23005, "\u2581Freder": 15411, "pute": 8145, "cci\u00f3": 25357, "\u0637": 29330, "\u2581Working": 18847, "\u0446\u0443": 15357, "\u2581si\u00e8": 10878, "wallet": 23673, "\u827a": 31504, "anden": 17081, "\u2581algo": 25682, "UL": 1248, "environment": 21680, "\u2581expertise": 14900, "\uc900": 30723, "ivi": 19231, "\u2581dates": 12791, "\u2581\u044f\u043a": 15143, "ode": 573, "Load": 4391, "semble": 11820, "\u2581similar": 3684, "](": 5121, "ER": 725, "\u2581valley": 17682, "\u2581marzo": 15230, "ov": 626, "\u043a\u043e\u043c": 7830, "\u2581critical": 7276, "\u2581>>": 6122, "Graphics": 20634, "hir": 22590, "Bo": 6681, "\u2581hung": 7342, "\u2581f\u00f6": 14000, "bitro": 18829, "aters": 17244, "\u2581unconscious": 21580, "\u2581accus": 21786, "\u7d44": 31043, "arrow": 3362, "Hen": 26116, "je": 2099, "\u2581trial": 9070, "\u9675": 31593, "\u2581Atlantic": 16343, "\u2581exercises": 20858, "\ub4f1": 30390, "\u2581Sk": 3891, "\u2581Soon": 17232, "\u2581nah": 20330, "rice": 17566, "\u3053": 29543, "\u2581measurement": 15921, "\u2581fins": 22339, "oin": 2448, "Enc": 7570, "\u0440\u0430\u0432": 23081, "\u2581gallery": 18805, "\u2581Ran": 27193, "\u2581Circle": 25330, "\u2581Esp": 10576, "\u2581pand": 12140, "\u6d0b": 31434, "Step": 9977, "HasColumn": 17011, "\u2581#!": 20025, "\u2581abilities": 17866, "\u2581educ": 3600, "\u2581step": 3707, "\u2581prices": 8506, "\u2581rare": 9964, "\u2581EXPRESS": 27711, "\u6843": 31750, "tal": 16000, "Mo": 24603, "Overflow": 24181, "\u2581paste": 26043, "\u2581assume": 7146, "atio": 16639, "hh": 12653, "\u2581Miles": 25264, "\u3058": 30692, "\u6548": 29532, "echo": 10030, "\u2581Eliz": 10051, "\u2581menos": 22148, "dem": 8343, "rik": 8129, "\u2581much": 1188, "\u2581histor": 4264, "olf": 5209, "\u0446\u0438\u0458\u0435": 28401, "\u2581nei": 18986, "\u2581\u0434\u0432\u0438": 24410, "ult": 517, "udi": 11091, "aco": 11536, "\u2581feat": 12771, "\u0441\u043a\u043e\u0432": 20060, "\u2581Boolean": 17110, "\u044b": 28829, "hline": 9208, "\u2581spoke": 7310, "\u2581CSS": 17922, "\u30f3": 29044, "\u8349": 30995, "\u2581public": 798, "\u2581\u0427\u0435\u0440": 24552, "\u2581\u043e\u0434\u043d\u043e": 26751, "\u2581remark": 9174, "\u2581Opp": 22396, "Merge": 21793, "\u03cc": 29212, "\u2581expos": 10594, "\u2581sido": 15933, "\u2581citiz": 7963, "ammen": 13076, "nic": 6374, "\u2581Block": 9063, "\u8f7d": 29435, "\u2581Back": 6795, "temp": 7123, "\u2581[{": 21156, "\u2581dressed": 12452, "\u0398": 30394, "\u2581Gian": 27090, "Over": 2675, "\u2581Wr": 16258, "\u2581bland": 23494, "odio": 26301, "\u2581Colombia": 23938, "\u2581pay": 2136, "\u2581gathered": 13398, "yard": 10892, "\u0432\u0435\u0434\u0435": 14398, "MSM": 21430, "\u0432\u0430\u0442\u0438": 16234, "\u2581logged": 27036, "\u2581bytes": 7597, "\u2581VAL": 18780, "iple": 4191, "fa": 6024, "\u2581j": 461, "\u2581point": 1305, "\u2581Scre": 27273, "\u89c8": 30441, "\u2581Tambi\u00e9n": 26363, "\u2581forces": 6894, "\u2581poll": 8175, "\u2581parties": 8209, "Mad": 22762, "\u2581finns": 10961, "\u2581einer": 5984, "iveau": 22566, "dash": 24917, "xD": 18915, "\u2581Id": 6318, "<0x34>": 55, "\u2581toString": 26297, "Player": 7699, "\u5b88": 30992, "\u2581Floor": 23395, "\u2581immune": 20930, "\uc838": 30942, "\u2581successful": 6053, "rolog": 22068, "\u2581porte": 25509, "Constant": 11602, "errno": 17818, "\u2581flying": 11470, "\u2581\":": 20299, "shops": 21673, "Slice": 21202, "VER": 3491, "\u2581binding": 15662, "auge": 25793, "\u8fce": 31366, "town": 19669, "\u2581Sleep": 24027, "limits": 14347, "\u2581evac": 25469, "\u2581bc": 27547, "hui": 24281, "compare": 15715, "\u2581\u0441\u0442\u0430\u043b": 21355, "\u2581Along": 20211, "++){": 23385, "omena": 26504, "\"][\"": 24635, "\u2581\\{": 12541, "\u2581Ask": 19500, "\u53ca": 29965, "\u2581Clear": 16676, "\u2581LIMIT": 17871, "\u043b\u0435\u043c": 16669, "zeug": 19152, "\u4f1a": 29179, "\u2581slid": 18457, "\u00af": 29948, "\u2581initiatives": 25060, "\u2581wagon": 26098, "friend": 6542, "\u0459\u0443": 19743, "esh": 9366, "ppe": 24865, "\u2581agreement": 8704, "ureau": 11242, "\u2581who": 693, "\u2581typing": 24692, "\u2581programa": 25698, "Call": 3001, "\u2581Kar": 7775, "RX": 9847, "stick": 23277, "\u041a": 28852, "\u03c4": 28978, "\u2581ambit": 25297, "\u2581$(\\": 13049, "\u2581entering": 15435, "det": 4701, "\u2581compre": 10715, "tabs": 24856, "\u2581mog": 19841, "\u8bed": 29892, "\u2581technologies": 14880, "urations": 16963, "\u2581tour": 3884, "rist": 1853, "(\"<": 21784, "\u2581profits": 20285, "LowerCase": 19855, "\u2581color": 3181, "\u984c": 31054, "\u2581Nothing": 11081, "\u2581connected": 7391, "\u2581comune": 25845, "\u2581hoped": 12431, "extr": 24679, "\u6578": 30510, "\u0bc7": 31641, "Library": 17183, "\u2581wealthy": 20724, "protected": 11384, "\u2581gives": 5212, "\u2581salad": 25256, "\u301c": 31065, "Geplaatst": 15738, "\u2581F\u00fcr": 18034, "\u0178": 30322, "\u2581Item": 12795, "\u25b6": 30577, "\u2581Catal": 18959, "\u2581swung": 21701, "\u2581manually": 23060, "Creat": 14001, "\u2581wir": 25609, "\u2581liegt": 18610, "\u2581pass": 1455, "\u043b\u043e\u043a": 23135, "Store": 6229, "\u2581losing": 10121, "pel": 14605, "\u2581races": 16509, "\u2581PT": 22612, "\u30ce": 30561, "\u2581matrix": 7111, "\u2581begun": 13724, "Rules": 17315, "ures": 1238, "nell": 21925, "\u0442\u0430": 946, "\u2581Hug": 13287, "\u2581Pur": 13673, ".\"_": 26408, "\u2581grocery": 24811, "\ud83d\ude21": 31690, "finite": 12244, "\u2581arrog": 28327, "line": 1081, "\u2581sl": 1135, "dater": 28615, "\u6613": 29945, "independ": 26982, "\u2581ist": 3103, "\u2581\u043e\u0431\u043b\u0430": 8083, "\u2581spo": 14444, "\u2581estud": 17943, "\u2581violation": 22734, "<0xC8>": 203, "\u2581impression": 13700, "\u2581Region": 13365, "\u2581Wilhelm": 19328, "\u2581Welcome": 19417, "\"></": 5828, "\u044a\u043b": 11134, "]/": 22959, "\u2581produce": 7072, "BT": 12656, "utf": 13366, "machine": 19569, "\u2581satisfy": 15836, "\u2581vendors": 27852, "\u843d": 30874, "ahn": 8745, "\uac12": 29755, "\u2581Burg": 17646, "\u2581Dar": 8220, "\u2581Campaign": 27003, "psi": 5920, "\u2581Or": 1667, "\u2581awards": 17141, "\u2581action": 2992, "car": 6602, "\u2581Champion": 17229, "zenie": 24918, "\u2581zm": 19523, "\u2581short": 2485, "\u2581service": 2372, "\u2581died": 4847, "oning": 20392, "aises": 25515, "vent": 1071, "\u2581scene": 6337, "\u2581decis": 23286, "\u2581towards": 5083, ".\",": 9191, "\u2581\u0432\u0435": 6048, "\u2581nit": 22292, "\u00ba": 28936, "\u54e1": 30925, "\u012b": 29001, "eclipse": 14871, "VED": 27198, "Global": 8985, "\u2581toxic": 18882, "\u62a4": 30641, "istrzost": 25000, "\u2581saying": 3677, "\u2581Chelsea": 27106, "Sun": 28524, "\u5bdf": 31385, "\u79cb": 31467, "\u2581Av": 6505, "est": 374, "\u00fcss": 18394, "ask": 1152, "'\r": 27732, "\u2581assass": 16645, "service": 5134, "\u2581consecutive": 22162, "\u2581whose": 4636, "\u2581reminded": 14795, "Subject": 22210, "\u2581think": 1073, "asto": 26041, "ober": 2510, "kol": 16592, "Holder": 16560, "\u2581engines": 17048, "div": 1538, "\u2581\u0421\u0430": 9177, "path": 1740, "\u2581indu": 10420, "\u2581served": 6117, "\u0456": 28813, "\ud83d\udc96": 31912, "\u2581exper": 1469, "\u2581replaced": 8939, "\u2581benefits": 7196, "\u2581Similar": 24232, "\u2581bears": 25051, "curs": 14185, "\u2581Ren": 8734, "ain": 426, "FIELD": 13452, "\u2581existe": 26766, "\u2581~=": 28515, "\u2581november": 24107, "\u2581Corn": 12506, "setAttribute": 20675, "\u2581STE": 26178, "\u2581Sat": 10586, "\u2581lub": 20157, "\u2581Harvard": 17553, "\u2581Icon": 26269, "\u2581possibly": 8189, "\u2581goods": 11282, "\u2581collapse": 17347, "ookie": 10235, "\u2581Rain": 17774, "bear": 25114, "\u2581incor": 7376, "\u043b\u043b\u0430": 26593, "\u2581hon": 3243, "\u2581remarked": 28357, "alue": 672, "Case": 6160, "\u2581causing": 13098, "ussian": 12897, "]*": 16069, "\u2581neuro": 20342, "auc": 14158, "iller": 8878, "\u2581\u041b\u0430": 13813, "*:": 16550, "\u77ed": 30132, "arters": 10489, "\u0dc3": 31963, "<0x49>": 76, "tml": 7684, "\u2581magaz": 21262, "\u2581\u0441\u0443": 5652, "ent": 308, "\u2581\u043c\u043e": 4025, "\u2581Eins": 24055, "Pad": 17117, "\u2581sera": 26050, "\u2581preserve": 18018, "\u2581recruit": 20396, "\u2581limited": 6516, "InputStream": 16026, "\u2581:)": 15108, ")_{": 20431, "\u2581Palest": 13897, "\u0440\u0438\u043e": 15604, "\u2581addition": 4518, "\u2581edges": 11742, "\u2581fragment": 13693, "cca": 14698, "\u2581stocks": 21781, "\u2581extrem": 6215, "angers": 10568, "\u2581pursuit": 24809, "ining": 4038, "\u2581compon": 3867, "reate": 2730, "aron": 5214, "\u2581Berlin": 8430, "\u2581DJ": 18767, "\u2581Kel": 21564, "\u067e": 29483, "Post": 7272, "\u2581painter": 24372, "\u2581\u0412\u043b\u0430\u0434\u0438": 25823, "vor": 11766, "\u2581ap": 979, "\u2581\");": 14588, "\u0439\u043d": 19522, "\u2581Eisen": 20924, "indi": 24097, "gles": 16984, "\u2581Five": 15243, "gender": 24024, "annotations": 20378, "\u2581Vien": 21136, "sol": 22501, "irmingham": 24467, "\u2581Jones": 9383, "dag": 22997, "Contains": 17576, "\u2581blast": 23096, "ady": 4425, "\u2581ave": 14257, "inary": 3239, "ogan": 25575, "heck": 2543, "\u2581ceremon": 24840, "\u2581batter": 7994, "\ucd94": 30153, "by": 1403, "po": 2345, "\u2581\u043b\u0456": 15299, "\u2581Eli": 17177, "\u2581Abu": 24712, "\u2581Systems": 17259, "\u2581exped": 15575, "ette": 3186, "\u2581Ry": 15971, "\u2581establishing": 24491, "\u2581greater": 6517, "\u2581SER": 16123, "\u2581ihn": 19467, "mi": 3589, "\uce74": 30693, "\u2581Case": 12633, "hand": 2625, "\u2581exchange": 8877, "XFF": 19881, "\u2581cloth": 17673, "\u2581AA": 24724, "\u2581substitute": 23875, "\u2581companion": 19377, "\uac04": 30112, "\u4eae": 30631, "\u09a8": 29811, "ot": 322, "_*": 22291, "\u2581Birth": 23326, "\u2581sensation": 23413, "heast": 13784, "\u0259": 29108, "The": 1014, "\u2581\u0433\u043e\u0434\u0443": 5521, "\u2581beat": 8239, "hem": 6981, "\u0447\u0435": 1696, "\u2581citt": 17540, "IGH": 18145, "ieval": 19168, "\u2581Mitchell": 21072, "\u2581twice": 8660, "\u00b4": 29204, "\u4e03": 30733, "\u2581Lake": 8703, "After": 9169, "\u7576": 31332, "Metadata": 7348, "___": 8485, "\u2581decisions": 9549, "\u2581Map": 7662, "eed": 11196, "\u677e": 30617, "\u2581adapt": 8018, "\u2581router": 15736, "\u2581technique": 11108, "ationale": 28381, "\u043a\u0441\u0438": 12174, "\u2581pays": 12429, "icus": 20792, "\u2581sphere": 21517, "\u2581solid": 6861, "\u2581\u0442\u0435": 3882, "\u0160": 28966, "=\\": 2568, ".');": 27148, "hint": 23266, "total": 6828, "\u2581despu\u00e9s": 15757, "\u2581Library": 10812, "trfs": 26969, "uo": 27736, "ROM": 6224, "\u2581artikel": 8483, "\u2581variations": 19718, "\u2581seized": 24564, "leton": 9224, "\u2581defens": 26479, "\u2581Ak": 9532, "\u2581Her": 2584, "\u2581invest": 2631, "mult": 5409, "\u2581Nach": 7496, "\u2581Mary": 5480, "\u2581nominated": 27242, "\u2581woods": 16748, "akespe": 17274, "\u2581sip": 28581, "\u2581Bis": 23764, "\u09a1": 31388, "Shadow": 21318, "\u2581Promise": 10197, "inburgh": 24464, "\u2581separate": 7681, "react": 7131, "\u767c": 31046, "\u2581Fred": 11317, "\u2581durable": 26200, "\u2581Ok": 6504, "\u8fdb": 29258, "\u2581skin": 4759, "era": 2126, "\u2581Este": 20586, ">%": 24801, "save": 6568, "\u2581variation": 18423, "DMA": 17632, "\u2581seated": 24732, "\u2581socket": 13889, "\u0107": 28900, "usion": 3623, "Sources": 27105, "\u2581updates": 11756, "BR": 11145, "ento": 12673, "UEST": 12171, "Light": 12524, "apest": 20804, "\u2581nonetheless": 28214, "mont": 15026, "\u2581kil": 8302, "VL": 23537, "ski": 5253, "minded": 25117, "\u5230": 29036, "%%%%": 11032, "\u2581punct": 22195, "\u2581segundo": 22667, "ava": 1750, "tered": 8308, "hel": 2805, "\u2581desde": 11545, "logs": 25850, "Common": 12081, "\u043b\u0435\u0432": 28110, "\u0433": 28810, "\u0437\u0438": 3020, "\u2581otra": 26045, "Bound": 13100, "<0x05>": 8, "\u2581v": 363, "Runtime": 8408, "\u2581Reference": 22386, "\u2581Physical": 27134, "\u2581DE": 4562, "\u2581treatment": 5827, "aient": 16700, "shader": 27049, "\u627e": 29648, "\u0401": 30256, "\u2581institutional": 28211, "\u2581conv": 4221, "\u2581contributors": 26091, "PN": 12812, "\u2581PDF": 18520, "\u5f71": 30083, "med": 1591, "\u2581SSL": 20669, "\u2581fast": 4102, "<0x8E>": 145, "ment": 466, "CE": 2554, "\u0441\u043a\u043e\u043c": 9330, "ios": 2806, "\u2581vess": 13174, "\u2581cooked": 22067, "\u2581fastest": 25754, "Long": 7468, "\u2581Friedrich": 17277, "iteral": 9950, "ryption": 14071, "ABILITY": 9287, "uta": 11473, "\u2581fino": 22662, "\u2581Bahn": 25774, "\u2581\u043a\u043b\u0443": 17137, "psz": 28701, "lin": 2294, "\u2581Sym": 12356, "same": 21317, "dru": 27329, "\u2581#": 422, "acing": 4134, "\u2581strongest": 27686, "++": 1680, "Relative": 26423, "\u2581animals": 8222, "beans": 22672, "\u2581Apache": 8958, "green": 13234, "\u2510": 31175, "omp": 23947, "orney": 10899, "B": 28760, "%%%%%%%%": 18849, "\u10dd": 29627, "Alpha": 19510, "\u2581TYPE": 18143, "\u2581cer": 6942, "\u2581|": 342, "\u0441\u043a\u0443": 11249, "\u2581discussions": 18382, "\u2581increment": 19632, "Stat": 6181, "\u2581\u0441\u0435\u0440": 16822, "\u2581derni": 23551, "\u2581Armen": 23848, "\u2581trail": 8005, "rv": 9084, "isches": 23458, "\u2581body": 2187, "\u2581trailer": 21498, "<0x58>": 91, "\u2581utilis": 25090, "\u2581genom": 25567, "()).": 9079, "People": 21794, "month": 10976, "\u2581guessed": 26415, "aug": 11614, "\u2581Food": 11435, "\u2581slow": 3944, "\u5883": 30396, "eft": 18179, "ged": 2560, "Copyright": 20505, "\u2581conflicts": 24129, "\u2581It": 661, "\u2581efficiency": 12832, "/'": 25415, "inals": 15658, "uations": 22190, "\u2581strict": 8113, "segment": 19447, "oi": 3950, "ama": 2786, "cg": 17831, "\u2581Universe": 27131, "\u2581taken": 3214, "ishment": 12243, "\u2503": 30663, "bootstrap": 19453, "depend": 11569, "^^": 13958, "Univers": 14953, "\u904e": 30699, "apped": 3854, "plant": 18071, "\u2581spots": 16961, "\u2581curse": 27960, "xE": 9695, "\u2581canvas": 14499, "\u96c6": 29451, "eur": 7093, "\u0997": 31254, "\u7ecd": 31457, "\u2581traits": 24214, "\u2581summary": 14060, "(\"%": 6996, "\u2581integer": 11584, "lex": 1913, "cou": 20172, "\u2581inform": 5227, "\u2581Ter": 7163, "<>(": 27315, "\u2581hatte": 11427, "Transition": 21671, "\u2581ill": 3784, "\u2581costs": 6966, "erme": 26230, "\u2581ruin": 21878, "\u2581disappe": 8620, "\u0438\u0442": 28562, "romise": 6187, "|---": 24823, "\u2581budget": 8326, "open": 4124, "ARY": 10713, "\u2581deze": 16319, "ongs": 24487, "Media": 9426, "\u2581Phot": 12719, "\u2581arrangements": 20229, "\u2581striking": 19910, "\u2581keine": 22712, "\u1f08": 30966, "frame": 3413, "\u2581secolo": 24748, "\u2581computed": 16860, "\u2581classified": 22260, "\u2581Singles": 24922, "\u7ec3": 30947, "\u2581emotionally": 26358, "\u51c6": 30168, "etti": 15275, "\u2581subst": 11381, "\u2581delete": 6500, "\u2581presumably": 27932, "\u2581flower": 14994, "\u2581nearest": 17403, "ban": 3627, "\u2581soup": 18851, "\u2581our": 813, "\u2581chat": 10706, "Pi": 14240, "\u2581Zone": 20312, "\u0447\u0435\u0441\u043a\u0438\u0445": 20678, "\u2581determine": 7655, "\u2581legacy": 17424, "sum": 1801, "\u2581to": 298, "Page": 4068, "<0x26>": 41, "\u2581wanting": 12647, "\u2581Frauen": 28203, "Images": 25322, "hire": 20685, "Modules": 28377, "\u307b": 31529, "\u2581Ur": 11149, "\u2581\u0434\u0440\u0436\u0430": 25776, "inner": 3739, "\u043c\u0435\u0440\u0438\u043a\u0430\u043d": 16503, "\u2581\u0433\u043b\u0430\u0432": 21269, "\u2581organisation": 18077, "\u00f6k": 21201, "\u2581generations": 16806, "\u6bcf": 29513, "per": 487, "SV": 11607, "\u2581phrases": 27512, "<0xDA>": 221, "nor": 18651, "\u4e71": 31380, "osto": 10583, "jor": 9577, "\u2581Sup": 8931, "issues": 19474, "alias": 16469, "array": 2165, "\u2581Vall": 26997, "Stack": 6793, "\u2581spec": 1229, "\u2581Query": 16580, "\u039b": 30043, "\u2581iterator": 24119, "\u2581Por": 12401, "configure": 19425, "\u2581golf": 15485, "\u70ae": 31756, "\u5bfc": 29773, "\u2581Lesser": 19570, "\u2581majority": 7757, "\u00bb.": 5781, "\u2581\u0441\u0435\u0437\u043e": 21394, "\u2581games": 3897, "\u2581hosts": 19666, "ioc": 22038, "\u2581registers": 23826, ">\".": 19593, "\u2581rm": 24614, "\u2581Plant": 18044, "allow": 5618, "\u2581compass": 16444, "\u2581dla": 22056, "\u0434\u0443": 2454, "iv": 449, "ockey": 12277, "kappa": 8754, "enced": 4697, "othes": 6317, "\u0c35": 31976, "\u2581There": 1387, "\u2581trem": 11248, "define": 3380, "\u2581shout": 11428, "With": 2946, "\u2581vars": 27981, "\u2581enforce": 13707, "usive": 6657, "\u2581fortune": 19808, "\u021b": 28905, "\u00e4hr": 15072, "\u02c6": 31447, ")</": 10900, "NEW": 19917, "ends": 2827, "\u2581lou": 20280, "\u2581criteria": 15117, "\u2581meas": 5849, "\u2581provinc": 12605, "ypes": 4453, "\u2581official": 5189, "acji": 13586, "\u2581\\|": 14688, "Virtual": 14884, "\u2581acceptable": 18636, "\u2581breeze": 24284, "\u0436": 28836, "\u2581NS": 12043, "\u2581autonom": 25009, "\r": 28801, "\u2581cos": 6841, "\u2581jaar": 22714, "\u2581occas": 11383, "\u2581m\u00e9t": 21065, "\u91cf": 29195, "\u2581Jane": 10805, "PT": 6316, "wei": 25257, "\u2581convex": 26970, "\u0e14": 29488, "ton": 1158, "ingham": 15419, "\u2581entirely": 8134, "\u0441\u043a\u043e\u0435": 12988, "pci": 18929, "<0xF0>": 243, "\u2581sow": 28689, "cr": 3810, "\u2581Cooper": 17247, "\u2581Vic": 17862, "\u2581great": 1598, "Separator": 28143, "\u2581\u0446\u0435\u043d\u0442": 12968, "\uac1c": 29893, "\u2581celui": 20948, "run": 3220, "command": 6123, "\u0433\u0434\u0430": 13872, "\u2581reluct": 19238, "blob": 17678, "\u2581filing": 28617, "\u2581bottles": 20353, "ondon": 3801, "\u2581\u0442\u043e\u0433\u043e": 18150, "\u2581list": 1274, "riven": 21694, "\u2581utilizing": 28464, "\u05d4": 29047, "\u2581vel": 6592, "\u2581county": 12952, "inski": 27387, "\u0017": 30841, "\u2581tonight": 11402, "\u2581beh": 1833, "al": 282, "\u2581mur": 4834, "\u2581capabilities": 16585, "\u0441\u0442\u0430\u0432": 6126, "scape": 8951, "ueva": 22400, "\u6808": 30980, "gie": 10955, "\u2581unit": 5028, "Even": 20520, "\u010f": 29365, "\u2581seg": 3979, "\u2581Kirk": 21746, "\u2581klikken": 15708, "effective": 23562, "\u2581rack": 24942, "\u2581nose": 9948, "iable": 6109, "\u2581ghost": 12975, "dataset": 18200, "Dev": 4991, "\ud50c": 31286, "\u2581Ent": 6662, "makers": 22016, "imper": 27689, "\u2581tres": 14009, "ingen": 10814, "\u2581\u043e\u0441": 6171, "\u2581noch": 11039, "hole": 20265, "\u0283": 29807, "ancer": 9754, "\u2581quasi": 19339, "\u2581\u043d\u0435\u0433\u043e": 22510, "gen": 2383, "\u2581Player": 13684, "\u2581http": 3550, "\u2581hol": 5636, "\u2581obvious": 5444, "\u2581symbols": 16212, "exists": 10600, "\u2581plot": 9242, "errors": 9705, "\u2581officials": 10755, "\u5eab": 31605, "just": 4022, "\u2581break": 1721, "ntax": 9656, "lings": 15073, "etary": 23101, "usher": 9905, "assemb": 15351, "\u2581additionally": 26457, "rets": 18716, "\u2581Sever": 12120, "Radius": 19284, "\u2581\u041b\u0438": 11946, "\u2581wo": 14277, "powered": 28435, "\u0110": 29260, "\u300d": 29577, "ivery": 7198, "igned": 1731, "outer": 6753, "\u88e1": 31875, "NEXT": 14026, "map": 2022, "=\"../../": 9765, "\\+": 11100, "\u2581Alb": 18344, "\u6c92": 30931, "cs": 3141, "\u2581wed": 6887, "clip": 8031, "Curve": 27777, "Your": 11159, "utter": 10112, "iza": 13360, "\u2581encouraging": 21885, "Center": 15917, "environ": 24825, "\u2581\u0441\u043b\u043e": 25255, "phabet": 26311, "\u30d9": 30277, "v": 28728, "\u2581\u0432\u0435\u043a\u0430": 25960, "\u2581happily": 24693, "\u2581ml": 16120, "\u64ad": 30018, "\u2581steady": 14889, "\u2581:": 714, "-----": 13918, "'][": 24948, "\u2581supplement": 12982, "\u2581toler": 13393, "\u2581\u043c\u0430\u0439": 24827, "alled": 17987, "\u2581Position": 17361, "\u2581\u043e\u0440\u0433\u0430\u043d\u0438": 18876, "\u2581ending": 12826, "\u2581investing": 22445, "itu": 6454, "\u2581XVIII": 23984, "oded": 6546, "\u2581\u0441\u0442\u0430\u043d\u043e\u0432\u0438": 21206, "teil": 14084, "ifact": 17634, "\u8a71": 31145, "\u2581fram": 23426, "\u00e9ny": 19600, "Microsoft": 10052, "\u02bf": 29343, "bin": 5721, "\u2581controversy": 27959, "\u2581Try": 11442, "\u2581\u043f\u043e\u0441\u0435": 16162, "Rend": 21544, "itionally": 14586, "Priv": 22548, "\u2581Gor": 23320, "\ub7a8": 31965, "\u2581operation": 5225, "Bl": 4919, "\u2581corruption": 21363, "es": 274, "wc": 20894, "Adjust": 23442, "reno": 24968, "\u0650": 29421, "\u845b": 31147, "\u6a19": 30530, "\ud2b9": 31684, "\u2581fresh": 6138, "\u2581confirm": 8735, "\u2581filter": 5531, "icator": 17573, "\u5faa": 30484, "izontal": 9727, "\u2581wage": 21062, "\u2581withdraw": 14393, "jection": 7183, "\u2581shoulder": 7793, "\u00e9k": 9640, "aro": 10281, "\u2581cheaper": 20326, "\u5251": 31945, "\u2581persu": 14861, "\u2581\u0431\u0440\u0438": 23145, "werken": 14639, "reation": 14318, "\u2581Tall": 24901, "\u2581fifteen": 13956, "\u0442\u0443\u0440\u0430": 15337, "\u4e07": 30568, "\u2581rom": 5423, "\u2581meets": 18487, "\u2581beds": 21137, "Ord": 22788, "\u0441\u0441\u0438": 6993, "\u00e9ben": 23825, "unts": 25985, "\u2581FO": 18417, "uring": 1378, "<0xB4>": 183, "ynchron": 14938, "\u2581dummy": 24084, "\u2581parseInt": 26125, "\u0442\u0438\u0438": 28430, "++++": 17501, "\u2581wool": 25943, "isted": 7134, "\u5b50": 29169, "\u00edt": 4071, "\u2581Val": 3474, "\u3059": 29126, "sz": 5027, "\u6708": 29376, "\u043d\u043e\u044e": 19130, "pace": 2644, "ndef": 15680, "\u2581under": 916, "\u2581points": 3569, "prote": 8716, "\u2581Northern": 12781, "\u0454\u0442\u044c\u0441\u044f": 13137, "iod": 2563, "\u2581Dark": 12361, "\u2581tant": 16110, "\u2581adapter": 19865, "surface": 20942, "xfe": 23505, "\u2581SW": 13322, ")\\\\": 23527, "\u6298": 31201, "inction": 15012, "\u2581Phone": 19520, "Variant": 21414, "\u5ea6": 29184, "\u2581slipped": 15841, "\u2581d\u00e9cembre": 19344, "\u2581ben": 2798, "ific": 921, "thread": 6101, "\u2581modification": 19574, "wood": 4871, "\u2581Appe": 24876, "\u2581femme": 25040, "aler": 16351, "\u2581hungry": 17160, "oct": 22008, "\u2581calculation": 18011, "\u2581bench": 11984, "enza": 11409, "\u2581cust": 18542, "ugs": 19882, "uration": 2394, "Functions": 23072, "\u2581rub": 7294, "hpp": 20567, "\u2581hierarchy": 25846, "\u2581copyright": 9934, "lyph": 18516, "\u2581impl": 5475, "\u2581Els": 20619, "arly": 1617, "\ud83e\udd37": 29905, "\u2581Fun": 6785, "mals": 26449, "\u044a\u043d": 26561, "\u2581community": 3618, "\u2581spl": 8154, "erk": 6751, "\u2581Ka": 16121, "\u2581Council": 7457, "\u0e38": 29903, "Column": 4115, "\u2581pres": 1258, "\u0441\u0442\u0443": 6777, "\u2581solutions": 7151, "\u2581deriv": 12314, "Tensor": 15705, "owo": 15097, "\u2581strategies": 12108, "\u2581walking": 7312, "\u2581Bir": 21562, "\u2581ins": 1488, "\u2581cross": 3893, "apt": 1459, "\u2581entities": 19810, "\u00e8s": 3781, "metadata": 9609, "\u043f\u044b": 13802, "iliar": 7036, "ringe": 22659, "\u2581Geme": 11250, "\ubc1c": 30482, "\u2122": 29014, "\u2581educational": 14165, "\uc8fc": 29557, "\u2581com": 432, "\u2581Study": 18463, "\u2581React": 8171, "isi": 10867, "shirt": 21122, "indow": 1511, "rai": 27097, "\u2581Francis": 6617, "\u2581SEC": 26760, "aff": 2146, "\u2581Game": 8279, "\u2581default": 2369, "Hard": 23226, "\u2581Shir": 25959, "\u2581Made": 16970, "\u2581penis": 23735, "fig": 885, "\u2581suite": 10978, "\u2581Pitt": 17491, "\u2581wen": 21672, "mys": 14576, "\u2581config": 2703, "ara": 2923, "ist": 392, "\u2581\u043e\u043a\u043e\u043d": 27383, "self": 944, "\u2581num": 2075, "ATTR": 10096, "\u2581part": 744, "\u2581musician": 26458, "\u2581Rou": 17257, "\u2581Chron": 23967, "fem": 26857, "\u2581cor": 1275, "\")));": 28290, "\u2581generally": 6741, "\u0441\u043b\u0443": 16467, "\u2581Too": 16601, "\uc544": 29536, "\u0928": 29540, "+\"": 12762, "\u6781": 31260, "ifacts": 24639, "j\u0105": 12004, "eller": 5371, "\u2581sets": 6491, "\u2581Madrid": 14334, "\u5c0f": 29138, "uno": 12581, "\uc720": 30127, "ilde": 7894, "\u0c02": 31548, "\u00b8": 30433, "CF": 7065, "GB": 6903, "unge": 21614, "cdots": 11797, "\u2581falling": 10931, "\u2581affects": 20777, "\u2581guarantee": 12587, "\u2581crypto": 21066, "\u2581upstairs": 21855, "\u2581Oktober": 17721, "c\u00e9": 22034, "\u56e2": 30756, "\u2581Sant": 5095, "\u2581Les": 4573, "\u2581Vol": 5400, "\u103a": 30247, "\u2581clothes": 8155, "\u2581hypothesis": 23592, "related": 9646, "orse": 14202, "rb": 9312, "\u2581Dy": 25685, "='": 2731, "Env": 8967, "\u2581Lag": 20997, "\u2581dated": 21847, "isk": 2606, "wards": 2686, "Copy": 8546, "\u2581whereas": 14349, "\u2581Weight": 19785, "TO": 3957, "\u2581n\u00e4": 22992, "hal": 6019, "\u2581spoken": 14382, "\u2581Muhammad": 25605, "third": 16507, "\u2581Georg": 7505, "\u04e9": 30340, "Messages": 16556, "\u2581stare": 19696, "estra": 19825, "\u2581sophisticated": 23213, "\u2581movement": 6249, "Criteria": 20719, "\u2581BAS": 11502, "\uacbd": 29653, "\u2581Czech": 19857, "t\u00f3": 9709, "\u2581Update": 8980, "ale": 883, "\u2581MAX": 11651, "\u2581slim": 24530, "\u0435\u0440\u0435\u0434": 23876, "ylv": 10685, "oh": 1371, "\u043d\u043e\u0432\u0438": 12129, "iley": 13891, "iesz": 17944, "\u017ce": 10564, "\u2581leaning": 21208, "\u2581gev": 27070, "allas": 14531, "\u2581blow": 9716, "Variable": 10516, "\u2581recall": 8596, "\u2581\u0441\u044b": 22395, "\u2581transm": 27179, "gfx": 27604, "\u2581longitud": 28629, "\u2581prec": 4467, "\u63a5": 29076, "\u2581automated": 27761, "\u2581Ham": 5058, "\u2581comply": 27439, "Combo": 25141, "\u2581mothers": 21574, "nika": 19996, "\u2581bride": 25248, "\u0431\u0440\u0438": 20940, "\u2581pent": 15094, "\u043d\u0435\u0433\u043e": 27575, "props": 7329, "\u2581\u0414\u043e": 9193, "\u2581Portug": 11211, "\u2581bring": 2968, "\u2581buyers": 21872, "\u2581interests": 10299, "\u2581triangle": 24411,
[...]
