{"tikz": 24733, "\u2581Pand": 25570, "EDIT": 28263, "\u2581journal": 7792, "\u2581Limited": 20405, "\u2581prayers": 27510, "\u2581compt": 28589, "\u00fcr": 3123, "\u2581syntax": 25995, "tw": 8075, "VP": 19014, "ont": 1445, "\ufffd": 29905, "scribed": 28444, "\u2581difficulty": 15194, "\u2581RET": 29388, "\u2581ids": 26982, "workers": 29024, "\u2581highest": 8649, "\u0b9f": 31019, "\u2581paste": 26811, "mod": 2166, "\u2581peint": 28288, "FS": 7702, "\u2581Beautiful": 27315, "\u732b": 32432, "}_": 3195, "rpc": 20158, "\u2581Spirit": 14284, "\u2581constr": 8898, "Require": 23743, "\u2581dabei": 29163, "\u0169": 31330, "CLK": 15479, "\u5e72": 31669, "itta": 25493, "Raw": 12590, "\u2581bro": 2633, "\u2581\u0431\u044b\u043b\u043e": 14694, "\u2581scared": 15309, "rate": 6804, "icates": 24628, "\u043d\u043e\u0441\u0442\u0438": 9617, "\u0142o": 10077, "\u2581encoding": 16855, "\u2581Ryan": 13962, "\u2581ferm": 18078, "\u2581destin": 26559, "resolve": 13323, "ativo": 21705, "<0xBC>": 959, "msm": 15057, "Insert": 14619, "\u2581mathemat": 17640, "\u043a\u043e\u043d\u043e": 21679, "\u2581trat": 18494, "\u2581b": 1055, "RESS": 16413, "\u0440\u044f\u0434": 19322, "agnostics": 14895, ")_": 14848, "\u2581esp": 8349, "\u89e6": 30705, "\u2581latter": 10595, "im": 1089, "rypt": 5277, "\u2581\u00e9t\u00e9": 7934, "anna": 8859, "did": 19336, "\u2581nurs": 14565, "\u00e8de": 25040, "Paul": 23009, "\u2581Campaign": 27771, "\u2581fle": 7510, "<0x36>": 825, "\u2581locally": 18368, "\u1780": 30976, "\u2581veget": 10803, "\u2581track": 4276, "\u0431\u0430": 5588, "\u2581route": 7871, "]->": 12147, "orse": 14970, "\u2581stiff": 17284, "${": 4764, "\u2581decision": 5929, "\u2581glob": 16505, "iff": 3496, "\u2581pr": 1492, "\u2581withdraw": 15161, "her": 1431, "\u2581thous": 5771, "#{": 17543, "\u2581plt": 18536, "gc": 19267, "\u2581Eli": 17945, "\u2581\u0441\u0442\u0430\u043d\u043e\u0432\u043d\u0438\u043a\u0430": 19467, "\u897f": 30401, "\u5c3d": 32198, "\u2581pregn": 10902, "etics": 24910, "unque": 15501, "ust": 1237, "[control_544]": 546, "pcm": 21378, "\u2581Tom": 5428, "attice": 16771, "\u2581imper": 10846, "\u2581seat": 8046, "nab": 8331, "\u2581Nut": 22929, "\u2581foram": 23852, "\u2581spett": 28449, "style": 4607, "\u0cb0": 31816, "\u2581solve": 12817, "\u2581author": 3995, "\u0432\u0440\u043e": 13800, "\u2581upon": 4482, "\u2581];": 12658, "DISABLE": 22695, "\u2581Woods": 29396, "\u2581feature": 5248, "eles": 6947, "\u2581smell": 11784, "\u2581graph": 6014, "\u2581quer": 24799, "geon": 15303, "\u2581glass": 6020, "\u2581meetings": 14019, "icing": 9833, "call": 3613, "Apply": 22365, "\u2581HAVE": 23537, "\u0449\u0443": 24672, "\u2581miser": 22940, "\u043f\u043e\u0437\u0438": 25094, "\u9078": 30813, "\u2581($": 3948, "\u2581nicht": 6995, "\u2581contre": 14559, "mi": 4357, "ained": 2506, "\u2581camb": 16468, "Stage": 21551, "\uc801": 30919, "\u2581sever": 3193, "\u2581weapon": 12148, "\u8272": 30163, "\u2581positive": 6046, "iona": 18415, "])": 3571, "Anal": 12552, "\u2581toxic": 19650, "vision": 10592, "compat": 14865, "\u2581retirement": 16696, "\u2581window": 3692, "\u2581float": 5700, "lee": 13321, "\u2581enabled": 10419, "\u2581Legisl": 26984, "\u2581ecosystem": 28142, "\u2581reporters": 26643, "\u2581\u0435": 3153, "\u0441\u043d\u043e": 13929, "heart": 15522, "\u0442\u0438\u043d": 15749, "\u2581throwing": 16600, "\u2581LLC": 20169, "news": 15058, "\u2581mercy": 26624, "\u2b50": 30898, "TD": 22107, "pled": 10435, "\u2581kann": 16325, "\u1e0d": 31119, "icol": 8944, "\u2581symmet": 10771, "pow": 16393, "\u2581eating": 9420, "\u904e": 31467, "\u0631": 29715, "ographie": 13030, "messages": 16935, "\u2581\u043d\u0430\u0441\u0435": 8367, "eclipse": 15639, "\u2581Nicholas": 23444, "private": 4772, "amen": 10287, "\u2581consultant": 29227, "')": 2249, "\u2581Bang": 14029, "<0xDA>": 989, "otive": 29306, "pr": 1551, "\u00ec": 29711, "\u2581gle": 13891, "\u2581tourist": 24022, "\u2581jedoch": 16922, "romag": 27572, "[control_656]": 658, "arios": 11809, "\u2581practition": 25757, "dim": 6217, "\u2581CA": 10229, "bullet": 18897, "\u2581zoom": 22721, "\u2581Published": 23605, "\u12e8": 32505, "\u2581Cath": 9514, "\u2581ich": 16132, "odd": 27394, "\ub54c": 30946, "\u2581warriors": 27278, "ature": 2141, "\u00e9v": 9275, "ucket": 11959, "\u2581Mens": 21330, "\u2581Define": 28118, "MT": 8101, "\u2581unm": 23694, "\u2581DO": 10085, "\u2299": 31437, "system": 7342, "fi": 8739, "\u2581directly": 5858, "\u2581Marina": 28694, "isf": 5049, "iah": 15243, "\u2581Era": 24669, "borough": 23824, "mos": 7954, "\u2581Mai": 15081, "\u2581Puerto": 23317, "\u2581mud": 14227, "\u2581Language": 16357, "rs": 5354, "\u2581goog": 26439, "\u2581\u041c\u0456": 27035, "SS": 2151, "emb": 21371, "\u2581belonged": 23000, "\ucde8": 32493, ")\",": 11415, "tick": 18523, "pson": 13121, "\u2581keyword": 24015, "\u2581chrom": 25216, "acles": 15163, "ployed": 29014, "[control_655]": 657, "\u2581(\u00ab": 21558, "require": 7119, "\u2581zero": 6897, "aj\u0105": 12920, "\u5747": 31405, "prof": 18980, "\u2581Craw": 28348, "\u626b": 31765, "\u2581Hal": 11030, "\u0437\u0438": 3788, "\u2581shorts": 28133, "We": 3092, "\u2581anterior": 25217, "ava": 2518, "inda": 16992, "\u2581Io": 26213, "cept": 2126, "\u2581Soon": 18000, "\u2581cref": 15567, "ened": 2874, "\u2581took": 2824, "\u03a9": 30914, "MAG": 17039, "\u2581exposure": 16136, "\u2581drunk": 13499, "\u2020": 29700, "oad": 2859, "\u0428": 29678, "alled": 18755, "<0x10>": 787, "six": 21178, "\u0092": 29836, "\u2581natur": 11356, "\u2581configuration": 8195, "itional": 3350, "\u00a4": 31213, "\u2581quart": 14838, "gest": 5879, "\u2581ko": 10708, "\u2581bulk": 15827, "\u2581parties": 8977, "\u2581intermediate": 23370, "avi": 17869, "pectives": 27627, "plication": 3227, "data": 1824, "\u00e9ri": 9677, "Range": 7057, "ILITY": 8869, "pw": 27440, "\u2581priorities": 28999, "\u767b": 30278, "\u2581Mac": 6093, "NORMAL": 28267, "\u2581\u2581\u2581\u2581\u2581\u2581\u2581\u2581\u2581\u2581\u2581": 18190, "\u2581Universit\u00e4t": 25058, "<0x31>": 820, "\ud83d\ude1b": 32522, "\u2581Play": 7647, "Pr": 4161, "\u2581Turn": 9174, "\u2581park": 5658, "ea": 11830, "\u2581capital": 6333, "\u2581interactive": 23737, "\u2116": 29754, "\u2581gay": 12765, "\u2581campus": 15134, "\u5219": 30078, "\u2581wolf": 24868, "\u2581courage": 16044, "[control_277]": 279, "eln": 12996, "\u2581pract": 3612, "\u25a1": 31386, "\u2581British": 5177, "INE": 6240, "He": 3196, "r\u00f3": 15986, "\u2581Release": 20632, "\u2581lp": 20724, "ioc": 22806, "\u2581Grab": 24692, "\u2581Dead": 15060, "\u2581accidentally": 28398, "\u2581structure": 5461, "],": 1949, "\u2581builder": 10114, "\u2581Either": 20319, "\u2581Harrison": 24091, "]['": 14369, "\u2581militar": 26958, "\u2581\u043d\u0438\u0445": 25839, "\u2581rather": 3978, "\u2581skulle": 23861, "\u2581Az": 8161, "Timer": 13364, "BS": 9108, "\u2581characters": 6896, "\u2581hel": 1940, "\u2581yoga": 22383, "CH": 3073, "Utils": 6664, "eti": 27602, "\u2581Elle": 10569, "\u2581interior": 11922, "chant": 12514, "\u2581md": 13126, "\u2581nem": 11534, "recated": 27144, "<0x7D>": 896, "\u2581unpre": 27409, "(_": 5599, "\u955c": 32323, "LC": 9930, "\u2581d\u00e9c": 9506, "\u2581eyeb": 18427, "\u0bbe": 31187, "sets": 7359, "actual": 15909, "fl": 1902, "\u2581learned": 6764, "\u2581\u00e9tait": 11327, "\u2581ER": 22114, "isten": 14634, "a\u0142": 4630, "\u2581fluct": 20131, "ya": 5925, "idad": 5294, "\"];": 21420, "\u2581casting": 25436, "\u2581cause": 5012, "\u2581study": 4649, "ruct": 1634, "Metric": 22211, "\u2581ham": 11986, "His": 22628, "\u2581Runtime": 14814, "igenous": 20932, "\u2581special": 3609, "\u2581somewhere": 9390, "\u2581gaming": 18535, "ierto": 27948, "zahl": 28251, "person": 10469, "\u0432\u044b\u0445": 17801, "\u2581pel\u00edcula": 28386, "agation": 29187, "\u2581lengths": 26226, "Missing": 23415, "\u2581Lyn": 16743, "\u2581Aires": 25305, "buffer": 5028, "EVENT": 11953, "\uff09": 29953, "\u2581adults": 12879, "wn": 1648, "neg": 13183, "}": 29520, "\u2581stretch": 15510, "\u6e90": 30280, "defined": 12266, "[control_735]": 737, "iam": 3411, "\u0447\u043d\u043e\u0433\u043e": 20725, "\u2581Roth": 23902, "\u0cb5": 32570, "\u2581forehead": 19290, "\u043a\u0456": 7299, "cap": 5764, "\u2581clause": 24762, "\u2581Emp": 10924, "\u2581bo": 2127, "\u2581promises": 21394, "INPUT": 21077, "\u2581Barb": 25991, "\u2581alternatives": 25292, "\u2581t": 1029, "Active": 8819, "\u2581expl": 2717, "Supported": 20074, "argo": 9241, "\u09c0": 32174, "\u043f\u0438\u0441\u0430": 13867, "[control_523]": 525, "\u2581YOUR": 24328, "\u2581Ul": 12831, "\u2581Utah": 24440, "\u2581towns": 18347, "\u2581PHP": 20962, "aient": 17468, "\u2581Oktober": 18489, "Rad": 10539, "\u2581Hannah": 24892, "aga": 9650, "\u0103r": 25471, "\u2581method": 2806, "\u2581enters": 27801, "ply": 3811, "atis": 27477, "[control_696]": 698, "\u2581nep": 23566, "jud": 14810, "commun": 16744, "\u2581ci": 8134, "Ready": 19586, "mma": 20402, "esota": 17999, "heap": 23705, "[control_343]": 345, "sh": 1579, "}}_": 15108, "\u2581tun": 15781, "ificates": 24343, "\u2581Generate": 26843, "__)": 16382, "authorized": 27414, "[control_247]": 249, "////////////////": 5940, "\u65f6": 29775, "\u8f7b": 32525, "sz": 5795, "\u2581Intent": 24635, "\u2581Hell": 16012, ":%": 8978, "existing": 24817, "theme": 13447, "\u2581citizen": 21410, "\u2581instruction": 13894, "\u5883": 31164, "U": 29547, "\u2581Philippines": 22705, "\u0407": 30647, "\u7565": 30991, "\u2581athletes": 24171, "\u2581chips": 22736, "[control_624]": 626, "reload": 27374, "uber": 18507, "\u2581Ms": 17638, "\u2581stepped": 10361, "\u0218": 30112, "\u2581trip": 7364, "\u2581bone": 14824, "Chart": 20043, "\u2581propri": 26449, "\u2581Review": 9117, "gray": 18413, "rios": 19499, "\u0111": 29745, "\u2581corps": 16982, "\u2581cure": 23225, "rol": 2206, "uzione": 20987, "\u2581pentru": 20261, "ogan": 26343, "\u2581read": 1988, "\u2581Jes": 5983, "\u2581Fly": 20817, "\u30eb": 29950, "ufact": 6026, "\u2581lavor": 22553, "\u2581Florida": 10268, "\u2581ult": 8247, "\u2581SH": 9372, "\u2581Vi": 11772, "theta": 5048, "\u2581Februar": 22109, "\u2581tablet": 25064, "\u2581exagger": 26713, "\u2581\u00een": 6322, "\u2581Brazil": 14018, "modified": 25891, "\u2581images": 6971, "\uc5d0": 29916, "enschapp": 16045, "east": 25062, "Threshold": 27204, "\u2581d\u00e9but": 20461, "Axis": 17040, "\u2581Gy": 18843, "\u2581conflict": 11086, "\uc9f8": 31771, "\u2581flame": 24338, "\u2581k\u00f6z": 14039, "agram": 7574, "\u56e0": 30425, "\ub354": 31287, "\u2581Creative": 24394, "\u53d8": 30157, "\u2581realization": 28333, "pis": 10223, "\u6750": 32007, "ides": 2694, "\u2581material": 4156, "\u2581arrangement": 20473, "\u043d\u044b": 2231, "Inner": 19454, "\u2581soit": 19256, "INGS": 27327, "itting": 4025, "fre": 20343, "anter": 28281, "Subject": 22978, "\u2581wonder": 4151, "\u2581\u0434\u043b\u044f": 7054, "Impl": 7172, "nek": 12361, "\u2581M\u00fcn": 18076, "\u2581anymore": 9997, "owed": 11320, "[control_466]": 468, "[REFERENCE_DOC_16]": 754, "gr": 1588, "VL": 24305, "\u2581\u0440\u0435": 3940, "\u2581f\u00e5": 29448, "\u2581Beck": 17364, "isValid": 29158, "\u2581Et": 14310, "ful": 1775, "\u2581zip": 18723, "\u2581manager": 7824, "[control_701]": 703, "\ub529": 32604, "CURRENT": 27149, "\u2581midst": 25933, "by": 2171, "\u2581seeing": 7020, "\u2581barg": 22845, "\u661f": 30718, "\u2581compon": 4635, "\u2581accurate": 11997, "\u2581Users": 26545, "\u2581cups": 20414, "ceiver": 16005, "\u2581States": 4311, "flag": 8682, "\u2581degli": 14578, "\u2581writing": 4421, "\u2581psychological": 19603, "\u0446\u0438\u0458\u0435": 29169, "\u898f": 32101, "\u2581neces": 24869, "[control_722]": 724, "\u2581violent": 15411, "ICS": 24962, "\u2581Entry": 24024, "ica": 2054, "permission": 25422, "\u5609": 32137, "internal": 7815, "\u0448\u0435\u043d\u0438\u044f": 26680, "->": 1239, "\u2581setup": 10288, "\u00b6": 30430, "sis": 16180, "TL": 12289, "\u2581WHERE": 16571, "\u2581cond": 2844, "\u2581television": 9343, "\u2581Friends": 23139, "\u5fdc": 32682, "\u2581Alan": 16212, "\u2581median": 17593, "\u2581Rav": 27805, "\u2581baby": 6750, "\u2581EC": 22173, "\u2581threshold": 14821, "\u671f": 30043, "\u2581Liv": 23889, "\u2581thumb": 16530, "ickets": 26423, "\u2581intr": 8445, "enen": 12992, "\u2581Wilhelm": 20096, "\u2581whites": 20487, "inks": 21291, "\u2581pin": 10318, "inburgh": 25232, "\u2581Made": 17738, "Unis": 19292, "\u2581dates": 13559, "\u2581(\u2020": 19911, "Pres": 19935, "\u2581Brook": 12916, "\u2581collective": 18004, "counter": 13288, "[control_706]": 708, "\u2581necessary": 5660, "\u2581mort": 6229, "\u2581\"$": 8453, "\u2581AP": 11270, "'=>": 14954, "\u2581Ris": 25822, "CHANGE": 27773, "\u2581crops": 27920, "\u7f72": 32108, "\u6069": 32634, "\u2581politician": 18355, "\u2581gau": 11612, "\u2581want": 1715, "\u2581destroying": 29381, "\u2581\u042d": 9179, "apy": 9032, "BIN": 28344, "Mount": 21737, "\u2581Indonesia": 25218, "\u5339": 31058, "\ud65c": 32041, "elihood": 19306, "\u2581formally": 26259, "\u2581encourage": 13597, "\u2581\"../../": 21815, "ight": 1222, "\u2581becoming": 8656, "\",\"": 6756, "\u2581inch": 17781, "\u2581exc": 3591, "\u2581\u043c\u0430\u0440": 14195, "middle": 26460, "\u043f\u043e": 2669, "\u2581ur": 5041, "\u2581Star": 8151, "\u0442\u043e\u043d": 22115, "[control_538]": 540, "\u2581gebru": 24025, "\u2581participants": 13618, "gress": 3504, ">::": 14372, "\u2581Advis": 29228, "notations": 20022, "azi": 20365, "\u2581ruined": 25919, "\u2581\u0410": 2950, "\u2581Crit": 17541, "\u0642": 29883, "\u2581Madison": 21271, "\u0411": 29629, "----------------": 1945, "\u2581Fac": 14692, "\u2581simply": 4536, "\u2581dropped": 8447, "ientras": 19624, "Properties": 7277, "\u2581purposes": 11468, "\u2581could": 1597, "\u2581Insurance": 18931, "Previous": 29052, "\u2581Co": 3860, "arel": 24872, "\u3072": 32042, "\u2581Args": 25765, "[control_699]": 701, "\u021a": 30517, "\u2581pseud": 23555, "Pay": 10370, "\u2581listened": 15880, "Channel": 8534, "Border": 15711, "\u2581seller": 27592, "\u2581g\u00e9n": 11747, "\u2581Garden": 16643, "naissance": 25712, "\u2581Address": 13814, "insula": 27923, "\u043a\u0443": 2969, "\u2581Pel": 18810, "\u5bbf": 32321, "codegen": 21454, "\u2581Easy": 19713, "\u043f\u0443": 5641, "\u2581communication": 9288, "\u2581founder": 19059, "','": 6846, "\u2581walks": 17598, "\u2581values": 3837, "-": 29501, "\u2581Internal": 19707, "\u2581two": 1757, "\u2581imposed": 25507, "MX": 27302, "\u2581menu": 9282, "Chain": 15930, "\u2581Li": 12237, "iii": 20515, "atte": 24822, "\u2581click": 6814, "age": 1233, "uart": 16267, "akte": 23264, "\u067e": 30251, "\u22c5": 30788, "\u2581tarde": 25330, "\u1eef": 31354, "=": 29514, "dzie": 24581, "\u2581softly": 19113, "\u2581Application": 13250, "\u2581Dru": 18567, "\u2581content": 3804, "kehr": 19945, "\u2581Hence": 13246, "\u2581\u0438\u044e": 14905, "\u2581entrepre": 16569, "\u2581Cape": 19585, "\u2581Specific": 24286, "Enum": 10526, "\u2581jamais": 28820, "F": 29533, "\u0c32": 32616, "\u2581Roma": 18014, "\u542c": 30773, "platz": 24359, "nem": 23658, "\u2581editing": 20385, "\u2581Dopo": 28938, "schaft": 7865, "new": 1863, "Files": 11396, "rupal": 15798, "\u2581Process": 11473, "\u2581CNN": 27424, "\u4ea4": 30239, "\u2581el": 1407, "\u2581clar": 16834, "\u2581Photo": 17323, "Transport": 20804, "\u00e9ta": 26313, "\u2581\u0430\u043d\u0433": 22407, "\u2581Vic": 18630, "ell": 1247, "cp": 5511, "ly": 1114, "$": 29544, "chrome": 21769, "\u2581Mount": 8380, "eled": 20459, "\u2581Ford": 12869, "\u0441\u043d\u044f": 27661, "\u2581colle": 11908, "\u2581inherit": 23260, "ament": 2454, "\u2581trucks": 23756, "ACE": 6884, "gie": 11723, "azy": 14246, "\u0442\u0440\u0430": 10513, "STRUCT": 25778, "\u2581Cover": 17649, "\u2581Commission": 10006, "\u043b\u044f\u0440": 22788, "token": 6031, "Dis": 4046, "\u2581myst": 12715, "Middleware": 27053, "\u2581Franklin": 15949, "\u10d5": 30598, "named": 19329, "\u2581institution": 17622, "\u2581basis": 7219, "Scheme": 23939, "\u2581statistical": 22024, "\u2581war": 2264, "\u00f6k": 21969, "thal": 22129, "\u2581pot": 3281, "\u2581pist": 16802, "sol": 23269, "wei": 26025, "\u2581greatest": 10700, "\u2581road": 4646, "\u4e95": 31497, "\u2581chair": 6993, "\u2581resistance": 13336, "\u2581torn": 10158, "\u2581Ice": 20355, "\u2581Abraham": 23152, "\u2581cuatro": 28197, "\u2581letter": 6266, "AH": 21821, "\u2581operating": 11281, "\u2581earliest": 22632, "Listeners": 29291, "Organ": 22598, "[control_21]": 23, "\u2581Kate": 15744, "isi\u00f3n": 14154, "\u2581Ez": 24731, "[control_455]": 457, "\u2581\"#": 12209, "\u2581\u00ab": 2277, "\u2581\u041c\u0435": 9517, "\u2581Western": 9075, "\u2581\u00a9": 19443, "section": 3775, "\u2581\u0432\u043e\u0439\u043d\u044b": 25419, "\u2581generation": 9110, "FREE": 28905, "Login": 13379, "[control_320]": 322, "\u0448\u043a\u0438": 24626, "[control_703]": 705, "../": 2747, "\u2581practice": 6013, "ses": 6833, "\u2581qualified": 15554, "article": 16229, "\u0430\u043d\u0434": 14203, "ossip": 25402, "ste": 3221, "nia": 7000, "APP": 17132, "ridge": 9931, "\u2581Bobby": 21275, "\u57fa": 30459, "\u0432\u0435\u0434": 20951, "\u6740": 31936, "\u2581Main": 8873, "\u904b": 32472, "\u2581within": 3141, "\u2581Trust": 13917, "\u2581cooper": 19236, "aye": 24963, "\u0e39": 30744, "\u2581headquarters": 19252, "\u2581confront": 13541, "\u2581ta": 14991, "\u2581Pr": 2689, "\u2581saw": 3440, "\u666f": 30728, "vere": 11656, "\u0430\u043b\u044c": 8835, "\u2581straightforward": 21129, "\u2581refer": 4063, "\u2581beginning": 6166, "\u2581should": 1791, "\u0440\u043e": 1496, "[control_252]": 254, "\u2581thermal": 19734, "\u0434\u0438\u043d\u0430": 17196, "CONTROL": 23594, "ctrl": 8790, "Future": 17915, "\u2581granted": 13063, "\u2581atr": 22625, "\u2581extrem": 6983, "ierte": 9680, "\u2581brave": 23025, "\u2581wholes": 26679, "\uc158": 31225, "\u2581pob": 10260, "\u25aa": 31469, "rets": 19484, "anda": 6672, "::<": 23783, "\u2581other": 1567, "(!": 7237, "f\u00f6r": 15402, "Music": 25546, "\u2581travel": 5298, "\u2581advert": 8759, "\u00c0": 29732, "\u2581mayor": 12239, "blo": 15958, "[control_411]": 413, "\u2581pen": 5737, "\u2581Ev": 6508, "[control_371]": 373, "\u2581\u00c9": 5694, "\u2581breast": 14654, "uffer": 3144, "\u2581developer": 22550, "\u200e": 29975, "FLO": 20840, "\u043a\u043e": 1470, "\u2581v\u00e1l": 20660, "\u3061": 30941, "\u2581Sad": 17518, "\u0e47": 31265, "\u2581upset": 14033, "\u2581clay": 27046, "ott": 2330, "\u27a4": 32463, "\u2581proceedings": 28864, "CEPT": 20719, "\u2581overs": 14543, "\u2581Viv": 24617, "dist": 11063, "\u2581Bened": 24159, "\u2581ad": 1384, "\u00c8": 29797, "\f": 30451, "ool": 1564, "cache": 6087, "\u2581cig": 12363, "\u2581Ay": 17929, "\u2581HR": 22432, "\u2581password": 8676, "\u2581sedan": 27620, "\u2581surface": 6207, "\u2581h\u00e1": 22944, "inas": 15089, "VC": 18600, "\u2581Fran\u00e7ois": 22744, "\u2581declar": 18995, "xC": 9843, "\u00e9p": 14669, "\u2581innocent": 18058, "[control_177]": 179, "adu": 28850, "\u2581army": 8605, "\u2581Finland": 19954, "\u011bl": 28215, "[control_95]": 97, "\u2581socks": 28755, "ando": 3335, "EC": 9387, "\u2581\u0441\u0442\u043e": 11980, "igent": 22299, "\u0432\u043d\u044f": 16166, "\"+": 14346, "\u0440\u0456\u0432": 19709, "\u2581paus": 12760, "[control_366]": 368, "\u2581dan": 12323, "\u2581incor": 8144, "\u2581striking": 20678, "wr": 7835, "\u2581Phill": 17851, "\u2581cal": 3068, "bil": 27470, "inder": 5820, "\u76ae": 32047, "\u5b87": 32497, "cc": 1356, "\u2581exhaust": 12212, "});": 4266, "\u1f76": 31260, "\u2581Gil": 13184, "\u2581as\u00ed": 19005, "factor": 19128, "ogether": 12321, "HERE": 12492, "\u2581sj": 18649, "\u2581highlights": 23857, "\u591a": 30060, "Fail": 11501, "zeta": 11538, "de": 1218, "[control_490]": 492, "\u043a\u0440\u0438": 17840, "hon": 21901, "MASK": 10713, "\u1f10": 31182, "\u2581Many": 6793, "\u2581Scar": 23915, "\u2581\u043a\u0443": 10765, "\u2581dispos": 13529, "\u2581alpha": 16695, "ml": 2421, "airs": 4147, "\u2581requested": 12707, "nf": 24412, "\u2581Shadow": 25642, "ilda": 28602, "[REFERENCE_DOC_18]": 752, "kap": 27506, "\u20b1": 32303, "\u2581Philosoph": 22924, "<0xC0>": 963, "\u2581acceler": 13825, "\u2581Free": 5996, "ecycle": 23600, "prints": 26348, "idd": 3326, "\u2581provoc": 28017, "FIG": 7158, "\u5b57": 29799, "\u2581bon": 8712, "\u2581biologie": 17917, "MON": 18117, "[control_610]": 612, "\u2581hyp": 8946, "\u2581seq": 18175, "edish": 21881, "\u043d\u0430\u044f": 6843, "\u2581Punk": 25181, "entities": 27412, "\u2581tand": 28399, "ENSE": 8360, "\u2581Cot": 25793, "\u2581lawsuit": 29442, "init": 2551, "\u2581febrero": 28674, "\u0282": 31496, "OK": 5671, "\u2581simultaneously": 18902, "Tile": 20147, "stell": 12415, "beck": 24466, "\u1796": 31964, "\u2581Sant": 5863, "\u2581blo": 4217, "bad": 12204, "\u2581Norweg": 25835, "\u10dc": 30469, "versions": 26917, "\u2581Temple": 16867, "[control_285]": 287, "stant": 5542, "\u0446\u0456\u044f": 18031, "\u9f50": 32092, "[control_659]": 661, "\u2581ebenfalls": 28604, "\u2581characterized": 23868, "\u2581din": 7534, "arator": 23581, "verted": 19460, "Par": 4684, "Os": 24315, "\u2581:)": 15876, "\u2581msm": 16441, "\u1ed3": 31009, "\u2581\u0447\u0435\u0440\u0435\u0437": 20853, "\u2581unem": 21723, "idity": 22313, "led": 1774, "\u2581link": 3830, "master": 10316, "<0x35>": 824, "istant": 11911, "\u2581restrict": 9104, "ohn": 2721, "\u2581voting": 17803, "cached": 22848, "\uc5ec": 30595, "[control_430]": 432, "UT": 2533, "\u2581payment": 9618, "\u043f\u0438": 3517, "\u2581Dy": 26453, "\u2581kam": 15667, "\u2581far": 2850, "lector": 4951, "\u2581STE": 26946, "\u2581leverage": 29152, "\uc9d1": 31824, "known": 5485, "\u5272": 31873, "xic": 15211, "\u2581development": 4867, "\u2581Menu": 20383, "\u2581Info": 20558, "\u2581preserv": 16944, "LANG": 22250, "fact": 23081, "\u2581sch": 2311, "removeClass": 23473, "osex": 18545, "\uaca9": 31878, "\u2581belong": 7615, "\u2581initial": 4510, "\u2581Abs": 13477, "\u2581sout": 18233, "\u2581SM": 14980, "except": 20371, "\u2581secure": 9528, "wor": 23261, "\u2581week": 2587, "ugin": 5478, "\u05b9": 31368, "NotFound": 15031, "\u1ecf": 32001, "\u2581Const": 8559, "\u2581()": 3828, "Settings": 6314, "\u2581municipal": 16307, "kv": 24314, "Time": 2866, "\u2581adoles": 24756, "[control_121]": 123, "\u30ec": 30259, "\u2581Indiana": 20433, "\u2581IO": 9563, "\u2581Cass": 14135, "\u062b": 30736, "\u2581Jan": 3765, "\u8d5b": 32049, "\u2581mat": 2378, "<0xA8>": 939, "\u2581occasions": 19091, "\u2581\u041d\u0430\u0441\u0435\u043b\u0435\u043d\u0438\u0435": 25857, "Bits": 15489, "\u2581alert": 11745, "\u179a": 30763, "[control_250]": 252, "equals": 7781, "(\\": 2133, "dit": 9692, "\u2581deter": 19979, "\u2581included": 5426, "\u65e9": 31889, "ough": 1668, "\u2581american": 22187, "MAGES": 25209, "[control_80]": 82, "Ns": 27560, "\u2581Ste": 3117, "gomery": 28095, "\u2581colour": 12242, "geme": 19000, "lc": 24996, "ra": 1288, "\u2581Bart": 15371, "\u2581Zur": 26339, "\u2581Maria": 9634, "\u2581waar": 15763, "\u2581certificate": 16511, "\u2581lav": 22949, "\u2581confess": 27688, "Strings": 25335, "hp": 19402, "ificate": 8821, "hest": 7194, "\u2581Newton": 21049, "\u515a": 32330, "\u2581desk": 10199, "\u2581fucking": 8482, "\u2581volt": 10689, "ately": 2767, "MF": 25489, "\u011b": 29639, "\u6e56": 31248, "\u2581Line": 9895, "\u2581Because": 6286, "\u5e10": 32558, "\u2581flow": 5467, "ruppe": 18487, "\u2581abilities": 18634, "\u2581\u0447\u0430\u0441\u0442\u044c": 27366, "\u2581overwhelmed": 28954, "andid": 4993, "alin": 18875, "\u2581Ye": 23470, "\u94a5": 31480, "\u2581##": 1299, "\u5bc4": 32545, "\u2581estim": 6778, "\u2581Maur": 15496, "\u10ec": 31705, "\u2581Leader": 26912, "\u0e1d": 32388, "\u2581legend": 13619, "\u2581ch": 1252, "})$": 10108, "\u2581networking": 27548, "\u0152": 30272, "[control_210]": 212, "eden": 12013, "anas": 17751, "tty": 3771, "\u2581Tre": 10253, "\u043d\u043d\u044f": 15472, "regular": 18302, "\u2581(+": 29135, "\u099a": 32299, "OR": 1785, "\u2581;": 3521, "\u2581Effect": 17550, "\u2581selfish": 26974, "\u2581defining": 23397, "CLO": 22900, "\u60e0": 31687, "join": 6674, "Introduction": 27998, "svg": 15012, "ventory": 17685, "[control_481]": 483, "\u2581bott": 8486, "\u2581Queens": 20457, "\u2581zich": 20285, "\u2581offic": 3539, "Delay": 18048, "\u2581matrices": 22280, "\u2581sponsored": 29100, "\u2581fr\u00fc": 27965, "\u2581Medicine": 19061, "urt": 4293, "\u2581Sche": 11910, "\u2581retr": 18663, "\u2581ski": 22684, "![": 26299, "\u2581RF": 27831, "imento": 10669, "vod": 21934, "\u2581Haz": 24758, "handler": 9530, "\u2581Describe": 28752, "\u2581\u0421\u0430": 9945, "\u2581conduct": 9854, "[control_425]": 427, "\u2581cheek": 11631, "'\r": 28500, "Database": 10674, "\u2581bis": 5273, "RC": 7628, "pic": 8446, "\u2581conse": 15956, "\u592e": 32537, "Dec": 6807, "\u2581Vor": 12743, "\u2581Mak": 20814, "support": 7426, "Collections": 10979, "\u2581Williams": 11374, "\u2581bytes": 8365, "\u2581disappeared": 15514, "\u2581relate": 22274, "\u2581navig": 28323, "utton": 26796, "estly": 19835, "lem": 3701, "\u2581numerical": 18893, "\u2581sight": 8507, "Mag": 15517, "iba": 27133, "sim": 5178, "\u73ed": 31573, "\u2581bg": 21007, "\u2581Buck": 17345, "oi": 4718, "ichi": 23385, "incl": 2273, "Alloc": 14840, "rix": 3676, "\u2581dictionary": 20211, "\u5834": 30784, "\u2581officials": 11523, "\u2581witness": 9917, "\u2581defend": 12522, "\u2581fif": 6679, "\u2581Mean": 12504, "lap": 16346, "\u2581pictures": 9078, "\u2581lanz": 27450, "\u2581\u0411\u043e": 9504, "asa": 14705, "\u2581rude": 27473, "Es": 20049, "\u05b6": 31548, "\ud0dd": 31210, "}),": 7762, "\u2581twe": 10162, "ake": 1389, "[control_605]": 607, "\u2581hard": 2624, "itung": 25190, "\u2581Beg": 26340, "\u2581contacted": 29098, ".\u2019": 19294, "\u2581sto": 22419, "\u2581Component": 14672, "\u2581intense": 15141, "[control_24]": 26, ".$": 6678, "\u2581appearing": 20479, "++){": 24153, "Compiler": 18539, "chain": 9900, "memset": 22021, "creat": 17114, "LEVEL": 18992, "\u2581como": 3886, "\u2581Mrs": 7875, "otype": 22243, "\u2581nationale": 23064, "\u2581Therefore": 9237, "\u2581welfare": 22375, "ghan": 14764, "\u2581sizeof": 5387, "\u2581valor": 24434, "Registry": 12262, "\u2581Poll": 19884, "\u0447\u0451": 27165, "\u2581Pattern": 27340, "cq": 27777, "\u8d23": 32145, "\u17c1": 32164, "\u2581cares": 23106, "\u0279": 32699, "\u30e0": 30576, "Syntax": 20297, "\u8d27": 30995, "Pair": 14832, "onne": 19072, "\u2581Erik": 26135, "\u2581pronounced": 29000, "\u2581translated": 19772, "\u2581anch": 25491, "iversary": 18018, "\u0441\u043b\u043e": 13077, "\u61c9": 32276, "\u2581inte": 3881, "EY": 18074, "\u2581AUTH": 26038, "normal": 8795, "\u2581Wood": 8778, "\uc911": 30795, "\u2581hex": 20471, "obby": 12319, "\u2581Coast": 14108, "resume": 24934, "\u2581cow": 12840, "osity": 25647, "\u2581Sweden": 20420, "\u2581italien": 28477, "\u2581surpr": 4949, "cule": 28737, "\u2581theatre": 19403, "Month": 16373, "sterdam": 19696, "\u2581statements": 13676, "PI": 3878, "Names": 6454, "\u2581\u0408": 23660, "\u795e": 30604, "\u89e3": 30154, "\u2581animal": 9295, "screen": 9323, "task": 6321, "\u2581Iraq": 13395, "\u2581productivity": 25272, "rist": 2621, "\u2581comments": 8384, "namespace": 14915, "imm": 9413, "aran": 23522, "\u2581consequence": 18023, "\u2581invited": 13081, "Most": 21696, "\u2581poker": 26114, "att": 1829, "\u2581OPT": 29174, "\u2581census": 22022, "\u2581\u2581\u2581\u2581\u2581\u2581\u2581\u2581\u2581\u2581\u2581\u2581\u2581\u2581\u2581\u2581": 1127, "Car": 12567, "\u2581element": 3210, "\u2581either": 3245, "oton": 21761, "\u2581\u043a\u0430": 3558, "\u2581apps": 14189, "\u2581percentage": 14590, "')->": 19132, "Generic": 9883, "\u0441\u043a\u0443": 12017, "\ucc38": 32227, "\u2581run": 2250, "\u2581forgotten": 14420, "\u2581behav": 5337, "sap": 29456, "',\r": 11046, "iej": 7018, "\u043b\u043e": 1888, "AND": 5976, "\u2581times": 3189, "eqn": 5798, "\u2581vol": 2976, "\u2581Often": 25408, "\u2581\u041b\u0435": 13340, "\u2581IMP": 16115, "\u2581competitors": 25387, "concat": 17549, "Te": 9714, "\u2581\u0412\u0430": 11446, "spir": 14847, "Handle": 6796, "\u2581derivative": 26123, "\ud83d\ude44": 31091, "\u2581mint": 21280, "fn": 6410, "Spe": 25580, "\u2581layout": 10634, "search": 3128, "mals": 27217, "Throw": 17287, "Co": 7938, "\u2581couch": 19370, "\u2581Products": 21829, "j\u0119": 17666, "ployment": 9897, "(__": 8465, "\u57ce": 30495, "\u2581drew": 12315, "\u2581von": 2576, "[control_27]": 29, "\u2581Column": 20440, "density": 27521, "\u2581class": 1643, "\ubc1b": 31373, "\u043d\u0438\u044e": 13069, "\u2581science": 7459, "contains": 11075, "\u2581Welt": 14311, "strong": 10617, "\u2581dedic": 22578, "\u2581$$\\": 20884, "\u2581proport": 13455, "\u0433\u043b\u0430": 13697, "EqualTo": 25448, "\u0254": 30178, "\u2581Tool": 13645, "\u2581importance": 10313, "\u2581ere": 16467, "\u2581reads": 17104, "\u2581craft": 10717, "\u0e38": 30671, "\u2581COPYRIGHT": 24261, "validate": 12824, "\u2581\u0447\u0435\u043c\u043f\u0438\u043e\u043d\u0430": 24998, "settings": 7233, "Ph": 4098, "RG": 18582, "\u2581shit": 6260, "\u9280": 32658, "\u2581s": 1036, "\u5230": 29804, "\u2581copy": 3850, "\u2581width": 5618, "dog": 18461, "itionally": 15354, "\u2581asset": 14226, "ov\u00e9": 20976, "\u2581gradually": 18653, "\u2581teacher": 9394, "\u2581...": 4618, "rest": 4058, "Thread": 7005, "\u2581aimed": 18707, "[control_259]": 261, "\u2581teams": 7709, "\u2581indust": 4114, "xFE": 20369, "sty": 23726, "\u2581divisions": 24636, "\\%": 11625, "\u2581Used": 18245, "\u2581farming": 25977, "ote": 2358, "\u2581places": 6331, "\u2581Decl": 19834, "\u2581\"<": 7415, "\u2581capture": 12087, "\u2581uniqu": 21756, "\u2581concept": 6703, "\u2581quoted": 20083, "\u00ae": 29742, "oport": 28685, "\u0432\u0430\u0440": 16437, "Stack": 7561, "YY": 17423, "\u2581slip": 13838, "\u81f4": 30944, "jango": 12681, "\u2581brush": 17052, "ustr": 5705, "\u2581assumed": 11780, "\u2581tube": 18503, "scene": 19338, "<0xF2>": 1013, "\u00df": 29648, "\u2581devil": 23921, "\u2581tribe": 26083, "global": 6283, "\u043d\u0430\u043d": 20845, "orders": 11254, "Other": 16449, "\u2581\u043d\u0435\u0433\u043e": 23278, "EMPTY": 28906, "\u2581grounds": 16738, "\u274c": 31968, "\u2581Cole": 15896, "fica": 18411, "Vector": 6930, "\u2581married": 7136, "\u2581uncomfort": 17053, "\u2581funding": 12899, "\u2581einen": 8665, "\u2581terminal": 18366, "\u2581Mediterr": 24379, "\u2581changed": 5416, "\u0419": 29764, "\u89aa": 32429, "urm": 25331, "\u2581Symbol": 20543, "ishop": 12787, "\u2581requires": 7716, "\u2581days": 2970, "course": 12755, "\u2581becomes": 7523, "\u2581vs": 8477, "though": 3896, "\u2581sad": 8224, "\u2581Edd": 16533, "\u2581matching": 12391, "\u2581God": 3267, "note": 9606, "eless": 6967, "\u2581Bent": 22862, "\u2581evac": 26237, "\u2581imagin": 27439, "\u6e2c": 32708, "OFF": 10538, "scr": 11194, "\u2581post": 2472, "onical": 16334, "NS": 7784, "ental": 8308, "\u2581presidential": 20036, "\u606f": 29837, "query": 4153, "\u0434\u044b": 8158, "rw": 20509, "\u0437\u043e\u043c": 20127, "\u2581miem": 27652, "\u2581less": 2876, "[control_613]": 615, "\u2581acts": 12668, "isArray": 28768, "\u2581no": 1476, "\u2581lou": 21048, "[control_495]": 497, "zero": 9749, "\u2581beat": 9007, "\u2581Plan": 9884, "\u2581prior": 5449, "\u2581monitoring": 17650, "\u2581cash": 8645, "hbox": 22240, "\u2581located": 6419, "\u2581\u0439": 22860, "\u2581Barbara": 18100, "\u62a5": 30613, "SESSION": 16141, "alone": 25947, "\u2581chick": 26192, "\u2581defe": 9232, "\u2581derni": 24319, "\u0dbb": 32300, "\u2581Match": 15895, "\u5bcc": 31785, "Refresh": 21971, "\ubd84": 30985, "isons": 16917, "layout": 8398, "\u2581brings": 11932, "\u2581pr\u00e9c": 19076, "\u2581FUN": 29086, "\u2581pict": 4583, "\u2581compete": 19343, "\u7af9": 32483, "\u2581ambitious": 28981, "\u2581permet": 15400, "\u2581exec": 20394, "Bi": 28173, "\u2581custody": 28871, "ames": 1913, "CC": 4788, "\u0ba9": 31572, "widehat": 12664, "\u2581laundry": 26675, "Prototype": 25964, "endif": 4365, "\u2581evangel": 25044, "\u091a": 31439, "[control_176]": 178, "\u2581municip": 9384, "querySelector": 18006, "\u2581Martha": 25692, "\u2581rede": 28271, "\u967d": 32122, "Hal": 27692, "ilation": 11981, "\u2581escort": 26282, "\u2581constantly": 11644, "ruption": 13760, "ically": 2712, "[control_140]": 142, "\u2581sous": 10654, "ienia": 25585, "\u30bb": 30700, "\u2581Nord": 9170, "\u2581Hook": 26922, "\u2581\"": 1113, "\u2581cet": 25836, "\u2581Form": 5617, "\u2581Authors": 23856, "\u0096": 30404, "\u2581addresses": 15269, "\u2581analog": 17236, "Lite": 25469, "\u2581techn": 3180, "atting": 15526, "getAttribute": 21064, "arsi": 22246, "\u2581pam": 27130, "\u2581marked": 11495, "you": 7788, "[control_726]": 728, "Serv": 12297, "domain": 9460, "\u2581convey": 19655, "\u2581Francia": 20620, "\u2581identity": 8976, "n\u00edm": 21806, "anes": 9550, "\u2581extension": 8991, "\u2581chief": 9977, "[control_394]": 396, "\u2581Valent": 18871, "\u2581addressed": 17483, "\u2581'<": 10416, "WAY": 27316, "\u0647": 29772, "}^{(": 13793, "vt": 14797, "PDF": 29252, "<0xA3>": 934, "serialize": 19472, "\u2581ports": 21916, "\u2581unos": 27942, "\u2581Bren": 28962, "\u2581candidates": 12947, "\u2581migrations": 27820, "\u2581poll": 8943, "\u2581survey": 11679, "Operator": 14351, "\u0432\u0430\u0442": 15191, "\u2581convince": 19719, "\u2581fant": 8167, "hab": 9005, "\u2581beach": 11073, "\u2581Cultural": 25742, "\u5b98": 31407, "\u2581Conserv": 12968, "ROOT": 20813, "\u2581\u0420\u043e\u0441\u0441\u0438": 14093, "\u00e4hlt": 26177, "\u2581Alice": 14771, "\u2581\u017c": 25347, ".": 29491, "\u01eb": 32550, "ici\u00f3n": 11678, "netje": 16385, "\u2581metall": 22041, "Us": 6263, "\u2581execute": 12851, "\u2581touchdown": 28634, "\u2581serv": 2036, "\u2581react": 13803, "ido": 3518, "\u2581sucked": 29204, "\u2581protective": 25930, "\u2581simultane": 15878, "ants": 2317, "\u2581due": 3708, "dataset": 18968, "\u2581Welcome": 20185, "={{": 14807, "\u2581Buffer": 22263, "({\\": 12360, "\u00e9t\u00e9": 13097, "====": 1733, "TOM": 28275, "\u2581lived": 7030, "Proxy": 12718, "\u6bb5": 30158, "\u2581sites": 8131, "\u2581Radio": 12806, "itory": 5328, "\u2581legal": 6416, "\u2581curious": 14671, "ger": 1865, "\u2581\u0430\u043d": 24474, "\u043b\u043e\u0436\u0435": 29257, "eh": 10837, "\u00f6r": 2792, "\u2581dozens": 22314, "\u0440\u0430\u044f": 27255, "\u2581Image": 10601, "[control_353]": 355, "\u2581novembre": 13951, ")',": 21503, "market": 16362, "ONG": 11730, "\u0bc7": 32409, "urls": 25878, "naio": 25769, "\u2581memory": 5501, "GENER": 26778, ":\\": 10709, "\u2581character": 4001, "\u2581updated": 9225, "\u0087": 30692, "\u2581faded": 24484, "\u2581slowed": 29404, "as": 1061, "\u2581demanding": 22195, "\u2581episodes": 17910, "\u2581Cab": 12125, "people": 22489, "\uc5f4": 31011, "\u2581jealous": 21944, "\u043d\u043e\u043a": 21911, "\u2581rights": 5263, "\u2581rx": 22219, "zel": 11079, "\u9879": 30309, "\u2581Nor": 5721, "parse": 5839, "<0x90>": 915, "\u0c15": 32753, "\u2581\u0441\u0435\u0440": 17590, "\u2581files": 6141, "\u2581Java": 12407, "Real": 13763, "ples": 3583, "\u2581Pont": 20513, "irlines": 22969, "Millis": 26874, "\u0e2b": 30369, "texttt": 19974, "\uc5d4": 32589, "\u2581caller": 19082, "\u2581duck": 27871, "\u00fc": 29605, "\u2581dust": 9956, "unsigned": 5215, "abile": 29341, "\u00e9al": 29013, "\u2581mainstream": 23967, "\u2581consists": 13103, "\u2581standard": 5555, "ometry": 9057, "\u2581broad": 6609, "\u2581ac": 1951, "\u2581Carib": 25980, "\u2764": 30441, "uts": 6493, "\u2581muscles": 16690, "\u2581hace": 29097, "unlikely": 22724, "jsp": 24327, "\u62f7": 32618, "\u2581attending": 20503, "\u2581likewise": 25731, "\u5386": 30636, "\u00edn": 6673, "capture": 27377, "Until": 25840, "Sprintf": 21393, "\u517c": 32242, "\u2581\u043d\u0430\u0439": 16745, "ographer": 16086, "bast": 15942, "\u2581importante": 20306, "\u2581Terry": 22141, "\u00f6lker": 26855, "\u8f6e": 31676, "\u2581Sau": 24475, "dd": 1804, "max": 3184, "\u2581Ot": 12901, "\u5473": 31938, "\u7d71": 32375, "\u2581artikel": 9251, "\u2581hol": 6404, "ENTIAL": 27335, "igation": 5589, "\u2581AF": 20345, "buff": 10900, "erme": 26998, "\u2581approximation": 18604, "\u2581countr": 25294, "\u2581favorites": 29419, "\u2581+=": 3447, "\u0432\u0456": 4861, "\u2581statist": 15804, "uffy": 24660, "\u2581pued": 11895, "augh": 4508, "\u2581Cooper": 18015, "\u2581\u043f\u043e\u043c\u043e": 22357, "\u2581trees": 7867, "\u96c5": 31946, "\u2581..": 8840, "\u2581Argentina": 17308, "\u2581interpretation": 17484, "ashed": 8924, "\u2581\u0434\u0435\u0439": 21360, "\u2581Neither": 19868, "\uc2a4": 30072, "\u2581rub": 8062, "ijing": 25936, "\u2581unusual": 15382, "\u2581Results": 18180, "\u5728": 29778, "\u2581qui": 3793, "coin": 11585, "Tab": 8328, "\u2581illusion": 28580, "und": 1683, "\u2581License": 3087, "\u0628": 29751, "\u2581stress": 7495, "\u2581IP": 7844, "\u2581scalar": 16588, "[control_436]": 438, "\u2581parc": 27558, "\u043d\u0435\u043c": 24242, "\u2581additional": 5638, "\u2581Cha": 24098, "shake": 26292, "\u2581\u043f\u0430\u0440\u0430": 29138, "hello": 22326, "\u2581Never": 10036, "amiento": 15858, "\u6263": 32212, "avg": 24518, "atalog": 6615, "\u2581eye": 6189, "\u2581Create": 6438, "\u2581button": 7029, "\u05e7": 30115, "\u2581altern": 6488, "\u2581\u0448": 6254, "font": 6870, "\ub3c5": 32698, "DOWN": 18369, "\u2581diameter": 23408, "\u2581Mend": 29451, "iors": 14539, "auge": 26561, "\u2581steps": 6712, "\u2581fraud": 18532, "[control_452]": 454, "\u2581Ist": 26138, "\ubaa9": 30990, "\u266a": 31788, "\u2581Document": 15641, "\u2581chance": 5444, "\u2581NE": 10759, "\u2581between": 2212, "\u2581build": 2581, "textwidth": 14360, "\u0441\u0442\u0430\u043d\u043e\u0432": 17130, "loading": 17560, "\u2581parse": 7614, "IsNull": 25998, "\u2581Richard": 7127, "\u2581fourth": 10804, "Con": 1624, "\u5c3e": 31241, "\u2581decisions": 10317, "IDs": 24797, "\u2581Layout": 24247, "\u09a6": 31638, "\u2581\u00c9tats": 18670, "HAND": 16360, "\u2581searching": 13637, "ReadOnly": 26468, "[control_435]": 437, "aces": 2857, "\u2581supp": 3309, "\u2581entitled": 16351, "\u2581exotic": 28309, "Util": 4377, "\u2581di": 1658, "%)": 12294, "\u2581\u2198": 26274, "\u2581eller": 18762, "\u2581Mist": 25968, "rup": 7832, "etry": 28301, "Index": 3127, "ighters": 22233, "iz": 1231, "\u2581own": 1984, "\u2581specify": 16527, "Unit": 7599, "Arm": 27378, "Dep": 7859, "syn": 26458, "ia\u0142": 10934, "Blob": 23156, "uis": 15635, "\u2581record": 3163, "\u2581Net": 6037, "[control_82]": 84, "pit": 20362, "\u2581indicate": 12402, "ilibrium": 21860, "lad": 10731, "\u2581outputs": 22610, "\u2581Port": 4962, "\u2581hardware": 13986, "Shell": 16486, "ira": 5575, "\u2581Settings": 19691, "Pref": 18876, "\u2581mainly": 12232, "\u2581straw": 19161, "\u2581suffix": 26785, "TREE": 27290, "\u2581compatibility": 26187, "Hex": 22702, "\u2581plasma": 28909, "\u040a": 30483, "\u538b": 31331, "\u2581Congress": 9231, "\u2581Karen": 20988, "aur": 4275, "olding": 25875, "\u2581Rosa": 26417, "fty": 5573, "literal": 26621, "\u2581\u043a\u043e\u043b\u043e": 29010, "ac": 1091, "UL": 2016, "buf": 3364, "rez": 11991, "\u2581integration": 15446, "\u2581performances": 18255, "\u2581\u043d\u0430\u0441\u0435\u043b\u0435\u043d\u0438\u044f": 23799, "aceut": 25602, "ib": 1361, "////": 2371, "\u8d22": 32547, "idding": 19558, "\u2581\u043c\u0435\u0436\u0434\u0443": 17128, "\u2581narrow": 9252, "\u0431\u0440\u0435": 20521, "\u00e1v": 14238, "\u2581intens": 17466, "PTR": 18319, "equation": 2928, "\u2581heating": 21024, "bolds": 8772, "Ga": 26640, "\u0e1e": 30554, "\u2581Gel": 24472, "<0x03>": 774, "\u03c7": 30110, "sk": 2020, "isc": 9054, "\u2581Position": 18129, "\u2581resigned": 29054, "to": 1300, "\u2581Au": 10547, "icht": 3218, "colored": 29276, "'));": 13709, "\u2581ME": 14603, "Replace": 22160, "\u4e5f": 30305, "dat": 4969, "\u4e60": 31746, "\u2581breakfast": 12582, "\u00fdm": 16458, "\u054d": 32671, "\u2581humans": 11357, "ug": 1554, "\u8bb2": 32720, "ourses": 27169, "outh": 2649, "\u0442\u0430\u043b\u044c": 17069, "\u2581Nort": 23352, "REGION": 28059, "client": 4073, "disabled": 14143, "\u2581contrad": 16003, "referto": 29325, "\u00f6n": 6206, "\u2581shipped": 28402, "\u2581relig": 5190, "\u2581rent": 8126, "\u2581Par": 3084, "nder": 3288, "\u2581Someone": 16892, ";/": 17431, ",": 29493, "\u2581Google": 6950, "'=>'": 25030, "}}(": 13668, "\u2581galaxies": 18840, "oint": 1572, "\u2581Khan": 19363, "Ten": 23183, "\u2581round": 4481, "conv": 14106, "\u017a": 29725, "cancel": 15651, "\u2581doub": 20454, "oder": 6490, "Click": 6746, "\u2581dress": 5956, "idy": 27344, "\u0432\u0430\u0442\u0430": 29246, "\u2581Ji": 20923, "\u2581Pack": 12444, "c": 29485, "\u683c": 30061, "\u2581train": 6603, "\u2581equity": 23619, "Linear": 22812, "Const": 8919, "connected": 15114, "aggio": 14829, "\u2581inject": 17221, "onte": 15034, "\u0088": 31231, "\u2581afterwards": 20040, "\u2581Zent": 28747, "con": 1282, "Rele": 15536, "got": 6834, "ubre": 20541, "\u2581chip": 15886, "CIAL": 22918, "'},": 16809, "\u2581Criteria": 27264, "\u2581Dog": 14079, "\u2581Remote": 28028, "`);": 29450, "\u5c3a": 31844, "\u2581viewed": 17629, "cycl": 22137, "icro": 3898, "\u2581Einwohner": 22759, "otic": 8607, "override": 24522, "\u2581**(": 28167, "\u2581\u043c\u0438": 7357, "\u2581{}": 5497, "rap": 2010, "[control_54]": 56, "\u2581Studies": 15962, "\u2581grin": 18692, "\u021bie": 19985, "\u2581better": 2641, "\u2581grants": 26986, "S": 29503, "<0x7C>": 895, "\u015a": 29777, "[control_281]": 283, "\u1e93": 32673, "\u2581Magic": 20601, "EV": 8089, "\u0106": 30492, "\u2581Wilson": 12189, "\u0323": 31674, "\u2581Having": 12450, "\u2581\u00dc": 13924, "control": 6244, "\u2581arrange": 24271, "\u8def": 30129, "\u043b\u0442\u0430": 22898, "ria": 4699, "\u00e1ban": 17948, "\ud544": 31195, "\u2581abril": 21362, "Station": 24326, "\u2581tracing": 29237, "Folder": 15318, "isk": 3374, "\u2581trav\u00e9s": 26953, "aff": 2914, "orum": 26733, "\u2581ital": 9894, "[control_427]": 429, "\u2581stato": 12763, "\u2581slots": 20476, "\u2581declaration": 20595, "notice": 27582, "changed": 12015, "\u2581threatened": 18119, "\u2581her": 1327, "\u2581overseas": 24870, "\u2581dashed": 26876, "pgfpathlineto": 13451, "\u2581Brooklyn": 22259, "\u2581na": 2647, "\u043b\u043e\u043c": 15021, "CTX": 27332, "\u1004": 32052, "//": 1189, "\";\r": 12648, "\u2581Roberts": 18789, "parsed": 25986, "\u2581offer": 3173, "\u2581particles": 14706, "\u2581Sri": 23935, "\u2581\u00f3": 28268, "ogg": 24065, "\u80e1": 32437, "EN": 1788, "\u2581limiting": 28699, "\u2581Athlet": 19860, "\u2581requ": 1853, "phi": 3931, "IA": 8176, "\u2581covered": 7591, "Rem": 5907, "Contact": 18771, "quer": 11144, "\u2581Born": 20877, "\u89c1": 31005, "\u2581surve": 15757, "acional": 7823, "[control_314]": 316, "\u2581Check": 5682, "\u2581\u0412\u044b": 25079, "\u0e31": 30146, "\u2581habitants": 20182, "\u2581\u043c\u043d\u043e": 25291, "sw": 2384, "\u2581trou": 8182, "chter": 12537, "icient": 4833, "\u2581\u00f6ver": 15277, "\u2581printf": 12334, "<0x68>": 875, "\u2581mar": 2597, "\u2581Most": 5590, "\u2581Tes": 26455, "\u2581wasted": 27276, "\u017c": 29650, "[control_220]": 222, "UEST": 12939, "onde": 14753, "\u2581enc": 3292, "shal": 10774, "\u2581bull": 11154, "\u2581Hil": 18345, "ln": 5546, "<0x79>": 892, "color": 4224, "\u0645": 29722, "\u2581publisher": 22336, "\u2581synd": 19458, "\u2581Vict": 7736, "vertical": 25081, "[control_28]": 30, "\u2581temps": 13742, "uc": 2253, "care": 8769, "\u2581animals": 8990, "rides": 20777, "\u2581however": 4313, "_,": 7698, "\u30af": 29989, "[control_690]": 692, "\u2581my": 1354, "templates": 28947, "\u6ee4": 31257, "\u2581determination": 20819, "\ucc28": 31502, "bras": 22188, "rage": 19723, "oved": 3715, "\u2581okay": 9578, "\u2581&=&": 18249, "\u202a": 32559, "lista": 27733, "ov\u00e1": 11642, "chor": 11719, "\u2581einer": 6752, "\u2581World": 4072, "\u2581riding": 15325, "\u2581chosen": 9497, "\u2581hay": 17432, "\u2581Hamb": 19308, "=\"\"": 19932, "\u2581aver": 14131, "\u2581listener": 14846, "DBG": 15469, "\u2581mou": 22950, "\u2581\u041c\u0430": 6332, "\u2581abrupt": 22503, "\u0399": 30632, "\u2581pregnancy": 19742, "\u041f": 29615, "trained": 29015, "\u2581separate": 8449, "sun": 20643, "\u2581contracts": 19946, "Mar": 8076, "cester": 27818, "\u2581\\\\": 3755, "icrosoft": 5770, "\u2581Jord": 12884, "\u2581villages": 19764, "iolet": 21114, "\u2581explode": 28698, "\u2581recru": 18140, "mania": 26539, "---": 8163, "icians": 8787, "suspend": 22604, "READ": 8940, "buttons": 28037, "\u0643": 29939, "\u2581infinite": 17306, "\u2581ages": 15274, "\u043c\u0435\u043d\u0442\u0430": 25223, "\u4efd": 30858, "\u2581extend": 12464, "\u2581drives": 19853, "[control_511]": 513, "\u2581Robin": 19254, "\u2581Allow": 26780, "activ": 11143, "\u2581confidence": 10611, "\u2581pending": 16234, "\u2581swallow": 26761, "\u2581membre": 29235, "\u2581programming": 17060, "\u2581meal": 12082, "avia": 17049, "\u2581predecess": 27828, "\u2581\u0441\u044a": 10216, "\u2581fundament": 10444, "en": 1037, "\u00e8ne": 13907, "BPACK": 16715, "Af": 25273, ")&": 23511, "\u2202": 32466, "\u2581\u041b\u044e": 25435, "Deep": 23997, "UNIT": 23355, "inden": 21208, "\u2581poly": 13139, "\u2581Sure": 13643, "oom": 9373, "manager": 10075, "pages": 10697, "\u0454\u0442\u044c\u0441\u044f": 13905, "\u00e7o": 16077, "\u2581Cow": 20051, "\u2581travels": 28419, "\u2581dist": 2023, "\u2581raised": 7101, "(\"\");": 29129, "Price": 13072, "\u9ed2": 32679, "\u2581Minister": 9009, "\u2581discre": 24188, "\u0cbe": 31794, "\u2581\":": 21067, "ci": 1957, "[control_491]": 493, "\u2581Sergeant": 28972, "arp": 6650, "Shader": 18423, "\u2581dominant": 19437, "\u96be": 32175, "\u559c": 31522, "\u2581univers": 5905, "[control_497]": 499, "\u2581capabilities": 17353, "\u2581sub": 1851, "\u2581try": 2232, "\u2581academ": 9621, "\u2581deeply": 12637, "\u2581blessed": 24909, "\u2581circle": 10429, "Tensor": 16473, "\u2581Camb": 11365, "\u0448\u043b\u0438": 29248, "\u2581module": 5365, "\u2581cruel": 19733, "\u2581contempor": 24309, "\u2581title": 4709, "\u2581\u0441\u0435\u043c": 29301, "\u2581\u0422\u0430": 9556, "\u2581drops": 18240, "ven": 2202, "\u5922": 32262, "tag": 4779, "textcolor": 26745, "[REFERENCE_DOC_5]": 765, "\u2581stop": 2883, "\u2581Lat": 8170, "\u0447\u043d\u043e": 8637, "Express": 25405, "\u2581incred": 9097, "persistence": 24182, "check": 3656, "\u0db1": 32255, "\u2581artists": 11379, "if": 1103, "hadoop": 28926, "Lines": 22605, "oun": 1836, "ero": 2804, "\u2581Ac": 5636, "under": 6432, "Maybe": 13812, "\u2581sounds": 8026, "\u2581GT": 20481, "\u2581tang": 16130, "\uc62c": 32287, "\u2581roce": 16461, "z\u00e1": 17613, "\u2581COL": 20869, "\u8c22": 32407, "\u2581WARRANTIES": 10095, "core": 3059, "\u00e4h": 7301, "\u2581bark": 20744, "\u0440\u0430\u043c\u0438": 27910, "\u2581facility": 13439, "udo": 10065, "\u2581Bay": 7412, "ots": 2417, "mutex": 8454, "\uc120": 30668, "Directory": 12579, "\u30a2": 30090, "yect": 23900, "\u2581Show": 9378, "\u2581desde": 12313, "multicolumn": 19242, "\u2581ende": 23602, "onial": 24389, "reno": 25736, "\u2581influenced": 20695, "\u2581\u0434\u0432\u043e": 19301, "oded": 7314, "\u98df": 31484, "outputs": 24263, "\u043f\u0440\u0435\u0434\u0435": 24337, "\u2581Kos": 21324, "\u2581august": 22704, "pair": 11170, "ADD": 11636, "colon": 20270, "\u2581control": 3370, "\u2581timing": 19365, "\u2581pandemic": 16517, "\u2581clarity": 26080, "emi": 18725, "\u2581internet": 8633, "\u2581went": 2836, "\u7d00": 32382, "\u2581saf": 5740, "\u2581shock": 11150, "h\u00f6": 21785, "L": 29526, "\u989d": 30648, "\u2581\u0442\u043e\u0440": 28732, "\u2581stack": 8000, "edo": 25204, "<0x8B>": 910, "boolean": 9258, "\u043a\u043b\u0430": 8615, "[control_587]": 589, "men": 2897, "Each": 9947, "Server": 6102, "Good": 11372, "/$": 24298, "\u2581Mos": 8060, "\u2581High": 5324, "tres": 15926, "\u2581Aus": 8120, "\u2581Sou": 9939, "\u2581Advanced": 23510, "\u2581mental": 8825, "agna": 23176, "cido": 21002, ".(": 21825, "\u2581Space": 14265, "\u2581Mess": 14744, "\u2581talks": 15834, "\u2581individuals": 7760, "Self": 14315, "\u2581VAR": 28681, "vari": 13786, "\u2581lov": 6486, "\u2581Although": 6568, "\u2581scored": 14737, "\u2581dropping": 19951, "\u5ffd": 32080, "\u2581suggestions": 18046, "\u2581subjects": 15343, "(),": 2416, "\u2581neighborhood": 11269, "As": 2966, "\u8bd1": 31651, "[control_88]": 90, "\u2581wonderful": 9358, "uki": 18067, "\u2581improve": 5684, "<0x57>": 858, "etz": 14427, ",,": 9555, "\u2581fifty": 13088, "\u2581rescue": 16779, "\u2581Quality": 21380, "\u2581ordin": 28826, "\u2581integr": 5275, "hens": 8301, "liminary": 25373, "\u2581mour": 22772, "irus": 16727, "\\+": 11868, "\u2581Mod": 4581, "\u2581filename": 5094, "\u628a": 30623, "\u2581society": 6958, "del": 5917, "\u2581began": 3893, "\u2581effects": 6860, "porter": 17943, "\u2581variable": 8628, "\u2581tale": 16410, "[control_405]": 407, "\ub978": 31647, "\u2581d\u00e9j\u00e0": 29088, "\ub3cc": 32365, "[control_75]": 77, "\u2581tous": 16833, "\u2581relationships": 10159, "erial": 17067, "\u2581reproduce": 25353, "\u2581fits": 17163, "Theta": 17411, "\u2581exper": 2237, "\u2581descend": 19912, "\u2581Tower": 20663, "\u6a5f": 31440, "{{": 7420, "\u2581mientras": 22956, "\u2581Norm": 11866, "\u2581poison": 16610, "AUTO": 25734, "\u88dd": 32705, "\u0ca4": 32617, "\u2581eq": 12852, "Data": 2101, "\u885b": 32667, "\u2581satisfy": 16604, "\u30e5": 30819, "\u2581Battle": 14479, "\u2581towards": 5851, "\u2581OK": 12974, "parser": 12233, "\u2581bob": 28910, "\u2581Lol": 23886, "pan": 4188, "\u2581drm": 23968, "\u2581lip": 11912, "ashes": 15418, "\u2581sei": 19346, "\ufffc": 32259, "\u2581shared": 7199, "###": 28100, "managed": 28077, "\u2581newspapers": 20234, "\u2581Sem": 10665, "\u2581watch": 3822, "\u2581\u043f\u043e\u043b\u0443\u0447\u0438": 19745, "\u2581ble": 8780, "Region": 12286, "\u2581Barn": 15770, "ash": 1797, "\u8bbf": 30932, "\u2581M": 1119, "\u2581chairman": 22340, "\u2581Lond": 18449, "\u2581slides": 28099, "\u2581Table": 8350, "\u2581Juni": 17867, "\u2581Bog": 20693, "\u7eed": 30967, "\u2581interact": 14881, "gor": 5321, "\u2581excited": 10302, "oms": 5953, "\u2581SEO": 22286, "\u2581Linked": 23443, "\u2581Path": 11996, "\u2581buttons": 17767, "\u2581az": 5535, "\u0447\u0438\u043d": 23924, "\u2581manufactured": 28284, "\u2581Bey": 16783, "\u2581partition": 14684, "\u2581cottage": 28038, "\u2581\u00bb,": 13999, "\u2581Tip": 23188, "\u2581Apart": 21522, "\u0440\u0435\u0437": 16137, "spell": 26828, "\u2581ps": 13152, "alous": 15758, "\u2581\u043a\u0430\u043e": 26269, "Password": 10182, "\u2581punto": 23559, "\u03c5": 29839, "\u2581bund": 23746, "\u9b4f": 32534, "\u2581\u2581\u2581\u2581\u2581\u2581\u2581\u2581": 1041, "\u2581Method": 10779, "olu": 18528, "\u2581Isn": 28794, "[control_736]": 738, "\u2581Frankfurt": 27626, "\u2581infrastructure": 15229, "\u2581partido": 27761, "\u2581containing": 9475, "\u2581highlight": 12912, "\u2581Greg": 11688, "\u2581Authority": 21421, "Gui": 13036, "\ud83d\ude01": 31475, "\u2581recover": 10211, "\u041c": 29624, "\u2581condu": 9435, "job": 10292, "}=\\": 12009, "Fi": 13473, "\u2581retain": 17583, "fields": 8202, "\u2581person": 2106, "\u2581Sebastian": 26883, ">\r": 4453, "\u2581planet": 10641, "\u2581impl": 6243, "think": 24804, "\u2581prime": 8907, "\u2581Fle": 16434, "\uff0d": 31908, "\u2581firms": 19021, "\u7559": 30978, "\u043b\u0430\u0433\u043e": 22853, "\u2581honestly": 14743, "\u2581hogy": 16952, "\u2581late": 4677, "\u2581CIA": 23489, "\u2581frag": 12102, "\u2581dive": 25966, "MAC": 13805, "created": 14342, "\u2581CT": 22791, "\u2581tug": 24965, "ience": 2408, "getInt": 28744, "\u2581task": 4406, "\u2581photography": 20592, "endet": 28290, "\u2581\u043f\u043e\u043b": 14345, "\u2581circ": 5481, "\u2581river": 8550, "\u60a8": 30457, "state": 2795, "\u2033": 29727, "volume": 16160, "\u2581comes": 4203, "FP": 10332, "\u2581global": 4294, "\u2581Nelson": 19453, "Resize": 28482, "\u2581utter": 15638, "pres": 12629, "\u2581made": 2037, "\u2581&&": 1976, "\u2581rob": 7774, "save": 7336, "Sign": 8152, "\u2581ling": 18594, "\u2581colours": 22905, "\u2581Estado": 27275, "ensure": 8596, "Requests": 25670, "ijuana": 24078, "\u2581mism": 26047, "\u2581\u0441\u043f": 28548, "\u2581mattress": 20954, "\u032f": 31309, "<0x6A>": 877, "\u2581Att": 6056, "kat": 23100, "\u2581absurd": 23744, "\u2581\u043f\u0440\u0438\u043d\u044f": 28509, "aser": 14836, "At": 3935, "\u0459\u0443": 20511, "\u2581suite": 11746, "\u00e1tica": 27178, "\u031e": 32095, "\u0e02": 30639, "\u2581parte": 6998, "\u2581communicate": 17055, "\uccad": 31362, "raw": 2275, "\u2581expert": 8351, "bro": 6369, "\u2581Isabel": 22042, "\u2581connections": 13052, "NONE": 12815, "\u2581donc": 20245, "Ann": 24662, "\u2581Wis": 14868, "\u2581Python": 22134, "\u2581shops": 16945, "\ud83d\ude0d": 31587, "[control_740]": 742, "erness": 20152, "\u2581Insert": 28002, "\u2581dug": 22384, "\uc5c8": 31359, "\ub828": 32376, "\u2581origins": 26849, "attro": 28547, "Tax": 28305, "\u2581attorney": 15853, "nat": 10337, "Wallet": 22977, "\u2581motivation": 22362, "pared": 22765, "$$": 11579, "yst": 1595, "match": 6412, "\u2581graduated": 19983, "<0xE6>": 1001, "\u6d4b": 30352, "chied": 27649, ")\r": 3942, "\u2581born": 6149, "pref": 17465, "FUNCTION": 17136, "Game": 9733, "\u043c\u0438\u044f": 25452, "\u2581cope": 28394, "upid": 8832, "\u2581Kim": 11559, "Feature": 12404, "attach": 17457, "\u2581ne": 1203, "projects": 21848, "\u2581frequently": 11988, "\u2581answered": 11007, "ARGET": 18753, "ether": 9730, "\u2581Grow": 19224, "\u2581austral": 27930, "\u2581defines": 19559, "inging": 25599, "\u2581ingen": 28109, "\u045a": 29685, "\u521d": 30177, "\u2581Lex": 21759, "\u0442\u044b": 6323, "allow": 6386, "\u2581memories": 13375, "\u2581silently": 25203, "sn": 7481, "bear": 25882, "\u2581male": 8630, "eva": 14005, "\u2581Theater": 20493, "Tests": 17904, "\u2581Wasser": 25134, "Ord": 23556, "ware": 2474, "xFF": 5338, "\u2581Race": 20824, "\u2581subs": 12762, "prev": 10851, "\u2581distances": 24992, "\u2581suspicion": 28633, "\u2581sem": 4314, "\u2581ds": 18867, "\u2581gra": 18984, "\u2581Scot": 11503, "\u2581Drupal": 23348, "isce": 27090, "\u6d3b": 30553, "\u2581birthday": 13660, "\u00e1ll": 25931, "process": 5994, "flash": 22241, "ursday": 11233, "ictionary": 8846, "\u2581preventing": 26799, "\u2581limited": 7284, "\u2581package": 4428, "\u2581inn": 5551, "\u2581desert": 14221, "\u2581centered": 26672, "ivo": 6230, "LOW": 10398, "Ext": 6106, "CTOR": 21202, "\u043b": 29562, "were": 28377, "\u2581stellar": 22291, "\u2581things": 2490, "[control_600]": 602, "\u2581logger": 12581, "\u2581curr": 20262, "ventions": 28087, "\u2581our": 1581, "\u2581Bill": 7270, "yman": 22433, "\u8bf4": 30384, "\u2581citiz": 8731, "\u2581property": 4089, "\u65cf": 30774, "appa": 8204, "\u2581notebook": 25355, "minute": 18154, "\uc744": 29957, "\u2581taxes": 13795, "\u2581stage": 6198, "\u2581order": 2513, "\u2581Result": 7528, "CONNE": 20832, "\u2581carved": 27232, "\u2581honey": 19179, "respond": 27860, "\u30d1": 30656, "\u5167": 31925, "dig": 8613, "\u2581achievement": 22964, "\u2581blanc": 29377, "\u2581later": 2830, "closed": 13616, "Gu": 9994, "\u2581mark": 2484, "important": 25522, "\u2581palm": 18687, "\u2581Infan": 24587, "\u811a": 31414, "xico": 22906, "\u2581normal": 4891, "}&": 23369, "\u2581Gu": 3248, "Factory": 5758, "acz": 20753, "\u2581strings": 12040, "\u2581account": 3476, "\u2581metal": 8271, "\u2581focuses": 21933, "\u2581efect": 28160, "\u2581hug": 14388, "\u2581Giov": 19373, "\u2581Pere": 25997, "\u2581Referee": 18409, "zent": 15968, "\u2581Coord": 23952, "(\",": 24199, "]{": 5258, "\u0161\u00ed": 13258, "OO": 18177, "lichen": 8014, "Der": 16034, "\u2581side": 2849, "ref": 1781, "\u6e29": 31739, "\u2581thing": 2738, "<0x0C>": 783, "MEM": 9978, "\u2581\u00e1rea": 27475, "omb": 4633, "customer": 19291, "Share": 25288, "Prote": 23311, "Los": 26870, "ook": 1368, "ication": 4464, "gebiet": 21562, "\u53bb": 30419, "\u0016": 31703, "\u2581worst": 9516, "Card": 9907, "\u0937": 31886, "\u2581fails": 15066, "\u0c30": 31958, "\u2581Hey": 17930, "\u7a81": 31893, "too": 25747, "\u2581zo": 21140, "\u2581thats": 27516, "desc": 6684, "\u2581speeds": 28248, "\u2581\u041f\u0443": 26404, "\u697c": 31077, "epper": 15549, "onia": 10346, "\u2581\u043f\u0440\u0435\u0434\u0441\u0442\u0430\u0432": 18774, "\u2581liberal": 15755, "\u2581oct": 10309, "\u2581prevented": 27260, "[control_108]": 110, "details": 14624, "nant": 20120, "\u2581note": 5807, "\u2581Jesus": 7234, "\u2581GNU": 7939, "\u2581Ut": 14598, "\u9023": 31360, "\u578b": 29941, "\u2581\u0441\u043e": 3341, "usch": 27396, "pu": 3266, "\u8f91": 30583, "\u2581awards": 17909, "\u5e8f": 30081, "\u5317": 30567, "\u2581languages": 14796, "itage": 14747, "\u2581wrote": 5445, "ibr": 3560, "\u2581commer": 6770, "\u2581binary": 10904, "\u2581Ky": 16363, "\u2581laptop": 20659, "\u2581bars": 14297, "\u2581sniff": 27866, "\u2581applied": 8357, "special": 15676, "\u2581configure": 21687, "\u2581expanded": 15476, "Serial": 9892, "\u2581eg": 15254, "Notification": 14524, "Tracker": 22450, "\u2581flux": 16178, "\u2581Dublin": 23031, "\u2581Cold": 20028, "eters": 3380, "\u2581friendly": 10899, "charg": 15718, "\u601d": 31218, "ack": 1236, "raz": 6005, "\u2581participated": 22278, "\u00e8ge": 25167, "\u2581sha": 24439, "team": 15843, "esta": 9989, "admin": 8192, "\u0442\u043e\u0439": 23707, "AD": 2609, "\u3002": 29712, "c\u00f3w": 25093, "toBe": 13289, "ells": 9623, "\u2581Christianity": 23034, "\u2581conversion": 14601, "\u0192": 31521, "\u2581counter": 6341, "[control_679]": 681, "\u2581passed": 5336, "\u2581Ital": 5271, "mock": 9671, "dev": 2131, "\u2581school": 2820, "\u0a3e": 32482, "SET": 5038, "\u2581princess": 29081, "Binding": 15560, "bour": 7582, "legal": 7858, "\u2581uniform": 9455, "\u2581Indust": 11295, "\u2581Jennifer": 22279, "bt": 3463, "\u2581island": 9687, ":-": 19452, "\u2581pocket": 11353, "\u2581dell": 7100, "chez": 25830, "\u043b\u0435\u0439": 10409, "\u2581Dom": 7479, "\u2581Bo": 4036, "\u1ee9": 31190, "\u2581tak": 11412, "inson": 12595, "ACC": 27517, "\u2581Hamburg": 25376, "\u2581\u0421\u0435": 11097, "Example": 21043, "gal": 8614, "meisterschaft": 28436, "riend": 2281, "\u2581significance": 19077, "[control_161]": 163, "\u2581measurement": 16689, "borg": 21061, "\u0441\u0442\u0443\u043f\u0430": 20419, "Focus": 13587, "\u2581find": 2068, "\u2581Ridge": 26208, "\u65e0": 30143, "Cmd": 11258, "\u0451\u043c": 19220, "pick": 23453, "\u2581Personen": 26248, "\u2581facts": 12180, "\u2581conce": 14038, ")));": 8342, "Watch": 16370, "\u2581loves": 14236, "sten": 6830, "Preferences": 25916, "\u2581Icon": 27037, "\u2581motion": 8804, "\u0442\u0432\u0430": 23636, "/*": 2245, "unc": 11242, "stream": 4656, "assertEquals": 12903, "stringify": 23221, "\u008b": 31242, "\u7968": 31327, "<0xBB>": 958, "ci\u00f3n": 8677, "\u2581believes": 16070, "\u2581Render": 24520, "\u2581Dar": 8988, "\u2581possible": 3340, "\u2581Votes": 24173, "\u6548": 30300, "\u2581sauce": 16810, "\u2581Military": 20612, "\u2581economic": 7406, "\u2581merc": 22455, "gnu": 20356, "\u2581\u041e\u0431": 23512, "\u2581shouting": 24629, "ieler": 12731, "\u2581uncomfortable": 18553, "ine": 1241, "nings": 24968, "\u2581talking": 5202, "\uad6d": 31547, "IMPORT": 15869, "\u2581Ruby": 27895, "thern": 5167, "ties": 23601, "[control_487]": 489, "ensitive": 17188, ")]": 5521, "\u2581Buen": 23434, "\u305b": 30674, "llvm": 18746, "\u201c.": 15539, "WER": 16452, "\u2581Jahre": 13320, "rict": 7153, "hausen": 25581, "\u2581Custom": 8741, "\u2581ft": 13376, "\u2581init": 3107, "\u2581\u041b": 3986, "how": 6613, "\u2581eyebrows": 28237, "\u2581Div": 6580, "iger": 5654, "Accessor": 24891, "erv": 1552, "\u2581Serge": 17634, "\u043f\u044b": 14570, "\u2581Entity": 21233, "Assembly": 26385, "\u2581RC": 27498, "\u2581pol": 1928, "mun": 10255, "\u2581Mir": 9922, "\u2581dancing": 18087, "\u2581CONDITION": 12784, "\u1f78": 31570, "\u2581chat": 11474, "\u2581corporate": 13026, "\u2581Por": 13169, "\u2581speech": 9434, "SUPPORT": 18111, "ieux": 23088, "ag": 1125, "\u63a2": 32266, "\u2581\u043b\u0430": 16832, "q": 29543, "?:": 5162, "\u2581Poss": 20564, "Servlet": 14356, "\u2581pun": 6472, "itter": 5474, "USED": 17802, "\u043a\u0438\u043c": 16384, "\u2581logical": 17209, "\u2581friendship": 18279, "bew": 24902, "\u4ea7": 30586, "estro": 22611, "ipping": 10974, "BUF": 17974, "independ": 27750, "\u0082": 30783, "\u2581''": 10610, "OM": 5109, "aps": 2650, "gru": 24464, "\u5ba3": 32355, "\u2581horizon": 19027, "\u2581eager": 16149, "py": 3602, "ILD": 14778, "\u2581deleted": 15953, "on": 1034, "\u2581sources": 8059, "igu": 9267, "ville": 6253, "DN": 29153, "berry": 15001, "\u2581evolution": 10963, "\u2581Domin": 15235, "B": 29528, "\u2581rab": 17247, "gent": 6956, "ardi": 23767, "\u2581UE": 20551, "\u2581outside": 4304, "\u2581crying": 16439, "\u0432\u0430": 1638, "oy": 1672, "\u2581led": 4931, "le": 1059, "\u2581Vir": 7363, "\u2581cabin": 15253, "________________": 17994, "\u2581oper": 2532, "\u2581fucked": 21019, "\u2581dull": 22055, "\u0440\u044b": 4860, "\u2581sends": 21748, "\u2581Storm": 22049, "arith": 29190, "\u2581tune": 22105, "\u2581riv": 8959, "more": 5220, "idle": 21008, "\u2581Mode": 22516, "One": 6935, "argc": 29297, "\u2581target": 3486, "\u2581Wed": 8610, "Typ": 14937, "\u2581stere": 20309, "\u2581kinds": 11466, "\u7bc0": 32063, "ettes": 27084, "[control_591]": 593, "\u2581inwon": 28460, "\u0ba4": 30868, "lear": 6363, "\u2581Jenn": 16592, "\u2581puede": 17291, "Mem": 6536, "\u2581offense": 20720, "navigation": 23184, "\u2581Bark": 28310, "=(": 10231, "Unmar": 21398, "\u2581fighting": 9320, "\u2581Sy": 8049, "\u043a\u0438\u0439": 7210, "going": 9868, "\u2728": 31584, "\u2581mechanism": 14943, "\u2581qu": 1294, "\u2581Feder": 13737, "usk": 15716, "hit": 19332, "sembl": 15531, "\u2581desc": 3051, "\u2581Hamilton": 11672, "ursor": 13326, "UINT": 13983, "recogn": 28775, "ence": 1404, "\u2581Anton": 9767, "\u2581this": 1224, "\u8f6c": 30125, "\u2581joke": 13783, "\u2581Ber": 4173, "ograf\u00eda": 19455, "\u2581Camera": 25129, "<0x7F>": 898, "\u2581fans": 9272, "\u2581Cache": 25871, "\u2581forever": 11507, "insert": 7657, "\u2581approaching": 20708, "\u2581supplier": 26645, "ios": 3574, "`,": 7619, "Site": 18374, "$),": 28285, "\u00e1ny": 12364, "\u2581stranger": 20393, "\uac04": 30880, "uh": 9652, "atic": 2479, "idae": 8073, "footer": 19511, "dhd": 28725, "\u2581reference": 6401, "getData": 26610, "\u8aa4": 32091, "\u2581eternal": 26159, "\u2581prisoner": 24808, "\u2581Us": 5315, "\u2581City": 4573, "ppen": 15784, "\u2581reach": 5331, "\u04a3": 31768, "\u2581Action": 10392, "\u2581failures": 26162, "column": 6339, "optional": 15264, "\u2581drift": 18869, "\u2581AG": 15546, "\u2581fantasy": 18161, "agg": 7826, "required": 11661, "\u1edd": 30860, "\u2b1b": 32032, "Editor": 9627, "Av": 10037, "\u090f": 31782, "position": 4408, "PLY": 26894, "anch": 4351, "\u2581absolutely": 8539, "\u2581%": 2007, "orous": 15906, "\u2581addr": 12962, "\u2581Sat": 11354, "\u2581remark": 9942, "\u2581from": 1245, "\u2581\u0441\u0442\u0443": 21326, "\u2581Bert": 20983, "\u2581hyd": 25251, "[control_515]": 517, "POWER": 24221, "aks": 9908, "\u5b9d": 30940, "urations": 17731, "\u2581walking": 8080, "\u2581findings": 18915, "\u2581hooks": 27669, "\u2581intellectual": 16752, "\u0440\u0435\u0439": 17642, "\u60f3": 30791, "\u2581tall": 10137, "\u2581garlic": 26563, "g": 29489, "Std": 22743, "\u2581spent": 5991, "<0x95>": 920, "\u0442\u0440\u043e": 14930, "itarian": 18231, "ocol": 4641, "\u2581hom": 3921, "abama": 19774, "\u0d3f": 32294, "\u2581bet": 1692, "\u2581grupo": 19318, "\u2581decom": 19394, "\u2581voegen": 16420, "\u2581corrected": 28608, "kir": 21509, "|_{": 28989, "ishing": 6364, "plaat": 15137, "RPC": 22883, "\u2581\u043e\u0442\u043d\u043e": 19384, "\u2581extending": 26533, "\u0431\u0435\u0440": 11022, "\u2581pres": 2026, "igned": 2499, "\u5e84": 32140, "\u2581Political": 22452, "bench": 21754, "Inject": 22847, "\u2581febru": 23400, "\u2581Studio": 18080, "had": 17217, "ething": 2214, "\u2581complete": 4928, "Wh": 2638, "\u2581circular": 21207, "\u2581\u0444\u043e": 27147, "\u2581\u043f\u043e\u043b\u044c": 28672, "async": 11637, "well": 6226, "ber": 1305, "pk": 17038, "\u9192": 31992, "via": 16596, "[AVAILABLE_TOOLS]": 6, "bf": 2652, "\u09b2": 31062, "chester": 12609, "\u2581possibility": 10833, "\u7d04": 32150, "\u2581veloc": 25144, "\u4ef6": 29779, "Must": 15801, "\u2581platforms": 15694, "\u2581fast": 4870, "\u2581dann": 18861, "\u00f6": 29602, "\u8239": 32596, "\u2581usb": 17843, "\u2581Nr": 25876, "<0x62>": 869, "\u2581Hand": 7090, "\u2581Estate": 23331, "\u2581contrary": 20677, "::$": 25266, "liv": 21130, "[control_339]": 341, "anchor": 22990, "\u2581posting": 19216, "\u2581minimum": 8736, "unknown": 16815, "\u2581raz": 11485, "alloc": 5692, "\u2581controlled": 13656, "commerce": 24776, "othe": 15971, "\u2581\u0415": 6380, "HTTP": 13296, "iek": 19395, "\u2581grade": 12914, "wrap": 9265, "ERCHANTABILITY": 13846, "ONE": 7117, "liest": 18835, "\u2581Golden": 15507, "\u2581'\"": 15271, "\u2581Kar": 8543, "\u0570": 32146, "\u2581telling": 7892, "\u2581sixty": 21507, "\u2581\u0444\u0435\u0432": 22619, "\u2581file": 2497, "\u2581insect": 17686, "Log": 3531, "\u2581\u043f\u0440\u0430\u0432\u043e": 22491, "\u2581victory": 11883, ")--": 21328, "\u2581Urs": 29073, "\u2581Norman": 23313, "\u2581slower": 26410, "cluster": 12795, "[control_499]": 501, "cci\u00f3n": 10467, "\u2581STR": 18003, "\u304c": 30077, "\u2581argv": 22631, "\u2581Lap": 24528, "\u0255": 31389, "\u2581gam": 11897, "\u2581colleges": 27587, "\u2581\u0438": 1607, "rod": 10181, "hint": 24034, "anj": 19389, "\ub178": 31293, "\u2581sets": 7259, "\u2581money": 3213, "\u2581delay": 9347, "\u2581Merc": 28702, "ArrayList": 17795, "\u2581company": 3264, "\u2581medi": 18054, "reason": 15759, "\u2581Dir": 20694, "\u0447\u043d\u043e\u0439": 25375, "\u2581menos": 22916, "\u2581sprintf": 23572, "tos": 28815, "\u2581ISO": 23820, "\u2581protecting": 21301, "\u2581Julie": 23474, "\u2581A": 1098, "\u2581Section": 9165, "HI": 20162, "\u8853": 32256, ":</": 12191, "\u0434\u0440\u0438": 25406, "[control_207]": 209, "opl": 14085, "aimed": 27263, "\u2581Films": 29011, "\u2581compress": 26363, "\u2581Lemma": 14352, "Forms": 9685, "stage": 14358, "\u2581tests": 8847, "uge": 4451, "\u2581neut": 9718, "\u2581stay": 3847, "relation": 22148, "\u2581Any": 5690, "\u2581Morgan": 15933, "\u2581\u0435\u0433\u043e": 10101, "\u2581VAL": 19548, "\u2581taken": 3982, "curr": 14800, "\u2663": 31494, "\u2581promot": 18790, "before": 12866, "\u2581available": 3400, "\u2581bek": 21459, "\u2581\u041f\u0440\u0435": 10932, "\u2581propag": 11934, "\u2581Portugal": 16928, "smart": 20682, "\u2581retained": 26532, "bi": 7077, "\u2581parameters": 6055, "\u6a02": 32686, "\u2581allocated": 20747, "\u4e89": 32495, "vard": 15511, "PORT": 5789, "\u2581rug": 14412, "\\": 29524, "\u03a7": 31206, "\u2581nacional": 19904, "\u043b\u0451\u043d": 25499, "\u2581stab": 22438, "\u2581measuring": 25348, "\u2581England": 6551, "Resource": 4562, "\u2581parti": 29171, "Follow": 28861, "icator": 18341, "\uf0b7": 31427, "\u0432\u0430\u0442\u044c": 28766, "\u2581HD": 15819, "\uc218": 29919, "asm": 8572, "\u0440\u043e\u0434\u0438": 21913, "\u2581territor": 13318, "expression": 16616, "\u5e76": 30225, "}\",": 14162, "\u2581tipo": 19822, "\u2581formats": 24236, "less": 2271, "getName": 11462, "\u2581landsc": 28076, "ados": 4250, "\u2581dreams": 13000, "lor": 6406, "\u2581initialize": 16035, "God": 17957, "\u2581tatto": 22709, "\u2581drag": 8979, "older": 4470, "track": 8590, "\u2581Kit": 14170, "\u2581Conference": 13883, "\u2581sd": 20283, "mare": 20977, "clos": 11181, "\u2581Walker": 18502, "\u2581Garc": 27309, "XML": 13815, "conduct": 28603, "\u2581didn": 2307, "\u2581ost": 20630, "\u2581elite": 21046, "\u2581puls": 27459, "\u2581gauge": 15238, "broad": 28635, "cipl": 9703, "crtc": 23569, "\u0e1b": 30486, "\u2581neuro": 21110, "layers": 23712, "\u2581fascinating": 23837, "\u2581Les": 5341, "\u00e8te": 21824, "\u274d": 32663, "\u0440\u0435\u043c\u0435\u043d": 21314, "errno": 18586, "\u2581approxim": 8056, "\u2581report": 3032, "user": 2606, "ogy": 9445, "gio": 11906, "requency": 18168, "\u2581deer": 27770, "\u2581controversy": 28727, "\u2581institut": 10325, "ulator": 11862, "\u2581py": 9010, "contr": 12461, "\u2581tolerance": 28085, "\u6a21": 30034, "\u00d0": 31073, "}).": 7612, "setValue": 27300, "\u2581Europ": 10890, "\u2581retail": 12371, "otto": 15802, "\u0121": 31941, "iction": 3801, "\u2581depressed": 28464, "\u2581Columb": 11773, "\u2581cooked": 22835, "Hello": 16998, "\u2581consciousness": 17276, "Has": 6170, "\u2581workspace": 29408, "\u2581sketch": 22557, "\u2581invalid": 9877, "\u4e86": 29873, "Compare": 22863, "\u2581accounts": 10623, "\u2581cuts": 16749, "\u2581allows": 6744, "Del": 10257, "\u2581Those": 9595, "NE": 5158, "\u2581ideal": 8952, "\u2581Gary": 18930, "\u2581shipping": 14137, "\uff1f": 30539, "\u2581Edu": 23494, "\u2581This": 1619, "usion": 4391, "\u2581\u043e\u0431\u043e": 18198, "\u2581Output": 16753, "ason": 2180, "\u2581United": 3737, "\u2581Wild": 11436, "th": 1130, "peror": 14678, "\u2581plaats": 19654, "\uc124": 30826, "akespeare": 18632, "keeping": 27608, "\u6620": 31645, "\u2581===": 3540, "<0x65>": 872, "\u2581Pe": 4010, "pte": 26294, "\u2581Maurice": 26118, "[control_226]": 228, "anches": 13423, "\u2581glance": 16621, "\u2581What": 2592, "\u2581delivered": 12216, "urb": 6122, "\u2581BO": 12838, "\u2581inclusive": 26341, "\u653f": 31146, "\u770c": 32200, "\u2581groom": 29351, "\u2581encryption": 28359, "eval": 16807, "GUI": 22546, "\u2581bog": 25606, "\u2581sov": 28870, "\u2581segments": 20873, "\u5730": 29914, "\u2581Pos": 8970, "\u2581network": 4449, "other": 1807, "\u00e9re": 25222, "\u2581soll": 16514, "\u2581ihr": 12661, ">(": 4091, "riterion": 23986, "re": 1035, "\u03a4": 30545, "zn": 8513, "\u017d": 29790, "\u043a\u0430\u043d": 10136, "plit": 4023, "Ed": 4333, "usb": 14758, "END": 5768, "\u2581model": 2997, "\u6768": 32385, "\u6cbb": 30905, "\u2581rat": 6940, "\u2581Try": 12210, "\u200c": 30379, "\u0e08": 30557, "\u2581means": 3593, "\u2581liver": 25592, "Ref": 4448, "\u8d44": 30310, "\u2581manuscript": 21637, "\u2581whist": 21746, "\u2581Muham": 25091, "lp": 13080, "\u2581Parliament": 16258, "\u2581Analysis": 20210, "\u2581Grace": 16049, "\u2581buff": 5093, "\u2581wrapper": 19259, "\u6d1b": 32359, "\u2581havia": 21329, "';": 2543, "[control_294]": 296, "terior": 12244, "\u2581Harvard": 18321, "auto": 7183, "\u2581fon": 16543, "LOB": 16766, "\u2581Ster": 26871, "\u2581\u0440\u0430\u0439\u043e\u043d\u0430": 23011, "\u0c35": 32744, "\u2581Partial": 25358, "\u2581sist": 13057, "\u2581DCHECK": 23411, "Camp": 24036, "\u2581Copy": 18926, "\u8a71": 31913, "\u2581bou": 17488, "\u2581Statement": 28823, "astic": 4721, "ROW": 20757, "\u2581grave": 15040, "\u2581metres": 19519, "cken": 19190, "\u2581Jud": 8172, "\u2581Fest": 23004, "ross": 2324, "\u2581spirit": 6606, "oriented": 28881, "ensions": 5911, "Edge": 16078, "dire": 24655, "\u2581Sp": 2438, "\u2581Were": 25788, "\u2581knees": 14199, "iens": 13074, "[control_678]": 680, "\u2581slice": 16931, "urchase": 21337, "nos": 22543, "\u2581fusion": 22872, "\uadfc": 32109, "ROP": 24794, "\u2581blacks": 28869, "kit": 11921, "\u2581\u043f\u0440\u043e\u0446\u0435": 23914, "\u0436\u0438\u0432\u0430": 25444, "adata": 4594, "agem": 18541, "\u0095": 30577, "aiser": 22866, "\u8d1d": 31892, "\u2581beim": 18222, "\u2581hotels": 22507, "\u2581Planning": 24310, "Large": 28176, "\u2581D": 1152, "\u2581WR": 22254, "socket": 14978, "\u2581useful": 6625, "\u2002": 31952, "opher": 13147, "\u2581Kenn": 11728, "\u2581\u0413\u0435": 13703, "\u2581vide": 9182, "\u2581\u043e\u0440\u0433\u0430\u043d\u0438\u0437\u0430": 27034, "\u2581arrog": 29095, "_**": 29471, "warning": 16613, "\u2581promoting": 22093, "WR": 7978, "\u2581Hash": 12068, "lemma": 13945, "\u2581Query": 17348, "\u043d\u0438\u0435\u043c": 14912, "\u2581mystery": 18260, "chem": 23932, "[control_472]": 474, "\u2581manual": 16329, "\u2581l\u00e4": 24623, "\u2581lied": 27752, "\ub9ac": 30056, "\u773c": 31880, "\u2581anys": 24717, "\u2581feat": 13539, "};": 3372, "DOUBLE": 26700, "estamp": 7807, "\u2581ja": 11755, "\u2581prot": 19464, "\u2581desen": 27557, "itories": 28567, "igos": 27096, "\u2581tie": 15396, "[control_458]": 460, "Doc": 10209, "\u591f": 31962, "\u2581Angel": 16646, "ulously": 27112, "\u2581able": 3126, "\u00a1": 29796, "\u5458": 30370, "\u0441\u044c\u043a\u0438\u0439": 11147, "\u2581Default": 10475, "lst": 27584, "\u5c04": 31322, "\u2581eer": 10802, "[control_388]": 390, "Sw": 8885, "\u4e00\u4e2a": 29286, "\u2581event": 2719, "\u00dfen": 10489, "\u2581iron": 8843, "\u2581public": 1566, "larg": 21600, "THOD": 15874, "\u0446\u0438": 2556, "ibt": 15814, "\u30c1": 30741, "ging": 3848, "description": 7286, "\u2581Mag": 5410, "coll": 11689, "\u2581Tommy": 21661, "\u2581index": 3759, "\u2581WAR": 6948, "\u2581observer": 22622, "ova": 6161, "\u2581significantly": 11885, "\u2581Police": 13106, "\u2581jobs": 8562, "\u2581Amer": 2428, "\u2581officers": 9932, "\u2581Graph": 15914, "[control_272]": 274, "mot": 17090, "\u2581prim": 3181, "frica": 24166, "ENDOR": 24437, ")+\\": 26654, "\u0442\u0435\u0439": 23403, "\u2581Arkansas": 28128, "\u2581prepar": 8660, "ival": 3866, "\ubc18": 30960, "\u5462": 32119, "\u2581bree": 19089, "\u2581z\u00e1": 20037, "\u2581Gold": 6560, "GEN": 13603, "\u2581project": 3256, "\u2581Classic": 22523, "[control_574]": 576, "\u043f\u043b\u043e": 24331, "/'": 26183, "\u2581Rep\u00fablica": 27389, "\u00bf": 29738, "mond": 8793, "\u2581pil": 8354, "atos": 18128, "crit": 13492, "\u2581accepting": 23136, "\u2581este": 7789, "content": 4557, "\u2581Di": 6984, "ICK": 15363, "fed": 28648, "AtA": 27338, "riven": 22462, "\u2581presented": 8335, "\u2581strlen": 20585, "appendChild": 23665, "\u5404": 31112, "\ub791": 32263, "Clear": 13780, "\u0445\u0443": 19436, "\u2581than": 1589, "hidden": 10516, "\u2581If": 1815, "\u2581dej": 29239, "\u2581Mik": 17108, "Consum": 17045, "\u2581Financial": 17914, "\u2581da": 2634, "\u2581spot": 7065, "\u2581PUR": 13037, "\u2581procedure": 11490, "lope": 17508, "\u2581feder": 27774, "\u2581Old": 8238, "\u5e55": 31679, "\u2581largely": 13050, "former": 21468, "\u2581reduced": 10165, "\u2581Emb": 18833, "\u0632": 29978, "\u00edt": 4839, "\u2581uno": 11724, "\u2581civ": 14037, "=${": 23533, "\u2260": 31700, "\u2581nan": 24461, "CASE": 24920, "chi": 5184, "\u2581ident": 3330, "\u2581concentration": 16755, "ition": 1453, "\u2581trab": 12736, "[control_215]": 217, "table": 3383, "\u2581avoir": 19605, "\u2581personally": 11665, "\u2581Lad": 21310, "Analy": 28322, "\u2153": 31984, "US": 3020, "cussion": 19405, "\u2581WC": 28593, "Unable": 24853, "[control_648]": 650, "ographical": 22391, "\u2581losing": 10889, "\u2581organ": 2938, "\u5e03": 30570, "\u0126": 32760, "\u9ec4": 31426, "\u1f21": 32758, "\u028a": 31025, "essions": 9410, "\u3060": 30651, "Linked": 28743, "Emit": 18679, "imore": 21249, "\u2581p\u00e9ri": 23290, "esen": 24436, "enty": 4511, "\u2581mt": 24029, "{$": 14405, "\u2581member": 5060, "vir": 28882, "\u2581Pav": 24101, "\u2581ultimately": 13433, "\u2581quant": 5432, "\u2581prod": 19725, "\u2581\u043e\u043d\u0430": 25080, "://": 2276, "\u2581vital": 13356, "\u2581vivid": 25722, "\u2581open": 2333, "enas": 20160, "\u2581isol": 10545, "\u2581explain": 8050, "dw": 14001, "\u2581highway": 20895, "son": 2033, "through": 15736, "te": 1192, "\u2581helpless": 26008, "\u2581allowing": 10604, "\u2581trailer": 22266, "\u2581forecast": 20680, "printk": 19316, "MODE": 7995, "dbg": 15730, "amazonaws": 27687, "hof": 14961, "\u2581TF": 24028, "mg": 12665, "\u2581area": 3466, "bal": 7091, "\u043d\u0430\u043b\u044c": 28797, "piece": 17920, "\u2581anyway": 8567, "\u2581Aber": 26369, "enger": 10011, "hemal": 23446, "[control_141]": 143, "\u2581profile": 8509, "TP": 5672, "\u043f\u043e\u043b": 14772, "=\"#": 16300, "esp": 14811, "\u2581hearts": 18526, "ename": 3743, "EXIT": 29112, "\u2581acceptable": 19404, "\u0bb5": 31243, "\u2581revolutionary": 25212, "\u2581wrap": 13319, "\u2581Hung": 15939, "bbra": 26634, "\u2581comprend": 24681, "\u2581access": 3503, "\"):": 21789, "\u2581contains": 6644, "\u2581retro": 25520, "\u2581shape": 6611, "recht": 27197, "\u272a": 32435, "xit": 29387, "\u2581rot": 7348, "\u2581revers": 17644, "[control_256]": 258, "\u2581Deep": 15740, "\u2581guess": 5870, "\u2581Fort": 7731, "\u0584": 32057, "zoom": 24683, "[control_211]": 213, "\u985e": 31605, "\u2581Stephen": 13100, "\u2581realm": 19513, "\u2581divor": 13568, "bles": 10111, "\uc11c": 30073, "\u2581Target": 16023, "&&": 7398, "WS": 8733, "[control_354]": 356, "ap": 1145, "Chat": 18933, "cb": 6913, "LOAD": 11382, "hour": 14553, "\u2581areas": 5788, "\u2581Using": 10384, "Date": 4233, "IMIT": 13083, "anza": 14851, "\u2581Fer": 15940, "denly": 21125, "\u2581\u0441\u043b\u043e": 26023, "\u2581candy": 26772, "\ub808": 31282, "[control_125]": 127, "\u6697": 31864, "\u2581degrees": 11950, "\u2581waiting": 6113, "\u2581charging": 23170, "Decoder": 23877, "ving": 4612, "etta": 17399, "\u2581fir": 13389, "\u2581\u00e5r": 20198, "iom": 20702, "out": 1174, "Int": 3339, "\u2581remains": 8288, "\u2581\u0412\u0435": 11622, "\u2581??": 20331, "\u8be2": 30116, "javax": 27952, "\u05e3": 31784, "\u2581Han": 8993, "Search": 7777, "\u826f": 31636, "\u2581HP": 23147, "\u7d50": 31254, "\u2581abandoned": 15586, "shaller": 22539, "gain": 24402, "\u2581Glasgow": 28170, "CR": 6496, "Or": 2996, "ictions": 20119, "ody": 1942, "\u2581\u0441\u0432\u043e": 7046, "\u2581Roll": 13094, "olog\u00eda": 24579, "\u2581assure": 26278, "\u2581Papa": 27859, "\u2581curv": 27250, "oment": 20091, "acio": 20635, "\u6a2a": 32017, "izioni": 24779, "\u2581AU": 28731, "\u2581Cant": 21984, "\u2581\u0441\u043e\u0441\u0442\u0430\u0432\u043b\u044f": 20758, "most": 3052, "AspNet": 13973, "\u2581\u0440\u0430\u0439\u043e": 14927, "\u2581copied": 24541, "\u2581fueron": 19250, "\u2581tourists": 26081, "\u2581Wien": 27703, "weise": 15415, "\u2581t\u00e9": 21427, "\\_": 14816, "imit": 9149, "ler": 2291, "\u2581beating": 19569, "BOOL": 28549, "\u2581representing": 14798, "\uc5c6": 30731, "\u2581dream": 5767, "\u2581tops": 28027, "[control_628]": 630, "\u043d\u0438\u0446\u0430": 18738, "cls": 17491, "\u2581\u0442\u0440\u0443": 27003, "\u0442\u0435\u043b\u0435\u043c": 27914, "\u2581Constant": 15888, "\u2581Kiss": 28426, "\u0448\u0438\u0445": 16762, "\u2581Ext": 10913, "\u5b8c": 30242, "LIMIT": 27490, "\u1ef1": 31268, "fter": 1578, "ifier": 4359, "<0x5C>": 863, "\u2581topic": 9835, "\u2581domin": 10009, "\u2581Final": 10990, "iest": 12049, "\u2581Fif": 17064, "\u2581rodz": 28663, "ZERO": 29071, "v": 29496, "\u00e8re": 3996, "\uc2dc": 30004, "\u2581rear": 12878, "\u2581######": 15200, "\u2581stating": 24398, "Internal": 9661, "\u2581theoretical": 19260, "\u9690": 31124, "\u2581pens": 13579, "\u51e6": 31557, "SR": 10555, "\u043c\u043e\u0432": 20032, "Symbol": 10764, "\u50a8": 30948, "land": 1975, "\ub825": 30394, "\u2581crist": 25665, "Google": 17690, "\u2581Kent": 13811, "\u2581Hou": 14948, "gos": 21127, "[control_390]": 392, "\u2581Element": 12258, "\u2581Ban": 15627, "\u2581Tell": 16027, "\u2581\u0445\u0430": 20307, "alom": 26527, "rogen": 26270, "ponse": 2173, "ideo": 3323, "\u2581\u0423": 4143, "\u2581inf": 5087, "\u2581tot": 2977, "[control_547]": 549, "\u2581redistribute": 16731, "\u2581constants": 20416, "oin": 3216, "\u2581keen": 20773, "\u2581seinem": 18110, "\u2581Palace": 21405, "\u2581hearing": 10556, "\u2581p\u00fablic": 24680, "\u00f3j": 26598, "\ube0c": 31841, "\u2581\u0433\u0430": 13974, "\u2581Input": 12000, "(-": 7190, "otimes": 9562, "evalu": 21634, "\u2581concentr": 9670, "uk": 3718, "tls": 22676, "Record": 7847, "\u2581collabor": 9016, "\u2581habit": 6957, "\u2581portal": 22242, "\u2581honor": 10280, "\u2581Book": 6505, "\u2581tickets": 16319, "inating": 12019, "\u043b\u0435\u043a\u0441\u0430\u043d\u0434": 16877, "encias": 19811, "\u063a": 30389, "\u2581Yu": 27192, "\u8986": 31847, "\u2581rating": 16238, "[control_222]": 224, "\u2581comb": 3774, "\u0442\u0443\u0440": 10707, "codec": 11757, "\u2581\u0438\u0433\u0440\u0430": 21412, "\u2581f\u00f6rst": 24490, "[control_393]": 395, "\u2581collapsed": 23199, "\u2581simulation": 17998, "\u04cf": 32237, "\u2581par": 1708, "[control_446]": 448, "\u2581compre": 11483, "\u0440\u0435": 1568, "?!": 18791, "\u00a9": 29770, "\u2581etc": 5113, "aj": 1918, "\u2581elabor": 17020, "\u2581gonna": 10343, "ext": 1973, "\u2581\u0441\u0442\u0435": 20544, "\u2581spectrum": 12834, "uve": 23090, "\u2581Android": 13422, "aru": 25112, "actic": 20353, "\u2581lur": 27682, "categories": 25656, "\u2581dragged": 20980, "\u2581engage": 14968, "\u2581discovered": 9092, "\u2581tea": 10278, "xA": 18946, "\u2581Sav": 11978, "::_": 22080, "\u012f": 31490, "[control_301]": 303, "sur": 8699, "\u2581folks": 13925, "\u2581indicating": 18656, "\u2581ion": 20232, "\u2581{$": 21601, "ested": 8616, "\u2581#": 1190, "\u2581@": 1570, "egy": 26143, "DEV": 8109, "\u2581Coun": 5598, "Validator": 17506, "\u00ce": 29760, "\u00e4ck": 28609, "\u2581magazine": 11827, "\u043a\u0430\u043c\u0438": 22005, "\u2581Jahr": 7389, "emor": 29472, "\u2581[\"": 8135, "\u2581Ern": 14597, "\u0101": 29698, "\ub82c": 32611, "\u2581CONTR": 18221, "\u2581slot": 11312, "\u2581consum": 7056, "[/AVAILABLE_TOOLS]": 7, "ood": 1772, ".\r": 6256, "t\u00f3": 10477, "\u2581entertainment": 15943, "\u2581conv": 4989, "\u0398": 31162, "\u7a2e": 31977, "\u0432\u0438": 2219, "Wait": 11077, "Stop": 11311, "\u2581playing": 5311, "base": 3661, "PART": 28837, "stan": 14279, "\u2581passing": 10488, "iego": 9724, "rif": 11554, "\u2581Current": 11697, "\u2581Sound": 15579, "\u2581patience": 22637, "\u2581financing": 28206, "\u0456": 29581, "LY": 10648, "ohl": 17442, "\u5de5": 30255, "\u2581Budd": 14540, "\u2581test": 2137, "hend": 13437, "\u2581Give": 16872, "\u2581Tat": 28855, "\u2581Term": 11532, "\u2581skull": 21949, "ressed": 10793, "holders": 16291, "\u0441\u043a\u043e\u0458": 25504, "\u2581MAX": 12419, "questa": 23830, "acement": 7235, "\u00f1os": 9244, "Cloud": 13881, "cery": 21090, "tain": 12860, "\u30d3": 31153, "\u2581Meg": 15687, "----------": 17185, "[control_318]": 320, "[control_583]": 585, "\u2581,": 1968, "\u2581cour": 2315, "\u2581farms": 27996, "../../": 5058, "\u2581helic": 20392, "ement": 1884, "\u6536": 30275, "\u7d9a": 32077, "\u2581Aub": 27852, "\u2581Metro": 26057, "ially": 2697, "\u2581legis": 15632, "Sets": 25912, "gold": 28551, "iso": 13187, "\u2581buried": 14996, "\u2581\u0424": 4879, "\u2581latach": 20870, "sted": 17952, "\u2581mothers": 22342, "\u2581banking": 23033, "\u53d7": 30922, "\u2581Thor": 21284, "\u2581Near": 18370, "\u2581Olymp": 9330, "\u2581counted": 22272, "every": 20430, "\u2581Family": 11480, "\u2581icon": 10228, "\u1eeb": 31733, "\u2581artificial": 19046, "\u2581foot": 4099, "\u2581citt": 18308, "\\\">": 21872, "\u2581m\u00fas": 19623, "anny": 9804, "ICENSE": 8709, "FAIL": 13314, "\u2581chi": 21252, "\u2581surrounded": 14929, "ic": 1062, "anel": 7611, "\u2581involve": 18284, "atre": 7963, "\u2581agenda": 21526, "\u061f": 31540, "\u4e2d": 29759, "arden": 6467, "ocur": 29225, "put": 1527, "ugar": 18963, "\u2581Nob": 11957, "\u2581partie": 14629, "\u2581Judge": 21747, "anner": 7809, "Mass": 27418, "\u2581weitere": 25676, "\u0109": 32730, "ylvania": 14962, "\u6599": 30501, "\u2581varied": 21099, "\u2581Turkey": 18683, "\u2581sen": 6119, "\u25cb": 32037, "\u2581regional": 12676, "\u2581USD": 23626, "void": 3596, "MB": 6721, "\u2581altered": 26748, "\u4ecb": 31507, "\u2581So": 2305, "ership": 5213, "oped": 12184, "verso": 28252, "TextBox": 28596, "\u2581eff": 2165, "ceptor": 19701, "\u2581contrast": 10117, "\u2581\u0434\u0432\u0430": 18257, "^^^^": 28425, "\u2581shares": 14076, "\u0e44": 30730, "\u56fd": 30221, "\u2581follow": 2140, "\u2581AM": 11169, "Because": 17866, "\u2581stalk": 25841, "vol": 4639, "\u3052": 32735, "\u2581rocks": 16367, "\u2581write": 4092, "\u2581boot": 12584, "\u2581scenes": 15148, "\u178f": 31228, "\u2581DVD": 16598, "\u017cy": 12372, "\u2581pent": 15862, "ringe": 23427, "\u2581son": 2734, "intendo": 26235, "\u0982": 32650, "\u2581Ry": 16739, "window": 5915, "irty": 8253, "\u2581pill": 11605, "\u2581argc": 25673, "\u2581micro": 8585, "\u2581hasta": 12307, "[control_370]": 372, "\u2581dressed": 13220, "\u2581grinned": 22257, "ED": 2674, "\u2581Perhaps": 10215, "\u2581changes": 5203, "\u2581pron": 13472, "ID": 1906, "\u2581satisf": 5632, "\u2581pu": 5921, "\u2581union": 11552, "ello": 5276, "\u2581Animal": 27492, "\u2581coat": 13388, "\u2581legacy": 18192, "\u0442\u0430": 1714, "\u2581Nag": 18250, "\u2581incon": 18678, "[control_139]": 141, "\uc601": 31246, "\u044e\u0442\u044c": 15379, "\u2581kiss": 9142, "\u2581health": 3296, "\u2581'{": 23698, "gro": 26112, "gex": 10000, "emed": 18007, "quate": 17548, "nis": 12533, "\u05bc": 30680, "\u03c3": 29784, "<0x91>": 916, "ading": 8604, "Named": 22717, "aterial": 3239, "\u2581depart": 6048, "controller": 12285, "\u2581trash": 18234, "\u2581she": 1398, "\u2581partic": 2482, "iffer": 11639, "\u2581Impro": 22599, "eland": 14710, "ali": 5595, "\u2581\u043f\u043b\u0430": 13222, "\u2581Sara": 24133, "folk": 26085, "\u2581force": 5042, "SEE": 28438, "\u2581praised": 29061, "\u21d2": 31525, "Big": 6941, "<0xEE>": 1009, "WI": 15513, "\u2581locks": 26115, "\u2581harm": 7009, "Once": 16882, "backs": 19844, "\u2581bru": 17343, "accur": 26086, "Drop": 13243, "\u2581Additionally": 17337, "ws": 7188, "Checked": 19922, "\u2581Olympic": 20171, "RED": 13234, "warf": 22315, ",\\,\\": 29458, "PER": 7280, "forced": 19551, "\u012b": 29769, "\u2581wx": 15598, "[control_372]": 374, "City": 22781, "\u2581power": 2750, "Note": 12973, "\u2581\u0421\u0438": 13198, "panic": 20539, "\u2581credits": 22530, "\u2581Gam": 25151, ".\"": 1379, "':": 2637, "\u2581Pay": 10028, "members": 21440, "[control_467]": 469, "\u2581Return": 5339, "\u2581grab": 8058, "VO": 13307, "\u2581gathering": 18011, "\u0432\u0435\u0440\u0441\u0438\u0442\u0435": 18143, "\u2581Silva": 29423, "CONNECT": 28250, "\u2581unt": 2651, "\u2581ciudad": 15647, "\u2581Through": 10859, "lie\u00df": 14688, "unes": 11824, "\u2581\u043a\u0430\u0442\u043e": 14894, "\u6703": 31100, "\u2581concert": 15328, "[control_720]": 722, "MC": 8582, "\u2581Based": 17926, "\u2581really": 2296, "igten": 28366, "\u521b": 30117, "\u2581clue": 25281, "Unlock": 26943, "\u2581teachers": 11648, "\u505a": 30717, "isto": 19842, "\u043d\u0438\u043c": 9663, "\u2581ell": 14813, "\u2581It": 1429, "\u2581bounded": 18211, "nbsp": 14857, "<0xA5>": 936, "\u2581sea": 6931, "\u2581longitud": 29397, "\u6b63": 30070, "\u2581pills": 20204, "<0x41>": 836, "\u2581permission": 10367, "\u2581liber": 7940, "[control_575]": 577, "yle": 2255, "Work": 6826, "\u2581hacia": 22443, "helpers": 20711, "\u5712": 32067, "Height": 6582, "\u2581Agency": 19266, "\u2581Mic": 9758, "ouses": 17575, "\u2581trailing": 27934, "oko": 19658, "\u2581\u0440\u0430\u0439\u043e\u043d": 21424, "[control_56]": 58, "must": 20727, "\u2581comedy": 19755, "\u2581Cas": 8962, "\u63cf": 30465, "\ubcf4": 30245, "Load": 5159, "Public": 14908, "nas": 17173, "techn": 23975, "\u2581recognised": 29317, "\u2581\u0438\u043c\u0435": 12113, "listed": 24294, "\u2581grows": 21150, "\ud83d\ude06": 31789, "<0xC2>": 965, "\u2581foods": 14850, "\u2581login": 15338, "\u2581Ian": 18079, "\u2581leads": 9449, "\u2581carb": 24935, "\u2581administrative": 17861, "rgb": 14994, "TextView": 27322, "\u2011": 30462, "\u2581species": 7786, "BLOCK": 16536, "\u2581tournament": 15577, "agra": 16976, "\u5806": 32500, "der": 1594, "TR": 2818, "\u2581Research": 8750, "\u2581Academ": 9287, "isms": 11589, "\u2581Black": 5545, "anta": 9860, "specific": 16358, "\u2581caus": 4367, "nodes": 13101, "\u2581rou": 17916, "Db": 13939, "\u2581electronic": 13944, "\u2581Jag": 19440, "bum": 4005, "[control_258]": 260, "\u2581breathe": 21213, "\u2581\u044f\u043d\u0432\u0430\u0440\u044f": 26837, "\u5931": 30036, "nv": 17653, "\u2581femme": 25808, "\uae30": 29932, "\u2581PRO": 8265, "\u2581PH": 11831, "Instruction": 18834, "\u2581worthy": 21988, "/%": 23005, "\u2581agre": 7039, "\u52a1": 29992, "\u0447\u0435\u043d": 8700, "\u2581occ": 3039, "Drag": 19151, "oba": 19209, "\u2581exception": 6619, "\u9580": 31799, "\u2581performed": 8653, "<0x51>": 852, "[control_400]": 402, "\u2581\u043f\u0440\u0435\u0434": 7746, "Assert": 9483, "ureau": 12010, "ografia": 14205, "\u0441\u0442\u0432\u0430": 7006, "\u2581do": 1279, "\u252c": 31652, "reddit": 15022, "istas": 14269, "Ag": 14627, "ixed": 3930, "\u2581merge": 14741, "\u2581Herz": 22794, "\u092e": 30440, "\u2581subsequently": 19178, "Labels": 22007, "\u2581transitions": 27591, "\u54c1": 30114, "\u2581VA": 26915, "\u2581usually": 5080, "\u2581pip": 26184, "ision": 2290, "ouri": 18105, "nals": 26581, "\u2581fitted": 21931, "\u2581globe": 22657, "\u2581Silver": 15279, "unden": 17204, "zej": 19639, "ificial": 15541, "\u2581defensive": 19074, "\u2581wildlife": 28811, "getKey": 29202, "\u2581possession": 18917, "\u2581Sports": 13952, "\u2581operations": 7701, "\u2581buffer": 6264, "ceived": 9878, "\u2581luego": 27667, "\u2581\u043a\u0438": 13670, "arette": 19177, "storage": 11873, "\u2581\u0434\u0440\u0436\u0430": 26544, "\u2581Patri": 23523, "\u2581outcome": 14888, "EL": 3748, "NC": 10187, "icos": 9136, "\u2581adapted": 23195, "\u2581editorial": 27491, "elve": 11815, "iley": 14659, "\u6cb9": 32083, "\u2581ed": 2150, "\uc73c": 30351, "(": 29500, "\u2581sequences": 23224, "\u2581Jahrhund": 14820, "\u2581assert": 2945, "\u2581Had": 12006, "\u2581format": 5800, "\u2581breeze": 25052, "<0x73>": 886, "ifs": 13611, "\u2581Francesco": 28526, "\u8054": 30589, "\u2581Matt": 7917, "\u00f6rd": 13230, "\u2581\u0438\u0441\u043f\u043e\u043b\u044c\u0437\u043e\u0432\u0430": 29426, "\u0e19": 29946, "\u2581buildings": 10470, "Hist": 9458, "deserialize": 26457, "\u2581DMA": 23941, "oons": 27386, "\u2581faz": 26174, "\u2581Country": 13776, "rection": 20213, "\u2581tax": 4715, "river": 6118, "\u2581pour": 3437, "ship": 5528, "tti": 21867, "\u2581might": 2427, "eze": 20729, "ependant": 27342, "\u2581Hat": 24560, "\u2581zum": 6871, "\u2581Am": 3508, "\u2581hide": 9891, "\u2581utterly": 25122, "\u83ef": 32133, "O": 29530, "\u044c": 29590, "\u00c9": 29669, "\u2581conservative": 16806, "printf": 5399, "Country": 28841, "\u2581Solutions": 25574, "\u2581Mitchell": 21840, "\u51cf": 31376, "\u2581GC": 23046, "\u8f09": 32130, "tta": 19784, "ugno": 24867, "\u2581Ba": 10004, "clear": 6974, "\u2581executive": 12980, "[control_409]": 411, "\u2581tear": 17265, "\u2581\u0442": 4033, "\u2581Chron": 24735, "\u6ce8": 30071, "\u2581prayer": 16283, "Fin": 12259, "\u753a": 31756, "ERROR": 5500, "\u56db": 30650, "\u2581Margaret": 17965, "furt": 22680, "\u2581rise": 9186, "nan": 16481, "\u2581Still": 9822, "m": 29487, "\u5fb7": 31139, "\u2581backed": 18521, "\u2581Advent": 20540, "\u2581Im": 3004, "\u2581Software": 7351, "[control_465]": 467, "\u2581leadership": 10570, "\u2581Po": 6232, "uno": 13349, "\u2581Castle": 17853, "\u5706": 31720, "\u2581finds": 13165, "Side": 16938, "\u2581\u0441\u0442\u0430\u043d\u043e\u0432\u0438": 21974, "\u2581\u0447\u0435\u043b\u043e\u0432\u0435\u043a": 23421, "rotate": 26907, "\u2581sizes": 14050, "\u2581clubs": 15185, "\u0650": 30189, "allas": 15299, "\u2581colon": 8807, "\u2581Publish": 20443, "\u2581Lang": 14318, "\u4e45": 31410, "\u2581Let": 3937, "Diff": 19099, "cols": 24460, "\u2581destruct": 26042, "illo": 11919, "\u2581\u0412": 2287, "aul": 3625, "AS": 2877, "\u2581sunlight": 23718, "\u2581(!(": 15374, "\u52a9": 31046, "\u2581temporary": 14183, "\u90e8": 30005, "hal": 6787, "\u2581dar": 9216, "\u2581advis": 15077, "True": 5133, "\u2581avoided": 23161, "gmail": 24537, "halt": 19042, "\u0457\u0432": 25067, "\u2581\u044d\u0442\u0438": 28103, "\u2581suitable": 12401, "oose": 13238, "Interface": 7218, "\u2581vl": 15165, "\u2581czas": 24674, "\uba74": 30333, "\u043d\u0430\u0442\u0430": 11560, "\u1ed5": 31454, "\u2581Sac": 17987, "inho": 25809, "ard": 1256, "\u2581comprehensive": 16081, "Bind": 13509, "ey": 2205, "hind": 16432, "ikk": 28937, "\uc22b": 32098, "\u2581gre": 4424, "[control_623]": 625, "TA": 6874, "\u05e9": 29923, "\u2581North": 4732, "\u2581operation": 5993, "\u2581Wi": 17262, "Direction": 15525, "Callback": 7078, "ribu": 15917, "\u2581midnight": 23262, "\u8bf7": 29835, "records": 29025, "\u30db": 32008, "\u2581Ils": 26079, "\u09ac": 30867, "\u5ba1": 30988, "\u2581versions": 11799, "\u2581mush": 25832, "LAN": 10327, "\u2581pack": 2931, "cro": 22939, "Pointer": 9406, "\u2581registers": 24594, "LEAN": 27693, "\u2581Orchestra": 28844, "\u2581notice": 6408, "\u2581faces": 10958, "\u021b\u0103": 25823, "<0xC9>": 972, "anges": 6665, "posed": 5249, "Do": 5725, "\u2581links": 9904, "\u2581hab\u00eda": 11812, "\u2581disaster": 18041, "izaci\u00f3n": 25237, "iking": 16808, "fas": 18052, "\u2581imported": 27427, "\u2581vale": 28978, "\u2581\u0437\u043d\u0430": 10580, "\u2581Nom": 13823, "oa": 18310, "\u2581release": 6382, "\u2581Eval": 24991, "[control_728]": 730, "\u2581plat": 25242, "\u2581nil": 3114, "=$(": 26879, "iNdEx": 26668, "ospel": 20200, "\u65ad": 30164, "\u2581clos": 4145, "yrics": 20359, "\u2581dit": 8820, "\u2581acted": 21152, "All": 3363, "\u2581Cong": 6969, "ului": 12724, "express": 25506, "\u6301": 30337, "\u2581upper": 8048, "\u2581\u0441\u0442\u0440\u0430": 14256, "\u2581encuentra": 23645, "utschen": 16293, "ERCHANT": 13745, "aler": 17119, "\u2581Middle": 12141, "LEASE": 26402, "Num": 6186, "\u2581Julia": 20294, "minus": 16298, "THE": 26666, "\u00e1g": 8811, "CE": 3322, "[control_240]": 242, "\u2581bur": 5332, "\u2581applications": 9197, "COMM": 14222, "\u2581attribute": 7604, "\u0432\u043e\u0457": 25388, "remarks": 21946, "essa": 12594, "\u2581branches": 16175, "\u2581Lucy": 18778, "\u2581tunnel": 18145, "\u2581frowned": 22210, "\u2581pic": 12704, "trigger": 12159, "VOL": 26155, "\u2581Zw": 20446, "\u0544": 32631, "\u2581Prize": 20519, "\u2581vehicle": 8882, "\u2581extraord": 15345, "\u056b": 30703, "\u2581fils": 24839, "itals": 15195, "with": 4183, "\u2581li": 1403, "\u2581treat": 4131, "\u2581buddy": 26891, "icon": 4558, "\u2581*\u00ab": 27579, "\u9675": 32361, "ateurs": 20139, "\u2581Rad": 7212, "\u2581sempre": 23405, "\u2581\u0418\u0441\u0442\u043e": 20470, "\u2581\u00cen": 22461, "\u2581discover": 5959, "\u2581impossible": 9081, "ILED": 17862, "INSTANCE": 26724, "ieden": 21432, "ako": 7818, "\u2581owners": 11471, "\u17bb": 31829, "\u2581considered": 5293, "Mad": 23530, "\u000b": 31406, "\u2581remembering": 26804, "\u8a8d": 31465, "\u043e\u0433\u0440\u0430\u0444\u0438": 15552, "\u2581often": 3376, "\u2581confusion": 17398, "\u2581intend": 23490, "\u2581dated": 22615, "\u01a1": 30502, "gov": 14701, "ucht": 19881, "\u2581fileName": 26633, "=\"_": 29127, "etto": 20483, "\u5c5e": 30206, "\u2581Wal": 7186, "\u2581n\u00e3o": 12390, "\u2581virtual": 9020, "orf": 8568, "enn": 2948, "Merge": 22561, "enue": 25297, "());": 2425, "qa": 20027, "\u2581purchasing": 22088, "\u0577": 32569, "Fac": 21054, "INT": 3713, "\u72c2": 32737, "\u2581retired": 16219, "\u2581Facebook": 9256, "\u0444\u043e\u0440": 11881, "\u2581Archives": 29245, "t\u00e9": 12182, "\u2581\u043f\u0435\u0440\u0438\u043e": 21060, "\u2581Pra": 17765, "\u2581/*": 2153, "tokens": 20996, "\u2581entry": 5673, "\u2581incidents": 27870, "from": 3979, "\u2581Err": 6598, "\u2581\u00a3": 8410, "\u2581assertThat": 16907, "\u2581closest": 17192, "<0xDC>": 991, "[control_212]": 214, "\u2581});": 3544, "\u2581autres": 18497, "\u2581deposit": 18203, "itutes": 20313, "\u2581colored": 22925, "mobile": 19790, "\u2581Rum": 23938, "\u2581Rachel": 17532, "eping": 12502, "IDS": 20722, "iour": 28058, "\u0442\u0430\u043d": 13448, "\u2581EV": 11520, "Identity": 13098, "\u2581measurements": 16848, "\u2581estimated": 12677, "\u2581gray": 12638, "\u2581improving": 17520, "\u2581\u041a": 2456, "\uc57c": 31031, "peonato": 20455, "\u2581Phoenix": 23996, "\u2581studying": 15096, "\u2581objet": 25107, "ct": 1078, "DEBUG": 9065, "\u2581widget": 16933, "boldsymbol": 8801, "\u2581lattice": 19892, "\u2501": 30007, "instance": 6009, "\u2581tu": 9350, "okal": 24124, "\u2581nouveau": 20109, "leted": 6395, "\u2581\u043e\u0441\u043e": 15280, "anno": 12829, "\u2581Count": 4933, "\u2581instances": 14058, "\u2581acquired": 14946, "samples": 24745, "\u2581Dig": 10872, "\u2581yourself": 4704, "rot": 6258, "sd": 6616, "(((": 11901, "CLIENT": 23923, "padding": 14480, "une": 2570, "Def": 3237, "\u09cb": 31586, "\u2581Ch": 1457, "icio": 15725, "Unknown": 13092, "\u2581redd": 16280, "\u2581together": 3321, "bird": 19611, "Equals": 6402, "\u2581geldig": 19856, "\u2581invas": 29374, "ishes": 8905, "\u2581faster": 10324, "lage": 21305, "\u042a": 31813, "\u2581path": 3207, "\u2581Miss": 6354, "\u2581Bro": 4936, "Tor": 22827, "\u66fe": 32444, "\u2581curves": 19237, "\u517b": 32636, "\u2581somet": 5146, "\u2581wider": 18293, "iesa": 22901, "\u2581car": 2021, "\u043d\u0433": 8289, "\u2581\"+": 17321, "\u2581likes": 13440, "\u2581Pink": 25041, "\u0127": 31598, "\u2581desarroll": 23689, "descriptor": 18093, "ask": 1920, "\u2581raise": 8002, "\u0433\u0438": 3939, "ights": 3920, "\u2581desperately": 25022, "\u2581Mama": 26347, "route": 12601, "\u2581[];": 10733, "ada": 2308, "white": 11403, "\u2581engagement": 16381, "\u2581integrated": 16415, "userId": 24258, "\u0649": 30359, "\u2581cand": 14699, "\u2581Chase": 27436, "right": 2014, "\u2581pant": 20172, "\u91cf": 29963, "lie": 6483, "dorf": 25473, "inta": 21694, "arto": 26737, "\u2581rebell": 25748, "\u2581harmony": 20279, "ailable": 2994, "\u2581Salt": 22711, "[control_708]": 710, "\u2581foreach": 12695, "\u0083": 31245, "\u5f81": 31745, "kc": 17785, "White": 19497, "\u2581mobil": 25390, "\u2581sensitive": 14277, "\u2581queue": 10927, "\u2581enterprise": 19123, "AT": 1730, "\u2581fold": 10836, "\u2581titre": 21128, "\u043c\u0430\u0442": 24686, "\u2581Required": 23671, "\u2581\u0413\u0435\u0440": 22228, "\u2581anderem": 29424, "\u2581hitting": 18460, "\u2581sect": 24631, "ixa": 28143, "acci": 28895, "\u2581comparison": 11135, "\u2581Fil": 4827, "onymous": 13696, "\u2581central": 6739, "rov": 12388, "\u2581ang": 4488, "\u2581territo": 27140, "wq": 24287, "\u0e33": 30800, "\u2581\u0436": 9705, "Found": 8895, "\u2581Norway": 23831, "\u2581right": 1871, "could": 26095, "\u2581concepts": 17350, "\u2581dock": 20865, "ju": 9716, "\u2581aqu": 11786, "\u2581kept": 5326, "\u592a": 30743, "<0xC7>": 970, "\u2581Category": 19095, "\u2581curl": 29074, "\u0e01": 30024, "lg": 11718, "\u2581giornata": 24130, "\u2581card": 4916, "semb": 6418, "simple": 16498, "\u2581CM": 25036, "En": 2376, "\u2581Shir": 26727, "[control_185]": 187, "\u2581typed": 14681, "....": 4174, "\u2581create": 2999, "\u2581End": 6532, "\u2581Gl": 4419, "\u2581woods": 17516, "\u2581grav": 9969, "Pod": 14508, "\u2581pers": 4476, "pre": 2547, "endance": 16060, "\u4fe1": 29848, "inery": 17939, "\u2581toute": 23379, "\u2581increasing": 7256, "[control_668]": 670, "[control_692]": 694, "enta": 12617, "\u5782": 32428, "\u2581integer": 12352, "\u590d": 30052, "\u2581domestic": 13634, "ouch": 3972, "SPACE": 19661, "\u2581otro": 23209, "\u2581wounds": 25509, "\u2581enero": 27059, "enc": 1599, "\u2581Lay": 27039, "\u2581buffers": 29368, "\u2581var": 1731, "\u2581Occ": 16587, "\u2581summon": 22488, "\uc6b0": 30455, "peg": 17368, "}\\\\": 13853, "ici\u00f3": 24608, "\ub7a8": 32733, "\u2581like": 1505, "\u2581Rose": 11423, "\u2581attempting": 19057, "\u2581achie": 5278, "\u2581During": 6981, "stylesheet": 26752, "\u2581theme": 8103, "\u2581tucked": 27159, "\u9762": 29949, "\u0e1f": 31493, "\u2581\u0456": 3981, "\u2581\u0438\u043d": 9025, "\u1787": 32311, "\u2581ip": 9233, "atively": 7076, "Gate": 17253, "iche": 6448, "\u2581egy": 9832, "omorphism": 20674, "\u2581data": 1946, "DESCRIP": 25973, "\u2581Italian": 10856, "\uff1a": 29762, "<s>": 1, "Row": 6358, "\u2581costs": 7734, "\u00e8mes": 28741, "\u673a": 30131, "constraint": 27890, "\u2581zur": 6924, "\u2581\u043c\u043d\u043e\u0433\u043e": 21348, "\u5144": 32712, "pf": 10786, "\u2581Alpha": 27678, "\u2581absent": 21079, "\u65cb": 31795, "\u2581Prim": 16827, "\u2581ett": 10715, "ellt": 18401, "}}$,": 25901, "\u2581civil": 7027, "\u2581phrase": 15572, "\u2581curios": 20257, "{\"": 7567, "backup": 27846, "\u2581jap": 29431, "\u2581voy": 16313, "ain": 1194, "\u2581\u043f\u0438\u0441\u0430": 25984, "\u2581videos": 11274, "Geplaatst": 16506, "[REFERENCE_DOC_9]": 761, "\u2581con": 1147, "\u2581Marshall": 18817, "\u2581IBM": 26477, "two": 11629, "\u2581rental": 19576, "\u2581U": 1268, "\u2581flaw": 23672, "SYNC": 24639, "\u2581depicted": 29032, "\u2581EDIT": 25413, "mapsto": 25487, "\u2581kingdom": 18550, "\u8f49": 32391, "\u2581teenager": 28769, "\u2581\u00da": 28814, "orge": 4584, "tabs": 25624, "ethe": 14102, "oret": 11775, "IDE": 15855, "Unique": 21498, "scrib": 24186, "[control_342]": 344, "\u2581\u041d\u0438": 12272, "empty": 5745, "Green": 23759, "\u2581febbra": 27599, "\u2581Tuesday": 11955, "\u2581weakness": 19056, "lbl": 28717, "\u2581anywhere": 10298, "ears": 6708, "download": 18127, "ither": 2708, "\u2581){": 23699, "\u2581Russell": 18068, "direct": 10191, "TEMP": 22059, "\u2581naked": 16681, "\u514b": 31097, "\u0441\u0442\u0440\u043e": 10339, "Method": 4710, "\u2581Ord": 23172, "NA": 4152, "\u2581greed": 25941, "\u2581terror": 9875, "\u2581Store": 13997, "\u2581iz": 10113, "))\r": 15436, "Column": 4883, "\u2581capit": 17577, "SYSTEM": 28610, "\u2581swallowed": 24714, "and": 1159, "amps": 11759, "\u00fchr": 8504, "<0x66>": 873, "\u2581cuando": 14215, "\u2581fino": 23430, "\u2581Vancouver": 24018, "\u2581hurry": 25155, "fur": 27479, "\u2581interviewed": 28946, "\u2581Swedish": 23445, "ceive": 12410, "\u2581CONDITIONS": 12999, "ng": 1585, "\u2581id": 2678, "[control_545]": 547, "[control_23]": 25, "Extension": 11198, "sequence": 17473, "\u2581seized": 25332, "\u2581\u0431\u0440\u0430": 18283, "\u043c\u0438\u0440": 21317, "\u2581beh": 2601, "\u2581options": 3645, "[control_349]": 351, "\u2581Sch": 2377, "Out": 3687, "iten": 7097, "mad": 13947, "\u2581Prix": 18694, "avan": 19640, "\u2581Ruth": 19711, "\u4e07": 31336, "\u2581give": 2879, "\u2581wondered": 11430, "\u2581scientific": 11237, "\u00d3": 29893, "\u2581imports": 29133, "\u2581Jos\u00e9": 13137, "prise": 10034, "\u2581been": 1518, "\u2581joined": 8066, "\u2581solar": 13792, "primary": 13293, "uese": 24431, "iro": 5580, "iami": 15349, "\u2581keyboard": 19841, "Execution": 12012, "\u0446\u044e": 24765, "CLU": 29122, "\u00b3": 29971, "DIRECT": 20556, "\u2581Afr": 5468, "only": 5809, "\u2581SN": 15490, "<0x99>": 924, "\u66ff": 31320, "Users": 15076, "\u2581ago": 4352, "\u2581andra": 27390, "\u2581slic": 18109, "\u00eat": 19542, "\u2581technically": 26322, "til": 2935, "\u2581pb": 28701, "Gap": 27722, "\u2581Supreme": 15655, "HR": 16965, "\u2581Joh": 9638, "Struct": 11521, "Apr": 28522, "<0xFA>": 1021, "Comment": 14385, "\u0441\u0456\u0439": 24788, "random": 9889, "\u2581implemented": 14260, "igt": 9103, "\u2581information": 2639, "\u2581Kelly": 16050, "\u2581farther": 21704, "\u2581ihren": 25229, "\u2581flights": 23215, "\u2581};": 3105, "i\u00e7\u00e3o": 19760, "arante": 7971, "\u2581substance": 19445, "\u0447\u0430\u0442": 23324, "\u2581Bas": 7595, "\u2581followed": 5729, "\u2581systems": 5686, "\u2581\u0431\u0430": 8228, "\u2581endless": 19052, "\u2581Jahren": 15297, "Operand": 14842, "~~~~": 12670, "Ant": 14157, "\u2581zm": 20291, "\u2581Russian": 8866, "rand": 12987, "\u00e1s": 3275, "\u2581ty": 14704, "cong": 26691, "[control_236]": 238, "\u2581WARRAN": 7552, "\u2581basketball": 17150, "\u2581auction": 25797, "STR": 5340, "\u2039": 30690, "alt": 3072, "DAI": 23483, "\u2581fil": 1985, "ser": 1225, "quad": 4381, "iglia": 23384, "\u519c": 32306, "\u2581anth": 20787, "\u2581blade": 18511, "\u0d9a": 32678, "man": 2062, "\u2581surprise": 9750, "Loop": 15728, "[control_567]": 569, "*/\r": 10591, "\u2581terrorist": 26659, "\u2581virtue": 25653, "\u03c1": 29765, "\u2581Leg": 6761, "ampionship": 7661, "Entries": 21990, "\u2581miejsce": 23075, "\u8bed": 30660, "\u2581\u043e\u0434\u043d\u0430": 25078, "\u2581musicians": 22663, "\u2581flu": 14625, "\u2581Venezuela": 26075, "\u2581designated": 21212, "\u7ae0": 30906, "\u2581Father": 12200, "RV": 20346, "\u2581crown": 23486, "\u2581approximately": 11638, "uity": 26007, "\u2581fresh": 6906, "\u2581besides": 19300, "\u2581doing": 3316, "\u2581clan": 26518, "\u00f0": 29860, "elson": 15582, "ULT": 5642, "\u81f3": 30835, "\u03cd": 30227, "web": 5079, "\u2581explicit": 10397, "\ucd9c": 30626, "\u203a": 30293, "\u5212": 31559, "\u2581Privacy": 25952, "stein": 7327, "\u2581ball": 5142, "):": 2097, "\u2581sphere": 22285, "opacity": 25334, "\u2581seas": 29211, "Pipeline": 20958, "\u691c": 31716, "\u2581homosexual": 28803, "\u2581diplom": 14295, "HasColumnType": 19007, "\u2581easier": 7857, "holds": 20588, "\u2581swe": 4785, "aws": 6963, "Behavior": 23640, "\u0013": 31221, "\u2581Glen": 18297, "pler": 15700, "\u2581milk": 11760, "\u2581defaults": 21700, "\u05b0": 30829, "mont": 15794, "\u015bci": 7984, "\u2581disk": 12063, "\u2581place": 2401, "\u2581legisl": 16173, "\u2581laid": 11303, "\u2581input": 3555, "\u2581flags": 7577, "\u2581frequency": 11778, "\u2581Avoid": 27806, "\u2581girl": 3514, "\u2581chairs": 18306, "\u2581\u043f\u0440\u043e\u0433\u0440\u0430": 24230, "\u2581ing": 4923, "iver": 2791, "\u2581demands": 15815, "resize": 16906, "\u679c": 29866, "mid": 8809, "\u2581fig": 3762, "Help": 18070, "\u2581devient": 23893, "agement": 3780, "lia": 8029, "[control_548]": 550, "\u2581Schema": 24819, "\u2581gep": 14920, "\u044f\u043d": 16015, "cca": 15466, "unter": 17210, "\u043d\u0430\u0440\u043e\u0434": 20156, "Balance": 25085, "\u2581\u043c\u0435\u0442": 26044, "ismiss": 28945, "\u2581Saturday": 9281, "\u2581((": 3511, "\u2581rank": 7361, "\u2581INT": 14057, "\u2581predomin": 28051, "\u2581renown": 28324, "umin": 10635, "atta": 17142, "aste": 5403, "\u2581Vel": 15580, "\u2581Yale": 29130, "Resolve": 29255, "ammen": 13844, "\ubb34": 31217, "\u0018": 31323, "\u2581cloud": 7713, "Init": 5284, "\u1d00": 31861, "\u2581discrim": 15024, "\u2581lin": 13661, "\uc5b8": 31624, "\u2581stairs": 13765, "unst": 12902, "\u2581religion": 10816, "drag": 21550, "Repository": 9581, "\u2581cousin": 17790, "seen": 18994, "ii": 3541, "\u2581termin": 14320, "\u2581properly": 9990, "<0x42>": 837, "board": 4284, "\u2581romantic": 17302, "Engine": 7771, "\u2581skills": 7034, "\u2581balls": 17620, "\u2581DR": 23205, "\u2581Mah": 11715, "Bytes": 8744, "\u2581schedule": 10210, "\u2581satell": 18113, "\u2581assumption": 15544, "ENABLED": 24556, "\u2581ry": 25548, "\u2581Business": 8479, "\u2581Lav": 27237, "amiliar": 27963, "\u2581Drug": 28595, "\u2581Erst": 28995, "\u0449\u0430": 7538, "memory": 12104, "\u2581inserted": 24279, "\u2581scan": 13562, "\u0432\u0430\u043d\u043e": 26938, "\u2581ged": 29298, "\u2581use": 1706, "\u2581dragon": 19752, "\u2581Item": 13563, "\u2581visitor": 20214, "\u2581innovative": 17595, "\u5217": 29918, "\u2581serve": 7799, "\u2581influ": 5533, "\u2581thrown": 12814, "\u2581close": 3616, "\u2581Son": 7947, "\u2581unf": 10845, "\u5929": 30122, "Att": 3285, "\u2581technological": 27283, "\u2581reduce": 8411, "[control_274]": 276, "icans": 7603, "Phi": 8874, "ele": 2411, "boot": 10214, "<0x39>": 828, "\u2581cs": 8196, "flex": 14739, "\u2581sigh": 20321, "Mvc": 19029, "illance": 23508, "\u2581commitment": 13874, "\u2581scary": 24725, "\u2581Como": 25196, "\u010den": 29384, "\u2581Batt": 18314, "\u2581hill": 13022, "\u2581Daddy": 28157, "\u2581Hillary": 28352, "abe": 8015, "\u2581Nixon": 24937, "energy": 19553, "\u17cb": 31658, "\u2581quelques": 23557, "\u2581Spencer": 28093, "ailed": 3152, ";}": 26838, "play": 2442, "Cost": 18800, "\u2581Wend": 23793, "\u2581Spain": 13335, "Convert": 17079, "Ins": 18389, "\u2581university": 11307, "\u0159e": 22379, "HTML": 10754, "\u79bb": 31022, "\u2581comenz": 28852, "\u2581Two": 6773, "unted": 15995, "tagon": 18114, "GIN": 21624, "\u2581crow": 6838, "\u2581hosted": 19590, "\u043b\u0430\u043d": 11096, "\u2581Lewis": 13899, "DOM": 16189, "istan": 8462, "itsch": 22926, "\u2581insp": 6455, "<0xB7>": 954, "\u2581\u0444\u0430": 13543, "\u2581Nap": 12397, "Box": 4882, "hover": 21403, "touch": 20904, "\u2581mamm": 28222, "ulle": 17808, "<0x37>": 826, "asma": 22067, "ols": 14078, "\u2581series": 4286, "\u2581grande": 12575, "Split": 17758, "\u0440\u0435\u0434": 7686, ")).": 9466, "}\r": 3287, "ounced": 15039, "kh": 16655, "Produ": 18216, ">\")": 27229, "\u627f": 31529, "\u2581boundary": 11682, "ward": 1818, "\u2581forms": 7735, "mathsf": 12777, "\u2581safely": 17135, "\u2581EM": 23447, "\u2581\u0423\u043a\u0440\u0430\u0457": 16284, "[control_697]": 699, "\u2581receives": 22183, "\u0441\u0442\u0456": 9477, "\u2581bra": 12783, "ww": 2334, "\u2581phenomenon": 21525, "\u2581migration": 19347, "\u2581Eug": 19002, "CI": 6494, "ligt": 21523, "})$.": 23780, "\u2581Sw": 4672, "\u2581Jug": 19011, "\u2581Rain": 18542, "plements": 10380, "alue": 1440, "\u03af": 29889, "\u2581grap": 28300, "\u2581neither": 9927, "\u2581h": 1063, "\u0434\u0438\u043d": 10941, "\u2581\u0442\u0435\u043c": 21013, "\u2581Barry": 21161, "[control_237]": 239, "\u2581appeal": 14418, "interpret": 17557, "dai": 27630, "\u00d1": 30608, "ento": 13441, "\u2581Carr": 28407, "ible": 1838, "\u2581veter": 13768, "\ubc29": 31008, "tainment": 19787, "undef": 25851, "\u120d": 32509, "\u2581Marg": 10917, "\u2581stub": 15369, "\u2581customers": 6456, "ir": 1129, "criptors": 23534, "\u6298": 31969, "\u2581Southern": 12799, "ployee": 16967, "\u2581Mall": 20866, "\u2581neigh": 5811, "\u2581birds": 13548, "\u2581reflects": 25113, "\u2581behave": 26961, "\u2581nel": 5519, "\u043a\u0440\u0430\u0457": 12060, "ultane": 14901, "\u2581readonly": 11025, "\u2581lad": 10544, "\u2581Marx": 20168, "\u0003": 31430, "\u2581vertex": 14951, "\u2581suits": 22321, "uelle": 19821, "\u2581er": 2002, "\u2581classe": 21119, "Was": 23416, "esch": 6057, "\u2581oppos": 6561, "\u2581Psy": 13788, "athon": 20421, "\u093e": 30000, "necess": 17940, "\u2581lux": 12735, "\u2581uns": 10982, "src": 4246, "============": 23336, "\u064c": 32743, "yles": 6164, "kill": 21198, "\u2581causa": 21581, "usement": 25630, "):\r": 21126, "ANY": 21369, "wij": 24999, "\u2581SP": 15368, "umbling": 24259, "\u9b54": 31178, "\u2581vic": 13819, "\u968f": 30947, "[control_602]": 604, "\u2581BSD": 27177, "\u2581guerra": 16096, "boy": 15571, "allo": 24682, "\u6846": 30629, "Di": 9642, "\u2581\u0441\u0440\u0435\u0434": 18971, "ateral": 21802, "\u2581shower": 13932, "\u2581prospects": 26908, "\u2581choose": 5755, ",-": 8435, "rog": 10385, "\u2581Jahrhunderts": 29082, "\uc0c8": 31761, "\u0430\u0440": 3130, "oplus": 18512, "\u7ec7": 32268, "\u043e\u043d\u0430\u043b\u044c": 12722, "\u2581four": 3076, "OPT": 18722, "\u9593": 30764, "\u2581effective": 6413, "LI": 5630, "\u2581DB": 12432, "ponential": 26491, "\u69cb": 32601, "\uae09": 32331, "oco": 9996, "\u2581Arn": 18153, "Groups": 15726, "\u043b\u0430": 1768, "serv": 2240, "<0x93>": 918, "aching": 10796, "\u2581Looks": 28452, "\u2581sob": 22437, "irl": 2924, "\u2581phr": 24428, "oter": 27279, "\u2581m\u00e9t": 21833, "\u2581'',": 10583, "\u2581{'": 12780, "\u2581pp": 9116, "IGN": 9424, "\u2581bc": 28315, "\u2581congress": 23460, "\u2581rep": 2326, "\u6218": 31040, "CONTEXT": 27949, "\u0444\u0438": 5749, "Bas": 11604, "\u2581matched": 17701, "\u2581Returns": 7467, "Review": 26629, "\uc6b8": 32526, "\u2581drug": 8644, "Runtime": 9176, "azar": 22132, "ern": 1941, "\u2581affect": 5965, "stop": 7666, "\u2581Kinder": 24554, "\u2581Liz": 24812, "\u2581Mar\u00eda": 21279, "\u2581heroes": 24727, "\u2581operates": 24783, "\u2581\u20ac": 18184, "\u2581Jerry": 19944, "\u2581advoc": 12649, "\u2581hook": 9593, "\u2581Soci": 26776, "frames": 20072, "\u2581fen": 28210, "reed": 3584, "\u2581deb": 6433, "construction": 19287, "it\u00e9": 4742, "izen": 20852, "[control_264]": 266, "\u2581Platz": 15590, "family": 13251, "\u2581\u043a\u043e\u0440\u043e": 17441, ">": 29535, "\u2581Dec": 7480, "\u2581Scott": 8404, "\u2581gentle": 11202, "green": 14002, "\u05e2": 30063, "\u2581Git": 28671, "\u2581coeff": 13394, "\u2581climate": 12027, "\u2581Band": 11289, "chars": 24160, "\u2581resid": 13667, "\u2581Questions": 25721, "\u99c5": 31786, "\u2581Joel": 27127, "\u2581Pok": 21611, "\u2581publications": 24079, "\u2581San": 4420, "\u0cbf": 31530, "\u2581explanation": 14036, "transaction": 15324, "\u2581plac": 20995, "ign": 1371, "\u2581Frank": 5558, "\u2581atomic": 19859, "DEFAULT": 10901, "<0x49>": 844, "\u2581sympt": 11568, "\u2581straight": 5623, "yd": 4157, "annt": 13872, "elen": 11455, "\u2581Content": 13926, "\u2581banks": 14051, "\u2581Bh": 19579, "\u2581Last": 8458, "\u2581rig": 11304, "ipp": 16721, "\u2581Three": 10441, "\u4e2a": 29763, "MAN": 17125, "izi": 16091, "\u5f15": 30312, "\u2581used": 2075, "\u745e": 32661, "\u2581accompl": 10373, "cted": 2915, "\u2581aud": 5554, "\u2581actions": 7536, "\u2581hes": 11584, "\u7ec3": 31715, "\u2581recall": 9364, "at": 1038, "RES": 9972, "\u2581naar": 13315, "DESC": 14853, "\u2581Prior": 21612, "teen": 7266, "\u2581fan": 8422, "after": 8560, "FLAGS": 17519, "\u2581http": 4318, "UUID": 21801, "ABILITY": 10055, "cie": 9809, "\u2581energies": 23740, ":%.*]]": 28224, "urn": 1221, "\u2581\u0431": 2047, "\u2581vector": 7974, "\u0434\u0435\u0440": 11846, "\u2581reward": 12267, "\u2581==>": 28520, "\u2581\u0441\u0435\u0440\u0435\u0434": 28968, "\u008c": 31304, "\u2581Hamiltonian": 24325, "leen": 27711, "\u2581Broadway": 25099, "\u2581beginnetje": 16507, "\u2581grown": 10807, "aged": 3337, "\u2581\u041e\u0434\u043d\u0430": 29259, "\u2581trump": 23713, "\u2581flower": 15762, "\u2581whilst": 19471, "fect": 3561, "\u2581sand": 7598, "diction": 25505, "Quest": 15697, "\u2581comme": 7470, "[control_205]": 207, "\u2581medieval": 23991, "Root": 8751, "\u51fd": 30065, "\u2581oz": 25168, "'),": 5597, "\u2581pseudo": 26959, "Miss": 15020, "\u0438\u043c": 15392, "Pool": 9790, "getText": 21589, "\u2581healing": 16700, "hba": 21312, "notification": 21244, "\u4e32": 30291, "\u2581quando": 16208, "var": 1890, "phant": 18721, "\u4e4c": 32622, "\u2581assigned": 12168, "\u2581talented": 22480, "\u2581fellow": 9596, "req": 4412, "\u2581payload": 14756, "\u2581rifle": 20195, "\u2581easily": 5829, "\u2581mach": 9273, "ikt": 15347, "<0x3E>": 833, "\u2581RT": 17827, "ysk": 19593, "\u4ed3": 32031, "\u2581citizens": 10661, "\u2581hosp": 18456, "\u2581Ireland": 11938, "aka": 9157, "\u9001": 30202, "\u2581Bud": 7863, "\u2581unnecessary": 23144, "ula": 4480, "[control_45]": 47, "havior": 14393, "\u043d\u0438\u043c\u0430": 13397, "\u2581',": 16014, "\u2581Convert": 16954, "\u2581triumph": 21074, "bigg": 21885, "\u2581Medical": 12963, "begin": 2125, "\u2581Dylan": 25056, "\u2581anten": 26708, "ede": 7265, "\u2581dort": 19955, "[control_710]": 712, "\u2581concent": 8017, "\u2581Davis": 14403, "\u2581stability": 16905, "assign": 13663, "\u2581habitantes": 23343, "\u2581bunk": 27962, "\u2581definit": 5720, "\u2581important": 3046, "FTWARE": 15174, "\u2581penis": 24503, "\u653b": 31434, "NP": 25025, "\u2581[[": 8838, "+(": 25761, "\u2581au": 3273, "mee": 27433, "WORD": 11761, "\u80cc": 31170, "\u016b": 29753, "\u2581dec": 2053, "\u2581Observ": 16719, "\u2581Cher": 13681, "esk": 20425, "DI": 4052, "formance": 12546, "\u2581haut": 25141, "\u2581Mex": 7642, "\u2581Parl": 28318, "cfg": 7013, "\u2581Green": 7016, "oard": 21214, "\u76f4": 30357, "\u62e6": 32317, "opt": 2410, "HER": 8889, "TIES": 9509, "\u043d\u0435\u0439": 13524, "\u2581autor": 14022, "\u2581pollution": 28470, "\ud83e\udd21": 32138, "\u2581Anc": 24720, "\u2581MY": 19525, "\u2581(!": 2429, "\u2581nad": 13546, "()))": 10627, "och": 4810, "\u2581obra": 22603, "percent": 19567, "Contract": 17510, "\u2581lambda": 25166, "Sig": 25815, "\u2581piece": 6279, "\u2581missions": 23993, "\u00ean": 27609, "\u2581perhaps": 5998, "[control_568]": 570, "\u2581ar": 1365, "\u6269": 31476, "ES": 3023, "ions": 1362, "mal": 10777, "\u2581engineer": 18880, "[control_711]": 713, "\u2581Library": 11580, ".');": 27916, "\u2581identified": 11016, "\u9a8c": 30270, "\u4ece": 30273, "SIZE": 5913, "ktop": 14207, "\u00e9l\u00e9": 19078, "shots": 27107, "\u2581begann": 26096, "\u2581undert": 17121, "upiter": 24538, "\u3051": 30801, "image": 4843, "amp": 1825, "db": 3452, "\u2581Especially": 21306, "\u2581shelves": 28969, "endment": 19688, "half": 19350, "\u2581secolo": 25516, "Pt": 27094, "\ubcf8": 31303, "condition": 12826, "eves": 23683, "\u2581gets": 5507, "Cr": 19557, "\u2581heard": 4132, "\u2581Senate": 14210, "aining": 2549, "whe": 16599, "\u2581modes": 15623, "pci": 19697, "\u2581mouse": 13501, "\u2581cou": 3274, "\u2581holy": 19982, "ounce": 11586, "\u2581spons": 13207, "\u2581previous": 4222, "\u2581S\u00e9": 29155, "\u1f30": 31912, "Lim": 25009, "\u2581Liverpool": 21602, "\u513f": 31683, "god": 22184, "zech": 15395, "\u2581$|\\": 27076, "zw": 13680, "PIN": 18872, "\ud589": 30862, "\u202c": 31355, "\u2581Paris": 6233, "insi": 12506, "\u2581FC": 9906, "\u2581ARM": 24312, "\u2581Bull": 17766, "\u2581Exhib": 29290, "\u2581decid": 26976, "\u2581sat": 3263, "n\u00fd": 24928, "Points": 16396, "\uc2ed": 31970, "\u2581ces": 12612, "\u8d4b": 31591, "\u2581tender": 21370, "\u2581zu": 3923, "\u2581coming": 4292, "zin": 27172, "\u2581temper": 5794, "Annotation": 17855, "toolbar": 24233, "\u2581dici": 24009, "\u0433\u043e\u0432": 26641, "\u2581AL": 11229, "Life": 22097, "\u0442\u0438": 1992, "\u2581silent": 11600, "\u2581\u0442\u043e\u043c": 22585, "\u5357": 30448, "bow": 12577, "\u2581attempts": 13967, "\u2581fires": 22368, "bh": 13909, "\u0432\u0435\u043d": 16995, "\u2581Moore": 17384, "\u2581Vien": 21904, "<0x9B>": 926, "\u2581speed": 5743, "arter": 4904, "Warnings": 25476, "\u2581On": 2186, "Comm": 4680, "\u2581wat": 5708, "\u2581sensible": 27349, "\u2581Fel": 12427, "lay": 8227, "\u2581nor": 5446, "\u2581modification": 20342, "\u2581rode": 18033, "\u2581even": 1787, "\u043f\u043e\u0432": 22665, "\u2581Sweet": 23361, "eed": 11964, "\u2581case": 1990, "\u2581url": 7623, "\u2581remote": 10076, "\u0438\u043b": 25730, "\u0404": 29803, "\u2581consequ": 8640, "\u2581Vincent": 21171, "\u2581practical": 11886, "\u2581respective": 18144, "\u2581corridor": 22318, "\u2581illustrated": 24978, "oss": 2926, "rename": 23546, "abil": 7340, "\u2581disappointment": 27588, "\u9891": 30798, "Bon": 29012, "\u2581hadn": 6771, "\u7e3d": 32704, "\u2581crush": 22755, "\u2581strugg": 6808, "\u2581noise": 9266, "\u2581tant": 16878, "yers": 16392, "\uc2b5": 30338, "\u2581f\u0151": 26254, "\u043c\u043e\u043c": 28414, "\u2581Vert": 22738, "\u2581damage": 7312, "[control_249]": 251, ":\"": 5593, "\u2581cod": 18896, "Dependency": 26584, "\u043e\u043b\u043e\u0433\u0438": 27868, "\u2581asked": 3029, "lm": 24942, "teenth": 21709, "invoke": 22426, "DER": 20366, "irq": 8185, "\u2581put": 2426, "\u2581identification": 20219, "\u2581Terms": 23990, "\u2581grades": 26665, "ska": 10651, "\u6dfb": 30213, "\u2581elderly": 23244, "\u827a": 32272, "\u0447\u0438\u043d\u0430": 19016, "rais": 27073, "\u2581sale": 8564, "\u2581Nas": 22780, "\u043b\u044e": 5206, "\u2581added": 4654, "\u2581effectiveness": 24566, "bio": 21467, "onds": 16547, "\u2581happiness": 15847, "########": 4358, "\u2581SI": 23545, "\u2581inaugur": 29177, "\u2581stopped": 6194, "ructions": 9141, "\u2534": 32036, "amerikan": 22556, "\u2581loader": 28185, "rip": 6154, "pas": 23096, "\u0917": 30935, "\u2581amplitude": 24925, "\u2581sl": 1903, "\u2581Grey": 22832, "\u7dda": 31269, "\u2581fa": 4354, "\u2581immense": 27259, "\u201c": 29603, "\u2581yo": 24702, "\u2581met": 2192, "Failure": 17042, "\u2581rt": 23203, "Sensor": 27001, "ah": 1680, "\u6eaa": 32258, "\u2581sb": 12183, "\u0c02": 32316, "ano": 3271, "\u2581Will": 3643, "\u2581inhab": 16502, "\u2581governments": 18243, "regon": 18623, "\u2581loudly": 28771, "\"\r": 12293, "reich": 10823, "^": 29583, "\u2581rand": 28354, "\u2581Wayne": 22201, "Mapping": 11411, "\u2581aur": 24670, "iable": 6877, "\u0432\u0430\u043b\u0430": 19614, "\u2581conscience": 26947, "\u0e0b": 31817, "\u2581assertEquals": 11230, "Warning": 16953, "\u2581Into": 27889, "UM": 4939, "\u2581alley": 29307, "Norm": 26376, "\u2581trans": 1971, "POS": 17721, "azione": 6117, "\u2581fault": 10451, "\u00a2": 30424, "\u2581Ho": 11256, "\u67b6": 31382, "\u2581nuc": 9291, "\u2581Va": 19554, "IL": 3002, "\u2581Med": 3766, "\u2581Tak": 19522, "\u2581___": 13960, "\u2581zak": 25241, "\uac80": 31205, "iddleware": 17720, "\u2581tone": 11062, "\u2581Pu": 23846, "iling": 6476, "\u2581winning": 10589, "\u2581macro": 19877, "ustain": 28069, "\u2581cone": 23648, "signal": 17298, "\u17c2": 32460, "\u2581Pent": 22387, "\u2581R\u00fcck": 26307, "\u2581stre": 3579, "\u00f3w": 4640, ">>": 4828, "\u1ea3": 30276, "\u2581certainly": 6553, "\u2581handles": 20522, "uffix": 18788, "\u2581inaug": 18714, "\u2581britann": 25974, "\u2581darkness": 12459, "\u25fc": 31574, "\u009b": 31689, "\u2581bike": 13813, "\u2581tobacco": 27633, "DA": 6337, "lab": 17615, "INDEX": 17126, "uable": 11268, "itzerland": 22013, "\u2581mom": 2716, "\u0441\u0442\u0440\u0438": 28110, "ind": 1275, "\u2581elegant": 21351, "[control_170]": 172, "\u2581tor": 5831, "\u2581Does": 10145, "Conv": 26714, "\u2026": 29646, "\u2581entertaining": 25929, "\u2581laws": 9195, "\u2581SE": 6588, "\u5171": 30823, "\u9662": 31138, "\u2593": 31792, "eau": 24292, "\u2581absorbed": 27764, "\u2581proceed": 9632, "\u2581computers": 19286, "\u2581picks": 24148, "\u09a4": 31161, "\u2581Rober": 5310, "\u2581at\u00e9": 25729, "\u2581tamb": 7690, "\u2581recording": 13508, "\u0148": 29794, "Return": 6936, "\u2581Arist": 25027, "[control_694]": 696, "RANGE": 26400, "\u2581\u044f\u043a\u0456": 23776, "inned": 11519, "iw": 12657, "\u2581spir": 15420, "User": 1498, "\u3067": 29998, "\u9060": 32532, "ion": 1064, "serve": 8456, "filters": 17635, "iken": 22185, "\u2581worse": 7639, "\u2581G": 1188, "dtype": 19689, "\u0432\u0435\u0442\u0430": 18603, "[control_227]": 229, "\u2581grandfather": 20068, "\u2581Picture": 28640, "\u2581something": 2313, "LENGTH": 18075, "agan": 13306, "\u2581enem": 14363, "\u2581lonely": 24043, "orio": 27562, "\u2581ander": 22256, "\u2581bin": 11476, "\u2581childhood": 13927, "\u2581velocity": 14237, "\u2581delayed": 22300, "BIT": 8938, "\u0639": 29808, "\u5df4": 31592, "\u2581experienced": 9072, "aft": 4229, "\u2581wages": 24878, "zung": 26165, "\u2581Sex": 14981, "\u2581Franc": 5464, "\u2581Islamic": 19686, "<0xEB>": 1006, "Jack": 27571, "erek": 22267, "\u094d": 30068, "\u0441\u043b\u0430": 15437, "\u2581mum": 28638, "Comp": 6607, "\u2581Enc": 18379, "\u2581danger": 6783, "\u2581Math": 7728, "ona": 4516, "\u2581comm": 1669, "\u2581sid": 22166, "UInt": 20871, "ayout": 3401, "ety": 5471, "order": 3042, "awt": 18170, "\u2581spare": 18325, "\u2581slope": 21680, "vma": 23151, "amar": 12137, "\u2581gard": 14605, "\u2581cr": 2207, "!!": 4714, "rag": 15574, "View": 2854, "\u2581flesh": 14831, "\u2581indices": 18621, "\u2581magnificent": 28342, "\u2581Gets": 15682, "\u2581ware": 21878, "eing": 22226, "ribe": 6516, "\u9898": 30032, "\u2581discount": 13479, "dr": 3690, "),": 1325, "\u2581spray": 19852, "speed": 13317, "govern": 27215, "\u057e": 31675, "kappa": 9522, "Allow": 20998, "\u2581{})": 25994, "\u4e9a": 31871, "\u2581Bour": 16846, "\u2581ott": 19905, "Scope": 9920, "Factor": 20937, "\u2581Afghanistan": 20524, "erve": 6571, "\u2581Colombia": 24706, "\ub79c": 32024, "\u2581scholar": 15334, "\u53c8": 31512, "\u2581aer": 22485, "\u2581excit": 15364, "\u00e9t": 3727, "[control_16]": 18, "\u2581\u0433\u0440\u0443\u043f": 18505, "\u2581meaningful": 20026, "\u2581sweet": 7989, "\u2581Flo": 15587, "\u8fce": 32134, "\uc640": 31043, "\u2581Zu": 22999, "\u0017": 31609, "\u2581Gulf": 23390, "\u2581sections": 13226, "\u2581{{": 14717, "code": 2177, "\u2581opens": 16474, "\u2581Caroline": 23985, "\u2581Denmark": 27254, "\u662d": 32612, "als": 1741, "\u2581misunder": 27438, "\u2581\u0434\u0440\u0443\u0433\u0438": 15133, "\u05b5": 31562, "\u043d\u043e\u0432\u0438": 12897, "\u2581beste": 20263, "nick": 23322, "[control_510]": 512, "\u2581technology": 6282, "loader": 13599, "\u2581communications": 17068, "\u2581cannab": 26529, "manuel": 28319, "\u2581upload": 13067, "\u2581reviewed": 24050, "pio": 15430, "\u2581harmful": 27067, "\uc2e4": 30759, "\u2581Mov": 27312, "\u6808": 31748, "paces": 27066, "COND": 24563, "\u0444": 29614, "ASH": 13090, "\u2581facing": 12749, "\u2581forg": 13474, "\u2581Anderson": 16429, "*),": 9919, "\u2581adult": 7323, "\u0434\u043e\u043b": 24787, "\u2581stern": 27658, "\u2581tours": 24042, "Schema": 8203, "\u2581damn": 10509, "\u2581disgust": 22304, "\u2581a\u00f1o": 14448, "\u2581dece": 23777, "ound": 1455, "\u2581aux": 6440, "$).": 23841, "tal": 16768, "................": 22975, "\u2581proven": 13366, "ocks": 8480, "\u2581lies": 11195, "\u2581taking": 4112, "There": 6584, "\u6b62": 30653, "\u2581couple": 5076, "\u2581March": 4885, "rale": 20057, "SY": 7126, "\u2581Temp": 28047, "\u2581nam": 11441, "MSM": 22198, "\u2581distribut": 3654, "indi": 24865, "oto": 3355, "Adjust": 24210, "[control_640]": 642, "\u2581policies": 10854, "\u2581\u0446\u0435\u043d\u0442": 13736, "\u2581low": 3627, "\u2581FIX": 22235, "cluded": 28364, "Rot": 14490, "\u2581expecting": 16318, "rl": 3968, "\u30b9": 29877, "perties": 3699, "\u2581placed": 7606, "\u2581Gent": 23748, "\u2581aggreg": 15322, "ass": 1257, "\u2581Falls": 25306, "\u2581hostile": 27384, "\u2581peas": 28417, "\u2581Hans": 11286, "\u2581deputy": 25944, "\u7d93": 31907, "('": 1625, "cular": 13491, "\u2581remaining": 9177, "\u2581connect": 6557, "atore": 12205, "subseteq": 19536, "\u2581expedition": 25118, "\u2581Quarter": 25159, "\u2581$(": 5219, "\u2581Tro": 11450, "\u0433\u0440\u0435": 22402, "\u2581instructor": 28447, "-)": 28114, "\u2581court": 6252, "\u2581framework": 11550, "Policy": 8523, ")((": 26821, "\u2581trust": 5661, "etime": 7012, "osto": 11351, "\u2581duration": 12732, "\u2581\u0412\u0441\u0435": 26383, "\u2581Wonder": 22718, "usz": 19413, "forms": 15135, "\u043d\u0430\u0447\u0430": 28458, "\u2581\u0433\u043e\u0434\u0438\u043d\u0435": 14795, "\u2581ValueError": 27146, "\u5347": 31169, "\u2581harder": 12551, "\u2581priests": 28445, "\u2581iss": 3025, "\u2581Digital": 14538, "\u2581President": 5888, "<0xD0>": 979, "\u2581clearing": 23407, "\u2581Wes": 20628, "\u2581Id": 7086, "\u30b0": 30422, "\u2581**_": 24037, "za": 2934, "osen": 6916, "\u2581Mono": 28232, "\u696d": 31972, "\u2581Legal": 22778, "\u2581of": 1070, "St": 1486, "\u2581Posted": 18085, "\ud83d\ude0a": 31232, ")}": 4228, "\u2581Sydney": 15237, "Visitor": 25564, "\u2581letters": 9949, "[control_15]": 17, "sing": 12369, "\u2581Matthew": 16073, "mb": 2525, "afka": 22935, "\u2581segunda": 27142, "\u2581stream": 5222, "adesh": 21598, "ainted": 21937, "\u2581picking": 16797, "parallel": 23836, "\u2581Canada": 6850, "Invoke": 22532, "Measure": 26009, "made": 16016, "\u9644": 31328, "\u76df": 32546, "\u2581rece": 2848, "[control_34]": 36, "\u2581star": 5348, "PT": 7084, "\u2581Edit": 13606, "illery": 20199, "maps": 19878, "Round": 23251, "\u2581media": 4845, "Heap": 22875, "Bel": 21316, "\u2581eu": 20700, "pgfpath": 12138, "\u2581brows": 20020, "\u2581Prime": 14089, "nosti": 22573, "\u2581despair": 26245, "\u2581chr": 28283, "\u2581particularly": 7079, "inar": 13707, "AL": 1854, "\u0421\u0420": 13170, "MEDI": 25017, "\u2581meditation": 24744, "\u2581Beat": 18386, "\u2581Liberal": 19504, "\u2581)": 1911, "\u01d0": 31140, "airo": 20528, "find": 4094, "\u2581Rat": 21644, "\u2581strongly": 13055, "\u2581Claud": 26398, "\u2581minister": 10938, "\u045a\u0438": 25628, "\u6807": 29912, "\u2581dramatic": 18064, "\u2581definition": 8294, "<?": 6125, "\u2581sounded": 13987, "\u2581physical": 6045, "ce": 1126, "\u2581SW": 14090, "ubl": 13105, "\u2581Among": 14695, "\u2581Warren": 19836, "\u2581approved": 13647, "\u2581annoying": 22837, "\u2581employees": 8664, "Memory": 10588, "\u2581\u043a\u043b\u0430": 15603, "hin": 15944, "\u2581\u0434\u0435\u0440\u0435": 16670, "ugh": 5563, "\u2581Emperor": 21477, "\u2581extens": 23764, "\u2581\u043d\u043e\u0432": 24612, "\u2581alliance": 26930, "ro": 1079, "In": 1425, "RL": 6187, "resolved": 23402, "()->": 5098, "kr": 6943, "\u2581modal": 23714, "\u03bb": 29795, "ITY": 5734, "():": 6656, "\u2581edited": 20295, "\u2581gepubliceerd": 18579, "emit": 13033, "uce": 13551, "isterschaft": 18419, "journal": 23676, "[control_66]": 68, "\u2581kol": 22540, "Mut": 12642, "\u2581\u0441\u043e\u0441\u0442\u0430\u0432": 13049, "\u2581profit": 12644, "emperaturen": 27060, "achten": 29347, "wrapper": 15486, "tras": 13191, "Cart": 17825, "\u2581having": 3229, "Rule": 8461, "\u2581Program": 8115, "\u0436\u0434\u0443": 14041, "\u2581builds": 24798, "\u2581ignored": 12157, "\u2581Indeed": 13644, "\u2581who": 1461, "hang": 15908, "\u2581Finance": 23582, "oler": 25240, "\u2581sorry": 8139, "\u2581Another": 7648, "onic": 9779, "\u2581stare": 20464, "nten": 21108, "\u2581contributor": 23808, "cho": 3183, "\u2581\u00e9c": 25456, "\u2581stole": 28381, "\u0178": 31090, "ope": 2613, "UB": 7638, "\u2581activated": 27792, "oving": 9027, "\u2581product": 2861, "Now": 9247, "YP": 26826, "Port": 7179, "\u043c\u043f\u0438": 13505, "\u043b\u044c": 1817, "Psi": 12274, "\u2581Ron": 10743, "\u2581stad": 14178, "STRU": 19967, "kie": 24151, "\u2581accord": 14014, "\u03ce": 30571, "extensions": 22966, "\u53d6": 29780, "\u2581Empire": 14425, "Ex": 1734, "\u00ea": 29644, "osi": 13449, "\u2581Zach": 27694, "\u2581RAM": 28618, "down": 4022, "formation": 2285, "seven": 28866, "\u2581commence": 26367, "\u2606": 30607, "\u2581Gene": 26089, "ennes": 13592, "\u2581cooling": 23333, "itor": 2610, "[control_169]": 171, "NODE": 15982, "conom": 3636, "<0xE5>": 1000, "\u2581sustain": 12523, "\u2581guidance": 16756, "\u2581personas": 23564, "\u2581awarded": 14827, "\u2581r\u00e9gion": 23995, "\u2581\u0442\u0430\u043a\u043e": 17397, "\u2581Le": 2105, "\u2581green": 6112, "\u2581prz": 8481, "opic": 23541, "\u2581haar": 24521, "ten": 1978, "\u2581Fortunately": 27410, "Amaz": 27566, "\u2581Train": 27803, "\uad6c": 30547, "\u2581rod": 17207, "[control_723]": 725, "\u2581beside": 10207, "hy": 6710, "\u2581Fair": 12355, "ails": 2782, "\u0421\u0421\u0420": 18908, "Features": 22995, "\u2581Lam": 17786, "CV": 20435, "\u2581junto": 22164, "\u2581h\u00e4": 23568, "\u2581audiences": 25228, "d": 29483, "\u4e8b": 30107, "\u7535": 30510, "zie": 10358, "[REFERENCE_DOC_2]": 768, "Bin": 20246, "\u2581appointment": 15119, "Ad": 4029, "issions": 5859, "glob": 24438, "<0xDB>": 990, "\u2581Optim": 28036, "[control_137]": 139, "\u043d\u0456\u0432": 19906, "oven": 9490, "\u570b": 31267, "\u2581Car": 3132, "\u65d7": 32380, "\u2581column": 5187, "\u2581expects": 28958, "anco": 17094, "chie": 4728, "\u2581score": 8188, "\u2581manifest": 11820, "PN": 13580, "\u2581Tw": 6620, "\u2581assuming": 17115, "calls": 29390, "\u2581\u041b\u0443": 17100, "python": 18435, "\u2581correction": 23329, "\u2581Series": 11032, "\u2581\u043f\u043e\u0431\u0435": 23904, "\u305a": 31787, "\u2581welcomed": 26865, "ahr": 9543, "Sql": 12571, "Trace": 10705, "\u2581Truth": 24749, "})": 2310, "\u2581examples": 10022, "rh": 29120, "\u2581onto": 6148, "\u2581drawings": 28531, "\u2581fine": 5201, "\u0130": 30104, "Friend": 23180, "\u2581methods": 6330, "\u10e9": 32295, "\u2581mask": 6702, "ener": 1558, "aint": 2458, "apor": 20613, "files": 7816, "\u2581cultures": 20594, "[control_154]": 156, "\u2581zusammen": 21235, "\u53eb": 31987, "\u2581weather": 8854, "\u2581ns": 10018, "\u2581n\u011b": 22268, "\u00f7": 30350, "Desc": 9100, "\u2581cov": 17377, "etic": 11130, "jas": 21258, "\u2581Switch": 21434, "\u963f": 31332, "\u2581\u043f\u0456\u0432": 22118, "\u2581Murphy": 24708, "[control_704]": 706, "\u2581cot": 14517, "\uc810": 31357, "PC": 4967, "\u2581cutting": 12932, "\u2581Heritage": 27297, "\u2581greeted": 28241, "single": 14876, "orry": 12766, "Hor": 17374, "iffs": 18588, "ysis": 4856, "\u2581tx": 11814, "\u2581plus": 4053, "\u2581Brend": 27656, "\u2581resur": 29076, "\u2581lic": 7356, "Repo": 27048, "ono": 6643, "\u2581entire": 4061, "ibli": 11566, "\u2581cup": 6979, "proposition": 27672, "uman": 7134, "Product": 8608, "\u2581clock": 10685, "\u2581Franz": 18440, "\u2581advantages": 19529, "\u2581laugh": 6531, "strings": 16924, "st\u00e4nd": 22359, "\u0bc6": 32344, "band": 4553, "\u2581sehr": 24956, "\u2581majority": 8525, "\u0153ur": 25395, "of": 1777, "Control": 6220, "auf": 8165, "tober": 13723, "\u2581staring": 13912, "\u2581Enjoy": 23591, "\u2581Associ": 6865, "\u0bc1": 30749, "TEXT": 9987, "\u2581linked": 12516, "\u2581dollars": 10175, "adem": 5015, "AM": 3622, "izione": 13537, "\u2581Ana": 23871, "negative": 24006, "adr": 24445, "\u2581performs": 26365, "---------": 26403, "\u7f6e": 29789, "\u9664": 29921, "cle": 2580, "\u2581life": 2179, "\ufb01": 30928, "\u2581opinion": 8150, "\u2581reserved": 9912, "\u044f\u0445": 20010, "\u2264": 30803, "\u2581Things": 16341, "\u2581Kur": 16508, "\u2581color": 3949, "\u2581Buc": 28821, "Dark": 26500, "\u2581insurance": 7687, "\u2581injuries": 16639, "[control_725]": 727, "\u2581periods": 16540, "\u2581painting": 12282, "Cl": 1967, "\u2581medication": 21627, "\u2581figures": 11157, "ups": 9791, "\u2581comfortable": 9218, "\u2581Henry": 7576, "\u2581availability": 19626, "\u2581tiles": 25671, "\u2581marginal": 26054, "gpu": 16230, "\u2581sidewalk": 28198, "hole": 21033, "definition": 15964, "\u30d7": 30290, "its": 1814, "\u9669": 32181, "\u2581pr\u00e9": 13591, "lease": 2687, "\u2581m\u011b": 18844, "[MIDDLE]": 12, "\u2581oppon": 14096, "\u2581mysterious": 22064, "\u2581Sha": 25640, "\u2581conducted": 13584, "\u2581}));": 26736, "bits": 8437, "ocate": 23105, "\u2581profitable": 28590, "gage": 12100, "\u5374": 32389, "\u2581ACTION": 29277, "\u2581vi": 3842, "hm": 17681, "\u2581photos": 9654, "netic": 21295, "\u4e1d": 32759, "\u2581wait": 3212, "ami": 7217, "amin": 9023, "\u2581Mini": 25553, "\u2581beans": 22654, "\u2581bug": 10847, "\u2581first": 1675, "\u2581hr": 16152, "\u2581relay": 25285, "\u2581terrible": 10551, "\u2581Jac": 7897, "\u2581F\u00fcr": 18802, "\u2581projected": 26406, "\u2581realistic": 20363, "k": 29497, "\u263c": 32328, "extension": 15298, "\u2581scheduled": 14641, "head": 2579, "Props": 8082, "\u2581morte": 24884, "CHANNEL": 24067, "\u2581extracted": 25849, "\u2581Rus": 17269, "\u2581quarters": 22910, "itat": 11884, "\u2581Choose": 22583, "Vo": 23387, "ipv": 22062, "itational": 26442, "\u2581currently": 6257, "\u00e1d": 12519, "\u2581pa": 6649, "Emb": 26609, "\u2581Bar": 3779, "\u2581Tennessee": 20561, "[control_601]": 603, "\u2581sing": 2691, "car": 7370, "\u2581require": 3467, "\u043c\u044b": 10147, "\u2581woj": 16638, "\u8d85": 30568, "anti": 8532, "\u2581growth": 6825, "\u2581DEF": 19667, "\u2581iteration": 23881, ">@": 25174, "enze": 28828, "\u2581invol": 4071, "\uc9c0": 29929, "\u2581zun\u00e4chst": 27245, "[:,": 29200, "\u2581shame": 15485, "ationale": 29149, "\u0447\u0438\u0442\u0430": 28517, "Run": 4645, "liter": 25245, "wm": 19665, "\u2581tele": 7352, "\u2581basement": 22234, "\u2581Denver": 24828, "rsp": 26109, "Param": 2901, "\u0f7c": 31930, "long": 5121, "Pack": 6700, "\u2581craw": 16985, "ousel": 26168, "\u2581wearing": 8960, "eu": 16578, "Valid": 5562, "diff": 12604, "\u0e49": 30086, "Nodes": 13442, "spec": 4869, "\u2581furniture": 13157, "\u2581woman": 3739, "aza": 11029, "\u2581headers": 13257, "inger": 5344, "atti": 17476, "wort": 29345, "\u2581m\u00e9": 13906, "\u2581blocking": 23306, "\u2581SPD": 24919, "\u2581Voice": 26583, "\u2581locked": 12190, "\ud074": 30971, "\u2581chin": 18186, "\u2581turning": 9296, "\u724c": 31092, "apeut": 26102, "\u2581punch": 19786, "<0x59>": 860, "lection": 2552, "\u2581Support": 11499, "GPL": 21173, "ications": 11167, "TY": 3520, "\u8d34": 30790, "\u2581sulla": 21755, "\u2581anyone": 4405, "upport": 4418, "\u2581Minor": 29162, "\u2581police": 5526, "java": 8396, "\u2581preserve": 18786, "\u043e\u0440": 3903, "\u00e9rie": 11094, "ribut": 1798, "\u2581cultiv": 17927, "\u2581their": 1420, "\u25cf": 30161, "\u2581YOU": 16247, "lig": 5078, "\u2581goodness": 28392, "\u6d0b": 32202, "\u5ead": 32694, "\u2581\u0414\u0436\u0435": 25458, "\u2581Send": 13478, "Environment": 16595, "\u2581M\u00e9": 17554, "\u015f": 29755, "Hel": 4501, "\u0947": 30354, "\u2581momentum": 14787, "\u2581dal": 8285, "iss": 1583, "\u2581empt": 29302, "\u2581Ad": 2732, "cover": 4417, "<0xBA>": 957, "ski": 6021, "\u2581dyn": 16918, "atch": 1623, "\u2581befind": 20624, "\u2581blown": 25763, "\u2581frames": 16574, "quest": 7679, "\u2581Hav": 24548, "mask": 6042, "\u5f3a": 31051, "\u2581\u0440\u043e": 3295, "\u2581lac": 25490, "\u2581\u015a": 19498, "\u2581porn": 17562, "\u2581living": 4455, "\u2581van": 2465, "\u2581Bad": 10502, "\u2581doesn": 3136, "\u17a2": 32147, "UTF": 14874, "\u2581acting": 11369, "eff": 7378, "\u2581Ort": 15646, "\u2581dia": 25326, "iforn": 6275, "\u4ef7": 30738, "\u2581dans": 3190, "\u2581Var": 13528, "\u6d25": 31993, "[control_271]": 273, "\u2581IL": 11196, "\u2581biological": 22317, "Delete": 7353, "\u2581trials": 20761, "\u2581september": 26262, "\u7bb1": 31030, "oston": 9178, "personal": 29313, "length": 2911, "\u0435\u0442\u043e": 25293, "\u30ea": 30074, "\u2581chose": 10776, "ense": 1826, "**************": 21566, "PHY": 22620, "List": 2013, "\u2581\u0430\u0431\u043e": 23628, "\u04c0": 32499, "\u2581calls": 7238, "\u2581algorithm": 10232, "\u043c\u0430": 2298, "[control_83]": 85, "\u2581uz": 26808, "based": 6295, "\u2581My": 2752, "\u2581pad": 9778, "\u2581Lim": 11377, "\u2581Practice": 26276, "\u2581last": 2200, "\u0219ti": 26020, "precated": 18907, "five": 13108, "heng": 29318, "\u2581NT": 27345, "\u2581construction": 7148, "\u2581pes": 13937, "\u2581Must": 15010, "\u2581outline": 23095, "\u2581automated": 28529, "\u2581S\u00fcd": 22217, "\u2581Come": 13346, "vf": 26585, "\u0449\u0438": 5290, "\u2581swo": 20921, "hu": 10306, "\u2581nog": 20108, "again": 27927, "\u2581stories": 6747, "\u2581deven": 25767, "Where": 10375, "\u2581Nov": 9283, "storm": 23007, "\u2581pu\u00f2": 28778, "UES": 24641, "berg": 4914, "aught": 4784, "_*": 23059, "\u9ed8": 30160, "\u2581countless": 24155, "\u2581describ": 3745, "\u2581Year": 8369, "\u56fe": 29951, "orth": 2985, "\u2581circles": 18868, "igs": 12646, "\u505c": 30920, "\u2581hotel": 8457, "\u7248": 30315, "ancies": 29249, "\u2581favorite": 7424, "[control_517]": 519, "[control_73]": 75, "itzer": 14512, "\u2581preview": 25971, "ourt": 17775, "jes": 17735, "\u2581ore": 15480, "\u2581apro": 19651, "\u2581gorge": 19731, "\u2581watching": 7033, "\u043a\u0441": 8119, "\u56e2": 31524, "\u2581safer": 26612, "\u2581venture": 21874, "\ud83d\ude4c": 32094, "\u2581OR": 4762, "pol": 4490, "sub": 2434, "ATH": 7913, "\u2581suppress": 23323, "\u2581hij": 7942, "etes": 10840, "usive": 7425, "\uc81c": 30294, "\u2581wealth": 9888, "\"],": 9651, "\u2581Confeder": 23242, "\u2581Palm": 29002, "\u2581auch": 6138, "wed": 14042, "\u2581stunning": 21265, "\u2581ut": 4502, "\u2581lovely": 13161, "\u2581Pi": 20256, "\u2581Conf": 10775, "pur": 15460, "\u2581Honestly": 26298, "\u2581sexy": 23878, "ignore": 15628, "\u2581categor": 21345, "\u2581Besch": 26999, "\u2581l": 1073, "\u2581j": 1229, "}({\\": 23613, "MIT": 25559, "\u2581Beijing": 27880, "ablo": 23634, "\u00e4ter": 13969, "\u2581adjusted": 22643, "\u2581disag": 13757, "\u0e4c": 30691, "\u2581Progress": 20078, "\u5feb": 30827, "\u2581\\;": 15463, "\u2581creep": 24459, "parent": 4450, "uper": 20143, "\u2581fatal": 20942, "\ud30c": 30574, "\u2581mostly": 8212, "\u2581ranges": 20209, "\u2581aggregate": 26041, "ologically": 24419, "\u2581length": 4343, "\u2581compilation": 27151, "plain": 20225, "\u2581transl": 8022, "avis": 20445, "\u2581Revolution": 14618, "\u00b2.": 20878, "[control_38]": 40, "\u2581tex": 23077, "<0xF3>": 1014, "\u0cc1": 31911, "\u9633": 30998, "\u2581Nether": 19609, "\u2581assh": 20690, "rund": 10033, "\u2581offensive": 18149, "idge": 5075, "\u2581lasted": 24121, "uffled": 27313, "\u0447\u043d\u0456": 27754, "\uc1a1": 31717, "\u2581abc": 19409, "\u2581({": 14502, "\u8d56": 32305, "\u2581curve": 12671, ">{@": 22852, "ASC": 28091, "\u2581B\u00fcr": 26890, "Auth": 9851, "\u043c\u043e": 2968, "ENC": 21082, "Rank": 25115, "Slot": 16225, "\ud2f0": 32177, "\u2581sost": 28266, "\u2581refuge": 15583, "STM": 27697, "Mon": 7883, "\u0456\u043b\u044c": 8129, "\u2581assignment": 16425, "fortunately": 10360, "\u2581expense": 20243, "saved": 22196, "\u2581Furthermore": 14463, "\u2581rb": 27869, "Wr": 17823, "\ud83c\udffd": 31775, "\u6885": 31991, "\u2581\u0445": 7225, "\u2581titolo": 22034, "Met": 5448, "\u2581\u0431\u0440\u043e": 20335, "\u2581\u0420\u043e\u0441\u0441\u0438\u0438": 19948, "\u2581\u043f\u0440\u0438": 3451, "Monitor": 20374, "\u30fc": 29758, "sson": 15310, "\u0641": 29825, "\u2581increase": 6015, "\u2581\u0420": 3167, "\u2581Consider": 12540, "\u2581otra": 26813, "\u2581Mass": 8344, "\u2581Cruz": 21167, "\u2581Int": 5434, "falls": 17536, "\u2581Harold": 25083, "\u2581\u0437\u0430\u043d\u0438\u043c\u0430": 29103, "setting": 15830, "om": 1068, "\u2581Agent": 24161, "cor": 5522, "\u2581accuracy": 14020, "\u2581Suddenly": 22223, "<0x1A>": 797, "gfx": 28372, "\u2581TD": 27284, "\u0432\u0430\u0442\u0438": 17002, "\u2581sow": 29457, "Observer": 18853, "itt": 1553, "\u2581besk": 12667, "\u2581dispon": 25831, "kind": 9954, "\u2581Hein": 19930, "hetic": 9464, "Queue": 10351, "\u2581consumption": 17066, "\u2581Pretty": 24879, "\u00f6l": 10726, "Da": 28440, "\u2581fisher": 28021, "\u2581XI": 28716, "\u2581viv": 14454, "\u2581oraz": 14523, "\u0435\u043d\u0435": 9745, "\u2581COMP": 22861, "\u2581\u0423\u043a\u0440\u0430\u0457\u043d\u0438": 22992, "\u2581\u0441\u0442\u0430\u043d\u043e\u0432": 16909, "Entry": 5677, "ulative": 21619, "\u2581electro": 22922, "Vis": 5966, "rit": 1640, "iat": 10116, "\u2581checked": 10449, "\u2581prv": 25717, "\u056f": 31244, "ysz": 28481, "\u9152": 31655, "\u2581joy": 10954, "grav": 26617, "\u2581Georges": 28929, "\u2581attempt": 5004, "\uc785": 30197, "istry": 5303, "\u00fct": 12038, "yal": 12268, "\u2581footage": 27304, "\u2581Region": 14133, "autre": 26306, "\u2581fields": 5848, "\u2581bond": 10178, "\u00fcn": 7517, "\u0441": 29556, "Saint": 27041, "\u2581User": 2015, "Null": 5006, "\u2581Philip": 8540, "options": 4306, "izing": 4632, "\u2581squad": 11078, "\u2581Select": 14109, "iop": 19840, "\u2581producing": 16113, "\u0442\u0435\u043b\u044f": 18139, "\u2581encode": 21655, "<0x80>": 899, "Ps": 28014, "\u2581isset": 20818, "ified": 2567, "CLUD": 17381, "sensor": 15785, "placement": 17908, "\u043b\u0435\u043d": 4765, "\u2581payments": 15691, "\u2581strang": 27195, "ached": 3462, "\u2581Ing": 20616, "Donald": 19147, "\u2581SO": 7414, "\uc0b0": 31104, "\u2581club": 5257, "nx": 20504, "\u2581Louisiana": 25037, "<0x86>": 905, "\u0679": 31402, "\u2581Ess": 12067, "\u9c81": 32692, "gp": 9167, "engono": 27732, "faced": 29446, "arity": 12678, "\u2581folder": 15017, "[control_77]": 79, "\u2581wallet": 13605, "j\u0105": 12772, "\u2581edges": 12510, "\u2581bell": 16444, "\u2581Professional": 16849, "\u2581kicked": 18212, "plex": 9667, "rive": 6784, "\u2581nell": 17252, "Listen": 18473, "nullable": 22545, "\u2581Flag": 25924, "\u2581Ces": 17865, "iciones": 24192, "roe": 23802, "\u2581Conne": 9539, "]])": 29192, "\u043b\u043e\u0432\u0435": 14355, "\u00bb": 29616, "BUFFER": 17174, "\u2581waist": 18300, "\u0412": 29617, "\u0431\u044b": 10860, "\u2581traff": 8444, "Intern": 19299, "\u2581parser": 13225, "\u2581rev": 5265, "\u2581Culture": 18564, "****************": 2161, "\u2581sam": 5313, "\u2581locations": 12061, "[control_197]": 199, "\u2581\u0433\u043e\u0440\u043e\u0434\u0430": 23084, "\u2581Cel": 18001, "\u2581Iron": 16299, "\u0630": 30377, "\u5854": 31934, "\u2581Crime": 25894, "\uc8fc": 30325, "[$": 8094, "\u2581Dim": 19520, "\u2581embarrassed": 26868, "\u2581united": 28202, "\u2581fn": 5379, "\u2581\u0421\u0442\u0430\u043d\u043e\u0432": 21664, "\u2581\u0443\u043d\u0438": 19682, "\u2581accept": 4226, "ead": 1877, "\u2581\u0414\u0435": 12488, "\ud83d\ude2d": 30753, "Enter": 13171, "\uc77d": 32583, "oot": 2309, "\u2581Ges": 12229, "ellan": 23429, "[control_456]": 458, "\u2581posit": 14907, "ieme": 25523, "ick\u00e9": 26937, "or": 1039, "\u2581circuit": 16074, "\u2581spy": 22616, "\u2581ocean": 14761, "bere": 24946, "\u2581gef": 18009, "\ub3c4": 30367, "Mouse": 13005, "\u043a\u043b\u0430\u0434": 28448, "values": 6435, "[control_423]": 425, "ines": 2071, "gue": 20070, "craft": 6774, "\u2581created": 4627, "\u2581Lit": 25771, "\u179c": 32180, "\u2581${": 6819, "\u043a\u0430\u0437": 26440, "\u2581entries": 12275, "autres": 22008, "\u2581\u0415\u0432\u0440\u043e": 24068, "New": 3740, "\u79d2": 30777, "includes": 20227, "\u05e8": 29843, "uld": 25550, "~~~~~~~~": 23538, "\u2581\u0441\u043b\u0443\u0447\u0430": 28892, "\u2581victims": 14748, "\u2581presence": 7471, "vspace": 16679, "\u2581Diamond": 25959, "\u2581\u041c": 2662, "\u2581Salv": 18625, "gorith": 6128, "\u2581Kas": 23733, "\u2581felt": 3538, "<0xA9>": 940, "\u2581Maine": 24347, "teil": 14852, "[control_746]": 748, "\u2581kall": 27376, "\u2581missing": 7693, "\u2581cells": 9662, "\u2581gift": 8643, "sem": 6135, "Content": 4697, "SL": 7023, "\u2581Mas": 9951, "cite": 2703, "\u2581looked": 3150, "ifi": 11041, "Intent": 19636, "\u571f": 31558, "\u2581secre": 15806, "\u5b8f": 32702, "[control_164]": 166, "\u0129": 31168, "\u2581node": 3947, "\u2581sequ": 6099, "\u2581Miguel": 21731, "\u0446\u0438\u043e\u043d\u0430\u043b\u044c": 20872, "\u2581onde": 26515, "ization": 2605, "\u2581Nederland": 21115, "\u0409": 30983, "\ub9d0": 32021, "pid": 10275, "\u2581kter\u00fd": 28930, ")\\\\": 24295, "\u2581bear": 9903, "\u2581retire": 26801, "[control_59]": 61, "\u2581Captain": 12178, "\u2581\u043f": 1378, "Attachment": 27847, "eq": 2441, "twitter": 23515, "autom": 23801, "\u0437\u0434\u0430": 11161, "\u8aaa": 32334, "\u2581np": 8262, "\u2581tension": 16570, "}-": 9535, "gl": 2495, "\u2581\u043c\u043e\u043b\u043e": 24297, "\u2581Democratic": 13589, "FN": 17815, "ife": 1795, "\u2581Requ": 8019, "\u6838": 30848, "\u62d6": 32222, "ief": 4185, "WAIT": 24576, "\u2581Manuel": 21529, "ounge": 25114, "UR": 2758, "auc": 14926, "\u0441\u044c\u043a\u043e\u043c\u0443": 27128, "\u2581arom": 27603, "\u2581bod": 8414, "\u2581tries": 15512, "\u2581llam": 18388, "\u2581influences": 27154, "unal": 25532, "\u2581Secretary": 14819, "ario": 4524, "\u2581p\u0159": 7678, "\u2581s\u00ed": 18770, "elem": 12802, "\u2581Bund": 13351, "\u2581UP": 23896, "\u2581vita": 24397, "ansk": 19037, "emph": 8651, "\u2581Dou": 9876, "[control_457]": 459, "\u2581$_": 9744, "\u2581\u0441\u043a\u043b\u0430": 14862, "\u2581reflection": 18039, "Customer": 19245, "\u2581jego": 23448, "[control_417]": 419, "rost": 28616, "\u2581sixt": 18698, "exp": 5896, "\u2581raison": 27533, "latest": 22296, "\u6389": 31295, "\u2581fl": 1740, "\u2581crit": 3958, "\u2581Fu": 12625, "\u2581Carolina": 12202, "\u2581Arizona": 18057, "\u2581K\u00f6nig": 21377, "\u0448\u0435\u043d": 16204, "\u2581ric": 14805, "nd": 1060, "vc": 9672, "Generator": 12221, "\u2581jerk": 20516, "Bucket": 21983, "signed": 3550, "\u2581patron": 21135, "illon": 17617, "fare": 19136, "dash": 25685, "\u2581urgent": 26744, "\u0426": 29696, "ket": 11072, "\u544a": 30683, "\u2581insult": 18209, "\u0435\u0434\u0438": 22965, "\u043d\u0438\u0446\u0438": 17138, "\u2581user": 2956, "entity": 6352, "\u2581repeated": 10100, "sert": 1889, "\u0578": 30605, "\ud130": 30433, "fortun": 8642, "[control_589]": 591, "\u2581genuine": 17736, "berger": 24027, "ral": 2418, "\u2581city": 3758, "\u2581Montreal": 26413, "rought": 4696, "\u5ef6": 31416, "nod": 26945, "PASS": 21667, "\u2581else": 1880, "r\u00e9": 10714, "\u2581representation": 10051, "Single": 13125, "\u30ab": 30413, "\u2581\u00e8": 4241, "uster": 4631, "\u2581eleven": 20574, "dern": 23270, "\u2581Bet": 7150, "\u2581placing": 21400, "\u2581wel": 6429, "\u2581\u0438\u0437": 3647, "pa": 4851, "\u2581Dutch": 15506, "\u2581rope": 20586, "\u2581radi": 17661, "amy": 28081, "\u2581standards": 10658, "uetooth": 20205, "\u0442\u0438\u0439": 19739, "hren": 22894, "sembled": 20989, "\u2581amongst": 19408, "[control_674]": 676, "\u2581fierce": 27886, "Sprite": 23241, "ativity": 29051, "\u30ae": 32075, "bol": 3097, "rightarrow": 7719, "\u00f6\u00df": 19805, "\u2581Module": 20462, "etr": 12950, "\u2581amount": 4326, "\u2581beautifully": 27856, "DITION": 11928, "\u2581TX": 18447, "[control_78]": 80, "\u2581Screen": 25200, "\u2581pci": 28350, "\u3079": 31916, "\u2581\u044f\u0432\u043b\u044f": 16975, "<0x50>": 851, "\u043f\u0443\u0431\u043b\u0438": 17956, "olds": 5626, "\u2581therapy": 13006, "^^": 14726, "\u2581diagnostic": 24128, "\u2581ultra": 27368, "\u2581shoes": 11484, "\u2581Man": 2981, "\u2581intellig": 8576, "\u2581passenger": 19758, "Native": 13325, "initialized": 29392, "common": 6116, "\u5bab": 32553, "\u2581\u0411\u0443": 15963, "defer": 17880, "\u2581after": 1792, "wall": 12421, "\u2581ex": 1207, "\u2581Json": 18518, "\u8c03": 29999, "antly": 4986, "osa": 6457, "\u0435\u0440\u0436\u0430": 24275, "[control_604]": 606, "rm": 2505, "ades": 3318, "\u2581Design": 9416, "\u2581Baron": 23920, "\u2581gallery": 19573, "\u2581satisfied": 14439, "\u2581telephone": 16197, "\u043a\u0456\u0432": 10948, "\u2581covers": 13552, "\u2581rolled": 12951, "Score": 18888, "\u8d25": 30152, "\u2581dirt": 15808, "[control_565]": 567, "\u2581regardless": 13675, "all": 1223, "\u2581reached": 5816, "bell": 10795, "emon": 8652, "host": 4172, "alling": 21209, "\u2581native": 9039, "\u2581\u041e\u0442": 19766, "ands": 3119, "vars": 14587, "\u2581pint": 21221, "\u2581April": 4767, "\u2581numbers": 6319, "ade": 1538, "ponents": 7213, "making": 15495, "actly": 20009, "\u2581embargo": 21651, "\u10e6": 32046, "!)": 15048, "\u2581franch": 17606, "\u2581Buenos": 26630, "\uacf5": 30778, "\u2581advantage": 8627, "\u2581\u0432\u043e\u0439": 12659, "predict": 23845, "\u2581Hong": 13734, "\u2581Jersey": 14775, "\u2581conf": 2653, "\u0440\u0430\u0431\u043e": 23104, "\uba54": 30596, "\u2581Raj": 17586, "ying": 3751, "TRUE": 10099, "\u2581Roc": 22920, "\u2581toget": 3319, "anne": 13770, "\u2581[\\": 27007, "\u5bfb": 32480, "ittest": 28400, "uch": 1671, "FMT": 29339, "\u2581zd": 20901, "\u2581industries": 18677, "\u2581\u0430\u0432\u0433\u0443": 19552, "\u2581pain": 4126, "FLAG": 7945, "\u2581forest": 9381, "**:": 9957, "\u2581Nich": 16480, "unity": 23280, "\u2581franz\u00f6s": 25637, "\u2581Polish": 21097, "\u2581Municipal": 26683, "\u2581absor": 11380, "\u2581Wer": 12921, ">:": 10438, "enum": 10825, "bitro": 19597, "\u00b8": 31201, "\u514d": 31364, "\u2581desire": 9414, "oki": 24546, "voj": 27940, "illet": 14077, "\u0110": 30028, "\u6267": 30324, "\u0437\u043d\u043e": 19148, "iper": 15565, "<0x52>": 853, "\u0440\u0443\u043f": 21632, "App": 3882, "\u2581Eg": 23452, "Land": 23739, "alo": 9112, "\u2581institutions": 13406, "using": 9289, "UX": 13409, "\ub984": 31075, "[control_229]": 231, "finite": 13012, "\u2581ple": 4799, "father": 14153, "uego": 15502, "\u7eaa": 32234, "\u2581notably": 28654, "\u0425": 29672, "contact": 17338, "[/INST]": 4, "\u2581DJ": 19535, "\u2581Communications": 26909, "Proof": 27623, "wp": 10127, "\u2581NAS": 18832, "aver": 11070, "[control_445]": 447, "bru": 13833, "alk": 1861, "ut": 1097, "\u2581India": 6326, "\u2581fairly": 12503, "\uc885": 31258, "\u2581trade": 6994, "\u2581Always": 18252, "\u2581checks": 14572, "\u306a": 30038, "\u2581\u0410\u043b": 25982, "\u5723": 32340, "\u2581store": 4911, "\u2581ten\u00eda": 24164, "\u1ec3": 30678, "\u2581Prote": 12193, "t": 29475, "\u1edb": 30793, "ena": 4362, "\u2581AD": 10772, "cs": 3909, "Number": 4991, "tf": 10633, "\u2581advised": 21788, "equal": 8086, "\u043d\u0438\u044f": 3259, "heit": 13075, "\u03ad": 30039, "\u2581ide": 2640, "DO": 5938, "\u2581leur": 11209, "n\u0105": 21845, "mil": 23394, "\u00e9d": 5420, "usr": 17553, "[control_398]": 400, "\u3068": 30084, "\u2581includes": 6300, "ogn": 3927, "\u2581Romans": 29050, "\u0437": 29580, "\u2581pink": 13705, "\u2581breed": 15327, "\u2581wen": 22440, "=\"../": 8472, "curity": 4628, "\u2581Imagine": 22799, "iele": 17375, "\u2581ese": 21191, "opcode": 26072, "\u2581Dennis": 24815, "\u2581Trail": 25262, "ault": 1886, "disk": 18228, "\u2581questa": 25475, "\u2581Phase": 27074, "eight": 24661, "ais": 2323, "\u2581cri": 21808, "\u2581patrol": 23062, "\u6bbf": 32510, "\u2581ak": 13835, "\u2581(\\": 4334, "\u2581interested": 7116, "party": 15767, "\u2581suoi": 23220, "fx": 10135, "\u2581induced": 22095, "list": 2471, "\u2581teas": 25557, "\u2581Month": 19794, "\u2581Sum": 7695, "\u2581template": 7665, "\u2581students": 4335, "ji": 4400, "\u2581continued": 6085, "\u17bc": 32209, "[control_151]": 153, "\u2581cush": 26370, "\u2581delete": 7268, "\u8bd5": 30360, "[control_179]": 181, "\u2581advances": 28273, "TOP": 20506, "bie": 13636, "\u0440\u0456\u044f": 24245, "\u2581argument": 6038, "vo": 3912, "\u2581convex": 27738, "\u2581Magn": 20422, "\u8d5e": 32597, "\u2581Example": 17461, "\u2581appar": 20512, "\u0d3e": 32552, "eng": 1748, "\u2581Noah": 27354, "ver": 1111, "neo": 18230, "itime": 27611, "\u2581musician": 27226, "\u7db2": 32238, "\u2581ripped": 28523, "Tree": 7915, "NESS": 12586, "\u2581prom": 2925, "\u2581reign": 22307, "ording": 3827, "[control_234]": 236, "ORK": 14119, "location": 3501, "iform": 6487, "\u00e9e": 2878, "\u2581deput": 18696, "\u2581quien": 20975, "Count": 3840, "\u2581tras": 12199, "\u2581ranch": 27446, "\u2581\u043e\u0440\u0433\u0430": 14329, "\u2581__": 2616, "\u2581races": 17277, "\u2581Ins": 10281, "\u2581propaganda": 24778, "\u2581Lind": 10868, "\u89c9": 32113, "\u2581fly": 9315, "\u2581COPY": 19285, "\u043a\u043e\u0439": 13876, "\u092c": 30956, "\u2581QString": 20050, "\u2581horse": 8715, "xml": 7227, "\u00e9ration": 18676, "[control_94]": 96, "\u2581pom": 14064, "\u2581Illinois": 16400, "\u2581precious": 18735, "\ud83d\ude14": 32071, "\u2581bul": 6546, "\u2581ehemal": 24924, "ialog": 4491, "ocratic": 26952, "\u2581tier": 25256, "\u2581configured": 22297, "\u2581assumes": 28228, "ript": 7241, "\u2581advice": 8246, "\u043b\u043b\u0435": 17600, "\u95a2": 31551, "aille": 15054, "esser": 26479, "AE": 13368, "ockets": 19241, "ctr": 12785, "finder": 26387, "\u2581award": 8387, "ube": 5044, "\u2581BT": 23894, "\u2581Starting": 26271, "\u043d\u043e\u043b\u043e\u0433\u0438": 26312, "[control_374]": 376, "\u2581gain": 9124, "ateur": 10997, "\u00ee": 29663, "pointer": 13746, "ost": 1272, "\u2581narrative": 16297, "mx": 20505, "Dao": 21428, "\u2581examination": 21744, "\u2581affiliate": 25701, "\u2581einem": 7794, "\u2581wsp": 26882, "\u2581sia": 24370, "\u2581York": 3494, "\u2581mo": 4186, "\u2581Cho": 26173, "Pen": 27718, "\u2581guided": 24469, "\u2581Bat": 13771, "\u6539": 29988, "\u2581\u0431\u0435": 9675, "\u2581tv\u00e5": 23132, "\u94ae": 30853, "\u2581intact": 28016, "\u2581syndrome": 28249, "hom": 12734, "fund": 23926, "\u2581nin": 11952, "\u2581invention": 22591, "\u2581flavor": 17627, "\u5229": 30587, "square": 22395, "\u2581See": 4636, "scope": 7562, "arse": 8911, "ClickListener": 25391, "\u2581Bast": 28009, "\u2581dis": 1472, "\ud83c\uddf8": 32586, "\u2581customer": 7114, "ahren": 19425, "Ray": 25877, "\u2581minist": 16678, "umn": 2554, "\u2581tip": 7998, "][<": 21179, "NG": 17935, "\u0435\u0442": 3502, "lands": 6371, "\u4eae": 31399, "reat": 1604, "\u2581bill": 5643, "None": 6132, "anska": 27704, "\u2581lessons": 15553, "\u5411": 30246, "\u2581\u041f\u0440\u0435\u0437": 23069, "\u2581arc": 14373, "\u2581Iran": 11710, "Parts": 27676, "\u9000": 30748, "hid": 26864, "!!!!": 19778, "\u272d": 32544, "TestCase": 19036, "\u2581tunn": 29043, "\u2581Alb": 19112, "\u2581Jane": 11573, "it\u00e0": 8095, "adays": 25950, "qu": 1132, "NET": 12466, "\u2581BY": 12500, "toLowerCase": 22009, "\u2581{\\": 3300, "Zoom": 25341, "\u2581Braz": 12631, "\u2d4f": 32211, "atomic": 15203, "uest": 25205, "\u2581soup": 19619, "\u2581voce": 28570, "orious": 17232, "[control_614]": 616, "\u2581Minn": 15947, "ching": 11865, "rac": 21950, "\u2581sung": 27941, "\u2581experiments": 14875, "\u6df7": 32261, "\u2581An": 1862, "\u2581Union": 7853, "vey": 6344, "\u2581thousands": 9345, "******/": 15980, "riving": 17750, "VENDOR": 25530, "cos": 6600, "HasColumn": 17779, "\u2605": 29936, "proc": 12042, "[INST]": 3, "\u0436\u0435\u043d\u0438\u0435": 17293, "\u2581mill": 3313, "time": 2304, "\u2581rib": 13915, "[control_316]": 318, "\u2581hi": 12782, "\u2581Balt": 17879, "\u0442\u0430\u043c\u0438": 28179, "Original": 21350, "\u2581Shop": 14910, "\u2581tecn": 25618, "[control_191]": 193, "\u2581diab": 18339, "\u2581country": 3707, "\u2581comment": 5285, "\u2581\u00ee": 5359, "\u2581projection": 19743, "\u2581milit": 4884, "\u2581exhibit": 23388, "preview": 22668, "\u2581Fed": 23145, "****": 1333, ")?": 12608, "\u2581\u0434\u0435": 4465, "\u2581lugar": 16900, "\u8881": 32747, "\u2581foundation": 14633, "\u6708": 30144, ">\",": 20786, "gg": 2344, "}\\": 1905, "sect": 9029, "pdf": 9752, "\u2581\u043f\u043e\u0434\u0430": 21920, "ination": 3003, "unately": 22712, "\u2581societies": 26110, "\u2018": 29662, "Text": 2642, "IO": 5194, "\u2581restaurant": 10694, "Author": 12086, "\u2581disp": 16053, "\u0432\u0430\u043b": 16890, "\u2581DateTime": 21685, "\u1000": 31926, "acher": 11101, "inge": 23271, "\u2581Benef": 23478, "\u2581phones": 19512, "algorithm": 22979, "\ube44": 30627, "azzo": 25379, "\u2581\u0442\u043e\u0433\u043e": 18918, ".\")": 17937, "\u2581Cor": 3966, "ations": 1465, "[control_713]": 715, "\u2581Profile": 24306, "\u2581Kansas": 18546, "rise": 24803, "_{{\\": 18309, "\u2084": 32366, "\u2581Economic": 21219, "\u2581ohne": 25754, "\u1235": 32494, "CS": 6926, "ining": 4806, "oslav": 22502, "[control_734]": 736, "andom": 4086, "\u2581authorities": 13271, "\u2581NY": 12568, "\u044c\u044f": 23992, "\u00ba": 29704, "[control_453]": 455, "sa": 4588, "\u2581moving": 6040, "tk": 10576, "\u2581lined": 21929, "\u539f": 30261, "[control_181]": 183, "\u2581Fa": 13362, "\u2581Console": 20286, "\u2581Organ": 9470, "\u2581Disc": 24062, "\u6f14": 31778, "\u0acd": 32254, "ins": 1894, "\u2581$$": 6391, "[-": 12208, "\u2581fit": 5414, "\u2581px": 23612, "dru": 28097, "\u5c0f": 29906, "Foundation": 24063, "\u2581smiled": 8738, "\u2581sales": 7060, "\u2581beyond": 6066, "\u2581poco": 21092, "\u2581prohib": 16896, "\ub9c9": 32423, "RESULT": 15900, "\u2581especial": 18454, "\ud83c\udf89": 32630, "\u2581cage": 26575, "\u2581TEST": 10369, "zen": 3807, "\u5403": 31950, "\u2581mine": 7451, "\u2581wasn": 3491, "\u2581slaves": 18382, "[control_389]": 391, "\u2581concentrated": 25856, "\u2581\"\",": 8657, "\u2581detection": 15877, "\u02b0": 30962, "\u2581slim": 25298, "\u2581Over": 6003, "\u2581Below": 21579, "result": 3208, "esso": 11052, "\u2581Sud": 9867, "\u2581Otto": 22057, "ART": 5288, "acji": 14354, "ises": 4668, "\u2581para": 3414, "\u05e1": 30237, "\u2581wherever": 21285, "\u2581deaths": 17010, "Loading": 16799, "\u2581guide": 9095, "\u8003": 30933, "stairs": 14245, "oples": 20387, "\u2581nue": 13235, "\u011f": 29856, "\u2581Gro": 9465, "asis": 23083, "\u2581Mexico": 11010, "oid": 1574, "\u2581cover": 3564, "first": 5246, "Paths": 24140, "uffed": 28327, "sal": 16227, "\u2581Rebecca": 26782, "!": 29576, "Inst": 6828, "\u2581disabled": 12194, "PK": 16002, "\u2581obst": 14132, "\u2581chains": 21264, "\u2581\u0420\u0435": 10160, "\u4fdd": 30089, "umerate": 12660, "ervation": 24355, "\uc838": 31710, "\u2581till": 5629, "\u2581params": 6918, "\u2581verification": 27646, "\u2581California": 7015, "\u2581Adv": 11590, "\u2581thrust": 21368, "\u2581\u0422\u0443": 25287, "\u2581restaurants": 15434, "\u2581magnitude": 19426, "fetch": 12130, "\u2581gev": 27838, "\u2581proof": 7935, "\u2581\u0441\u043a\u043e": 28767, "nom": 12759, "won": 18727, "Hidden": 26228, "ara": 3691, "\u2581movements": 15839, "\u2581Valentine": 29263, "\u2581departure": 21390, "2": 29518, "\u2581revolution": 11797, "\u2581Stock": 12316, "rust": 20610, "\u0119\u017c": 29221, "\u2581frustration": 23570, "\u2581chim": 22135, "\u2581MVT": 27293, "\u2581reducing": 17800, "\u2581fraction": 14773, "TMP": 16684, "\u2581pi": 6316, "[control_675]": 677, "CD": 5840, "\u2581causing": 13866, "\u2581Font": 16232, "IMPORTED": 17614, "know": 20494, "\u2581toe": 12097, "Options": 4786, "\u2581Web": 7121, "razy": 8621, "\u2581second": 2444, "\u2581Verein": 20785, "\u2581resolution": 11716, "\u5c11": 30573, "\u2581dentro": 24987, "\u4f50": 32362, "\u2581si\u0119": 7147, "RIP": 17141, "istence": 10838, "\u0441\u043a\u0435": 18254, "\u2581ses": 7505, "vez": 21418, "nak": 15622, "\u2581rac": 7335, "\u2581Finally": 8894, "<0x46>": 841, "Down": 7578, "\u2581installation": 15611, "\u2581Init": 7597, "pen": 3516, "Never": 23623, "\u00e4st": 28836, "\uc6cc": 31894, "\u2581NULL": 2720, "est": 1142, "\u2581variation": 19191, "Of": 3630, "'\"": 22004, "Argument": 9717, "\u2581SQL": 13976, "\u2581Anyway": 20897, "uter": 20841, "iros": 27556, "GE": 5664, "\u2581}).": 25139, "\u2581seemed": 4361, "itos": 17890, "\u0250": 31237, "\u2581narr": 10587, "\u2581ambig": 26555, "Sem": 22333, "aqu": 20192, "\u200b": 29703, "\u2581Mum": 26358, "\u2581ru": 7637, "\u2581voc": 8669, "PE": 2535, "omes": 29316, "_\\": 3569, "\u2581deren": 26051, "\u2581r\u00e9alis": 21858, "\u2581suggest": 4165, "dam": 9697, "\u2581Episode": 25540, "\u2581disappointed": 19681, "\u2581double": 4347, "\u9605": 31506, "astern": 10998, "\u2581conspiracy": 26031, "\"></": 6596, "\u2581diagonal": 25970, "pection": 17223, "jj": 24427, "\u2581trace": 11486, "\u2581caused": 8102, "\u2581packet": 11968, "\u2581Patrick": 14455, "uminate": 13114, "\u2581soldier": 16000, "\u2581Filip": 20759, "Pet": 25002, "\u2581fis": 19213, "\u2581Ap": 4770, "~~": 5604, "\u2581barriers": 27990, "American": 12956, "\u270c": 32674, "\u2581Unit": 14100, "\u2581Dum": 29280, "[control_60]": 62, "onders": 19526, "nu": 4324, "\u2581sigu": 20614, "\u2581decay": 15992, "Fast": 24020, "straints": 17773, "DL": 14916, "pare": 11118, "\u2581Meanwhile": 15642, "\u2581gone": 4982, "\u2581rated": 25869, "\u2581commanded": 28056, "\u2581Living": 17071, "\u2581twisted": 19105, "SELECT": 11464, "uggest": 17707, "\u043b\u0443": 3700, "ghai": 26569, "\u2581Holly": 12280, "\u2581asleep": 15999, "\u2581zones": 20681, "Long": 8236, "\u2581pulled": 6590, "\u2581seventy": 27400, "\u70b9": 29853, "*}": 5005, "\u2581Kil": 16866, "\u2581MI": 18576, "\u2581mov": 2574, "\u2581europe": 21105, "\u2581scr": 8143, "\u2581citt\u00e0": 21145, "Items": 8584, "Need": 23597, "\u0f74": 32329, "\u6e21": 32280, "\u2581handling": 13620, "\u2581Ki": 23253, "\u2581\u0441\u0435\u043b\u043e": 16145, "GD": 26498, "ga": 3272, "\u6302": 32199, "horn": 27734, "Images": 26090, "\u2581Lock": 18350, "\u2581ruling": 22723, "ifornia": 6767, "Anchor": 22560, "assemb": 16119, "iy": 12440, "ower": 1840, "\u2581correctly": 13510, "\u2581ONE": 26839, "Collect": 28759, "[control_653]": 655, "\u2581Changes": 27925, "\u2581L": 1161, "\u2581criteria": 15885, "ire": 1304, "\u2581reply": 10839, "\u2581individually": 29338, "\u2581chain": 8418, "rose": 17733, "\u2581Vegas": 19001, "\u2581flex": 8352, "\u2581'%": 13308, "\u2581Als": 14367, "\u0440\u043e\u043c": 8175, "\u2581Turkish": 24380, "\u2581Present": 21841, "\u2581chaque": 28192, "stal": 11659, "\u2581inst": 1908, "\u2581stone": 8021, "\u2581pension": 27163, "\u2581debut": 10696, "\u2581Brun": 20859, "\u2581nou": 10044, "[control_251]": 253, "\u2581bind": 13133, "\u2581mount": 5534, "nego": 13534, "sent": 17556, "\u2581conn": 13281, "\u6570": 29713, "\uc6d4": 31607, "\u2581Thompson": 20328, "\u2581};\r": 23907, "isco": 24132, "\u2581tempor": 7381, "ge": 1258, "Token": 4624, "rum": 7063, "\u2581equipment": 7876, "\u2581soap": 16436, "\u2581hospital": 7324, "neur": 12339, "\u2581Mechan": 27932, "\u2581ministry": 24238, "\u2581focused": 9813, "\u2581personality": 14123, "\ud14c": 31334, "\u2581poverty": 17501, "\u2581yellow": 10452, "acular": 20045, "\u2581creates": 13420, "<0x8C>": 911, "\u2581operational": 21965, "pher": 24138, "\u2581inclu": 26480, "\u2581burn": 6466, "\u043d\u0438\u043c\u0438": 16378, "bounds": 22816, "=%": 9785, "\u2581Panel": 28736, "FROM": 22103, "oca": 9440, "\u2581Nav": 10131, "\u2581disappoint": 11502, "\u2581ass": 1923, "\ud83d\udd25": 31358, "delta": 4741, "\u2581filters": 17891, "\u2581Only": 7120, "\u2581clinical": 15961, "\u2581what": 1535, "\u10d3": 30646, "\u2581\u0441\u0443": 6420, "forward": 12165, "<0x01>": 772, "\\|": 11497, "Boot": 22038, "[control_261]": 263, "\u2581\u043a\u043e\u0442\u043e\u0440\u044b\u0435": 24833, "[control_599]": 601, "\u2581emp": 8679, "\u2581Partido": 27363, "blem": 12474, "OPTION": 18948, "sk\u00fd": 26579, "\u5237": 31194, "ournal": 7884, "\u2581prevent": 6065, "\u2581disco": 21730, "\u2581division": 10420, "\u2581Muslims": 22499, "uture": 9417, "\u2581potential": 5396, "\u2581delivery": 10330, "\u2581(-": 12187, "\u2581Perm": 18395, "\u02bf": 30111, "\u2581express": 4840, "\u2581Campbell": 21528, "\u5e0c": 31423, "mean": 14414, "ORMAL": 25089, "itten": 3917, "ittel": 15306, "\u2581Initialized": 26496, "\u2581Lebens": 27744, "\u2581ellos": 27413, "amped": 17502, "\u2581Gemeinde": 16264, "\u5c97": 32751, "\u2581abort": 14283, "acer": 9940, "isa": 8450, "mixer": 18496, "}>": 9467, "hus": 10478, "\u045a\u0430": 16625, "\u2581Adam": 11302, "\u2581Download": 16988, "ecut": 3485, "\u2581prompt": 12278, "akten": 22073, "\u2581Apparently": 24866, "rec": 4122, "\u2581newest": 28278, "\u5024": 31029, "\u2581decades": 10841, "\u2581Movie": 23976, "clusive": 22749, "\u2581tamb\u00e9": 27912, "\u2581uso": 28195, "veh": 26741, "[control_381]": 383, "\u2581puts": 13113, "\u2581leading": 6142, "\u0442\u044c\u0441\u044f": 7645, "ux": 2322, "OLD": 12788, "\u2581promised": 14040, "Depth": 18371, "\u91c7": 31166, "\u2503": 31431, "\u2581develop": 2718, ">/": 23979, "\u2581approached": 15477, "[control_105]": 107, "sheet": 20391, "picker": 20562, "\u2581constant": 6725, "ue": 1209, "dot": 8391, "\uc57d": 31928, "jk": 25165, "[control_355]": 357, "\u2581meille": 25283, "$(": 14067, "em": 1134, "\u2581situ": 3689, "\u2581implies": 12918, "Light": 13292, "\u2581photographs": 18574, "\u2581legs": 8737, "\u2581Office": 9418, "arl": 2745, "\u2581called": 2755, "\u0435\u043d\u044c": 14365, "ttp": 5228, "phy": 8839, "\u2581emotion": 13965, "\u2581ub": 16947, "\u2581Baker": 20571, "\u0443\u043d\u043a": 21819, ">>>": 22473, "\u2581TCP": 23775, "ias": 3763, "zek": 16946, "\u2581Crown": 24922, "\u2581grocery": 25579, "\u2581russ": 25812, "\u2581\u041f\u0440\u0430": 25842, "jack": 19949, "\u2581peaks": 29440, "\u2581nahm": 28964, "\u2581tym": 21621, "\u2581depos": 11967, "\u2581\u042e": 12164, "\u2581patent": 24213, "olph": 24582, "rim": 7181, "\u2640": 30923, "\u2581prince": 20948, "dx": 13344, "\u2581each": 2198, "\u2581secured": 22435, "itz": 5102, "images": 11109, "createElement": 17791, "\u2581./": 18217, "\u26d4": 30952, "\uc608": 31310, "ueto": 20029, "Generated": 12650, "export": 13475, "\u2581exist": 3356, "\u2581\u0432\u0456\u0439": 19765, "Key": 2832, "\u2581Types": 25969, "\u2581reconstruction": 28187, "\u263d": 31428, "\u4e13": 31192, "\u2581Educ": 8716, "\u2581girlfriend": 17159, "\u2581mir": 6844, "\u2581selector": 15375, "\u2581Industry": 22036, "\u2581Deutschland": 19798, "\u2581perform": 2993, "ela": 5171, "\u2581Dakota": 28034, "\u2581\u0447\u0438": 9837, "Well": 7592, "raph": 2643, "\u2581spel": 29269, "}',": 24698, "\u2581Gallery": 17365, "\u2581accordingly": 26253, "\u2581havet": 29215, "\u2581\u0436\u0443\u0440": 26556, "\u2581labels": 13267, "\u043f\u0440\u0430": 7911, "\u2581brain": 7155, "mix": 24118, "\u2581Innov": 24781, "\u2581assets": 13626, "cer": 3510, "np": 9303, "\u2581nap": 13003, "Bay": 27431, "\u2581hash": 7903, "\u2581Mut": 17737, "[control_558]": 560, "\u2581arrested": 14974, "\u2581fitness": 18718, "\u2581Albums": 29244, "\u2581combined": 10605, "\u2581nursing": 21461, "WIN": 15423, "annotations": 21146, "um": 1151, "\u2581Centre": 12072, "\u2581ladder": 25784, "FT": 6318, "\u2581//!": 20265, "\u0e41": 30621, "\u2581subm": 25069, "\u2581Contact": 13371, "isches": 24226, "\u2581Sample": 28565, "\u2581succ": 14382, "\u2581retry": 22138, "Colors": 26419, "\u00e1rio": 18531, "\ud574": 30194, "\u30a1": 30768, "\u2581Reset": 22457, "anks": 4518, "\u2581|=": 7532, "\u2581pose": 16364, "\u2581Nevada": 28439, "\u2581scores": 15196, "\u2581criminal": 12160, "'>": 14642, "\u043d\u0438\u0448": 18032, "\u2581fac": 4020, "\u2581kid": 7139, "labels": 17799, "\u2581happen": 5572, "Requ": 2692, "\u2581prosecut": 17581, "form": 1442, "\u2581HIV": 26169, "\u2581janu": 19941, "Keyboard": 28186, "\u865f": 31577, "\u2581ele": 6707, "alloween": 26202, "\u2581Loss": 27387, "\u2581toda": 27091, "updated": 18937, "\u2581handed": 13520, "\u2581\u0433\u043e\u0434\u0443": 6289, "\u10e7": 32055, "\u2581europ": 22796, "\u2581Craft": 28078, "\u2581Theatre": 15977, "\u534f": 31549, "\u2581foo": 19990, "\u2581Taking": 21416, "\u2581pode": 26933, "\ube14": 31270, "\u2581initiative": 20178, "\u2581brace": 28624, "[control_172]": 174, "aska": 15199, "\u2581corpor": 8575, "epoch": 27497, "Shadow": 22086, "ologie": 8619, "\u2581dispers": 28758, "lish": 3063, "Ste": 7500, "getCurrent": 28808, "Admin": 12512, "\u2581Pass": 8969, "\u2581reaches": 19478, "\u00e9r\u00e9": 20780, "Az": 13998, "\u2581Gill": 25472, "reate": 3498, "ihood": 18299, "\u2581Stud": 5674, "\u2581worried": 11496, "\u2581SUB": 25571, "\u2581Bin": 27502, "('\\": 22189, "\uac12": 30523, "\u8089": 32504, "\u2581foss": 21804, "\u2581warnings": 24820, "\u5427": 31680, "Pi": 15008, "'.$": 20381, "\u2581Bei": 18225, "\u2581blues": 28613, "\u2581abstract": 12344, "\u2581belt": 15625, "Based": 24975, "\u2581Johann": 13149, "\u2581withd": 23823, "changes": 18098, "\u2581Interest": 20827, "IM": 4787, "icios": 27909, "\u62a4": 31409, "shine": 22889, "\u2581bil": 16805, "\u2581bitch": 20774, "\u2581decided": 5264, "\u654f": 32471, "\u2581Island": 8401, "\u2581gently": 15027, "]}": 9973, "\u2581Leip": 27185, "atu": 23376, "\u2581they": 1358, "\u2581Astr": 26201, "ny": 2548, "\u2581farm": 7122, "\u2581communities": 10518, "groups": 13188, "\u0f72": 32143, "sam": 15852, "Sys": 23592, "\u2581Pictures": 27655, "\u2581LIABILITY": 22976, "\u02b2": 31048, "\u2581lect": 12542, "Simple": 14024, "Many": 16260, "reverse": 25157, "timeout": 10529, "Inv": 10956, "\u2581wash": 15106, "\u6025": 32421, "\u2581prove": 8442, "If": 4149, "Feed": 21735, "\u2581Alaska": 24724, "\u2581unemployment": 29402, "\u2581opera": 19627, "\u6b4c": 31277, "\u2581Mock": 16861, "\u2581roz": 10103, "\u043b\u0456": 3900, "\u2581connection": 5900, "\u2581toString": 27065, "\u2581Wu": 29428, "\u64cd": 30139, "\u2581.": 1610, "\u2581Jer": 6273, "\u0448\u0442\u0438": 21986, "\u2581indul": 24923, "\u2581treatments": 20492, "\u2581advise": 26705, "\u2581opposed": 14738, "ushing": 10073, "arms": 19234, "ML": 4595, "\u2581glanced": 12538, "\u2581Lib": 12329, "\u2581puzz": 16154, "\u2581sake": 15176, "\u2581authority": 10405, "Book": 11438, "<0x18>": 795, "bar": 2590, "\u2581appears": 8813, "localhost": 21584, "<0x47>": 842, "\u2581aside": 11044, "mul": 18944, "@": 29586, "line": 1849, "\u2581hasn": 12406, "\u2581Pour": 16308, "weak": 26436, "pv": 27005, "\u2581screamed": 23646, "ipper": 28459, "imb": 19699, "atori": 13959, "\u2581Zen": 25921, "\u043d\u0438\u043a\u0430": 7758, "\u2581Bod": 19323, "\u2581collected": 13237, "\u2581Rev": 5143, "\u2581Dort": 28006, "\ubb38": 30478, "\u754c": 30590, "\u2581Out": 5423, "\u2581Anth": 13008, "nea": 20428, "\u2581Pear": 17165, "\u8de8": 32632, "\u2581bast": 16544, "Creat": 14769, "\u2581laying": 28355, "ACHE": 16365, "minipage": 26502, "\u2581Mann": 12955, "Gateway": 23247, "\uc5c5": 31047, "MR": 16994, "\u2581way": 1837, "<0x9F>": 930, "\u2581challeng": 7095, "rons": 14223, "\u2581\u043e\u043a\u0440\u0443": 15887, "\u043d\u0438\u0448\u0442\u0432\u043e": 21392, "\u2581recib": 26240, "\u2581Mes": 22526, "\u2581Typ": 16401, "Tele": 22236, "ancy": 6171, "Delta": 5541, "\u2581\u0433\u043e\u0434": 17762, "\u2581explored": 27529, "\u5ddd": 30901, "\u5efa": 29961, "lifer": 16134, "\u041d\u0430": 24960, "ellen": 9711, "Statement": 10067, "\u2581yesterday": 12859, "\u2581Federation": 23288, "Information": 17025, "\u8ffd": 31114, "tensor": 14193, "\u2581console": 6689, "\u2581thunder": 26520, "oz": 4479, "\u2581imperial": 20886, "nested": 29007, "\ub78c": 32158, "eries": 13633, "\u2581urge": 23919, "\u2581nom": 4102, "\u2581firmly": 20089, "]));": 21336, "\u2581Pop": 8027, "\u2581lovers": 25651, "\u2581machine": 6367, "ae": 5411, "\u2581enjoyed": 11074, "Upload": 16656, "===": 14971, "\u2581Dist": 13211, "\u2581Clearly": 26189, "<0xD5>": 984, "ared": 2095, "\u2581stell": 14830, "\u2581Est": 4746, "\u2581evil": 11643, "\u2581pr\u00e8s": 27476, "\u043e\u0431": 14317, "\u2581Pars": 26049, "\u5ba4": 31531, "\u2581accidents": 27660, "<0x74>": 887, "\u2581vaccine": 22018, "\u0e1a": 30215, "Guid": 18661, "profit": 18708, "lint": 19684, "\u2581responding": 26935, "\u2581coll": 4263, "\u2581Gol": 27853, "\u2581Figure": 10008, "\u2581Jar": 20837, "\u2581fact": 2407, "\u2581equals": 22356, "Les": 16453, "act": 1340, "\u0446\u0456\u0439": 17448, "\u2581up": 1350, "len": 2772, "\ub4e0": 31383, "\u2581\u00e9gal": 13719, "\u06a9": 29898, "\u2581commerce": 22574, "\u2581Graf": 24422, "\u2581rubbed": 26101, "\u00da": 29838, "\u2581density": 9121, "ottage": 22649, "\u2581Leon": 12383, "IN": 1543, "<0x06>": 777, "\u10e2": 30887, "\u2581matches": 9787, "uced": 23101, "\u2581experimental": 15361, "\u2581Exchange": 21930, "\u2581themes": 19746, "look": 6587, "\u2581Sul": 20372, "\u2581recommended": 12340, "\u00eatre": 9205, "PARAMETER": 27010, "\u0441\u043a\u0438\u043c": 18578, "Call": 3769, "\u2581reflected": 17990, "\u2581rund": 24955, "\u2581commune": 12332, "\u2581experiment": 7646, "Serialize": 24211, "\u2581\u0432\u044b": 5395, "\u2581imply": 26153, "\u2581_\"": 15548, "\u2581Commonwealth": 27545, "Core": 6676, "htt": 2688, "\u2581voyage": 22750, "ordon": 14267, "vier": 15663, "Uri": 14298, "\u2581conversations": 18024, "\u2581equality": 18373, "\u2581utils": 26602, "inx": 25800, "\u2581Aur": 26703, "\u2581mur": 5602, "\u2581Options": 20409, "grade": 8612, "\u2581oh": 12389, "\u2581Micro": 20939, "SION": 9207, "orent": 22726, "\u2581mouth": 5876, "\u2581railway": 18819, "such": 18978, "\u0427": 29677, "\u2581cont": 1447, "\u5e08": 31349, "\u2581VI": 16244, "zed": 13384, "\u2581hosting": 19885, "\u6211": 30010, "Ev": 9227, "\u2581Palest": 14665, "Redirect": 26401, "\u2581bacter": 18652, "\u4e30": 32572, "use": 2498, "\u2581refers": 16422, "\u2581repe": 6451, "\u2581robust": 17226, "\u2581Heavy": 28196, "should": 7484, "\u2581pou": 9399, "\u2581Pen": 10524, "iev": 16966, "\u2581consistently": 19435, "\u2581\u0438\u043c": 14890, "\u2581Along": 20979, "\u2581\u0430\u0440\u0445\u0438": 26446, "\u2581ao": 9236, "smith": 15257, "},{": 24665, "amment": 17370, "Threading": 25399, "\u2581yield": 8877, "\u2581band": 4796, "\u2193": 30804, "\u8acb": 31307, "umen": 21109, "\u2581?></": 20966, "\u0012": 31066, "\u2581checking": 13547, "\u2581painted": 15409, "\u2581Girls": 20641, "\u22c6": 32056, "\u2581ren": 7187, "\u2581ensemble": 23704, "\ub85d": 30600, "ocker": 15063, "\u2581Without": 12296, "\u2581lever": 23367, "\u1794": 30882, "\u2581funds": 11187, "\u2581your": 1342, "\u2581shall": 5347, "ampton": 28165, "\u2581mars": 14015, "urches": 18856, "\u968a": 32302, "\u2581bright": 7601, "\u2581ancient": 10235, "YN": 27455, "Alex": 26957, "\u2581observ": 4745, "\u2581novel": 7860, "lick": 4206, "\u88fd": 32301, "ab": 1143, "?.": 11798, "associ": 20472, "\u09c1": 31176, "\u0263": 31781, "FA": 3888, "\u2581mist": 6478, "ermo": 28020, "Base": 4830, "asters": 25695, "\u2581competition": 9763, "\u2581planets": 29080, "\u2581Tok": 13693, "\u2581inter": 1559, "[control_553]": 555, "[control_559]": 561, "\u2581Link": 10119, "\u2581Video": 13041, "\u2581Ter": 7931, "\u2581Solar": 28433, "abor": 3994, "owing": 16443, "mode": 4814, "\u2581enemy": 9222, "\u305f": 29995, "[control_325]": 327, "ivas": 26036, "\u2581realize": 8936, "\u2581spraw": 25132, "\u2581Excell": 23137, "\u2581Palestinian": 29359, "ction": 1213, "\u2581painful": 18108, "\u2581\"</": 24384, "\u2581serious": 5360, "IPS": 25125, "ht": 1175, "lymp": 7952, "\u2581CL": 13064, "BAD": 24555, "\u0441\u043a\u043e\u043c": 10098, "\u30d6": 30506, "\u2581kole": 22608, "\u2581LE": 14949, "[REFERENCE_DOC_11]": 759, "\u2581Cann": 26303, "[control_142]": 144, "editor": 11460, "$)": 12764, "\u2581hood": 21992, "\u2581legally": 24793, "oul": 4387, "\u2581sustainable": 20086, "\u2581rav": 26550, "\u00aa": 29724, "\u8a9e": 31089, "\u2581presum": 18602, "\u2581overflow": 19698, "}}$.": 26130, "\u2581Pred": 19890, "rys": 25725, "\u2581How": 2370, "\u2581cyber": 24217, "Execut": 8544, "stroke": 15612, "issen": 21508, "\u2581MC": 17184, "\u2581Events": 21138, "\u2581clinic": 25397, "uum": 15156, "\u2581\u041d\u0430\u0441\u0435\u043b\u0435\u043d\u043d\u044f": 26743, "\u7ea7": 30254, "\u2581net": 3280, "udes": 6655, "ERN": 8688, "\u2581af": 4601, "\u2581somebody": 13189, "\u2581Unfortunately": 14213, "\u2581apr\u00e8s": 13754, "\u2581arch": 4987, "\u725b": 31625, "\ud83d\ude02": 29964, "\u2581neuen": 29087, "\u2581\u043d\u0430\u043b\u0430\u0437\u0438": 27876, "iao": 24753, "\u2581*": 1166, "\u2581<": 1291, "\u2581making": 3260, "\u2581upward": 26014, "imation": 9026, "\u2581tables": 10650, "\u2581explosion": 23026, "\u2581computer": 6842, "\u2581handler": 10462, "\u2581Vienna": 26524, "\u2581\u043d\u0430": 1697, "\u00e1nd": 13617, "\u2581scientist": 25248, ")$": 3090, "[control_387]": 389, "LETE": 15498, "radius": 18775, "\u0431\u0443\u0440": 16156, "azu": 23728, "\u2581Russia": 9201, "\u2581titled": 22276, ");\r": 2529, "\u2581Gun": 21423, "[control_367]": 369, "Array": 3480, "\u2581\u00fcber": 6199, "\u2581bottom": 6627, "Day": 13190, "\u2581\u043b\u0435": 8390, "nate": 25902, "\u4f5b": 31904, "\u2581\u00d7": 16538, "\u2581bras": 21261, "orter": 7814, "\u2581sab": 15459, "\ud6a8": 32249, "\u2581PG": 28561, "\u2581et": 1679, "HO": 4872, "\u2581Code": 8364, "lique": 20206, "\u2581lesson": 16098, "\u2581poems": 23162, "\u043a\u0430\u0445": 16042, "\u1e45": 31595, "\u2581dangerous": 10027, "\u2581recomm": 5394, "\u2581EN": 12697, "\u2581drap": 26861, "\u2581Staats": 29328, "\u2581organiz": 7211, "stead": 29045, "\u2581Serie": 21575, "\u2581grud": 25100, "\u2581\u043f\u0440": 26199, "igator": 18537, "\ud83d\udc8e": 31971, "\u2581\u0432\u043e\u0437": 12003, "\u2581insert": 9329, "Idx": 12925, "\u2581poem": 16835, "\u2581Step": 8036, "\u2581instrument": 11391, "\u2581mechan": 7098, "\u8fd0": 30566, "\u0436": 29604, "\u00e8tres": 22180, "\u901f": 30797, "\u00be": 30635, "opyright": 5245, "\u2581succeed": 10249, "apolis": 21157, "[control_280]": 282, "\u2581temp": 7990, "Ac": 10243, "oned": 13648, "\u6d3e": 31774, "fore": 1762, "\u2581Ira": 12489, "\u2581psy": 6291, "\u2581capac": 17793, "\u2581Close": 19305, "icial": 6635, "\u2581judges": 24001, "ader": 5696, "acies": 23222, "ico": 2992, "\u2581affairs": 18081, "VED": 27966, "\u2581comerc": 28512, "\uc11d": 32353, "\u2581dishes": 19222, "\u0458\u0438": 12030, "\u2581tail": 9443, "\u304a": 30857, "\u51e0": 31291, "Al": 3475, "\u2581android": 6559, "'][": 25716, "Routing": 29422, "\ucabd": 31885, "[control_442]": 444, "framework": 7738, "\u2581depends": 10386, "\u043b\u0438\u0447": 22952, "opsis": 23529, "iels": 23797, "\u2581carrying": 11607, "\u2581Auch": 24105, "\u53f6": 32402, "\u2581charge": 6453, "ultan": 25031, "*\r": 14435, "\u2581Honor": 20707, "\u2581CP": 17339, "\u2581auth": 8333, "context": 3482, "\u2581sliding": 25920, "\u2581\u0448\u043a\u043e": 20439, "arly": 2385, "\u30d9": 31045, "\u2581sang": 15934, "\u2581Nou": 23918, "\u2581Ministry": 17804, "\u2581guard": 7748, "\u2581whispered": 13684, "hemat": 12721, "\u00f4le": 19374, "COMP": 9796, "[<": 20301, "\u2581squeez": 20327, "matches": 18758, "[control_149]": 151, "osc": 18583, "\u2581neglect": 27670, "\u9645": 31372, "\u2581subset": 20572, "\u2581drain": 19714, "kl": 5552, "tl": 10331, "draft": 28258, "\u2581script": 7535, "nov": 21688, "\u2581Stars": 23212, "How": 6428, "\u2581left": 2517, "anean": 24322, "\u2581\u0440\u0443\u043a\u043e": 26372, "Cert": 13352, "\u2581Why": 5083, "\u2581zijn": 8434, "\u8d77": 30444, "\u2581tile": 17509, "\u2581breathing": 15000, "irth": 5401, "\u2581rose": 9304, "\"].": 16022, "\u2581invoke": 23839, "\u2581todos": 15688, "\u2581cir": 3529, "ortion": 26150, "]": 29561, "\u2581nations": 15681, "\u2581\u0422": 3543, "i\u00f3n": 2530, "Three": 25619, "\u2581considering": 10636, "\u2581ongoing": 16028, "\u2581Het": 10940, "\u2581tap": 13625, "Fore": 14043, "[control_138]": 140, "\u2581Bron": 9071, "appen": 25918, "\u2581Lev": 11017, "\u2581bare": 13802, "\u2581resulting": 11271, "ibly": 5680, "circ": 10333, "\u610f": 30230, "\u2581^{": 11060, "\");": 1809, "\u2581[...": 21857, "\u2581\u0441\u044b": 23163, "\u2581File": 6952, "atur": 5460, "ographic": 13061, "\u0080": 29901, "\u2581Gas": 18207, "\u2581\u041c\u043e": 9736, "\u2581Is": 2459, "vement": 11662, "\u2581BB": 20710, "\u2581Pearl": 26663, "\u2581\u043f\u0440\u043e": 2895, "\u043c\u0438\u043d\u0430": 18390, "arlier": 6033, "f\u00fchr": 16259, "UBLE": 23641, "Pse": 29159, "\u2581pid": 22422, "\u0629": 29909, "zy": 2908, "\u2581Oper": 7460, "\u2581Stay": 20834, "\u2581lower": 4657, "\u2581distributed": 5600, "\u2581num": 2843, "[control_486]": 488, "REL": 27857, "I": 29505, "\u2581\u0431\u043e\u043b\u044c": 16503, "[control_193]": 195, "angers": 11336, "\u2581deeper": 14319, "\u00e9rc": 23987, "\u2581planning": 8162, "\u2581geometric": 28862, "ktion": 17359, "solid": 28112, "faces": 10056, "\u2581crap": 22617, "}}{\\": 13655, "Java": 16241, "\u2581junk": 24458, "\u8bfb": 30446, "import": 8609, "\u2551": 30787, "\u2581cloth": 18441, "\u2581iter": 7622, "\u2581HTML": 14755, "\u2581col": 1758, "TABLE": 17227, "poque": 26344, "\u2581cancer": 9643, "Normal": 14071, "\u2581organisation": 18845, "\u58eb": 31160, "bone": 16368, "BASE": 12654, "\u2581Ele": 13218, "riere": 25693, "\u0653": 32762, "\u90e1": 31942, "rieg": 11905, "\u2581cheese": 14396, "\u9686": 32070, "<0x5B>": 862, "student": 23291, "\u10da": 30385, "\u2581conclusions": 25010, "chnitt": 29412, "\u2581smart": 8223, "[control_685]": 687, "\u2581Ant": 4589, "\u2581Time": 6097, "\u2581broken": 7866, "ogo": 14712, "\u2581Cec": 22790, "\u2581satisfaction": 17224, "\u2581Payment": 28062, "\u2581\u0443\u043d\u0438\u0432\u0435\u0440\u0441\u0438\u0442\u0435": 25652, "\u2581serial": 11395, "\u2581Kamp": 27884, "interrupt": 24569, "\u2581intelligent": 19694, "\u2581cours": 20548, "SD": 6077, "generated": 12937, "\u2581alone": 5179, "\u2581Brit": 4030, "\u2581Stalin": 24836, "\u2581questo": 17477, "<0xEA>": 1005, "\u0436\u0435\u043d": 7333, "\u0423": 29658, "!\\": 9031, "\u2581Pat": 4954, "\u2581Amanda": 27181, "\u2581recorded": 10132, "ascular": 28908, "\u2581mean": 2840, "\u2581residence": 18784, "\u2581themselves": 4660, "\u2581Oh": 6202, "\u2581jog": 19671, "zh": 14649, "enders": 15698, "Package": 11847, "\u2581}}": 12438, "example": 8244, "anth": 13112, "\u00e0": 29607, "fab": 18315, "aving": 2420, "\u2581Polit": 9721, "\u2581surge": 24816, "\u0439\u043d": 20290, "\u2581viol": 4875, "Dir": 7442, "shirt": 21890, "\u2581ville": 14294, "\u2581Elizabeth": 12057, "mm": 3989, "\u2581Rel": 6623, "\u2581item": 3283, "ports": 3497, "::{": 22121, "engine": 12126, "\u2261": 31708, "pp": 1355, "\u2581practices": 11647, "\u2581transport": 6977, "\u2581Dod": 23558, "\u2581consider": 2685, "\u2581Marc": 9910, "\u2581competing": 23951, "\u0441\u0441": 14615, "**.": 12508, "\">\r": 15748, "\u2581Rh": 11050, "\u2581grid": 11309, "\u8df3": 30955, "\u2581hers": 5025, "ros": 3505, "inners": 12958, "\u4e9e": 32124, "PL": 4666, "\u4f17": 31860, "dar": 23189, "\u2581HT": 8028, "\u2581formed": 9491, "ieron": 13489, "my": 2684, "\u043f\u0440\u0430\u0432": 13727, "\u2581sich": 4634, "\u2581reception": 17612, "\u2581Birth": 24094, "orie": 12835, "\u1fd6": 31654, "\u624b": 30195, "\u2581dirig": 17031, "\u2581variance": 28261, "\u0117": 30093, "\u2581gambling": 21464, "\u2581tons": 16763, "[control_633]": 635, "othy": 19246, "\u2581random": 6277, "\u2581Notes": 17022, "\u2581trivial": 22946, "inski": 28155, "\u96ea": 31644, "Tx": 13361, "\u2581isinstance": 18375, "\u2581Perry": 24918, "\u2581profes": 20846, "\u0449\u0435": 4855, "_)": 15247, "\u2581fid": 29260, "\u2581Coupe": 29418, "\u2581inner": 8218, "\u2581apparent": 8334, "\u2581fishing": 15957, "\u2581\\\"": 12547, "tpl": 22047, "\u2581Gym": 29441, "\u5907": 30381, "isting": 10905, "abilities": 8541, "\u2581vm": 14105, "\u2581Fore": 8025, "uti": 18891, "\u2581Cont": 3767, "\u2581nonetheless": 28982, "\u2581virt": 10074, "SQL": 10063, "\u2581faced": 13333, "\u0451\u043b": 18142, "Best": 19880, "\u2581Add": 4069, "?)": 15777, "\u2581University": 3668, "\u00e4\u00df": 26597, "pack": 3628, "\u2581Foster": 29285, "hesis": 22305, "\u2581Cy": 12848, "\u7d20": 30323, "\u2581r\u00f4le": 27419, "\u2581minor": 8394, "\u2581Frauen": 28971, "\u2581principles": 14586, "\u2581provincial": 26787, "\u2581Pub": 9510, "erts": 10684, "\u2581translate": 18592, "Animation": 14728, "ory": 1463, "\u2581Ign": 16691, "nail": 22186, "\u2581Later": 12448, "\u2581efforts": 9048, "\u2581autonom": 25777, "focus": 12976, "ository": 9034, "\u2581han": 7468, "\u2581accessible": 15262, "aud": 6443, "IP": 3433, "\u2581church": 6827, "!'": 9641, "\u2581seine": 12501, "orsch": 19720, "\u2581contributors": 26859, "Per": 5480, "\u2581seek": 6463, "\u0158": 30188, "\u2581eerste": 22096, "\u52b1": 32381, "\u2581moves": 12430, "RAY": 13429, "\u0440\u0456\u0457": 26242, "\u2581voll": 29121, "\u2581emergency": 12611, "ars": 1936, "File": 2939, "\u0442\u0435\u0442": 23579, "\u2726": 32477, "\u2581Node": 10895, "ended": 3276, "ampion": 8810, "($_": 14844, "skiego": 18751, "[PREFIX]": 11, "HD": 13359, "Mix": 27156, "ops": 3367, "ORD": 7044, "a": 29476, "\u2581abandon": 9709, "trm": 18568, "Sound": 19108, "\u2581vict": 5569, "ardo": 10517, "pent": 22325, "routing": 18743, "phys": 14200, "\u2581NBA": 21809, "\u202d": 31898, "aughter": 5530, "INIT": 12381, "Access": 6937, "[control_158]": 160, "\u0445\u043e\u0434\u044f": 22415, "criptions": 17903, "\u4e94": 30876, "Fl": 3956, "ONT": 16687, "printStackTrace": 24599, "\u2581Tig": 26990, "\ub8cc": 30989, "\u2581General": 4360, "\u2581s\u00e9": 8321, "\u2581Touch": 25854, "\u2581r\u00e9s": 12078, "Cons": 22200, "Uint": 20669, "\u2581\u0445\u0430\u0440\u0430\u043a": 26977, "agles": 27432, "\u2581ET": 28338, "V": 29558, "\u2581Brew": 24048, "\u2581Og": 27594, "\u2581That": 2493, "icate": 6517, "\u2581utilize": 23303, "iches": 26577, "\u01d4": 31234, "UNKNOWN": 25420, "\u2581start": 1917, "\u2581coffee": 7813, "\u2581Corps": 16829, "\u2581sweep": 28042, "\u2581Frau": 28761, "\u2581pand": 12908, "\u0435\u043d\u0442": 6857, "\u2581prop": 4081, "\u2581prof": 2725, "BY": 10500, "\u2581\u041f\u0435\u0442": 22213, "\u2581shed": 20619, "\u2581Sund": 7489, "\u2581removal": 17846, "intage": 21921, "\u2581jewel": 21505, "\u2581Who": 7294, "\u2581alloc": 7821, "\u2581Until": 18471, "\u2581term": 2618, "\u2581obj": 5352, "\u2581autom": 5375, "Ch": 1977, "vest": 7049, "nde": 19541, "Uniform": 24240, "erta": 22081, "\u2581dire": 4015, "\u2581stagger": 25900, "\u5cf0": 32120, "\u2581kernel": 14421, "\u2581Napole": 22972, "\u2581PAGE": 24277, "\u2581\u0444": 3406, "\u2581hire": 16038, "\u2581Liver": 19200, "\u2581appreciated": 23127, "\u2581Soph": 16071, "\u2581determines": 26142, "\u0440\u043e\u0432": 6426, "\u2581dogs": 10308, "\u2581Protection": 21922, "\u2581maybe": 5125, "\u2581identify": 9819, "uj\u0105": 21374, "umps": 11343, "\u2581Jama": 26920, "wahl": 27712, "Luc": 28689, "\u2581adj": 12201, "\u2581price": 4912, "cost": 14942, "ode": 1341, "\u2581templates": 25674, "[control_39]": 41, "\u1ec1": 30907, "ploy": 2961, "pus": 21040, "weights": 27679, "Counter": 16573, "\u2581transparent": 20943, "\u2581\u041f\u043e": 4555, "ays": 1516, "\u2581(*": 3021, "\u2581received": 4642, "\u5f90": 32689, "\u2581Mel": 7290, "\u2581crash": 15224, "\u043b\u0438\u043d": 15042, "bot": 10861, "\u2581bor": 25631, "\u2581approximate": 27900, "\u2581cm": 9140, "ively": 3028, "rena": 15016, "pg": 4154, "\u2581channels": 12439, "\u2581ap": 1747, "optim": 19193, "}{(": 26499, "pert": 3250, "\u2581Pict": 23030, "\u2581sorted": 18720, "\u2581capacity": 9212, "Full": 11163, "ip": 1276, "Reset": 14477, "\u53cb": 30828, "\u4eea": 32610, "\u2581zwischen": 13985, "\u2581evt": 25810, "\u2581\u0440\u043e\u0437": 10123, "ustom": 2403, "\u2581miles": 6820, "\u2581moder": 12091, "\u2581Cru": 12317, "ueva": 23168, "Params": 6153, "create": 3346, "\u2581scal": 11199, "\u2581lyrics": 23351, "rek": 28857, "osten": 17842, "\u8baf": 32084, "\u2581shout": 12196, "\u2581convent": 13136, "\u2030": 31180, "\u2581gl": 2040, "\u2581huge": 6169, "\u0442\u0430\u0440": 19381, "calc": 23882, "\u0e48": 30064, "Small": 23117, "\u4e22": 32651, "\u0434\u0435\u043d": 7543, "pawn": 26146, "\u2581\u0440\u043e\u043a\u0456\u0432": 19825, "[control_20]": 22, "RATE": 24764, "\u0441\u043a\u043e\u0433\u043e": 5577, "\u2581inform": 5995, "zz": 7516, "\u2581medical": 6482, "which": 7742, "\u2581unlike": 16111, "\u2581assist": 6799, "IGHT": 8382, "\u2581sex": 3910, "\u2581dynamic": 11384, "\u2581Luft": 27589, "Links": 29184, "\u2581describe": 7453, "Tool": 7546, "MMMM": 28277, "\u2581vacation": 17597, "[control_593]": 595, "\u2581stair": 21287, "ETH": 21906, "v\u00e4": 16519, "\u010de": 28119, "\u5f88": 30879, "\u2581jack": 18295, "\u2581selection": 8263, "nih": 20604, "IME": 15230, "\u2581don": 1717, "\u2581notification": 15669, "\u2581Virgin": 9239, "\u2581program": 2775, "\u2581Lip": 24905, "\u2581rv": 23789, "\u2581Ende": 17934, "\u2581system": 2355, "k\u00f6": 18754, "[control_410]": 412, "mon": 3408, "\u65af": 31088, "\u2581reasonable": 12069, "major": 20833, "\u2581Hitler": 15624, "\u6cf0": 32129, "\u2581firm": 6567, "Sheet": 20333, "Start": 4898, "abs": 5505, "\u2581revel": 17888, "adapter": 12349, "\u2581decre": 9280, "shops": 22441, "\u043d\u0435\u0433\u043e": 28343, "\u2581boxes": 14214, "Bottom": 16250, "\u0089": 31966, "[control_639]": 641, "\u2581discussing": 21401, "\u2581civilian": 25888, "\u2581cpu": 12789, "Sl": 6242, "neys": 27751, "\u2581Travel": 18591, "abl": 14515, "\u1ebf": 30390, "\u2581\u0431\u043e": 6304, "\u00e4ch": 13087, "\u2581acres": 21415, "Size": 3037, "COMMAND": 27597, ")(": 4615, "phas": 10490, "\u0153uv": 21682, "no\u015bci": 21719, "\u2581Vall": 27765, "\u0e22": 30216, "oney": 2779, "adjust": 23330, "\u00edl": 26216, "\u2581shown": 5662, "\u2581toys": 22938, "dz": 7704, "\u2581familia": 20034, "menu": 7497, "chart": 17385, "ork": 1348, "\u2581Schul": 22262, "\u2581designing": 27757, "\u5c07": 31626, "\u06d2": 31290, "\u2581cached": 20738, "\u001a": 31527, "<0xAF>": 946, "\u2581deutsch": 15155, "\u2581Andrea": 24777, "\u043d\u0456\u0457": 25274, "\u2581Eve": 20189, "\u2581couldn": 4249, "\u2581klikken": 16476, "\u021b": 29673, "\uc131": 30233, "\u00e9ro": 19053, "\u2581practically": 20887, "\u2581ic": 20467, "Every": 14620, "\ud55c": 30050, "\u82cf": 31753, "\u2581Wait": 13886, "Billboard": 27657, "\u2581\u0219i": 7712, "\u2581Bil": 24780, "\u2581sowie": 12066, "[(": 16394, "isp": 11159, "itution": 7297, "\u2581spiritual": 11822, "essages": 10019, "<0x23>": 806, "\u2581Fried": 11531, "\u2581elim": 9431, "\u2581Arts": 12031, "AppCompat": 12475, "\u2581And": 1783, "\u2581sud": 14568, "\u2581wished": 16302, "\u0131": 29721, "<0xD4>": 983, "\u2581Angeles": 10247, "\u00e9qu": 14945, "\u043d\u043e\u043c\u0443": 14646, "\u2581slid": 19225, "\u2581bombs": 26852, "\u2581Alliance": 21734, "\u660c": 32033, "\u2581gather": 7527, "lik": 5402, "modal": 14510, "clusion": 17481, "\u2581Appro": 20815, "\u2581liberty": 27508, "\u2581Know": 12076, "\u2581Cand": 27382, "\u2581fran\u00e7aise": 22569, "\u2581heavily": 13527, "\u2581exam": 4942, "\u2581paintings": 20340, "ps": 1550, "\u2581contr": 4956, "Writer": 10311, "IES": 18538, "\u2581man": 1444, "\u2581bez": 18805, "\u010dn\u00ed": 26934, "\u2581pretty": 4236, "\u2581ske": 12517, "PRESS": 21828, "Provider": 6110, "\u2581pillow": 26664, "\u2581Carter": 18094, "\u2581liegt": 19378, "\u2581dernier": 27360, "\u2581\u0432\u0435\u0440": 13714, "\u2581function": 1676, "\u043a\u043e\u0432\u0430": 14837, "dap": 25028, "\u2581Van": 8415, "Ok": 9820, "nm": 15714, "\u2581employee": 13002, "LABEL": 23360, "leading": 22834, "\u2581Kids": 21954, "\u2581wer": 3805, "Radius": 20052, "\u2581holding": 7400, "\u2581With": 3094, "\u2581Ger": 8569, "\ubca4": 32620, "\u2581Fant": 20568, "\u2581true": 1900, "\u2581Fernando": 25070, "Table": 4002, "number": 5578, "drv": 16323, "tu": 18280, "\u2581CE": 22434, "\u043b\u0430\u0437\u0438": 24169, "\u2581separ": 4707, "\u2581Sally": 27802, "fon": 28312, "rei": 10909, "\u2581stadium": 24864, "MM": 5730, "icket": 10874, "\u2581Tam": 18589, "\u2581async": 6523, "<'": 13497, "weg": 13498, "\uacc4": 30874, "\u2581nombre": 9349, "\u804a": 32368, "\u2581carpet": 19380, "\u2581authors": 12507, "\u2581Hard": 10476, "See": 8760, "iju": 18179, "\u2581meets": 19255, "\u2581finance": 16746, "\u2581em": 1645, "\u2581Logger": 23182, "\u2581norm": 7320, "\u0441\u043e\u043d": 22363, "\u2581n\u00e9": 9456, "\u8fd1": 31131, "\u0395": 30331, "\u2581si": 2912, "\u2581review": 4826, "aping": 14655, "\u2581autre": 21406, "\u2581getting": 3487, "\u2581phenomen": 16419, "\u2581Meeting": 26729, "\u2581Curt": 22818, "\u5957": 31614, "endent": 12023, "\u6b21": 30013, "\u2581Getting": 20664, "\u2581cluster": 9962, "\u2581\u0440\u0443\u0441": 25147, "\u2581sul": 11345, "\u043f\u0430\u043d": 24607, "\u6784": 30380, "nett": 22069, "\u2581spl": 8922, "\u2581kv": 15352, "\u2581break": 2489, "idence": 3932, "\u2581Think": 16171, "\u2581succeeded": 18519, "\u0442\u0430\u0445": 28515, "\u2581Meter": 27441, "\u2581$": 1197, "\u82e5": 31001, "\u2581monaster": 27896, "\u2581trad": 3552, "[control_93]": 95, "DMA": 18400, "\u2581Issue": 28534, "\u2581stones": 18156, "obre": 15550, "avelength": 27563, "\u2581designed": 6450, "\u2581Mem": 6779, "Integr": 24404, "\u2581wheel": 11065, "Criteria": 21487, "reflect": 25672, "\u2581Running": 29356, "bundle": 25791, "\u099c": 31988, "iteral": 10718, "grid": 10312, "\u2581Abu": 25480, "\u2581prin": 8591, "\u2581glo": 20488, "\u2581Blood": 17911, "\u2581crusher": 15515, "\u2581contact": 4522, "\u308c": 30155, "<0x72>": 885, "cers": 15916, "wealth": 24087, "IMAGE": 25715, "\u2581[-": 28867, "ktr": 21180, "\u2581through": 1827, "ding": 3970, "\u2581odd": 7707, "\u2581Turner": 23681, "\u2581research": 4100, "oria": 5452, "ango": 9226, "bler": 23181, "\u2581\u043c\u0456": 8632, "asting": 17029, "oux": 20917, "\u2581interviews": 18977, "\u2581nation": 6646, "rote": 5007, "\u2581Vin": 13438, "\u2581bones": 16030, "\uc54a": 30872, "\u2581vy": 16380, "\u2581kitchen": 6900, "[control_308]": 310, "Cap": 10721, "\u2581Coach": 25615, "\u2581M\u00fcnchen": 25130, "\u2581elementary": 25035, "\u2581callback": 7193, "\u00e9sz": 19199, "insky": 27747, "\u2581Bear": 22193, "\u2581managing": 16865, "update": 4586, "\u00e4ft": 21852, "\u2581ann\u00e9es": 16778, "\u2581hands": 3806, "\u0e35": 30328, "\u2581sotto": 28927, "Cond": 9590, "Tur": 29116, "leveland": 21770, "\u2581visa": 29075, "\u2581too": 2136, ")+": 11296, "\u2581Gordon": 16705, "\u2581fe": 1469, "atures": 3631, "\u2581surrounding": 12796, "\")]": 7332, "\u2581equival": 8675, "\u2581FIXME": 27610, "\u2581df": 14576, "\u2581hub": 15314, "This": 4028, "\u2581rooms": 10466, "aland": 12011, "\u2581cust": 19310, "\u2581Sin": 12562, "verts": 25641, "\u2581\"\");": 22821, "isch": 3911, "dl": 10546, "[control_562]": 564, "\u2581takes": 5115, "\\|_{": 27746, "lica": 25302, "oma": 7711, "reek": 7625, "\u0906": 32065, "\u2581supportive": 28497, "\u2581certification": 25549, "\u2581derive": 24826, "\u2581composed": 15789, "\u2581durch": 7099, "jan": 13285, "\u2581bore": 23577, "\u2581Officer": 17565, "headed": 26535, "\u2581pecul": 24676, "antes": 7450, "\u2581electric": 8546, "\u2581versus": 17831, "\u6d6a": 32520, "\u7236": 31044, "\u2581dog": 4682, "HS": 10799, "nik": 9259, ")}{\\": 23813, "\u2581addressing": 25411, "rera": 21497, "atile": 14259, "\u044d": 29656, "\u8f69": 32711, "point": 3043, "perty": 2380, "Flag": 11555, "\u2581Hawai": 19607, "gery": 11325, "\u2581borders": 23670, "\u2581retour": 27544, "STEM": 23294, "\u2581exclusive": 15127, "ivid": 3165, "[control_17]": 19, "\u2581cheer": 17864, "\u2581Nin": 25613, "\u2581Smith": 7485, "\u52b9": 31843, "itled": 14013, "\u2581Sun": 7825, "Fe": 6748, "\u2581Yan": 19189, "\u2581TE": 21799, "ryption": 14839, "\ud83c\udffb": 30852, "\u2581STAT": 21592, "di": 6373, "\u2581Delete": 16031, "\u2581characteristics": 16327, "lv": 21823, "'}": 15259, "\u2581veterans": 28809, "\u2581Mol": 17155, "ount": 1464, "\u2581stro": 15448, "aci": 13882, "rcu": 29036, "\u2581owns": 25829, "Append": 13796, "println": 8329, "\u2581Agr": 19314, "auses": 24597, "\u793a": 29841, "ne": 1253, "\u0432\u0438\u0445": 18863, "-----------": 27452, "\u0448\u0438\u043c": 27834, "\u01ce": 30556, "\u2581extended": 9534, "urance": 5703, "igan": 10032, "\u0459\u0435": 12713, "uty": 15766, "\u2581optimization": 19354, "\u2581millions": 11844, "\u2581Natur": 22517, "\u2581mentally": 25103, "uchar": 22066, "\u2581\u043f\u043e\u043b\u0438": 17194, "\u2581degener": 25275, "(%": 17024, "\u2581\u043e\u0442\u0440\u0438": 28306, "\u2581Hot": 7663, "\u6587": 29787, "ch": 1106, "\u2581literary": 17724, "CHAR": 12832, "enson": 26973, "gged": 11669, "angen": 26815, "\u8389": 32574, "\ub2f4": 32337, "<0x75>": 888, "BR": 11913, "degree": 27795, "<0x7E>": 897, "\u2581dataset": 14234, "rypted": 17400, "istrz": 20829, "\u2581Jur": 22779, "izations": 14577, "\u2581ster": 17817, "\u2581courts": 18793, "initely": 18298, "\u2581resc": 12300, "\uc874": 31793, "\u2581tasks": 10564, "thread": 6869, "swer": 17749, "\u2581Pain": 20831, "\u2581PT": 23380, "\u043e\u043b\u043e": 7976, "occup": 19330, "\u2581Ever": 13531, "velle": 18116, "\u2581coordinate": 18005, "\ud560": 30491, "\u2581rest": 2614, "\u2581precise": 17776, "\u2581colors": 10072, "aim": 3139, "\u2581Benj": 17850, "\u2581Individual": 28507, "estic": 10314, "\u2581god": 6293, "\u2581$.": 11652, "\u2581trusted": 17205, "dropdown": 22666, "\u2581cater": 23018, "\u2581Tag": 13764, "\u2581compat": 11562, "dale": 22120, "\u2581Paulo": 22917, "lemagne": 28245, "\u2581\u043c\u0438\u0440\u0430": 28451, "\u2581install": 5198, "\u2581pipe": 14429, "<0x21>": 804, "\u2581amplit": 19273, "Journal": 25061, "\u2581%,": 29358, "ske": 27022, "\u2581tart": 20141, "\u2581Anything": 28753, "\u822c": 31580, "merce": 11673, "\u2581professionals": 13517, "iller": 9646, "\u2581human": 3698, "Timeout": 9704, "AW": 18669, "\u2581overnight": 22896, "\u2581\u0456\u0437": 23843, "\u5e95": 31305, "\u2581Plus": 11998, "iene": 7631, "\u2581conclude": 19197, "ipe": 4753, "\u2581\u043f\u0440\u0430": 7154, "ologia": 17009, "\u2581grief": 21339, "\u2581administr": 6234, "tbl": 16084, "Dynamic": 18970, "\u0290": 32470, "cell": 5628, "\u2581\"%": 8687, "\u2581aug": 11914, "\u2581Agricult": 24605, "\u2581backward": 20360, "\u2581environments": 20799, "\u2581fou": 20661, "rier": 5886, "\u2581guy": 5417, "\u675f": 30558, "jek": 25001, "\u2581questioning": 27971, "\u2581Wil": 6136, "\u2581leader": 7827, "\u2581qualify": 24317, "WO": 21231, "\u2581compromise": 26247, "Sample": 16485, "EO": 8206, "BITS": 27769, "\u2581f\u00e9vrier": 21673, "\u2581\u0425": 5492, "ilar": 3820, "\u2581tambi\u00e9n": 11565, "\u2581resist": 15673, "Ptr": 5862, "\u2581penal": 16340, "\u2581Ralph": 24141, "malloc": 25088, "iative": 27706, "ests": 6714, "\u2581sticking": 28090, "\u2265": 30670, "\u2581gloves": 26338, "\u2581Mary": 6248, "gence": 12754, "around": 21654, "\u2581thin": 9794, "hot": 11440, "\u2581Linda": 24053, "\u2581\u043e\u0431\u0435": 27717, "[control_195]": 197, "\u0f44": 32326, "index": 2801, "\u5f1f": 32246, "\u2581Street": 6151, "ening": 4018, "\uaca0": 32578, "neq": 15050,
[...]
