{"\u2581extends": 4976, "\u2581bank": 5206, "\u3082": 29778, "\u2581grade": 12146, "plicity": 18494, "bars": 28008, "\uc11d": 31585, "\u043d\u043e\u0441\u0442": 12757, "($": 1501, "oto": 2587, "\u2581see": 1032, "AspNetCore": 14141, "\u2581south": 6287, "\u2581Championship": 8906, "mad": 13179, "\u1eed": 30389, "\u3011": 29494, "\u2581\u0441\u043b\u0435\u0434": 25091, "\u1ea9": 30677, "oman": 8322, "\u2581Almost": 20676, "\u2581awkward": 17450, "TIES": 8741, "\u2581bell": 15676, "created": 13574, "\u2581templ": 5752, "\u2581Aug": 3219, "\u0442\u0441\u044f": 11626, "\u2581Lors": 28462, "\u0434": 28799, "place": 2912, "\u2581pride": 14384, "\u2581pol": 1160, "\u2581Holy": 12830, "\u2581max": 2666, "\u2581tires": 25966, "\u2581sam": 4545, "reement": 18090, "\u2581HashMap": 20013, "\u2581incredible": 13978, "\u914d": 29253, "\u2581Shar": 20071, "Autow": 25789, "OLD": 12020, "valueOf": 19822, "\u2581causa": 20813, "\u2581matter": 3209, "tabs": 24856, "\u2581lifted": 11942, "\u2581Hero": 20827, "angu": 2374, "rite": 1967, "\u2581plugins": 25006, "\u0440\u0443": 1728, "a\u00f1": 15395, "Det": 5155, "\u2581wish": 5138, "\u2581inverse": 22668, "\u2581wp": 18495, "\u2581cable": 15822, "\u2581regulation": 22470, "\u2581Jap": 23106, "<0x13>": 22, "\u2581Stephen": 12332, "\u4ecd": 31971, "\u2581transl": 7254, "cond": 1213, "psilon": 6000, "\u2581dont": 7286, "\u0436\u0434\u0443": 13273, "\u2581divided": 13570, "\u2581extraordinary": 17809, "idy": 26576, "<'": 12729, ")((": 26053, "\u2581viagra": 26805, "\u2581Little": 9999, "\u2581main": 2191, "ToString": 10152, "<0xBD>": 192, "\u043b\u0435\u043a\u0441\u0430\u043d\u0434": 16109, "Unis": 18524, "mission": 6306, "\u1e62": 30871, "\u2581violation": 22734, "\u2581\u043e\u0434\u043d\u043e": 26751, "MLE": 26555, "itated": 13523, "props": 7329, "\u2581before": 1159, "dev": 1363, "ateur": 10229, "\u2581grim": 17837, "\u2581bloody": 17880, "\u2581restaurant": 9926, "\u2581ander": 21488, "\u2581dispon": 25063, "\u2581Vienna": 25756, "\u5356": 31337, "\u2581snake": 24342, "\u2581ware": 21110, "\u2581me": 528, "acia": 12990, "\u2581\u043e\u0441\u043d\u043e\u0432\u0430": 25621, "\u2581away": 1753, "\u2581Work": 5066, "question": 17496, "\u2581panel": 8357, "\u2581Mon": 3217, "\u2581cancell": 12136, "**)": 12885, "<0xD8>": 219, "\u0456": 28813, "\u2581novel": 7092, "\u2581sure": 1864, "font": 6102, "Who": 11447, "\u2581Address": 13046, "burgh": 20818, "\u2581mou": 22182, "isValid": 28390, "entry": 3991, "\u044e\u0447\u0438": 23975, "\u043f\u0435\u0439": 28216, "\u2581rem": 1003, "\u2581vault": 26850, "jen": 6956, "\u2581cha": 10355, "Uint": 19901, "oggle": 9282, "\u2581dos": 4882, "\u2581\u0432\u043e\u043b\u043e": 28229, "Valid": 4794, "\u5dde": 29719, "\u5bab": 31785, "\u093f": 29554, "\u2581Everything": 13090, "ANG": 19182, "angular": 8685, "\u2581Radio": 12038, "\u2581gifts": 15973, "mercial": 19828, "\u2581Release": 19864, "walk": 11287, "\u2581singing": 14493, "\u2581singular": 15816, "\u2581trash": 17466, "\u0442\u0435": 1078, "YP": 26058, "\uc678": 31132, "\u2581key": 1945, "\u2581volumes": 20535, "\u043c\u0435\u043d\u0442": 18664, "\u2581\u0441\u0442\u0430\u0440": 22235, "auth": 6414, "lett": 15418, "\u2581His": 2354, "\u2581managed": 6900, "\u2581downt": 15129, "nab": 7563, "b": 28726, "emon": 7884, "ign": 603, "\u2581Bog": 19925, "\u00bb,": 6279, "\u2581\u0414\u043e": 9193, "\u2581nit": 22292, "ification": 2500, "\u2581remot": 28601, "\u5b58": 29079, "\u2581[]": 3980, "notify": 15413, "\u2581improving": 16752, "\u2581quad": 12618, "\u2581grew": 8108, "\u2581Corn": 12506, "a\u0142o": 27189, "Route": 9858, "Patch": 24936, "ban": 3627, "\u2581ast": 9597, "\u2581decisions": 9549, "\u2581Computer": 20466, "\u4ec5": 30472, "\u2581stripped": 27371, "\u2581premi\u00e8re": 14102, "\u7cca": 31984, "as": 293, "outh": 1881, "\u2581disease": 8030, "virtual": 16604, "\u043b\u043e\u043a": 23135, "\u2581bought": 7620, "\u2581Sql": 20950, "under": 5664, "zed": 12616, "\u2581hid": 18750, "LT": 24913, "\u2581Bomb": 25805, "\u2581Sydney": 14469, "\u2581Cit": 16334, "\u2581\u041f\u0440\u043e": 12119, "\u2581Ali": 15284, "iler": 5809, "\u2581aud": 4786, "\u2581Chi": 17792, "mitted": 10286, "usal": 13396, "cosystem": 25706, "<0x5B>": 94, "\u2581favourite": 16020, "vb": 26875, "\u0c4d": 30865, "\u3052": 31967, "\u2581bitter": 16493, "ASC": 27323, "Mc": 28641, "\u2581vista": 28263, "dating": 19196, "\u2581NOTE": 21125, "\u2581Bi": 6345, "\u2581Async": 28671, "\u2581property": 3321, "\u8f91": 29815, "\u2581sampling": 23230, "umn": 1786, "eg": 641, "\u2581mater": 17613, "generate": 15001, "\u2581lead": 1736, "\u2581tv": 9781, "\u10d9": 30540, "<0x38>": 59, "iation": 6752, "\u52a1": 29224, "ise": 864, "ko": 4798, "\u517b": 31868, "en": 269, "PARAM": 13786, "\u2581Sweet": 22593, "TOM": 27507, "\u2581Abstract": 14372, "flix": 22401, "\u2581Corps": 16061, "\u2581tables": 9882, "\u2581ruled": 20080, "\u2581Giovanni": 21114, "\u2581deserves": 24985, "\u2581zip": 17955, "\u5883": 30396, "material": 10595, "\u9001": 29434, "\u2581wyd": 28225, "\u4e16": 30050, "rian": 6260, "\u89a7": 31722, "\u2581document": 3248, "\u2581fire": 3339, "\u0440\u0430\u0431\u043e": 22336, "El": 5773, "\u2581ARM": 23544, "\u043a\u0442\u043e\u0440": 14134, "\u2581remark": 9174, "ska": 9883, "medium": 25095, "\u2581\u0433\u0440\u0443": 9891, "\u00e4ll": 14357, "\u2581cada": 14150, "\u2581Ak": 9532, "Final": 17500, "Activ": 18127, "isti": 20589, "O": 28762, "\u10ee": 30306, "aware": 15950, "\u2581chin": 17418, "\u2581polar": 14955, "agnostics": 14127, "\u2581isinstance": 17607, "\u2581washing": 20391, "Controller": 5733, "\u2581expect": 1675, "\u2581Fort": 6963, "\u2581shop": 5126, "\u09cd": 29686, "\u2581wage": 21062, "\u2581it": 378, "\u201c,": 15304, "Arc": 26546, "\u2581existed": 16947, "\u2581m\u00e5": 25113, "\u2581containers": 25399, "ifdef": 6499, "nom": 11991, "\u2581conclusions": 24242, "\u2581\u043f\u0438": 10484, "\u2581buried": 14228, "\u2581NOT": 5457, "yc": 27831, "\u2581resort": 18969, "\u2581doctrine": 26846, "\ud658": 30391, "Document": 7364, "\u2581bright": 6833, "Gap": 26954, "\u2581Requ": 7251, "iva": 5092, "\u2581ANY": 5788, "\u2581Menschen": 24820, "\u2581\u043e\u0431\u0440\u0430\u0437\u043e\u0432\u0430": 25160, "\u2581step": 3707, "AE": 12600, "conn": 8407, "\u2581tall": 9369, "hooks": 25142, "iction": 3033, "LECT": 8785, "times": 4593, "\u2581arts": 13480, "dashboard": 28261, "\u2581vacuum": 18362, "\u2581dam": 3207, "\u2581beneath": 10042, "\u2581Ty": 10084, "Overflow": 24181, "}^": 2381, "\u2581family": 2005, "\u2581program": 2007, "\u2581Mun": 15818, "\u2581\u043f\u043e\u043b": 13577, "osc": 17815, "\u0435\u0442\u0441\u044f": 7357, "\u2581stocks": 21781, "erme": 26230, "\u907f": 31059, "PB": 27982, "\u2581studio": 9659, "shift": 9114, "\u2581w\u00e4hrend": 20885, "\u2581hind": 21413, "\u2581Hel": 5424, "\u2581down": 1060, "astically": 27674, "\u2581Susan": 17569, "\u0437\u043d\u0438": 22037, "\u2581fant": 7399, "\u2581probably": 3049, "document": 7200, "\u2581genetic": 19869, "ons": 1053, "\ubcf8": 30535, "\u2581stranger": 19625, "\u2581Paris": 5465, "\u00fablica": 18305, "\u255a": 30706, "\u2581compete": 18575, "\u2581provin": 24899, "\u0432\u043e": 1175, "\u2581\u0448\u0430": 24604, "atile": 13491, "vens": 14081, "\u2581\u043f\u0435\u0440\u0435": 4978, "look": 5819, "Server": 5334, "=\"-": 23013, "\u021b": 28905, "<0x48>": 75, "\u1d00": 31093, "v\u00e1": 15504, "\u3048": 30145, "\u2581evening": 6856, "ieler": 11963, "\u8d34": 30022, "\u2581tickets": 15551, "\u2581around": 1401, "\u001f": 31217, "\u2581Sie": 7075, "\ub7c9": 31314, "\u2581EC": 21405, "\u2581colony": 28115, "<0x0B>": 14, "loaded": 16070, "\u2581properly": 9222, "\u2581\u2018": 3475, "IOException": 15211, "ktion": 16591, "';": 1775, "St": 718, "\u2581otras": 23891, "\u2581manage": 8594, "\u2581Supreme": 14887, "\u2581damp": 19151, "########": 3590, "zi": 4295, "\u98db": 31765, "\u2581tired": 10272, "urst": 24168, "Est": 14644, "\u2581Stop": 13560, "\u00e4st": 28068, "ology": 2161, "\u2581privile": 13182, "\u2581\r": 1302, "itemize": 14287, "incing": 26455, "\u2581remembering": 26036, "\u2581rap": 5017, "\uac1d": 30411, "\u2581star": 4580, "\u0437\u043e": 3965, "Device": 6489, "\u2581purely": 21690, "ilation": 11213, "AME": 10026, "primary": 12525, "Band": 23852, "\u2581crate": 14834, "HP": 22106, "anged": 4185, "\u2581civ": 13269, "oving": 8259, "toEqual": 18665, "\u2581low": 2859, "\u2581\u0434\u0432\u0443": 23053, "enger": 9243, "\u2581medieval": 23223, "\u2581ministry": 23470, "aceae": 19789, "atisf": 27846, "\u0159i": 28180, "\u2581h\u00e4": 22800, "\u2581\u0440\u0430\u0434\u0438": 23352, "\u6c14": 30627, "\u2581candidate": 10169, "\u2581cater": 22250, "\u2581Joan": 20616, "\u2581workout": 26039, "\u03a0": 29575, "Mgr": 22109, "\u2581age": 3595, "\u2581extern": 7784, "\u00edtulo": 18440, "moment": 26471, "\u2581Russell": 17300, "iem": 4006, "\u2581Ya": 26849, "\u2581Sul": 19604, "\u2581bite": 18082, "atically": 6789, "essions": 8642, "suspend": 21836, "\u2581Brad": 12906, "\u2581CBS": 28233, "\u2581scream": 8933, ":%.*]]": 27456, "\u2581grandmother": 19023, "art": 444, "\u2581harmon": 26739, "\u043a\u0456\u0432": 10180, "\u745e": 31893, "\u2581MOD": 18471, "Constants": 11668, "\u2581acquisition": 23011, "\u2581\u041b\u044e": 24667, "REE": 8472, "Topic": 25462, "\u2581uncomfortable": 17785, "ogan": 25575, "itations": 25964, "\u0430\u043b": 14993, "vo": 3144, "ted": 17850, "cciones": 24598, "\u8aad": 31109, "\u2581gaming": 17767, "\u2581soap": 15668, "\u0158": 29420, "Enabled": 7315, "\u2581vol": 2208, "ossip": 24634, "quest": 6911, "\ube44": 29859, "\u2581\"/": 6938, "\u2581etern": 16701, "\u2581Bre": 8285, "\u2581important": 2278, "\u2581Myst": 22737, "\u05b4": 30225, "\u2581bunch": 11763, "arly": 1617, "Modal": 14025, "\u2581stab": 21670, "\u2581pull": 3300, "n\u00e9": 8269, "\u2581'#": 12252, "\u2581throwing": 15832, "\u2581approaching": 19940, "\u2581--": 1939, "lg": 10950, "\u2581traveled": 19948, "\u2581peg": 21979, "instance": 5241, "nak": 14854, "'].": 14303, "eclipse": 14871, "*{": 21599, "\u2581\u0442\u0435\u043c": 20245, "\u2581Jessica": 24062, "itt": 785, "verify": 14876, "ine": 473, ")]": 4753, "\u2581automatically": 10226, "\uc5f4": 30243, "!(\"": 19228, "\u2581MY": 18757, "\u0dcf": 31627, "ela": 4403, "\u2581medical": 5714, "\u2581\u0414\u0438": 16189, "\ud588": 30676, "\u2581\u00e9": 1233, "\u2581s\u00e3o": 19947, "\u2581gonna": 9575, "\u2581groupe": 17559, "\u2581Hollywood": 14057, "\u10d4": 29286, "\u673a": 29363, "\u2581attorney": 15085, "\u2581beings": 16905, "\u2581seinen": 17507, "room": 3017, "\u2581vul": 10320, "quality": 14817, "schedule": 20913, "\u2581Type": 5707, "\u2581letter": 5498, "Visible": 10082, "OPT": 17954, "\u2581fare": 19111, "\u2581\u041e\u0441": 20203, "\u2581('": 8272, "\u2581chat": 10706, "\u038c": 31746, "ative": 1197, "\u2581House": 4594, "\u2581supplement": 12982, "\u2581Beaut": 16686, "shirt": 21122, "\u2581\u0433\u043e\u0434\u0430\u0445": 26156, "\u585e": 31411, "\u2581favor": 4268, "\u2581permet": 14632, "\u2581ich": 15364, "\u0441\u0441\u0435": 21986, "\u2581bekannt": 24239, "\u2581Londres": 26432, "\u2581Republican": 12294, "\u2581bass": 12444, "\u2581freedom": 8467, "\u2581butt": 21921, "Donald": 18379, "\u2581toler": 13393, "Angle": 17917, "wc": 20894, "\ubcc4": 31044, "\u0088": 30463, "Execute": 17715, "\u2581Ny": 20268, "\u2581\u043f\u0435": 8153, "\u00e8ge": 24399, "\u2581sir": 10116, "\u2581Editor": 15361, "\u2581coron": 18167, "iate": 13713, "\u2581interact": 14113, "\u2581matching": 11623, "\u2581Debug": 18536, "\u2581hus": 4946, "\u2581Nic": 11921, "\u2581meaningful": 19258, "\u2581sensitivity": 22486, "\u00e1ct": 28062, "\u4e9a": 31103, "\u2581United": 2969, "\u2581hij": 7174, "\u2581operating": 10513, "\u97f3": 29838, "\u2581voc": 7901, "\u7279": 29631, "\u2581per\u00f2": 19005, "\u2581\u0431\u044b\u043b\u043e": 13926, "\u2581assault": 13349, "estly": 19067, "uspend": 16547, "\u2581Andrew": 10390, "\u2581cogn": 17464, "\u2581listade": 13129, "\u2581implement": 4808, "\u2581Ts": 17718, "\u2581merged": 22750, "\u2581Information": 9148, "\u2581totally": 8913, "\u2581Cas": 8194, "\u2581Hir": 24384, "\u2581scrut": 27352, "\u2581red": 2760, "energy": 18785, "occ": 21450, "\u2581BC": 13779, "\u2581skin": 4759, "supported": 11771, "\u2581tand": 27631, "\u0433\u0456": 10217, "Prototype": 25196, "Env": 8967, "\u2581avant": 14221, "ifts": 9037, "\u2581ic": 19699, "\u8003": 30165, "\u306f": 29277, "\u2581Default": 9707, "\u2581increase": 5247, "DATE": 13495, "this": 894, "\u2581dedic": 21810, "\u2581Jahren": 14529, "<0x75>": 120, "scripts": 23931, "ighters": 21465, "\u2581abs": 2873, "History": 13266, "\u2581coin": 16544, "\u010den": 28616, "failed": 13593, "\u6eaa": 31490, "ponent": 2462, "\u2581jak": 19755, "\u0144st": 24972, "car": 6602, "san": 20297, "\u2581retrieve": 20132, "\u2581package": 3660, "\u049b": 30417, "\u0434\u043d\u0430": 13373, "roud": 8568, "\u4ee3": 29314, "aci": 13114, "\u2581signature": 12561, "olding": 25107, "\u6557": 30903, "ettes": 26316, "\u5e9c": 31131, "html": 3391, "\u2581Jack": 4299, "\u2581arrived": 6792, "ifr": 23568, "\u2581hous": 5995, "ea": 11062, "\u2581exc": 2823, ".*": 3752, "\u2581renew": 13293, "\u2581Mississ": 19294, "\u17c6": 31251, "\u6307": 29223, "\u2581engineers": 22488, "ression": 9202, "\u2581carbon": 13654, "WR": 7210, "\u672b": 31325, "\u2581Box": 10598, "\u2581adds": 13633, "\u0442\u0443\u0440\u0430": 15337, "A": 28741, "\u1fc6": 31102, "\u2581Sid": 20315, "ika": 6012, "\u30de": 29685, "\u2581mix": 6750, "port": 483, "\u2581later": 2062, "enable": 7235, "\u2581entry": 4905, "\u2581tom": 6679, "\u2581Style": 17338, "Decl": 7557, "\ud655": 30270, "\u2581Rh": 10282, "\u2581Expression": 25031, "Result": 2716, "ogen": 8371, "\u2581regime": 13357, "\u79c0": 31450, "\u2581\u0440\u0443": 8857, "\u2581v\u00ed": 22906, "\u2581specify": 15759, "\u2581European": 6392, "auge": 25793, "\u2581offic": 2771, "\u2581holiday": 12010, "\u2581earned": 12839, "\u2581span": 12363, "\u2581hadn": 6003, "\u2581imperial": 20118, "ency": 2090, "\u2581jealous": 21176, "onces": 22947, "\u2581Vi": 11004, "\u0119d": 19556, "variables": 24227, "\u2581offset": 4470, "Buttons": 27178, "\u8857": 30405, "Comp": 5839, "\u2581say": 1315, "\u3000": 29351, "abeth": 9255, "\u2581major": 3014, "ClickListener": 24623, "args": 3087, "oe": 3679, "\u96be": 31407, "\u8c37": 30894, "\u2581acc": 932, "\u2581fres": 28582, "bled": 9704, "\u2581peak": 13093, "making": 14727, "\u2581satisf": 4864, "\u2581enjoyed": 10306, "PF": 12390, ":</": 11423, "\u2581courses": 12318, "omin": 15257, "inate": 4296, "oking": 8992, "orb": 19894, "\u2581little": 1628, "\u00e9ration": 17908, "\u0440\u0435\u0437": 15369, "Foot": 22043, "\u000b": 30638, "\u2581heels": 22822, "\u2581movies": 10615, "lyn": 12998, "\u2581governing": 10569, "\u2581smooth": 7898, "\u2581characteristic": 17845, "\u2581denen": 27796, "\u2581controlling": 24148, "\u96f2": 31986, "\u2581Here": 4003, "\u2581Kinder": 23786, "lag": 9403, "\uc744": 29189, "\u2581viene": 17145, "\u2581Kill": 25262, "\u2581oldest": 17690, "\u2581Chen": 17038, "\u7acb": 29831, "\u043d\u043e\u0439": 3596, "\u2581municip": 8616, "\u2581Oak": 18005, "emp": 3938, "Grad": 20910, "\u2581farmer": 25673, "\u2581organisations": 24202, "seh": 22001, "worth": 11360, "\u7d71": 31607, "\u2581Berlin": 8430, "Emit": 17911, "\u2581Caption": 6534, "\u2581tempor": 6613, "\u672c": 29119, "anne": 13002, "\u2581flo": 2175, "initely": 17530, "\u2581Guerra": 21913, "\u2248": 29988, "\u2581worked": 4198, "\u2581const": 779, "cm": 4200, "\u2581diz": 28014, "\u2581n\u00e3o": 11622, "control": 5476, "\u2581finds": 12397, "jk": 24397, "total": 6828, "rieg": 11137, "Author": 11318, "ashboard": 13569, "\u2581lacking": 26679, "Unable": 24085, "\ub3c4": 29599, "med": 1591, "mediate": 12597, "={{": 14039, "\u2581Peace": 18864, "\u2581\u2212": 8798, "\u2581XVII": 28183, "encoding": 17958, "Children": 13868, "\u0e39": 29976, "olin": 27545, "<0x17>": 26, "\u2581titled": 21508, "\u2581\u0418\u043d": 18170, "^*": 7304, "\u2581people": 905, "\u2581surviving": 26248, "\ub9bc": 31165, "\u2581Contact": 12603, "\u2581minds": 14898, "atan": 23905, "irection": 7819, "\u2581Brasil": 18341, "\u2581entities": 19810, "\u2581Kong": 12544, "\u2581responses": 14915, "ools": 20498, "insky": 26979, "\u2581given": 2078, "!\");": 22896, "anie": 8768, "\u2581Wol": 12840, "warning": 15845, "\u2581sod": 19769, "main": 5389, "\u9084": 31497, "\u2581lives": 4621, "\u2581focusing": 18319, "\u2581Change": 13204, "\u2581convicted": 28553, "\u2581\u043f\u0440\u043e\u0442\u0438": 25373, "\u2581\u017d": 21211, "Cl": 1199, "next": 3423, "ater": 795, "\u2581Format": 18748, "borg": 20293, "do": 2432, "\u2581watched": 6758, "emos": 24852, "\u043f\u0435": 3703, "\u884c": 29037, "\u2032": 28938, "\u00e4hr": 15072, "}>": 8699, "\u2581Kind": 13848, "lector": 4183, "\u2581politique": 19885, ">%": 24801, "\u2581bear": 9135, "tract": 2107, "\u2581\u0411\u043e": 8736, "adapter": 11581, "\u2581gesture": 19313, "Middleware": 26285, "ele": 1643, "\u2581ERR": 12100, "\u043e\u0431": 13549, "IES": 17770, "\u2581shot": 5180, "\u2581manip": 13313, "peed": 6714, "ier": 749, "\u043a\u0440\u0438": 17072, "\u2581divide": 21556, "\u2581seeking": 11246, "\u2581edges": 11742, "ip": 508, "\u2581Looking": 14828, "en\u00ed": 16640, "\u2581irrelevant": 27731, "\u2581halfway": 23169, "\u0f53": 31847, "word": 2186, "\u2581held": 3336, "\u2581\u0443\u043d\u0438\u0432\u0435\u0440\u0441\u0438\u0442\u0435": 24884, "\u2581SSL": 20669, "\u2581Fa": 12594, "\u2581droit": 28031, "Properties": 6509, "RC": 6860, "Processing": 27619, "hado": 25194, "film": 16116, "encing": 10695, "\u2581Jahrhund": 14052, "sleep": 16650, "\u2581Windows": 8955, "\u00e4hlt": 25409, "\u2581best": 1489, "Member": 10553, "\u2581Lesser": 19570, "\u2581Sh": 1295, "\u2581formerly": 26422, "erves": 20433, "eler": 7708, "\u2581Orth": 25663, "SSION": 10946, "\u30a9": 30302, "City": 22013, "\u5355": 29113, "wm": 18897, "\u2581Spiel": 14755, "<0x76>": 121, "li": 1144, "forms": 14367, ":\",": 26906, "\u2581recovery": 12106, "nod": 26177, "\u2581\u0431\u0438": 8843, "<0xD3>": 214, ")^": 7981, "\u2581dig": 3968, "pot": 14676, "\u2581installation": 14843, "\u2581Kyle": 25363, "ORMAL": 24321, "Region": 11518, "\u2581reporters": 25875, "\u2581happy": 4610, "undial": 18507, "\u2581pupp": 18631, "\u6807": 29144, "\u00c1": 28939, "\u2581Session": 18824, "anta": 9092, "\u2581allows": 5976, "\u2581education": 5362, "\u2581give": 2111, "\u7403": 30211, "HasColumnType": 18239, "\u30a4": 29157, "\u2581Vict": 6968, "ILD": 14010, "defer": 17112, "\u2581CONTR": 17453, "\u2581Leg": 5993, "\u2581comm": 901, "\u2581Pack": 11676, "real": 6487, "theme": 12679, "\u2581eyeb": 17659, "\u2581applying": 14893, "Spe": 24812, "\u2581Dou": 9108, "\u2581matrix": 7111, "\u2581Camp": 6143, "otos": 26064, "exports": 10126, "oba": 18441, "ions": 594, "mv": 23366, "aver": 10302, "<<<<": 17192, "\u2581Eddie": 19768, "subscription": 20054, "dash": 24917, "\u2581Russians": 27232, "\u2581cope": 27626, "\u2581stomach": 11752, "Arrow": 23874, "\u2581van": 1697, "ningen": 18870, "\u2581grupo": 18550, "!(": 8213, "buttons": 27269, "\u043d\u0456\u0432": 19138, "eau": 23524, "\u95dc": 31085, "\u2581bug": 10079, "\u2581uitgenodigd": 15649, "osp": 3382, "\u2581obtaining": 21402, "\u02bb": 29595, "jours": 22200, "age": 465, "\u2581inch": 17013, "\u2581royal": 13753, "\u2581decade": 12250, "\u2581classroom": 19729, "ses": 6065, "\u2581discret": 22683, "get": 527, "Such": 25738, "\u2581kat": 25345, "\u2581code": 2696, "\u2581Friday": 8085, "\u2581ben": 2798, "\u2581cpu": 12021, "\u2581Cole": 15128, "inates": 10218, "\u2581Born": 20109, "omen": 4361, "olent": 26346, "lambda": 3266, "\u2581musician": 26458, "arith": 28422, "construct": 15607, "(\"": 618, "Reply": 23805, "atos": 17360, "lected": 2344, "\u2581Through": 10091, "interval": 15344, "\u2581resulting": 10503, "\u2581lesser": 26767, "\ub9d0": 31253, "\u2581^": 9687, "apis": 20716, "\u2581reports": 7959, "\u2581ange": 19582, "\u2581chose": 10008, "oples": 19619, "\u2581races": 16509, "locale": 19237, "\u2581Math": 6960, "\u2581szer": 17267, "\u2581cond": 2076, "\u2581lyrics": 22583, "Date": 3465, "\u2581recipient": 23841, "\u2581Zel": 28614, "\u2581THIS": 13624, "cul": 2320, "\u2581GNU": 7171, "\u2581Tor": 5727, "sche": 8203, "\u2581\")": 20263, "\u043f\u043e\u0432": 21897, "\u2581offers": 5751, "\u2581eing": 13262, "\u2581adm": 5055, "\u85cf": 29895, "\u5f52": 30588, "ana": 2238, "\u2581offering": 9055, "\u2581monitoring": 16882, "\u2581bread": 10714, "\u2581kidn": 24466, "StackTrace": 20270, "inger": 4576, "\u2581Washington": 5924, "\u2581fit": 4646, "\u2581beliefs": 16415, "\u65bc": 30800, "\u516b": 30440, "\u2581discrim": 14256, "\u0437\u0438": 3020, "\u2581sequ": 5331, "\u2581Reading": 19118, "ali": 4827, "command": 6123, "bow": 11809, "noindent": 14458, "\u2581robust": 16458, "\u2581forgotten": 13652, "\u2581estimate": 11679, "\u2581smell": 11016, "v": 28728, "\u2581cur": 1191, "\u4ec0": 30289, "\u5ea7": 30635, "\u2581stopping": 17203, "\u2581worthy": 21220, "\u2581adapter": 19865, "\u79cb": 31467, "\u2581continent": 22713, "\u2581experience": 2659, "This": 3260, "\u2581midst": 25165, "\u2581reconstruction": 27419, "\u2581mour": 22004, "\u2581fifth": 14969, "\u2581proport": 12687, "\u2581ry": 24780, "cid": 20020, "--;": 16850, "\u2581stru": 4500, "collect": 16077, "isArray": 28000, "\u2581fruit": 10607, "pragma": 20812, "\u2581travail": 28541, "ican": 1772, "anced": 3692, "portun": 3766, "BO": 5759, "*\r": 13667, "\u2581configurations": 24991, "\u2581Secretary": 14051, "det": 4701, "Management": 17997, "mare": 20209, "\u2581asshole": 25676, "stret": 27757, "\u2581hotel": 7689, "\u2581League": 6165, "\u2581chill": 21332, "\u2581\u0430\u043a\u0442\u0438\u0432": 24735, "<0x29>": 44, "\u2581IR": 14149, "\u2581Vall": 26997, "\u2581enum": 10873, "\"": 28739, "\u0424": 28897, "\u2581optical": 19028, "rivate": 1266, "\u043d\u0438\u0438": 6515, "\u2581tong": 12166, "\u2581workplace": 23324, "\u2581accepts": 26223, "poss": 6338, "Stop": 10543, "ulas": 21541, "\u2581functions": 5572, "\u2581explored": 26761, "\u2581moved": 4142, "\u2581beard": 25293, "Med": 15774, "\u2581tire": 22251, "five": 12340, "idden": 4131, "orse": 14202, "ata": 563, "\u043c\u0435\u043d\u0438": 16938, "ArrayList": 17027, "\u0f44": 31558, "\u2581possibilities": 18053, "\u2581Man": 2213, "\u2581cool": 5106, "\u2581album": 4708, "\u2581entitled": 15583, "\u2581ON": 9688, "toire": 24502, "\u0581": 31440, "bourg": 20461, "\u2581\u0434\u0435\u044f": 20720, "OG": 21112, "TON": 17517, "\u2581useless": 19209, "\u00e9ben": 23825, "hedral": 19749, "\u2581Wik": 12217, "\u2581unsafe": 15426, "\u0451": 28881, "\u9f20": 31106, "choice": 23817, "\u2581watch": 3054, "\u043f\u0430\u0434": 15655, "polit": 20424, "\u2581closing": 12984, "\u2581strong": 2967, "!'": 8873, "java": 7628, "\u2581jog": 18903, "\u2581retired": 15451, "\u2581Andrea": 24009, "\u2581\u0422\u0443": 24519, "oked": 8641, "isce": 26322, "\u2581Phillips": 27703, "debug": 5201, "aggi": 24069, "\u2581Colomb": 18276, "rob": 18443, "\u2581approach": 4431, ":-": 18684, "\u2581COVID": 11747, "bur": 7945, "alter": 19831, "\u2581ER": 21346, "\u2581sull": 14974, "\u8f74": 30788, "orient": 13853, "\u2581assert": 2177, "\u2581moins": 17775, "eight": 23893, "\u2581recycl": 20115, "\u2581pam": 26362, "Maybe": 13044, "\u2581Attorney": 23064, "aces": 2089, "\u2581clothing": 13278, "\u4ed9": 31859, "inter": 1646, "\u221e": 29725, "\u2581iron": 8075, "\u2581TCP": 23007, "\u2581anime": 25708, "\u2581author": 3227, "\u2581Parameter": 26059, "imal": 3048, "\u2581Lit": 25003, "\u5165": 29048, "\u2581inev": 14694, "\u2581\u0420\u0430": 7543, "\u2581if": 513, "INFO": 7571, "\u2581Geme": 11250, "\u2581implicit": 21628, "ts": 1074, "\u2581belonged": 22232, "\u2581Falls": 24538, "\u63a2": 31498, "\u2581batteries": 25267, "<0xC5>": 200, "\u2581\u00eatre": 11983, "\u2581kn": 747, "Empty": 6027, "\u2581prepar": 7892, "\u2581sealed": 21998, "\u2581Gre": 9261, "\u2581mand": 9915, "\u2581happening": 9615, "\u2581La": 1700, "\u83dc": 30038, "MAIN": 19039, "\u2581\u043f\u0456\u0434": 11103, "\u2581oh": 11621, "\u2581Philippe": 26637, "SYSTEM": 27842, "\u043a\u043e\u043c": 7830, "[(": 15626, "\u2581\u043a\u043e\u0442\u043e\u0440\u044b\u0445": 28202, "\u96f6": 30922, "ge": 490, "<0x34>": 55, "\u2581Def": 4367, "\u0447\u043a\u0430": 19247, "beans": 22672, "\u2581como": 3118, "~": 28845, "iers": 3378, "eding": 13917, "fare": 18368, "rico": 22430, "\u2581reconc": 25349, "z\u0105": 10412, "<0x78>": 123, "\u2581portfolio": 19125, "amo": 14156, "Destroy": 17520, "estyle": 13030, "\u2581Den": 4745, "sex": 12396, "\u0e21": 29373, "\u2581radiation": 19308, "REQUI": 25127, "\u2581swap": 20166, "\u2581crypt": 18649, "Every": 13852, "Entities": 25050, "\u2581variety": 6677, "\u2581\u0442\u0440\u0438": 15397, "\u2581gaps": 27612, "\u2581heter": 23402, "agment": 6627, "\u2581ValueError": 26378, "\u2581extensions": 18739, "bery": 26666, "\u2581folk": 17873, "\u2581economy": 8725, "MenuItem": 16675, "slash": 25779, "Mill": 14667, "Sc": 3224, "\u2581fate": 16942, "\u2581rt": 22435, "\u2581unos": 27174, "\u2581mart": 15370, "CodeAttribute": 23583, "\u2581dom": 2853, "\uc548": 30325, "\u2581continuously": 25783, "\u2581Rep\u00fablica": 26621, "tool": 6462, "\u2581CHECK": 9128, "\u6d4b": 29584, "\u2581insane": 21295, "\u2581commer": 6002, "Will": 12695, "\u2581Tab": 14319, "\u2581Yan": 18421, "bm": 6659, "sets": 6591, "<0xFE>": 257, "\u2581preferred": 11719, "\u2581d\u00eda": 22062, "\u0432\u0430\u043d\u0435": 15064, "\u2581bew": 20039, "\u2581tuple": 21000, "\u4ece": 29505, "textit": 10162, "\u2581essential": 7974, "network": 9482, "\u2581Shaw": 24489, "\u226e": 31656, "\u2581Mand": 14572, "\u8c46": 31368, "WL": 22385, "liest": 18067, "shared": 9622, "\u2581Linux": 19486, "phi": 3163, "\u2581productive": 22779, "Host": 7287, "\u2581manually": 23060, "\u2581gaining": 25221, "\ud83e\udd70": 31510, "PDF": 28484, "AX": 15385, "\u2581l\u00e4": 23855, "Builder": 3686, "\u2581raz": 10717, "stad": 10862, "\u2581compos": 5890, "\u2581surgery": 13301, "\u2581entertaining": 25161, "\u2581SF": 21890, "ed": 286, "Using": 26021, "\u2581adjust": 7392, "\u2581exposed": 13438, "\u2581committed": 10252, "\u2581avoided": 22393, "clude": 12856, "\u2581frequently": 11220, "\u2581remains": 7520, "\u2581Bey": 16015, "\u2581Pred": 19122, "\u2581immense": 26491, "\u0652": 29655, "\u2581upper": 7280, "\u2581['": 5936, "\u6797": 30158, "\u2581massage": 20473, "dma": 11492, "ISH": 26571, "\u2581Feel": 27540, "\u2581Mey": 22586, "\u2581purple": 19435, "\ud83d\udcaf": 31685, "ito": 3068, "noon": 8122, "lookup": 16635, "tera": 20328, "\u2581unemployment": 28634, "\u2581Ben": 4121, "progress": 13763, "\u2581rights": 4495, "\u2581Leben": 16517, "RANGE": 25632, "\u2581home": 1611, "unts": 25985, "\u2581Protection": 21154, "chod": 22219, "\u0448\u0438\u043d": 25578, "sq": 4791, "\u4f8b": 29362, "\u2581mois": 27019, "\u0397": 30339, "LY": 9880, "\u2581Nations": 16419, "\u0442\u0440\u043e": 14162, "\u2581Committee": 9980, "a\u0142": 3862, "\u2581rev": 4497, "\u2581sudd": 5217, "Eng": 5871, "\u2581\u041a\u043e\u043d": 16954, "ieri": 20048, "\u2581elif": 16422, "igos": 26328, "Windows": 7984, "\u0441\u0442\u0432\u0438": 12505, "\u2581width": 4850, "\u2581gepubliceerd": 17811, "\u2581dude": 16924, "gen": 2383, "\u2581Hend": 18588, "\u2581Drag": 23185, "\u2581analyzed": 28649, "POINT": 21085, "\u30bb": 29932, "\u2581Wing": 26523, "Which": 26703, "\u2581fails": 14298, "uart": 15499, "semble": 11820, "ICES": 22285, "\u2581Fill": 25518, "\u2581began": 3125, "\u2581Gol": 27085, "\u2581IT": 8862, "\u2581compared": 6731, "\u2581banda": 21838, "\u2581rounds": 18638, "\u2581glow": 22998, "with": 3415, "\u2581american": 21419, "\u2581detect": 6705, "}\",": 13394, "\u0161": 28873, "party": 14999, "\u2581frustrated": 25511, "\u2581broker": 22670, "\u2581Assume": 28024, "\u2581\u043d\u0430": 929, "\u2581Pakistan": 15701, "\u6a5f": 30672, "izada": 27735, "\u2581webs": 3738, "\u2581todo": 12585, "\u2581Licensed": 10515, "\u7f8e": 29817, "romag": 26804, "vector": 6296, "\u2581perfectly": 9943, "\u2581introdu": 4180, "\u2581Volk": 25377, "hentication": 9767, "PHY": 21852, "\u2581thirty": 9418, "sek": 25933, "ennen": 26556, "\u2581denomin": 27876, "\u00e1sz": 27592, "<0xC3>": 198, "\u2581beside": 9439, "clusion": 16713, "cole": 17973, ",,,,": 20863, "\u2581Batt": 17546, "Primary": 17766, "\u2581Tob": 20479, "woman": 24132, "alom": 25759, "\u5f39": 30409, "naments": 27233, "\u0437\u043e\u043d": 24973, "Monitor": 19606, "Creation": 27708, "ilities": 3780, "\u2581\u0434\u0435": 3697, "\u2581tip": 7230, "\u2581nod": 5460, "\u2581partially": 19966, "product": 5646, "ely": 723, "Upload": 15888, "kle": 16993, "NULL": 5992, "mos": 7186, "\u2581regulations": 15885, "written": 15957, "After": 9169, "ceed": 3988, "\u2581inaug": 17946, "\u7db2": 31470, "opf": 24955, "anguage": 2797, "\u2581ing\u00e5r": 11169, "\u2581MAC": 23584, "django": 19326, "\ub9c8": 30103, "\u0446\u0438\u0458\u0430": 26895, "ering": 2131, "\u2581asp": 15577, "\u2581transaction": 8966, "\u2581anth": 20019, "\u2581concentrate": 24539, "\u6df7": 31493, "\u2581acceptance": 19871, "\u2581class": 875, "Graphics": 20634, "Columns": 15468, "\u2581recognized": 10099, "\u2581Islands": 18418, "kfree": 20492, "apa": 10405, "\u2581Which": 9595, "bil": 26702, "DOWN": 17601, "\u2581forcing": 20504, "sted": 17184, "\u2581strategies": 12108, "\u2581miserable": 26779, "lla": 10365, "**/": 26221, "\u00e9rc": 23219, "ule": 1390, "\u5c40": 29978, "\u2581\u0444\u0435\u0432": 21851, "ision": 1522, "inand": 24858, "\u2581Marshall": 18049, "\u2581protected": 4443, "\u2581Position": 17361, "\u2581fierce": 27118, "\u2581\u043b\u0438": 5952, "neo": 17462, "\u2581sender": 17560, "\u2581kg": 11455, "\u2581audience": 7938, "ique": 1651, "registry": 22464, "isy": 23444, "\u2581fus": 26400, "\u01eb": 31782, "\u2581AWS": 23246, "valid": 2398, "Enable": 13202, "\u2581Ave": 27170, "\u2581determine": 7655, "Sender": 25125, "\u2581shr": 12249, "\u6559": 30166, "\u2581unders": 23759, "Ant": 13389, "\u30b3": 29573, "\u2581\u0430\u043b\u0435": 28497, "\u2581Monte": 14706, "\u2581clone": 17993, "\u2581simpler": 27013, "\u2581Very": 13649, "\u2581Mak": 20046, "\u2581ft": 12608, "\u05d3": 29317, "frames": 19304, "\u2581forest": 8613, "venue": 8008, "\u2581wis": 14729, "\u2581conten": 26513, "mail": 6645, "\u2581lan": 26573, "\u5b69": 31437, "Design": 18479, "\u3068": 29316, "\u2581consisting": 20922, "\u2581\u00fa": 6149, "\u2581Freder": 15411, "\u2581Aust": 3297, "\u0109": 31962, "bg": 11689, "\u2581Fab": 12055, "oise": 21985, "swing": 11064, "\u043b\u0430\u0432": 9032, "\u2581lightly": 22140, "\u2581stream": 4454, "Mutex": 25703, "\u2581Mes": 21758, "APTER": 13531, "\u2581Leave": 25487, "\u2581every": 1012, "\u2581Haw": 9402, "\u2581Il": 2661, "\u2581techn": 2412, "\u0441\u0442\u043e\u0432": 27321, "\u2581tiene": 16262, "\u10d8": 29165, "FREE": 28137, "\u2581direct": 1863, "\u2581padding": 12342, "Player": 7699, "\u2581Parker": 19673, "\u2581sind": 6822, "VALUE": 10015, "\u7ed3": 29218, "asted": 13072, "\u65f6": 29007, "\u2581\\;": 14695, "\u2581drei": 15898, "\u2581Le": 1337, "\u2581Engineering": 17202, "ICS": 24194, "\u2581throw": 2154, "\u2581Za": 25819, "TREE": 26522, "di": 5605, "\u2581Mem": 6011, "hy": 5942, "athon": 19653, "\u2581Palace": 20637, "inburgh": 24464, "\u2581screw": 14693, "ven": 1434, "display": 5320, "love": 26232, "\u2581spoken": 14382, "\u2581acquired": 14178, "\u0444\u0456": 11206, "\u2581adv": 2057, "\u0435\u043c": 5210, "\u2581\u043d\u0430\u0434": 12399, "SER": 8548, "\u0f60": 31989, "Gu": 9226, "\u2581Ont": 16443, "\ud654": 29731, "\u2581Place": 11851, "\u043b\u043b\u0430": 26593, "\u2581Something": 13264, "\ucf54": 30293, "\u2581licensed": 17045, "Item": 2042, "\u2581comments": 7616, "\u2581craft": 9949, "over": 1483, "\u2581vital": 12588, "cli": 18008, "i\u00e9": 26420, "\u2581Beach": 11404, "png": 7441, "\u2581sus": 3121, "\u2581British": 4409, "\u2581worden": 13348, "\u2581v\u00e1": 14558, "\u2581frances": 17923, "den": 1620, "NF": 23000, "$~": 26051, "\u2581ignorance": 27627, "\u2581NL": 19561, "usalem": 17616, "\u0418": 28892, "\u2581community": 3618, "\u2581accom": 4339, "\u2581Production": 18860, "\u2581fourteen": 25275, "*\"": 27045, "PROPERTY": 28575, "\u2581beauty": 9689, "\u062c": 29156, "CHAR": 12064, "\u2581liver": 24824, "LOBAL": 18898, "\u2581Partido": 26595, "Vertical": 24647, "Pag": 26370, "\u2581internal": 5757, "NET": 11698, "company": 17998, "inner": 3739, "\u2581hun": 8275, "[-": 11440, "\u2581moisture": 28224, "ACHE": 15597, "\u2581pipeline": 16892, "vendor": 17635, "\u2581Gram": 21629, "inary": 3239, "orp": 16027, "\u2581Seg": 9594, "\u2581relax": 8096, "\u2581grap": 27532, "ouble": 1965, "DAY": 24841, "peror": 13910, "\u2581cinema": 22905, "\u8abf": 31404, "Typed": 22646, "UBLE": 22873, "\u2581storm": 9735, "\u2581haar": 23753, "ysz": 27713, "BP": 9399, "ken": 2314, "\u304a": 30089, "\u2581translated": 19004, "\u2581Nel": 10985, "constants": 23610, "ber": 537, "r\u00e1": 12210, "\u2581fever": 22041, "\u2581Zent": 27979, "\u2581Star": 7383, "GENER": 26010, "\u2581clean": 3587, "hash": 5700, "\u0e1f": 30725, "','": 6078, "you": 7020, "\u2581weak": 6334, "\u2581shed": 19851, "\u2581perfection": 27363, "\u2581change": 2268, "Iss": 21525, "\u2581unknown": 9038, "\u2581trading": 11674, "\u2581exceptional": 20202, "\u2581abandon": 8941, "ischen": 3096, "\u2581zur\u00fcck": 16460, "\u2581alternative": 9285, "\u2581those": 1395, "\u2581alignment": 19492, "\u1790": 31933, "\u2581smiled": 7970, "LEASE": 25634, "\uf0d8": 31261, "\u2581Oper": 6692, "igger": 4079, "<0x60>": 99, "lay": 7459, "\u2581Mans": 24800, "\u2581\u2116": 15778, "cref": 27742, "\u78bc": 30946, "\u2581Mist": 25200, "\u2581families": 6812, "\u2581structural": 21431, "\u2581Bruno": 24274, "\u2581condition": 4644, "gender": 24024, "Based": 24207, "pse": 19229, "\u2581Magn": 19654, "\u2581Ul": 12063, "\u2581Dav": 3476, "\u2581teil": 22442, "OK": 4903, "\u2581telephone": 15429, "dd": 1036, "\u2581Mix": 19630, "repository": 19944, "Miss": 14252, "\u2581zum": 6103, "typ": 23306, "\u9002": 30640, "\u2581Adv": 10822, "QUE": 20749, "\u2581r\u00e9s": 11310, "\u2581giving": 5239, "'))": 8100, "\u2581\u043f\u043e\u043b\u0438": 16426, "ar": 283, "\u2581Manufact": 19663, "\u2581Anc": 23952, "tcp": 16515, "Imp": 19484, "st\u00e4nd": 21591, "\u2581caut": 13831, "\u0445\u0438": 8009, "Updated": 21833, "Search": 7009, "wart": 11328, "ami": 6449, "body": 2680, "wan": 10074, "ible": 1070, "\u2581assets": 12858, "\u2581loads": 22560, "\u2581conduct": 9086, "inese": 5965, "\u0442\u043e\u0440": 6826, "aling": 4726, "Items": 7816, "\u2581bringing": 10279, "\u2581constitution": 22120, "\u2581brings": 11164, "\u2581\u0431\u0456\u043b\u044c": 28502, "urd": 12725, "\u2581landsc": 27308, "\u2581stair": 20519, "inar": 12939, "<0xC8>": 203, "\u2581t\u00e9l\u00e9": 27961, "arta": 18311, "\u2581tries": 14744, "\u2581Stream": 15915, "gom": 22297, "\u2581Lanc": 23141, "break": 2876, "\u2581Urban": 22007, "\u2581marginal": 25286, "\u2581andra": 26622, "available": 13952, "\u2581bout": 21726, "\u2581affecting": 27817, "\u2581Dev": 6624, "uario": 25335, "\u2581love": 2016, "\u2581crit": 3190, "Le": 3514, "learning": 27936, "\u2581arrest": 8431, "prev": 10083, "\u2581subm": 24301, "app": 763, "\u2581UV": 25231, "Then": 11341, "ijk": 17722, "\u2581stared": 10138, "WS": 7965, "\u2581concentrated": 25088, "\u2581controversy": 27959, "UTE": 13401, "Bank": 25022, "bt": 2695, "\u200b": 28935, "\u5361": 29810, "respect": 27281, "\u2581loan": 9976, "\u2581fos": 22876, "\u96f7": 31047, "\u2581tym": 20853, "uga": 28405, "\u2581separ": 3939, "\u2581ignoring": 22484, "\u2581(_": 9453, "ARE": 6394, "}}\\": 5260, "--------": 709, "Protocol": 11726, "\u2581folks": 13157, "editor": 10692, "\u2581purpose": 6032, "\u2581receive": 5556, "\u2581Hawai": 18839, "\u0441\u043e\u043d": 21595, "\u2581displayed": 13992, "\u2581Err": 5830, "\u2581license": 6801, "\u2581retain": 16815, "\u2581Factory": 24264, "AppCompat": 11707, "\u2581Red": 3690, "\u2581Pri": 12170, "\u2581Gam": 24383, "cod": 19114, "\uad8c": 31579, "abei": 20205, "\u0caf": 31826, "\u00e4n": 5300, "(__": 7697, "Cond": 8822, "stant": 4774, "\u2581holes": 15130, "ropic": 25644, "hist": 6575, "\u2581rod": 16439, "\u2581DAMAGES": 26483, "ric": 1491, "\u5225": 30798, "\u2581INFO": 22977, "\u2581expenses": 16972, "pkt": 17182, "\u2581thrown": 12046, "\u2581documents": 10181, "never": 8174, "Pref": 18108, "STATUS": 8186, "\",\r": 10939, "\u2581tongue": 13821, "\u2581leg": 1942, "\u2581col": 990, "\u2581\u041d": 2197, "\u2581closed": 5051, "gew": 16539, "\u0f66": 30996, "\u2581introducing": 25618, "NOP": 26389, "raj": 15694, "\u2581K\u00f6": 19253, "werk": 16817, "\u2581cast": 4815, "\u2581sounded": 13219, "\u2581ai": 11216, "eper": 7928, "onne": 18304, "\u00e9ho": 12689, "\u2581Fal": 16651, "mel": 12625, "\u2581byl": 15722, ")'": 24996, "\u2581Bren": 28194, "\u2581br": 1170, "\u2581others": 2663, "\u2581creating": 6818, "\u2581Everyone": 11773, "\u2581busy": 9056, "\u2581secretary": 16916, "\u2581stages": 15360, "egu": 20771, "M": 28755, "Yeah": 12204, "\u2581sage": 26640, "FLAG": 7177, "\u2581Society": 8522, "fony": 22480, "\u2581Prote": 11425, "umpy": 14196, "\u8986": 31079, "FORE": 26755, "\u2581dress": 5188, "\u0105z": 24426, "ian": 753, "New": 2972, "NEXT": 14026, "\u2581inter": 791, "\u2581police": 4758, "organ": 8974, "olence": 26063, "\ubaa9": 30222, "\u2581dictionary": 19443, "\u2581[{": 21156, "\u2581Stevens": 23699, "quick": 27263, "\u2581Trump": 6932, "\u2581wallet": 12837, "rub": 22213, "\uc7ac": 30014, "\u01c0": 31870, "\u2581Emily": 16941, "\u2581otto": 24127, "\ud55c": 29282, "ARY": 10713, "\u2581wiped": 23410, "\u2581graphic": 22693, "\u2581assignments": 28025, "\ud83d\udc40": 31232, "\u2581Toronto": 14984, "\u2581consumption": 16298, "\u2581Leo": 19795, "\u2581olive": 24403, "\"\"": 2539, "\u2581veget": 10035, "\u2581Dit": 24395, "\u2581${": 6051, "ester": 7933, "\u2581moves": 11662, "\u2581Initialize": 18737, "\u2581Diamond": 25191, "INK": 13244, "\u2581incor": 7376, "\u2581smart": 7455, "\u2581directly": 5090, "\u2581chaque": 27424, "\u5b9e": 29247, "\u2581top": 1830, "imary": 7754, "\u2581delle": 8419, "\u0570": 31378, "posed": 4481, "\u306a": 29270, "elij": 6796, "\u2581hon": 3243, "\u2581milit": 4116, "\u2581continuing": 15317, "asa": 13937, "warf": 21547, "Zoom": 24573, "\ud83d\ude33": 31208, "\u2581polit": 2419, "\u2581Please": 5919, "\u2581Texas": 7826, "bour": 6814, "Len": 9408, "atherine": 14468, "\u2581stay": 3079, "\u2581\u0445\u0443\u0434\u043e\u0436": 27095, "\u2581mehr": 11152, "\ub41c": 29897, "\u51b5": 30181, "\u062a": 28967, "\u2581Maria": 8866, "COUNT": 14167, "events": 10829, "irus": 15959, "scriptstyle": 26715, "embed": 18320, "\u2581Yang": 23845, "gage": 11332, "\u2581Reagan": 26294, "\u2581espa\u00f1": 21965, "\u2581Att": 5288, "DEF": 11550, "\u0432\u0430\u0432": 14215, "\u2581submar": 26680, "\u80b2": 31350, "\u2581mapped": 25058, "ilon": 3451, "bc": 12286, "\u2581undefined": 6176, "\u2581S": 318, "\u2581Arbitro": 26607, "\u2581worried": 10728, "\u2581maggio": 24080, "Esp": 27467, "\u016b": 28985, "\u2581Eventually": 20825, "\u2581concerned": 9059, "icates": 23860, "\u54c8": 30737, "\u2581Crown": 24154, "Deep": 23229, "\u2581Lau": 28128, "\u2581Rating": 25181, "\u2581record": 2395, "\u2581rocks": 15599, "Mail": 19643, "acters": 5632, "\u2581algorithms": 18539, "\u2581Cann": 25535, "fil": 2088, "\u2581fuck": 4159, "uren": 11239, "holds": 19820, "\u2581Universit\u00e4t": 24290, "\u03cd": 29459, "\u5343": 30516, "night": 6988, "\u2581purchased": 13471, "\u2581grand": 3487, "ONT": 15919, "wei": 25257, "\u2581Dan": 4294, "\u2581%,": 28590, "\u2581perception": 20968, "\u2581tack": 13616, "\u2581\u0410\u043b\u0435\u043a\u0441\u0430\u043d\u0434": 20217, "\u53eb": 31219, "aves": 3410, "\u2581Ask": 19500, "\u00e8ce": 20456, "\u2581safe": 5023, "\u2581XXX": 21027, "\u2581Angel": 15878, "\u2581devil": 23153, "\u2581sect": 23863, "\u2581garlic": 25795, "degree": 27027, "RW": 28592, "\u2581Inf": 18399, "\u2581reaches": 18710, "riter": 4178, "\u2581overse": 20319, "Ns": 26792, "\u4e1c": 29717, "\u2581indust": 3346, "\u2581market": 2668, "\u2581wanted": 2613, "pson": 12353, "\u2581sq": 18328, "vart": 27377, "\u2581hoof": 28376, "\u2581crash": 14456, "\u2581partner": 6977, "WN": 7866, "wing": 9988, "Game": 8965, "\u2581{\"": 9830, "\u8fd9": 29176, "move": 7125, "gan": 1262, "\u6eda": 30787, "ibr": 2792, "\u2581confer": 26992, "\u2581req": 7275, "\u2581views": 8044, "\u2581brig": 20723, "\u2581Daniel": 8103, "\u2581smiling": 15603, "\u2581Zeit": 10740, "\u2581\u043d": 24595, "\u5224": 29485, "child": 4657, "\u2581\u00b1": 22768, "\u2581Basic": 18267, "\u2581heav": 9425, "\u738b": 29825, "\ub123": 31550, "\u2581minister": 10170, "\u2581realm": 18745, "wikipedia": 23954, "dst": 8529, "\u2581atmosphere": 13789, "hang": 15140, "\u2581Das": 7029, "\u2581undert": 16353, "gpio": 15486, "\u2581oxygen": 21058, "Warning": 16185, "\u2581Darwin": 27213, "\u2581approx": 22110, "\u2581\u0425\u0430": 15741, "\u2581nei": 18986, "DITION": 11160, "rost": 27848, "\u0155": 31795, "\u9650": 29436, "\u6263": 31444, "typeof": 9436, "im": 321, "RE": 896, "\u2581Script": 15548, "\u2581reveals": 21579, "\u2581'-": 16763, "\u2581staying": 13465, "oka": 18377, "\u2581De": 1343, "<0x80>": 131, "\u2581mach": 8505, "\u2581carved": 26464, "\u2581integer": 11584, "\u2581Assistant": 21631, "\u00f6rt": 26105, "\u2581curse": 27960, "\u201d": 28838, "\u2581Albums": 28476, "elly": 9985, "\u2581AA": 24724, ".\r": 5488, "\u2581leaders": 8038, "\u2581stance": 27379, "\u2581whole": 2894, "\u62ec": 30574, "aps": 1882, "\u2581\u043f\u0440": 25431, "\u53ca": 29965, "\u0985": 31900, "commons": 26527, "\u2581trauma": 24815, "_->": 8276, "\u2581reaction": 10285, "Mobile": 23090, "}),": 6994, "\u2581dici": 23241, "\u2581mail": 9636, "\u2581heading": 13573, "\u2581Result": 6760, "\u2581\u0412\u0438": 9451, "ardo": 9749, "\u30b0": 29654, "\u2581Card": 8564, "ick\u00e9": 26169, "\u2581kin": 22018, "a\u00e7\u00e3o": 9424, "CLU": 28354, "\u2581Open": 5629, "input": 2537, "DEBUG": 8297, "osing": 8461, "\u043b\u0438\u043d": 14274, "\u2581\u0442\u0443\u0440": 18247, "ights": 3152, "itsch": 22158, "\u2581warriors": 26510, "\uff1a": 28994, "\u3064": 30072, "\u5b8f": 31934, "tuple": 18427, "\u2581realise": 27457, "election": 9082, "\u2581Original": 17745, "plication": 2459, "\u2581fault": 9683, "\u2581err": 1166, "\u2581Parliament": 15490, "chts": 18201, "VB": 28576, "\u0179": 30109, "\u2581cous": 13146, "\u2581Thomas": 6083, "pgfqpoint": 10765, "awa": 8733, "theless": 13054, "\f": 29683, "\u2581jou": 13087, "\u00e1st": 14637, "tek": 17890, "\u2581\u0419": 20100, "ascular": 28140, "\u2581\u0437\u0456": 26883, "\u2581Figure": 9240, "\u2581contract": 5001, "\u2581adding": 8833, "\u0e1a": 29447, "\u2581\u0430\u0440": 8691, "\u2581treats": 27378, "\u2581va": 4536, "\u2581AMD": 27837, "\u10e7": 31287, "standard": 20587, "<=": 25796, "\u2581quant": 4664, "\u2581killing": 10935, "\u2581pela": 16649, "\u30a6": 29736, "ounced": 14271, "\u0445\u0456\u0434": 16144, "xB": 18674, "services": 12451, "\uba54": 29828, "\u2581\u0421": 1406, "\u2581converted": 15514, "\u2581philosophy": 13795, "Camp": 23268, "\u2581wasted": 26508, "\u2581yes": 5081, "alla": 7112, "\u2581picked": 7715, "\u0578": 29837, "\u0440\u0430": 665, "dzie": 23813, "\u2581aren": 5405, "\u2581insect": 16918, "\u2581doorway": 20702, "\u2581Margaret": 17197, "\u2581Opera": 24795, "\u2581eastern": 16495, "RA": 5244, "\u8fed": 31820, "\uc6b4": 30553, "\u2581Cort": 22949, "math": 928, "?!": 18023, "\u201d)": 27521, "\ub354": 30519, "\u63db": 30970, "\u2581offices": 15217, "acion": 13995, "Psi": 11506, "success": 7910, "sample": 11493, "\u5c3a": 31076, "\u2581connection": 5132, "Basic": 15580, "avy": 3832, "aries": 4838, "\u2581}}": 11670, "\u2581poorly": 24122, "\u028c": 31313, "\ub9bd": 31751, "\u2581pressing": 20902, "uffled": 26545, "\u2581Court": 6924, "\u2581initiative": 19410, "\u2581ONE": 26071, "\u2581\u043f\u043e\u0441\u0442\u0440\u043e": 28342, "Tube": 13941, "\u2581Energy": 14270, "\u2581discount": 12711, "FE": 5790, "\u2581voters": 17947, "\u2581ka": 18782, "\u2581Gent": 22980, "\u2581isolation": 25250, "vil": 25521, "production": 24900, "\u00f3d": 9666, "Sys": 22824, "\u2581PER": 22015, "\u2581fixing": 28341, "\u2581SA": 14188, "ards": 2178, "\u2581Chair": 15487, "\u2581Sic": 22664, "asset": 17702, "estern": 5190, "vider": 4340, "\u2581partly": 19208, "\u2581basket": 11359, "\u2581ADD": 26827, "\u2581stem": 17854, "\u2581finishing": 19564, "\u2581Classic": 21755, "undred": 4381, "\u200f": 30128, "\u2581behavior": 6174, "\u2581local": 1862, "\ub4dc": 29470, "reach": 18932, "\u2581\u0434\u0432\u043e": 18533, "\u2581theater": 17363, "\u2581isol": 9777, "\u2581dozen": 13627, "cout": 16429, "\u044b": 28829, "\u2581periods": 15772, "\u2581lowered": 19307, "validation": 16193, "\u2581Arabia": 27264, "\u2581allocated": 19979, "\u5973": 29933, "ute": 1723, "\u2581transferred": 16266, "\u56f4": 30174, "alk": 1093, "\u2581Evans": 22103, "\u2581penal": 15572, "\u2581\"../../": 21047, "\u2581drug": 7876, "Password": 9414, "\u09ad": 31819, "\u2581MR": 26044, "\u2581aside": 10276, "timer": 10179, "uced": 22333, "\u2581exponent": 23869, "\u2581student": 5716, "\u8f09": 31362, "\ubbc0": 31831, "\u10e2": 30119, "\uad6c": 29779, "\\|": 10729, "\u2581Vert": 21970, "\u2581Nancy": 18908, "\u2581\u2192": 15672, "que": 1011, "\u2581ver": 1429, "incl": 1505, "\u043f\u043b\u043e": 23563, "\u7d20": 29555, "\u8a0a": 30844, "enz": 7322, "Go": 7580, "\u2581Confeder": 22474, "\u0441\u043a\u043e\u0433\u043e": 4809, "\u6ce8": 29303, "late": 10020, "\u2581tossed": 23057, "eng": 980, "\u9501": 30448, "\u2581fee": 10351, "['": 1410, "}}{\\": 12887, "\u2581tri": 2629, "\u00bd": 29039, "\u2581naz": 11728, "emony": 14360, "Methods": 20591, "\u2581zw": 9098, "\u00e1ndez": 28537, "\u2581Exper": 11135, "senal": 22792, "ov\u00e1": 10874, "ra": 520, "~~~~~~~~": 22770, "enced": 4697, "nh": 25011, "\u2581inequality": 17522, "\u09a8": 29811, "IMPORT": 15101, "\u2581trail": 8005, "\u2581Exception": 7011, "ary": 628, "rev": 5973, "\u2581Only": 6352, "altern": 28604, "IST": 8048, "Debug": 7156, "At": 3167, "\u2581club": 4489, "\u2581HO": 12203, "generated": 12169, "\u2581Jefferson": 18513, "\u2581Studios": 24545, "\u2581reduce": 7643, "\u2581aqu": 11018, "ural": 1890, "\u2581com": 432, "bad": 11436, "\u2581albums": 19888, "TRAN": 15100, "engono": 26964, "Interface": 6450, "niej": 20386, "\u2581tax": 3947, "\u2581painful": 17340, "ells": 8855, "PLAY": 17003, "\u2581},\r": 20692, "\u2581toe": 11329, "ias": 2995, "\u2581cont": 679, "\u2581Progress": 19310, "\u2581NBC": 28316, "\u2581direction": 5007, "RESULT": 15132, "\u2581coding": 22363, "\u2581ownership": 13965, "\u2581expend": 27040, "\u2581Dod": 22790, "\u2581innov": 8403, "\u043f\u0438\u0441\u0438": 25525, "\u2581:": 714, "\u2581within": 2373, "\u2581Hash": 11300, "\u2581worldwide": 15245, "\u2581Officer": 16797, "iew": 825, "\u2581gambling": 20696, "\u2581described": 5397, "\u2581respectively": 8628, "async": 10869, "n\u00e1": 20946, "\u2714": 29772, "\u2581Singh": 24442, "\u5bb6": 29490, ")-\\": 26338, "junit": 13720, "icken": 9373, "\u2581Whit": 18186, "\u2581Mono": 27464, "oping": 22970, "Syntax": 19529, "\u2581otra": 26045, "\u2581Stars": 22444, "\u2581ended": 7054, "\u2581Protocol": 28564, "Var": 6745, "unda": 12664, "\u2581Working": 18847, "\u2581Ro": 5243, "\u2581bind": 12365, "ktor": 22605, "\u0452\u0435": 27214, "TYPE": 3657, "_\\": 2801, "\u3054": 31193, "domain": 8692, "\u2581tons": 15995, "\u0263": 31013, "instr": 25725, "error": 1958, "\u2581Cand": 26614, "\u2581pie": 3447, "creen": 9106, "\u2581Relig": 18877, "ment": 466, "\u5bfa": 30799, "\u0452": 28973, "\u2581Features": 20900, "\u2581serv": 1268, "system": 6574, "\u2581ads": 17644, "\u2581lasting": 24266, "\u2581emphasis": 19679, "\u2581r\u00e9al": 26286, "imb": 18931, "/>": 2370, "\u2581sem": 3546, "\u2581increases": 12095, "Hit": 17165, "\\}": 18800, "FC": 5417, "\u5e95": 30537, "\u2581satell": 17345, "\u2581explicit": 9629, "\u2581adjusted": 21875, "\u2581Wasser": 24366, "MAN": 16357, "\u2581dieser": 13815, "gue": 19302, "\u2581racism": 22409, "\u2581Polit": 8953, "aiser": 22098, "\u2581depress": 28285, "\u2581Nash": 20888, "\u2581rust": 14912, "\u00edn": 5905, "conc": 26145, "usage": 16052, "\u2581Beth": 17822, "\u2581suited": 24003, "\u2581garbage": 20170, "\u2581bits": 9356, "\u2581Naz": 10283, "\u2581Pod": 11928, "\u2581purchasing": 21320, "Balance": 24317, "\u2581excluded": 25751, "<0xE8>": 235, "umer": 3972, "mys": 14576, "\u2581ritual": 21078, "Autom": 23556, "=$": 8991, "\u2581fac": 3252, "curr": 14032, "\u2581saw": 2672, "tti": 21099, "\u2581implementing": 27068, "\u2581ever": 2270, "profit": 17940, "database": 14430, "\u2581\u0421\u0435": 10329, "\u62df": 31005, "\u2581pse": 14808, "\u2581Singapore": 17366, "xygen": 19303, "\uad50": 31012, "Check": 3828, "HECK": 5250, "google": 4736, "\u2581pig": 18958, "\u2581Controller": 25677, "n\u00ed": 3771, "Expr": 9669, "\u2581validation": 15150, "\u2581competed": 27406, "\u2581Philip": 7772, "Dam": 18312, "\u2581Hun": 10570, "\u2581rail": 8314, "irm": 2780, "\u2019,": 17906, "\u2581denoted": 28176, "\u2581Settings": 18923, "\u2581tiny": 8887, "Tim": 9834, "vspace": 15911, "xd": 10044, "\u2581\u043a\u043e\u043d": 6361, "parency": 23767, "\u2581d\u00e9j\u00e0": 28320, "\u2581ils": 19255, "Ben": 18113, "\u2581junto": 21396, "\u2581popul": 21751, "\u00e4ch": 12319, "cancel": 14883, "\u2581additional": 4870, "\u0432\u043e\u0434\u0438": 14807, "\u2581migr": 11205, "\u0646": 28955, "\u2581Create": 5670, "\u2581a\u00f1o": 13680, "\u2581beiden": 21930, "\u4f86": 30425, "DO": 5170, "\u2581artikel": 8483, "tot": 3183, "\u2581Decl": 19066, "\u2581Politiker": 28510, "\u2581relativ": 22957, "\u2581lift": 7818, "backs": 19076, "=_": 27745, "n\u00edch": 21331, "olutely": 25244, "sw": 1616, "\u2581toggle": 23635, "\u7247": 29369, "fol": 5880, "\u2581eat": 5310, "\u2581emphas": 10574, "\u2581Like": 5410, "\u2581Eff": 24584, "\u2581mov": 1806, "\u2581Michael": 5459, "\u2581replace": 9013, "<>": 28675, "\u2581insurance": 6919, "\u2581lo": 1448, "mapsto": 24719, "pp": 587, "hab": 8237, "signature": 22938, "\u2581Cont": 2999, "eqref": 5103, "\u2581Dy": 25685, "\u2581Jean": 6719, "\u2581anybody": 15159, "\u2581peut": 12122, "<0xA2>": 165, "\u6c92": 30931, "\u2581measures": 10582, "weise": 14647, "\u2581mitt": 27150, "\u0395": 29563, "\u2581Commit": 9003, "\u0442\u0435\u0440": 8900, "Of": 2862, "\u2581export": 3223, "nn": 9472, "\u2581pron": 12704, "Executor": 21382, "\u2581\u0442\u043e\u0432\u0430": 22550, "\u2581\u0415\u0432\u0440\u043e": 23300, "\u2581cuenta": 27947, "amine": 21928, "\u2581Sor": 21476, "\u2581what": 767, "SPE": 13607, "\u2581initially": 12735, "getItem": 26303, "\u2581snd": 15433, "\u2581contest": 13968, "ierre": 22874, "\u2581because": 1096, "ptember": 3666, "\u2581Event": 6653, "ENV": 22985, "\u2581reserved": 9144, "ajax": 14686, "codegen": 20686, "INPUT": 20309, "\u2581Why": 4315, "\u2581Gard": 15070, "\uc2e0": 30126, "\u2581charge": 5685, "\u2581bond": 9410, "\u2581implements": 10538, "\u2581Rich": 4656, "\u2581ig": 12632, "Bool": 15571, "disabled": 13375, "Ev": 8459, "\u2581entrance": 12675, "\u6377": 31823, "Delete": 6585, "\u2581Input": 11232, "<0x54>": 87, "Menu": 5674, "\u2581sin": 5450, "\">": 1355, "\u2581your": 574, "\u2581Fore": 7257, "itet": 8606, "\u2581DC": 12606, "nas": 16405, "essment": 23386, "\u2581Churchill": 23142, "Errors": 16958, "\u2581\u2581\u2581\u2581\u2581\u2581\u2581\u2581": 273, "ieden": 20664, "onym": 8095, "\u2581\u043f\u0440\u0438\u043d\u044f": 27741, "\u2581cs": 7428, "\u2581worlds": 20742, "\u2581Regiment": 23042, "\u2581willing": 7813, "pay": 6762, "\u2581spectrum": 12066, "LAST": 27699, "ivity": 2574, "\u2581included": 4658, "RED": 12466, "Tx": 12593, "cker": 13160, "\u2581disgu": 27409, "\u2581clo": 23390, "\u2581Braz": 11863, "t\u00e9": 11414, "\u5bbd": 30236, "scriptions": 18673, "flu": 17262, "\u2581railway": 18051, "\u2581needing": 25559, "\u2581V": 550, "\u2581\u0431\u0443\u043b\u043e": 18395, "\uacfc": 29844, "aring": 2302, "\u2581gr\u00f6\u00df": 22707, "aur": 3507, "\u2581Veter": 25790, "LIB": 26604, "ironment": 3333, "\u2581liquid": 12213, "\u2581quot": 17528, "\u2581attending": 19735, "pond": 19571, "atin": 12844, "\u2581polic": 7498, "\u2581Franco": 28289, "such": 18210, "\u2581\u0437\u0430\u043d\u0438\u043c\u0430": 28335, "\u0447\u043d\u0438\u0439": 24016, "\u2581laws": 8427, "(:": 7306, "+\\_\\": 25471, "\u2581emotional": 10526, "etta": 16631, "avo": 17339, "isz": 27031, "\u2581evaluated": 23001, "\u4ed6": 29440, "\u2581egy": 9064, "\u5c55": 29947, "\u2581locate": 22920, "\u2581Dictionary": 22828, "\u2581Blo": 9797, "Flag": 10787, "Day": 12422, "\u2581Specific": 23518, "\u043e\u0433\u043e": 14197, "Large": 27408, "\u2581built": 4429, "\uc2a4": 29304, "ivia": 19278, "\u2581JS": 16315, "pan": 3420, "rolling": 14342, "cd": 2732, "\u2581url": 6855, "\u2581Josef": 27622, "\u2581Rev": 4375, "\u2581Hoff": 26171, "\u2581vous": 16906, "\u2010": 29558, "\u2581backs": 24007, "\u2581dick": 23108, "\u2581regard": 4166, "post": 3192, "\u7edc": 30229, "Rel": 7523, "\u2581selon": 23851, "eyed": 20732, ",": 28725, "BUILD": 23972, "\u2581crap": 21849, "uge": 3683, "named": 18561, "\u2581Since": 4577, "erna": 17995, "\u2581pillow": 25896, "\u2581s": 268, "raham": 11162, "\u2581H": 382, "<0x1D>": 32, "\u2581please": 4665, "\u2581Command": 11618, "\u2581Mor": 4151, "\u2581Earth": 8599, "\u2581Who": 6526, "\u2581SIG": 27061, "\u5982": 29118, "Optional": 15115, "\u2581CSS": 17922, "Mut": 11874, "phant": 17953, "\u2581Provinc": 27600, "\u30bc": 31998, "\u043d\u043e\u044e": 19130, "unted": 15227, "CLK": 14711, "\u2581Hard": 9708, "Platform": 11842, "\u62f3": 31588, "\u2581LED": 19937, "\u2581Scre": 27273, "\u2581cheese": 13628, "EM": 8940, "uno": 12581, "\u2581Tommy": 20893, "ink": 655, "able": 522, "rib": 758, "estra": 19825, "zt": 3903, "\u0254": 29410, "picker": 19794, "\u2581talk": 1985, "natural": 17568, "indi": 24097, "chap": 26467, "\u2581Theme": 22888, "<0xC0>": 195, "\u2581everywhere": 11321, "\u2581blame": 13128, "\u2581upload": 12299, "\u043d\u044c\u043e": 21738, "ANK": 26393, "\u2581parked": 23643, "\u2581nj": 28572, "\u2581disadv": 27207, "\u5219": 29310, "izontal": 9727, "\u5948": 31869, "\u2581literal": 20819, "sert": 1121, "Api": 7119, "\u2581literary": 16956, "DISABLE": 21927, "\u2581synchron": 14941, "\u043f\u0435\u0440\u0430": 11687, "\u2581decades": 10073, "iform": 5719, "Illuminate": 20231, "<0x8B>": 142, "\u2581anos": 21307, "\u2581Leon": 11615, "omot": 19614, "\u2581stadium": 24096, "\u2581k\u00f6r": 28059, "\u2581mothers": 21574, "NC": 9419, "igate": 11590, "\u2581cried": 13714, "\u2581Gor": 23320, "\u2581bi": 4240, "stal": 10891, "abel": 1088, "\u2581Maur": 14728, "\u2581Death": 13611, "\u2581utility": 18936, "\u2581Steven": 20257, "++": 1680, "\u2581remote": 9308, "\u2581Youth": 20711, "\u2581\u042d": 8411, "netdev": 25583, "\u2581Association": 7738, "\u2581Liberal": 18736, "\u2581achievements": 27864, "icial": 5867, "hent": 5577, "\u2581cit": 5963, "\u2581kt\u00f3ry": 18415, "\u2581Well": 4673, "...\"": 7508, "cke": 18727, "existing": 24049, "\u2581schon": 26980, "\u2581paint": 6192, "\u2581chap": 11708, "\u2581Aleks": 27877, "nek": 11593, "TS": 7996, "Save": 11343, "\u2581stell": 14062, "\u2581autonom": 25009, "Linq": 25235, "\u2197": 29299, "\u1edb": 30025, "isms": 10821, "docs": 11338, "hub": 21230, "KK": 22525, "\u2581tor": 5063, "\u2581COMP": 22093, "abs": 4737, "\u2581cyl": 20218, "\u2581scar": 13356, "ammed": 13555, "\u2581Ital": 4503, "\u2581mineral": 25837, "\u2581\u0433\u043e\u0440\u043e\u0434": 22123, "\u2581employees": 7896, "\u2581sets": 6491, "\u2581Later": 11680, "\u800c": 29746, "\u2581\u0435\u0451": 19487, "Os": 23547, "jek": 24233, "\u2581freak": 20334, "\u2581glad": 8200, "\u2581principle": 12814, "\u2581Today": 8784, "client": 3305, "express": 24738, "INVAL": 7049, "tes": 2097, "uity": 25239, "\u2581Shan": 20062, "\u984c": 31054, "\u00aa": 28956, "idget": 3812, "del": 5149, "\u00e9r": 3160, "hon": 21133, "\u2581analysis": 5643, "\u2581achieving": 25122, "\u2581next": 1679, "amarin": 25174, "\u2581sp\u00e4ter": 15646, "\u2581Champions": 24470, "\u2581credit": 6183, "active": 4140, "ough": 900, "xC": 9075, ".\",": 9191, "RECT": 13162, "\u2581zusammen": 20467, "\u2581Bell": 11395, "\u2581instruct": 12317, "('#": 10457, "\u2581Athlet": 19092, "\u2581\u0439": 22092, "\u2581hav": 9993, "Retry": 23298, "\u2581mainstream": 23199, "OUTPUT": 23923, "Components": 16966, "\u2581comenz": 28084, "\u2581retry": 21370, "ubble": 12542, "\u2581McC": 10040, "\u0ca6": 31775, "\u2581ost": 19862, "\u2581stiff": 16516, "\u27a4": 31695, "\u043c\u0438\u043d\u0438": 17804, "\u2581pool": 6313, "\u2581lose": 6788, "Output": 4792, "\u2581Nothing": 11081, "etes": 10072, "ies": 497, "SY": 6358, "lee": 12553, "<0x7E>": 129, "pare": 10350, "\u2581Your": 3604, "\u2581Summer": 13211, "\u79d1": 30226, "\u2581globe": 21889, "directory": 17509, "\u2581\u0414\u0435": 11720, "\u2581Additionally": 16569, "oter": 26511, "\u2581asset": 13458, "/$": 23530, "canvas": 19670, "'.": 4135, "He": 2428, "Associ": 21515, "rass": 12316, "\u2581crazy": 9280, "itor": 1842, "\u2581dign": 18485, "\u2581illustr": 8740, "lad": 9963, "\u2581servants": 21567, "\u2581ordered": 8346, "\u226f": 31645, "\u0449\u0443": 23904, "\u5237": 30426, "\u2153": 31216, "gent": 6188, "((": 1880, "\u0446\u0438\u0438": 5991, "iday": 5036, "ERR": 2986, "\u2581murder": 6832, "\u2581witness": 9149, "\u2581anyone": 3637, "VAL": 3668, "\u2581discover": 5191, "\u2581fascinating": 23069, "\u2581\u041f": 1531, "Cache": 5622, "ronic": 7624, "\u2581mechanism": 14175, "\u2581virtually": 17626, "ificates": 23575, "\u0443\u0440": 8339, "alled": 17987, "\u2581allerg": 27451, "chel": 24934, "\u2581mg": 18144, "\u10d1": 29704, "f\u00f6r": 14634, "(\"<": 21784, "izza": 13983, "eln": 12228, "\u2581conducting": 28698, "\u2581climate": 11259, "\u2581dimensional": 25369, "\u2581Municip": 18728, "\u2581Bras": 13481, "\u2581```": 8789, "TIME": 8197, "\u2581Corpor": 9764, "\u2581hungry": 17160, "\u2581adaptation": 25661, "guid": 26793, "\u2581each": 1430, "\u2581oct": 9541, "\u2581purposes": 10700, "\u2581bad": 2607, "\u2581larg": 3201, "ibly": 4912, "\u2581Shop": 14142, "\u2581creatures": 18349, "lit": 18600, "\u2581element": 2442, "\u2581prediction": 19386, "angel": 10621, "\u2581trip": 6596, "\u2581assh": 19922, "\u2581confidential": 28451, "\u2581abund": 15116, "uc": 1485, "\u2581Mont": 5684, "\u6069": 31866, "ulative": 20851, "\u2581Stay": 20066, "\u2581attrs": 20793, "\u2581save": 4602, "\u2581Jones": 9383, "\u2581usage": 11753, "\u2581extracted": 25081, "\u2194": 30375, "\u8a9e": 30321, "\u2581interpret": 7190, "\u2581Of": 4529, "\u2581Center": 6064, "FULL": 26318, "\u91ca": 30334, "\u2581Record": 12496, "\u2581libraries": 24133, "\u7687": 30645, "----------": 16417, "\u2581rendering": 24921, "\u2581regularly": 12274, "jj": 23659, "aughter": 4762, "bud": 16445, "pts": 10730, "hemat": 11953, "\u2581d\u00e9velopp": 26601, "azor": 18426, "\u2581gathering": 17243, "\u2581Though": 10080, "\u2581GPU": 28475, "\u2581spoon": 28662, "\u5b8c": 29474, "ikan": 13579, "[_": 24655, "\u0159e": 21611, "}{": 1400, "\u2581ie": 21179, "raft": 2869, "Week": 21812, "\u2581transition": 8265, "ICT": 22521, "\u0448\u0438\u0439": 18702, "Slot": 15457, "\u2581intro": 24671, "\u2581sound": 2622, "\u2581Together": 21583, "phys": 13432, "\u2581\u0432\u043e\u0435\u043d": 20641, "\u2581penetr": 23828, "Shader": 17655, "\u2581CM": 24268, "chos": 25786, "\u2581wherever": 20517, "Is": 2301, "\u0142aw": 17225, "\u2581describ": 2977, "\u2581assertEquals": 10462, "\u2581Player": 13684, "\u2581ban": 8743, ".\"_": 26408, "\ud83c\udffb": 30084, "\u2581Too": 16601, "way": 1128, "\u2581Moreover": 11302, "\u2581belief": 12519, "\u00bb": 28848, "\u0442\u0456": 8240, "\u0437\u0456": 13566, "\u2581bills": 16843, "\u2581petit": 27450, "ismiss": 28177, "NA": 3384, "\u2581at\u00e9": 24961, "\u2581psychology": 23782, "\u2581febrero": 27906, "uilder": 2866, "\u2581Robert": 5606, "\u043d\u0435\u043d": 13226, "\u2581deb": 5665, "apping": 3925, "slice": 11485, "\u4e0b": 29061, "\u6570\u636e": 21642, "\u2581assignment": 15657, "\u2581eq": 12084, "acular": 19277, "\u2581\u0430\u0440\u0445\u0438": 25678, "l": 28714, "\u2593": 31024, "\u770c": 31432, "irmingham": 24467, ")\");": 18490, "abet": 20213, "\u0417\u0430": 20530, "\u2581Per": 2744, "lan": 7411, "\u2581makes": 2870, "classList": 24253, "\u2581augment": 20836, "uj": 5872, "\"),": 3548, "Html": 14736, "\u2581either": 2477, "opsis": 22761, "\u2581aux": 5672, "rho": 4132, "\u2581\u0412\u0441\u0435": 25615, "center": 5316, "\u043b\u0435\u0435": 15620, "\u2581design": 2621, "\u2581moder": 11323, "\u2581iteration": 23113, ">>": 4060, "awn": 11646, "\u2581ehemal": 24156, "\u2581Arnold": 24396, "\u2581lust": 28249, "Top": 6228, "\u2581suppose": 10361, "naire": 25008, "\u2581fear": 4813, "\u2581Portugal": 16160, "TD": 21339, "called": 11565, "\u2581Valley": 10509, "\u8aa4": 31323, "\u2581Collins": 21191, "\u2581\u0438\u043b\u0438": 10476, "\u2581Phone": 19520, "\u2581fonction": 23473, "\u2581Gel": 23704, "\u2581Lar": 24199, "\u0441\u0435": 2313, "\u2581Short": 11530, "\u2581momentum": 14019, "\u2581Mag": 4642, "\u0441\u0442\u0430\u043d": 12073, "\u0446\u0438\u043e\u043d\u0430\u043b\u044c": 20104, "Ob": 1445, "group": 3063, "cules": 21649, "there": 15325, "\u2581True": 6110, "\u2581ancora": 28078, "\u2581CON": 4192, "\u2581inner": 7450, "\u2581Students": 17091, "Some": 11600, "\u2581everyone": 3376, "gif": 27223, "\u2581permissions": 9774, "\u2581\u041b\u0443": 16332, "\u0432\u0440\u043e": 13032, "\u0440\u0456\u0457": 25474, "Animation": 13960, "\u2581XIX": 17757, "\u2581havet": 28447, "\u2581pan": 3961, "black": 10323, "\u2581Broad": 12807, "\u2581Luke": 15425, "dv": 16546, "\u6771": 30366, "\u2581presents": 15890, "\u2550": 29090, "}/": 5865, "Ro": 23909, "\u2581cuando": 13447, "\u2581outline": 22327, "eless": 6199, "unch": 3050, "\u2581guess": 5102, "zes": 12189, "\u2581determining": 23689, "\u0441\u043b\u0443": 16467, "\u2581Af": 8786, "kn": 13223, "\u2581Sc": 2522, "\u4ea7": 29818, "Switch": 16354, "\u2581loud": 9614, ";/": 16663, "\u2581craw": 16217, "\u2581zosta\u0142": 11686, "\u2581enhanced": 21733, "\u0446\u0438\u043e\u043d\u0430": 28412, "ume": 2150, "\u2581indent": 23567, "Wh": 1870, "\u2581stats": 14269, "\u2581radial": 28021, "\u2581\u043e\u0434\u0438\u043d": 24193, "\u2581wurden": 9031, "ieties": 13998, "sections": 24415, "mgr": 20070, "iking": 16040, "Factory": 4990, "attrs": 15215, "\u2581OP": 8997, "ard": 488, "\u2581methods": 5562, "CONT": 12162, "\u2581allem": 16637, "\u2581lin": 12893, "\u2581sounds": 7258, "flags": 4406, "CALL": 13741, "\u300f": 31169, "\u0b9f": 30251, "ica": 1286, "gio": 11138, "cohol": 9725, "article": 15461, "\u2581Mary": 5480, "wor": 22493, "THER": 11948, "\ubc29": 30240, "\u2581homem": 28431, "Sk": 9150, "\u2581secre": 15038, "\u2581OK": 12206, "\u2581Earl": 20096, "\u2581spraw": 24364, "cy": 2706, "\u2581partic": 1714, "ha": 2799, "\u5757": 29739, "\u2581${\\": 5493, "\u6253": 29576, "includes": 19459, "\u2581Lap": 23760, "\u2581zd": 20133, "\u2581\u043c": 1131, "ye": 7187, "\u2581pian": 21624, "\u2581winners": 22857, "temp": 7123, "ensk": 17829, "zec": 24005, "\u2581calls": 6470, "\u2581declared": 11804, "fixed": 15145, "Bitmap": 20623, "uture": 8649, "anqu": 20668, "\u2581islands": 21029, "\u0455": 30273, "pute": 8145, "\u5ca1": 31813, "\u2581collective": 17236, "}$": 1211, "AIL": 26763, "\u2581computed": 16860, "\u00e7\u00f5es": 10315, "\u2581f\u00f6r": 4793, "\u00fbt": 15452, "\u2581series": 3518, "\u0432\u0438\u043d": 17840, "\u03a5": 30549, "fff": 25654, "\u662f": 28971, "\u2581Fight": 25143, "\u2581Dom": 6711, "\u2581int": 716, "\u0432\u0430": 870, "\u2581EV": 10752, "\u53d1": 29099, "++)": 3073, "\u2581Park": 4120, "'_": 16314, "ondo": 23743, "AV": 9024, "\u0432\u0435\u0440": 4942, "\u2581one": 624, "\u5bdf": 31385, "\u2581displays": 20989, "\u6731": 31947, "noc": 15979, "uo": 27736, "Snapshot": 16587, "\u2581compass": 16444, "erman": 9358, "\u0441\u0442\u0432": 5050, "Metrics": 16755, "\u2581eliminated": 27546, "\u2581Ed": 2690, "\u2581Nob": 11189, "\u2581environments": 20031, "\u2581commitment": 13106, "\u2581bezeichnet": 26314, "kol": 16592, "\u2581tro": 4056, "onymous": 12928, "pons": 13532, "\u2581court": 5484, "\u2581TV": 5046, "\u2581ante": 20706, "CONTEXT": 27181, "finity": 19104, "ialis": 28676, "\u2581instrument": 10623, "ines": 1303, "\u2581choice": 4782, "ople": 845, "rowning": 28496, "\u2581temps": 12974, "\u2581partnership": 13737, "\u2581\u043f\u0443": 12382, "\u2581Pac": 9682, "vi": 5219, "anka": 18816, "\u2581repository": 21177, "\u2581Kentucky": 21509, "\u5bfc": 29773, "Bus": 13989, "nem": 22890, "\u2192": 28982, "\u00fcss": 18394, "Impl": 6404, "\u2581passage": 12280, "period": 14977, "\u2581princip": 4061, "\u09b8": 30234, "\u2581foreign": 7223, "\u2581priest": 16032, "aster": 1993, "\u62ff": 31191, "\u2581consensus": 24337, "\u0437\u0430": 2978, "\u2581caso": 18980, "managed": 27309, "\u2581rival": 16564, "`.": 9429, "\u00a1": 29028, "\u2581human": 2930, "\u2581Martin": 7204, "\u2581bean": 24853, "\u2581combine": 17470, "plan": 11009, "\u2581Mall": 20098, "ke": 405, "ash": 1029, "\u2581Taylor": 11285, "\u2581into": 778, "\u7a76": 31011, "Control": 5452, "HA": 13307, "content": 3789, "\u2581recover": 9443, "oned": 12880, "\ufe0f": 29096, "rollers": 16865, "oyle": 28251, "HANDLE": 24292, "\u2581Move": 13663, "\u2581dc": 28528, "\u5f81": 30977, "\u2581Innov": 24013, "\u2581adventures": 28005, "\u10ec": 30937, "\u2581amaz": 5818, "\u2581lemon": 23598, "\u2581Cameron": 23028, "\u2581parameter": 5621, "\u2581bald": 26128, "pull": 23066, "owski": 16987, "loat": 3496, "\u2581beautiful": 4672, "object": 2814, "cfg": 6245, "pid": 9507, "\u2581sep": 26007, "\u2581Sci": 6989, "eting": 7323, "\u5149": 29762, "\u2581\u0441\u0442": 4887, "Fore": 13275, "agger": 7109, "}</": 10050, "defaults": 22086, "\u2581Cancer": 25437, "\u2581Fourth": 28185, "CONST": 21980, "\u4fbf": 30468, "\u2581SPD": 24151, "\u2581calling": 6852, "IP": 2665, "\u955c": 31555, "\u8f6f": 30769, "enti": 10338, "\u2581Cast": 6440, "\u2581Gast": 28505, "\u2581done": 2203, "\u2581ignore": 9303, "ktr": 20412, "\u2581burned": 14518, "\u5f8b": 31424, "\u2581B": 365, "reed": 2816, "\u9f8d": 30749, "\u2581Kur": 15740, "\u2581pursue": 18619, "\u2581archive": 23794, "\u521b": 29349, "\u0441\u043b\u043e": 12309, "\u043c\u0435\u043d\u0435": 26714, "\u2581trivial": 22178, "aute": 19830, "\u5802": 30938, "ules": 2464, "\u2581explo": 12573, "\u2581mul": 18013, "\u017een": 27488, "\u2581nap": 12235, "ifact": 17634, "\u2581remind": 8305, "ktop": 13439, "\u2581loaded": 10773, "\u2581Stalin": 24068, "pr\u00e9s": 12180, "ante": 2237, "Transition": 21671, "\u2581fine": 4433, "HI": 19394, "\u2581turning": 8528, "\u2581Hern": 28521, "\u2581};": 2337, "\u2581rapid": 8421, "\u2581canvas": 14499, "Long": 7468, "health": 14513, "Attribute": 3643, "RD": 15363, "\u2581pa": 5881, "Secret": 17657, "\u0437\u043e\u043c": 19359, "\u5c3e": 30473, "ive": 495, "\u2581swim": 10923, "usc": 15229, "\u2581contracts": 19178, "\u2581Gr": 1778, "\u2581cle": 1544, "\u2581walks": 16830, "\u2581ninete": 18367, "\u2581theories": 17234, "\u2581phones": 18744, "\u2581nebo": 28494, "inale": 20971, "\u2581administer": 22928, "ament": 1686, "\u2581april": 24434, "\u00e1ly": 16628, "\u2581dun": 27421, "aats": 11342, "reason": 14991, "\u2581Haus": 21209, "holder": 8229, "insn": 22113, "\u2581Lebens": 26976, "etry": 27533, "\u2581wedding": 9200, "\u2581ahead": 6280, "\u2581Province": 23004, "\u2581marked": 10727, "\u2581aid": 11092, "\u2581heritage": 22597, "\u2581roku": 6739, "\u0441\u043a\u043e": 1789, "\u2581miem": 26884, "\u043a\u0441": 7351, "Conne": 4523, "tt": 781, "arding": 20003, "\u2581twin": 21809, "\u2581exposure": 15368, "\u9690": 30356, "\u2581Newton": 20281, "\u2581\u2581": 259, "\u7b56": 30777, "\u2581END": 21288, "\u2581Jeremy": 24251, "const": 1978, "\u2581nearest": 17403, "\ud30c": 29806, "\u2581viv": 13686, "<0x01>": 4, "ahr": 8775, "\u6a4b": 31730, "\u2581employer": 18646, "\u2581girl": 2746, "cep": 18316, "\u2581USS": 22961, "\u2581tast": 21447, "\u2581imported": 26659, "\u1789": 31901, "cher": 6113, "\u017e\u00ed": 25991, "\u9020": 29925, "\u043d\u043e\u043a": 21143, "\u2581\u0433\u0435\u043d\u0435": 20831, "neum": 28051, "\u2581stom": 10442, "\u2581sober": 26903, "\u2581leur": 10441, "\u2581broader": 25941, "\u2581nella": 8360, "\u2581gras": 26517, "Leave": 26639, "pload": 5739, "\u2581sides": 8480, "\u59cb": 29197, "PARAMETER": 26242, "\u2581Sun": 7057, "entries": 14849, "\u2581Led": 28048, "\u9ede": 30718, "\u2581sent": 2662, "})$": 9340, "oses": 14779, "\u043c\u0435\u0439": 20488, "dao": 28218, "bee": 28255, "\u2581Sir": 8351, "\u094d": 29300, "fore": 994, "\u2581crime": 9311, "\u2581Erst": 28227, "\u2581\u0440\u0435": 3172, "\u2581declined": 23043, "\u611f": 30266, "Equ": 2702, "\u2581Time": 5329, "\u2581according": 4771, "\u0449\u0435\u043d": 17612, "\u2581priv": 5136, "proc": 11274, "children": 9342, "\u2581measured": 12820, "INTER": 13333, "\u2581Pract": 15961, "\u2581wars": 19270, "\u2581Saf": 12512, "\u2581Tibet": 28288, "\u2581exercise": 9095, "\u2581Fr": 1361, "wrapper": 14718, "friend": 6542, "Sv": 26046, "\u2581touchdown": 27866, "\u2581doing": 2548, "RF": 16743, "\u2581must": 1580, "getKey": 28434, "\u2581~~": 18881, "bben": 28322, "\u989c": 30327, "Channel": 7766, "\u2581attacking": 23627, "\u5176": 29450, "predict": 23077, "\u2581ya": 10129, "\u2581synd": 18690, "kb": 21799, "Ord": 22788, "\u2581wx": 14830, "\u2581marijuana": 28192, "\u2581liked": 8232, "BIN": 27576, "\u2581rele": 4444, "Leg": 14537, "=\"${": 28144, "\u2581wheel": 10297, "Most": 20928, "\u2581Let": 3169, "\u2581\u0433\u0440\u0430": 8032, "ensus": 9898, "assem": 23154, "\u2581explaining": 20400, "\u2581th": 306, "\u2581\u0440\u043e\u0446\u0456": 13554, "becca": 24696, "SH": 4811, "\u0447\u0438": 2348, "structor": 8621, "\u2581\u043e\u0440\u0433\u0430\u043d\u0438\u0437\u0430": 26266, "onna": 7136, "cv": 12750, "\u2581except": 3741, "gt": 3606, "fection": 11264, "\u2581rifle": 19427, "\u2581custom": 2460, "\u2581preview": 25203, "<0x7A>": 125, "thon": 7418, "\u2581generate": 8270, "\u2581FI": 16148, "\u2581id": 1910, "\u2581transactions": 15852, "asures": 20139, "\u2581calories": 24336, "\u2581happens": 6881, "\u2581dan": 11555, "\u2581Tal": 10677, "\u2581m": 290, "\u2581\u0457": 17452, "\uc758": 29187, "\u2581contact": 3754, "\u968a": 31534, "nar": 24837, "\u2581quand": 27462, "\u2581movements": 15071, "\u2581evidence": 5566, "\u2581Baker": 19803, "\u044e\u0449\u0438\u0439": 25036, "\u2581instructor": 27679, "negative": 23238, "\u00e4ude": 24576, "\u2581Og": 26826, "imate": 3314, "\u2581thinks": 10896, "\u2581double": 3579, "ferred": 9497, "\u0440\u0443\u043f": 20864, "\u00e2tre": 25238, "\u2581Property": 13059, "\u2581rate": 4338, "Header": 5404, "omorphic": 22631, "\u00e1g": 8043, "\u2581blank": 9522, "aises": 25515, "\u2581anal": 2880, "\u2581traveling": 16071, "\u2581Andr\u00e9": 24046, "\u2581Bron": 8303, "<0xB0>": 179, "design": 16057, "\u2581accidentally": 27630, "chron": 8416, "\u2581l\u00e0": 26941, "\u2581mobil": 24622, "\u2581interpretation": 16716, "\u2581brit": 11825, "Mouse": 12237, "\u2581WITHOUT": 8292, "\u2581hiding": 16622, "\u2581|\\": 17446, "\u2581fortune": 19808, "chte": 24176, "\u2581iterator": 24119, "ussia": 28397, "\u2581especially": 4012, "\u2581Ve": 13343, "\u7bc0": 31295, "\u00e1t": 4566, "\uad6d": 30779, "ite": 570, "entials": 10633, "ism": 1443, "its": 1046, "\u2581cookies": 15648, "ggi": 24816, "expand": 20994, "aughters": 17350, "\ub529": 31836, "\u2581Teil": 13422, ".\"]": 28659, "\u2581Virtual": 19032, "zy": 2140, "\u2581pap": 12930, "\u2581convergence": 23662, "\u2581operator": 7906, "\u2581dealing": 12292, "sha": 15564, "\u2581Mat": 5702, "environment": 21680, "\u2581correspondence": 24911, "\u2581universe": 11717, "\u904e": 30699, "\u2581evac": 25469, "\u2581highway": 20127, "\u2581Edinburgh": 25970, "OS": 3843, "\u0412": 28849, "\uc811": 31022, "Abs": 15521, "le": 291, "rot": 5490, "\u2581\u0442\u0430\u043a\u043e": 16629, "\u2581Madison": 20503, "\u2581\u0443\u0447\u0430\u0441\u0442\u0438": 25337, "velle": 17348, "suit": 21232, "\u2581pr\u00e9c": 18308, "\u2581dispute": 22299, "--)": 26107, "bling": 6357, "\u2581ran": 5591, "scheme": 28338, "row": 671, "\u2581\u0438\u043d": 8257, "eurs": 16465, "\u2581Pam": 22238, "\u2581mom": 1948, "\u2581stead": 10445, "\u788e": 31898, "hadoop": 28158, "\u624d": 30120, "\u2581ways": 4342, "PUT": 9838, "lagen": 21463, "\u2581Abs": 12709, "\u0441\u043f\u0443\u0431\u043b\u0438": 26352, "MESS": 18747, "egin": 1278, "\u2581Gesch": 10520, "\u2581\u0444\u043e\u043d": 19968, "\u2581tried": 3851, "\u2581pon": 17984, "country": 16912, "unate": 26655, "<0x30>": 51, "\u2581Clar": 20225, "\u0430\u043d\u0433": 15528, "Head": 3761, "\u2581proves": 25832, "\u09bc": 30990, "\u2581linked": 11748, "\u77e5": 29661, "Font": 7168, "\u2581Division": 8618, "\u2581compens": 12613, "\u30c0": 29977, "\u2581horrible": 16826, "\u2581panels": 18771, "Phys": 18191, "\u2581booth": 26868, "\u2581curl": 28306, "ennial": 28339, "\u2581beginnetje": 15739, "his": 16355, "\u2581count": 2113, "\u2581demonstr": 6695, "V": 28790, "\u2581appropri": 6582, "Shared": 15686, "node": 2315, "igten": 27598, "even": 8790, "\u1ed7": 30926, "Pack": 5932, "\u2581Arena": 19433, "\u963b": 31542, "\u2581suspic": 13510, "\u0432\u0441\u044f": 17425, "\u2581tren": 20704, "\u021ba": 25814, "els": 1190, "!!!!": 19010, "ab": 375, "\u2581CV": 20639, "\u83ef": 31365, "zek": 16178, "\u2581surfaces": 19454, "\u0251": 29813, "\u2581earliest": 21864, "});\r": 26636, "\u2581ar": 597, "phan": 19058, "\u2581'./": 7283, "\u2581reviewed": 23282, "\u2581\u0431\u044b\u043b": 7593, "pre": 1779, "\u2581pushed": 9012, "Sche": 11960, "season": 17956, "\u2581CS": 16594, "kamp": 26747, "\u2581initiatives": 25060, "Fill": 16946, "\u2581documented": 26624, "\u2581\u0441\u0430\u043c\u043e": 12510, "ver": 343, "\u2581Unlike": 17383, "\u2581sne": 14297, "\u2581\"<": 6647, "\u2581Jul": 5376, "\u2581Golden": 14739, "graduate": 24484, "verage": 4064, "\u0441\u043f\u0430": 28531, "\u2581independ": 5060, "\u5929": 29354, "\u2581cooperation": 21732, "ak": 491, "Analy": 27554, "\u2581District": 8207, "ners": 5949, "sys": 6609, "\u2581\u041a\u0430\u0440": 16746, "\u2581extremely": 7625, "etc": 20477, "\u2581chicken": 13088, "\u2581blue": 5045, "\u2581Common": 10757, "\\\\": 2214, "throw": 10847, "\u2581PI": 28056, "dh": 22410, "<0x44>": 71, "\u2581prescription": 23830, "}}}": 14111, "Pe": 9336, "rypted": 16632, "\u6295": 30189, "tagon": 17346, "<0x0C>": 15, "\u2581dich": 19132, "MASK": 9945, "\u2581going": 1404, "Why": 7638, "bres": 13243, "\u2581Medicine": 18293, "\u2581port": 2248, "\u2581encounter": 10301, "by": 1403, "cted": 2147, ")}{": 14442, "\u2581\u041f\u0435\u0442": 21445, "\u2581Cultural": 24974, "mao": 26995, "\u2581\u0434\u0432\u0430": 17489, "<0x46>": 73, "\u2581industrial": 10663, "ptic": 19742, "gr": 820, "\u1038": 30773, "abad": 20882, "\u2581involves": 14657, "\u2581he": 400, "adr": 23677, "\u2581Sat": 10586, "amount": 12922, "BT": 12656, "\u308b": 29116, "trim": 13484, "\"])": 18073, "ytics": 18717, "\uaddc": 31982, ")=\\": 11148, "Tooltip": 25389, "limits": 14347, "\u2581cx": 26196, "\u2581Tennessee": 19793, "ieren": 11958, "\u2581Emp": 10156, "\u0436\u0434\u0430": 12979, "\u2581Ori": 20698, "iffs": 17820, "sync": 8959, "arent": 1422, "\u2581right": 1103, "\u2581swe": 4017, "\u043b\u043e\u0432\u0435": 13587, "HED": 22035, "\u2581relative": 7986, "imeq": 21876, "icket": 10106, "\ub450": 30609, "hora": 18701, "\u2581\u0421\u0442\u0430": 9739, "DOUBLE": 25932, "\u2581fuel": 10624, "}^{\\": 6928, "\u2581concentration": 15987, "\u2581butter": 11488, "\u2581heard": 3364, "Compare": 22095, "\u2581locals": 23237, "\u2581\u0434\u043e\u043b": 17483, "\u2581fram": 23426, "fail": 9267, "\u2581Bloom": 23451, "\u2581solved": 21994, "WF": 27553, "ACTIVE": 17740, "\u2581athletes": 23403, "\u2581estate": 9490, "\u0441\u043a\u0438": 2073, "\u2581criticism": 17584, "\u2581Junior": 17876, "\u2581McK": 18346, "\u0bc8": 30576, "\u0e1d": 31620, "EC": 8619, "ulp": 20784, "inde": 8355, "\u043b\u044c\u043a\u043e": 14451, "\u2581painted": 14641, "\u2581PCI": 18854, "\u5fa9": 31711, "\u7ed8": 30684, "\u0437\u0430\u043d": 17478, "develop": 16239, "\u2581deployment": 23039, "IN": 775, "Length": 4645, "\u2581This": 851, "General": 15348, "\u2581vet": 22116, "amil": 8551, "tainment": 19019, "\u2581numero": 25899, "\u2581architecture": 13811, "\u2581pr\u00f3": 22045, "region": 8164, "\u3083": 31028, "amb": 1379, "\u2581highest": 7881, "\u2581th\u00e9": 19353, "W": 28780, "\u2581Mus": 3779, "ged": 2560, "\u2581ships": 11296, "\u6642": 29607, "\uac15": 30967, "WT": 25971, "\u2581longitud": 28629, "\u2581Pu": 23078, "\u00ad": 28927, "\u0426": 28928, "\u2581Example": 16693, "\u2581applied": 7589, "arn": 1331, "\u2581tape": 15814, "Built": 28002, "Visibility": 19499, "Convert": 16311, "\u9884": 30098, "qquad": 12088, "\u2581dove": 15622, "fulness": 19965, "\u2581practically": 20119, "\u2581chim": 21367, "peon": 18019, "\u2581prize": 17848, "\u2581allocate": 21637, "\u2581Friends": 22371, "ju": 8948, "RL": 5419, "NP": 24257, "endregion": 26034, "optional": 14496, "listener": 21904, "\u043b": 28794, "\u2581\u2581\u2581\u2581\u2581\u2581\u2581\u2581\u2581\u2581\u2581\u2581\u2581": 569, "rez": 11223, "\u2665": 29664, "loe": 27823, "\u2581prior": 4681, "\u0015": 30675, "\u2581plat": 24474, "\u2581America": 4352, "lower": 13441, "oriented": 28113, "cept": 1358, "\u2581aggressive": 18925, "\u2581outputs": 21842, "\u2581GEN": 25778, "ingham": 15419, "\u2581pretend": 19192, "\u2581progressive": 20458, "\u2581gi": 5220, "erial": 16299, "page": 3005, "\u2581horses": 11938, "\u2581calculations": 19051, "\u2581Activity": 24066, "<0x9B>": 158, "\u6d3e": 31006, "\u2581hosp": 17688, "\u30c9": 29335, "ivot": 18807, "\u2581shout": 11428, "\u2581*\u00ab": 26811, "TX": 7956, "R": 28754, "\u2581\u043e\u0441\u043e": 14512, "\u2581rehe": 25562, "izarre": 27770, "old": 738, "\u2581Tr": 1319, "\u2581certain": 2552, "../": 1979, "\u2581action": 2992, "\u00f6r": 2024, "\uc6b8": 31758, "\u2581jew": 13564, "\u554f": 31142, "\u0433": 28810, "\u2581Mex": 6874, "('\\": 21421, "REGION": 27291, "ederb\u00f6rd": 18927, "\u2581\u0434\u0432\u0435": 27807, "\u2581emb": 7101, "preview": 21900, "\\": 28756, "\u2581fail": 3747, "\u2581compare": 9584, "snd": 20027, "elem": 12034, "cq": 27009, "\u2581queue": 10159, "\u2581transformation": 12958, "\u2581Mo": 6885, "\u2581ladies": 16009, "PU": 7903, "\u2581Also": 4840, "\u10e6": 31278, "RENT": 22286, "ifacts": 24639, "okes": 9486, "\u2581PL": 17980, "Port": 6411, "\u2581non": 1843, "\u2581environ": 14453, "person": 9701, "\u2581Sport": 11093, "\u2581damn": 9741, "\u2581parad": 15904, "Ah": 17114, "\u2581floors": 21264, "ff": 496, "\u0447\u0435\u043d\u0438\u0435": 18326, "percent": 18799, "ange": 909, "olk": 27227, "ierto": 27180, "hero": 28241, "\u2581importante": 19538, "\u2581WP": 26764, "\u03cc": 29212, "\u2514": 30122, "\u2581\u0441\u0442\u0430\u043d\u043e\u0432\u043d\u0438\u043a\u0430": 18699, "\u5bc6": 29385, "Delegate": 17295, "erten": 28645, "mathop": 27188, "\u2581\u0420\u0435": 9392, "\u865a": 31415, "\u2581discussing": 20633, "\u2581Perhaps": 9447, "\u2581Publish": 19675, "\u2581possessed": 26132, "\u2581differently": 16841, "wald": 26246, "\u5382": 31228, "\u2581Pearl": 25895, "MX": 26534, "\u2581hundreds": 10524, "lc": 24228, "ansk": 18269, "(%": 16256, "\u2581mathematical": 27240, "\u6c47": 31768, "HL": 11758, "\u2581\u0411\u0435": 11543, "\u00f3wn": 16213, "\u2581construction": 6380, "xD": 18915, "\u0cbf": 30762, "\u2581Hem": 21942, "every": 19662, "\u2581heat": 6601, "\u2581nue": 12467, "<0x9E>": 161, "\u2581placeholder": 17455, "blocks": 14965, "icro": 3130, "BE": 7657, "\u2581mood": 12247, "colo": 17382, "array": 2165, "\u2581oppos": 5793, "BUFFER": 16406, "\u2581distract": 18565, "WIDTH": 24278, "learn": 27082, "\u2581happened": 4243, "frastructure": 11932, "\u2581vel": 6592, "\u0434\u044f": 10926, "\u2581elem": 10550, "\u2581Sergeant": 28204, "\u251c": 29635, "clock": 10487, "\u2581Reyn": 25883, "\u2581lamp": 21157, "Union": 20981, "rowned": 14335, "\u2581Gal": 6639, "\u2581grain": 18663, "\u2581Dort": 27238, "\u2581Jur": 22011, "\u2581jokes": 23872, "payment": 18589, "\u2581relationships": 9391, "boolean": 8490, "oration": 9990, "empty": 4977, "\u2581dumb": 15475, "nl": 14476, "\u6b0a": 31923, "cret": 3927, "\u2581gold": 5014, "\u2581pueden": 27791, "\u2581My": 1984, "ahn": 8745, "\u5ff5": 31329, "\u2581Hugo": 24875, "oirs": 27986, "\u2581Din": 20325, "\u2581board": 5113, "\u2661": 31104, "FT": 5550, "ulator": 11094, "<0x8F>": 146, "\u2581blo": 3449, "\u2581motor": 8609, "lauf": 27997, "\u2581defe": 8464, "apeut": 25334, "Quant": 19701, "\u958b": 30068, "tha": 15716, "reddit": 14254, "ichten": 20850, "Init": 4516, "lik": 4634, "dl": 9778, "\u2581configure": 20919, "!": 28808, "\u2581INT": 13289, "\u2581Netflix": 25606, "\u2581sometime": 28088, "\u0906": 31297, "reen": 1915, "\u2581events": 3926, "\u2581permission": 9599, "\u98de": 31259, "UM": 4171, "round": 888, "ctrine": 18371, "irts": 9338, "\u3053": 29543, "\u2581weird": 10481, "\u2581Auss": 27775, "\u0448\u0430\u044f": 25356, "\u67e5": 29110, "Operation": 6972, "nia": 6232, "quer": 10376, "\u2581Oliver": 17979, "pro": 729, "\u2581normally": 12336, "ait": 1022, "game": 8835, "\u2581Ton": 17104, "Wrap": 20204, "\u2581DS": 25840, "\u63d2": 29959, "\u2581translation": 13846, "\u522a": 31668, "\u00edv": 21022, "\u2581Galaxy": 28228, "\u2581UEFA": 26837, "ring": 699, "helpers": 19943, "tk": 9808, "\u2581tr": 467, "\u2581size": 1669, "\u2581magaz": 21262, "\u043d\u0432\u0430": 22220, "ppe": 24865, "MEM": 9210, "\u2581ll": 8814, "\u2581nice": 5171, "ura": 2614, "'=>": 14186, "front": 6072, "\u2581hum": 1997, "\u00f4le": 18606, "\u2581persons": 12920, "igenous": 20164, "aments": 22987, "\u2581too": 1368, "\u0164": 31277, "\u25e6": 31583, "\u2581Jos": 9574, "acent": 15352, "\u2581Aaron": 20486, "\u0440\u0430\u043c\u0438": 27142, "\u2581HE": 14904, "pcm": 20610, "\u2581belt": 14857, "\u30d2": 31311, ">?[<": 25833, "notice": 26814, "<0xCB>": 206, "\u2581Civil": 12045, "gre": 13052, "\u2581(((": 15785, "\u2581villages": 18996, "\u2581thrust": 20600, "aration": 9477, "\u4e00": 28969, "\u2581\u0437\u0435\u043c": 19868, "\u2581Sund": 6721, "ictionary": 8078, "\u2581widespread": 23723, "eward": 23899, "\u2581wrote": 4677, "olving": 18390, "\u2581Mid": 11083, "(['": 18706, "\uc4f0": 31706, "ening": 3250, "Col": 1577, "\u2581specific": 2948, "\u2581tem": 1637, "\u2581CIA": 22721, "\u2581-----": 20041, "\u2581lad": 9776, "\u2581enthusi": 18185, "\u2581],": 12052, "\u2581apartments": 28123, "\u2581pipe": 13661, "\u2581sprintf": 22804, "\u05b9": 30600, "\u2581EXPECT": 7270, "\u2581Schl": 21983, "\u2581\u0432\u0430": 13524, "\u2581cement": 22701, "\u009c": 30011, "Page": 4068, "container": 6734, "\u5f0f": 29122, "TC": 8386, "\u2581By": 2463, "switch": 7252, "usement": 24862, "\u2581classical": 13378, "\u2581queries": 23681, "<0xF5>": 248, "Har": 23653, "\u2581\u0434\u0438": 6971, "gmail": 23769, "\u2581cloth": 17673, "\u2581Morning": 25869, "\u2581\u0441\u0456": 23964, "\u00eat": 18774, "\u00e4h": 6533, "\u2581lane": 19398, "Binary": 15692, "\u2581pension": 26395, "odio": 26301, "rop": 1506, "\u2581assembled": 26309, "\u7075": 31310, "\u2581Alf": 11050, "nych": 10317, "\u2581hasta": 11539, "\u1e0d": 30351, "\u2581scenarios": 22141, "\u53d6": 29012, "aft": 3461, "\u2581Cuba": 21935, "displaystyle": 22111, "\u2581marvel": 27778, "\u2581elderly": 22476, "~~~~": 11902, "\u2581\u0442\u0435": 3882, "\u0433\u0440\u0430\u0444\u0456": 23006, "\u05b8": 29997, "ambda": 2566, "\u2581marker": 18844, "\u2581strangers": 24305, "\u2581player": 4385, "\u2581aussi": 11631, "\u2581Edd": 15765, "\u2581Awards": 10882, "Den": 18039, "ching": 11097, "\u2581rv": 23021, "\u2581aprile": 27487, "\u2581\u0441\u043b\u0443\u0447\u0430": 28124, "\u0bb2": 30616, "ide": 547, "\u2581techniques": 9804, "\u2581beh": 1833, "ior": 1782, "(()": 10289, "\u2581composer": 24983, "\u2581herself": 4746, "\u2581{})": 25226, "\u2581\u0442\u0435\u0440\u0440\u0438\u0442\u043e": 24891, "\u2581Message": 11350, "jan": 12517, "Until": 25072, "\u2581Ap": 4002, "\u2581lake": 14411, "\u0437\u044f": 15876, ")}\\": 11688, "release": 11023, "edo": 24436, "\u2581\u0420\u0443": 14116, "\u2581hanging": 12445, "\u2581Kin": 26137, "\u2581Comments": 25493, "\u2581critic": 8394, "\u00ab": 28850, "\u2581nor": 4678, "\u0119": 28864, "\u2581religious": 8553, "\u2581spots": 16961, "entre": 23718, "\ub610": 31292, "ask": 1152, "ined": 1311, "Ass": 7226, "\u2581neces": 24101, "Music": 24778, "_{": 787, "Tw": 21173, "\u2581senses": 23086, "\u2581shelves": 28201, "\u043f\u0430": 2789, "hos": 22848, "ids": 2298, "\u2581single": 2692, "\u2581Director": 9298, "\u2581Token": 16625, "cleanup": 23642, "\u2581\u00dcber": 19265, "\u2581characteristics": 15559, "ribu": 15149, "\u2581Catal": 18959, "\u5024": 30261, "ower": 1072, "\u2581plug": 16605, "\u2581\u0422\u0430": 8788, "apos": 17936, "pad": 9845, "\ub2e4": 29043, "\u2581releasing": 28364, "Operand": 14074, "ensure": 7828, "\u2581theoret": 15007, "\u2581affiliate": 24933, "oud": 2456, "}$.": 5124, "\u2581uid": 26975, "\u2581\u0454": 15020, "rolled": 7780, "\u2581compensation": 19204, "\u00e2teau": 22487, "athers": 13877, "\u2581m\u00eame": 10274, "Public": 14140, "uzione": 20219, "\u1031": 31152, "\u573a": 30082, "appers": 27135, "ield": 874, "\u2581influ": 4765, "see": 3245, "\u2581accident": 8318, "\u0bae": 30228, "play": 1674, "eur": 7093, "oler": 24472, "leans": 20803, "Round": 22483, "\u2581remaining": 8409, "\u2581way": 1069, "\u2581Ich": 27774, "\u2581MA": 6540, "\u0454\u0442\u044c\u0441\u044f": 13137, "\u2581edit": 10659, "\u2581IBM": 25709, "auc": 14158, "\u2581VA": 26147, "\u2581Ruth": 18943, "\u043b\u0441\u044f": 7659, "ekt": 10906, "\u2581Meter": 26673, "aire": 5731, "\u2581Buy": 14824, "\u2581gaz": 14961, "\u2581sank": 24215, "\u00e8le": 24265, "\u2581degener": 24507, "incipal": 15934, "\u2581proposals": 26054, "for": 1392, "{": 28751, "\u2581folg": 15280, "thal": 21361, "execut": 15873, "vention": 6254, "\u2581\u2581\u2581\u2581\u2581\u2581\u2581\u2581\u2581\u2581\u2581": 17422, "\u2581Garden": 15875, "\u2581newer": 26259, "\u2581tre": 2655, "\u2581USB": 11588, "\u2581rot": 6580, ")',": 20735, "\u2581Police": 12338, "VP": 18246, "\u2581annoying": 22069, "\u0432\u0456": 4093, "\u2581abroad": 18836, "\u2581meditation": 23976, "\u044a\u0440": 6430, "\u2581Solutions": 24806, "\u2581compl": 3852, "\u2581Army": 8094, "\u2581Serge": 16866, "\u2581Benef": 22710, "\u2581century": 5445, "Cut": 27724, "Selected": 9062, "errno": 17818, "\u2581Cot": 25025, "riend": 1513, "\u2581Grey": 22064, "\u2581etwa": 16588, "rent": 1114, "nen": 4588, "AR": 1087, "\u2581::": 6210, "\u2581Murphy": 23940, "Obj": 7017, "\u2581China": 5077, "Ab": 6570, "\u2581explan": 10928, "\u2581intern": 3875, "user": 1838, "\u7ad9": 29992, "\ubaa8": 29820, "avg": 23750, "\u2581coordinate": 17237, "\u2581Load": 11924, "\u2581Vit": 20874, "notations": 19254, "VL": 23537, "intel": 26876, "\u2581Dol": 15052, "\u2506": 31172, "\u2581waar": 14995, "\u8bbe": 29081, "\u255d": 30494, "\u2581f\u00fcr": 3446, "liche": 8518, "prot": 16930, "\u2581Q": 1186, "\u2581identifier": 16375, "\u2581commented": 22191, "\u2581crossing": 17076, "\u1f30": 31144, "Database": 9906, "\u043a\u043e\u0457": 26962, "WITH": 21646, "\u06c6": 31252, "\u2581meals": 16423, "about": 14146, "\u2581embar": 12261, "\u2581\u044f\u0432\u043b\u044f": 16207, "\u2581stroke": 14684, "\u2581\u0443\u0447\u0430": 10414, "chrome": 21001, "\u2581af": 3833, "Messages": 16556, "\u2605": 29168, "ashes": 14650, "\u2581WE": 21026, "\u2581Am": 2740, "\u2581reactions": 21319, "ionale": 12898, "Signal": 21643, "\u2581FM": 23586, "ce": 358, "\u2581\u0438\u0441\u0442\u043e": 13196, "\u2581Program": 7347, "/,": 25574, "?'": 3725, "\u2581nun": 17043, "\u2581produ": 1219, "\u2581Helen": 18504, "arget": 1533, "\u2581\u0410": 2182, "Register": 7832, "\u2581Besides": 14862, "icies": 22966, "criptor": 5456, "\u2581Soviet": 9971, "acl": 21899, "sound": 13752, "\u2581simply": 3768, "mans": 20661, "stri": 26229, "\u2581investigate": 17214, "\u6d88": 29311, "klass": 24660, "\u06be": 31052, "\u2581prem": 5146, "\u2581convenient": 13767, "path": 1740, "\u2581rather": 3210, "\u2581Bour": 16078, "\u2581dummy": 24084, "\u5e86": 31301, "wq": 23519, "nate": 25134, "\u2581precision": 16021, "\u2581prisoner": 24040, "\u2581Kay": 17399, "Location": 6319, "\u2581Bed": 12266, "\u2581War": 3273, "\u2581weiter": 15298, "\u2581Cou": 12376, "\u9970": 31915, "\u2581thirteen": 26584, "\u2581shifting": 24334, "\u2581sharp": 10227, "\u2581guarantee": 12587, "Video": 11761, "\u0443\u0442\u0431\u043e": 18953, "actual": 15141, "oustic": 27621, "\u2581thin": 9026, "\u984d": 31086, "aug": 11614, "\u2581medi": 17286, "\u2581mild": 16583, "ycl": 9591, "\u041c\u0430": 21995, "ements": 4485, "he": 265, "\u2581contributor": 23040, "\u1d1b": 31083, "Source": 4220, "roduction": 13632, "\u2581Une": 16035, "\u2581atom": 18040, "\u2581ligne": 21043, "\u2581transc": 24330, "\ud83d\ude05": 30379, "\u2581AC": 11949, "\u2581Writ": 13670, "\u2581estimated": 11909, "Ign": 12934, "marker": 19169, "\u2581shield": 15422, "\u2581Francis": 6617, "GPU": 25804, "\u2581appoint": 6904, "\u2581fence": 17210, "chestr": 26844, "Sum": 9881, "\u2581salv": 18292, "\u2581\u00e4": 14239, "Collections": 10211, "\u179f": 30326, "nung": 15065, "\u05ea": 29064, "\u2581grasp": 22055, "\u2581Fred": 11317, "\u2581saint": 27361, "\u2581not": 459, "Dele": 5314, "\u2581supports": 11562, "gow": 22439, "--------------": 23633, "Sent": 26968, "\u2581Ministry": 17036, "ors": 734, "aram": 762, "\u2581en": 481, "iman": 27153, "\u2581feet": 4051, "conscious": 13787, "aty": 20721, "\u767c": 31046, "lle": 20703, "ball": 2667, "ved": 1800, "dings": 23127, "igne": 9908, "\u0458\u0443": 11066, "Review": 25861, "]);\r": 28171, "eq": 1673, "\u2581consultant": 28459, "<0xF6>": 249, "ina": 1380, "\u2581'')": 20237, "\u2581academ": 8853, "\u03a4": 29777, "agnostic": 13685, "\u2581Imp": 15182, "\u2581observations": 13875, "itting": 3257, "CAN": 25798, "seconds": 23457, "\u2581week": 1819, "\u2581soft": 2664, "\u2581fue": 5631, "Let": 8779, "\u2581Bul": 10440, "eres": 12343, "\u2581handed": 12752, "ovi": 17694, "Tri": 18332, "Cent": 18503, "\u2581anom": 24561, "\u2581ham": 11218, "\u2581~=": 28515, "\u2581Islam": 10251, "iden": 6667, "\u2581Number": 8978, "[:": 7720, "\u665a": 31671, "encies": 6094, "brace": 24256, "\u2581finished": 5967, "\u503c": 29063, "\u2581myst": 11947, "\u0441\u043b\u0430": 14669, "\\-": 27682, "\u2581Williams": 10606, "agner": 23862, "\u2581gir": 27585, "rieb": 14945, "\u0442\u0435\u043b\u044c": 4446, "OutputStream": 20667, "IR": 4599, "ida": 2331, "\u2581liability": 22581, "\u2581\u043f\u043e\u043b\u0443\u0447\u0438": 18977, "\u2581acceptable": 18636, "\u2581tops": 27259, "\u2581Jen": 11654, "\u0432\u0448\u0438": 10697, "\u2581observer": 21854, "\u2581von": 1808, "\u52bf": 31728, "\u00e4d": 16902, "AST": 12440, "\u2581origins": 26081, "live": 17064, "Hz": 12659, "\u043a\u0440\u0430": 5954, "\u2581\u00b0": 8793, "component": 7451, "\u2581wrist": 20294, "\u79bb": 30254, "___": 8485, "\u7063": 31521, "\u2581Government": 9714, "cnt": 10144, "\u6226": 30842, "\u2581molto": 25680, "izar": 12874, "hes": 2053, ",\\": 2142, "\u2581descend": 19144, "\u2581dit": 8052, "\u2581mog": 19841, "\u0433\u0440\u0430\u0444\u0438": 11075, "ieme": 24755, "\u2581achieved": 12011, "\u2581Manuel": 20761, "\u2581Bra": 11830, "quin": 26611, "\u2581pretty": 3468, "Align": 18821, "\u989d": 29880, "until": 27221, ")--": 20560, "\u30cd": 30423, "\ud83e\udd26": 30632, "\u2581Rice": 26741, "\u2581Send": 12710, "anto": 7733, "\u2581Costa": 19311, "Function": 4901, "\u2581law": 2309, "unched": 9814, "\u2581sheets": 18763, "\u2581Catherine": 20126, "zoom": 23915, "esi": 17897, "\u2581Nicol": 18338, "Use": 8543, "\u2581destac": 27900, "\u2581overall": 7544, "eny": 20552, "\u2581election": 7537, "\u2581cure": 22457, "\u2581Notes": 16254, "DBG": 14701, "\u2581bez": 18037, "iblic": 25624, "olut": 1420, "\u00e6r": 26384, "\u2581Trade": 17684, "\u76f4": 29589, "Prim": 18888, "\u2581hire": 15270, "date": 1408, "\u90a3": 29793, "ystem": 906, "cido": 20234, "\u2581constructed": 13379, "\u2581bike": 13045, "acon": 10364, "\u2581reprodu": 12487, "\u2581energet": 28236, "\u2581Sv": 20810, "\u2581#{": 22465, "\u2581tens": 19391, "\u2581wordt": 9930, "\u2581producers": 22862, "\u53f2": 30214, "aurus": 24308, "\u2581R\u00e9": 15417, "ld": 417, "\u2581Environmental": 25607, "\u2581find": 1300, "bian": 18632, "\u2581Gi": 6622, "\u2581entertain": 12127, "\u2581Gir": 25560, "\u2581slaughter": 28623, "\u2581declar": 18227, "\u2581java": 3070, "\u2581oper": 1764, "angen": 26047, "\u2581similarly": 21922, "\u305f": 29227, ")\\,": 23115, "\u2581appeal": 13650, "eps": 2671, "\u2581\u0415": 5612, "du": 670, "\u2581consume": 23327, "\u2581conne": 2334, "\u0baf": 30687, "\u2581mascul": 20442, "\u2581SC": 9730, "ologist": 12418, "')->": 18364, "=\"../": 7704, "UR": 1990, "\u2581images": 6203, "\u2581Span": 8299, "Editor": 8859, "\u2581protecting": 20533, "\u2581elected": 11401, "),\r": 23486, "Lines": 21837, "inery": 17171, "\u2581interview": 5927, "\u2581Hung": 15171, "\u2581fitting": 20068, "False": 6995, "ast": 529, "\u2581Boston": 9143, "Vel": 24351, "\u2581div": 2901, "ELL": 25035, "low": 9381, "iliation": 22758, "ribly": 22780, "kom": 9902, "frica": 23398, "\u2581della": 3503, "intent": 28559, "\u2581Recent": 27727, "\u2581vl": 14397, "tings": 2549, "\u62fc": 31214, "\u2581defect": 18366, "'=>'": 24262, "pin": 10002, "\u2581write": 3324, "ifndef": 17981, "Admin": 11744, "button": 4559, "========": 1647, "\ubb3c": 30895, "\u2581gest": 7165, "\u2581cutting": 12164, "\u2581norte": 23656, "<0x39>": 60, "\u2581woj": 15870, "\u73ed": 30805, "\u2581sel": 7530, "tree": 6243, "DEX": 13413, "ulation": 2677, "outs": 8508, "\u2581restored": 21617, "cc": 588, "\u2581junior": 18339, "\u2581affairs": 17313, "\u2581Check": 4914, "\u2581stand": 1876, "arrow": 3362, "\u2581hub": 14546, "ORM": 14851, "zeichnung": 27448, "\u2581\"\";": 11993, "\u2581\u0434\u0435\u0440\u0435": 15902, "continue": 10243, "\u2581ridic": 12882, "\u2581hover": 18848, "compar": 24218, "Launch": 27514, "\u2581efter": 15606, "\u2581squeez": 19559, "Count": 3072, "\u2581blind": 10337, "\u2581feas": 25953, "\u8fdb": 29258, "\u2581projected": 25638, "Literal": 13306, "\u0440\u0438\u043d": 20578, "Roll": 22849, "\u2581legally": 24025, "\u2581Ghost": 25821, "\u2581covered": 6823, "\u2581watching": 6265, "Math": 11907, "rific": 16878, "\u2581Fun": 6785, "\u2581recon": 9220, "\u2581dump": 10332, "lab": 16847, "ili": 2689, "<0x35>": 56, "\u1021": 31995, "\u2581lighter": 23645, "\u2581liber": 7172, "\u2581destroyed": 11575, "\u2581GFP": 23577, "Chart": 19275, "\u2581quel": 12971, "\u2581chick": 25424, "%.": 13210, "\u2581\u043f\u043e": 1051, "ceiver": 15237, "\u2581\u043a\u043e\u0458\u0438": 22929, "rique": 15663, "\u2581participant": 28503, "\u0441\u0442\u0432\u0435\u043d\u043d\u043e\u0439": 25166, "Pipeline": 20190, "Backend": 21378, "\u00e4": 28830, "\u2581antes": 17567, "elle": 3222, "\u2581$|\\": 26308, "\u1794": 30114, "\u2581Query": 16580, "\u2581ihren": 24461, "brand": 20111, "\uc88b": 31807, "\u2581lp": 19956, "\u2581rib": 13147, "\u2581CPU": 14865, "\u2581steht": 26441, "\u2581perman": 8706, "\u00e9ment": 22952, "\u2581legal": 5648, "dire": 23887, "\u2581afterwards": 19272, "mod": 1398, "PROP": 25887, "ocker": 14295, "\u2581pied": 24349, "\u2581actions": 6768, "Styles": 17640, "erei": 26158, "\ud6a8": 31481, "[\"": 2221, "\u043b\u044f\u0440": 22020, "rown": 3329, "\u2581reported": 5745, "\u2581Lamb": 26247, "ese": 3368, "\u0446\u0438\u044e": 20483, "Question": 24994, "\u2581authorized": 23243, "\u2581Fif": 16296, "\u2581Portal": 22314, "\u2581giorn": 16251, "Segment": 17437, "\u2581ranging": 22741, "\u9577": 30531, "\u2581Bang": 13261, "\u2581realised": 24425, "\u2581Drug": 27827, "\u0142y": 11085, "\u2581through": 1059, "\u2581another": 1698, "\u2581drop": 6088, "\u2581COL": 20101, "road": 8584, "\u2581\u043a\u043e\u0442\u043e\u0440\u044b\u0435": 24065, "lock": 1607, "icks": 5446, "\ud6c4": 30570, "anked": 27527, "\u2581password": 7908, "\u2581intelligent": 18926, "Intern": 18531, "\u2581Inc": 5671, "\u2581compris": 25093, "\u2581\u0441\u043f\u043e": 11275, "\u043a\u043b\u044e": 12702, "\u6b62": 29885, "ky": 4845, "Container": 5738, "\u045e": 29931, "ike": 2474, "\u2581quickly": 4377, "property": 6558, "edes": 20124, "\u2581dozens": 21546, "\u2581Rug": 21769, "\u2581exciting": 12536, "\u6fc0": 30840, "\u2581limit": 3607, "\u2581jag": 15584, "western": 22274, "Comm": 3912, "\u2581suggest": 3397, "Rank": 24347, "\u6236": 31747, "\u2581Device": 20000, "\u2581metall": 21273, "\u2581Bahn": 25774, "FAILED": 19413, "uelle": 19053, "root": 4719, "\u2581unple": 28331, "\u043a\u0430\u043c\u0438": 21237, "LIED": 19829, "\u2581Salvador": 27785, "\u2581types": 4514, "\u2581\"*": 12406, "Rows": 13699, "bot": 10093, "\u2581fully": 5894, "\u2581entirely": 8134, "udge": 24763, "\uc0ac": 29315, "FUN": 9793, "\u2581ord": 4574, "\u2581Piet": 19786, "\u2581transitions": 26823, "\u2581mond": 12471, "frac": 1655, "\u2581vacation": 16829, "\u2581Hamb": 18540, "Tor": 22059, "lica": 24534, "\u2581twenty": 5969, "\u2581man": 676, "\u2581anc": 5930, "enez": 14936, "\u2581lado": 25418, "\u7ea7": 29486, "icky": 19722, "\u2581my": 586, "DOM": 15421, "\u2581scalar": 15820, "\u2581plastic": 10409, "\u2581Union": 7085, "\u2581rec": 937, "DIR": 8238, "\u2581Selection": 26909, "ptr": 2619, "ears": 5940, "\u2581strengthen": 15974, "\u2581substance": 18677, "GU": 25459, "\u1e41": 31507, "\u2581RT": 17059, "ahren": 18657, "\u2581\u0447\u0438": 9069, "Could": 17024, "\u2581Salt": 21943, "ITS": 20688, "pective": 8524, "urer": 8792, "\u2581slowly": 7160, "quot": 12792, "\u2581suffering": 11812, "\u2581tags": 12944, "\u0441\u043b\u0435\u0434": 24686, "\u2581affordable": 16662, "\u2581GPIO": 21652, "parsed": 25218, "\u00e4sident": 25353, "\uff1f": 29771, "IGH": 18145, "Fact": 19558, "\u2581Sever": 12120, "itudes": 15787, "\u2581trap": 16452, "\u028a": 30257, "\u2581\u043a\u043e": 1619, "\u2581resource": 3715, "\u2581laser": 19605, "HERE": 11724, "\u043a\u043e\u043d\u043e": 20911, "\u2581surprisingly": 23107, "igent": 21531, "\u2581fact": 1639, "Strategy": 16161, "\u5408": 29234, "\u2206": 31037, "\u043b\u043e": 1120, "\u2581reminder": 25563, "ctxt": 27567, "\u05dc": 29077, "put": 759, "\u2581after": 1024, "\u2581Resource": 12013, "\u0440\u043e\u0432": 5658, "oper": 3015, "our": 423, "\u2581changing": 8634, "\u2581dance": 9773, "\u2581[];": 9965, "\u2581churches": 20764, "re": 267, "une": 1802, "\u2581Games": 12339, "\u2581cycl": 14211, "enburg": 22381, "\u2581happen": 4804, "\u2581cars": 8300, "\u2581Rog": 9214, "\u2581Western": 8307, "\u2581Due": 16043, "\u0427": 28909, "K": 28796, "\u2581Frank": 4790, "\u2581frames": 15806, "onds": 15779, "\u2581extrem": 6215, "\u2581Lion": 23236, "\u2581Esp": 10576, "\u2581advant": 6492, "\u2581constantly": 10876, "\u043d\u044b\u0435": 5193, "\u2581know": 873, "\u2581interest": 2145, "\u2581Last": 7690, "iration": 8679, "rov": 11620, "\u2581opened": 4923, "\u2581dog": 3914, "ErrorCode": 26998, "Sign": 7384, "\u2581sail": 12432, "-%": 23962, "\u691c": 30948, "irtschaft": 17020, "emet": 18726, "lass": 12532, "\u2581s\u0105": 23435, "\u2581historia": 23394, "Cursor": 14058, "\u2581rede": 27503, "deserialize": 25689, "REF": 14329, "student": 22523, "\u2581roads": 15014, "config": 2241, "\u30b9": 29109, "\u2581vectors": 20419, "\u0440\u043e\u0431": 19080, "\ucc44": 31556, "\u2581Glas": 22462, "\u2581always": 1743, "\u2581decay": 15224, "\u6b63": 29302, "aban": 12640, "\u2581claiming": 20188, "DAT": 23775, "\u2581Her": 2584, "egr": 15553, "\u2581planned": 10233, "\u2581];": 11890, "\u2581\u0432\u044b\u043f\u0443": 26262, "\u5eb7": 30720, "\u2581kom": 5626, "\u2581park": 4890, "\u2581considering": 9868, "type": 1123, "iple": 4191, "\u2581endpoint": 15329, "\u2581natural": 4229, "\u8d64": 31398, "\u2581bleeding": 25352, "\u2581excitement": 17163, "\u2581brother": 5510, "\u1295": 31276, "anchor": 22222, "\u0eb2": 31616, "\u2581barr": 20427, "\u0440\u0438\u0442\u043e": 13545, "ensing": 18130, "\u2581percent": 4153, "\u2581reve": 5900, "\u2581UnityEngine": 14677, "\u2581campaigns": 19886, "}}}\\": 27705, "\u2581proble": 1934, "iances": 20904, "\u4ef6": 29011, "\u8fce": 31366, "\uc2b5": 29570, "\u2581boom": 25157, "\u2581Jam": 11776, "sv": 6437, "\u2581Creative": 23626, "CTOR": 20434, "abulary": 24000, "restore": 15949, "ERY": 19369, "Framework": 15456, "\u2581injured": 15714, "pgfpathlineto": 12683, "GA": 11393, "\u2581test": 1369, "\u2581treated": 9852, "\u2581Va": 18786, "\uac1c": 29893, "to": 532, "\u2581organizations": 9909, "\ud83d\ude29": 31800, "\u2581virt": 9306, "===": 14203, "Same": 18462, "\u2581bibli": 22426, "ww": 1566, "\u2581System": 2135, "\u2581Trad": 17581, "\u0432\u0430\u0442\u0438": 16234, "\u2581ausge": 26227, "**:": 9189, "\u2581FIXME": 26842, "\u2581gesch": 15781, "\u76ca": 30914, "aron": 5214, "\u2581society": 6190, "\u2581lover": 19568, "\u6b8a": 31267, "Ge": 5909, "GG": 22422, "\u2581Making": 19387, "\u2581guides": 25146, "\u0442\u0435\u043b\u044c\u043d\u043e": 21195, "\u2581Friend": 13109, ",\\,": 21946, "ities": 1218, "\u043a\u0430": 917, "\u2581buy": 3848, "\u2581comed": 26677, "Sigma": 9806, "\u2581mayor": 11471, "ence": 636, "Vector": 6162, "asz": 17747, "Field": 2297, "INT": 2945, "mn": 15358, "\u2581cow": 12072, "Bag": 24204, "\u2581mast": 27529, "\u2581summit": 28304, "orts": 15587, "\u89e6": 29937, "\u2581Lady": 10314, "ave": 458, "Tuple": 19481, "\u2581costs": 6966, "ernel": 6453, "\u2581\u043f\u0440\u0438\u0437\u043d\u0430": 26287, "xp": 28315, "\u2581accidents": 26892, "\u622a": 30572, "\u2581website": 4400, "\u2581round": 3713, "screen": 8555, "\u2581prime": 8139, "folio": 14132, "c\u00ed": 16293, "\u0698": 31114, "Ali": 14514, "pt": 447, "color": 3456, "brew": 22540, "\u2581inn": 4783, "cdot": 5468, "istics": 5513, "\u2581FIFA": 28702, "Bytes": 7976, "SCAN": 27849, "<0xA1>": 164, "\u2581Bund": 12583, "version": 1790, "ve": 333, "\u2581Dam": 8474, "\u53d7": 30154, "unwrap": 14719, "\u2581\u0445\u0438": 27220, "\u02cc": 30636, "POS": 16953, "\u2581steady": 14889, "\u2581Face": 7197, "\u0451\u043c": 18452, "\u043d\u0430\u0445": 26027, "\u3044": 29132, "\uc0b0": 30336, "ruppe": 17719, "\u2581aveva": 22405, "hex": 17524, "\u2581surely": 13836, "\u2581individ": 3004, "house": 6186, "\u2581operators": 12765, "\u2581Gree": 15752, "\u2581Hook": 26154, "\u043c\u0435\u0440": 8840, "\u2581told": 2240, "\u2581Win": 11035, "\u2581lieutenant": 26219, "gorithms": 16330, "secut": 8765, "\ud83d\ude0a": 30464, "boat": 25343, "\u2581ko": 9940, "neurs": 24283, "GF": 24390, "\u2581appetite": 28081, "\u0cc6": 31421, "plo": 22433, "\u2581Travel": 17823, "\u2581Unit": 13332, "components": 9048, "\u2581electricity": 17242, "\u2581monitor": 9009, "\u2581Fant": 19800, "\u2581\u0440\u043e\u043a\u0456\u0432": 19057, "\u2581case": 1222, "ista": 3581, "sa": 3820, "a\u00f1a": 15568, "\u2581devices": 8309, "load": 1768, "\u2581John": 2215, "ussy": 23215, "snapshot": 23932, "\u2581silence": 9296, "\u2581download": 6726, "\u2581Select": 13341, "\u2581conspiracy": 25263, "\u00e8se": 26289, "\u2581offensive": 17381, "EF": 16327, "LA": 8423, "\u2581\u043d\u0435\u0437\u0430": 27476, "\u6c11": 30136, "\u8fde": 29641, "\u062d": 29100, "\u2581informed": 12903, "\u2581Index": 12348, "\u2581Publishing": 26999, "icons": 14356, "yt": 4475, "ILE": 9316, "\u0436\u0435\u043d": 6565, "\u2581prima": 12030, "\u2581Cele": 24779, "\u0e2b": 29601, "\u7834": 31163, "UB": 6870, "roke": 7923, "\u2581attempts": 13199, "\u2581});\r": 26392, "\u2581equ": 1734, "\uae4c": 30578, "agers": 9535, "\u2581reduced": 9397, "\u0628": 28983, "ako": 7050, "\u2581Normal": 23325, "ments": 1339, "\u03c9": 29214, "\u1f08": 30966, "correct": 24555, "\u0441\u043a\u0430\u044f": 8224, "\u009d": 29272, "\u2581Jan": 2997, "\u4f24": 31546, "\u2581props": 11177, "\u2581Dave": 13613, "\u2581Dutch": 14738, "oster": 8731, "\u2581gradu": 7461, "\u2581werd": 7680, "\u2581shell": 10043, "tri": 13862, "\u2581dol": 13824, "\u2581glanced": 11770, "\u2581dynamics": 15562, "\u2581ED": 15687, "inta": 20926, "\u2581overwhel": 12987, "\u2581entropy": 25753, "mina": 28085, "\u0e04": 29546, "\u044f\u0432\u0438": 20241, "\u2581ink": 20195, "gy": 1495, "\u2581SND": 27126, "\u2581Stadium": 8993, "Loc": 2871, "olute": 13703, "orship": 9579, "\u2581Element": 11490, "\u2581CC": 16900, "\u2581Colombia": 23938, "\u2581Incre": 24377, "\u2581Marie": 12963, "\u2581pocket": 10585, "peer": 14720, "<0x55>": 88, "iana": 5127, "\u2581affili": 11795, "\u2581enjoy": 3555, "\u270c": 31906, "\u2581academic": 11860, "\u2581breat": 13105, "\u2581gardens": 22461, "\u0447\u043d\u0430": 18541, "assign": 12895, "general": 18264, "\u2581carries": 21277, "\u2581utilize": 22535, "\u0441\u044f": 1931, "Application": 7951, "<0xAD>": 176, "\u2581mut": 4548, "trained": 28247, "\u2581suggesting": 20223, "\u2581Christmas": 7416, "dir": 3351, "\u2581Ga": 11131, "\u2581estab": 3582, "\u00f3wnie": 25414, "\u2581soup": 18851, "[$": 7326, "\u2581San": 3652, "\u2581cui": 12118, "\u5e26": 30197, "CLO": 22132, "\u2581teen": 10799, "\u0434\u043d\u043e": 14368, "\u2581Py": 5961, "\u2581bott": 7718, "\u263a": 30601, "orney": 10899, "\u0440\u0430\u0437": 24440, "ros": 2737, "\u2581eternal": 25391, "\u2581stagione": 24248, "protocol": 12787, "\u30b5": 29863, "\u9996": 29993, "Note": 12205, "\u2581inspection": 22466, "\u00e9l": 5560, "\u2581question": 2996, "\u2581AT": 9274, "\u2581awarded": 14059, "\u2581dip": 14217, "\u0444\u043e\u0440\u043c\u0430": 22131, "r\u00e5": 16348, "Service": 2328, "\u2581western": 12772, "\u6279": 30335, "\u2581Title": 13623, "\u2581ubic": 25727, "ampion": 8042, "']);": 13932, "\u2581pepper": 19082, "\u2581declare": 13242, "WH": 20536, "\u2581tcp": 25398, "istr": 2174, "ushing": 9305, "\u2581Lawrence": 16506, "\u2581writes": 13883, "\u2581support": 1760, "\u2581Target": 15255, "uese": 23663, "\u2581OFF": 22615, "cing": 4669, "\u093e": 29232, "\u0437\u0443\u043b\u044c\u0442\u0430": 17674, "\u7e3d": 31936, "\u2581Dig": 10104, "pgfset": 19107, "\u026a": 29603, "\u000e": 30517, "\u2581\u0443\u043d\u0438": 18914, "\u2581Disc": 23294, "random": 9121, "loss": 9195, "\u2581Frankfurt": 26858, "items": 6949, "SYNC": 23871, "\u2581Num": 15755, "\u2581dignity": 27182, "Cont": 1525, "\u2020": 28932, "stv\u00ed": 24574, "\u0441\u044c\u043a\u0438\u0445": 19799, "\u2581Marcus": 22194, "BUT": 23637, "\u2581called": 1987, "\u00fc": 28837, "\u2581ric": 14037, "Score": 18120, "=\"\"": 19164, "================": 3047, "preter": 21345, "ATED": 14371, "\u2581Anim": 27295, "\u5e97": 30219, "\u2581discrimination": 23354, "\u2581tutti": 26313, "\u2581None": 3635, "\u2581\u00b7": 1766, "\u2581Iter": 20436, "\u2581uncle": 17380, "\u2581glimpse": 26754, "\u2581Code": 7596, "\u2581seventh": 25650, "TF": 12352, "\u2581blessing": 27468, "faced": 28678, "\u2581Going": 25659, "\u00eancia": 16194, "ingen": 10814, "ailand": 21151, "\u2581wen": 21672, "cope": 6865, "\u51b7": 31888, "]+": 13381, "VENDOR": 24762, "\u6548": 29532, "\u0432\u0430\u043b\u0430": 18846, "\u2581don": 949, "\u2581\u0447": 4090, "\u2581Clin": 19950, "\u2581cups": 19646, "asket": 8173, "Ind": 1961, "\u2581accordance": 20147, "\u2581\u0447\u0435\u043b\u043e\u0432\u0435\u043a": 22653, "\u2581n\u00e1": 23407, "\u523b": 30861, "overlay": 27163, "\u2581Seit": 21761, "\u2581jsou": 25954, "\u2581union": 10784, "IT": 1153, "VIDEO": 28323, "\u2581seu": 7987, "\u2581submission": 23496, "\u2581\u0442\u0438": 11002, "\u0092": 29068, "\u2581seasons": 15238, "cx": 14415, "\u2581Walker": 17734, "apan": 4209, "\u2581seiz": 25368, "\u2581flux": 15410, "\u043c\u0438\u044f": 24684, "\u00a2": 29656, "\u2581Cab": 11357, "\u30c6": 29610, "\u2581marble": 26617, "confirm": 19928, "\u2581Mr": 2964, ",\u201d": 3372, "\u2581bru": 16575, "\u2581extr": 9237, "consum": 17125, "\u795e": 29836, "\u2581circular": 20439, "\ud83d\udd34": 31928, "iche": 5680, "}\\,": 12480, "\u2581Buffer": 21495, "\u0106": 29724, "\ud0c0": 30304, "\u2581Nixon": 24169, "WI": 14745, "ener": 790, "\u82d7": 31927, "\u2581decimal": 25888, "\u2581\u0431\u044b\u043b\u0430": 13342, "\u2581\u0443\u043f\u0440\u0430\u0432": 26263, "\u2581wie": 7220, "\u2581wip": 16542, "Du": 17379, "\u2581disrupt": 28679, "iliar": 7036, "\u2581says": 2627, "icio": 14957, "\u2581clar": 16066, "\u00e4lt": 17966, "\u2581\u0447\u0435\u0440\u0435\u0437": 20085, "\u2581fest": 12649, "\u2581medic": 7861, "\u2581dressing": 21993, "\u2581\u043e\u0431\u043b\u0430": 8083, "\u2581height": 5110, "\u5ea6": 29184, "\u2581Story": 13689, "aining": 1781, "\u2581heap": 22340, "\u2581templates": 24906, "\u2581Practice": 25508, "\u2581professor": 12192, "\u2581Afghan": 16320, "\u2581comic": 19607, "\u2581sleeve": 27685, "\u306d": 31197, "\u2581Allow": 26012, "\u2581synt": 13606, "\u2581con": 379, "AspNet": 13205, "\u7bb1": 30262, "\u2581enero": 26291, "\u4e39": 31618, "Variable": 10516, "ientes": 17459, "\u2581indeed": 8166, "\u2581piece": 5511, "\u2581confront": 12773, "\u2581Soon": 17232, "oured": 12991, "ClassName": 19452, "\u2581surpr": 4181, "\u0456\u043b\u044c": 7361, "Bounds": 15833, "liv": 20362, "ijuana": 23310, "uning": 25522, "indexOf": 14414, "\u2581#[": 9002, "\u2581repl": 4802, "ensis": 14320, "za": 2166, "Used": 21601, "\u2581r\u00e9g": 10551, "\u2581stop": 2115, "all": 455, "\u2581Love": 7481, "\u2581soldier": 15232, "\u6b64": 29320, "Creat": 14001, "Available": 18949, "\u2581account": 2708, "\u2581lung": 14966, "\u2581Foundation": 6476, "ogram": 11777, "akov": 25208, "\u2581Thought": 26142, "Category": 9633, "\u2581Simon": 10590, "chs": 21100, "\u2581tt": 28652, "\u2581Patrick": 13687, "option": 4694, "\u2581CH": 6523, "cedes": 23111, "\u2581Europe": 3401, "\u2581ms": 14362, "\u2581res": 605, "\u2581packets": 26443, "\u2581mise": 26743, "\u2581noble": 19343, "irl": 2156, "\u2581chosen": 8729, "AY": 3836, "\u2581Tat": 28087, "tasks": 21128, "\u2581guerra": 15328, "\u2581primitive": 22739, "\u2581bon": 7944, "\u2581\u0441\u0430\u0432\u0435": 28563, "\u2581now": 1055, "\u2581Sher": 10511, "\u2581Step": 7268, "\u0442\u0435\u0439": 22635, "cel": 4070, ">\\": 11266, "\u2581apartment": 9585, "\u043a\u0440\u0430\u0457\u043d": 24226, "\u2581Indonesia": 24450, "\u2581Marian": 27117, "HE": 1821, "L": 28758, "\u2581JavaScript": 26281, "\u2581Ric": 15983, "\u2581individuals": 6992, "\u2581onClick": 17201, "TING": 16567, "\u2581sell": 6112, "\u2581enough": 2066, "\u2581trusted": 16437, "\u2581Ken": 8885, "<0xDE>": 225, "\u2581received": 3874, "ste": 2453, "\u2581sunlight": 22950, "\u300a": 30095, "ais": 1555, "\u2581school": 2052, "Conf": 10193, "\u2581originally": 10806, "\u2581Ralph": 23373, "\u2581limiting": 27931, "\u30cf": 30483, "FD": 11858, "\u2581arqu": 28368, "\uaca0": 31810, "PRESS": 21060, "\u3069": 30496, "\u2581Roger": 14115, "adjust": 22562, "\u2581harass": 22280, "edi": 14548, "\u2581tobacco": 26865, "\u2264": 30035, "\u2581suc": 9094, "\u043a\u0442": 6299, "Where": 9607, "\u2581winner": 13842, "\u2581reject": 9198, "\u2581restrict": 8336, "err": 694, "\u2581volta": 20877, "\u2581\u043d\u0430\u0441\u0435\u0459\u0435": 22350, "journal": 22908, "ably": 1907, "rl": 3200, "amber": 9649, "onial": 23621, "\u2581Ferr": 16073, "\u0440\u0438\u044f": 7199, "<0xE9>": 236, "^{-\\": 18910, "\u2581newest": 27510, "\u2581conform": 16565, "\u00e9rieur": 21641, "Vo": 22619, "\u2581move": 2318, "usters": 12855, "\u2581electrical": 17828, "\u2581minority": 21118, "\u2581AU": 27963, "pel": 14605, "\u2581Anderson": 15661, "\u2581mi": 5192, "\u2581);\r": 12193, "\u2581unit": 5028, "\u2581prosecut": 16813, "\u2581la": 543, "\u5175": 30918, "\u2581Sn": 10881, "\u2581spouse": 25740, "andidate": 14154, "\u30ed": 29501, "\u2581statistics": 13110, "acker": 21172, "\u0442\u0435\u043c": 18988, "itempty": 15500, "\u2581conditions": 4331, "\u30f4": 31428, "\u2581sett": 4641, "\u2581Ice": 19587, "{\\": 658, "\u2013": 28816, "\u2581margin": 9829, "\u2581From": 3672, "ather": 1223, "\u2581pione": 21235, "\u2581relatively": 10102, "\u2581Democr": 7005, "\u2581utiliz": 20673, "\u043f\u043e": 1901, "gles": 16984, "\u2581Error": 7419, "CHANNEL": 23299, "Indices": 28191, "SB": 17706, "\u2581Road": 7356, "vent": 1071, "\u043a\u0430\u0437": 25672, "Each": 9179, "...)": 16381, "\u2581SHA": 18970, "VAR": 13408, "visit": 19090, "\u0e22": 29448, "\u2581canonical": 24600, "\u2581lonely": 23275, "\u2581USA": 7035, "\u2581guitar": 10686, "\u2581ins": 1488, "ICENSE": 7941, "\u2581muy": 15807, "resc": 25684, "\u2581heeft": 21006, "\u2581packing": 26894, "\u2581subjects": 14575, "\u2581starting": 5615, "\u2581\u0422\u0435": 15074, "Fall": 28072, "\u2581phenomen": 15651, "FO": 4521, "\u2581*)": 4491, "alle": 4504, "\u2581intended": 8926, "\u2581varies": 27950, "\u7a0b": 29265, "\u2581full": 2173, "sent": 16788, "\u2581GL": 8537, "seen": 18226, "\u2581world": 1526, "\u2581pay": 2136, "\u2581>>>": 18343, "\u2581Writing": 19920, "\u2581d\u00e9velop": 21226, "GLOBAL": 21742, "\u2581Queens": 19689, "\u2581entonces": 26451, "\u2581sharply": 26002, "\u2581buck": 9918, "\u2581\u041c\u0430": 5564, "Std": 21975, "\u0146": 30076, "\u2581Annie": 21780, "\u5f8c": 30134, "\u2581Should": 10934, "\u2581i": 613, "\u2581agre": 6271, "\u2581citt\u00e0": 20377, "\u2581gains": 21722, "\u2581Georg": 7505, "\u2581urban": 12270, "\u2581DNA": 16007, "workers": 28256, "Return": 6168, "anca": 19205, "\u2581shower": 13164, "\u2581proposal": 15297, "nement": 14482, "\u0442\u0430\u043b\u0438": 21865, "\u0432\u0448\u0438\u0439": 27386, "ogn": 3159, "\u2581Wild": 10668, "\u2581Updated": 26807, "\u2581f\u00e5": 28680, "\u1787": 31543, "\u2581caught": 6236, "\u2581personality": 13355, "mq": 26553, "\u8d5b": 31281, "ump": 1804, "\u2581arguing": 21440, "Module": 5144, "\u2581Sin": 11794, "Force": 19714, "logo": 17506, "Http": 5775, "ategories": 14922, "\u2581seas": 28443, "itzerland": 21245, "opes": 14336, "\u2581Brother": 22513, "\u2581pop": 1852, "\u2581cf": 24211, "\u2581Barcel": 15371, "\u2581Neil": 23467, "\u2581share": 4098, "\u2581pou": 8631, "\u2581upset": 13265, "Chat": 18165, "\u2581nederb\u00f6rd": 28373, "\u2581she": 630, "\u2581courtesy": 25826, "\u2581Liber": 8592, "\u2581attractive": 13999, "\u2581definition": 7526, "EVENT": 11185, "\u2581reinforce": 25234, "\u2581PD": 28054, "\u2581'</": 20182, "\u2581TH": 6146, "\u2581medicine": 12502, "\u2581An": 1094, "\u2581Complex": 26967, "\u2581fifteen": 13956, "Many": 15492, "iveness": 9992, "\u043a\u0438": 1107, "\u2581Gef": 26566, "\u2581ster": 17049, "\u0446\u0435\u0432": 21766, "\u30ef": 30455, "columns": 15184, "\u2581Pittsburgh": 25536, "ancellationToken": 26217, "\u2581sending": 10313, "\u2581sid": 21398, "\u2581corridor": 21550, "\u2581electron": 14044, "ospital": 4998, "BG": 25015, "\u677f": 29561, "Signature": 19299, "(\".": 15560, "\u2581ImGui": 21316, "\u2581Parent": 18712, ";&": 11043, "\u2581plusieurs": 17071, "\u2581patient": 7749, "\u2581priority": 11801, "_.": 2769, "topic": 17833, "module": 4895, "\u2581bone": 14056, "\u2581halt": 19293, "\u2581Sant": 5095, "\u2581falls": 14179, "\u2581nas": 12472, "\u2581Operation": 16536, "dag": 22997, "\u2581loving": 16276, "sqrt": 5840, "\u2581leak": 24798, "\u2581internacional": 27025, "\u2581small": 1741, "\u2581RF": 27063, "gin": 6207, "\u2581K": 524, "\u2581febbraio": 26833, "\u2581forehead": 18522, "decess": 24915, "Path": 2529, "\u2581occup": 6958, "\u2581F\u00fcr": 18034, "\u2581need": 927, "\u30a3": 29707, "mals": 26449, "\u0082": 30015, "\u044c\u044e": 16283, "\u2581Gilbert": 26774, "\u2581desk": 9431, "ComponentModel": 24306, "Branch": 21822, "\ud83d\ude02": 29196, "\u2581was": 403, "\u2581Mum": 25590, "(\"#": 11082, "\u2581correl": 22489, "operatorname": 12614, "\u2581Nevertheless": 18828, "\u2581common": 3298, "\u2581center": 4982, "\u2581christ": 22735, "\u2581Sarah": 12642, "\u2581cone": 22880, "\u2581\u043b\u0456": 15299, "\u2581Ba": 9236, "\u2581Bibli": 19380, "orr": 15536, "\u2581weather": 8086, "\u0431\u043e": 2290, "older": 3702, "SETTING": 19629, "POWER": 23453, "fy": 26253, "\u2581water": 2130, "\u2581new": 633, "\u2581\u043f\u0440\u0435\u0434\u0441\u0442\u0430\u0432": 18006, "ualmente": 23335, "\u2581Wat": 12037, "\u2581technically": 25554, "notification": 20476, "\u0448\u043e": 9334, "\u2581HA": 16450, "\u2581collision": 23322, "\u2581team": 1918, "sten": 6062, "\u2581withd": 23055, "pn": 13777, "\u00edt": 4071, "DAP": 25857, "+-": 22805, "\u2581button": 6261, "\u2581analys": 21974, "ess": 409, "\u2581stored": 11141, "\u2581Chief": 11762, "\u2581available": 2632, "\u2581Status": 10965, "\u2581filed": 16691, "\u2581Cour": 5073, "Claim": 27154, "\u2581Nigeria": 22072, "\\]": 25188, "ological": 4423, "filename": 9639, "\u2581nort": 27737, "\u2581rigid": 25323, "\u2581apt": 24932, "\u2581clear": 3081, "aim": 2371, "lli": 25137, "\u2581Action": 9624, "\u2581invoked": 26377, "amon": 22686, "ublice": 17185, "\u2581heavily": 12759, "\u2581initi": 8756, "\u2581compar": 6085, "\u0935": 29862, "(`": 11045, "ono": 5875, "\u2581Mason": 21507, "\u2581sta": 20295, "\u2581definit": 4952, "\u2581si\u00e8cle": 13717, "food": 18972, "\u2581\u041f\u0440\u0435": 10164, "log": 1582, "maker": 19963, "\u2581Section": 8397, "\u2581receives": 21415, "\u2581Larry": 19861, "\u2581teenager": 28001, "tech": 13429, "\u3089": 29572, "\u5f1f": 31478, "ites": 3387, "\u2581Norm": 11098, "'\",": 27354, "\u2581breeze": 24284, "NOWN": 21016, "\u2581rece": 2080, "Toggle": 20464, "\u2581fais": 26035, "SELECT": 10696, "arte": 16313, "visor": 16529, "\u2581remember": 3229, "\u2581Scar": 23147, "\u2581Tambi\u00e9n": 26363, "\u2581Wales": 14831, "Value": 1462, "hell": 13436, "factory": 13001, "\u2581Sets": 16757, "yond": 5229, "BUF": 17206, "\u2581farther": 20936, "minecraft": 22875, "\u2581insisted": 16222, "izia": 24536, "\u2581$$": 5623, "\u043b\u0435\u043d\u0438\u044f": 9324, "\u2581d\u00e9part": 17654, "\u2581surround": 6525, "\u2581disappear": 22691, "\u2581alto": 28077, "\u2581befindet": 26454, "Local": 6154, "\u64cd": 29371, "\u2581=>": 953, "parameter": 14490, "\u2581dismissed": 23231, "order": 2274, "heimer": 24556, "\u2581consolid": 22968, "\u2581Muham": 24323, "\u2581laid": 10535, "\u2581c": 277, "leq": 4688, ")</": 10900, "\u0161t": 14131, "aaaa": 12648, "angled": 21086, "\u2581Exhib": 28522, "charg": 14950, "Policy": 7755, "setting": 15062, "\u0430": 28763, "\u2581repair": 11701, "elen": 10687, "\u2581December": 4925, "graph": 4133, "gb": 15881, "\u2581socks": 27987, "\u2581blocks": 9478, "\u2581deaths": 16242, "\u767d": 29917, "nt": 448, "amazonaws": 26919, "\u8d5e": 31829, "\u2581comparing": 21400, "\u2581d\u00e9but": 19693, "\u54ea": 30951, "\u2581Machine": 13253, "Box": 4114, "\u2581forming": 20345, "ances": 2233, "\u2581behind": 2910, "ntax": 9656, "\u2581capable": 10637, "upload": 12657, "ila": 5945, "CPP": 18954, "resolve": 12555, "Del": 9489, "ByName": 23177, "\u00cb": 31108, "ENS": 18183, "\u2581Stanley": 19805, "\u2581demon": 5762, "php": 2842, "\u2581Indian": 6735, "ACCESS": 24417, "\u2581Nas": 22012, "\u2581meantime": 26762, "\u2581respected": 23425, "\u2581rules": 5879, "size": 1428, "\u2581Master": 9361, "nost": 10108, "\uc778": 29324, "PT": 6316, "\u2581\u043f\u043e\u0432": 19097, "\u2581anten": 25940, "--": 376, "\u2581amplitude": 24157, "\u2581principale": 25147, "\u2581reporting": 14438, "X": 28814, "\u2581request": 2159, "isk": 2606, "\u2581distribution": 6023, "\u2581arrange": 23503, "\u52b1": 31613, "\u2581speeds": 27480, "\u2581\u0427": 5477, "\u0161t\u011b": 27832, "\u2581Staats": 28560, "\u2581driving": 7810, "\u2581Saud": 20605, "\u2581Condition": 28237, "\u2581Rod": 8815, "\u2581Steph": 27316, "\u8fd1": 30363, "idan": 27966, "\u2113": 31442, "\u2581Apply": 23160, "ivas": 25268, "\u2581Sta": 23019, "\u2581business": 1955, "\u2581pending": 15466, "\u2581learned": 5996, "\u0434\u0436": 19450, "respon": 3664, "\u2581\u0440\u0430\u0431\u043e\u0442\u0430": 26726, "\u2581wurde": 3350, "act": 572, "\u2581largely": 12282, "ailability": 13011, "\u2581void": 1066, "\u2581Fast": 17539, "LEN": 8880, "why": 27014, "tit": 23497, "ph": 721, "<0x82>": 133, "Keyboard": 27418, "\u5247": 31919, "\u2581Acc": 4035, "Offset": 5130, "\u2581challeng": 6327, "cer": 2742, "\u2581Tag": 12996, "\u2581Schaus": 26693, "\u2581basketball": 16382, "\u2581Jug": 18243, "\u2581hardly": 10768, "\u2581bem": 28111, "\u2581issues": 4382, "\u2581gepublice": 17779, "\u2581flows": 21142, "\u2581hade": 14996, "\u2581suspicion": 27865, "dis": 2021, "\u2581Child": 8183, "Features": 22227, "irtual": 4757, "\u2581woods": 16748, "ederal": 5717, "\u2581Blood": 17143, "\u0448\u0442\u0430": 26960, "\u2581honor": 9512, "\u2581subset": 19804, "\u0670": 31095, "\u2581roz": 9335, "prints": 25580, "\u2581grown": 10039, "atra": 21909, "MAP": 10999, "\u2581employed": 14675, "\u2581patients": 6883, "\u2581oktober": 27660, "isely": 11973, "ASS": 4816, "\u9ed8": 29392, "\u2581notamment": 20192, "serv": 1472, "\u2581\u043a\u0430": 2790, "ples": 2815, "Generic": 9115, "\u2581--(": 20224, "\u2581knocked": 18625, "bytes": 6845, "\u5170": 31199, "\u2581curt": 22372, "\u017ee": 18765, "\u2581retail": 11603, "upport": 3650, "\u2581nest": 17875, "Context": 2083, "\u2581prz": 7713, "poser": 25155, "\u2581corrid": 17518, "\u2581raising": 15851, "\u2581develop": 1950, "ding": 3202, "\u043b\u0443": 2932, "\u2581travel": 4530, "\u2581Ma": 6068, "Abstract": 16384, "\u2581banned": 20420, "bas": 8452, "SI": 3055, "\u00e1m": 10422, "eed": 11196, "cost": 14174, "\u2581absorb": 28311, "\u2581Scottish": 17717, "\u2581inequ": 16431, "\u2581ligger": 18230, "\u2581Oz": 28321, "dale": 21352, "\u2581Stuart": 23733, "\u2581Regular": 28187, "\u2581EDIT": 24645, "aker": 4776, "'),": 4829, "\u2581nasty": 26092, "\u2581Stanford": 28116, "\u0098": 29941, "\u2581febr": 24179, "MF": 24721, "\u529e": 31298, "\">&": 25260, "\u2581pounds": 14090, "steps": 16005, "ients": 2785, "\u2581SD": 8629, "\u2581greatly": 15702, "\u2581physically": 16094, "\u2581leaning": 21208, "compiler": 19874, "WAY": 26548, "\u2581Jama": 26152, "}+": 9969, "\u00b9": 30047, "intendo": 25467, "save": 6568, "\u2581convin": 13058, "\u2581towns": 17579, "{}{": 23265, "\u2581thoughts": 7403, "\u0435\u043d\u044c": 13597, "hattan": 20425, "\u2581Rose": 10655, "\u2581mum": 27870, "\u2581threatening": 23041, "ueto": 19261, "\u2581grav": 9201, "\u00eatre": 8437, "\u6027": 29261, "\u2581closest": 16424, "\u2581Returns": 6699, "\u2581intersection": 19837, "\u2581Germ": 3279, "\u2581Student": 15965, "\u2581\"+": 16553, "PRINT": 18027, "'": 28742, "\u0436": 28836, "WARE": 12508, "Lin": 14112, "\u2581ah": 27069, "urches": 18088, "til": 2167, "\u2581wealth": 9120, "\u2581soul": 7237, "orte": 8938, "\u2581strain": 20842, "\u2581scripts": 26304, "\u2581Instance": 26662, "\u2581K\u00f6n": 15958, "door": 9405, "\u2581Lex": 20991, "NS": 7016, "\u2581Legend": 26499, "\u042a": 31045, "ls": 4911, "SUCCESS": 10497, "girl": 25404, "\u2581function": 908, "\u2581Pow": 14326, "\u2581\u00e2": 22506, "renderer": 20522, "ennes": 12824, "\u2581assign": 11757, "ospel": 19432, "\u2581Mur": 7423, "ills": 2767, "\u0431\u0443\u0440": 15388, "\u2581scaling": 19903, "otherapy": 27843, "\u8bb0": 29442, "\u2581lay": 4897, "\u2581Git": 27903, "bitro": 18829, "\u2581sentiment": 21790, "Mapping": 10643, "\u987b": 30037, "\u2581modest": 23676, "\u043d\u0438\u0446\u0430": 17970, "\u2581nr": 17431, "\u2581corps": 16214, "\u2581allow": 1914, "ado": 1452, ".)": 2974, "\u2581envelope": 23631, "\u2581chemicals": 24920, "asper": 25177, "\u2581less": 2108, "\u2581spir": 14652, "EXIT": 28344, "\u17c1": 31396, "\ud2b9": 31684, "\u0442\u0435\u043b\u0435\u043c": 27146, "\u2581demol": 25598, "\u2581NET": 27940, "\u0440\u0430\u0432": 23081, "\u2581inspiration": 16463, "imes": 1198, "\u00e1ll": 25163, "anska": 26936, "\u2581Rs": 28279, "oux": 20149, "x": 28744, "\u5fd8": 31763, "\u0261": 30105, "numer": 13372, "\u2581tracking": 15271, "\u2581mold": 20880, "\u2581\u0434\u043e\u043b\u0436": 27952, "\u2581Orts": 28402, "\u064f": 29587, "\u2581shaped": 21028, "PLY": 26126, "\u2581particle": 14988, "\u2581PAGE": 23509, "dap": 24260, "\u2581attendance": 25269, "\u2581toget": 2551, "ec": 760, "surface": 20942, "anno": 12061, "\u2581\u00e9p": 12163, "\u2581giornata": 23362, "halten": 17397, "aste": 4635, "\u2581educational": 14165, "\u2581Biographie": 24289, "Validate": 19418, "tbl": 15316, "Dit": 15324, "\u0442\u0432\u0430": 22868, "SL": 6255, "\u2581laughter": 18211, "\u2581Wo": 20093, "\u2581\u041d\u0438\u043a\u043e\u043b\u0430": 23979, "\u2581Boolean": 17110, "\u2581tunn": 28275, "\u2581Verify": 24544, "\u2581/>": 4884, "sen": 6448, "\u2581parse": 6846, "\u2581weed": 27151, "\u2581intention": 12782, "\u5ffd": 31312, "\u2581confirm": 8735, "packet": 14050, "\u79d8": 31544, "\u2581Recently": 27186, "\u2581central": 5971, "\u2581Auto": 12191, "andon": 7256, "\u2581Hy": 10540, "\u2581collecting": 22852, "apple": 24175, "\u5d0e": 31686, "\u2581espa": 19674, "tyard": 27463, "\u2581\u0441\u0435\u043d\u0442": 22283, "\u2581Politics": 25894, "\u5178": 30465, "\u627f": 30761, "\u2581?></": 20198, "MBOL": 16532, "\u2581Um": 12514, "ogue": 25245, "\u0436\u0434\u0435": 13727, "\u2581consumed": 23440, "\u2044": 29484, "\u2581tun": 15013, "oard": 20446, "Temp": 14536, "Record": 7079, "Alloc": 14072, "aires": 10024, "Authentication": 19504, "\ud83d\udcaa": 31520, "\u2581Util": 16157, "values": 5667, "\u2581organized": 12425, "tenance": 9944, "CAP": 13706, "\u2581helmet": 26371, "\u2581Wal": 6418, "\u8c22": 31639, "itis": 17428, "\u2581Eastern": 13827, "\u2581Except": 20956, "\u2581Loc": 5232, "()\r": 9962, "\u2581battery": 12609, "\uc22b": 31330, ")**": 10095, "\u2581peas": 27649, "Country": 28073, "\u2581Rou": 17257, "National": 24939, "ETH": 21138, "view": 1578, "\u2581encountered": 19148, "\u2581\u0431\u0456": 23112, "changes": 17330, "\u05d4": 29047, "\u2581siendo": 27012, "\u05e7": 29347, "Forms": 8917, "\u2581inv": 1304, "\u2581foreach": 11927, "(\"\");": 28361, "\u0441\u0442\u044b": 20495, "zz": 6748, "ede": 6497, "\u2581dort": 19187, "\u2581pizza": 20727, "anje": 27858, "\u00cf": 31210, "\u2581financial": 5593, "python": 17667, "\u2581quarters": 22142, "ugno": 24099, "\u2581teeth": 9033, "ueva": 22400, "lease": 1919, "gem": 20898, "Ps": 27246, "\u2581deriv": 12314, "\u2581ctrl": 27733, "nav": 7141, "\u2581Trib": 18911, "\u2581floating": 15689, "\u2581vibr": 13546, "then": 5863, "descriptor": 17325, "\u6784": 29612, "\u6b65": 29783, "\u2581inflation": 20613, "\u2581glob": 15737, "icient": 4065, "\u2581withdraw": 14393, "Thread": 6237, "\u2581colonial": 20150, "rav": 20524, "\u201c.": 14771, "\u2581Rate": 27773, "\u2581ali": 19974, "operations": 25488, "\u30e6": 30775, "RESS": 15645, "attered": 17109, "\u2581Pres": 3981, "\u2581vid": 10954, "nex": 19949, "\ubc1b": 30605, "\u1d1c": 31892, "\u2581judge": 10737, "\u2581truth": 5307, "\u2581Chart": 16923, "\u2581LIABILITY": 22208, "\u5185": 29188, "\u2581Until": 17703, "\u2581Dead": 14292, "istent": 8441, "ouch": 3204, "\u2581fav": 7556, "\u2581Deep": 14972, "GB": 6903, "peat": 15882, "\u2581\u010d": 6612, "\u2581\u0442\u043e\u043b\u044c\u043a\u043e": 24125, "\u2581rou": 17148, "\u2581sigh": 19553, "\u2581revealed": 10924, "\u2581pollution": 27702, "\u2581questioned": 26812, "\u548c": 29131, "scale": 5705, "\u2581delivery": 9562, "\u30ca": 30081, "\u044c\u0435": 18628, "\u2581interactive": 22969, "<0x57>": 90, "^\\": 4217, "umbled": 12802, "ap": 377, "\u2581comes": 3435, ".(": 21057, "\u2581exterior": 21560, "iest": 11281, "\u2581clearly": 6315, "\u2581\u0441\u0435\u0440": 16822, "\u2581Snow": 18270, "\u2581bottle": 10859, "\u2581labor": 7579, "\u2581Great": 6043, "oon": 4973, "Exit": 18385, "\u2581machinery": 26514, "REEN": 25755, "\u2581basically": 10321, "\u9f50": 31324, "\u7bc4": 31974, "\u2581Egyptian": 23900, "\u2581supplied": 16584, "\u2581agencies": 15467, "\u2581dry": 6964, "\u2581\u0421\u0428\u0410": 17195, "\u2581Fuck": 19449, "other": 1039, "\u5f02": 29761, "\u5c07": 30858, "\u2581event": 1951, "\u00eam": 26288, "\u2581modification": 19574, "<0xAA>": 173, "iene": 6863, "\u2581roles": 12426, "GIN": 20856, "\u2581works": 3791, "tag": 4011, "\u2581total": 3102, "\u2581Jahr": 6621, "\u2581flesh": 14063, "\u2581Success": 16557, "\u2581rav": 25782, "\u2581mines": 25989, "\u9686": 31302, "arl": 1977, "\u2581Region": 13365, "\u2581rice": 13825, "\u2581neighbour": 18583, "TagHelpers": 21399, "\u2581Houston": 16904, "etime": 6244, "inth": 18618, "FF": 1831, "ect": 530, "\u00bb.": 5781, "Percent": 19700, "latest": 21528, "\u2581Luck": 22781, "\u2581nel": 4751, "\u2581unnecessary": 22376, "\u2581opposite": 9089, "ichael": 26090, "\u2581thickness": 28032, "\u2581issued": 11793, "Locked": 28554, "\u2581concern": 4368, "uve": 22322, "\u0643": 29171, "\u0102": 30148, "\u2581Princess": 21408, "\u2581usual": 8434, "iny": 4279, "eing": 21458, "&": 28800, "\u2581celebration": 20744, "\u2581[],": 10945, "alo": 8344, "\u2581principles": 13818, "avan": 18872, "ption": 768, "\u0441\u0442\u0438": 2266, "\u2581instance": 3335, "maz": 3492, "\u2581advantage": 7859, "\u2581regul": 15991, "\u2581Audio": 16957, "\u0623": 29388, "\u2581organis": 14658, "\u2581shooting": 11743, "\u2581unw": 12692, "\u2581may": 993, "Axis": 16272, "\u2581jud": 4612, "\u00e9qu": 14177, "ynom": 14863, "\u2581leurs": 17951, "\u2581Cath": 8746, "\u2581kilom": 22230, "ised": 2458, "\u2581incident": 10824, ")-": 9572, "\u2581interven": 23807, "setValue": 26532, "-$": 15191, "Co": 7170, "osex": 17777, "at": 270, "Seconds": 20852, "REQ": 8728, "ocur": 28457, "tober": 12955, "\u2581MP": 13259, "\uc158": 30457, "\u8a72": 31688, "\u2581think": 1073, "\u2581\u043d\u0430\u0441\u0435": 7599, "\u2581infl": 3661, "\u2581Reich": 16091, "Anim": 14224, "\u2581prot": 18696, "Right": 7552, "make": 6539, "^-": 18092, "\u2581\u00falt": 15201, "\u2581trump": 22945, "ancia": 17322, "\u2581??": 19563, "viv": 26430, "ket": 10304, "\u2581m\u00e5n": 24481, "gc": 18499, "Encoder": 22352, "\u2581\u044f\u0432\u043b\u044f\u0435\u0442\u0441\u044f": 23036, "\u2581despite": 7577, "\u2581registry": 23646, "lish": 2295, "\u4efb": 29454, "Void": 17732, "****************": 1393, "rcu": 28268, "since": 10793, "\u9986": 31418, "\u2581|=": 6764, "\u2581cause": 4244, "\u7a3f": 31547, "ipe": 3985, "\u2581Ok": 6504, "\u2581aircraft": 11475, "reib": 20628, "\u3066": 29257, "Bon": 28244, "autres": 21240, "\u2581During": 6213, "breaking": 25924, "amiento": 15090, ",-": 7667, "jango": 11913, "\u2581became": 3246, "axis": 8405, "\u2581web": 4686, "\u252c": 30884, "Volume": 12936, "Update": 4465, "Radio": 21932, "aja": 12209, "nat": 9569, "\u202c": 30587, "Und": 19707, "\u2581\u0456\u043d": 12109, "\u2581hem": 14492, "\u2581Alfred": 16304, "plic": 1256, "validator": 27201, "\u7ed9": 29709, ")+": 10528, "\u2581expl": 1949, "kil": 23726, "\u2581\u0444\u0438\u043b\u044c": 21454, "\u2581Nam": 16908, "\u2581mim": 26302, "\u00f6tt": 14521, "Visitor": 24796, "\u2581TO": 6991, "\u2581trat": 17726, "ampa": 20797, "gate": 7999, "\u2581neat": 17730, "\u2581\u0447\u0442\u043e\u0431\u044b": 27717, "\u2581any": 707, "\u2581limits": 11656, "?)": 15009, "\u2581residence": 18016, "\u2581Naj": 26293, "<0x2E>": 49, "ceived": 9110, "\u2581Blog": 21095, "\u2581de": 340, "\u2581jar": 22578, "\u2581judg": 11866, "\u06d2": 30522, "\u2581expanding": 20767, "Word": 15170, "\u2581complicated": 13140, "\u2581Erik": 25367, "rum": 6295, "\u2581lum": 17709, "\u2581altri": 22861, "\u2581f\u00f6": 14000, "\u2581Lucas": 19531, "setminus": 19847, "osexual": 20823, "security": 10165, "\u2581Ox": 11625, "\u043c\u0430\u043d": 5829, "\u043b\u0438\u043d\u0430": 23067, "WRITE": 12746, "Run": 3877, "Lite": 24701, "adel": 11156, "\u2581Much": 15465, "\u2581negotiations": 24146, "\u2581mes": 5972, "\u2581crimes": 17440, "psy": 23687, "Buf": 12398, "Copy": 8546, "\u2581comprend": 23913, "Profile": 8721, "raf": 3976, "\u2581spot": 6297, "resa": 17677, "\ubc00": 31192, "controller": 11517, "\u2581fourth": 10036, "sign": 6301, "\u2581die": 1202, "ATOR": 16657, "\u2581Jr": 12698, "czy": 11486, "ATURE": 16051, "\u10de": 31053, "\u2581maar": 19101, "\u2581ave": 14257, "ania": 4877, "\u2581erhielt": 23203, "\u2581publications": 23311, "\u2581groups": 4938, "\u00f3s": 11901, "\u2581Beautiful": 26547, "independ": 26982, "Disk": 23308, "\u2581seriously": 10160, "\u2581\u0423\u043a\u0440\u0430\u0457": 15516, "Compat": 7789, "\u2581services": 3345, "\u2581\u0434\u043b\u044f": 6286, "\u2581indul": 24155, "ugin": 4710, "\u2581(@": 23968, "<0xAE>": 177, "\u2581Language": 15589, "Great": 26315, "\u2581video": 3798, "ci\u00f3n": 7909, "\u2581testim": 16620, "\u767e": 30421, "\ud2bc": 31285, "\uccab": 31745, "der": 826, "\u2581CD": 8204, "\u00e9n": 2864, "\u2581Nether": 18841, "\u0430\u0442": 17108, "oro": 8811, "\u2581Oil": 16181, "\u2581improvements": 19664, "\u2581Use": 5938, "\u2581voting": 17035, "apest": 20804, "\u2581Gebiet": 26240, "Down": 6810, "invalid": 10702, "\u2581Poss": 19796, "\u2581lavor": 21785, "\u2581esper": 22498, "<0x66>": 105, "icked": 13371, "\u2581Mittel": 27026, "\u2581triple": 22212, "\u2581sinc": 19025, "\u5c11": 29805, "\u2581*=": 22040, "\u2581'@": 8319, "\u2581alleg": 10150, "ixer": 11737, "Meta": 8963, "\u2581PDF": 18520, "\u30bd": 30383, "EventListener": 14101, "\u2581ur": 4273, "uj\u0105": 20606, "\u2581identifying": 21653, "?;": 25215, "\u2581ze": 6797, "\u2581machine": 5599, "\u2581Tour": 7113, "\u2581DM": 19884, "inners": 12190, "\u308d": 31149, "\u2581limitation": 26775, "\u51fd": 29297, "CRE": 9014, "was": 9380, "\u2581Catholic": 11377, "Une": 18813, "route": 11833, "anim": 12714, "sequence": 16705, "\u2581gouver": 20401, "obile": 4414, "bury": 12272, "IAL": 11104, "\u2581zn": 13288, "Reason": 19801, "\u17bb": 31061, "<0x51>": 84, "\u2581nn": 26699, "OUT": 7217, "\u2581comparison": 10367, "Hi": 23809, "\u2581Never": 9268, "oga": 10491, "\u2581nous": 13662, "collapse": 25936, "\u2581urb": 26243, "\u028b": 31633, "\u2581Legisl": 26216, "hund": 13101, "pdev": 14337, "\u2581clk": 28607, "\u2581gotta": 22537, "\u2581flight": 9314, "\u2581Korean": 17394, "cipe": 24535, "\u2581Hind": 14526, "oc": 402, "cular": 12723, "\u2581$(": 4451, "\u2581Ry": 15971, "\u2581importantly": 21485, "====": 965, "conf": 5552, "\u2581puzzle": 28071, "RS": 11306, ".\")": 17169, "\u4f1a": 29179, "\u2581alongside": 13291, "\u2581_": 583, "\u2581losing": 10121, "\u0437\u043d\u043e": 18380, "\u8bfe": 30748, "\u2581Jew": 5808, "\u2581initialize": 15267, "unique": 10561, "ry": 643, "\u8d56": 31537, "Capt": 24649, "bound": 7250, "\u2581upp": 21343, "atus": 1589, "\u2581decorated": 24616, "\u2581ful": 4464, "comes": 5254, "overflow": 24709, "\u2581dream": 4999, "\u0439\u043e": 7328, "engu": 19062, "\u2581conse": 15188, "\u043e\u043d\u0435": 23703, "\u2581celle": 21401, "\u2581MIT": 17156, "\r": 28801, "\u2581radar": 24951, "Amount": 13276, "\u064b": 30743, "\u2581\u0445": 6457, "\u2581\u041c\u0430\u0440": 13666, "\u2581doubt": 6217, "\u2581FOR": 6907, "\u2581bonus": 14023, "CACHE": 22060, "MMMM": 27509, "ponse": 1405, "\u2581Chinese": 6707, "jos": 21978, "chio": 27887, "ndef": 15680, "irq": 7417, "\u2581testing": 8260, "nis": 11765, "kow": 12637, "license": 16576, "atz": 6124, "\u2581generation": 8342, "\u2581\u0447\u0430\u0441": 21358, "issant": 28438, "\u6d4e": 31644, "\u2581Pot": 10650, "URI": 12464, "\u2581cheaper": 20326, "\u2581attention": 4501, "IDENT": 20734, "\u2581surroundings": 28220, "apshot": 8674, "Razor": 21969, "\u2581directed": 10666, "))": 743, "\u2581doub": 19686, "\u2581Ji": 20155, "leave": 24427, "\u043b\u043e\u0432": 8865, "\u2581\u0440\u0430": 2101, "FIX": 13286, "ografie": 16976, "\u2581Contribut": 26015, "\u2581Rav": 27037, "\u2581ASS": 8602, "\u2581justified": 27366, "\u2581Ira": 11721, "\u2581dim": 3987, "\u2581incredibly": 14638, "\u2581recall": 8596, "\u2581JSON": 9292, "mysql": 20235, "ROP": 24026, "\u2581Philosoph": 22156, "\u2581mist": 5710, "\u2581nurse": 17333, "\u2208": 30751, "\u3073": 31050, "cop": 11917, "\u0434\u0435\u043d": 6775, "\u2581sap": 23061, "\u2581nomin": 22645, "\u2581aston": 21011, "\u041f\u043e": 19469, "cript": 2489, "\u2581\u0442\u0443": 19365, "\u2764": 29673, "\u0e06": 31383, "Distance": 20701, "\u2581universities": 21356, "\u2581und": 640, "\u2581workshops": 26329, "\u2581Casino": 26435, "\u2581invol": 3303, "tras": 12423, "\u2581pentru": 19493, "\u2581Cob": 28092, "alt": 2304, "folg": 17090, "hostname": 27278, "\u2581nerve": 23284, "Rem": 5139, "\u2581hence": 12211, "argo": 8473, "\u2581\u043c\u0456": 7864, "\u2581communities": 9750, "\u2581hot": 3296, "\u2581republic": 19988, "\u2581decre": 8512, "\u2581sophisticated": 23213, "timeout": 9761, "\u2581\u0446\u0438": 18950, "\u2581Hold": 15960, "\u2581vision": 8021, "AUTH": 18038, "\u2581lips": 8852, "mass": 18480, "iteral": 9950, "\u5b66": 29500, "::~": 27893, "\u2581Eye": 26861, "\u2581nobody": 11684, "\u0442\u0435\u043b": 12516, "\u2581Person": 6441, "WD": 23460, "TRA": 22057, "inas": 14321, "\u2581Harvard": 17553, "\u90e8": 29237, "\u2581Griff": 19285, "\u2581Close": 18537, "\u00c5": 28984, "issue": 11681, "\u2581rivers": 24582, "Reflection": 24633, "esto": 10631, "space": 3603, "\u2581recher": 26590, "\u526a": 30040, "\u2581land": 2533, "\u2581Tar": 14740, "\u2021": 30053, "\u73fe": 30651, "\u2581Romans": 28282, "iled": 4360, "AUTO": 24966, "\u2581Typ": 15633, "GD": 25730, "Execut": 7776, "\u2581situ\u00e9e": 27250, "\u4f46": 29926, "\u2581skill": 10346, "\u2581day": 1370, "PHP": 24612, "\u0aa8": 31946, "\u2581reasonable": 11301, "\u2581writer": 6953, "\u0441\u044c\u043a\u0438\u0439": 10379, "\u2581setup": 9520, "\u2581Serv": 15541, "uls": 7550, "free": 3669, "Fil": 4193, "\u2581schools": 7373, "tw": 7307, "\u2581sql": 12199, "ideo": 2555, "\u2581wealthy": 20724, "parseInt": 25249, "\u2581Imm": 25555, "\u2581detective": 25646, "\u2581town": 3736, "FFER": 14291, "\u2581infant": 23116, "\u2581Mississippi": 20455, "){": 3311, "\u2581Jenn": 15824, "Pse": 28391, "ium": 1962, "\u2581form": 1221, "\u2581Campaign": 27003, "\u2581Abb": 15859, "\u2581Second": 7052, "\u2581Rock": 8107, "\u2581Flight": 27910, "timestamp": 15058, "\u2581\u043f\u0440\u0438": 2683, "\u2581r\u00e9alis": 21090, "\u2581typ": 2514, "iforn": 5507, "structure": 18048, "\u09a6": 30870, "\u2581hunting": 16268, "\u10e9": 31527, "\u043b\u0435\u043a": 22122, "metic": 20529, "\u2581TEST": 9601, "\u5f15": 29544, "au": 581, "\u2581Pet": 6728, "\u2581foundation": 13865, "\u2581boss": 10949, "fee": 26652, "reader": 14646, "ized": 1332, "forming": 23738, "<0xEA>": 237, "CTRL": 14419, "prefix": 8713, "Subject": 22210, "\u2581farming": 25209, "ached": 2694, "alen": 16777, "\u0441\u044c\u043a\u043e\u043c\u0443": 26360, "icol": 8176, "\u2581pr\u00e9": 12823, "\u2581enemies": 15139, "\u2581argument": 5270, "atto": 12676, "Tex": 17476, "\u2581regex": 22899, "oth": 999, "\u2581fis": 18445, "stride": 23665, "\u2581vill": 4314, "\u021bi": 14846, "dex": 1453, "\u2581hips": 25760, "\u2581assumed": 11012, "\u2581collections": 18430, "\u2581Ref": 6360, "Label": 4565, "\u2581Coun": 4830, "\u2581Param": 10938, "\u2581cad": 13150, "GT": 14979, "\u2581favour": 10392, "\u2581Liverpool": 20834, "Input": 3104, "\u5b9f": 30513, "\u2581collapsed": 22431, "\u2581propaganda": 24010, "\u2581authors": 11739, "}}_": 14340, "\u2581relief": 10853, "\u0429": 29124, "f\u00e9": 24606, "gesch": 12386, "\u2581Govern": 6696, "eben": 8960, "\u2581Tay": 10347, "\u2581token": 6029, "\u2581Fresh": 27376, "allo": 23914, "\u2581shar": 18370, "\u0491": 29211, "\u2581hit": 4067, "\ufffd": 29137, "},": 881, "\u2581civil": 6259, "<0x84>": 135, "\u0434\u0435\u043b\u044c": 21054, "\u2581keywords": 28049, "\u2581tracks": 11637, "\u2581tu": 8582, "oxy": 22428, "}.": 2051, "\u2581intellig": 7808, "\u2581options": 2877, "\u30e3": 30026, "cccc": 22827, "iver": 2023, "\u2581Barb": 25223, "closure": 14774, "\u2581beans": 21886, "idos": 7037, "rated": 27210, "\u652f": 29428, "\u2581intense": 14373, "arettes": 27015, "\u2581rain": 7296, "\u2581alors": 13086, "#[": 8801, "\u2581hoping": 11114, "\u2581Mc": 3283, "\u2581bed": 2855, "\u2581attracted": 18940, "\u2581controlled": 12888, "\u2581packages": 17948, "\u043a\u0443": 2201, "\u2581\u0441\u0442\u0430\u043d\u043e\u0432": 16141, "\u2581example": 2757, "She": 4853, "\u2581innocent": 17290, "_{{\\": 17541, "\u2581street": 5948, "lic": 577, "\u2581M\u00e4rz": 18035, "\u2581Race": 20056, "\u2581hosted": 18822, "\u2581kole": 21840, "\u2581Barcelona": 16835, "\u2581Ser": 3066, "\u2581supers": 25666, "\u2581toxic": 18882, "circle": 13392, "ris": 3665, "icker": 9253, "\u2581django": 24848, "bitr": 10642, "\u2581resist": 14905, "\u2581book": 1820, "\u2581dall": 16563, "\u2581Hier": 20722, "\u05dd": 29398, "arios": 11041, "We": 2324, "\u2581opponent": 20364, "stein": 6559, "\u2581Nak": 24828, "\u2581reality": 6940, "term": 6590, "ish": 789, "\u2581owned": 10496, "ib": 593, "hs": 6270, "\u00f6l": 9958, "pipe": 12911, "Dark": 25732, "\u2581method": 2038, "\u00f6m": 16707, "\u2581Advis": 28460, "etric": 28677, "!\\!\\": 18378, "\u2581swing": 14088, "ifik": 19758, "\u00e1n": 2892, "\u2581\u0441\u043b\u043e": 25255, "\u2581Valentine": 28495, "\u2581Archives": 28477, "\u0142o": 9309, "\u2581backup": 17503, "\u52d5": 29842, "expression": 15848, "\u2581car": 1253, "\u2581friend": 1832, "\u2581murmured": 24683, "igd": 12884, "\u2581corrections": 27956, "\u2581###": 774, "\u0434\u0435\u0440": 11078, "\u2581role": 3905, "\u2581ba": 15771, "inf": 8879, "\u2581county": 12952, "\u2581vida": 14364, "\u2581fileName": 25865, "\u9ebb": 31701, "\u2581compon": 3867, "agg": 7058, "avelength": 26795, "iej": 6250, "\u2581Rel": 5855, "\u2581William": 4246, "wn": 880, "\u2581mas": 6769, "\uc784": 30520, "\u2581COPYRIGHT": 23493, "\u2581bark": 19976, "\u0565": 29849, "\u7559": 30210, "\u2581clothes": 8155, "\u0113": 29198, "%%%%": 11032, "tat": 17469, "\u2581career": 4835, "eda": 13170, "\u2581hacia": 21675, "'(": 22382, "\u2581vagy": 28666, "\u2581Menu": 19615, "\"];": 20652, "ith": 372, "\u0442\u0438\u043d": 14981, "\u2581Fine": 24105, "\u2581podcast": 21736, "pix": 24799, "\u2581impress": 7895, "\u696d": 31204, "\u2581system": 1587, "Sym": 17065, "\u2581trailing": 27166, "\u2581honour": 23104, "\u6b4c": 30509, "\u2581recruit": 20396, "\u2581false": 1341, "blog": 14275, "\u2581Function": 11347, "\u2581M\u00e4r": 16851, "\u2581Criteria": 26496, "bss": 26727, "\u2581Unfortunately": 13445, "\u2581relationship": 3758, "\u2581dif": 1025, "Points": 15628, "\u0437\u044b\u0432\u0430": 18084, "mathbf": 3505, "itas": 21131, "<0xBF>": 194, "\u2581KEY": 19378, "\u80e1": 31669, "\u2581wolf": 24100, "\u2581mort": 5461, "no\u015bci": 20951, "\u2581Delete": 15263, "Connect": 16644, "\u2581keep": 1840, "\u2581delet": 21750, "\u2581v\u00e9g": 28486, "\u2581growth": 6057, "yr": 4369, "\u2581\u0440\u0430\u0437\u0432\u0438": 23987, "izes": 5004, "illon": 16849, "\u2581adequate": 23193, "\u2581instanceof": 9839, "\u3063": 29699, "\u2581Fut": 27280, "\u2581\u043e\u043a": 10525, "umper": 26089, "\u2581`${": 22468, ",\r": 4604, "\u2581janu": 19173, "regon": 17855, "\u2581midnight": 22494, "eri": 21344, "\u2581Shakespeare": 19155, "\u2581flew": 16356, "\u2581ersch": 24656, "\u021bia": 26946, "\u5c97": 31983, "iot": 8720, "\u2581bour": 25715, "\u2581Space": 13497, "\u2581potatoes": 24753, "\u2581planes": 20387, "\u2581physician": 21765, "\u2557": 30628, "urance": 4935, "\u2581dynam": 10207, "enza": 11409, "\u2581d\u00e4r": 18603, "\u2581exist": 2588, "tikz": 23965, "\u7c7b": 29066, "\u2581County": 5068, "\u2581bless": 14389, "\u2581Sil": 6044, "\u17b7": 30845, "iov": 18762, "\uc785": 29429, "words": 10366, "\u6ee4": 30489, "\u2581gay": 11997, "\u2581coun": 1902, ")^{\\": 23022, "\u2581birth": 5950, "\u2581loose": 12945, "bell": 10027, "\u00f3\u0142": 12023, "\u2581($\\": 18157, "\u2581genuinely": 22448, "Describe": 22836, "mc": 12961, "\u2581asym": 15659, "\u2581resign": 22883, "OD": 2896, "\u0434\u0443": 2454, "\u2581naar": 12547, "BUS": 18680, "\u2581\u043c\u0430\u0440\u0442\u0430": 24898, "sender": 21910, "\u2581annually": 27359, "\u2581Present": 21073, "\u2581arriving": 24212, "Only": 8390, "\u4f55": 29984, "\u102c": 30853, "\u2581reass": 18126, "aj\u0105": 12152, "\u2581visibility": 23446, "cf": 10037, "atte": 24054, "<0xDF>": 226, "\u2581honey": 18411, "\u2581\u0441\u043f": 27780, "\u2581eg": 14486, "fre": 19575, "\u2581ceremony": 16172, "address": 5540, "pread": 22129, "\u2581Chairman": 25294, "\u2581disappeared": 14746, "\u2581randomly": 24678, "\u2581regener": 26319, "\u2581Mother": 12387, "\u2581anytime": 27760, "\u827a": 31504, "\u2581routine": 11935, "\u0626": 29690, "\uba85": 29955, "\u0459": 28918, "Tag": 4450, "\u2581\"(": 21816, "liter": 24477, "GS": 17580, "\u0634": 29083, "Los": 26102, "Decoder": 23109, "\u2d4f": 31443, "\u2581Byte": 20376, ":": 28747, "ischer": 6283, "gs": 2626, "\u2581Class": 4950, "\u2581March": 4117, "verse": 4177, "\u2581wa": 7078, "\u2581bubble": 21424, "lessness": 28015, "\u2581blow": 9716, "atar": 9517, "my": 1916, "\u2581drawing": 10916, "ission": 1937, "entr": 21683, "\u2581Item": 12795, "<0x70>": 115, "\u2581}),": 15391, "\u2581username": 14412, "\u043b\u044e": 4438, "\u2581arrays": 25532, "Linked": 27975, "\u2581functionality": 20289, "actions": 5286, "\u2581\u0443\u0431\u0438": 28174, "\u2581ecosystem": 27374, "\u4e4e": 31981, "\u2581recip": 14273, "anner": 7041, "\u2581though": 2070, "\u2581sig": 4819, "rem": 1569, "<0x58>": 91, "\u2581infect": 16991, "oming": 17846, "liferay": 18802, "\u2581hab": 3019, "iendo": 21711, "\u65bd": 31360, "\u2581gr": 847, "Icon": 7269, "\uc81d": 31710, "\u2581Lock": 17582, "\u2581mais": 5359, "Inst": 6060, "iring": 5549, "\u2581pist": 16034, "Null": 4238, "always": 22108, "\u2581Baltimore": 23349, "\u2581ter": 3636, "\u30db": 31240, "\u2581Ham": 5058, "\u0441\u0442\u0432\u0435": 13748, "\u00fb": 28951, "ley": 2047, "\u0441\u043a\u043e\u0435": 12988, "\u2581weigh": 19929, "elf": 599, "urbed": 22306, "ivid": 2397, "\u043d\u043e\u043c": 4967, "\u2581dabei": 28395, "\u2581act": 960, "([]": 15993, "\u2581arms": 5574, "\u2581benefit": 7949, "\uac12": 29755, "\u2581guided": 23701, "\u2581museum": 13041, "\u91cc": 29400, "\u2581circle": 9661, "\u0dc0": 31886, "writer": 11660, "Returns": 16688, "\u2581\u0441\u044a": 9448, "\u2581decid": 26208, "fried": 25670, "\u2581input": 2787, "can": 4230, "\u2581Sup": 8931, "\u2581congreg": 25324, "\u2581hans": 24401, "\u0441\u0442\u0430\u043d\u043e\u0432": 16362, "\u2581cc": 18535, "bidden": 20350, "xA": 18178, "STRUCT": 25010, "\u2581Ast": 15091, "\u2581thunder": 25752, "minus": 15530, "\u5fa1": 31453, "sequ": 3908, "ski": 5253, "\u2581seated": 24732, "TextField": 25781, "\u2581sufficient": 9406, "\u2581blanket": 21434, "\u2581ladder": 25016, "\u2581leap": 26745, "ional": 1479, "\u2581DR": 22437, "itable": 5379, "\u2581exerc": 6535, "\u2581ought": 13683, "\u2581som": 1113, "\u2581besides": 18532, "tls": 21908, "\u9580": 31031, "ARD": 11101, "\u2581detected": 15538, "typen": 25835, "iness": 1494, "\u2581sit": 1943, "\u2581go": 576, "\u2581Put": 10331, "\u2581poz": 22571, "field": 2222, "_)": 14479, "\u2581discovered": 8324, "\u2581Hampshire": 27616, "\u2581Sebastian": 26115, "attery": 18286, "\u2581Rodr": 20368, "stead": 28277, "\u2581fals": 27958, "\u2581Source": 8193, "\u7a7a": 29273, "uz": 3533, "\u2581enc": 2524, "\u2581\u0440\u0435\u0437\u0443\u043b\u044c\u0442\u0430": 20959, "imer": 4156, "cap": 4996, "Default": 4158, "\u0017": 30841, "\u2581Will": 2875, "\u82f1": 30193, "\u2581viol": 4107, "LED": 15319, "\u2581vict": 4801, "\u2581suff": 3510, "\u0636": 29623, "\u2581ho": 7463, "\u2581sv": 5990, "\u2581ridiculous": 16706, "\u001e": 31150, "oti": 9469, "\u2581Advent": 19772, "skip": 7671, "\u304f": 29666, "\u2581exit": 7790, "\"`": 8312, "\u2581Dak": 21490, "~$\\": 24319, "opy": 1600, "\u2581\u0434\u0432\u0438": 24410, "\u2581overview": 23094, "ity": 472, "\u2581beam": 16647, "\u2581describing": 18063, "icus": 20792, "ifa": 25622, "\u6362": 29479, "\u0432\u0443": 6725, "Disable": 22497, "::_": 21312, "ur": 324, "bau": 16855, "\u00e9rie": 10326, "\u2581audio": 10466, "\u2581Bureau": 18052, "entity": 5584, "\u2581defence": 22763, "\u045b\u0435": 25464, "\u2581Georges": 28161, "\u2581Val": 3474, "\u2581Orchestra": 28076, "\u5e2e": 31186, "\\!": 24835, "\u2581format": 5032, "\\_": 14048, "\u0121": 31173, "pag": 19383, "\u2581empire": 21225, "\u043d\u043e\u0432\u0435": 23791, "<0xDA>": 221, "\u043c\u043e\u043d": 21866, "\u2581selfish": 26206, "\u2581coat": 12620, "\u2581tick": 6484, "\u2581Ges": 11461, "eled": 19691, "\u2581anticipated": 25024, "\u2581\u00e1rea": 26707, "\u2581rugby": 27437, "\u2581shadow": 10504, "\u2581Hair": 27523, "\u2581prac": 26521, "\u03a7": 30438, "\u2581Von": 15025, "\u2581bicy": 24521, "\u2581tomorrow": 10759, "joy": 3258, "\u5199": 29503, "\u6bc1": 31699, "\u2581convert": 6603, "\u2581\u00fcber": 5431, "ampions": 5624, "idth": 1634, "\u2581progress": 5097, "Constant": 11602, "\u2581dramatic": 17296, "\u2581seized": 24564, "aired": 27183, "\u2581\u0430\u0432\u0433\u0443\u0441\u0442\u0430": 25059, "\u2581flies": 28030, "elihood": 18538, "tee": 6267, "\u1ecb": 29765, "\u2581Import": 15747, "\u2581organ": 2170, "\u2581compassion": 20151, "\u2581punto": 22791, "\u2581course": 2363, "\u2581Bab": 15726, "\u2581Holly": 11512, "Annotation": 17087, "\u0e47": 30497, "rodu": 3399, "uty": 14998, "\u2581cav": 25553, "\u2581Pol": 2538, "\u2581cz": 8726, "\u2581rental": 18808, "\u2581Char": 4348, "\u0437\u0432\u0430": 10246, "\u2581^{": 10292, "binary": 18442, "RGB": 21333, "MOD": 8068, "\u2581generic": 12921, "geon": 14535, "\u2581gentle": 10434, "\u2581evangel": 24276, "\u2581ui": 12842, "orph": 7591, "amente": 3958, "eso": 28485, "Success": 11034, "\u6301": 29569, "\u10e8": 30300, "ME": 1574, "initialize": 19106, "pawn": 25378, "\u2581deliberately": 24177, "(\",": 23431, "\u2581alloc": 7053, "COMM": 13454, "\u2581Agreement": 23377, "lymp": 7184, "\u2581utter": 14870, "rient": 15154, "multicol": 18223, "\u2581Ross": 12124, "\u4e8b": 29339, "imper": 27689, "\u2581crying": 15671, "\u2581Books": 13540, "\u2581String": 1677, "\u0448\u0435\u0439": 22728, "\u2581indices": 17853, "Po": 6850, "\u2581true": 1132, "\u2581\u043c\u043e\u0440": 23882, "\u2581requirement": 16169, "\u2581Ge": 2404, "prototype": 6633, "\u2581implies": 12150, "\u2581leaf": 15080, "\u2581\u0446\u0435": 13536, "\u2581calendar": 15639, "\u2581gross": 17725, "\u2581dare": 19402, "gang": 19397, "\u2581strateg": 7432, "\u9669": 31413, "Mod": 1701, "itled": 13245, "\u2581reading": 4865, "\u2581praise": 20707, "\u03a9": 30146, "\u2581entering": 15435, "../../": 4290, "\u2581Movie": 23208, "\u2581band": 4028, "\u2581ton": 6339, "\u2581clinic": 24629, "\u2581\u00e9t": 3763, "\u2581artillery": 27262, "\u2581Rab": 17467, "\ucd9c": 29858, "\u2581.": 842, "substring": 20854, "\u043b\u043e\u0432\u0430": 16528, "rugu": 27300, "CONNECT": 27482, "\u2581curves": 18469, "***": 16623, "inters": 23661, "\u2581teacher": 8626, "\u6cf0": 31361, "\u2581shadows": 17207, "\u2581referring": 18723, "\u2581\u0434\u0435\u0439": 20592, "\u2581Gray": 19420, "\u2581\u0444\u0435\u0432\u0440\u0430": 25224, "\u2581bomb": 9914, "oral": 10801, "\u2581re": 312, "fp": 8808, "\u0e44": 29962, "\u2581sab": 14691, "\u2581Pain": 20063, "\u22c6": 31288, "\u1e6c": 31658, "\u2581Do": 2378, "\u2581Johnson": 9370, "crit": 12724, "\u2581homeless": 22354, "\u2581deciding": 24568, "perp": 21280, ")}{\\": 23045, "\u2581encore": 16921, "\u2581Career": 18050, "quote": 14307, "\u0441\u043a\u043e\u0432": 20060, "\u2581operates": 24015, "\u00a0": 29000, "\u7406": 29093, "\u2581\u0441\u043e\u0441\u0442\u043e\u044f": 22202, "\ud0a4": 30649, "\u2581Nr": 25108, "Gamma": 6376, "nx": 19736, "kor": 17066, "dot": 7623, "\u501f": 31626, "\u2581Einwohner": 21991, "\u2581homme": 26130, "Enc": 7570, "\u2581weekend": 9071, "\u53f3": 29909, "\u2581AB": 18322, "\u1edf": 30849, "\u2581story": 2838, "\u2581nuc": 8523, "itary": 11969, "\u4e9e": 31356, "multi": 13102, "Help": 17302, "\u2581autor": 13254, "\u2581semi": 12574, "\"));": 5341, "\u2581liegt": 18610, "\u2581bin": 10708, "zm": 22432, "istry": 4535, "\u2581Armen": 23848, "illa": 4534, "atalogue": 10626, "ql": 2981, "\u2581colon": 8039, "ennessee": 18895, "\u2581\u043c\u043d\u043e\u0433\u043e": 20580, "LEAN": 26925, "minipage": 25734, "mesh": 18372, "aml": 13148, "\u2581reg": 983, "\u2581uz": 26040, "ienst": 19239, "okrat": 27765, "Services": 12926, "\u2581Br": 1896, "\u2581pens": 12811, "\u2581uniform": 8687, "\u2581roi": 23144, "wide": 5734, "\u2581attr": 7527, "Should": 15035, "camera": 19779, "appoint": 9643, "am": 314, ".__": 9320, "\u2581Limited": 19637, "Foreign": 23314, "\u2581soc": 1859, "\u2581plants": 9923, "\u2581mouse": 12733, "\u0443\u0442": 13730, "opt": 1642, ".:": 12813, "\u2581reliable": 13227, "\u00c9": 28901, "\u2581appointment": 14351, "\u2581\u041f\u0443": 25636, "i\u00e9n": 8603, "\u2581Tai": 16118, "uel": 3009, "<0xEC>": 239, "},\\": 7472, "lage": 20537, "\u2581habitants": 19414, "\u0112": 31767, "Func": 9715, "comb": 17305, "\u2581surn": 26937, "\u2581e": 317, "\u2581sympt": 10800, "\u5212": 30791, "ABILITY": 9287, "Rich": 24447, "\u2581\u0440\u0430\u0441\u043f\u043e": 21168, "\u2581diagnosed": 26629, "ieck": 27578, "isher": 7827, "\u2581redirect": 16219, "concat": 16781, "\u01dd": 31948, "allas": 14531, "\u2581val": 1414, "\u2581Console": 19518, "\u043a\u043e\u043d\u043e\u043c\u0438": 28189, "orth": 2217, "Self": 13547, "\u2581conver": 9105, "\u2581further": 3629, "\u2581Cover": 16881, "one": 538, "\u2581Britain": 10174, "\u2581EP": 16828, "\u2581affect": 5197, "\u2581d\u00e9f": 19907, "\u2581corporate": 12258, "\u2581Following": 13407, "\u2581charity": 20598, "\u2581litt": 26261, "\u0441\u0443": 4878, "\u2011": 29694, "XT": 25078, "response": 4439, "Oct": 22955, "\u025b": 29328, "\u2581zones": 19913, "\u2581Mitchell": 21072, "\u6578": 30510, "driver": 8565, "WEBPACK": 16524, "\u2581six": 3522, "\u2581picks": 23380, "\u84dd": 31084, "<0x6D>": 112, "\u2581did": 863, "\u2581norm": 6552, "\u2581mol": 10250, "whe": 15831, "lesh": 12953, "\u092a": 29794, "nym": 15416, "\u2581magic": 9693, "\u2581Clean": 14510, "\u2581frowned": 21442, "\u2581Stock": 11548, "\u2581council": 14725, "\u2581descriptor": 17387, "\u2581terra": 25836, "\u8336": 31713, "ILL": 11852, "\uff08": 29186, "Consumer": 23123, "ass": 489, "Tile": 19379, "\u2581Medal": 21097, "\u5143": 29352, "\u6808": 30980, "atti": 16708, "\u2581failure": 7719, "\u2581nos": 10404, "\u2581Melbourne": 19611, "\u2581impressive": 14714, "ch": 338, "\u2581job": 2389, "\u2581Produ": 8730, "nten": 20340, "\u2581nej": 25699, "oney": 2011, "\u2581yet": 2783, "\ubca4": 31852, "\u10d7": 29953, "WAIT": 23808, "take": 20985, "On": 2486, "\u2581jur": 12310, "\u2581Does": 9377, "eous": 25818, "\u2581bord": 22183, "Alex": 26189, "pectives": 26859, "^{-": 3918, "\u2581jo": 5821, "issement": 18333, "\u0e33": 30032, "\u2581\u041d\u0430\u0441\u0435": 12473, "res": 411, "rice": 17566, "\u2581gener": 1350, "\u2581firm": 5799, "phy": 8071, "\u2581epic": 23765, "interrupt": 23801, "Fail": 10733, "\u2581television": 8575, "\u2581Bundes": 15678, "imag": 25069, "\u2581DA": 13060, "border": 11941, "Aut": 3967, "()).": 9079, "\u2581staat": 24617, "\u2581thread": 5427, "\u2581hills": 18553, "quarters": 14446, "\u2581urgent": 25976, "\u2581vocal": 18272, "._": 1573, "\u2581Vik": 20820, "TextBox": 27828, "\uefc0": 31738, "neq": 14282, "ser": 457, "\u2581nv": 25962, "foo": 8014, "\u2581\u043a\u043e\u0442\u043e\u0440\u044b\u0439": 19676, "pires": 20470, "amps": 10991, "ovo": 10356, "\u043b\u0438\u044f": 13124, "\u0444\u043e": 21103, "\u2581evaluate": 15627, "If": 3381, "\u0459\u0435": 11945, "\u09a1": 31388, "\u2581competitive": 13473, "\u7535": 29742, ".\u201d": 2435, "sf": 5784, "\u2581stack": 7232, "tegr": 8489, "\u2581fairly": 11735, "\u2581Indeed": 12876, "\u2581nuclear": 12025, "ien": 1375, "phase": 19525, "\u2581Pool": 23702, "\u2581quer": 24031, "Hal": 26924, "\u2581klikken": 15708, "\u2581interference": 26994, "\u2581supportive": 27729, "\u2581representations": 23384, "eping": 11734, "unci": 14281, "\u2581guarante": 7953, "\u2581settings": 6472, "skb": 9509, "\u2581waves": 13295, "\u2581portions": 23694, "\u2581Squad": 16756, "\u2581institut": 9557, "propri": 23232, "\u2581Butler": 28070, "\u304d": 29552, "\u6cbb": 30137, "\uccad": 30594, "ola": 4362, "\u2581mess": 4687, "\u2581connect": 5789, "\u2581Play": 6879, "\u2581Players": 26500, "\u2581\u0420": 2399, "\u2581xml": 14502, "\u2581frightened": 23889, "\u2581partial": 10473, "\u2581Wait": 13118, "\u2581permanently": 26815, "ainer": 2542, "\u2581cooked": 22067, "\u2581sup": 1461, "\u2581\u0433\u043e\u0434\u0438\u043d\u0430": 18614, "owym": 24547, "memcpy": 19290, "\u0327": 31968, "asto": 26041, "\u2581\u0433\u043e\u0434\u0438": 8481, "\u2581mud": 13459, "\u2581understand": 2380, "\u2581bur": 4564, "\u2581desired": 11785, "af": 2015, "rous": 20162, "\u2581stamp": 22665, "MARK": 27466, "\u2581pov": 24270, "\u0458": 28855, "\u2581\",": 7717, "\u2581Bennett": 27789, "uding": 9155, "\u2581jewelry": 25528, "\u2581Ford": 12101, "\u2581Herz": 22026, "mb": 1757, "\u2581internation": 17861, "\u2581considers": 28325, "ometric": 14840, "rz": 20443, "won": 17959, "\u2581choosing": 14517, "ifer": 7627, "\u2581Edit": 12838, "fx": 9367, "dimensional": 13267, "lined": 14445, "\u2581august": 21936, "\u2581sil": 2958, "Af": 24505, "\u2581Steam": 27543, "\u2581clusters": 20501, "\u2581plac": 20227, "width": 2617, "\u043d\u0456": 2077, "\u2581Fed": 22377, "\u2581aer": 21717, "\u2581accept": 3458, "effect": 9846, "HH": 23834, "creat": 16346, "\u2581amer": 10269, "\u2581Range": 18593, "START": 12241, "spin": 9090, "Options": 4018, "\u2581shine": 27882, "\u2581compact": 12424, "LBL": 26928, "\u2581\u0447\u0442\u043e": 7061, "\u2581\u00e1": 8533, "\u0441\u044c\u043a\u0456": 18708, "\u2581include": 3024, "\u2581deal": 3215, "plements": 9612, "0": 28734, "\u00e9ge": 24981, "itionally": 14586, "Rep": 4781, "\u2581staff": 5084, "\u2581elabor": 16252, "\u2581\u00c9tats": 17902, "\u2581elder": 15966, "<s>": 1, "itches": 15868, "OwnProperty": 22760, "\u2581\u0432\u043c\u0435": 27293, "\u09c7": 29914, "eness": 14176, "\u2581poem": 16067, "\u00dc": 28961, "<0x1B>": 30, "\u2581\u0435\u0433\u043e": 9333, "STOP": 26599, "\u2581Price": 11589, "inz": 12461, "\"},": 7706, "iso": 12419, "\u2581Four": 9611, "(\r": 17334, "Tok": 14563, "vre": 19465, "\u0627\u0644": 14312, "\u2581entrepreneur": 23248, "akten": 21305, "\u2581duty": 11193, "\u2581tensor": 12327, "\u2581Alt": 16589, "USB": 16323, "osten": 17074, "\u2026]": 21888, "\u2581silver": 9746, "issues": 19474, "cache": 5319, "\u4eec": 29550, "\u2581habits": 19305, "\u2581eval": 28036, "ycle": 14302, "\u2581Chall": 15239, "\u2581associ": 3509, "\u2581CBD": 21108, "\u2581Atl": 7751, "\u2581saf": 4972, "Con": 856, "iku": 23550, "cols": 23692, "\u5bae": 31116, "\u2581perpet": 18313, "Over": 2675, "\u2581s\u00ed": 18002, "\u2581bugs": 25454, "\u2581rus": 22300, "fb": 10967, "\u0653": 31994, "aven": 3146, "\u2581Annual": 23647, "mu": 2390, "\u2581fils": 24071, "\u2581Elle": 9801, "Mac": 11483, "acity": 4806, "\u2581pand": 12140, "\u2581block": 2724, "\u2581Twitter": 11690, "that": 6087, "\u2581Oct": 3879, "License": 9428, "\u2581Sep": 15493, "\u2581\u00ee": 4591, "\u7f16": 29402, "\u7fa9": 30673, "\u2581t\u00e9": 20659, "/": 28748, "\u043a\u0443\u043b\u044c": 26759, "<0x52>": 85, "uv": 5388, "isha": 22674, "\u2581Throughout": 23501, "\ub79c": 31256, "\u2581modeling": 27472, "Cell": 7740, "\u2581menu": 8514, "\u2581march": 11853, "\u2581draft": 10449, "\u2581gebru": 23257, "\u2581noviembre": 26634, "uru": 19099, "-----------": 26684, "\u2581stone": 7253, "ancel": 8046, "\u2581crim": 8404, "js": 2777, "\u0442\u0443\u0440": 9939, "\u2581chop": 16811, "\u2581Points": 24304, "Emp": 25225, "\u2581towards": 5083, "\u2581serie": 11577, "\u0432\u0435\u043d": 16227, "\u2581circ": 4713, "\u2581rare": 9964, "unc": 10474, "\u2581heads": 10478, "\u0434\u0430": 1225, "Data": 1333, "\u2581warehouse": 27954, "ERROR": 4732, "\u2581bronze": 20067, "\u2581ul": 9271, "\u2581Strateg": 25193, "ANT": 12738, "\u8499": 31631, "oric": 16891, "\u2581\u043f\u0435\u0440": 7726, "\u2581reputation": 12947, "\u2581propos": 8395, "\u2581Pink": 24273, "nes": 4511, "\u2581x": 1318, "<0xEE>": 241, "\u2581wrong": 3544, "\u2581See": 3868, "\u2581Rail": 13056, "\u2581mesh": 17660, "\u2581prolong": 24163, "\u2581CNN": 26656, "\u2581Muslims": 21731, "\u2581Sad": 16750, "\u2581personal": 3327, "\u2581Fame": 26675, "cho": 2415, "\u2581Saw": 25594, "\u0442\u0430\u043c\u0438": 27411, "\u5ddd": 30133, "annotation": 10066, "BACK": 12437, "lem": 2933, "pur": 14692, "\u2581t\u00e4t": 28428, ">\".": 19593, "\u2581Rah": 20398, "\u2581fund": 3360, "\u00e9t\u00e9": 12329, "\u2581essence": 21213, "\u2581hex": 19703, "Bar": 5293, "\u2581portion": 11580, "\u2581Partial": 24590, "clip": 8031, "thur": 10380, "EDIT": 27495, "\u2581Official": 26356, "\uc131": 29465, "\u2581Hug": 13287, "ams": 5322, "\u1e24": 30231, "\u8389": 31806, "\u2581scoring": 20310, "\u2581ihr": 11893, "\u2581challenged": 24730, "\u680f": 30583, "\u0441\u0442\u0443\u043f": 15796, "iop": 19072, "wicklung": 25739, "\u7b54": 30620, "\u2581Kenn": 10960, "Package": 11079, "\u2581fe": 701, "xpected": 9456, "\u2581Non": 9187, "\u0441\u0438": 2206, "\u2581mon": 1326, "cci\u00f3n": 9699, "\u2581merchant": 23818, "equiv": 13220, "\u7533": 30360, "\u2581war": 1496, "edish": 21113, "\u2581chocolate": 14403, "hal": 6019, "grp": 25890, "coln": 13629, "\u2581\u041c\u0435": 8749, "\u2581enabled": 9651, "}{(": 25731, "jquery": 21126, "\u2581Iraq": 12627, "xff": 5600, "_,": 6930, "\u2581Dr": 2985, "\u2581Custom": 7973, "\u2581nights": 14440, "\u2581gem": 15037, "lp": 12312, "SINGLE": 26117, "Clip": 21271, "\u2581classified": 22260, "\u2581ES": 28151, "\u2581json": 7611, "achine": 3675, "asury": 26440, "\u8d25": 29384, "ponents": 6445, "\u2581healthy": 7783, "\u5340": 30741, "hp": 18634, "icing": 9065, "\u2581mature": 19798, "\u2581slice": 16163, "lines": 8063, "ategor": 21800, "ollen": 21867, "\u2581Cap": 6275, "ache": 1344, "\u2581l\u00ed": 16101, "\u2581\u043a\u043d\u0438": 21247, "\u8f7d": 29435, "\u2581pear": 26847, "dater": 28615, "\u2581cant": 8752, "\u2581directors": 22650, "\u2581tribe": 25315, "\u2581s\u00e5": 12428, "wp": 9359, "\u2581\u043c\u0456\u0441\u0446\u0435": 26972, "while": 5413, "\u2581scientists": 15067, "Fire": 16793, "anned": 5928, "finite": 12244, "aby": 4541, "\u2581cycle": 10061, "\u2581\u200b": 15758, "\u2581zm": 19523, "Job": 9610, "\u2581powder": 14761, "\u2581december": 22155, "reflect": 24904, "\u2581Take": 8890, "Tom": 22923, "ob": 598, "checked": 12413, "ados": 3482, "ellt": 17633, "\u89c8": 30441, "\u2581Tall": 24901, "ze": 1374, "\u2581buyer": 24861, "\uc5ec": 29827, "TEST": 9552, "illy": 7915, "rics": 6720, "\u2581virtual": 8252, "pection": 16455, "\u2581Guy": 16520, "\u2581fa": 3586, "cu": 7340, "ensity": 5454, "\u2581Anton": 8999, "\u2581spl": 8154, "Rule": 7693, "\u2581dop": 9275, "\u2581alleged": 22362, "Prev": 26757, "\uc600": 31958, "virt": 27590, "\u2581slept": 18283, "\u2581Premier": 16103, "\u008a": 31009, "\u2581assembly": 15077, "\u03af": 29121, "\u2581Dog": 13311, "\u2581synchronized": 25339, "\u2581\u043a\u0440\u0438": 18819, "\u0440\u0438\u0438": 10033, "\u2581Rect": 25707, "\u2581diff\u00e9": 18406, "Wallet": 22209, "ikes": 14853, "\u2581kinda": 17670, "bit": 2581, "\u2581beskrevs": 12755, "\u2581SORT": 14332, "Was": 22648, "Find": 10779, "\u2581fluctuations": 27951, "\u2581blev": 12861, "\u2581protagon": 18521, "Simple": 13256, "\u2581AP": 10502, "ritz": 24855, "\u2581Denver": 24060, "oy": 904, "\u512a": 31743, "\u2581'%": 12540, "\u2581\u00a9": 18675, "\u2581Lou": 5105, "\u2581z\u00e1": 19269, "asc": 4486, "cut": 7886, "kre": 13972, "\u2581param": 2095, "\u9664": 29153, "ISD": 24375, "enci": 24086, "\u2581-\\": 12300, "pipeline": 22365, "\u2581impression": 13700, "\u2581Wright": 20416, "dr": 2922, "Address": 5049, "worthy": 25336, "\u2581sleep": 4289, "memory": 11336, "Construct": 26799, "legal": 7090, "IF": 4066, "usch": 26628, "\u2581eager": 15381, "Place": 18962, "\u2581Bernie": 26009, "<0xA4>": 167, "\u2581Altern": 16677, "ention": 2148, "\u2581spawn": 23131, "\u2581\u0421\u0442\u0430\u043d\u043e\u0432\u043d\u0438\u0448\u0442\u0432\u043e": 21160, "\u2581p\u00fablic": 23912, "\u2581\u043d\u0435\u0433\u043e": 22510, "In": 657, "\u2581Sports": 13184, "\u2581constants": 19648, "static": 5616, "\u5e2b": 31231, "\u2581still": 1309, "\uc9f8": 31003, "\u2581mission": 7023, "arks": 7696, "\u2581SHALL": 27287, "\u0905": 30766, "\u2581thick": 6931, "\u2581\u0432\u0456\u0439": 18997, "\u2581whose": 4636, "Sh": 1981, "\u2581almost": 2779, "\u2581badly": 15494, "\u2581cleanup": 22005, "\u2581What": 1824, "\u2581orient": 9093, "\u0432\u0430\u043d\u0438\u044f": 22588, "\u2581speakers": 20872, "\u2581Railway": 22687, "TO": 3957, "essed": 9740, "h\u00f6": 21017, "\u2581statue": 22594, "perf": 24663, "VIEW": 22203, "prevent": 21129, "STREAM": 22708, "atter": 2466, "LEFT": 20528, "\u2581dann": 18093, "\u2581XVI": 23528, "\u2581scholar": 14566, "\u2581compress": 25595, "\u2581maximal": 26596, "\u2581comerc": 27744, "ormal": 2616, "\u5f62": 29711, "\u2581jej": 18336, "\u2581parl": 18435, "\u3078": 30667, "\u2581arm": 3648, "antal": 25855, "isation": 5463, "\u2581barrier": 19644, "\u2581mass": 3042, "\u2581Battle": 13711, "nez": 22748, "\u2581Series": 10264, "\u2581unem": 20955, "\u041d\u0430": 24192, "\u2581dej": 28471, "\u2581housing": 11821, "gres": 20697, "\u5065": 30945, "VM": 8572, "\u2581Smart": 17285, "zung": 25397, "\u2581Channel": 14250, "\u2581Democrat": 28540, "\u4e4b": 29332, "\u2581slip": 13070, "rive": 6016, "\u2581certainly": 5785, "(!": 6469, "ROOT": 20045, "\u2581pur": 3276, "\u5ba4": 30763, "Comment": 13617, "\u2581<=": 5042, "\u2581permanent": 13089, "\u2581signs": 10090, "bul": 9258, "Allowed": 23278, "\u9a6c": 30259, "/*": 1477, "\u2581table": 2401, "conduct": 27835, "\u2581demanding": 21427, "\u2581padre": 19866, "\u2581Note": 6096, "uments": 3105, "imately": 9807, "ounters": 19610, "Front": 20802, "\u2581fu": 6649, "\u2581Monday": 9262, "\u2581ale": 12121, "\u2581por": 1959, "alert": 14762, "\u2581fish": 8006, "\u2581proved": 10984, "\u2581!==": 5352, "innen": 17190, "sembled": 20221, "\u2581exclusively": 21437, "ati": 3986, "\u2581Cad": 21713, "\u2581Prin": 14495, "\u2581wreck": 22293, "\u2581variance": 27493, "\u2581\u0442\u043e\u0440": 27964, "\u2581befind": 19856, "wig": 14759, "\u3087": 31628, "\u2581bigger": 9942, "\u2581pointer": 10300, "\u05db": 29463, "\u2581tamb\u00e9m": 17591, "\u00fa": 28863, "mg": 11897, "unit": 5306, "\u2581Miami": 16932, "\u2581\u0439\u043e": 16394, "\u2581repr\u00e9s": 18880, "\u2581swo": 20153, "\u2581context": 2758, "\u2581channel": 5866, "\u2581quiet": 5883, "\u2581cin": 7132, "bach": 11875, "\u2581attended": 12359, "\u2581background": 5414, "\u544a": 29915, "gers": 7850, "\ub420": 31705, "onder": 9816, "isting": 10137, "Rot": 13722, "\u2581Biography": 27167, "\u2581DI": 12751, "\u2581Wall": 9117, "\u2581login": 14570, "\u2581ride": 9015, "\u2581Belg": 12172, "\u2581+\\": 16473, "\u00e4chst": 22342, "\u2581cort": 16779, "\u2581indoor": 24990, "*>": 27924, "\u2581caf\u00e9": 28345, "\u2581tune": 21337, "\u2581mortgage": 18222, "\u2581Apart": 20754, "ropolitan": 22159, "\u2581crowded": 22558, "\u2581protection": 8147, "\u308a": 29516, "See": 7992, "\u7840": 30811, "\u2581thous": 5003, "\u2581Adm": 19426, "\u2581buf": 7632, "\u2581Same": 18081, "\u0580": 29702, "Modifier": 25266, "gling": 18700, "Internal": 8893, "^^^^": 27657, "(": 28732, "\u2581Heart": 14552, "\u2581script": 6767, "PART": 28069, "\"\u2014": 17216, "\u2581drap": 26093, "\u05da": 30245, "\u2581Nelson": 18685, "STATE": 8400, "licht": 15761, "eme": 5037, "\u2581Band": 10521, "\u2581tragedy": 25466, "\u2581geh\u00f6r": 17421, "\u2581\u0431\u043b\u0438": 22228, "ylon": 22956, "\u2581So": 1537, "\u044f\u0442": 13793, "\u2581spine": 24496, "\ub839": 31514, "\u2581Honestly": 25530, "\u2581Ko": 14020, "\u2581truly": 7297, "[<": 19533, "alis": 11556, "\u2581aggress": 12788, "should": 6716, "\u2581ans": 8804, "\u2581Illuminate": 22652, "lam": 5989, "month": 10976, "\u2581processed": 16244, "deleg": 19941, "animation": 21251, "\u2581Implement": 26256, "\u2581nightmare": 27390, "\u845b": 31147, "@@": 15168, "Been": 27927, "\ud560": 29723, "\u2581deadly": 23950, "ityEngine": 11167, "\u2581ide": 1872, "\u2581titre": 20360, "\u2581Famil": 14288, "ocal": 15164, "\u2581patterns": 11533, "\u2581conservation": 21088, "\u2581seats": 13885, "\u043a\u0440\u0435": 15113, "\u2581\u0431\u0430": 7460, "\u2581sie": 4748, "touch": 20136, "\u2581managing": 16097, "ane": 1564, "\u2581txt": 23027, "igt": 8335, "Res": 1146, "\uc740": 29538, "\u2581tolerance": 27317, "\u2581realization": 27565, "table": 2615, "DA": 5569, "\u00edm": 9619, "esar": 22221, "\u6697": 31096, "\u2581actual": 4695, "<0xC9>": 204, "\u2581follow": 1372, "\u2581Nieder": 26468, "\u2581hitting": 17692, "\u2581presenting": 27445, "how": 5845, "\u2581ga": 17041, "\u4f9d": 30505, "\u2581(__": 27534, "\u00edd": 21180, "\u2581bereits": 21037, "\u2581shots": 14487, "\u2581Mind": 14683, "\u2581NFL": 17868, "\u2581streams": 20972, "\u2581copied": 23773, "\u0925": 31783, "\u2581cho": 2183, "asta": 7788, "\u2581Gott": 24543, "\u2581funded": 25178, "\u0441\u043b\u0438": 16799, "N": 28759, "Results": 12220, "\u2581Anna": 11106, "\u00e2te": 17748, "\u2581Stud": 4906, "CCESS": 9476, "ONE": 6349, "\u2581subsequent": 14235, "arin": 26327, "\u2581models": 4994, "pping": 7319, "\u2581quart": 14070, "RAY": 12661, "\u2581duck": 27103, "remark": 22569, "\u0442\u0435\u043b\u0435\u0439": 16871, "\u2581muj": 20397, "sko": 21821, "\u2581het": 3010, "processor": 24424, "\u2581notebook": 24587, "\u0941": 30034, "\u2581nag": 25733, "HO": 4104, "':": 1869, "fel": 20553, "</": 700, "centering": 11511, "\ud83d\ude80": 30012, "\u2581Lin": 6678, "FP": 9564, "\u2581Down": 8560, "\u2581tank": 11459, "techn": 23207, "\u2581Prec": 28386, "\u2581Sen": 5355, "aged": 2569, "Byte": 8150, "\u2581Por": 12401, "\u2581vain": 23204, "\u2581Promise": 10197, "\u2581Heat": 24191, "avirus": 22397, "Files": 10628, "\u2581\u0431\u043e\u043b\u044c": 15735, "orters": 12283, "\u2581teens": 27995, "\u2581shapes": 17187, "Dictionary": 17798, "\u2581Hawaii": 26434, "\u2581PS": 12993, "obal": 1995, "\u2581legs": 7969, "\u2581expanded": 14708, "ende": 4539, "\u2581handful": 18303, "held": 20354, "achten": 28579, "\u2039": 29922, "\u2581delicious": 15992, "\u2581na": 1879, "\u2581sweep": 27274, "icense": 1823, "\u2581Clinton": 15656, "\u2581Herbert": 24112, "\u2581toast": 26312, "\u2581Nie": 27805, "Btn": 18502, "\u2581intervals": 24405, "\u2581Department": 6946, "\ucee8": 31885, "ultan": 24263, "}+\\": 13582, "ims": 7805, "\u2581\u00e5": 12474, "\u2581effect": 2030, "assemb": 15351, "\u2581iv": 19900, "\u2581thorough": 13155, "frastr": 10512, "EST": 6839, "akers": 8774, "\u8b8a": 31518, "\u2581process": 1759, "\u2581parameters": 5287, "\u2581shoes": 10716, "\u043d": 28778, "\u2581wrapper": 18491, "=\"+": 6744, "char": 3040, "review": 22733, "CP": 4100, "\u2581Herm": 14741, "................": 22207, "\u2581Hunter": 18476, "\"?": 27257, "\u2581\u0430": 1622, "\u2581pixel": 18012, "meisterschaft": 27668, "inherit": 19778, "Throw": 16519, "zenia": 19716, "\u2581p\u00e8re": 25210, "filter": 4650, "alse": 1048, "\u2581Arg": 10852, "ector": 3776, "arium": 26207, "\u2581wondered": 10662, "plica": 15354, "umble": 19083, "\u2581\u00e9t\u00e9": 7166, "\u2581jam": 15219, "\u2581activate": 27854, "\u2581ih": 5837, "\u7576": 31332, "\u2581werden": 6446, "<0xC6>": 201, "\u2581Ha": 7737, "\u2581lifestyle": 16218, "\u3080": 31449, "\u2581joke": 13015, "\u2581alternate": 24597, "Tree": 7147, "\u2581hook": 8825, "ay": 339, "\u5723": 31572, "RESET": 22867, "\u2581thou": 28112, "\u2581smoothly": 28147, "arters": 10489, "fg": 4113, "\u2581dens": 16687, "\u2581ihm": 17934, "<0xBB>": 190, "\u5e02": 29244, "\u2581\u043a\u0443\u043b\u044c": 21828, "\u2581serves": 14449, "\u9053": 29432, "\u2581Christopher": 17561, "<0x07>": 10, "olution": 2100, "\u2581scientific": 10469, "\u2581projection": 18975, "\u2581dialogue": 19198, "\u2581generous": 20161, "\u2581closet": 23622, "5": 28782, "\u0e2a": 29524, "olare": 19389, "\u045b": 28926, "\u2581nil": 2346, "icated": 6899, "\u2581misunder": 26670, "\u2581d\u00e9cl": 27215, "emb": 20603, "Boolean": 9925, "define": 3380, "hl": 7529, "acio": 19867, "abor": 3226, "isons": 16149, "VERT": 24149, "successful": 28452, "\u10da": 29617, "\u96e8": 31115, "\u2581identified": 10248, "\u2581critical": 7276, "\u2581famil": 3923, "\u2581Rather": 19919, "\u2581Challenge": 21931, "\u674e": 30548, "exception": 7703, "\u2581dispers": 27990, "\u9759": 30709, "ode": 573, "\u9891": 30030, "Base": 4062, "\u2581super": 2195, "\u2581sought": 13033, "\u2581carrier": 20320, "\ud45c": 30191, "\u2581prof": 1957, "\u2581Cr": 4603, "label": 1559, "\u0434\u0456": 5777, "Area": 12026, "\u2581carry": 7096, "\u2581son": 1966, "istribute": 15505, "\u2581findings": 18147, "\u2581fir": 12621, "Id": 1018, "<0x61>": 100, "Src": 15886, "\u2581Ms": 16870, "\u2581equival": 7907, "cury": 25812, "\u2581emot": 6983, "\u2581impossible": 8313, "\u0142": 28843, "\u2581requirements": 8296, "\u2581solid": 6861, "\"></": 5828, "EO": 7438, "ulously": 26344, "ometer": 11598, "stra\u00dfe": 20134, "\u8d1d": 31124, "quir": 10851, "\u2581texture": 14024, "helper": 11937, "ouw": 27298, "\u2581failed": 4679, "enge": 5451, "\u2581Brothers": 22793, "\u2581Stack": 25319, "\u2581Cond": 11884, "\u2581merge": 13973, "usz": 18645, "ppo": 17652, "ateral": 21034, "olate": 19807, "\u2581routes": 16425, "\u2581desires": 23545, "resolved": 22634, "\u2581improvement": 14204, "\u2581settembre": 24864, "\u2581Sally": 27034, "\u2581Instagram": 18351, "vised": 23313, "\u2581venture": 21106, "\u00fcl": 8889, "\u2581Gib": 16090, "\u2581Hud": 20247, "bru": 13065, "\u2581\":": 20299, "linear": 13548, "\u2581pit": 11265, "\u2581Him": 14649, "\u2581\u043c\u043e\u0436\u0435": 16903, "\u2581\u043e\u043d\u0438": 26150, "aller": 7590, "\u2581rested": 26916, "\u2581caracter": 23574, "oin": 2448, "trigger": 11391, "\u2581decrease": 17889, "\u2581Click": 10213, "\u2581feel": 1601, "\u2581cancel": 11351, "\u2581temporada": 20030, "\u2581PHP": 20194, "\u641c": 30125, "ablo": 22866, "gpu": 15462, "ustain": 27301, "\u2581wound": 10063, "\u2581Negro": 23725, "\u2581Font": 15464, "ENCE": 15683, "\ubcf4": 29477, "\u2581finest": 21561, "\u2581memory": 4733, "\u2581Wien": 26935, "\u2581\\[": 8761, "abi": 16075, "\u2581diversity": 18644, "\u2581governments": 17475, "ub": 437, "\u2581them": 706, "\u2581probable": 22124, "\u2581Crim": 24849, "\u2581Sophie": 22223, "Serialization": 21046, "verts": 24873, "\u2581Ci": 16896, "\u70b9": 29085, "rok": 27644, "\u2581variable": 7860, "serialize": 18704, "\u00e6": 28916, "\u2581zam": 23884, "ates": 1002, ")}$": 16016, "\u2581oscill": 21068, "\u2581\u0430\u043d\u0433": 21639, "\u2581minist": 15910, "hav": 8832, "\u2581pursuit": 24809, "Emb": 25841, "\u2581saddle": 27343, "\u7f72": 31340, "\u2581secured": 21667, "\u2581Past": 17860, "erm": 858, "\u2581#!/": 23597, "Mic": 28372, "\u2581Copyright": 5259, "iffer": 10871, "...</": 23032, "charge": 14978, "\u2581donne": 28207, "\u5f00": 29177, "boards": 18256, "\u2581Sorry": 19385, "CT": 1386, "\u2581Test": 3735, "yan": 8455, "\u2581blowing": 26168, "\u0446\u0430": 5394, "leaf": 22542, "\u2581pistol": 24184, "atory": 5377, "\u201e": 28887, "\u9879": 29541, "\u2581demo": 23969, "\u2581scheduled": 13873, "\u2581sav": 8639, "\u2581manera": 23456, "otes": 4769, "\u2581levels": 6157, "router": 15125, "\u2581una": 1849, "hc": 20167, "\u2581blown": 24995, "\u7a31": 31599, "zent": 15200, "\"],": 8883, "cknow": 8979, "\u2581em": 877, "\u2581Michel": 12622, "\u2581Consult": 20395, "Sequence": 13248, "\u2581perspective": 10403, "\u2581incent": 19953, "\u2581card": 4148, "rip": 5386, "\u2581comfortable": 8450, "ark": 719, "\u2581Python": 21366, "\u2581mayo": 23714, "shot": 7063, "\u2581sotto": 28159, "\u2581More": 3764, "TV": 10639, "].": 1592, "\u2581prend": 16086, "inden": 20440, "uerte": 25395, "ava": 1750, "uset": 13222, "\u2581oven": 19126, "para": 16175, "ById": 7760, "\u2581\u0441\u0442\u0435": 19776, "possible": 7285, "\u9b54": 30410, "run": 3220, "Uri": 13530, "\u2581wished": 15534, "aging": 4054, "\u2581jako": 10128, "Redirect": 25633, "perty": 1612, "\u8868": 29024, "i\u0105": 18424, "Ch": 1209, "\u2581casino": 13638, "\u010e": 31461, "\u2581wyst": 23196, "\uac04": 30112, "come": 4215, "\u2581unm": 22926, "\u2581former": 4494, "context": 2714, "\u2581reception": 16844, "\u2581jedoch": 16154, "\u2581corrupt": 24106, "\u2581\u0430\u043b\u044c": 20462, "\u2581traits": 24214, "castle": 25305, "\u4f01": 31159, "process": 5226, "\u2581hearing": 9788, "\u2581statistical": 21256, "\u2581explained": 7955, "ood": 1004, "\u2581\u043a\u0443": 9997, "\u2581spite": 18879, "\u0441\u043a\u043e\u0458": 24736, "\u2581S\u00e9": 28387, "\u00dfen": 9721, "\u2581M\u00fcn": 17308, "\u2581Execut": 11663, "tres": 15158, "\u91ce": 30337, "\u09b7": 31980, "\u2581anxious": 19695, "atura": 14753, "\u2581cent": 1595, "\u2581Ek": 27659, "\u2581seat": 7278, "\u2581rarely": 13977, "\u2581extraord": 14577, "\u2581manif": 19924, "\u4f60": 29383, "\u2581attitude": 12910, "\u897f": 29633, "\u2581\u0442": 3265, "iq": 26325, "ilians": 24959, "UNUSED": 26731, "\u2116": 28986, "aco": 11536, "aria": 6463, "\u2581arguments": 6614, "\u8ecd": 31501, "[]": 2002, "\u2002": 31184, "\u00eas": 17194, "\u2b1c": 31636, "zip": 13249, "\u2581Domin": 14467, "hind": 15664, "hba": 20544, "\u2581suits": 21553, "\u2581sisters": 17118, "bi": 6309, "\u2581yesterday": 12091, "\u2581mont": 11895, "EL": 2980, "\u2581bacteria": 24038, "\u0f7a": 31858, "prite": 13757, "\u2581aliment": 27863, "\u542f": 29625, "<>();": 15840, "iani": 17151, "n\u011b": 9176, "\u2581Wor": 22366, "\u2581presid": 23790, "\u2581anyway": 7799, "\u043e\u043d\u0430\u043b\u044c": 11954, "IMAGE": 24947, "\u2581Schema": 24051, "covery": 8841, "\u2581lowest": 15341, "\u09aa": 30381, "buf": 2596, "\u2581relig": 4422, "\u2581\u041c\u0456": 26267, "\u2581gravity": 18428, "\u2581grande": 11807, "ultur": 18604, "\u2581biologie": 17149, "!\\": 8263, "\u2581corrected": 27840, "\u0c35": 31976, "\u2581regret": 18369, "Rev": 11165, "\u2581+=": 2679, "useum": 5858, "\u2581aan": 6456, "FR": 9790, "React": 18096, "\u62bd": 30885, "\u2581histor": 4264, "asons": 4963, "\u2581Die": 2941, "},\r": 17695, "empor": 6536, "Combo": 25141, "\u2581learning": 5168, "imgur": 26822, "\u2581Historia": 23051, "\u2581mapping": 13152, "\u2581Ren": 8734, "\u2581capability": 21368, "\u2581Ti": 24881, "\u2581involvement": 20447, "\u2581descent": 24871, "\u306b": 29174, "\u2581timeout": 11965, "\u2581joining": 15508, "\u043b\u043b\u0438": 22623, "embre": 8058, "\u2581higher": 4337, "ategy": 5167, "tid": 18294, "Ser": 3067, "\u2581ordinary": 13207, "\u043d\u0443": 2954, "\u2581indication": 24183, "ships": 14498, "\u2581him": 713, "\u2581off": 805, "\u2581climbed": 17070, "*)": 2523, "\u2581carpet": 18612, "\u2581\u0411\u0430": 9931, "\u552f": 30443, "\u2581Craig": 21260, "\u2581Article": 20108, "\u2581capabilities": 16585, "\u2581kall": 26608, "\u2581birds": 12780, "sized": 20838, "CAST": 27196, "\u2581confidence": 9843, "\u2581beaten": 22771, "\u2581ensure": 5407, "\u2581Joshua": 28302, "rv": 9084, "\u2581Construction": 22061, "earch": 3625, "\u2581sort": 3127, "\u2581przez": 12534, "__.": 21149, "MIT": 24791, "\u2581MON": 25259, "\u2581#####": 5609, "referto": 28557, "\u2551": 30019, "licenses": 9146, "\u2581criteria": 15117, "SEQU": 28148, "PH": 7209, "\u2581inde": 3511, "\u2581demand": 5637, "\u2501": 29239, "ERN": 7920, "\u2581\u0432\u044b": 4627, "apore": 15710, "\u2581Harvey": 26101, "Cart": 17057, "\u2581Hann": 14390, "\u2581completing": 23789, "\u7259": 31300, "iqu": 2741, "\u2581phrase": 14804, "\u043d\u0438\u0448\u0442\u0432\u043e": 20624, "\u2581pref": 27718, "\u2581degrees": 11182, "\u2581than": 821, "i\u00e7\u00e3o": 18992, "oshi": 27605, "olic": 7437, "\u6f14": 31010, "\u2581Grace": 15281, "\u969b": 31780, "\u2581Null": 21238, "\u7701": 29670, "\u2581climb": 17176, "ua": 3772, "\u885b": 31899, "\u05e2": 29295, "\uc9dc": 31405, "bread": 28090, "ands": 2351, "\u2581terrorist": 25891, "Edit": 8470, "\u2581hockey": 21199, "\u2581Senior": 16805, "\u2581demonstrate": 16499, "\u2581ve": 1773, "protected": 11384, "strict": 17354, "insula": 27155, "\u2581inspire": 26649, "\u2581Marine": 16155, "\u2581cancellation": 27918, "Initial": 14230, "\u2581Missouri": 20611, "\u2581feder": 27006, "\u6ce2": 30382, "\u2581average": 5151, "shops": 21673, "\uc800": 29998, "\u9633": 30230, "states": 17631, "\u56fa": 30657, "\u0a30": 31880, "\u0447\u0435": 1696, "\u0437\u0443": 6307, "CPU": 16102, "iance": 4609, "\u2581procedures": 15251, "\u2581bump": 26563, "Val": 2637, "idx": 5251, "\u2581SOFTWARE": 14891, "\u2581accompanied": 16085, "\u2581conscience": 26179, "\u2581qued": 23288, "\u2581handy": 26568, "\u00e9p": 13901, "\u2581constructor": 11429, "emark": 21819, "score": 11831, "\u0440\u0435\u0439": 16874, "\u2581Div": 5812, "adi": 12035, "]*": 16069, "\u2581host": 3434, "\u2581Chap": 14381, "talk": 25995, "\u2581Wu": 28660, "\u2581failures": 25394, "itory": 4560, "\u4eba": 29086, "\u2581Gall": 14225, "\u2581entre": 3913, "PROC": 15812, "\u2581madre": 26032, "\u2581zun\u00e4chst": 26477, "\u2581interrog": 28197, "inos": 7905, "\u2581cru": 5337, "Mock": 8541, "\u2581layers": 13083, "\u2581silly": 18715, "//": 421, "\u2581):": 19174, "Slider": 26952, "\u2581anywhere": 9530, "heart": 14754, "\u2581rue": 22090, "trl": 11276, "\u2581urge": 23151, "\u2581join": 5175, "\u2581object": 1928, "bsite": 14868, "n\u00fd": 24160, "\u0c32": 31848, "\u2581inherit": 22492, "\u0435\u043c\u044b": 21663, "\u2581words": 3085, "\u2581carrying": 10839, "Bundle": 12409, "\u2581via": 4213, "hline": 9208, "buffer": 4260, "via": 15828, "English": 27871, "\u2581AN": 2976, "\u043b\u0456\u0432": 23279, "nej": 10719, "getType": 16053, "\u2581Canada": 6082, "eff": 6610, "\u2581bom": 12793, "olves": 18725, "{})": 21914, "unt": 2794, "\u2581PO": 9856, "\u2581good": 1179, "\u2581Chron": 23967, "\u2581{@": 4958, "osed": 2352, "\u2581Khan": 18595, "\u2581There": 1387, "\u2581Vic": 17862, "\u00e7\u00e3o": 3709, "BA": 4844, "\u2581runs": 7825, "\u2581LE": 14181, "\u5f37": 31280, "tons": 8901, "aneous": 18834, "\u2581invariant": 18567, "\u2581nombre": 8581, "limp": 22305, "rollment": 27518, "wi": 7386, "\u2581Bryan": 27919, "\u2581beginning": 5398, "\u00be": 29867, "\u2581fruits": 21566, "\u2581emp": 7911, "usr": 16785, "\u52dd": 31400, "ID": 1138, "\u2581artists": 10611, "atives": 5087, "\u2581interaction": 11186, "\u2581fuer": 12535, ")(": 3847, "\u2581WHERE": 15803, "xy": 4263, "\u2581generator": 17128, "\u2581answ": 2965, "\u2581beyond": 5298, "GM": 16977, "!=": 14379, "Droid": 21618, "indow": 1511, "<0x47>": 74, "\u2581\u044f\u043a\u0456": 23008, "Emitter": 26264, "\u2581divor": 12800, "\u2581Install": 22609, "\u2581Nature": 19013, "\u2581\"#": 11441, "\u2581tort": 12703, "\u2581Jorge": 26955, "Expression": 8055, "\u2581Nem": 26480, "\u2581(!$": 23942, "SD": 5309, "BPACK": 15947, "\u2581institutional": 28211, "\u0671": 30732, "\u3042": 29674, "\u2581PROVID": 25118, "\u2581gren": 24386, "code": 1409, "roups": 3515, "\u2581centuries": 14997, "\u2581relevant": 8598, "\u2581Aub": 27084, "terior": 11476, "school": 19185, "\u2581scr": 7375, "\u1ff6": 30866, "Rules": 17315, "\u2581Del": 5526, "Doc": 9441, "minded": 25117, "\u2581David": 4417, "xFE": 19601, "geo": 27433, "\u0baa": 30074, "\u2581peu": 12631, "\u2581todas": 24209, "\u2581rodz": 27895, "pos": 1065, "stop": 6898, "\u2581Lay": 26271, "olas": 16836, "\u7b14": 31417, "<>(": 27315, "endo": 4722, "een": 9995, "RUN": 21845, "ether": 8962, "\u7eb3": 31536, "\u2581garden": 8759, "iverse": 8834, "\u2581worries": 28420, "\u2581fantastic": 13762, "\u2581dogs": 9540, "\u2581{": 371, "/(": 20974, "\u2581nons": 21797, "\u2581verified": 25301, "uda": 9657, "\u2581!(": 23059, "\u675f": 29790, "itu": 6454, "\u2581Good": 5801, "\u2581cmd": 8651, "bh": 13141, "Gate": 16485, "\u2581updating": 26187, "Parser": 8323, "oubt": 22531, "\u2581N": 418, "\u2581spin": 7344, "\u2581Pennsylvania": 15472, "mund": 18060, "ipart": 26653, "erson": 1084, "epper": 14781, "\u2581set": 808, "amiliar": 27195, "\u2581melod": 27043, "ah": 912, "\u2581suit": 8040, "\u2581special": 2841, "\u2581\u0436\u0435": 9438, "\u2581pub": 2034, "\u0e99": 31904, "\u2581accompan": 13498, "inct": 5654, "PR": 4402, "](": 5121, "\u043b\u0435\u043d\u0430": 21048, "\u2581nearby": 10396, "\u2581attacked": 15198, "\u2581Cin": 17133, "\u2581dancing": 17319, "\u2581reduction": 13388, "Priority": 21076, ")),": 7218, "\u5f85": 29876, "`);": 28682, "\u2581try": 1464, "entin": 23149, "\u968f": 30179, "assertEquals": 12135, "\u2581estim": 6010, "\ubc95": 30979, "results": 10463, "izo": 19692, "PO": 3402, "eller": 5371, "ves": 1855, "\u2581Where": 6926, "acja": 22218, "\u2581coc": 14609, "Pane": 17883, "\u2581Marco": 21069, "\u2581amely": 27894, "\u7d50": 30486, "\u30ae": 31307, "\u2581monde": 15004, "ington": 14066, "\u2581Reserved": 23182, "byte": 5301, "\u2581stub": 14601, "oting": 7695, "issa": 13723, "\u2581U": 500, "\u2581rough": 8654, "\u2581estaba": 18281, "\u043a\u0430\u0440": 22688, "okal": 23356, "\u2581eng": 2536, "\u2581OUT": 15895, "neath": 20316, "\u767b": 29510, "\u2581notion": 14086, "covered": 18873, "\u2581softly": 18345, "failure": 23973, "\u2581most": 1080, "\u2581becomes": 6755, "\u2581peculiar": 25876, "tar": 14689, "Marshal": 24374, "izer": 4024, "plied": 3002, "\u2581press": 2944, "\u666f": 29960, "\u2581Jim": 6715, "browser": 13612, "\u6269": 30708, "\u2581problems": 4418, "blo": 15190, "platform": 10470, "\uace0": 29511, "Registry": 11494, "\u2581\u043a\u0438": 12902, "\u2581publishing": 20449, "ature": 1373, "\u2581attend": 8986, "Headers": 11871, "\u2581\u043f\u0440\u043e\u0435": 23249, "pite": 4995, "\u600e": 31401, "\u2581goals": 7661, "\u2581Cru": 11549, "\u2581Associ": 6097, "\u2581STR": 17235, "\u2581speaks": 19203, "transform": 10038, "\u2581suspend": 14551, "\ud83d\udc49": 31811, "\u2581Round": 15042, "\u0440\u0430\u043d": 4934, "\u2581fr": 1104, "ress": 638, "\u2581Ot": 12133, "Setting": 15222, "\u2581EM": 22679, "lace": 22918, "liminary": 24605, "\u2581souvent": 28120, "\uc5c5": 30279, "\u2581galax": 11407, "\u2581Alexander": 11055, "\u10e4": 30880, "idad": 4526, "\u2581octubre": 25154, "import": 7841, "oa": 17542, "ability": 2437, "\u2581Fleet": 26220, "\u0c3f": 31227, "rupal": 15030, "auses": 23829, "\u6c49": 30688, "\u2581components": 8076, "\u041b": 28885, "\u2581ignorant": 27972, "\u2581genu": 11624, "volution": 22424, "\u2581hay": 16664, "\u2581MAX": 11651, "\u2581GP": 19995, "{{": 6652, "\u2581Atlantic": 16343, "\u2581census": 21254, "\u00e9ta": 25545, "\u526f": 31429, "\u2581Kan": 14748, "trfs": 26969, "\u0ac7": 31837, "\u2581Kont": 28631, "\u2581constraint": 17656, "\u2581emperor": 25948, "\ud504": 30212, "ONG": 10962, "\u2581Oxford": 13434, "\u2581dated": 21847, "\u2581chamber": 16115, "\u2581franchise": 21014, "\u2581Pass": 8201, "\u2581commanded": 27288, "\u2581dimension": 9711, "\u2581Two": 6005, "\u2581catch": 3547, "\u2581rhet": 25905, "\u2581forma": 10997, "ancing": 7161, "\u2581bullet": 17144, "HR": 16197, "estic": 9546, "Style": 4436, "orious": 16464, "\u2581lan\u00e7": 27394, "}-": 8767, "$),": 27517, "\u2581cents": 27337, "\u2581mouth": 5108, "\u2581prevent": 5297, "Memory": 9820, "\u4e4c": 31854, "osz": 24982, "\u2581Cl": 1366, "\u2581async": 5755, "\u2581supplies": 13679, "\u043d\u0438\u043a": 5647, "amd": 27874, "\u2581Course": 19688, "\u2581spoke": 7310, "Validator": 16738, "<0xA3>": 166, "\u2581Xbox": 26631, "();": 692, "}\r": 2519, "\u2581couldn": 3481, "CTX": 26564, "\u2581four": 2308, "\u2581Kingdom": 11508, ")}(": 20089, "light": 3646, "\u2581cens": 19983, "\u2581lang": 9848, "\u2581letting": 12815, "cias": 26633, "\u2581llam": 17620, "\u2581means": 2825, "\u2581rel": 1016, "istant": 11143, "uild": 1678, "bras": 21420, "\u2581magnetic": 12485, "\u2581mountains": 13691, "pe": 386, "iversary": 17250, "Mapper": 15760, "\u2581sc": 752, "\u2581lib": 6538, "\u2581Auth": 15579, "\u0446\u0438\u0458\u0435": 28401, "\u793e": 30115, "\u2581Racing": 22024, "anti": 7764, "\u9632": 30338, "\u2581instructions": 11382, "elo": 11979, "\u2581scroll": 11445, "\u2581washed": 21243, "\u2581clause": 23994, "\u2581wild": 6107, "\u2581\u0442\u0440\u0430\u043d": 24407, "tra": 1947, "\u2581handle": 4269, "riet": 13769, "atro": 12094, "login": 10118, "\u2581brain": 6387, "\u2581\u043f\u043e\u043c\u043e": 21589, "\u2581females": 21903, "\u0441\u0456\u0439": 24020, "\u2581survived": 16761, "<0x97>": 154, "ENOMEM": 20259, "\u2581wir": 25609, "\u2581dragged": 20212, "RG": 17814, "ENTRY": 19839, "\u2581Bible": 12717, "\u2581Coach": 24847, "\u2581\u043c\u0435\u0441\u0442\u043e": 20674, "\u2581branches": 15407, "_[": 19000, "\u2581fen": 27442, "voir": 18592, "because": 20475, "\u2581as": 390, "\u2581Poor": 27970, "\u2581android": 5791, "tere": 20291, "\u2581priests": 27677, "\u2581recognised": 28549, "\u2581Olymp": 8562, "\u2581dial": 14262, "\uc900": 30723, "\u2581stan": 17920, "\u2581Joe": 7833, "uter": 20073, "\u2581Zealand": 12696, "odge": 13167, "\u2581seal": 22700, "tx": 3253, "\u2581Amer": 1660, "\u2581Ass": 3348, "\u2581epid": 23624, "getId": 15725, "Hook": 16033, "aude": 18188, "iences": 12923, "mutex": 7686, "\u2581draw": 3924, "och": 4042, "\u2581wing": 13788, "\u2581dv": 21272, "\u0445\u0440\u0430": 23163, "Sim": 7554, "\u2581Country": 13008, "\u2581britann": 25206, "\u2581ser": 1201, "\u7f00": 30958, "\u2581negative": 7087, "\u2581smoking": 17105, "acks": 6507, "\u2581Metal": 24144, "\u2581\u043d\u043e": 5304, "\u0440\u0430\u0431": 24462, "\u2581readers": 12076, "\u2581accessible": 14494, "hello": 21558, "pages": 9929, "\u0443\u043d\u043a": 21051, "athan": 9871, "\r\r": 21259, "\u0447\u0435\u0441\u043a\u0438\u0445": 20678, "olan": 24126, "\u02b9": 31788, "\u2581Value": 8382, "handle": 5123, "\u043a\u0430\u0442\u0430": 24648, "\u1ea1": 29423, "\u5909": 30274, "\uc88c": 31455, "\u2581amazing": 6821, "\u2581approval": 15000, "\u0430\u043d\u0433\u043b": 18058, "steller": 25383, "\u2581franz\u00f6s": 24869, "\u2581number": 1474, "\u2581Education": 9352, "blob": 17678, "CREATE": 21005, "layers": 22944, "\u2581weeks": 4587, "\u2581configured": 21529, "\ud83d\ude01": 30707, "\u2581pe": 757, "zw": 12912, "uvo": 25075, "Collection": 7587, "\u2581preval": 25371, "\u9999": 30703, "ropol": 13339, "hythm": 16321, "\u0441\u0442\u0440\u0430": 8088, "\u2581vivid": 24954, "\u2581Ni": 18001, "elm": 22329, "\u00b7": 28854, "\u2581den": 1457, "\u2581\u0436\u0438\u0432\u0435": 26838, "\u2581spend": 6305, "\u2581Supp": 11325, "fu": 21278, "\u2581established": 6740, "\u043a\u0442\u0443": 19456, "\u2581diet": 9751, "builtin": 24916, "\u2581establishment": 18413, "Email": 10995, "\u2581educ": 3600, "beat": 16890, "\u2581Save": 15226, "\u2581Match": 15127, "\ubc15": 31545, "\u2581appreciate": 11982, "\u2581Sebast": 18935, "acci": 28127, "\u30c1": 29973, "\u2581knew": 2580, "\u2581enterprise": 18355, "alion": 20236, "assen": 16044, "\u2581sauce": 16042, "\u2581wearing": 8192, "ivil": 4617, "\u00d6": 28940, "\u2581\u0432\u0435\u0440": 12946, "icer": 10408, "ocolate": 11959, "\u2581Mountain": 15228, "\u2581commut": 24659, "\u2581Motor": 17933, "\u2581Bru": 8944, "\u2581vine": 21375, "\u2581language": 3842, "\u2581r": 408, "\u2581measurements": 16080, "\u2581sphere": 21517, "\u2581practices": 10879, "={()": 26931, "Draw": 5656, "CLE": 21521, "oose": 12470, "\u2581lanz": 26682, "\u00c4": 28999, "\u2581Ky": 15595, "\u2581explicitly": 15956, "flex": 13971, "\u045a\u0430": 15857, "\u2581$\\{": 17543, "\u043d\u0430\u0440": 28019, "\u0432\u0435\u0440\u0441\u0438\u0442\u0435": 17375, "utf": 13366, "information": 20590, "\u2581enforcement": 19046, "\u0300": 29891, "\ub54c": 30178, "\u2581severely": 28064, "\u2581typing": 24692, "\u2581stra": 4512, "Native": 12557, "\u4e8c": 29482, "isterschaft": 17651, "only": 5041, "resentation": 15918, "avier": 18695, "\u2581facilitate": 25729, "icy": 2451, "\u2581Flow": 21127, "\u2581numbers": 5551, "\u2581Brit": 3262, "educ": 25030, "<0xDD>": 224, "Equal": 4283, "UNT": 11111, "\u2581homes": 9039, "\u2581Security": 9769, "\u2581consecutive": 22162, "\u0119\u017c": 28453, "teil": 14084, "\u2581tooth": 17961, ")|": 12362, "\u2581solo": 8375, "\u2581Issue": 27766, "Yes": 5613, "\ub791": 31495, "ma": 705, "\u2581tech": 14130, "Margin": 21938, "Plugin": 10443, "vscale": 24713, "Orient": 25616, "ovan": 13704, "\u2581wet": 7569, "\u2581Rules": 24759, "\u2581flat": 7007, "\u2581Block": 9063, "\u2581yield": 8109, "\u2581parts": 5099, "\u4e5f": 29537, "\u2581>": 876, "\u2581Australian": 9972, "\u2581physics": 16173, "\u2581vary": 11204, "\u2581cheer": 17096, "\u2581tropical": 21257, "\u0435\u0442\u043e": 24525, "\u2581Stad": 4988, "\u2581north": 6120, "\u2581density": 8353, "\u2581flash": 10745, "\u2581Pav": 23333, "UA": 25099, "\u2581\u043c\u0435\u0434\u0430": 28165, "\u2581independent": 7126, "\u514d": 30596, "\u2581dealer": 25863, "\u2581index": 2991, "\u2581opening": 7032, "\u8a18": 30288, "emph": 7883, "hin": 15176, "\u2581\u0431\u0440\u0438": 23145, "tos": 28047, "file": 1516, "\u2581Laura": 16145, "mf": 19263, "acom": 28635, "\u2581aspir": 26985, "\u2581contain": 7001, "\u2581wer": 3037, "sung": 23361, "ycz": 17069, "\u2581Miche": 27891, "\u8d27": 30227, "uje": 12214, "own": 656, "\u2581return": 604, "\u2581model": 2229, "Adjust": 23442, "\u2581nouveau": 19341, "vue": 19732, "\u2581consult": 7731, "\u2581geb": 10560, "sk": 1252, "Anchor": 21792, "\u96ea": 30876, "\u2581twentieth": 26203, "\u2581((": 2743, "\u2581capture": 11319, "\u2581desp": 26717, "\u2581tanto": 17689, "There": 5816, "\u2581inches": 13352, "TY": 2752, "\u2581understanding": 6399, "\u2581scores": 14428, "\u2581bulk": 15059, "\u2581banking": 22265, "\u2581App": 3122, "ple": 792, "\u2581t\u00eate": 27687, "als": 973, "\u76d6": 31133, "\u2581categories": 13187, "\u2581),": 6223, "leton": 9224, "\u2581comport": 27492, "\u2581irre": 14872, "\u2581shelf": 22895, "\u2581Users": 25777, "acional": 7055, "know": 19726, "\u03b7": 29049, "\u2581colleagues": 15137, "\u5ead": 31926, "XR": 23576, "rors": 22180, "\u2581num": 2075, "\u2581Similar": 24232, "\u0d3f": 31526, "Fig": 10638, "sep": 21571, "\u2581Call": 5529, "'][": 24948, "\u4f50": 31594, "arm": 1785, "IM": 4019, "bles": 9343, "\u0398": 30394, "Billboard": 26889, "\u2581investing": 22445, "Background": 11278, "cos": 5832, "Cancel": 15204, "mathsf": 12009, "\u2581Lily": 25492, "logger": 11279, "\u2581liberty": 26740, "\u2581Alliance": 20966, "\u2581fix": 6293, "guard": 16191, "\u2581specialists": 28375, "\u8fdc": 30758, "AB": 2192, "\u0437\u044b": 7763, "\u2581Kre": 13326, "\u2581satisfaction": 16456, "\u2581digging": 27645, "\u2581noch": 11039, "\u2581devoted": 19312, "\u00e9d": 4652, "\u2581f\u00f6rst": 23722, "\u5f35": 31241, "\u2581k": 446, "\u2581Prest": 24478, "\u2581click": 6046, "\u2581predicted": 17931, "\u00e9tait": 23133, "ctors": 6475, "append": 3308, "\u2581moist": 17261, "icip": 4363, "\u2581adapted": 22427, "\u2581bapt": 26907, "\u2581Sy": 7281, "\u0446\u0456\u043e\u043d\u0430\u043b\u044c": 27851, "inge": 22503, "\u2581Kaz": 16359, "\u0437\u0435": 8700, "\u2581added": 3886, "unque": 14733, "\u2581qu\u00e9": 25648, "\u2581kw": 11038, "\uc99d": 30713, "\u2581Occ": 15819, "\u0171": 28931, "views": 13064, "\u2581sniff": 27098, "\u2581expecting": 15550, "\u2581participating": 22727, "\u2581Celt": 28417, "\u2581revolutionary": 24444, "\u2581Statistics": 28091, "\ucc9c": 31244, "aka": 8389, "series": 17384, "\u2581Collections": 27395, "MAX": 5578, "ving": 3844, "\u2581talent": 9234, "\u2581execut": 4546, "\u2581Output": 15985, "oden": 26623, "\u2581tear": 16497, "count": 2114, "\u2581fees": 12845, "Curve": 27777, "\u7684": 28914, "\u0115": 31371, "Follow": 28093, "\u2581angle": 10417, "\u2581preserve": 18018, "aff": 2146, "runtime": 8863, "\u263c": 31560, "\u7ea2": 30311, "rq": 11916, "\u2581Cec": 22022, "\u2581seek": 5695, "\u2581Valent": 18103, "\u2581chi": 20484, "\u2581bother": 11026, "aren": 4184, "ruption": 12992, "Take": 19850, "\u2581Jac": 7129, "\u2581fluid": 15144, "\u2581Miller": 13674, "\u2581\u0431\u0443\u043b\u0438": 24596, "\u2581Vol": 5400, "lement": 1044, "iesz": 17944, "\u2581Wonder": 21950, "\u0441\u043d\u0438": 22618, "\u2581Nor": 4953, "\u2581disturb": 17199, "\u2581Jamie": 19017, "\u2581tarde": 24562, "\u2581Kiss": 27658, "\u2581normalized": 24814, "\u2581Shanghai": 28410, "\uc640": 30275, "\u2581tournament": 14809, "drop": 8347, "\u2581desktop": 24702, "\u2581prefix": 11398, "TA": 6106, "aci\u00f3": 7094, "\u2581basic": 6471, "\u043c\u043e\u0432": 19264, "ntil": 12662, "\u2581rendered": 21795, "\u0927": 31080, "\u2581college": 6302, "insic": 16119, "\u9057": 31889, "\u2581cop": 5029, "\u0432\u0430\u043d\u043d\u044f": 12267, "Card": 9139, ")+\\": 25886, "\u2581AR": 6108, "eston": 27519, "\u2581dose": 20222, "\u2581FR": 27790, "\uc558": 31877, "RPC": 22115, "insi": 11738, "\u2581######": 14432, "\u2581dirig": 16263, "\u2581femin": 13426, "\u2581Construct": 23821, "connected": 14346, "otte": 10803, "\u2581But": 1092, "\u2581utilized": 28061, "\u2581Pop": 7259, "\u2581mentre": 18280, "\u2581abril": 20594, "\u064c": 31975, "\u2581vale": 28210, "\u2581private": 1597, "\u2581Australia": 6664, "ilen": 27748, "\u2581gep": 14152, "\u2581edge": 5358, "signed": 2782, "FUNC": 18412, "Clean": 22139, "\u0938": 29671, "\u964d": 30852, "\u2581Location": 14716, "\u2581habit": 6189, "\u50cf": 29663, "\u2581velocity": 13469, "\u2581\u041b\u043e": 18806, "But": 2438, "\u2581crowds": 26674, "\u2299": 30669, "\u2581ruined": 25151, "\u2581temper": 5026, "\u00cd": 29107, "\u2581resid": 12899, "\u2581Lemma": 13584, "ificaci\u00f3n": 28369, "\u2581Has": 10981, "\u2581hang": 9644, "\u2581despair": 25477, "\u2581Parameters": 26750, "ln": 4778, "\u0432\u044b\u0435": 16072, "\u51fa": 29065, "\u2581popularity": 20646, "\u2581squ": 4524, "\u2581inhib": 22358, "\uc218": 29151, "\u6709": 28998, "\u2581Durch": 21915, "\u1e45": 30827, "\u1e25": 29624, "KEY": 6478, "ASH": 12322, "\u0100": 29940, "omas": 23856, "\u0447\u0435\u043d": 7932, "\u2581experimental": 14593, "riages": 28347, "\u2581Forest": 15777, "box": 2858, "\u2581educated": 20579, "\u2581\u044f\u043a": 15143, "\u2581convention": 18698, "\u2581Ron": 9975, "\u0442\u0435\u043b\u044f": 17371, "\u2581opportunities": 8812, "\u2581helps": 7263, "acy": 2426, "\u2581Queen": 10224, "\u2581Kel": 21564, "\u62a5": 29845, "\u202a": 31791, "\u2581Pir": 19346, "4": 28781, "\u2581lou": 20280, "Sensor": 26233, "\u2581\u044e": 11531, "\u2581Gian": 27090, "\u8272": 29395, "Pointer": 8638, "css": 5753, "pis": 9455, "\u2581qual": 4109, "\u2581UK": 6194, "\u2581Ev": 5740, "kg": 8087, "\u2581Zone": 20312, "\u2581all": 544, "orie": 12067, "ape": 1748, "\u2581neg": 3444, "\u2581bewerken": 15695, "\u2581Dance": 21015, "\u2581invested": 24161, "\u0441\u044b": 20074, "\u2581consultation": 24880, "\u534a": 30458, "\ud37c": 31902, "dated": 5218, "\u2581encour": 6191, "\u2581gob": 21768, "ta": 1100, "single": 14108, "Param": 2133, "iko": 13370, "\u0445\u043e\u0432": 19360, "\u2581enables": 18156, "\u2581galaxy": 20539, "\u2581absent": 20311, "\u2581abrupt": 21735, "\u96c6": 29451, "\u2581Tips": 26406, "\u2581teachers": 10880, "\u2581Mad": 5311, "\u2581why": 2079, "\u2581rubbed": 25333, "\u2581boring": 19757,
[...]
