{"\u0120soul": 7765, "\u0120sword": 14228, "995": 28202, "449": 29185, "Effects": 34721, "Hydro": 43798, "\u0120pagan": 47372, "240": 14028, "um": 360, "});": 9897, "\u0120scary": 24851, "\u0120visa": 25105, "\u0120concord": 34860, "RH": 30682, "\u0120dramat": 50104, "\u0120comprises": 12093, "middle": 16389, "\u0120611": 48481, "\u0120Point": 11149, "haven": 47031, "\u0120\u00d0\u00b8\u00d0\u00bc": 32951, "ep": 554, "\u0120block": 2972, "\u0120Recently": 17746, "usually": 27978, "\u0120jurors": 25710, "\u0120BL": 13242, "CHECK": 22949, "renched": 34455, "Ric": 45668, "\"?\"": 47579, ")^{": 7415, "\u0120omit": 35991, "\u00cf\u0123\u00cf\u012e": 28832, "\u0120prescribe": 44482, "Greg": 33612, "\u0120evaluating": 16344, "\u00c2\u00bb,": 26147, "keepers": 39160, "Tak": 39520, "\u0120regimens": 32991, "\u0120colonel": 41513, "\u0120handwriting": 47021, "\u0120x": 1269, "\u0120post": 1501, "344": 22543, "004": 5525, "\u0120insp": 6381, "\u0120interfaces": 19069, "derived": 13472, "utton": 28738, "kees": 31185, "zw": 40965, "\u0120wink": 42790, "\u0120Individual": 21330, "\u0120Alien": 49395, "\u0120Days": 23264, "\u0120fulfillment": 43568, "\u0120spice": 39371, "[(": 15830, "\u0120inclination": 30388, "\u0120Photos": 30921, "\u0120priorities": 23971, "acements": 28633, "\u0120engineer": 16518, "\u0120commercials": 47864, "\u0120typical": 6867, "\u0120generating": 11365, "\u0120comes": 3249, "\u0120Please": 7764, "\u0120JP": 24144, "Region": 26330, "\u0120Rodriguez": 27051, "\u0120saliv": 36203, "\u0120nicotine": 31788, "enza": 13166, "\u0120_________": 38834, "abouts": 39462, "\u0120Ali": 14355, "\u0120diameters": 37162, "apsed": 13395, "\u0120fancy": 18612, "\u00e5\u0131\u0124": 39573, "\u0120continents": 49900, "\u0120Persian": 31534, "052": 32745, "\u0120Pear": 14837, "\u0120logs": 20131, "\u0120shopping": 12701, "\u0120((": 6048, "\u0120pessoas": 48491, "\u0120submit": 11929, "it\u00c3\u00a4": 29074, "\u0120laughs": 33350, "\u0120\u00ce\u00bcm": 14620, "\u0120heir": 33961, "\u0120Bot": 28469, "ych": 3155, "\u0120relic": 34787, "\u0120weeks": 3618, "\u0120mutations": 9197, "\u0120defining": 13947, "\u0120comfortably": 35766, "ution": 890, "\u0120objectively": 38304, "->": 1168, "\u0120ACP": 47108, "\u0120Chu": 48012, "\u0120Cannon": 48220, "\u0120mor": 2298, "\u0120puzz": 21843, "\u0120Suff": 33519, "lated": 16148, "\u0120minorities": 31691, "\u0120original": 3236, "uck": 1807, "\u0120psychological": 12264, "\u0120\u00ce\u00b4": 11112, "\u0120factor": 2803, "\u0120antioxidant": 20118, "untary": 26900, "oppy": 45695, "\u0120tweet": 15975, "afen": 44585, "\u0120Resolution": 36347, "\u0120abelian": 31106, ")\\]": 31148, "onectin": 31295, "^^^^": 32264, "\u0120reminiscent": 35036, "BUF": 36675, "\u0120Rect": 38893, "bab": 43658, "objects": 25964, "Gre": 37680, "\u0120Teddy": 45981, "\u0120vinyl": 27179, "\u0120triple": 16260, "\u0120vend": 20019, "\u0120guardians": 43069, "Know": 27958, "\u0120serves": 11029, "\u00d0\u00a2": 29714, "\u0120contests": 39858, "\u0120citizenship": 24588, "Oz": 45901, "\u0120supposedly": 24628, "ilib": 9746, "\u0120comparatively": 31381, "356": 25008, "Constraint": 35118, "struct": 2855, "Facebook": 25116, "yna": 45955, "olinergic": 48956, "\u0120temps": 29324, "\u0120Board": 5986, "spirit": 31443, "\u0120cookies": 14268, "\u0120antioxid": 15998, "\u0120images": 3888, "\u0120placing": 15606, "iative": 18168, "*^*": 21237, "png": 8567, "\u0120Greg": 13916, "\u0120plans": 5827, "Most": 10342, "\u0120vaginal": 27457, "\u0120Sheffield": 42894, "Two": 7910, "\u0120Close": 24445, "140": 12434, "\u0120end": 990, "\u0120disorders": 9360, "LEASE": 26084, "\u0120deception": 38426, "\u0120view": 1859, "\u0120bron": 13605, "\u0120justices": 50236, "\u0120Jonathan": 18985, "\u0120persuade": 29720, "\u0120folk": 19365, "being": 11952, "\u0120learns": 33772, "\\])": 3851, "\u0120May": 2552, "IG": 2431, "\u00c3\u00a4m": 18453, "\u0120Hardy": 29944, "\u0120theorems": 39383, "0028": 14833, "nett": 50134, "adays": 23448, "\u0120expert": 6485, "\u0120Associate": 34692, "K": 44, "\u0120streams": 17795, "\u00ce\u00bc\u00ce\u00b5": 18951, "\u0120illustration": 23356, "\u0120Module": 30073, "olas": 16328, "(|": 32959, "\u00e3\u0123\u00b9": 43645, "Boolean": 25035, "de": 615, "theta": 3124, "\u0120flex": 6520, "\u0120Wis": 12051, "\u0120affirmative": 25712, "ogenous": 11426, "Matthe": 38003, "\u0120changed": 4391, "cine": 26406, "Ip": 43539, "\u0120condemn": 25650, "\u0120commenced": 24488, "timestamp": 32549, "}?": 29159, "ME": 5288, "\u0120discourse": 25200, "lex": 1591, "\u0120greatest": 6459, "\u0120coarse": 25319, "\u0120directives": 46904, "elihood": 10202, "\u0120Simpson": 29480, "\u0120published": 3863, "awa": 11415, "\u0120Luc": 10467, "\u0120inhibition": 8638, "\u01202000": 5307, "\u0120Basically": 32415, "cyt": 36824, "\u0120Types": 36975, "\u0120herbs": 27495, "ierra": 21132, "\u0120xx": 35564, "\u0120cavities": 38674, "Se": 3251, "\u0120similarly": 12014, "father": 13453, "\u01201974": 15788, "\u0120Disney": 16590, "arlier": 21551, "\u0120tabs": 28815, "\u0120distingu": 7377, "%--": 38396, "\u0120Estado": 43188, "\u0120Claus": 46846, "\u0120\\\\[": 49550, "agulant": 49815, "anim": 10779, "abad": 23388, "NAM": 28997, "\u01202002": 6752, "\u0120Rptr": 35998, "eng": 1205, "\u0120CLA": 35620, "\u00e3\u0123\u00ab\u00e3\u0123\u00aa": 33403, "\u0120Phillip": 38881, "\u0120separated": 9070, "pective": 4911, "\u0120Subsequently": 24083, "inas": 32121, "\u0120Pete": 26411, "\u0120consumer": 10630, "\u0120peripher": 9164, "\u0120ram": 17653, "\u0120keen": 19497, "\u0120rebut": 30080, "\u00e4\u00b9": 11871, "\u0120museums": 34028, "ATER": 38512, "BUT": 30741, "\u0120Canada": 6144, "\u0120Parks": 31493, "bellum": 38569, "\\\u0103": 38572, "stars": 37146, "checks": 43488, "\u0120tutti": 47567, "\u0120\u0120\u0120\u0120\u0120\u0120\u0120\u0120\u0120\u0120\u0120\u0120\u0120\u0120\u0120\u0120\u0120\u0120\u0120\u0120\u0120\u0120\u0120\u0120\u0120\u0120\u0120\u0120\u0120\u0120\u0120\u0120\u0120\u0120\u0120\u0120\u0120\u0120": 13873, "\u0120Republican": 8786, "\u0120Label": 24527, "\u0120riches": 45092, "378": 25139, ")": 10, "\u0120tonight": 11608, "1953": 40533, "\u0120conflic": 11603, "\u0120318": 33705, "\u0120prominently": 46454, "\u010a\u010a\u0120\u0120\u0120\u0120\u0120\u0120\u0120\u0120\u0120\u0120\u0120\u0120\u0120\u0120\u0120\u0120\u0120\u0120\u0120": 19738, "\u0120stacked": 24982, "Scale": 20359, "\u0120Judgment": 24992, "\u0120avait": 25614, "\u0120incorrect": 13583, "\u0120professor": 11652, "\u0120Chase": 27917, "\u0120powder": 11687, "($_": 32966, "hep": 14341, "ambers": 17688, "\u0120ster": 10335, "21": 1797, "\u00e8\u00a2": 38053, "\u0120disappearing": 42689, "\u0120Hybrid": 42813, "\u0120Tanzania": 45914, "\u0120charter": 26801, "\u0120troublesome": 45991, "MEN": 50165, "\u0120exceeds": 23141, "\u0120vic": 15951, "\u0120Aboriginal": 42053, "\u0120rivers": 21646, "\u0120slips": 42282, "Re": 1785, "imme": 46848, "\u0120Notch": 36788, "\u0120Appe": 7650, "\u0120impacts": 16274, "\u0120Http": 23953, "\u0120heterosexual": 45692, "\u0120stunt": 47765, "\u0120invariant": 13727, "\u0120NSW": 40035, "ates": 684, "\u0120lim": 1579, "\u0120prime": 4335, "\u0120dispatch": 27883, "\u0120printers": 38121, "dataset": 42429, "Moving": 46081, "clin": 47217, "\u0120circumvent": 39256, "fon": 35626, "Emp": 39976, "\u0120combines": 24772, "\u0120inadvertently": 42255, "heard": 28996, "\u0120guessing": 29985, "\u0120optimism": 36970, "urus": 40756, "\u0120Ast": 15123, "\u0120-----------------": 22971, "\u0120nucleotide": 18379, "\u0120\u00c4": 11437, "oles": 3841, "\u0120------------": 6557, "\u0120$\\{": 10809, "earch": 3849, "\u0120Eston": 39863, "\u0120diseng": 44894, "Spect": 38727, "\u0120asc": 9407, "Death": 27888, "\u0120chunks": 30151, "\u0120keV": 33052, "\u0120psycho": 30543, "\u0120mosquitoes": 35995, "\u0120diminish": 37856, "\u0120calculate": 10173, "\u0120EST": 29511, "\u0120governors": 45513, "\u0120Prior": 13036, "\u0120Brig": 20202, "\u0120considering": 7296, "\u0120dermal": 48381, "incess": 15084, "\u0120unemployment": 20549, "\u0120evidenced": 27007, "\u0120internally": 26506, "STITUTE": 47259, "049": 25814, "Through": 18852, "\u0120Super": 6053, "aukee": 28855, "fraid": 9126, "\u0120hun": 8154, "\u0120einen": 27432, "\u0120illumin": 34080, "\u0120presentations": 27228, "uitar": 36567, "Nullable": 44761, "rized": 50065, "\u0120UDP": 48161, "\u0120diag": 6687, "\u0120snd": 23673, "\u0120BSD": 32327, "yss": 37409, "\u00e0\u00a4\u0139": 46069, "psilon": 4277, "\u0120abnormalities": 19147, "\u0120minimally": 34885, "\u0120swamp": 44195, "\u0120dare": 20141, "\u0120marks": 10880, "Shape": 26403, "\u0120contempor": 31915, "waukee": 29298, "\u0120user": 2608, "\u0120mouse": 6521, ".\"": 449, "]--": 7086, "\u0120gap": 8037, "\u0120DE": 6202, "hex": 15741, "\u0120Eck": 45173, "\u0120shroud": 49943, "esty": 14197, "\u0120Warren": 17966, "\u0120penalties": 22414, "}$).": 34942, "\u0120TT": 26909, "\u0120IU": 34618, "\u0120refuge": 12100, "\u0120assembled": 17412, "GAL": 33044, "uj": 10441, "\u0120Aqu": 23231, "\u010a\u010a\u0120\u0120\u0120\u0120": 10072, "\u00a7": 102, "\u0120hug": 15729, "..\\..\\": 25976, "RU": 21642, "isecond": 26054, "\u0120maize": 34714, "\u00d1\u0123\u00d1\u012e": 41501, "leted": 24894, "san": 26125, "\u0120Lands": 43729, "though": 2004, "\u0120bishops": 39180, "Priority": 36933, "marinedrugs": 30371, "AM": 2300, "\u00eb\u012d\u012a": 28162, "Upload": 31483, "icularly": 21883, "\u0120genetic": 6380, "\u0120Nutrition": 32212, "\u0120Makes": 46615, "866": 46639, "posure": 25909, "\u0120Present": 23952, "\u0120enthus": 12754, "\u0120succeeding": 42547, "\u0120finite": 6486, "\u0120Lin": 18077, "\u0120Serv": 7724, "\u0120memb": 35054, "tag": 7784, "\u0120emb": 4443, "athetic": 22811, "_{[": 29650, "irez": 40410, "\u0120discarded": 25665, "\u0120Nort": 19536, "\u0120grading": 35401, "\u0120flexion": 42392, "\u0120patio": 42801, "\u0120fiction": 14459, "drag": 35505, "\u0120HEK": 36225, "\u0120trusts": 45219, "\u0120510": 33930, "\u0120panic": 18829, "\u0120Bomb": 29811, "\u0120Anglo": 33252, "\u0120Gmb": 37816, "oration": 7843, "\u0120disorder": 8984, "\u0120Cuba": 24605, "Loading": 31886, "\u0120sf": 42644, "\u0120scratching": 47348, "oplastic": 21945, "\u0120lun": 19749, "\u0120Herbert": 30806, "apache": 8418, "\u00e3\u0122\u0122": 19409, "\u0120predictable": 28826, "\u0120stronger": 10046, "\u0120Tower": 20610, "\u0120heroin": 29575, "\u0120Presidential": 37029, "\u0120paper": 2929, "\u0120daytime": 37527, "rss": 43053, "\u0120CLAIM": 46533, "\u0120Congressman": 50048, "imir": 23036, "appendix": 50237, "\u0120SA": 12041, "erobic": 33586, "\u0120translating": 42477, "\u0120char": 1018, "\u0120Irene": 47613, "\u0120ballot": 22523, "\u0120Doc": 18589, "676": 29462, "\u0120severed": 43805, "\u0120clearer": 30909, "ITCH": 38283, "ometry": 6213, "\u0120the": 253, "\u0120muddy": 47156, "Capacity": 48506, "\u0120numerous": 7418, "\u0120wash": 14841, "h": 73, "\u0120pall": 23915, "\u0120canon": 31992, "Chris": 27503, "\u0120HashMap": 47523, "\u0120chewing": 41927, "Product": 13443, "cen": 33967, "Credit": 38482, "Perm": 23513, "\u0120negligence": 16355, "ilus": 40014, "offset": 10946, "161": 20664, "\u0120Cliff": 29214, "}}}({\\": 47056, "ectomy": 28857, "targeted": 44490, "ente": 13589, "*****": 46928, "\u0120Distribution": 30313, "ylic": 31252, "\u0120rookie": 29938, "\u0120\u00c3\u0132": 13033, "\u0120trium": 19725, "\u0120LOG": 34032, "\u0120longest": 20088, "\u0120revel": 17347, "\u0120cc": 25215, "))*": 25468, "aving": 3292, ".]": 10943, "\u0120puzzled": 39340, "pressing": 39385, "\u0120colspan": 41002, "iffe": 30908, "ome": 485, "yyyy": 41246, "riage": 5896, "endor": 13047, "\u0120Gy": 20925, "\u0120dengue": 41336, "erra": 30737, "\u0120668": 47633, "ber": 589, "\u0120disseminated": 48313, "aze": 8879, "\u0120evaporated": 48609, "sti": 45994, "\u0120kicking": 29048, "\u0120deadlines": 50123, "Attribute": 11756, "\u0120publishers": 28329, "ortune": 42460, "\u0120assort": 44417, "knock": 48459, "\u00e6\u013e\u012f": 49616, "\u0120Park": 4913, "\u0120achievable": 39941, ".*": 5929, "\u0120supervision": 20446, "cip": 26919, "emplo": 44309, "\u0120270": 22540, "603": 29251, "gos": 44654, "\u0120areas": 3672, "\u0120sudden": 5982, "\u0120scar": 12689, "&=&\\": 24255, "\u0120inequality": 11370, "\u00e0\u00b8\u00b5": 26863, "\u0120lack": 3480, "bracket": 35934, "\u0120pedestrians": 47325, "uties": 47407, "\u0120Website": 25729, "anch": 3903, "andez": 24673, "otional": 29882, "\u0120pursuant": 10376, "ish": 763, "\u0120exercise": 5763, "ropic": 12189, "\u00e6\u0131\u0132": 34671, "\u010a\u0120\u0120\u0120\u0120\u0120\u0120\u0120\u0120\u0120\u0120\u0120\u0120\u0120\u0120\u0120\u0120\u0120\u0120\u0120\u0120\u0120\u0120\u0120\u0120\u0120\u0120\u0120\u0120\u0120\u0120\u0120\u0120\u0120\u0120\u0120\u0120\u0120\u0120\u0120\u0120\u0120\u0120\u0120\u0120\u0120\u0120\u0120": 29162, "substack": 35547, "\u0120doesnt": 36908, "5000": 28306, "QL": 6350, "Shell": 27589, "\u0120roy": 12869, "\u0120Anyway": 28814, "\u00d1\u0122\u00d0\u00b0\u00d0\u00b2": 44532, "Vern": 50126, "537": 42215, "\u0120509": 42400, "\u0120survive": 11883, "\\{": 6921, "\u0120favoured": 46680, "uted": 4525, "\u0120No": 1621, "ocular": 26292, "ION": 2449, "\u0120lettuce": 43170, "\u0120embr": 11949, "\u0120conductive": 19604, "\u0120reader": 9414, "\u0120a\u00c3\u00b1os": 31928, "\u0120coincide": 28588, "Awards": 42452, "\u0120preaching": 43560, "\u0120View": 9182, "\u0120Il": 11090, "ach": 607, "\u0120\"<": 16375, "recogn": 21888, "\u0120Luis": 29989, "\u0120opinion": 4743, "\u0120devoid": 36757, "*\\<": 16160, "ians": 2458, "\u0120NAT": 19689, "Argument": 22388, "\u0120phot": 2359, "218": 22981, "\u0120masks": 25965, "\u0120shoes": 12682, "\u0120association": 5864, "\u00e0\u00b5\u012f": 33695, "FFIRMED": 28696, ")*(": 7672, "outs": 8349, "\u0120agreeing": 33732, "\u0120Tumor": 35288, "\u0120diagnosed": 11245, "-$": 14595, "\u0120neutrality": 41056, "\u0120ChIP": 42898, "\u0120Estate": 22301, "\u0120extreme": 9559, "\u0120lumber": 42859, "Band": 37339, "\u0120Kw": 48601, "asted": 12457, "uddle": 38226, "\u0120prolonged": 16707, "agem": 31646, "341": 28459, "\u0120hace": 42758, "\u0120oversee": 48870, "reck": 17456, "\u0120undertake": 30618, "efficient": 20246, "planes": 32763, "\u0120attainment": 49049, "\u0120droplets": 30244, "plementation": 21857, "\u0120action": 2250, "of": 1171, "\u0120Improve": 30343, "\u0120islets": 48321, "\u0120Avenue": 14216, "nine": 27248, ":\"){": 18031, "\u0120foundations": 27629, "flash": 33390, "\u0120se": 396, "stairs": 15475, "bounds": 35800, "\u0120fiercely": 48423, "cki": 50076, "\u0120\u0120\u0120\u0120\u0120\u0120\u0120\u0120\u0120\u0120\u0120\u0120\u0120\u0120": 3380, "\u0120holdings": 37996, "aligned": 2132, "\u0120Gideon": 49119, "\u010a\u0109\u0109": 988, "Central": 33339, "\u0120GOD": 43360, "\u00e3\u0123\u00aa\u00e3\u0123\u0126": 18757, "\u0120NMR": 19790, "|-": 9973, "\u0120expectation": 15355, "_-": 18914, "amyl": 47162, "anchez": 31432, "\u0120mare": 45048, "\u0120living": 3811, "public": 4387, "evidence": 22432, "Connection": 13457, "222": 18895, "ye": 6683, "sid": 32314, "\u0120sell": 5580, "observed": 45912, "\u0120adds": 11323, "\u0120dismay": 41190, "aph": 9761, "icul": 10152, "\u0120zo": 24615, "\u0120grande": 30421, "\u0120^": 5042, "\u0120Perhaps": 11243, "\u0120Viol": 27398, "10": 740, "la": 4123, "ytics": 27944, "\u00e5\u00a5\u00b3": 40007, "ceeded": 49930, "\u0120write": 3630, "olic": 3422, "\u0120cred": 3552, "\u0120Council": 6456, "\u0120cultiv": 19324, "\u0120Hold": 21476, "\u0120observables": 34658, "\u0120somewhat": 8489, "\u0120stated": 4767, "715": 44941, "\u0120mucus": 47489, "\u0120Nations": 14726, "SOURCE": 30095, "innati": 27153, "eter": 1715, "\u01201969": 16648, "\u012061": 9901, "\u0120doubles": 33478, "\u0120Armed": 34539, "\u0120fibres": 37550, "\u01201901": 40488, "\u0120PGE": 48291, "COM": 9507, "\u0120unnecessary": 15279, "\u0120flares": 49569, "\u00c3\u00a4sident": 49560, "}}}_": 16302, "\u0120378": 38316, "Token": 11200, "\u0120memo": 29054, "DG": 33765, "\u00e3\u0125\u0125\u00e3\u0125\u012a": 38906, "fra": 3804, "\u0120piled": 41902, "\u0120shedding": 43932, "\u0120bases": 14395, "amiliar": 24700, "WT": 16594, "properties": 19402, "reed": 22767, "Po": 8816, "\u0120disputed": 25147, "\u0120rud": 30514, "otherwise": 32240, "\u0120counc": 29910, "CTYPE": 30915, "\u0120FAQ": 35863, "\u0120knit": 44474, "\u0120minima": 46836, "90": 2270, "\u0120Cx": 49050, "glom": 50108, "\u0120fills": 32113, "lee": 14906, "bidity": 16570, "inda": 17662, "uncher": 37733, "Over": 5279, "\u00e7\u0143": 24379, "imate": 2542, "\u00c2\u00a3": 14775, "direction": 21285, "\u0120cavern": 46531, "\u0120HAND": 46683, "\u00eb\u00a1\u013e": 35296, "rosine": 21797, "\u0120litigation": 15561, "athan": 10511, "\u0120intervene": 32014, "\u0120Cauc": 25659, "par": 1148, "uding": 27951, "ricted": 24106, "sharing": 35870, "\u0120deliberately": 21547, "conf": 8259, "\u0120uttered": 41856, "\u0120reproduction": 21068, "she": 6689, "\u0120ALS": 38410, "\u0120meg": 19488, "\u0120Hutch": 41360, "\u00c4\u0135": 15194, "dyn": 42927, "\u0120Manuel": 31903, "\u012003": 17272, "\u0120UV": 12160, "\u0120___,": 44070, "\u0120Generation": 28598, "\u0120commutative": 33796, "MIC": 34611, "\u0120mysq": 49023, "gage": 10662, "\u0120compiled": 18133, "\u0120Football": 15794, "\u0120Was": 12349, "KH": 17768, "\u00e3\u0123\u013b\u00e3\u0124\u012d": 15244, "_{{": 20416, "\u0120\u00c3\u00a1": 21079, "\u00e3\u0124": 1357, "DNA": 8354, "\u0120suspected": 13282, "bul": 9705, "ictional": 15835, "\u0120Sunday": 6926, "\u0120mellitus": 27000, "ribly": 23522, "\u0120passage": 10056, "OVID": 13780, "\u0120delegates": 30679, "VD": 8528, "\u0120remove": 5386, "nea": 21254, "\u0120gesture": 21850, "\u00ec\u012c": 33057, "produced": 36008, "\u00d0\u00b5\u00d1\u0124\u00d1\u0123\u00d1\u0131": 36663, "inf": 2050, "\u0120control": 1453, "\u0120forest": 9741, "idel": 5735, "\u0120tours": 24478, "{(\\": 29890, "\u0120southwest": 31438, "\u0120spacer": 38590, "\u0120ki": 25130, "americ": 40463, "Negative": 41263, "\u0120plates": 10855, "\u0120partitioning": 41463, "\u0120comparisons": 14023, ").)": 42968, "\u0120pad": 13229, "\u0120Mum": 34701, "\u0120aust": 42999, "\u00e1\u0122": 7183, "rek": 18415, "cur": 1915, "\u0120MTT": 43378, "\u0120462": 41517, "oder": 8586, "Active": 16754, "Patient": 31630, "\u0120296": 33723, "pherd": 29359, "\u0120waar": 39964, "\u0120kill": 5159, "\u0120NH": 18020, "\u012001": 14805, "days": 11015, "\u0120moiety": 37772, "\u0120tard": 43596, "Rele": 43682, "\u0120wonders": 28770, "\u0120Rabbi": 46005, "\u0120Haskell": 47262, "late": 12579, "\u0120mant": 18006, "\u0120silly": 19456, "\u0120r\u00c3\u00a9p": 45448, "iples": 7540, "\u01201992": 9748, "scroll": 22860, "\u0120h\u00c3\u00a5": 47898, "Fried": 48259, "\u0120sealing": 24844, "variables": 39448, "ovan": 22053, "\u0120exclusion": 14978, "!_": 26200, "Bern": 31080, "]{": 1019, "RSA": 42903, "vf": 39985, "\u0120Jan": 3344, "\u0120written": 3542, "\u0120oc": 15715, "\u00d8\u00a7\u00d8\u00b3": 46978, "xc": 10587, "\u0120matter": 2647, "\u00d0\u00b8\u00d1\u0124": 7620, "ihad": 26590, "\u0120homotopy": 32866, "FH": 36821, "ORM": 25201, "arine": 43304, "\u0120involves": 8687, "\u0120fractured": 47779, "Team": 25804, "\u0120bottle": 11996, "\u0120Charter": 36729, "values": 8858, "attributes": 26059, "\u0120spons": 11702, "Fan": 49987, "Contract": 35077, "ells": 7042, "\u0120medal": 19358, "\u0120Taken": 27626, "\u0120helm": 31942, "fa": 6855, "\u0120{@": 18073, "\u0120donated": 26837, "\u0120Cameron": 22671, "ienced": 33574, "\u0120Nex": 35575, "\u0120dieser": 41253, "\u0120Miles": 29761, "\u0120fus": 35652, "\u0120SAME": 48378, "\u0120unconventional": 49799, "\u0120ridge": 27563, "\u0120Patch": 45491, "\u0120rgba": 32267, "\u0120testimon": 40572, "\u0120apparently": 8505, "\u0120citrate": 42470, "AIDS": 38281, "\\|": 6087, "\u0120argues": 8219, "\u0120Randall": 43522, "\u0120\u0120\u0120\u0120\u0120\u0120\u0120\u0120\u0120\u0120\u0120\u0120\u0120\u0120\u0120\u0120\u0120\u0120\u0120\u0120\u0120\u0120\u0120\u0120\u0120\u0120\u0120\u0120\u0120\u0120\u0120\u0120\u0120\u0120\u0120\u0120\u0120\u0120\u0120\u0120\u0120\u0120\u0120\u0120\u0120\u0120\u0120\u0120\u0120": 18411, "Format": 10069, "]:": 5218, "\u0120mistakes": 16503, "wen": 15082, "\u0120subscribe": 26302, "\u0120Sherman": 32106, "\u0120signaling": 7601, "\u0120tachy": 38922, "\u0120Way": 10834, "\u0117": 200, "emat": 14359, "ittal": 26490, "\u01200000": 34919, "\u0120existe": 44497, "\u0120Dame": 33003, "Course": 49522, "\u0120Ich": 32185, "selling": 23708, "rendum": 24972, "\u0120coerc": 29323, "\u0120existed": 13164, "\u0120basement": 21135, "\u0120motiv": 15265, "vp": 29035, "biomolecules": 33053, "\u0120Enh": 34129, "\u01201897": 45265, "ieurs": 45715, "\u0120JOIN": 27253, "\u0120stimul": 7328, "isition": 10293, "\u0120520": 34775, "\u0120memor": 16407, "Books": 33877, "\u00e1\u00ba": 9702, "auc": 14827, "\u0120inferred": 22245, "\u0120nontrivial": 37825, "\u0120Malay": 44558, "\u0120\u0120\u0120\u0120\u0120\u0120\u0120\u0120\u0120\u0120\u010a\u0120": 34229, "\u0120Compton": 42928, "\u0120runway": 39486, "\u0130": 225, "\u0120nucle": 3325, "\u0120caspase": 23506, "\u0120worlds": 20490, "\u0120Holt": 44842, "rosis": 11503, "\u0120Christian": 6416, "\u0120achieve": 5115, "\u0120Ray": 10734, "\u0120spor": 24188, "\u0120extrav": 32792, "nad": 45331, "rad": 4614, "itical": 19424, "found": 14541, "\u0120Ara": 39319, "issued": 47401, "\u0120bull": 12156, "\u0120Fear": 32005, "bn": 15453, "BI": 6159, "\u0120realizing": 27017, "\u0120Vehicle": 37614, "\u0120controll": 3661, "\u0120finest": 23476, "\u0120endings": 47834, "\u0120Unable": 48706, "\u0120awaited": 48717, "\u0120207": 25589, "eston": 25103, "\u0120pushed": 10184, "\u0120amplifier": 22742, "\u00ce\u00b5": 3393, "\u0120Success": 22764, "\u0120promotional": 32223, "uo": 26826, "Slice": 33779, "onom": 11168, "\u0120--------------": 16913, "298": 23558, "\u0120peric": 35675, "\u0120unnamed": 42540, "\u0120Addition": 6528, "\u0120teaches": 22332, "\u0120SUV": 36175, "*)": 5627, "eless": 6134, "\u0120Armstrong": 29915, "\u0120hint": 12662, "\u0120exagger": 23668, "\u0120invertible": 42275, "\u0120cerebellum": 44811, "\u0120Crick": 36432, "\u0120promin": 28760, "Eh": 47733, "lew": 47989, "\u0120machining": 48330, "vering": 49332, "\u0120corticosteroids": 49796, "ithe": 37018, "\u00cb": 135, "\u0120automatic": 12077, "\u0120\"\"\"": 12251, "\u0120tum": 3034, "\u0120yesterday": 11066, "ificant": 13907, "eron": 16259, "avern": 38545, "stuff": 41695, "Ch": 1779, "levels": 43836, "Unfortunately": 20810, "\u0120calculator": 43906, "ingham": 17018, "\u0120cunning": 48455, "icum": 45745, "\u0120Pi": 16617, "ISION": 34316, "\u0120psychotic": 49503, "\u0120monomers": 36401, "\u0120Thanks": 9375, "\u0120perturb": 12230, "terson": 30964, "LV": 17173, "\u0120calibration": 18543, "\u0120\u00d1\u0128": 31682, "\u0120furthermore": 33810, "grey": 35579, "\u0120parks": 21952, "atisfied": 33496, "\u0120suburban": 33963, "\u0120yelling": 34553, "\u0120Each": 5815, "endl": 36528, "\u0120apolog": 15251, "PAR": 10845, "\u0120Result": 22195, "\u0120chains": 13178, "\u0120Values": 23409, "1971": 25197, "\u0120absol": 4847, "US": 3016, "\u0120installed": 8038, "\u0120racist": 22198, "\u00e6\u0138\u00b0": 24308, "\u0120entirety": 25983, "{})": 39224, "\u0120pie": 3376, "\u00c3\u0132\u00c2\u00ba": 40413, "gall": 28117, "\u01201000000": 44554, "iplex": 48572, "\u0120Budapest": 50086, "\u0120admiration": 35746, "GS": 10339, "\u0120Petitioner": 18160, "DY": 32201, "\u0120assigning": 34018, "\u0120arbitr": 8086, "\u0120summar": 10405, "strap": 13871, "ancy": 4306, "\u0120superficial": 28019, "\u00e5\u00b0\u0128": 37373, "mes": 6952, "\u0120confisc": 38509, "\u00e8\u012c": 36387, "\u00e4\u00bf": 16818, "'_": 12721, "Republic": 32050, "\u0120palm": 19992, "\u0120intestine": 28741, "\u0120invent": 10242, "\u00e3\u0123\u012a": 19857, "\u0120killing": 9811, "\u0120Interview": 31466, "Ext": 7992, "\u0120420": 30642, "\u0120spam": 29296, "won": 33382, "IMAGE": 35894, "\u0120drying": 24396, "\u0120376": 38516, "\u00ce\u00bf\u00cf\u0127": 8520, "dl": 11830, "CAL": 39350, "NEY": 40740, "\u00e0\u00a7\u0129": 40912, "ple": 713, "\u0120NI": 41177, "\u0120especially": 3340, "\u0120ripe": 33567, "\u0120laundry": 29023, "\u0120dividends": 43503, "\u0120kinematic": 44062, "DEFINE": 46914, "\u0120Hospital": 8896, "income": 20666, "nested": 47628, "ENN": 47791, "\u0120MCL": 48558, "\u0120gymn": 45125, "{\"": 9819, "\u0120neuronal": 16069, "\u0120Uh": 41932, "atase": 42694, "\u0120isinstance": 47337, "\u0120absor": 5862, "\u0120sandwic": 30239, "Frank": 20655, "\u0120microtub": 32918, "OM": 2277, "\u0120accommodate": 18045, "\u0120Irish": 11596, "\u0120MMA": 44149, "\u0120vanish": 29259, "Sales": 43819, "\u0120TO": 5935, "\u0120method": 1332, "\u0120search": 3186, "\u0120stereo": 36167, "\u0120Edgar": 36292, "\u0120Dod": 30354, "\u0120helping": 9073, "\u0120ambiguity": 28931, "\u00c3\u0141": 10278, "\u0120An": 743, "\u0120stimuli": 15374, "\u0120bids": 42863, "glyph": 43428, "\u0120noun": 28407, "cc": 550, "\u0120receipt": 17191, "rating": 38203, "connector": 44396, "\u0120Concord": 47594, "nest": 48050, "\u0120weekends": 29665, "\u0120Vera": 45931, "\u0120Clem": 48930, "rous": 18437, "\u0120engaged": 9583, "\u0120faithfully": 48479, "\u0120Hole": 46386, "CK": 7519, "ia": 571, "insert": 14447, "Soft": 38368, "scalar": 41034, "\u0120Investig": 32668, "otropic": 32801, "\u0120Casino": 41333, "\u0120Coca": 49892, "Nothing": 16440, "\u0120hemodynamic": 43631, "\u00e2\u0122\u00b2": 6097, "\u0120supporting": 8109, "\u0120elabor": 14883, "\u0120Hab": 25181, "Ken": 34960, "\u0120hydrogel": 47475, "vinyl": 37530, "aram": 29982, "\u00e3\u0125\u0137": 24119, "\u0120penetrate": 34165, "demonstr": 48387, "ature": 1177, "loop": 14075, "\\|_{": 17092, "\u0120rebuild": 21550, "igm": 15379, "\u0120nap": 19422, "\u0120honest": 8274, "\u0120readonly": 30261, "\u0120solves": 35910, "\u0120millennium": 45660, ";\\": 7405, "odil": 42369, "jay": 48079, "loaded": 19052, ")_{\\": 30634, "\u0120consoles": 49261, "ON": 1139, "\u0120CSV": 45584, "\u0120acquittal": 49207, "install": 12543, "oultry": 30711, "1973": 22700, "\u00e0\u00b8\u0143": 20934, "\u0120gradual": 26830, "\u0120factions": 41850, "\u0120scler": 49253, "\u0120disruption": 20638, "\u0120282": 35145, "\u010a\u0109": 996, "\u0120prolong": 13455, "\u0120scale": 4311, "\u0120frame": 3665, "\u0120kans": 30687, "\u0120silently": 29387, "\u0120tornado": 34887, "\u00e0\u00a6\u00b0": 38221, "goal": 41881, "Hamilton": 44748, "\u0120parch": 44959, "\u0120convers": 5636, "\u0120volunt": 12228, "\u00a2": 97, "\u0120reached": 4925, "\u0120impose": 16209, ",[@": 22372, "\u00e3\u0123\u0135": 10446, "Thermo": 32245, "\u00db\u0137": 37447, "ruz": 43311, "\u0120bending": 23767, "educated": 45093, "\u0120complain": 17805, "\u0120DAMAGE": 49334, "ento": 32754, "\u0120incomplete": 18464, ".\"_": 38039, "rg": 15164, "month": 7791, "enario": 37343, "\u0126": 215, "Ale": 44163, "\u0120fest": 18066, "nes": 5210, "\u0120zone": 8232, "\u0120inventory": 19543, "\u0120Bas": 8373, "\u0120vas": 16016, "ucleotide": 41890, "hora": 24643, "\u0120continuity": 21815, "ej": 24130, "\u0120boxing": 36607, "++++": 21321, "EW": 37943, "\u0120onClick": 39144, "\u0120decis": 20939, "\u0120Edinburgh": 25990, "\u0120Willi": 4810, "\u0120stochastic": 19191, "\u0120monotone": 49123, "\u0120cats": 16581, "elt": 2585, "maint": 41322, "\u0120unity": 16167, "\u0120Mill": 13134, "inae": 35841, "oti": 49259, "\u0120spines": 49898, "\u0120\u00cf\u0126": 5613, "\u0120scav": 35901, "\u0120Islands": 18708, "\u0120\u00ce\u00b8": 20853, "\u0120strugg": 6103, "\u0120detect": 2736, "\u0120hematopoietic": 37537, "else": 7271, "\u0120artery": 12235, "fuel": 36667, "\u0120MIN": 26127, "\u0120pm": 12920, "wall": 12081, "\u0120LE": 12838, "\u0120Mathemat": 16215, "\u0120WHETHER": 33206, "\u0120Worcester": 41491, "cessive": 49492, "\u0120reactions": 9969, "\u0120steak": 36557, "conscious": 23739, "\u0120Northwest": 29490, "]{})": 45472, "ENCE": 17740, "\u0120Pirates": 48166, "\u0120triglycer": 31236, "\u0120236": 28131, "\u0120214": 25901, "\u0120surroundings": 27762, "ivid": 1741, "ech": 5036, "Arch": 18551, "\u0120Games": 12568, "\u00e7\u0132": 21422, "\u0120opaque": 34350, "odge": 13676, "Director": 29150, "\u0120HA": 15817, "Germany": 37796, "\u0120Charge": 42770, "\u0120Rangers": 29629, "\u0120colonization": 32591, "\u0120Men": 9730, "iously": 8140, "\u0120paintings": 20858, "\u0120contrasts": 39165, "\u0120plots": 14777, "\u0120lp": 39322, "\u0120adjust": 4575, "Python": 27363, "71": 3677, "dom": 3335, "nexpected": 32820, "Visual": 25889, "\u0120exemplary": 34093, "\u0120histology": 40102, "identified": 24491, "hop": 12242, "Sa": 26116, "\u0120youthful": 44098, "\u00e7\u00a9\u00ba": 45249, "\u0120execute": 13194, "prefix": 15445, "ane": 1351, "\u0138\u00b4": 35973, "abbing": 22590, "\u0120Die": 9362, "isible": 16802, "\u0120\u00c3\u013e": 37995, "arf": 45289, "\u0120$@": 45843, "\u0120eigenvectors": 48670, "EU": 30476, "\u0120real": 1524, "Either": 41311, "dust": 49476, "timeout": 23896, "\u0120find": 1089, "rite": 3852, "\u0120rearrang": 33289, "\u0120flying": 12060, "\u0120GSH": 42512, "\u0120Glass": 23219, "ohist": 17384, "\u0120Casey": 32252, "\u01201949": 24344, "\u0120subtype": 27567, "\u0120483": 42998, "\u0120member": 3558, "\u0120gases": 21379, "\u0120Decre": 44398, "\u0120rockets": 39647, "\u0120recruitment": 16510, "\u00e6\u00ba": 36337, "247": 18392, "TypeDef": 49696, "\u0120demol": 25948, "arcoma": 24857, "\u0120take": 1379, "blue": 11863, "\u0120versatility": 49607, "\u0120ES": 15459, "\u0120asymptomatic": 30192, "\u0120precursors": 31744, "\u0120statement": 3908, "\u0120GN": 39157, "421": 42383, "('/": 28199, "\u00e3\u0125\u00b3": 9467, "\u0120ZnO": 45275, "fold": 8089, "stage": 13311, "\u0120negotiate": 26339, "DCs": 49490, "\u0120caus": 2334, "\u0120unlike": 12401, "\u0120draw": 3812, "\u0120moving": 4886, "ucht": 49293, "\u0120brid": 18138, "\u0120island": 8930, "\u0120wage": 16610, "}}^{\\": 16052, "\u0120Dennis": 26062, "dma": 28278, "\u0120strokes": 33518, "\u0120v\u00c3\u00bd": 46292, "ausing": 36314, "\u0120repository": 18491, "\u0120groom": 32083, "\u0120Divine": 35502, "\u0120recreation": 37481, "book": 3305, "erral": 22859, "iker": 24736, "\u0120Zh": 34336, "smith": 37915, "\u0120Broncos": 42613, "\u0120cake": 15221, "\u0120660": 44493, "Been": 46457, "textwidth": 35673, "\u0120Coc": 40825, "\u0120dairy": 22759, "\u0120from": 432, "Bye": 43696, "\u0120516": 40520, "\u0120noon": 23483, "\u0120Cowboys": 40863, "\u0120asset": 15231, "\u0120sanctuary": 35514, "route": 25966, "\u0120Cinc": 26563, "\u0120debris": 21593, "\u0120cur": 1095, "\u0120controversial": 15620, "Total": 12481, "\u0120annihilation": 37290, "\u0120<=": 11049, "GFP": 14160, "\u0120circumstance": 26741, "047": 27706, "\u0120plugins": 28437, "\u0120configured": 15378, "ottu": 29842, "\u0120portrayed": 30804, "\u0120Jeffrey": 30274, "\u0120wet": 9685, "THE": 9707, "\u0120fond": 14753, "stone": 10228, "\u0120compan": 3795, "\u0120defendants": 7159, "MT": 6229, "\u0120Amendment": 10737, "\u0120remed": 16733, "usalem": 16840, "labeled": 22027, "erie": 24763, "\u0120blacks": 26769, "\u0120probabil": 32343, "\u0120orally": 32939, "Append": 33253, "\u00c3\u0131": 24029, "ificance": 40348, "\u0120adorable": 42742, "\u0120Hume": 47094, "\u0120hangs": 37778, "\u0120latest": 6323, "\u0120pup": 16597, "comparison": 47109, "agland": 38324, "\u0120video": 3492, "\u0120elif": 29004, ",[": 17555, "oxin": 32747, "\u0120nn": 48257, "Master": 20133, "Critical": 42993, "\u0120EQ": 44643, "\u0120bree": 20831, "\u00c2\u00a4": 12385, "\u0120Ult": 16036, "\u0120enhancer": 48060, "rone": 29037, "aphyl": 25570, "amer": 13429, "astics": 26245, "691": 35356, "SAM": 43335, "\u0120Likewise": 22300, "\u0120spectra": 9408, "\u0120cushion": 36100, "\u0120policym": 44119, "\u0120epis": 6314, "\u0120Mayo": 42870, "\u0120mam": 28346, "tt": 1440, "\u0120feeling": 5471, "wing": 7706, "\u0120identified": 3636, "796": 35323, "\u0120swell": 41153, "ruly": 46072, "Listen": 19577, "\u0120Ank": 42847, "\u0120Carter": 16863, "Closed": 49791, "\u0120municipalities": 34039, "inic": 17841, "\u0120Gil": 14383, "\u0120contacted": 18203, "\u0120nib": 44768, "Deg": 47068, "\u0120culp": 28824, "\u0120eh": 25685, "\u0120poles": 25284, "AES": 39850, "\u0120coy": 49145, "called": 8890, "\u0120\\-": 10667, "\u0120asthma": 17002, "guard": 18625, "\u0120attachments": 37969, "iosity": 20367, "umines": 27780, "\u012066": 9523, "BUFFER": 34137, "\u0120Myth": 43633, "ulously": 44437, "\u0120Christians": 15600, "\u0120mall": 28974, "Ju": 40700, "Rotation": 46503, "oples": 18898, "\u0120Saul": 42009, "}}$.": 11971, "\u0120upward": 19123, "\u0120CAG": 47609, "\u0120indis": 47531, "\u0120RP": 22806, "\u0120single": 2014, "\u0120LAB": 46184, "\u0120\u00e2\u0122\u0136": 1905, "\u0120Francis": 7980, "|}": 24800, "orov": 42017, "express": 31166, "Akt": 41737, "\u0120ghost": 14972, "\u0120skeptical": 33872, "\u0120phage": 35966, "ober": 2672, "\u0120Bron": 18623, "Among": 19799, "/": 16, "none": 15422, "\u0120improvement": 7756, "\u0124": 213, "\u0120flaw": 19652, "\u0120alternative": 5795, ")^\\": 25690, "\u0120creators": 33801, "\u0120And": 1244, "\u0120testament": 43864, "Linear": 24211, "\u00ed\u0137": 15074, "datab": 35549, "\u0120bapt": 29767, "\u0120salaries": 32510, "\u0120print": 3379, "CTL": 25156, "\u0120isomorphic": 25783, "\u0120Ny": 34154, "\u0120Thames": 47959, "amount": 19581, "ICC": 48856, "\u0120chain": 5931, "\u0120UFC": 31057, "\u0120prescriptions": 37971, "\u0120Electronics": 43754, "Navigation": 38748, "info": 5374, "\u0120additions": 30733, "\u0120ache": 49652, "\u0120Walter": 17650, "\u0129": 218, "Frame": 9270, "\u0120Surgical": 42819, "\u0120some": 690, "\u0120Count": 8240, "\u0120recommendations": 12645, "Gs": 15121, "\u0120jars": 40609, "\u0120Logger": 45708, "\u0120benchmark": 22791, "fair": 25525, "esota": 14058, "\u00e6\u00b4": 30093, "\u0120manifest": 9766, "].)": 31053, "\u0120ADC": 34026, "\u0120endomet": 24360, "\u0120Barber": 48441, "\u0120analogue": 28046, "\u0120blonde": 35932, "\u0120regarded": 12258, "\u0120unrealistic": 46521, "\u0120\u00d1\u0124\u00d0\u00b0\u00d0\u00ba": 24310, "Jon": 25324, "\u0120enroll": 22773, "\u0120peculiar": 19532, "\u0120ones": 4394, "fefe": 25673, "ceptions": 14233, "\u0120cues": 26638, "Stock": 35484, "}:": 17168, "versation": 36381, "harm": 21127, "\u0120occupational": 28155, "\u0120Company": 6487, "aken": 2114, "row": 736, "Maybe": 11175, "\u0120Server": 13331, "\u0120toys": 23908, "projects": 31224, "itty": 38491, "\u0120embro": 32957, "\u0120breathed": 39085, "\u0120equivalently": 39406, "\u0120labor": 5299, "\u0120tents": 40667, "1952": 41083, "yr": 6147, "\u0120Systems": 13869, "\u0120Method": 8378, "\u0120admittedly": 47421, "\u0120$+": 49938, "\u0120connect": 4684, "\u0120Delaware": 25794, "\u0120Shipping": 42855, "\u0120move": 2118, "\u0120probe": 10304, "\u0120Bernstein": 48647, "\u0120Born": 28810, "\u0120firm": 5882, "\u0120Mons": 25093, "\u0120profiles": 10104, "\u0120express": 3890, "\u0120halogen": 40491, "ropri": 12341, "\u0120occupants": 42448, "\\^": 9952, "\u0120classification": 9162, "\u0120meant": 5486, "ello": 6646, "\u0120\u00d0\u0136": 31989, "\u0120Norfolk": 37252, "\u0120rounds": 16334, "Sig": 41787, "queue": 14487, "\u0120Numer": 28161, "\u0120advise": 22276, "\u0120m\u00c3\u00a5ste": 42499, "Aug": 15853, "\u00e5\u012c": 11043, "\u0120STE": 45740, "omin": 5240, "\u0120tenth": 28081, "ophageal": 24816, "\u0120Mont": 7812, "\u0120probative": 42192, "juvant": 46897, "eder": 16478, "examples": 32045, "\u0120coff": 33374, "\u0120architectures": 35615, "_\"": 25233, "\u0120Admiral": 28244, "\u0120INCLUDING": 31877, "\u0120confirms": 23849, "ITAL": 35573, "\u0120HAR": 48302, "\u0120purposes": 6378, "\u0120inaug": 23942, "\u00e6\u012e": 18245, "\u0120Mon": 4200, "\u0120exosomes": 46542, "moderate": 46953, "\u0120quiet": 7107, "metadata": 21552, "emp": 21568, "\u0120Agency": 13677, "\u0120Samples": 26394, "\u0120stool": 32217, "yer": 7885, "endants": 8817, "\u0120Muslims": 16492, "Func": 19774, "\u0120Lenn": 36239, "?.": 29006, "ASK": 14476, "\u0120poultry": 34664, "\u0120Surprisingly": 44156, "\u00d0\u00be\u00d0\u00bf": 18594, "\u0120lung": 6400, "bay": 32442, "\u0120HH": 34765, "umatic": 18266, "\u0120\u010a\u0120\u0120\u0120\u0120\u0120\u0120": 44863, "ensor": 11313, "ende": 9747, "Sender": 47099, "\u00e7\u00bd\u00ae": 28791, "pling": 4906, "\u0120washed": 11974, "\u0120arrived": 7244, "\u0120Heaven": 22758, "\u0120palate": 45238, "international": 48985, "\u0120understandable": 34007, "\u0120emerged": 13082, "inear": 48971, "char": 3615, "\u0120VEGF": 23199, "tten": 38497, "Distribution": 35207, "\u0120Mo": 6956, "icion": 16118, "iour": 30575, "\u0120\u00c3\u00a8": 12187, "VS": 28259, "\u010a\u0120\u0120\u0120\u0120\u0120\u0120\u0120\u0120\u0120\u0120\u0120\u0120\u0120\u0120\u0120\u0120\u0120\u0120\u0120\u0120\u0120": 12826, "picker": 25819, "\u0120Me": 3189, "\u0120porous": 26665, "Filter": 9824, "\u0120\"_": 19292, "uously": 26374, "\u0120taste": 9075, "\u0120assigns": 39360, "527": 45555, "\u0120Raj": 17549, "ue": 489, "nament": 10749, "\u0120profiling": 27866, "\u0120grad": 3805, "hash": 13362, "\u0120decent": 12524, "\u0120adipose": 28721, "Japanese": 25559, "\u0120degree": 4248, "whatever": 38499, "\u0120Belfast": 44867, "\u00e5\u00a4\u012b": 48892, "\u0120\u00c3\u00a9p": 45431, "\u0120sniff": 31505, "\u0120discussion": 5955, "\u0120vendors": 24742, "diamond": 41369, "Chan": 48207, "\u0120replacement": 5407, "Ref": 7676, "GTT": 31275, "\u0120recreate": 48516, "\u00e8\u00a6\u012d": 32020, "\u0120pancreat": 15947, "\u0120Problem": 24016, "\u0120Cable": 38174, "RQ": 48402, "ocre": 49636, "view": 1374, "Photo": 16227, "Player": 19998, "\u0120feels": 9193, "jen": 22289, "\u0120FROM": 10727, "})-": 44564, "curl": 31064, "\u0120Naturally": 44943, "\u0120charities": 45643, "\u0120resemblance": 36199, "\u0120Prol": 46484, "\u0120violence": 7217, "\u0120Pierce": 32042, "\u0120Whitney": 42809, "\u0120Crom": 45010, "\u0120neb": 46135, "GET": 9278, "\u00d0\u00be\u00d1\u0124": 12562, "\u0120literal": 22436, "igi": 33014, "\u0120Acting": 45500, "\u0120Take": 11668, "\u0120diarrhea": 30709, "\u0120antigens": 22240, "building": 22157, "\u0120Compensation": 37309, "\u0120very": 1077, "\u0120449": 40201, "\u0120Vamp": 49324, "\u0120analyst": 23960, "\u0120Out": 6282, "\u0120bites": 38829, "\u0120Strategic": 40456, "ithmic": 29229, "\u0120untouched": 48976, "swift": 36036, "\u0120$-\\": 37329, "\u0120f\u00c3\u00bcr": 13417, "\u0120thor": 9062, "\u0120cut": 2624, "gets": 18145, "\u0120Pie": 27695, "\u0120clarification": 37699, "\u0120pesso": 41837, "elligence": 16032, "\u0120persons": 7732, "\u0120Oste": 49000, "ri": 363, "\u0120acetyl": 27802, "Matcher": 48725, "oh": 1368, "\u0120manip": 9452, "icher": 30373, "\u0120tile": 25087, "ymph": 6011, "character": 17932, "cluded": 4686, "\u0120tranqu": 34131, "^{{\\": 19022, "\u0120condem": 14502, "\u0120differ": 9184, "\u0120mystical": 47955, "Express": 16591, "\u0120context": 3634, "\u0120Campbell": 20163, "\u0120strengthening": 31845, "\u0120etch": 47514, "first": 7053, "\u0120Im": 3173, "\u0120USB": 14914, "}}}$.": 33471, "databind": 38736, "\u00c5\u00a1\u00c3\u0143": 47022, "\u0120appropriate": 4569, "iculous": 16512, "\u0120anthrop": 21698, "but": 2858, "PO": 5964, "\u0120Babylon": 37125, "\u0120ops": 38322, "\u0120bibli": 48137, "\u0120Hu": 16251, "Maria": 44906, "\u0120Rousseau": 48403, "ale": 1079, "\u00e7\u00b1": 26844, "pur": 13182, "\u0120supplying": 28106, "\u0120glare": 40332, "\u0120sacrific": 18501, "\u0120Buy": 22900, "\u0120epistem": 49658, "ulle": 24533, "\u0120meter": 21623, "\u0120\\_[": 27468, "\u0120TLS": 36249, "aura": 38131, "\u0120uniquely": 22506, "ottenham": 48498, "MRI": 22410, "\u0120Baseball": 27141, "Keys": 25076, "\u0120bump": 19496, "linewidth": 25067, "plicated": 37787, "Kim": 27682, "\u0120rheumat": 31747, "typedef": 17743, "=========================": 32640, "MU": 40956, "ITEM": 45129, "\u0120rounding": 46551, "imation": 14508, "aud": 5353, "\u0120walks": 16771, "116": 13210, "Sw": 12455, "\u0120transit": 18622, "\u00d1\u0122\u00d0\u00b0\u00d0\u00bd": 25089, "Magic": 47205, "\u0120shader": 49944, "tti": 26760, "Aust": 16796, "\u0120threatened": 13699, "\u0120iz": 24901, "\u0120irrelevant": 19124, "Ell": 28578, "STD": 34504, "\u0120_\"": 36949, "\u0120bundle": 13204, "\u0120gateway": 28894, "CB": 14922, "\u0120grazing": 42351, "\u0120grids": 42590, "\u0120Preliminary": 46296, "\u0120Vel": 22484, "\u0120conceded": 30245, "\u0120cerebro": 34879, "\u0120pilot": 11572, "\u0120triumph": 23991, "\u0120biodiversity": 40503, "\u0120Quick": 22637, "rub": 18241, "978": 40481, "otyping": 23943, "odds": 8421, "DISCUSSION": 38535, "(!": 20273, "\u0120mai": 24843, "cephal": 25088, "\u0120Director": 9966, "ass": 515, "\u0120valor": 34173, "\u00ef\u00bd": 20422, "\u0120330": 24792, "\u0120Cash": 27020, "izzard": 40304, "\u0120Excellence": 43006, "\u0120org": 4955, "\u0110": 193, "\u0120helpless": 26952, "\u0120Mend": 30521, "530": 38862, "\u0120contingency": 46729, "\u0120thal": 32292, "Rptr": 35386, "\u0120oral": 7946, "coal": 33827, "\u0120refused": 9284, "\u0120apex": 33155, "\u00e5\u0131\u00af\u00e4\u00bb\u00a5": 33018, "\u0120interpretation": 7914, "yes": 9820, "\u0120borderline": 45210, "inia": 41214, "\u0120survivor": 37579, "\u0120slow": 3468, "aan": 16189, "\u00c3\u00aancia": 22091, "\u0120grep": 34096, "ENS": 18041, "ROW": 39326, "plays": 42241, "\u0120menstrual": 46182, "\u0120Bro": 4819, "mares": 44672, "\u0120immersion": 34729, "Europe": 18913, "\u0120CONTRACT": 32833, "\u0120spacetime": 29380, "\u0120silicone": 35651, "\u01201913": 33920, "War": 21082, "\u0120auth": 24896, "\u0120propagation": 18634, "oids": 9448, "uzzy": 25693, "\u0120\u00d0\u00b6": 25705, "Found": 16641, "\u0120angry": 11790, "assa": 25445, "\u0120**": 1401, "\u0120lubric": 27203, "\u0120theories": 11813, "\u0120Schw": 34347, "afety": 33816, "Fu": 42238, "\u0120sehr": 46620, "\u0120KNOW": 33219, "\u00c3\u00a1vel": 46706, "zyk": 44109, "\u00ef": 171, "nn": 9866, "compl": 21013, "\u0120PAC": 31136, "managed": 39196, "\u0120iter": 10040, "Find": 9867, "Autom": 40531, "\u0120full": 2120, "\u0120exerc": 4506, "\u0120PM": 5365, "fit": 8491, "\u01201937": 27598, "Extension": 24057, "\u0120consistency": 15274, "\u0120spleen": 26528, "**": 424, "\u0120Madame": 30979, "iates": 28032, "Food": 32473, "Let": 1466, "sep": 33032, "\u0120caso": 27759, "ption": 2476, "hui": 37942, "\u0120retaliation": 29995, "\u0120frustration": 22014, "\u00e0\u00b8\u00b0": 38063, "(['": 40116, "\u010d\u010a\u010d\u010a\u0120\u0120\u0120": 17293, "\u0120exponents": 41025, "\u0120Async": 49281, "\u0120doubled": 25128, "\u0120peroxidase": 34596, "ge": 463, "\u0120Sit": 27817, "\u0120shrimp": 35423, "\u0120Stats": 48522, "\u0120insulated": 47759, "\u0120Scene": 45258, "\u0120Harvey": 24611, "\u0120).": 13441, "nm": 10602, "uparrow": 24175, "unci": 36637, "\u0120hide": 10507, "VIS": 24375, "\u0120labels": 13301, "\u0120Alb": 21975, "\u0120$-$": 24281, "\u0120adj": 3067, "\u0120granite": 43056, "\u0120tightening": 48594, "\u0120redirect": 21124, "\u0120Rh": 11537, "\u0120packages": 12149, "\u0120docking": 36267, "\u0120revelation": 28423, ")\">": 37916, "\u0120Quantum": 25136, "\u0120aimed": 11205, "\u0120indirectly": 21719, "\u0120dimer": 28686, "ceptible": 44043, "respectively": 49115, "\u0120opposition": 10266, "\u0120Susan": 20222, "resholds": 25316, "ICK": 16539, "\u0120seaw": 45841, "agner": 25823, "istors": 25003, "\u0120Siber": 46634, "\u00e0\u00ae\u0137": 42516, "\u0120particles": 6353, "\u0120443": 34790, "\u0120affili": 12350, "\u00d0\u00b0": 1152, "liquid": 38390, ".\";": 45974, "\u0120cover": 3835, "yi": 28212, "Nav": 14749, "\u0120profound": 15585, "fat": 19397, "\u0120pelvic": 31084, "\u010d\u010a\u0109\u0109": 11459, "\u0120warn": 8276, "FIF": 45306, "\u0120wandering": 31590, "vii": 47963, "\u0120progressing": 49163, "arium": 27601, "\u0120structures": 5289, "\u00c2": 126, "\u00c2\u0142\u00c2\u0142": 2519, "ryption": 18008, "constant": 22174, "\u0120leptin": 37751, "Spl": 37840, "Dynamic": 31535, "\u0120ett": 13096, "\u0120beginner": 43240, "\u0120claw": 44758, "\u00e0\u00b8\u012a": 49151, "\u0120Comic": 43878, ".\",": 17295, "arming": 28456, "\u0120init": 2012, "\u0120members": 2758, "\u00d8\u00af": 9211, "\u0120Ce": 16357, "\u0120Approximately": 36242, "\u0120Particularly": 37664, "\u0120save": 5321, "inton": 8185, "\u00e4\u00bd\u00bf": 22160, "\u0120Opp": 16823, "\u0120designers": 22507, "\u01201850": 38367, "\u0120metrics": 17082, "\u0120neurons": 8512, "fff": 22650, "\u0120drifted": 39147, "\u0120Ox": 10559, "isely": 9299, "\u0120\u0120\u0120\u0120\u0120\u0120\u0120\u0120\u0120\u0120\u0120\u0120\u0120\u0120\u0120\u0120\u0120\u0120\u0120\u0120\u0120\u0120\u0120\u0120\u0120\u0120\u0120\u0120\u0120\u0120\u0120\u0120\u0120\u0120\u0120\u0120\u0120\u0120\u0120\u0120\u0120\u0120\u0120\u0120\u0120\u0120\u0120\u0120\u0120\u0120\u0120": 21336, "\u0120bonuses": 40164, "\u0120scarc": 22888, "\u0120playoffs": 27613, "\"-": 40648, "\u0120antisense": 45632, "EH": 46353, "488": 31362, "aggreg": 46601, "\u0120litres": 47026, "\u0120Marxist": 48641, "nant": 45886, "oven": 13606, "longrightarrow": 18637, "Attempt": 48857, "\u0120Customers": 49627, "\u0120insecure": 46519, "Unexpected": 42747, "\u0120Cellular": 49272, "\u0120dad": 12247, "\u0120scars": 38763, "\u0120germination": 47438, "\u0120vehicles": 9411, "\u0120curled": 38871, "\u0120legislation": 10843, "\u0120NON": 36429, "olded": 28102, "boldsymbol": 5664, "\u0120625": 45451, "\u0120illegally": 30060, "\u0120procedural": 19993, "\u00c3\u0125": 5022, "CNN": 34525, "634": 48419, "TRAN": 37157, "othelial": 13151, "rid": 6992, "\u0120contributes": 17904, "_{{{\\": 22180, "\u0120toner": 28595, "ahu": 20957, "uclear": 13706, "\u0120spectacular": 22936, "\u00e5\u00bc\u0131": 30077, "\u01201973": 15621, "\u0120analy": 3537, "\u0120becomes": 4916, "\u0120favoring": 48065, "\u0120started": 3053, "\u0120lysine": 44620, "rength": 27410, "gay": 48223, "normal": 6320, "\u0120anywhere": 9825, "\u0120hosting": 19355, "ited": 959, "\u0120worldwide": 11762, "acial": 19601, "shaw": 40590, "\u0120laptops": 44310, "DD": 11927, "\u0120dimin": 13064, "\u00c3\u00a9s": 5069, "Loaded": 49473, "rified": 32284, "\u0120dou": 2443, "rystals": 49968, "ople": 879, "chr": 19882, "-----------------": 23380, "itecture": 38413, "verb": 25340, "\u0120contractions": 41465, "\u00cf\u0124": 4733, "feb": 46370, "ucose": 44612, "\u0120Infect": 49078, "Border": 29694, "acet": 12204, "\u012006": 17796, "Expr": 28044, "Feb": 17961, "mented": 16390, "billion": 47116, "\u0120limiting": 14155, "problem": 28872, "\u0120FIL": 32630, "\u0120intimately": 48867, "Page": 10099, "\u0120pursuing": 23453, "WF": 27979, "\u0120embarrass": 15005, "\u0120TGF": 18785, "\u0120Nurs": 30478, "\u00d8\u00a3": 32416, "\u0120pinch": 33161, "\u0120arginine": 45932, "occo": 29012, "hydr": 23889, "\u0120noteworthy": 35092, "Nom": 49191, "\u0120Cardi": 46283, "\u0120Berry": 30014, "--**": 33301, "\u0120Patterson": 36105, "\u0120fibrous": 39751, "\u0120suf": 8806, "ially": 1365, "\u0120Ann": 7359, "\u0120well": 973, "ennes": 41564, "\u0120controlling": 10938, "\u0120\u00e0\u00a4\u00ae": 37500, "\u0120scalable": 44755, "fills": 44849, "\u0120Waste": 48420, "strain": 49292, "OL": 3271, "Seq": 22643, "FP": 7073, "1914": 50212, "\u0120brewing": 40436, "\u0120radiotherapy": 26773, "mc": 17475, "\u0120s\u00c3\u00b3": 27884, "\u0120weighs": 40581, "Rating": 46464, "++]": 47552, "1007": 31182, "\u0120exempl": 17449, "\u00e1\u00ba\u00a5": 37088, "\u0120hiking": 33061, "\u0120wearing": 9398, "Pet": 29764, "\u0120believer": 44715, "\u0120chef": 26540, "\u0120Kaiser": 41867, "\u0120stems": 23880, "\u0120symplectic": 35637, "entes": 36836, "863": 39948, "bund": 45268, "etics": 11665, "\u0120their": 616, "\u0120Defence": 32831, ")];": 46462, "\u0120angels": 29828, "\u0120parasite": 25027, "\u0120Theme": 45551, "pmed": 46552, "\u0120veil": 34378, "mean": 10722, "protobuf": 30257, "\u0120fain": 46947, "\u0120tong": 12386, "\u0120buck": 12433, "\u0120preg": 28376, "\u0120stiffness": 26370, "\u0120liberal": 12773, "Axis": 30056, "formation": 1248, "FUN": 17164, "vable": 17254, "parameters": 22041, "\u0120signatures": 20076, "acency": 43850, "\u0120sheets": 14526, "\u0120efect": 48636, "bbie": 48036, "\u0120position": 1899, "overs": 12239, "kw": 20168, "\u0120diameter": 9080, "filling": 26317, "\u0120contextual": 33876, "\u0120septic": 37334, "entary": 38285, "kim": 42686, "ielsen": 37172, "\u0120BIG": 39733, "ystem": 2468, "arbit": 45749, "\u0120equality": 13919, "\u0120Lafayette": 43889, "\u0120Farmer": 49146, "\u0120merits": 16108, "establ": 15425, "\u0120traps": 30678, "\u0120longing": 40484, "\u0120https": 5987, "\u0120Joey": 40794, "icas": 42888, "699": 49227, "\u0120604": 46771, "cellular": 26011, "\u0120therm": 5461, "\u0120drank": 27215, "\u0120die": 3150, "END": 8112, "54": 3439, "\u0120participation": 11497, "oplast": 43040, "\u0120coun": 2258, "\u0120giving": 4933, "\u0120talking": 5015, "IDs": 31724, "\u0120pac": 19162, "\u0120Basketball": 40751, "\u0120@": 1214, "\u0120Player": 20929, "EN": 1400, "\u0120tastes": 27491, "\u0120Illegal": 39562, "\u0120stacks": 34577, "Wang": 31061, "\u0120Went": 50026, "\u0120Serum": 30028, "ropy": 10144, "\u0120object": 1789, "\u0120close": 2810, "\u0120administr": 7255, "\u0120mountains": 14700, "\u0120refractive": 32450, "\u0120vad": 46832, "Force": 30579, "\u0120Anc": 49546, "\u0120against": 1411, "Nobody": 30213, "\u0120Crew": 43158, "bourg": 32620, "posted": 50096, "\u0120DAPI": 40987, "\u0120pharmaceutical": 19267, "\u0120said": 753, "\u0120conclusion": 6452, "adren": 31211, "8859": 45295, "\u0120unpredict": 29444, "fun": 2337, "\u0120Typical": 40445, "Leon": 44514, "Comb": 26180, "\u0120felon": 48935, "\u0120replay": 44864, "\u0120functor": 27259, "\u0120stripping": 42922, "\u0120equations": 7424, "\u0120Herman": 41087, "\u0120Floyd": 41931, "\u0120takeover": 48896, "bed": 3026, "oucester": 47949, "\u0120toasted": 49398, "\u0120insurers": 42091, "\u0120garbage": 22630, "\u0120Own": 20659, "\u0120jurisd": 6396, "ocolate": 12049, "fast": 7957, "ent": 290, "estival": 9607, ")),": 9679, "Best": 17277, "\u0120knowledge": 3640, "\u0120railroad": 23859, "\u0120Yale": 27709, "\u0120narcotics": 41815, "AFP": 42382, "\u0120spinach": 42154, "\u0120incarcerated": 44099, "\u0120restraint": 28891, "\u0120minute": 7017, "\u0120begg": 28332, "RG": 32646, "\u0120erupt": 30900, "\u00d9\u012a\u00d9\u0128": 34606, "\u0120Experiment": 28111, "our": 454, "\u0120arsen": 36151, "\u0120converse": 42810, "Come": 8380, "\u0120Bose": 43513, "ds": 1397, "wedge": 12707, "\u0120recurrent": 18902, "\u0120Independent": 20911, "prints": 21937, "\u0120NPC": 37662, "angles": 19236, "apter": 3758, "anting": 25841, "\u0120PPAR": 33002, "\u0120deleterious": 42019, "jobs": 44144, "\u0120mint": 32995, "\u0120precedence": 49280, "\u0120525": 38888, "\u0120Controller": 31555, "\u0120sectors": 19465, "\u0120clashes": 45880, "static": 4659, "\u0120outside": 3345, "\u0120anterior": 13235, "Row": 10990, "hydrox": 31810, "\u0120PER": 23564, "\u0120ROB": 47079, "assign": 28704, "\u0120sung": 29502, "\u0120preempt": 36588, "\u0120Making": 24709, "\u0120cites": 28070, "==============": 26446, "CUSSION": 28175, "\u0120Apollo": 34197, "\u0120conceal": 26037, "\u0120Tris": 27989, "\u0120sustaining": 38933, "\u0120Course": 29746, "\u0120horiz": 7627, "\u0120Def": 3366, "\u0120\u00f0\u0141": 22692, "\u0120paw": 44802, "\u0120compared": 2429, "tbl": 12749, "ENC": 20712, "\u0120mins": 29202, "\u0120564": 45421, "\u0120grabbing": 37301, "\u0120oblique": 46524, "\u0120followers": 18409, "\u0120flipping": 46899, "\u010a\u0120\u0120\u0120\u0120\u0120\u0120\u0120\u0120\u0120\u0120\u0120\u0120\u0120\u0120\u0120\u0120\u0120\u0120\u0120\u0120\u0120\u0120\u0120\u0120\u0120\u0120\u0120\u0120\u0120\u0120\u0120\u0120\u0120\u0120\u0120\u0120\u0120\u0120\u0120\u0120\u0120\u0120\u0120\u0120\u0120\u0120\u0120\u0120\u0120\u0120\u0120": 36411, "))/((": 44306, "rypted": 20814, "\u0120condu": 24911, "\u0120Bake": 43109, ".$": 10506, "HO": 23435, "\u0120maiden": 42358, "olve": 3247, "PREFIX": 41464, "\u0120Wat": 11327, "\u0120139": 15470, "379": 24880, "vez": 29350, "\u0120CRISPR": 42223, "\u0120port": 2245, "\u0120jed": 23530, "lets": 6639, "\u0120tourism": 26742, "cx": 33060, "\u0120Pennsylvania": 11637, "\u00e2\u0122\u00a6.": 19639, "\\]]{}": 29013, "midt": 23533, "zym": 5228, "\u0120grav": 7462, "\u0120boot": 7491, "\u0120Four": 7874, "\u0120Palestin": 14198, "\u0120frustr": 15052, "\u0120Pin": 23466, "]{}.": 19181, "environment": 20034, "Law": 24441, "pb": 15656, "\u0120relig": 4607, "\u0120detox": 40472, "ont": 834, "\u0120Clause": 26377, "\u0120elic": 24021, "\u0120optics": 35353, "\u0120csv": 43153, "\u0120Hew": 44990, "th": 394, "\u0120Throughout": 28786, "\u0120planned": 9355, "uters": 15807, "CRE": 15718, "\u0120reactivity": 29605, "\u0120fleet": 18500, "\u0120plag": 32929, "\u0120When": 2091, "\u0120Year": 10519, "\u0120Boh": 39878, "\u0120costumes": 37635, "ips": 2824, "\u00c2\u00b8": 11466, "\u0120visualize": 31986, "opian": 40113, "\u0120Scan": 44019, "084": 46969, "\u0120\u00ce\u00ba\u00ce\u00b1": 18383, "\u0120Claire": 31231, "qquad": 9315, "NSString": 26648, "\u0120urgently": 45163, "\u0120waves": 10212, "\u0120genetics": 30222, "\u00ce\u00b3": 7072, "0040": 31119, "\u0120Reynolds": 27523, "\u0120Cultural": 31075, "\u0120notify": 24651, "\u00ec\u0137": 33104, "gerald": 39277, "\u0120444": 37688, "jer": 28133, "OND": 28104, "zag": 47482, "\u0120motions": 14462, "\u0120adoles": 13275, "\u0120Orche": 35075, "\u0120126": 17574, "\u0120cath": 22594, "\u0120doctr": 34587, "urane": 49219, "\u0120Ass": 2903, "tml": 10842, "\u0120tread": 29134, "\u0120immediate": 8993, "\u0120{},": 30744, "Registry": 36169, "deriv": 46229, "\u0120Sho": 29264, "\u0120starting": 4983, "\u0120\u00ce\u00b5\u00cf\u0122\u00ce\u00b9": 49929, "\u0120System": 4155, "\u0120400": 9166, "stylesheet": 23745, "oplasty": 33470, "\u0120Ne": 3532, "\u013a": 235, "\u0120propose": 12661, "\u0120cf": 21194, "certain": 33455, "\u0120metaphys": 33012, "\u0120effected": 37099, "=\\\"": 21655, "\u0120subsequ": 4728, "\u0120\u00d0\u00b1\u00d1\u0125\u00d0\u00b4": 39412, "\u0120Publishers": 41486, "\u0120Lawson": 48126, "\u0120men": 1821, "\u0120bearing": 12206, "jah": 22577, "\u0120axons": 41382, "Mirror": 43708, "apped": 6965, "\u0120stretching": 23148, "riterion": 41634, "\u0120depos": 8563, "Period": 35159, "\u0120investments": 18900, "gin": 6058, "verex": 13600, "\u0120plantation": 45051, "\u0120credentials": 23820, "icode": 18969, "\u0120fellow": 7715, "\u0120parental": 17087, "\u0120grooves": 41339, "oxylin": 41713, "Define": 36906, "urope": 2737, "umn": 3068, "wid": 5392, "sample": 16848, "\u0120reign": 19485, "\u0120PROC": 25717, "\u0120Two": 5761, "\u0120slim": 27973, "\u0120appellate": 16939, "\u0120calories": 24692, "\u0120constit": 3598, "\u0120Combining": 39369, "\u0120Barnes": 28852, "\u0120faulty": 40249, "\u0120stemming": 45030, "ITED": 12663, "\u0120wages": 17575, "\u0120limbs": 24601, "\u0120returned": 4895, "\u0120Bon": 11228, "\u0120Pakistani": 34538, "\u0120competence": 30281, "Professor": 41390, "\u0120acute": 7928, "\u0120overwrite": 50029, "\u0120\u0120\u0120\u0120\u0120\u0120\u0120\u0120\u0120\u0120\u0120\u0120\u0120\u0120\u0120\u0120\u0120\u0120\u0120\u0120\u0120\u0120\u0120\u0120\u0120\u0120\u0120\u0120\u0120\u0120\u0120\u0120\u0120\u0120\u0120\u0120\u0120\u0120\u0120\u0120\u0120\u0120\u0120\u0120\u0120\u0120\u0120\u0120\u0120\u0120\u0120\u0120\u0120\u0120\u0120\u0120\u0120\u0120\u0120\u0120\u0120\u0120": 26625, "\u0120writer": 8406, "\u00e0\u00b8\u0136": 35071, "\u0120mourning": 43841, "\u0120sig": 9788, "\u0120flat": 6507, "\u00e3\u0123\u0139\u00e3\u0123\u0141": 15124, "\u0120atypical": 34162, "*~*": 11881, "PECT": 16370, "\u0120lamb": 24082, "\u0120lasers": 37412, "Squ": 44824, "\u0120Getty": 21902, "\u010a\u0120\u0120\u0120\u0120\u0120\u0120\u0120\u0120\u0120\u0120\u0120\u0120\u0120\u0120\u0120\u0120\u0120\u0120\u0120\u0120\u0120\u0120\u0120\u0120\u0120\u0120\u0120\u0120\u0120\u0120\u0120\u0120\u0120\u0120\u0120\u0120\u0120\u0120\u0120\u0120\u0120\u0120\u0120\u0120\u0120\u0120\u0120\u0120\u0120\u0120\u0120\u0120\u0120\u0120\u0120\u0120\u0120\u0120\u0120\u0120\u0120\u0120\u0120\u0120": 11261, "\u0120healing": 13255, "Menu": 14324, "\u0120rotary": 28920, "inet": 7795, "\u0120Henry": 8966, "\u0120exhausted": 20802, "genes": 22422, "\u0120Dirac": 24739, "\u0120spontaneous": 17046, "\u0120desp": 26882, "\u0120detachment": 36832, "rio": 14319, "\u0120cous": 15373, "ista": 8727, "avage": 16476, "\u0120synerg": 26455, "\u0120allocate": 29211, "\u0120\u00d0\u0142": 32082, "\u0120conquered": 41549, "\u0120Richardson": 28345, "\u0120waist": 18106, "\u0120deprive": 43477, "\u0120concedes": 44184, "Uniform": 44804, "\u0120baths": 45731, "\u0120gj": 48753, "\u0120delaying": 47308, "\u0120predictors": 23477, "380": 24137, "\u0120haz": 12052, "rel": 1661, "\u0120wit": 19311, "\u0120countless": 23499, "\u0120tough": 10458, "\u0120derivative": 4309, "\u0120DMA": 30143, "after": 6438, "\u0120220": 18881, "\u0120drastically": 31063, "\u0120slap": 37551, "\u0120anything": 2712, "]{}[": 42274, "\u0120irreversible": 38378, "\u0120emailed": 48325, "\u0120biggest": 5962, "\u0120une": 6987, "\u0120Moreover": 5076, "March": 18489, "alous": 19357, "ists": 1346, "\u0120Hz": 14878, "iphatic": 48629, "ishly": 41524, "\u0111\u0103": 33059, "\u0120Hood": 33831, "ored": 2149, "\u0120aren": 6403, "\u0120revenue": 11784, "\u0120storage": 5718, "ADD": 19873, "\u0120inhibits": 21425, "\u0120crushing": 37625, "\u00e3\u0123\u00a8\u00e3\u0123\u0126": 26594, "\u00e0\u00b9\u0123": 40455, "\u0120ugly": 19513, "\u0120darker": 28170, "\u0120Py": 8462, "jpg": 11368, "\u0120interconnect": 34661, "arman": 36687, "af": 2320, "em": 358, "ammat": 6710, "\u0120Athe": 19705, "These": 6872, "\u00cf\u0126\u00ce\u00b1\u00ce\u00b9": 30656, "\u0120\u00c3\u0123": 36201, "\u0120mills": 47452, "().": 5023, "\u0120injection": 8829, "\u0120newsletter": 25144, "\u0120governance": 25978, "\u0120Shepherd": 44452, "dAtA": 45581, "\u0120Beau": 42224, "\u0120dal": 26932, "\u0120On": 1623, "\u0120pom": 31204, "\u0120man": 637, "374": 24562, "\u0120CLE": 39597, "\u0120anomaly": 30207, "arth": 5401, "\u0120Syl": 28612, "\u0120(@": 12626, "ymmetric": 25562, "Why": 4967, "295": 22270, "individual": 27276, "\u00c3\u00a9d": 15949, "omi": 21206, "\u012037": 5345, "\u0120colleg": 18841, "\u0120Nicole": 37930, "IGF": 48345, "\u0120Be": 2325, "\u0120hungry": 18254, "ld": 392, "Js": 38156, "Movie": 48157, "ults": 3628, "ivos": 35860, "\u0120tho": 37152, "\u0120367": 36768, "triangle": 24269, "\u0120quartz": 40664, "eligible": 43851, "\u0120churn": 43132, "ales": 2339, "\u0120defin": 3029, "onse": 1910, "\u0120inability": 19297, "\u0120gallery": 19718, "\u0120Qu": 3277, "dess": 22192, "\u00e6\u0140\u013e": 26354, "Mah": 30507, "rail": 38017, "ackage": 1627, "\u0120expresses": 30599, "otoxin": 37084, "ard": 472, "\u0120luminosity": 20545, "\u0120mur": 4682, "\u0120plas": 26507, "\u0120inherently": 26557, "\u0120pol\u00c3\u0143": 20730, "\u0120Chambers": 40972, "\u00e8\u00bf\u0136": 47397, "estock": 26356, ".\"\"\"": 46289, "\u0120philos": 7207, "ennis": 13659, "Hen": 22930, "\u0120Description": 11451, "\u0120review": 2278, "Opt": 13967, "\u0120symmetry": 10377, "\u0120scared": 16060, "\u0120Exchange": 18517, "----------------------------------": 33250, "\u0120organizations": 8889, "\u0120surrounded": 13750, "rax": 31097, "\u0120Hos": 42449, "\u0120channel": 5048, "itars": 45712, "\u0120iterator": 28823, "ril": 21704, "His": 8389, "iciency": 24485, "ito": 7067, "itin": 27609, "ership": 4249, "filter": 10978, "meg": 33373, "\u0120GPU": 24720, "\u0120pra": 9791, "$^{": 15667, "\u0120perfusion": 27651, "\u0120100": 2233, "329": 22011, "validation": 29599, "\u0120Brent": 34819, "adoop": 36700, "eric": 6555, "addam": 39122, "rile": 25007, "\u0120repro": 41543, "Cut": 28512, "\u0120conical": 47233, "\u0120\u00e0\u00b4": 48807, "})^": 21161, "\u0120location": 4328, "                        ": 50254, "ever": 972, "\u0120tailored": 27846, "478": 31819, "pitch": 45935, "highest": 49842, "}]$": 41604, "forced": 15189, "\u00d0\u00b0\u00d1\u0124": 7065, "\u0120\u00c3\u00b3": 49216, "\u0120carcinogenesis": 47355, "\u0120Iss": 17956, "\u0120starring": 28193, "\u0120GDP": 24820, "\u00d0\u00b4\u00d0\u00b5\u00d0\u00bb": 45578, "\u0120multiplic": 30840, "\u0120Gavin": 35307, "Plaintiff": 19056, "\u0120fitting": 13532, "\u0120Motor": 18521, "\u00d0\u00b5\u00d0\u00bd\u00d0\u00b8\u00d1\u0131": 22625, "\u0120toast": 30631, "\u00c3\u00a7o": 31277, "\u010a\u010a\u010a\u010a\u010a": 8863, "\u0120Loop": 32057, "ffiti": 47525, "\u0120bid": 12246, "\u0120archive": 21429, "\u0120blew": 24294, "\u0120Forward": 25956, "\u0120W": 411, "\u0120returning": 10884, "\u0120nonzero": 28078, "\u0120pest": 32409, "\u0120Burns": 32574, "MW": 35669, "idy": 36706, "\u0120oocytes": 36805, "176": 17184, "\u0120incarn": 40553, "\u0120Kit": 12418, "211": 17605, "\u0120[[": 8605, "scill": 9477, "\u0120meaning": 4495, "\u0120\u00ce\u00b3": 13850, "\u0120gravitational": 18924, "0021": 39060, "\u012051": 8319, "\u0120benz": 21957, "\u0120dominance": 26447, "l\u00c3\u00a9": 44271, "IZE": 38517, "\u0120286": 32526, "\u0120Arabidopsis": 48665, "lookup": 26178, "ymp": 43768, "ORD": 8242, "\u0120myosin": 48114, "eten": 25724, "\u0120trilogy": 47921, "\u0120ruling": 10362, "Original": 25494, "sized": 10306, "Pack": 28794, "\u0120Allied": 32683, "\u0120GitHub": 34644, "\u00c3\u00bcr": 8824, "113": 14322, "uelle": 43737, "\u0120Chan": 26177, "\u0120sway": 26740, "walks": 45547, "skin": 36861, "\u0120cov": 9383, "Atl": 34944, "\u0120Pour": 27808, "ofib": 40034, "node": 6219, "\u0120Montgomery": 27438, "asone": 38187, "PLL": 42690, "drug": 34266, "\u0120urea": 32739, "\u0120Little": 11573, "itt": 770, "245": 19490, "handed": 22124, "\u0120gray": 11978, "istered": 25462, "\u0120depolar": 39516, "xsd": 18728, "\u0120incubation": 15685, ".^[@": 10174, "\u0120pose": 16753, "645": 25654, "\u0120crushed": 24983, "asms": 31809, "---------------------": 22873, "Harry": 33244, "\u0120Facts": 37351, "\u0120downs": 37616, "\u0120inflicted": 39723, "widget": 14778, "\u0120poco": 42592, "\u0120199": 1749, "\u0120Info": 28730, "polit": 29486, "\u0120competitors": 21607, "\u0120battling": 41453, "            ": 50266, "\u0120prevalent": 21270, "\u0120strands": 30450, "accharides": 35679, "\u0120While": 3900, "\u0120correl": 3411, "\u0120kh": 26856, "\u0120brows": 22931, "\u0120peri": 24109, "\">&": 31841, "\u0120lleg": 37568, "\u0120Origin": 38356, "Opp": 42153, "\u0120tell": 2028, "notification": 42942, "man": 1342, "\u00e0\u00a4\u00ae": 32191, "anced": 3086, "egin": 1956, "helf": 48164, "rieved": 35571, "arette": 17395, "\u0120Teaching": 45287, "Excellent": 45441, "notations": 42788, "\u0120zur": 24499, "sdk": 30872, "weed": 31108, "mil": 22009, ").](": 17981, "\u0120percentages": 26026, "\u0120X": 1594, "covery": 17708, "sc": 1026, "\u0120Err": 9717, "RR": 14253, "bis": 24000, "\u0120\u00c2\u00ab": 7539, "URN": 24790, "\u0120Getting": 27669, "ember": 2037, "flat": 22829, "Fall": 37327, "\u0120RMS": 39250, "olid": 9528, "\u0120live": 3153, "\u0120coating": 14037, "option": 7872, "\u0120PU": 16315, "}$-": 15728, "\u0120White": 5219, "esch": 21099, "\u0120prey": 21794, "\u0120expense": 14247, "duced": 23747, "\u0120resear": 29905, "\u0120OT": 24417, "\u0120BN": 35602, "ept": 35931, "\u0120eclipse": 36697, "Src": 30118, "Manager": 8224, "OPLE": 34603, "\u0120endure": 30565, "\u00d0\u00b5\u00d0\u00ba\u00d1\u0124": 39286, "\u0120firefighters": 45399, "\u0120diam": 45285, "\u0120412": 35771, "hidden": 19057, "\u0120-*-": 45180, "\u0120Snow": 18724, "0019": 33416, "Iterator": 22782, "\u0120gust": 30942, "\u0120headed": 12860, "ec": 886, "\u00c2\u00b1": 3069, "\u0120wireless": 11744, "\u0120percutaneous": 41715, "\u0120Michel": 16833, "rice": 23804, "\u0120performers": 34983, "\u0120infringement": 29157, "\u0120Mur": 8524, "turn": 14077, "\u0120Construct": 35806, "cats": 38718, "\u0120Dart": 39967, "\u0120clones": 21825, "\u0120gripped": 43176, "poor": 31943, "\u0120administrator": 23121, "aban": 23818, "oren": 15077, "\u0120battle": 6680, "country": 18362, "1991": 14209, "\u0120constitutionally": 38704, "\u0120nella": 39814, "\u0120Ak": 14181, "\u0120addiction": 22103, "ype": 1692, "\u0120Open": 7489, "\u01201966": 19213, "insula": 23619, "\u0120certainly": 5604, "\u0120determinants": 29647, "\u0120acyl": 40281, "\u0120activist": 22531, "\u0120deportation": 36759, "\u0120\u0120\u0120": 341, "\u0120Providence": 35258, "Input": 8982, "engine": 15179, "dream": 44266, "\u0120communism": 48709, "shared": 18867, "\u0120seriousness": 42558, "agt": 49394, "\u0120Asia": 10497, "0100": 28949, "\u0120NaN": 32694, "Sched": 37110, "itious": 33258, "}.\\": 23516, "\u0120blur": 29017, "Mit": 34967, "\u0120slave": 15945, "534": 45225, "doc": 7152, "\u0120{}": 12166, "Dark": 29285, "ne": 570, "\u0120atrophy": 34512, "SESSION": 44405, "se": 339, "office": 30496, "\u0120sten": 24950, "\u0120motive": 23778, "\u0120Material": 17724, "\u0120partly": 13730, "ulses": 42443, "ary": 552, "\u0120conservatives": 28963, "\u0120recommends": 32636, "oug": 529, "Browser": 34228, "\u0120neutral": 9238, "\u0120flame": 21253, "\u0120girlfriend": 19609, "\u0120\u00c3\u00b6ver": 39966, "\u0120refresh": 22906, "ropol": 18427, "\u0120$[": 9793, "unctive": 28816, "SS": 3528, "\u0120Neo": 40989, "emer": 47411, "\u0120independ": 7365, "\u0120NC": 11248, "\u0120Lewis": 13054, "ahren": 39114, "\u0120\u00d0\u00bf\u00d0\u00be": 17008, "uv": 8962, "\u0120Mine": 27288, "\u0120quenching": 44324, "oi": 10986, "\u0120hole": 7793, "\u0120exh": 26004, "\u0120processors": 26967, "quarter": 35443, "bot": 12042, "\u0120Plain": 38602, "ctions": 960, "\u0120efficiency": 6733, "\u0120ON": 8160, "adi": 11282, "\u0120pa": 1349, "duration": 27076, "__>": 36893, "erville": 43382, "wu": 44217, "\u0120prominence": 44373, "\u00e3\u0122\u0130": 45863, "\u00e2\u0122\u0133": 48433, "author": 7582, "\u0120auditor": 41740, "sub": 2377, "\u0120coconut": 26770, "\u0120CLASS": 28085, "criptions": 28756, "\u0120Hyde": 42703, "Custom": 13510, "\u0120Turks": 47563, "\u0120Continental": 33911, "\u0120favorites": 30740, "NY": 20604, "\u0120MgCl": 49220, "\u0120Javascript": 34619, "\u0120hydro": 4101, "\u00e3\u0124\u0126": 21918, "\u00e7\u013f\u0122": 45111, "\u00e9\u0139": 20616, "\u00d0\u00b8\u00d0\u00ba": 18778, "\u0120tant": 22602, "nucle": 29371, "\u0120\u0120\u0120\u0120\u0120\u0120\u0120\u0120\u0120\u0120\u0120": 1932, "\u0120abuse": 7242, "pected": 5344, "\u0120susceptible": 16931, "\u0120O": 473, "\u0120commitment": 11847, "cha": 13420, "\u0120SK": 18460, "\u0120willingness": 24741, "ractical": 26080, "Chain": 26268, "\u0120meanings": 30460, "chrome": 23079, "\u0120person": 1436, "\u0120punish": 21854, "\u0120qPCR": 31855, "\u0120kindness": 28426, "omonas": 31911, "full": 11546, "ordin": 29664, "pop": 9576, "versible": 31675, "\u0120preponderance": 37158, "\u012087": 11422, "////////////////////////////////////////////////////////////////": 37446, "\u00ce\u00bcM": 26130, "ableView": 38375, "iologic": 39390, "\u0120squeezing": 43464, "\u0120&$": 44428, "\u0120rubbed": 32089, "\u0120shootings": 42509, "\u00e3\u0124\u00b5": 31173, "warm": 44041, "erala": 44191, "\u0120celery": 44699, "\u0120fell": 6497, "\u0120motto": 45820, "\u0120Biomed": 48465, "\u0120modify": 10007, "ICAg": 49316, "\u0120CURIAM": 34319, "\u0120/></": 29972, "components": 22127, "lived": 27379, "rolog": 9490, "ichte": 38957, "\u0120Freud": 30435, "\u0120finer": 40259, "membrane": 27313, "\u0120Conse": 40764, "\u0120Bit": 10210, "urized": 40182, "\u0120reside": 28932, "\u0120startling": 42390, "\u0120lists": 10894, "taken": 42533, "Large": 31727, "\u0120Aut": 5271, "mitted": 3004, "Agent": 28172, "\u0120luxurious": 42570, "gs\u00c3\u00a5": 39427, "\"}](#": 39083, "\u0120\u00ce\u00bd\u00ce\u00b1": 19073, "\u0120$('.": 40288, "\u012035": 4791, "\u0120reviews": 10123, "\u0120numb": 39856, "inating": 8779, "\u0120tumorigen": 37486, "\u0120scrutin": 43668, "warn": 30289, "abella": 43814, "atonin": 44771, "\u0120Suzuki": 47848, "illi": 3370, "\u0120Ramos": 50218, "great": 17124, "\u0120fog": 23010, "\u0120creative": 10995, "GREEK": 34971, "\u0120asymmetric": 26640, "ices": 1271, "\u00e2\u0122\u013f,": 7521, "\u0120Move": 17097, "\u0120admits": 19943, "\u0120seeded": 27677, "\u0120engineered": 28136, "\u0120DC": 9087, "Software": 31495, "Completion": 49767, "\u0120poss": 1290, "rb": 13041, "Dist": 14178, "\u0120opportunities": 9091, "\u0120javax": 24296, "416": 35630, "ibrated": 50250, "olution": 2241, "\u0120sharp": 9479, "\u0120cz": 37441, "Everyone": 23631, "\u0120portable": 18001, "ical": 474, "\u0120Entertainment": 23890, "\u0120Algorithm": 29088, "\u0120Assuming": 27234, "?\u00e2\u0122\u013b": 29200, "\u0120parach": 49496, "illing": 3867, "unsigned": 10790, "\u00e6\u00a9": 37794, ":": 27, "\u0120Desert": 36274, "\u0120BJP": 35655, "\u0120cassette": 31392, "asons": 3743, "HC": 10431, "\u0120URLs": 40489, "\u0120sustainability": 32435, "AUT": 32364, "\u0120\\;": 11549, "\u0120ende": 19072, "\u0120manners": 34323, "\u0120Sang": 38236, "\u0120lei": 43278, "\u00d0\u00b5\u00d1\u0123\u00d0\u00ba": 31318, "NONE": 32623, "unk": 3938, "overlay": 46732, "\u0120prosec": 6751, "\u00f1": 173, "\u0120beyond": 4457, "textbf": 11765, "\u0120Think": 19296, "\u0120MR": 11928, "\u0120LO": 23310, "\u0120recited": 49064, "erta": 35327, "\u0120leak": 13584, "ocar": 27713, "Molecular": 43687, "missive": 35407, "DC": 9151, "\u0120G": 443, "1080": 43201, "\u0120\u00d8\u00ac": 44076, "\u0120te": 716, "Ice": 47141, "\u0120han": 15761, "\u010a\u0120\u0120\u0120\u0120\u0120\u0120\u0120\u0120\u0120\u0120\u0120\u0120\u0120\u0120\u0120\u0120\u0120": 8940, "mpty": 14740, "fall": 12615, "\u0120\u00c2\u00a7": 3015, "\u0120cute": 20295, "\u0120foci": 37057, "ert": 797, "gart": 23946, "\u0120Holder": 42868, "naire": 30798, "\u0120descriptors": 42785, "\u0120d": 277, "wed": 7184, "\u0120ED": 8360, "\u0120initi": 9347, "\u0120Moscow": 16496, "\u0120spoken": 13452, "\u0120determinations": 29240, "\u0120Ng": 38495, "\u0120broadly": 21450, "\u0120priest": 14959, "ilo": 23353, "\u0120inpatient": 40083, "\u0120knowing": 8958, "PL": 3859, "deploy": 45552, "\u0120EEOC": 45622, "\u0120Cy": 12552, "ynamic": 12328, "quin": 16573, "\u0120salvage": 40811, "\u0120360": 16951, "orphous": 29232, "\u0120penetration": 24280, "dummy": 44224, "\u0120intentionally": 23209, "imon": 15329, "\u010a\u010a\u0120\u0120\u0120\u0120\u0120\u0120\u0120\u0120\u0120\u0120\u0120\u0120\u0120\u0120": 30871, "\u0120settlers": 34684, "\u0120utilities": 28275, "\u0120gaze": 15944, "\u0120decou": 34430, "\u0120preferred": 9013, "\u0120dough": 17652, "\u0120laying": 23157, "aphragm": 32556, "\u00e6\u0137\u00b0\u00e6\u012f\u00ae": 36998, "bone": 15801, "\u0120damned": 31833, "\u0120daring": 38098, "\u0120BUSINESS": 42113, "Makes": 48468, "\u0120newborn": 23066, "aupt": 46359, "xC": 31932, "\u0120sites": 4375, "Evaluate": 16770, "\u0120steal": 20016, ",\u00e2\u0122\u013b": 15933, "iliation": 24567, "\u0120305": 26402, "\u0120curtain": 31261, "\u0120deput": 14158, "\u0120Malta": 47832, "\u0120AGN": 32507, "Charl": 30419, "\u0120refrig": 43908, "ovirus": 22264, "\u012098": 10508, "burst": 28754, "\u00d0\u00be\u00d0\u00bc": 8496, "}[\\": 28231, "namese": 27499, "955": 31722, "avin": 23793, "\u0120agre": 2669, "subsec": 31657, "imetric": 35079, "transfer": 17338, "ripp": 21743, "cuador": 37487, "onto": 10905, "\u0120Spring": 10039, "ivable": 26430, "\u0120ref": 1275, "\u0120Kenya": 27946, "generator": 36089, "\u0120fact": 958, "atus": 3144, "XXXX": 25240, "\u0120Indies": 44744, "DL": 6721, "idelberg": 45355, "clerosis": 18320, "\u0120JUD": 39953, "\u0120Det": 4597, "eft": 30698, "\u0120Police": 9651, "Until": 24753, "Irish": 45383, "\u00e3\u0123\u0137\u00e3\u0124\u012e": 22323, "\u00e6\u00b5\u0123": 50039, "URES": 43087, "\u00cf\u0130\u00ce\u00bd": 26867, "ammad": 20136, "\u0120confused": 13477, "bash": 31333, "\u0120robes": 46675, "pref": 11499, "isites": 47091, "\u012072": 8187, "\u0120probl": 37386, "raining": 26208, "Payment": 45412, "610": 38599, "================": 1702, "\u0120To": 1916, "ker": 6426, "MENT": 10634, "\u0120graphs": 14580, "\u0120predictive": 15970, "\u0120donors": 17728, "\u0120epoch": 23657, "\u0120methane": 35494, "opening": 33729, "\u0120Minimum": 42607, "\u0120Amy": 22138, "\u0120sco": 46254, "\u0120polymers": 20147, "\u01201977": 14960, "ionate": 43693, "\u0120wrongdoing": 45452, "\u0120Kant": 26686, "\u0120REL": 37954, "\u0120lasts": 34756, "\u0120Sof": 36104, "\u0120IO": 19698, "\u0120friends": 3858, "jets": 50241, "\u0120upload": 12119, "+\\": 2766, "\u0120HP": 19517, "ussion": 26148, "OPS": 34659, "ydrates": 35320, "weg": 41768, "\u0120quest": 1437, "\u0120nothing": 2717, "\u0120diabetes": 8401, "\u0120ont": 14642, "\u0120mV": 36436, "hip": 1456, "Pen": 26008, "\u0120elicit": 35192, "\u0120variation": 7629, "\u0120Kelly": 14943, "\u0120ulcers": 44623, "Alert": 33388, "\u0120failure": 4433, "agus": 38252, "vnd": 47018, "\u0120immortal": 34677, "Americans": 34436, "Redirect": 50053, "\u0120spo": 15695, "\u0120deposition": 12503, "xspace": 29096, "\u0120AFFIRMED": 45437, "hl": 12408, "\u0120kv": 44739, "andra": 17244, "Human": 22705, "\u00e3\u0123\u00be\u00e3\u0123\u0139\u00e3\u0123\u0141": 35550, "iso": 14699, "=====": 43024, "\u0120message": 3935, "\u0120singing": 16115, "ucci": 37873, "\u0120Ranger": 46444, "\u0120licensed": 17236, "\u0120Kuwait": 46614, "\u0120duty": 7143, "ichia": 30378, "left": 1274, "\u0120Kro": 46448, "\u0120stably": 42526, "mak": 45879, "atile": 12596, "zip": 16368, "308": 20777, "\u0120\u00ce\u00bb": 23871, "\u00e4\u00b8\u0122\u00e4\u00b8\u00aa": 27896, "Solution": 37533, "ohl": 37844, "\u0120discret": 35132, "\u0120Strat": 37904, "Imagine": 38989, "\u0120\"*": 23376, "ipart": 40475, "\u0120annotated": 28267, "rol": 1102, "\u0120Cambridge": 11988, "\u0120overex": 14525, "BUR": 43550, "\u0120spectacle": 37466, "\u0120ortholog": 44608, "\u0120Nev": 16393, "potent": 35741, "\u0120568": 46148, ")<": 28905, "warz": 29815, "oprotein": 14891, "tis": 35879, "\u0120hyd": 21435, "\u0120tension": 12415, "encia": 14994, "price": 19209, "Request": 6825, "\u0120investor": 25820, "{}": 15564, "\u0120@@": 34346, "\u00c3\u0132": 5186, "informed": 38967, "\u0120Scots": 45690, "Unity": 47869, "queous": 16993, "\u00d9\u012a\u00d8\u00b1": 39727, "\u0120Cody": 48545, "lys": 31453, "STM": 27127, "\u0120Cotton": 39339, "ubotu": 40743, "Cole": 48592, "Train": 49904, "ikh": 20323, "\u0120envy": 38877, "\u0120nerv": 8507, "\u0120writers": 11597, "\u0120lions": 44536, "\u0120CU": 32463, "\u0120assum": 3112, "Ol": 33319, "Bundle": 18099, "\u0120actors": 14142, "\u0120t": 246, "molecules": 10322, "\u0120caud": 36112, "\u0120Poetry": 47315, "ethical": 49628, "\u0120unaffected": 30195, "\u0120311": 32236, "\u0120annual": 7970, "\u0120190": 21732, "WISE": 32129, "\u0120pitching": 36456, "\u0120tendencies": 37725, "\u0120homeowners": 40821, "\u0120stands": 9572, "enced": 5666, "502": 28873, "\u0120Westminster": 34328, "ELD": 21901, "\u0120hered": 34924, "\u0120Lug": 48910, "\u0120flames": 26126, "swe": 46970, "\u0120removable": 38109, "eri": 25933, "\u0120Financial": 18598, "\u0120TODAY": 42971, "\u0120photographer": 24996, "ant": 386, "\u0120ven": 8097, "isions": 3836, "\u0120crypt": 10105, "pid": 4239, "\u0120ruled": 12969, "\u0120infants": 15330, "forcement": 19503, "ialog": 6690, "\u0120issued": 6808, "\u0120courtesy": 23633, "px": 3498, "\u0120Neil": 26298, "indent": 31808, "\\@": 34764, "vast": 35982, "+\"": 33229, "Mas": 35147, "}%": 26172, "\u0120unravel": 42030, "\u0120mandates": 44143, "\u0120histories": 29892, "\u0120hereafter": 38492, "ificial": 11232, "\u0120obtained": 2797, "num": 6370, "inz": 29415, "\u0120streak": 29642, "OULD": 30384, "\u0120granular": 32449, "\u0120armies": 29894, "FACE": 36502, "ESS": 5479, "\u0120glutathione": 34285, "Jewish": 37721, "\u0120d\u00c3\u00a9f": 42912, "zol": 45831, "November": 23375, "zzle": 12610, "\u0120Boeing": 35251, "\u0120Holl": 35627, "\u0120feat": 8151, "\u0120adenosine": 37121, "erdinand": 43528, "\u0120hut": 41725, "socket": 25328, "elike": 44549, "packed": 33318, "\u0120Ivy": 45397, "\u0120\u00cf\u0125\u00cf\u0126\u00ce\u00b7": 37384, "\u0120benefici": 32684, "\u0120Train": 29712, "\u0120postulated": 46483, "ita": 5741, "uns": 4539, "\u0120joined": 7416, ")$-": 16550, "\u0120Newton": 19608, "phi": 2162, "2007": 8602, "icar": 23864, "\u0120yourself": 4834, "\u0120fundamentally": 26401, "supp": 4032, "\u012096": 9161, "Contin": 22262, "\u0120541": 39522, "\u0120hints": 28145, "\u0120Width": 39569, "\u00d8\u00a7\u00d8\u00af": 40802, "\u0120assassin": 46127, "?\",": 46607, "Ka": 29456, "iful": 4552, "\u0120hunt": 20269, "\u0120trembling": 36316, "bsy": 8823, "\u0120but": 533, "hes": 1041, "198": 16903, "\u0120intersection": 15171, "\u0120PLA": 36770, "\u0120SG": 29911, "\u0120substitute": 16502, "<-": 38270, "\u0120sleek": 47115, "\u0120Sout": 47914, "ophores": 47785, "\u01208000": 48296, "\u0120solvent": 15465, "\u0120seventeen": 33395, "\u0120lol": 23385, "nah": 39521, "\u0120servo": 48269, "whel": 11622, "ophers": 28515, "\u0120engagement": 13226, "\u010a\u010a\u010a\u010a": 5429, "enue": 23979, "\u0120bi": 1794, "\u0120Exposure": 44560, "roviral": 48377, "\u00e3\u0124\u00a7": 47760, "\u0120slower": 17357, "owner": 18602, "\u0120Danger": 45546, "\u0120week": 2129, "\u0120worthwhile": 32811, "\u0120259": 30805, "PW": 47213, "\u00e2": 158, "\u010d\u010d\u0120\u0120\u0120\u0120\u0120\u0120\u0120\u0120\u0120": 41499, "SYSTEM": 47146, "\u0120gaining": 21896, "\u0120using": 970, "\u0120pacing": 35500, "\u0120contain": 3831, "\u0120Lac": 27910, "Hyp": 39355, "wards": 4515, "transformed": 45088, "\u0120\u00d0\u00ba\u00d0\u00be\u00d1\u0124\u00d0\u00be\u00d1\u0122": 34155, "\u0120chair": 6951, "\u0120assistants": 35785, "\u0120miscon": 44890, "\u0120translator": 42726, "\u00eb": 167, "\u0120copolymer": 37798, "\u0120took": 2335, "ny": 5134, "Compare": 33925, "Mrs": 21707, "\u0120foe": 47190, "ben": 7564, "}/": 9228, "\u0120powered": 20351, "\u0120holder": 17051, "667": 43438, "\u0120multiplied": 31458, "\u0120Nak": 27280, "\u0120Sample": 24046, "constraint": 30995, "\u0120complexities": 48663, "\u0120moins": 36463, "\u0120Target": 17661, "UCK": 36746, "\u0120butcher": 45975, "\u0120Witness": 40177, "\u0120Shin": 33655, "pany": 13459, "isc": 2865, "roup": 47700, "meas": 28025, "physical": 29079, "lete": 2527, "\u0120brushes": 48820, "nost": 41752, "\u0120renew": 10660, "409": 24264, "\u0120musician": 26650, "\u0120\u00e2\u0122\u013a": 2802, "=\"/": 17779, "Login": 27689, "\u0120Gibson": 29215, "KC": 39089, "\u0120repressed": 47960, "\u0120floated": 40092, "\u0120serv": 1296, "lower": 12973, "market": 16532, "\u00ce\u00bf\u00ce\u00b9": 30793, "relim": 26827, "\u0120655": 39005, "\u0120Product": 13126, "employee": 38885, "unden": 46747, "api": 6682, "\u0120\u0120\u0120\u0120\u0120\u0120\u0120\u0120\u0120\u0120\u0120\u0120\u0120\u0120\u0120\u0120\u0120\u0120\u0120\u0120\u0120\u0120\u0120\u0120\u0120\u0120\u0120\u0120\u0120\u0120\u0120\u0120\u0120\u0120\u0120\u0120\u0120\u0120\u0120\u0120\u0120\u0120\u0120\u0120\u0120\u0120\u0120\u0120\u0120\u0120\u0120\u0120\u0120\u0120\u0120\u0120\u0120\u0120\u0120\u0120\u0120": 24245, "\u00c3\u00a8ne": 35080, "\u00d0\u00be\u00d0": 1819, "\u0120vectors": 11390, "akt": 21216, "fail": 24796, "cord": 29711, "\u0120microtubule": 48633, "AAAAAAAAAAAAAAAA": 28597, "icorn": 41257, "ecal": 45808, "eps": 2265, "\u0120Cook": 11980, "153": 16271, "\u0120soaked": 38149, "ora": 6464, "ceive": 13700, "rock": 16249, "cknow": 6084, "\u0120Lud": 26064, "\u00e3\u0124\u012b\u00e3\u0124\u012e": 39692, "arxiv": 39962, "\u0120Mormon": 34275, "\u0120relay": 26276, "ilage": 22775, "\u0120Holocaust": 34140, "Administ": 41800, "Detail": 29596, "ormal": 1939, "\u0120sensit": 21750, "iba": 33068, "\u0120sermon": 46040, "\u0120Duty": 43172, "\u00ce\u00b8": 10977, "\u0120BCG": 49841, "\u0120augment": 35919, "}=-\\": 45881, "\u0120chaper": 41944, "\u0120\"": 346, "\u0120elementary": 18307, "Me": 5072, "\u0120Meeting": 30194, "olute": 18046, "\u0120Amazing": 46974, "\u0120GEN": 49327, "\u0120census": 20740, "\u0120mortal": 32144, "coc": 39354, "\u0120Nielsen": 45246, "\u0120Venus": 36210, "\u0120Watkins": 48077, "\u0120Eth": 10570, "oelect": 41121, "\u0120Collabor": 24965, "\u0120Husband": 49226, "\u0120recurring": 36108, "487": 30910, "\u0120blob": 37905, "complex": 19017, "\u0120projective": 27266, "\u0120conse": 35584, "Show": 14422, "\u0120kDa": 30527, "\u0120everyday": 15363, "\u0120organic": 8708, "\u0120establishes": 25097, "\u0120fost": 25243, "\u0120eu": 21187, "-------------------------------": 32107, "hyp": 35040, "\u00c7": 131, "\u0120movable": 30650, "openhagen": 38137, "\u0120Buzz": 39959, "\u0120Sanskrit": 48610, "\u0120ecosystem": 17493, "current": 6259, "\u0120Conservatives": 40055, "orts": 8707, "TM": 14592, "\u0120outreach": 37344, "\u0120Spl": 33119, "\u0120Plate": 31773, "\u0120Santa": 12126, "\u0120imper": 9719, "\u0120absurd": 20873, "\u0120curry": 47209, "\u0120dissipation": 30695, "registered": 41846, "\u0120expl": 1414, "den": 3354, "\u0120Kavanaugh": 47598, "\u00e5\u00be\u012a": 45091, "orea": 46080, "developer": 35654, "\u0120mistress": 36285, "0026": 36310, "\u0120Bangladesh": 29310, "\u0120migration": 10346, "\u0120drove": 12668, "\u0120DEBUG": 40374, "\u0120hard": 1892, "\u0120gifts": 17714, "AIN": 23098, "PS": 3299, "\u0120scrap": 18572, "\u0120pr\u00c3\u00b3": 34117, "\u0120located": 4441, "tum": 48556, "pex": 24293, "jb": 27686, "icio": 34339, "\u0120\u0120\u0120\u0120\u0120\u0120\u0120\u0120\u0120\u0120\u0120\u0120\u0120\u0120\u0120\u0120\u0120\u0120\u0120\u0120\u0120\u0120\u0120\u0120\u0120\u0120\u0120\u0120\u0120\u0120\u0120\u0120\u0120\u0120\u0120\u0120\u0120\u0120\u0120\u0120\u0120\u0120\u0120\u0120\u0120\u0120\u0120\u0120\u0120\u0120\u0120\u0120": 22177, "\u0120Lund": 38899, "\u0120};": 7734, "\u0120gre": 13738, "915": 36245, "\u00d0\u00bd": 1640, "\u0120hogy": 31530, "\u0120Add": 5733, "sterdam": 24621, "heets": 37586, "ione": 6035, "\u0120logically": 40452, "\u0120Pap": 17206, "\u0120Int": 4458, "\u0120cookie": 19550, "}}})": 27612, "642": 32834, "ulture": 7546, "~~~~~~~~~~~~~~~~": 35812, "\u0120Rubio": 46390, "\u0120dissection": 32508, "ed": 264, "igh": 798, "\u0120coloring": 35633, "\u0120of": 273, "\u0120puede": 30518, "\u0120politicians": 13557, "Source": 7781, "\u01201860": 36525, "\u0120depiction": 48528, "pan": 4029, "850": 32174, "\u0120delta": 18687, "\u0120inserts": 37034, "\u0120figured": 15433, "markdown": 49832, "\u0120whereabouts": 49924, "TB": 18269, "\u0120formula": 7212, "\u0120nur": 27359, "\u0120arches": 50042, "aryng": 43420, "\u0120averaged": 17522, "arshall": 44565, "\u0120Plug": 48823, "see": 2887, "msg": 4856, "Sen": 18681, "}}/": 29465, "Property": 8324, "\u00eb\u00a6": 32654, "\u0120ned": 44370, "SHORT": 49202, "WIDTH": 40097, "\u0120Pradesh": 35112, "sampling": 48027, "Soviet": 49623, "\u0120Fc": 34858, "\u0120EF": 24931, "\u0120bilayer": 47309, "\u0120clar": 8254, "becca": 27407, "\u0120Transaction": 43529, "\u0120Inhibition": 47769, "Sb": 44834, "rano": 41911, "\u0120diseased": 45644, "\u0120femur": 46501, "\u0120to": 281, "umble": 19493, "\u0120536": 46443, "Inner": 38090, "Service": 7456, "publish": 48336, "IBILITY": 38761, "encies": 4601, "\u0120mar": 2304, "km": 10294, "\u0120past": 2469, "\u0120ham": 10546, "\u0120delivering": 18723, "\u0120rehabilitation": 20123, "\u0120bridges": 24853, "\u0120furnace": 33926, "\u0120ruth": 39428, "\u0120TeV": 39784, "\u0120demise": 40580, "eger": 38142, "\u0120thankful": 31115, "\u0120township": 40707, "\u0120backlash": 43343, "itoring": 27305, "ocument": 1829, "upiter": 29755, "\u0120trying": 2820, "\u0120involved": 3206, "copy": 12557, "\u0120Phys": 4111, "Jud": 27302, "gol": 32651, "\u00d0\u00b6\u00d0\u00b5": 39656, "ost": 493, "ch\u00c3\u00a9": 32716, "\u0120Nova": 30947, "\u0120hott": 40314, "\u0120ne": 425, "dding": 38699, "\u00d0\u00be\u00d0\u00bb\u00d1\u012e\u00d0\u00ba\u00d0\u00be": 41601, "\u0120%{": 45768, "\u0120Several": 12090, "\u0120Janeiro": 48648, "\u0120congregation": 35997, "\u0120infection": 5066, "\u01202007": 5215, "Dav": 12403, "conjugated": 32940, "\u0120Guest": 34933, "\u0120frown": 48445, "\u0120citing": 19936, "tk": 17922, "\u0120Say": 21882, "}}}_{\\": 37276, "\u0120Shim": 41675, "\u0120permit": 9659, "\u0120conceive": 42684, "\u0120melody": 40641, "\u0120CpG": 36457, "\u0120Penny": 42778, "ously": 4087, "cloth": 45313, "unct": 10593, "jur": 34157, "\u0120slowly": 7808, "\u0120cytos": 18314, "\u0120Status": 20364, "/*!": 46170, "\u0120stepped": 12293, "\u0120occurrence": 12340, "\u0120Shang": 20710, "ijms": 7610, "edge": 13057, "Events": 24121, "('./": 36430, "\u0120ITS": 37879, "(<": 40473, "880": 43277, "\u00b9": 119, "Does": 10795, "\u0120ft": 23899, "\u0120relentless": 44064, "\u0120'',": 29278, "assis": 34119, "\u0120SYSTEM": 47095, "\u0120canoe": 47884, "\u0120Shirley": 44339, "\u0120gate": 7394, "\u0120159": 22769, "\u0120414": 36573, "criptive": 39555, "\u0120Penal": 44252, "FOR": 9675, "\u0120youtube": 49683, "Competing": 24163, "\u0120discriminatory": 30602, "\u0120page": 3239, "osity": 11108, "AA": 2446, "\u0120demonstrating": 17227, "\u010a\u0109\u010a": 22417, "BF": 16380, "\u0120401": 24877, "\u0120marijuana": 13717, "\u0120kid": 5772, "\u0120acids": 9532, "von": 29997, "\u0120indisp": 31207, "\u00c3\u00a6r": 37823, "Http": 15003, "ynn": 38051, "\u0120libr": 40211, "AK": 9780, "\u00da\u00a9": 18775, "\u0120enamel": 46803, "Author": 14897, "!!!!": 18963, "\u0120peril": 35342, "African": 42817, "\u0120indictment": 17612, "\u0120Dud": 45673, "person": 10816, "\u0120incision": 33708, "les": 868, "\u0120respons": 2539, "\u0120investigate": 7409, "200": 1518, "\u0120integration": 9554, "sch": 10629, "\u0120inspired": 11797, "1990": 13435, "\u0120359": 34205, "\u0120matters": 8213, "boxes": 28904, "\u0120believers": 35922, "im": 303, "equal": 11969, "\u0120detail": 2508, "Mesh": 33914, "\u0120Miz": 45722, "\u0120Hex": 48927, "ends": 1727, "..": 537, "\u0120logging": 20893, "cox": 26188, "resolved": 20918, "IFY": 32066, "CONT": 34053, "\u0120Path": 12899, "\u0120restricting": 34617, "bibr": 14457, "\u0120pir": 19188, "\u0120morphology": 15448, "\u0120protease": 25223, "\u0120chat": 12939, "INIT": 25844, "\u0120thinner": 37367, "OUTPUT": 38333, "\u0120pathophysiology": 42405, "\u0120Manning": 33665, "\u00e1\u00bf\u00a6": 48234, "\u0120wasn": 3589, "\u0120\u0120\u0120\u0120\u0120\u0120\u0120\u0120\u0120\u0120\u0120\u0120\u0120\u0120\u0120\u0120\u0120\u0120\u0120\u0120\u0120\u0120\u0120\u0120\u0120\u0120\u0120\u0120\u0120\u0120\u0120\u0120\u0120\u0120\u0120\u0120\u0120\u0120\u0120\u0120\u0120\u0120\u0120\u0120\u0120\u0120\u0120\u0120\u0120\u0120\u0120\u0120\u0120\u0120\u0120\u0120\u0120\u0120\u0120\u0120\u0120\u0120\u0120\u0120\u0120\u0120\u0120\u0120\u0120\u0120": 31617, "Tables": 29153, "Her": 10759, "\u010a\u0120\u0120\u0120\u0120\u0120\u0120\u0120\u0120\u0120\u0120\u0120\u0120\u0120\u0120\u0120\u0120\u0120\u0120\u0120\u0120\u0120\u0120\u0120\u0120": 18118, "\u0120award": 5722, "\u0120rec": 761, "\u0120roles": 9503, "}$$\\": 12945, "\u0120120": 7346, "\u0120town": 3874, "\u0120trab": 19146, "\u0120CVD": 30243, "\u0120backed": 17245, "\u0120Champ": 23431, "\u0120Mot": 9849, "\u0120Reve": 33084, "\u0120SNPs": 19208, "\u0120degrad": 9579, "chunk": 33461, "\u0120Wo": 37413, "Roche": 40375, "\u0120refusing": 21455, "\u0120BW": 41036, "\u0120basal": 15919, "ectin": 41105, "\u0120%>": 20322, "\u0120ay": 26275, "\u0120warrants": 32570, "\u0120embedding": 21496, "alph": 21697, "\u0120evolution": 5606, "\u0120battalion": 40716, "\u0120blurred": 44042, "inated": 3901, "})=\\": 30079, "\u0120AMERICA": 46063, "}),": 22286, "\u0120arsenal": 47521, "astric": 42925, "ik": 1479, "polar": 24862, "anol": 9201, "READ": 13587, "\u0120ed": 1407, "\u0120Lam": 16967, "finding": 28983, "\u0120eliminating": 23703, "sci": 29409, "\u0120walk": 2940, "\u0120Round": 12778, "\u0120Reference": 19039, "ums": 7640, "\u0120shel": 9200, "\u0120Head": 12318, "IE": 9051, "\u0120Jane": 14884, "\u0120stip": 18798, "\u0120perturbation": 20452, "\u0120eg": 24088, "grav": 12158, "\u0120promptly": 25122, "\u00e3\u0123\u00b0": 30723, "\u0120dyst": 32692, "\u0120Chip": 33769, ")(\\": 26669, "vari": 20617, "\u0120hing": 34865, "\u0120mechanically": 35008, "tap": 37056, "orro": 38067, "IOException": 38487, "\u0120offsets": 41669, "\u0120jaws": 43567, "\u00ce\u00b5\u00ce\u00b9": 11910, "825": 44439, "\u0120inconvenient": 44697, "'\">": 46768, "\u0120uterus": 42544, "sigma": 2592, "\u0120initial": 3302, "']))": 47916, "essa": 15959, "orry": 5163, "\u0120attr": 27617, ")^{-": 14607, "\u0120dissolved": 18224, "\u0120teens": 27517, "\u0120115": 11343, "\u00d0\u00ba\u00d0\u00b0": 21475, "Zip": 42095, "robe": 31552, "\u0120\u00d8\u00a5": 48914, "\u0120correctly": 9113, "IENT": 31093, "Effect": 15131, "\u0120Schedule": 32946, "\u0120Drum": 39582, "                ": 50262, "Th": 1044, "\u0120aquatic": 38000, "\u0120generators": 21025, "\u0120instrumentation": 42507, "\u0120Cys": 50203, "\u0120Teh": 32807, "\u0120scholarship": 26104, "\u0120crash": 13035, "Ang": 22284, "\u0120324": 32479, "\u00e3\u0124\u00b9": 11908, "\u0120provides": 3400, "2002": 10016, "gate": 15353, "\u0120Ab": 3506, "otrophic": 44456, "attrs": 46707, "\u0120strat": 15252, "fd": 9194, "ogn": 2331, "\u0120vertex": 11302, "\u0120analysed": 15626, "\u0120further": 2007, "302": 19044, "nic": 9335, "\u00c2\u013f": 20475, "arious": 37993, "\u0120plasmids": 29530, "990": 28001, "\"}:": 28479, "008": 8897, "\u0120uphold": 39954, "\u0120anguish": 44089, "elong": 29756, "\u0120Hawk": 44390, "\\!\\!": 13093, "\u0120found": 1119, "ubin": 34610, "\u0120NEED": 42945, "\u0120Zimm": 44302, "attachment": 47537, "vphantom": 47596, "EEEE": 48919, "Object": 4241, "\u0120perme": 15498, "\u0120tribal": 26903, "\u0120liquid": 5558, "ional": 1593, "expected": 9127, "\u0120accelerated": 21702, "\u0120Lynn": 33603, "\u0120\u00ce\u00ba\u00ce\u00b1\u00ce\u00b9": 18806, "\u0120Hope": 15541, "\u0120diagnostic": 10401, "aces": 1951, "\u0120suited": 18960, "\u0120Fischer": 37454, "\u0120Bear": 25743, "\u0120novelty": 38135, "Mail": 29594, "\u0120decoration": 40890, "inverse": 46429, "bilt": 50243, "\u00d7\u0137": 10626, "contro": 43961, "\u0120globally": 21349, "\u0120blah": 37598, "air": 1094, "leg": 1851, "eful": 4085, "\u0120nov": 22458, "\u0120Whereas": 28681, "Appro": 30305, "\u0120invol": 1901, "\u0120colleges": 24267, "needed": 34498, "oes": 13347, "\u0120reactor": 22578, "worm": 36141, "ener": 4330, "\u0120Chief": 9060, "\u0120sleep": 4600, "\u0120iPad": 23143, "\u0120numer": 4520, "\u0120Rev": 3555, "xs": 14831, "agger": 7215, "documentation": 37442, "\u0120densely": 42350, "\u0120coron": 9987, "eat": 48497, "\u0120Cookie": 49391, "\u0120skim": 43816, "Ver": 10754, "Sys": 40543, "nut": 8712, "\u0120abbreviated": 48030, "\u0120husbands": 38639, "\u0120fistula": 49214, "inned": 13172, "cer": 1209, "Mag": 29033, "\u0120Coal": 23194, "\u00e8\u00a1\u012e": 16677, "ialize": 14531, "ticket": 42186, "\u0120``": 20890, ":)": 37731, "success": 12566, "otyp": 6042, "\u0120anomal": 19376, "\u0120waking": 31582, "\u0120ty": 963, "\u0120wipe": 31179, "\u0120Wire": 22338, "\u0120infectious": 18023, "UB": 20722, "\u00e6\u00b0": 17289, "\u0120outdated": 36761, "ousing": 19315, "\u0120geometrical": 38307, "\u0120confound": 44667, "SPEC": 37859, "organized": 34092, "babel": 46998, "Slow": 40246, "decor": 29284, "\u0120why": 2139, "\u0120touched": 14435, "\u0120primitive": 20523, "\u0120discretionary": 34220, "kick": 44568, "\u0120DMEM": 41065, "Diagn": 33958, "ucks": 9984, "}})$": 16996, "\u0120Level": 15557, "geries": 34527, "\u0120Week": 12664, "eyer": 21776, "\u0120Caucasian": 43748, "iendo": 47102, "ee": 1796, "\u0120signal": 2625, "\u0120som": 1260, "tain": 14721, "unting": 17852, "\u01201979": 13842, "SIM": 32847, "\u0120immunodeficiency": 44590, "\u0120computing": 12672, "Lyn": 48959, "\u00ce\u00b9": 2989, "\u012074": 10677, "\u0120compensation": 10963, "1992": 13895, "\u0120decimal": 14492, "\u0120spectrosc": 14995, "utory": 9911, "\u0120THAT": 16093, "\"}),": 9471, "Ad": 3837, "\u0120API": 8990, "\u0120Earth": 7565, "MSO": 24469, "chant": 22442, "\u0120tissues": 7944, "agers": 16014, "Height": 13881, "]-[@": 17548, "\u0120categories": 9050, "\u0120beating": 18019, "intern": 25335, "ibration": 11457, "\u0120specific": 2173, "\u0120catalog": 20623, "\u0120Sorry": 26070, "ulla": 26171, "\u0120gloves": 26936, "sects": 33009, "430": 34230, "\u0120mog": 36032, "\u0120lattices": 40940, "\u0120Diagn": 22938, "osaurs": 43329, "Corn": 43755, "geois": 33488, "xf": 14506, "\u0120Lynch": 28589, "\u0120inoculated": 33599, "velop": 1155, "litaxel": 44737, "1932": 48184, "\u0120outline": 19270, "................................": 21770, "elia": 29173, "rise": 24078, "\u01201909": 38624, "\u0120shields": 41152, "\u0120catast": 22476, "ocyst": 42774, "\u0120Avengers": 48255, "33": 1610, "vertis": 23967, "opause": 46763, "\u0120owned": 9633, "\u0120remake": 50224, "Omega": 4153, "\u0120cutoff": 23046, "\u0120Constit": 45866, "\u0120prompts": 49887, "\u0120class": 966, "\u0120soon": 3517, "\u0120companies": 4413, "\u0120assumed": 8025, "\u0120rubbing": 35770, "tasks": 40480, "Kh": 35994, "Didn": 40795, "\u0120exogenous": 30398, "\\!\\!\\!\\!": 37857, "Ll": 49256, "\u0120Ninth": 32533, "\u0120representative": 8612, "\u0120genuine": 13241, "\u00e8\u00a8": 14945, "HB": 25435, "780": 43698, "\u0120Julia": 27261, "\u0120EX": 8021, ":$": 35490, "\u0120cyst": 26242, "single": 20199, "ENTRY": 31626, "703": 30349, "\u0120exploit": 22059, "\u0120Tus": 50249, "Cur": 18191, "failure": 33699, "\u0120nor": 4543, "offer": 45422, "\u0120happier": 33128, "\u0120Posted": 36349, "\u0120wrest": 16972, "\u00eb\u012c": 22983, "\u0120ramp": 18556, "\u0120Why": 6049, "outube": 19834, "\u0120cataly": 19889, "\u0120Mig": 26269, "\u0120backpack": 30564, "\u0120lending": 32497, "AUTH": 37482, "bered": 7455, "\u0120Computing": 37696, "\u0120technological": 20417, "\u0120touchdowns": 38029, "\u0120arcs": 41313, "\u0120kissed": 23651, "\u0120enough": 2217, "\u0120striker": 42857, "ream": 1883, "\u0120LW": 43178, "trees": 45670, "\u0120early": 2393, "\u0120dib": 45796, "\u0120dominant": 11360, "\u0120thwart": 41027, "\u0120reduction": 5141, "\u0120libraries": 13747, "\u0120Beth": 22169, "Fel": 45484, "Jess": 45976, "xon": 49111, "\u0120purchasing": 21016, "\u0120answering": 22291, "\u010a\u0120\u0120\u0120\u0120\u0120\u0120\u0120\u0120\u0120\u0120\u0120\u0120\u0120\u0120\u0120\u0120\u0120\u0120\u0120\u0120\u0120\u0120\u0120\u0120\u0120\u0120\u0120\u0120\u0120\u0120\u0120\u0120\u0120\u0120\u0120\u0120\u0120\u0120\u0120\u0120\u0120\u0120\u0120": 22672, "\u0120Tommy": 27145, "\u0120buff": 14664, "Rom": 30998, "gery": 5158, "rifug": 15294, "IVER": 35043, "Paint": 42528, "\u0120Epidem": 48838, "\u0120Gram": 22197, "\u0120volunteers": 15986, "chars": 30830, "\u0120eloqu": 39408, "\u0120username": 22440, "g": 72, "ultural": 10222, "\u0120Fel": 17918, "\u0120multiplex": 25993, "itter": 4069, "0039": 45701, "\u0120Tay": 43789, "Incre": 25800, "\u0120computers": 12823, "wash": 43351, "\u0120specifications": 23944, "\u0120565": 46472, "\u0120emerge": 20177, "connect": 11025, ".^\\[[@": 43782, "\u0120exclus": 46853, "ablo": 30662, "\u0120Shelby": 49231, "Mem": 10267, "\u0120reserved": 10827, "\u0120\u0120\u0120\u0120\u0120\u0120\u0120\u0120\u0120\u0120\u0120\u0120\u0120\u0120\u0120\u0120\u0120\u0120\u0120\u0120\u0120\u0120\u0120\u0120\u0120\u0120\u0120\u0120\u0120\u0120\u0120\u0120\u0120\u0120\u0120\u0120\u0120\u0120\u0120\u0120\u0120\u0120\u0120\u0120\u0120\u0120\u0120\u0120\u0120\u0120\u0120\u0120\u0120\u0120\u0120\u0120\u0120\u0120\u0120\u0120\u0120\u0120\u0120\u0120\u0120\u0120": 36732, "\u00e6\u00b1\u0124": 43741, "\u0120Plants": 48525, "\u0120Atomic": 39628, "coins": 38279, "heart": 14387, "\u0120apparatuses": 39042, "\u0120Johnson": 7902, "aussian": 12064, "Item": 5475, "open": 5758, "\u0120machinery": 20949, "\u0120satisf": 3449, "throw": 22408, "\u0120immense": 24878, "nai": 40236, "coding": 22257, "\u0120income": 6021, "\u0120smartphones": 33188, "axial": 27534, "\u0120chilled": 45066, "\u0120slept": 21567, "\u0120dopaminergic": 47658, "\u0120presented": 3559, "\u0120consequence": 9936, "Al": 2422, "comm": 2823, "\u0120kernel": 10295, "QUE": 18100, "\u0120Much": 18770, "\u0120ablation": 28913, "\u0120nursing": 15929, "\u0120popul": 28969, "ullah": 32619, "Pb": 35923, "\u0120undetect": 36568, "\u0120hereinafter": 41611, "search": 8716, "\u0120mism": 19412, "\u0120separation": 9712, "\u0120maintains": 18922, "\u0120superoxide": 41180, "ems": 3030, "PRE": 14364, "UX": 21466, "|=": 28627, "\u0120s\u00c3\u00a4": 31051, "\u0120wand": 18021, "\u0120clim": 12015, "tp": 17394, "\u0120plating": 40774, "\u0120welding": 34329, "\u0120AIDS": 24482, "\u0120poor": 4105, "Neill": 41437, "Testing": 38571, "\u0120ultrasound": 18533, "\u0120hatred": 24307, "\u0120nanoc": 49942, "junit": 31265, "\u0120278": 31242, "\u0120your": 634, "Math": 18102, "\u0120forbidden": 25415, "\u00e2\u0124\u00ac": 14507, "\u0120a": 247, "\u00c5\u0135": 30075, "\u0120alc": 38055, "ald": 8950, "\u0120terminating": 38915, "tau": 3115, "lux": 29833, "\u0120amazing": 8644, "\u0120solving": 16161, "\u0120requ": 997, "\u0120vibration": 22634, "genic": 15881, "\u0120Alan": 17560, "iled": 4206, "\u012054": 8255, "\u00e7\u00b6": 35392, "\u0120Lars": 40295, "\u0120aug": 14688, "nce": 6591, "cedure": 14843, "HDL": 44139, "\u0120Important": 46741, "thick": 27663, "\u0120\u00d0\u013c": 24572, "1974": 22062, "ERN": 18174, "\u0120cartilage": 25548, "TW": 36584, "\u0120niece": 43551, "boundary": 45794, "campaign": 49686, "rences": 1998, "\u0120\u0120\u0120\u010a": 38679, "\u0120FLAG": 46923, "Invitrogen": 29166, "\u00d1\u0122\u00d0\u00b8": 34491, "\u0120ventilation": 23815, "igl": 48148, "\u0120Street": 5720, "\u0120Kurt": 32211, "}>": 20499, "\u0120furnished": 25032, "kay": 4629, "\u0120Judge": 6798, "\u0120Commissioner": 15605, "\u0120Toyota": 32714, "\u0120FIFA": 38075, "hered": 23258, "\u0120rebound": 44789, "\u0120auto": 6753, "\u0120run": 1408, "\u0120greatly": 10260, "Di": 12558, "\u0120c\u00c4\u0125": 22295, "\\]\\].": 35487, "'ll": 1833, "\u0120minist": 28099, "\u0120keratin": 33654, "\u0120\u00e0\u00a4\u0137": 21433, "maker": 22277, "30": 1229, "\u0120hence": 7613, "\u0120expiration": 32298, "raiser": 40902, "\u0120malf": 37540, "hypert": 41537, "\u0120Sloven": 43372, "\u0120sequences": 6430, "230": 17569, "\u0120ceil": 45925, "consist": 46540, "\u0120fines": 29701, "\u0120labelling": 46684, "corpor": 46723, "\u0120estud": 47101, "\u0120deported": 48004, "\u0120padding": 13294, "\u0120blockers": 48846, "\u0120Roosevelt": 21519, "RS": 6453, "\u0120dealing": 10620, "discovery": 49330, "\u0120Rd": 21775, "ustom": 2229, "\u0120Ts": 20613, "verages": 33645, "\u0120photographs": 15928, "THER": 13656, "\u0120maint": 2982, "\u0120polymer": 7923, "\u0120Mini": 24244, "osome": 10217, "\u0120muit": 27735, "\u0120hydroxy": 30824, "orientation": 31756, "\u0120iterative": 34560, "\u0120Holiday": 37768, "\u0120estates": 42183, "\u0120inte": 1101, "athe": 4349, "Recent": 28336, "\u0120calf": 34376, "WARE": 17028, "\u00e7\u0136\u00bb": 42930, "\u0120whirl": 45151, "\u0120symptom": 19831, "then": 7461, "ania": 16642, "\u0120succession": 27262, "\u0120Fin": 7198, "\u0120RV": 23049, "Quick": 28782, "tras": 33035, "Hig": 34969, "RETURN": 43501, "onance": 47872, "\u0120because": 984, "\u0120Bo": 3452, "uchy": 29420, "\u0120degenerative": 47073, "\u0120deg": 6797, "\u0120average": 3388, "\u0120waste": 8138, "\u00d0\u00be\u00d0\u00b6": 14706, "\u0120probes": 19432, "arate": 33573, "Nu": 41208, "\u0120typename": 7919, "tainment": 22168, "\u0120RA": 12875, "national": 25736, "ulin": 6236, "\u0120myocard": 14961, "\u0120DAMAGES": 32024, "\u0120evaporation": 35921, "{};": 41619, "\u0120cellar": 46139, "\u0120Cross": 10547, "Const": 13186, "\u0120purpose": 4096, "\u0120LD": 20060, "\u0120baggage": 40834, "781": 44953, "\u0120Spiel": 47634, "\u0120cations": 49424, "\u0120form": 830, "\u0120possession": 10023, "izable": 12729, "oxic": 32759, "\u0120BytePtrFromString": 42010, "\u0120Factory": 33436, "YES": 24239, "\u0120skinny": 42345, "destruct": 43739, "\u0120representatives": 15572, "liv": 23642, "CORE": 47338, "\u0120reinforced": 28809, "\u0120valuable": 9865, "eed": 13158, "Represent": 35012, "zbollah": 49038, "\u0120disappear": 15529, "\u0120Pig": 40274, "\u0120Atlantic": 14847, "ulsion": 15305, "\u0120reading": 4361, "\u0120unemployed": 35700, "\u0120hydra": 23288, "\u0120equipment": 6500, "\u0120fal": 18512, "\u0120settle": 16359, "\u0120chill": 27450, "\u0120widths": 34414, "twitter": 16705, "Jim": 24349, "olytic": 21200, "resse": 35202, "\u0120justify": 15249, "\u0120etc": 3966, "1940": 38765, "\u0120sentiments": 39236, "amen": 18986, "\u0120defeating": 38774, "oco": 16856, "\u0120explanatory": 41355, "\u0120dumping": 46023, "ear": 613, "utz": 25374, "\u0120tasks": 8892, "\u0120Ferdinand": 47457, "\u0120wiped": 27150, "async": 27216, "\u0120Eagle": 26864, "\u0120tire": 20052, "\u0120Criminal": 20526, "Arc": 47134, "\u0120inheritance": 24954, "\u00d9\u0126\u00d9\u012b": 38033, "Je": 20723, "\u0120revelations": 43034, "\u0120Stefan": 39001, "walk": 13678, "\u0120indifferent": 38647, "\u0120flexible": 12112, "\u0120plastics": 45896, "\u0120GS": 28611, "recht": 38265, "ult": 503, "\u0120recordings": 19654, "\u0120classic": 10610, "\u0120pants": 19110, "ma": 785, "\u0120rest": 1551, "pair": 13934, "stringify": 49139, "196": 19196, "\u0120turbines": 48159, "details": 23454, "\u0120contempl": 19573, "\u0120Michelle": 28331, "\u0120records": 5861, "ully": 26095, "\u0120165": 19939, "\u0120Volume": 22248, "IK": 22550, "\u0120Models": 31581, "Cong": 22960, "\u0120Knox": 37569, "Cluster": 31455, "MULT": 38299, "ettings": 12950, "\u0120Lat": 14310, "\u0120Sheets": 43859, "\u0120authored": 47895, "\u0120devices": 4095, "letcher": 34828, "ificates": 23994, "ARY": 11164, "\u0120Rose": 12447, "RSP": 50073, "\u0120decentralized": 40880, "\u0120\u0120\u0120\u0120\u0120\u0120\u0120\u0120\u010a\u0120": 49176, "\u0120hoping": 11525, "\u0120upt": 11776, "factor": 19012, "pired": 24875, "\u0120At": 2058, "ancies": 14013, "Previously": 50069, "inces": 18508, "\u0120Ub": 43899, "\u0120537": 43440, "\u0120\u00f0\u0141\u013b\u0124": 42908, "garten": 40122, "\u0120optimum": 24571, "BBC": 47235, "pc": 5902, "\u0120fist": 20008, "\u0120501": 28416, "Asp": 35087, "UNITED": 33249, "wife": 27505, "\u00e3\u0123\u0137\u00e3\u0124\u0135": 42627, "\u0120Billboard": 41073, "\u00e3": 159, "\u0120$^{": 19219, "\u0120plays": 7120, "\u0120og": 9040, "\u0120debit": 46810, "\u010a\u0109\u0109\u0109\u0109\u0109\u0109\u0109": 19228, "\u0120think": 1158, "\u0120hepatocytes": 36472, "Def": 4612, "\u0120harassment": 21199, "\u0120Erd": 37602, "ocytic": 25764, "etermined": 15769, "\u0120partnered": 47199, "******": 27591, "\u0120Failed": 40267, "FileType": 48632, "]_{": 35830, "\u0120hone": 39741, "frac": 1124, "\u00e7\u00b4\u0142": 48815, "\u0120mercury": 33679, "\u0120fully": 4751, "\u0120\u00e2\u0138\u0142": 45247, "\u0120dizz": 45639, "Lists": 50030, "\u0120considered": 2783, "\u0120questions": 3533, "\u0120CP": 13874, "\u0120Ket": 50105, "\u00ea\u00b3": 26437, "\u0120progressed": 33127, "Te": 7573, "\u0120producing": 9603, "\u0120defender": 26762, "\u01201830": 46215, "\u0120Cle": 8148, "Rad": 13021, "\u0120embarrassed": 30069, "\u0120organisms": 16711, "possibly": 38896, "ifold": 49228, "\u0120multiply": 30247, "\u0120contaminated": 25493, "\u0120fe": 704, "curve": 33356, "fig": 926, "Nan": 45787, "iva": 9321, "\u0120Walsh": 36360, "MP": 4548, "\u0120mic": 8555, "\u0120);": 5349, "\u0120deliber": 12465, "\u0120dt": 19641, "\u0120dm": 42961, "Yesterday": 43688, "okes": 7095, "\u0120destroyed": 11069, "\u0120extremes": 41798, "widet": 6767, "\u0120untreated": 20716, "\u0120juices": 44253, "Table": 3235, "\u0120ib": 18890, "bial": 11588, "lett": 17655, "Chinese": 27223, "\u0120Chairman": 21240, "\u0120Joel": 31513, "\u0120rode": 22461, "\u0120reflect": 4887, "\u0120anxious": 20138, "\u0120Cars": 46759, "otor": 17894, "\u0120trailers": 47958, "woods": 48853, "quit": 48997, "\u0120eryth": 21564, "\u0120lobes": 43253, "847": 49830, "\u0120item": 5382, "\u00d2": 142, "\u0120EP": 16602, "507": 27133, "\u0120researchers": 8607, "amazon": 32687, "ampton": 32362, "\u0120readable": 34025, "\u0120droplet": 36131, "\u0120Mao": 36194, "\u012081": 11681, "\u0120Mult": 9170, "\u0120purported": 28751, "\u0120misses": 38771, "RAF": 40846, "iju": 44823, "perial": 19648, "\u0120feeder": 47843, "\u0120cytosol": 48986, "\u0120419": 38380, "\u0120pivot": 26376, "\u0120Zhao": 46530, "\u0120reset": 14932, "\u0120wr": 1488, "\u0120Vincent": 26456, "\u0120Happ": 34386, "intent": 30699, "\u0120tras": 40800, "\u0120dogs": 9097, "hair": 41754, "\u00e5\u00ae": 6916, "\u0120baseline": 8245, "\u01201500": 27091, "\u0120NPR": 37957, "\u0120warned": 14315, "oste": 35279, "SEQUENTIAL": 46068, "\u0120endl": 39659, "unnumbered": 22322, "additional": 38092, "\u0120Od": 18668, "}})\\": 27927, "umption": 23892, "\u0120lbs": 38818, "\u0120zoning": 35900, "\u0120got": 1694, "\u0120turf": 44409, "platin": 30600, "\u0120STRICT": 47528, "memcpy": 47962, "umers": 49250, "nya": 49252, "jav": 20304, "pose": 3014, "\u0120step": 3213, "V": 55, "\u0120valid": 3588, "password": 15760, "\u0120mi": 3641, "ns": 2224, "\u0120Ball": 14702, "\u0120Jen": 18854, "Password": 22147, "verted": 13083, "\u0120discipline": 17518, "\u0120Hogan": 45714, "morrow": 49178, "\u0120Personally": 49920, "ments": 942, "\u0120andra": 50226, "               ": 50263, "OO": 4985, "\u0120Key": 10030, "\u0120brief": 4864, "paid": 21470, "\u0120Sources": 34734, "\u0120Ded": 47131, "\u0120peritoneal": 35948, "ais": 4631, "\u0120grate": 12525, "\u0120nons": 14122, "\u0120strikes": 18200, "\u0120Seven": 20400, "\u0120torque": 20441, "\u0120swallowed": 30427, "sters": 13297, "\u0120apoptotic": 25465, "\u0120Especially": 23498, "headed": 24818, "paces": 32328, "\u0120valence": 35874, "\u00e0\u00b8\u0126": 37506, "procedure": 45760, "\u0120Heter": 49125, "\u0120HS": 21502, "\u0120tongue": 14018, "German": 22353, "\u0120Directory": 36186, "anta": 7300, "Kin": 47844, "\u0120defeat": 13313, "\u0120Chancellor": 34641, "holm": 26666, "\u0120327": 31133, "\u0120paran": 34823, "\u0120coil": 18783, "ellington": 38796, "tip": 22076, "\u0120clamp": 23722, "\u0120Packers": 43290, "administ": 25143, "Additionally": 28144, "\u0120therapies": 17484, "uitable": 32672, "\u0120Effective": 41805, "\u0120clonal": 47957, "oyo": 49155, "rain": 1949, "\u0120Wash": 28553, "\u0120beads": 21162, "\u0120woven": 39239, "297": 23185, "\\[[@": 8088, "DB": 8904, "0023": 34063, "\u0120technologies": 10296, "\u0120112": 11633, "\u0120indeed": 6296, "aset": 23456, "\u00e8\u00ba\u00ab": 45748, "\u0120111": 11334, "\u0120dens": 12006, "gment": 2747, "\u0120MHC": 32209, "agulation": 26468, "\u0120Disk": 44088, "\u0120inhaled": 44280, "\u0120Gunn": 46511, "PTR": 33955, "iento": 17925, "ocalypse": 43862, "\u00e6\u0143": 14486, "\u0120Besides": 15222, "\u0120Cult": 33994, "\u0120TEM": 29021, "\u0120medalists": 45378, "encial": 49016, "\u00e7\u012a": 42025, "\u0120calorie": 49450, "\u0120troubled": 26504, "\u0120Questionnaire": 38536, "branes": 36299, "\u0120syst": 21544, "\u0120passwords": 34060, "Chat": 33731, "\u0120Devon": 40316, "john": 34276, ")](": 36586, "\u0120joking": 43707, "ogi": 48000, "453": 31213, "iotensin": 33721, "facebook": 24557, "0070": 42834, "cted": 2356, "\u0120collective": 12786, "\u0120helic": 15206, "aky": 22560, "\u0120called": 1925, "\u0120General": 4214, "\u0120Virginia": 9385, "Control": 10588, "\u0120btn": 23929, "\u0120Develop": 20148, "\u0120sized": 25180, "\u0120committing": 26841, "hp": 28368, "\u0120curric": 22182, "rocytes": 20158, "jiang": 36492, "mime": 42155, "\u0120repairing": 47387, "riends": 15145, "ceedings": 22868, "\u0120anyone": 3780, "\u0120sacrifices": 38558, "\u0120intron": 40131, "\u0120BD": 21102, "isten": 26307, "defendants": 48631, "\u0120behaviors": 13576, "undefined": 31549, "Click": 7146, "\u0120Trial": 20819, "\u0120Quebec": 25287, "\u0120Legion": 36200, "jump": 48742, "escape": 34189, "\u0120Nim": 49608, "WARNING": 42328, "\u0120Lig": 45494, "Aye": 50195, "\u0120\u00d8\u00a7\u00d8": 32262, "Last": 8693, "\u0120recycling": 28604, "\u01203000": 27295, "about": 10383, "\u0120exceptional": 18714, "Anything": 38714, "\u0120478": 42035, "\u00e3\u0123\u0136": 46843, "\u0120tractor": 39463, "\u0120Amend": 44518, "\u0120bell": 17487, "\u00d7\u0139": 36403, "\u0120admitted": 8176, "\u0120outer": 8346, "required": 17354, "\u0120sugg": 1803, "igs": 17638, "402": 24948, "plemented": 38758, "\u0120Neut": 44889, "\u0120hugged": 46486, "vl": 29576, "\u0120NIR": 47067, "Quantity": 48514, "\u0120Bed": 19761, "})^{-": 44359, "cons": 5040, "\u0120eth": 5105, "\u0120Another": 8035, "296": 23402, "\u0120African": 8118, "\u0120pathetic": 40479, "MESS": 32311, "\u0120regulates": 23123, "don": 9903, "\u0120Mix": 22347, "\u0120\u00ec\u0137": 41514, "\u010a\u010a\u010a\u010a\u010a\u010a\u010a\u010a": 25330, "\u0120841": 43909, "che": 1962, "\u0120446": 42737, "\u0120seller": 24451, "\u0120Lindsay": 44056, "\u0120applications": 4893, "\u0120deport": 44581, "\u0120uh": 16831, "Case": 11247, "131": 17015, "EMPT": 47913, ";;": 12723, "\u0120mythology": 40898, "\u0120engaging": 15966, "\u0120kl": 27451, "stead": 26463, "\u0120occasional": 19322, "\u0120Fowler": 47574, "kind": 11258, "\u0120coins": 21078, "follow": 25739, "iscuss": 8552, "flight": 31045, "\u0120stare": 25885, "ex": 911, "\u0120estos": 48421, "\u0120METHODS": 49044, "\u0120oligonucleotides": 47200, "sw": 2140, "\u0120simplest": 22325, "\u0120ring": 5818, "GY": 39491, "\u0120forums": 25278, "\u0120Nursing": 42985, "\u0120acted": 14001, "\u00d0\u00bd\u00d1\u012d\u00d1\u0127": 28167, "}}}}\\": 39272, "\u010a\u010a\u0109\u0109": 11866, "\u0120exec": 3244, "\u0120cortex": 14031, "ali": 8952, "\u0120develops": 24357, "\u0120blood": 2614, "HOU": 23704, "\u0120LB": 27118, "\u0120Arabic": 26503, "373": 29546, "\u0120\\}": 31858, "\u00c2\u0126": 13854, "inee": 22593, "isenberg": 38469, "\u0120credibility": 17938, "\u0120538": 43139, "\u0120nest": 15178, "\u0120Today": 11056, "ieri": 33239, "idity": 14283, "\u0120Lorentz": 29602, "\u0120relatively": 4942, "itions": 4431, "\u0120technique": 5853, "\u0120gentle": 9950, "\u0120attorneys": 16010, "eros": 18503, "\u0120cot": 13450, "\u0120ect": 26570, "\u0120refinement": 29646, "646": 25238, "sein": 34103, "ogenesis": 8258, "\u0120Wellington": 42337, "\u0120Anglic": 44736, "\u0120malignant": 17566, "\u0120tells": 8599, "drive": 27190, "\u0120hat": 7856, "\u0120suspects": 25638, "\u0120\u00ce\u0136": 13803, "ateness": 48362, "mw": 50198, "ping": 14650, "crypt": 22243, "\u00d0\u00bb\u00d0\u00b0": 36593, "wine": 49032, "mul": 31601, "\u0120vol": 1936, "uit": 2338, "\u0120OK": 10826, "\u0120slowing": 32103, "\u0120headlines": 27815, "413": 37012, "\u0120Thermo": 44207, "Elizabeth": 45150, "\u0120nost": 19063, "\u0120query": 7316, "\u0120Kurdish": 41340, "\u0120tad": 46868, "green": 11707, "atted": 19822, "\u00e6\u013e\u0122": 25538, "\u0120simulation": 9864, "\u0120dislike": 34941, "\u0120apparent": 5165, "\u0120by": 407, "\u0120Internet": 7336, "\u00e1\u00bf\u00b6": 41862, "\u0120Sand": 7889, "etto": 42136, "\u0120caching": 42324, "\u0120respects": 23006, "\u0120microM": 42827, "\u00e0\u00b0\u00bf": 44973, "\u0120me": 479, "\u0120THERE": 38038, "\u00e3\u0125\u0142": 39162, "idelity": 21718, "\u0120Null": 34631, "\u0120twisting": 37871, "NI": 13652, "igin": 15085, "fel": 28353, "ico": 4173, "\u0120Tort": 35472, "vim": 35676, "\u0120regul": 5433, "\u00e3\u0124\u00b7\u00e3\u0125": 35259, "\u0120asynchronous": 35576, "sym": 14774, "cal": 1179, "lia": 19702, "Department": 25508, "Records": 48081, "\u0120quir": 43915, "&$": 35965, "etimes": 46988, "\u0120afferent": 49066, "\u0120tutorials": 40727, "\u00e9\u0139\u00ae": 49271, "\u0120remotely": 27938, "Josh": 39324, "widetilde": 6796, "regular": 12846, "\u0120Hurricane": 34473, "rolling": 19891, "\u0120terminated": 19344, "\u0120averages": 31218, "ocker": 14119, "\u0120?": 3736, "\u0120boom": 25014, "ades": 3355, "\u00e3\u0123\u013f": 15936, "\u0120purs": 8796, "\u0120regener": 23999, "\u00ea\u00b0": 26532, "\u0120unreal": 32638, "\u0120glaring": 45982, "\u0120sit": 1790, "\u0120concentrations": 6299, "\u0120neo": 28522, "genstein": 47583, "406": 24854, "\u0120formaldehyde": 48306, "\u0120spacing": 22735, "\u0120acknowledgment": 48371, "\u0120RX": 34127, "\u0120rainfall": 33621, ":&": 44662, "usterity": 48033, "ulating": 8287, "popular": 32667, "oplan": 37200, "spi": 37640, "\u0120canopy": 39625, "abe": 12424, "Space": 16929, "\u0120shaking": 18577, "\u0120uptake": 13797, "\u0120PROVIDED": 33278, "\u0120tremend": 17623, "\u0120success": 2323, "\u0120Patent": 11754, "\u0120alla": 21267, "\u0120analogy": 24760, "\u0120vet": 26925, "\u0120dead": 3846, "DATE": 33762, "st": 296, "\u010a\u0109\u0109\u0109\u0109\u0109\u0109\u0109\u0109": 13523, "\u0120Dong": 39571, "Destroy": 42881, "\u0120Claim": 16353, "ong": 543, "ifs": 27530, "\u0120Johns": 34676, "\u0120elastic": 15386, "\u0120veloc": 6641, "\u0120Respond": 16546, "hele": 48056, "VERSION": 17037, "\u0120infrared": 20542, "\u0120emphasis": 15075, "Vi": 37956, "anti": 11924, "\u0120Bears": 34105, "phrase": 40712, "\u0120telescopes": 49997, "\u0120expecting": 16764, "\u0120ejection": 34261, "\u0120large": 1781, ".'": 2464, "Register": 16601, "\"?": 16296, "embed": 24224, "choose": 27271, "ported": 10750, "\u0120Song": 16865, "Michael": 18744, "\u0120Spot": 28238, "yler": 19482, "\u0120RN": 27840, "Histor": 32086, "\u0120heroic": 36715, "\u0120fantastic": 15143, "\u0120wedge": 33906, "\u0120jewel": 22812, "\u0120LIABLE": 34745, "\u0120postp": 34807, "\u0120RAM": 21325, "\u0120Spect": 17143, "\u0120embol": 37165, "Canvas": 39442, "\u0120doped": 39986, "omat": 16692, "\u0120Kab": 40566, "Idx": 34345, "format": 8124, "orian": 40563, "bish": 40705, "\u0120Corinth": 41118, "xit": 19706, "\u00c3\u00b1a": 23748, "\u0120Riemannian": 42601, "1996": 12487, "owe": 39036, "\u0120continuing": 11440, ")).": 5029, "hind": 18615, "phis": 29155, "\u0120locale": 32099, "ospit": 10472, "\u0120Jung": 38973, "\u0120loops": 17417, "\u0120Cafe": 45013, "\u0120rins": 32677, "\u00e3\u0123\u00a1": 23826, "\u0120FIG": 7705, "\u0120conference": 8059, "\u0120faces": 9365, "attices": 34270, "\u0120settling": 29116, "\u0120superiority": 34385, "\u0120corrections": 17660, "\u0120Cli": 37399, "UIC": 45717, "\u0120\u00e2\u0122": 541, "\u0120traumatic": 27784, "\u0120fict": 46398, "Chunk": 46367, "plugin": 16895, "thank": 47033, "\u0120verbose": 48656, "\u0120559": 47534, "threshold": 34503, "dated": 14151, "Query": 8053, "ield": 1001, "ontrol": 49229, "irector": 8152, "Adapter": 16930, "\u0120segregation": 29604, "Links": 44225, "ila": 8807, "\u0120modern": 4980, "\u0120Bird": 25080, "\u0120elephant": 31865, "\u0120540": 36725, "\u0120Kyle": 25856, "\u0120richer": 38539, "ball": 2910, "Many": 10195, "\u0120ectopic": 45269, "icon": 3557, "\u0120deciding": 18000, "\u0120Transition": 48332, "\u0120guide": 7102, "\u0120obstacles": 24238, "\u0120Cor": 3094, "\u0120flag": 7908, "\u0120turned": 3531, "published": 15855, "\u0120Philipp": 16312, "sr": 18356, "FIL": 23562, "omaly": 27724, "\u0120trait": 18177, "lyss": 47758, "\u0120retardation": 48112, "lake": 48212, "ostomy": 50089, "places": 30345, "ameters": 21644, "\u0120provocative": 49317, "Abs": 18310, "\u0120\u0120\u0120\u0120\u0120\u0120\u0120\u0120\u0120\u0120\u0120\u0120\u0120\u0120\u0120\u0120\u0120\u0120\u0120\u0120\u0120\u0120\u0120\u0120\u0120\u0120\u0120\u0120\u0120\u0120\u0120\u0120\u0120\u0120\u0120\u0120\u0120\u0120\u0120\u0120\u0120\u0120\u0120\u0120\u0120\u0120\u0120\u0120\u0120\u0120\u0120\u0120\u0120\u0120\u0120\u0120\u0120\u0120\u0120\u0120\u0120\u0120\u0120\u0120\u0120\u0120\u0120\u0120\u0120\u0120\u0120": 37242, "\u0120func": 11632, "\u0120@\"": 27508, "distributed": 45618, "Moreover": 21342, "\u0120socks": 33957, "1979": 18647, "matched": 25049, "\u0120Accept": 31884, "Different": 21956, "\u0120substantial": 6832, "ertility": 35442, "\u0120wenn": 35569, "^+_": 47106, "\u0120In": 496, "\u0120caring": 23374, "consider": 15603, "\u0120intrac": 11251, "\u00d8\u00aa": 8181, "\u0120PURPOSE": 20103, "jl": 40031, "rically": 16671, "este": 16300, "\u0120conce": 10686, "\u0120md": 31934, "\u00e0\u00b0": 10681, "\u0120ery": 17900, "\u0120day": 1388, "print": 3845, "\u0120vegetable": 21436, "\u0120tasty": 36766, "\u0120Sp": 2101, "\u0120Tensor": 41529, "\u00e6\u013a\u00af": 12105, "\u0120EMS": 44055, "it\u00c3\u00a4t": 37509, "\u0120replacements": 47105, "\u0120Taiwan": 17975, "chs": 42585, "\u0120Sever": 35395, "\u0120Citizens": 30299, "^\u00e2\u012a\u0134^": 24994, "mon": 2163, "\u0120Birth": 28919, "\u0120552": 41589, "\u0120Spin": 33757, "\u0120telomere": 48509, "Step": 13996, "\u0120mentioning": 29570, "\u0120allies": 17760, "CONST": 31700, "anges": 6525, "\u0120edit": 12921, "\u0120meteor": 31710, "\u0120Water": 10205, "\u010a\u010a\u0120\u0120\u0120\u0120\u0120\u0120\u0120\u0120\u0120\u0120\u0120\u0120\u0120\u0120\u0120\u0120\u0120\u0120\u0120\u0120\u0120\u0120\u0120": 30462, "\u0120pres": 838, "propto": 24213, "\u0120Pink": 27653, "\u0120glucocortic": 44154, "\u0120hour": 4964, "Steve": 31969, "\u0120CRM": 47428, "\u0120electronics": 23598, "\u00c2\u012a\u00c2\u0133": 46230, "Risk": 44751, "return": 2309, "\u0120Logan": 31755, "refore": 3447, "\u0120\u00c2\u00b6\u00c2\u00b6": 38320, "\u0120bara": 47039, "opolys": 44289, "Oct": 14909, "\u0120voluntarily": 25706, "aug": 2321, "Patent": 40504, "\u0120animated": 21530, "\u00b7\u00b8": 39068, "\u0120clustered": 29102, "Windows": 14877, "ostat": 30469, "\u0120marketed": 39809, "\u0120simpler": 19554, "\u0120terrorists": 23689, "\u01201896": 43843, "txt": 10134, "riors": 19426, "\u0120redund": 19886, "RX": 20743, "Online": 30430, "\u0120baff": 38393, "\u0120ogs\u00c3\u00a5": 40415, "\u0120Partnership": 32015, "\u0120invading": 45573, "\u0120Db": 46688, "ancers": 13342, "\u0120hall": 7423, "\u0120King": 4377, "ALLY": 25509, "FET": 30516, "\u00e3\u0124\u00bf\u00e3\u0125\u00bc": 47519, "\u0120remark": 7579, "\u0120Hence": 7757, "\u0120Intelligence": 19256, "\u0120judicial": 12379, "\u0120volatile": 22326, "\u00d9\u0128\u00d8\u00af": 47951, "\u0120Aub": 29560, "yl": 1190, "chap": 34529, "\u0120Surviv": 49693, "||": 9473, "hest": 3957, "\u0120deviations": 21492, "\u0120PhD": 23011, "parameter": 19484, "\u00c3\u00b6m": 35127, "\u0120concise": 44003, "\u0120petrol": 46181, "aps": 1825, "predict": 22714, "spec": 4157, "\u0120ris": 7361, "\u00e0\u00b8\u0123": 26265, "\u0120gelatin": 37178, "):=": 38132, "Gary": 49085, "Area": 23954, "Element": 7050, "\u0120attendance": 21250, "iest": 10558, "\u0120chin": 22239, "980": 35366, "^\u00c2\u00ae": 27596, "\u0120eject": 37726, "ringes": 45324, "\u0120outlaw": 46084, "\u0120digitally": 48225, "\u0120Earlier": 36072, "\u0120graded": 25082, "AFFIRMED": 43029, "}\\\\": 11054, "\u0120collections": 18406, "\u0120bride": 28338, "\u0120caliber": 46672, "\u0120unsafe": 20372, "\u0120\u00c3\u00a9s": 24868, "\u0120overcoming": 40845, "ai": 2284, "\u0120NFL": 13946, "secret": 22882, "\u0120Henderson": 30756, "\u0120hadronic": 49680, "`": 65, "\u0120actually": 2686, "\u0120statistics": 9990, "\u0120invari": 24162, "QW": 38803, "\u0120capacities": 29142, "\u0120Joan": 29778, "066": 39425, "ipzig": 47265, "\u00e2\u013b\u00aa": 12218, "gio": 40635, "DON": 39153, "\u0120Bre": 7528, "\u00e5\u00be": 12005, "itting": 2835, "protein": 20529, "Roman": 30574, "\u00e5\u013e\u00b0": 24086, "\u0120insulation": 29491, "\u0120carcinomas": 35563, "Ui": 49511, "USB": 26346, "KS": 14007, "\u0120exhibited": 12322, "\u0120antifungal": 49105, "\u0120diplomatic": 23949, "\u0120eru": 36850, "\u0120Hamb": 31405, "\u0120seemed": 4455, "ahn": 18272, "\u00ce\u00b5\u00ce\u00bd": 30681, "\u0120Scientists": 45273, "adult": 50006, "\u0120McN": 32433, "hea": 21071, "\u0120width": 4871, "\u0120Shanghai": 23494, "\u0120geography": 37756, "\u0120wiring": 24927, "\u0120inspire": 26761, "\u0120\u00d0\u00b7\u00d0\u00b0": 19113, "idin": 21480, "\u0120weary": 35725, "rights": 37767, "geo": 42325, "jac": 47941, "\u0120Sanders": 16732, "\u0120Sophie": 35262, "ison": 1988, ")$;": 46433, "\u0120SMALL": 26381, "\u0120unf": 5369, "hand": 4608, "\u0120Ghana": 34905, "tal": 22559, "\u0120prefrontal": 42793, "\u00c3\u00bcck": 27646, "+/": 34554, "\u0120epid": 19075, "\u0120antipsych": 46271, "++)": 9234, "\u0120intermedi": 26103, "\u0120\u0120\u0120\u0120\u0120\u0120\u0120\u0120\u0120\u0120\u0120\u0120\u0120\u0120\u0120\u0120\u0120\u0120\u0120\u0120\u0120\u0120\u0120\u0120\u0120\u0120\u0120\u0120\u0120\u0120\u0120\u0120\u0120\u0120\u0120": 12375, "Average": 33993, "\u0120injecting": 42014, "Btn": 46307, "GUI": 46736, "usable": 34153, "\u0120san": 7699, "\u0120frequency": 4294, "\u0120debian": 43353, "\u0120contro": 8830, "ometer": 11955, "vant": 3179, "\u0120Linda": 28083, "verage": 2394, "\u0120tut": 17846, "\u0120composition": 5889, "met": 3899, "parse": 12083, "\u0120activism": 42123, "735": 46676, "\u00e7\u00a7\u012f": 49288, "\u00bc": 122, "oir": 9283, "\u0120Something": 18190, "luent": 36711, "owski": 15767, "0033": 40306, "\u0120Hubbard": 35826, "assertEquals": 32315, "oso": 26471, "\u0120catheter": 18629, "\u0120VAL": 15527, "ijerph": 11763, "\u0120ultimate": 12553, "\u0120Studio": 17203, "\u0120premises": 18702, "(:": 20805, "\u0120open": 1527, "\u0120evident": 8943, "impl": 15680, "Materials": 22025, "\u0120flo": 9071, "\u0120Atlanta": 18267, "aporation": 33874, "Rather": 42031, "aching": 5250, "\u0120Wing": 28139, "\u0120Adrian": 33357, "\u0120{#": 1712, "any": 1279, "\u0120Plaintiffs": 12601, "sectional": 20382, "\u0120[[*": 44965, "ot": 302, "\u0120Goth": 28559, "\u0120pt": 31048, "policy": 22872, "ANCE": 19320, "\u0120flashed": 34645, "\u0120accomplishment": 42285, "\u0120empirically": 45190, "\u0120Pag": 40670, "\u0120criticize": 45688, "ati": 8657, "\u0120promotes": 18653, "\u0120gan": 36827, "ilda": 34223, "\u00e2\u0137\u0132": 20245, "\u01201993": 9725, "\u0120transformation": 9261, "################": 11890, "\u0120impression": 13214, "those": 21808, "\u0120ab": 490, "\u0120elapsed": 38667, "ipeg": 44228, "685": 49722, "\u0120roast": 37092, "\u0120metaphor": 27294, "\u0120DOS": 45379, "ICT": 30152, "\u0120Father": 10956, "\u0120recreational": 28977, "*;": 25350, "\u00c3\u00a1v": 34141, "\u00e3\u0123\u013a": 31355, "genome": 39956, "ARA": 40107, "\u010a\u0120\u0120\u0120\u0120\u0120\u0120\u0120\u0120\u0120\u0120\u0120\u0120\u0120\u0120\u0120\u0120\u0120\u0120\u0120\u0120\u0120\u0120\u0120\u0120\u0120\u0120\u0120\u0120\u0120\u0120\u0120\u0120\u0120\u0120\u0120\u0120\u0120": 27323, "\u0120designated": 13205, "\u0120Barack": 22306, "\u0120locating": 43042, "494": 32942, "\u0120fork": 21195, "\u0120handy": 24783, "\u0120Battery": 45733, "\u0120natives": 38646, "\u0120climax": 50068, "\u0120taxes": 10474, "inst": 6839, "\u0120purpos": 46060, "481": 34474, "\u0120Gonz": 21178, "\u0120labs": 39803, "]];": 44270, "\u012060": 3925, "ude": 2496, "\u0120methylated": 49179, "ribut": 1782, "\u0120CON": 5836, "\u0120undes": 19231, "journal": 19317, "\u0120sequenced": 27867, "\u0120Von": 36372, "\u0120ignoring": 23111, "\u0120GSK": 45489, "\u0120rod": 12591, "\u0120rises": 22844, "\u0120defeats": 49204, "\u0120tal": 5269, "chains": 47513, "lict": 5404, "itled": 5924, "\u0120referred": 6289, "\u0120entropy": 15579, "\u0120parallel": 7529, "eren": 22061, "\u0120Ho": 11826, "\u00e6\u0137": 10962, "\u0120cards": 8364, "\u0120INS": 22162, "\u00d1\u0124\u00d0\u00b5": 44552, "\u0120Edison": 48248, "\u0120breathing": 14578, "Score": 29064, "heter": 33709, "\u0120averaging": 25001, "\u0120AUTHOR": 48422, "\u0120HOME": 49418, "igraphy": 49792, "\u0120fel": 11664, "TY": 25090, "Fil": 7047, "\u0120gh": 32798, "\u0120bipartisan": 45320, "dee": 46208, "pone": 2041, "Move": 19815, "\u0120prohibition": 30034, "\u0120Pentagon": 30186, "\u0115": 198, "FI": 6766, "ropolitan": 19646, "\u0120excluding": 22914, "1234": 28941, "au": 1952, "ons": 790, "\u0120Democr": 5364, "\u0120res": 501, "\u0120hair": 4707, "mas": 6681, "upid": 10461, "2020": 14952, "\u0120memorable": 27795, "\u0120Herald": 31566, "\u0120deze": 33117, "umas": 49998, "\u0120tightly": 18996, "\u0120maintain": 6558, "\u0120desk": 8597, "\u0120ornament": 34367, "Upon": 28050, "\u0120lasting": 21692, "alar": 45825, "\u0120correspond": 2723, "\u0120Jamie": 27283, "Bring": 35344, "\u0120exchange": 6431, "\u0120phases": 12475, "\u0120chron": 20600, "\u0120grandfather": 21507, "\u0120entr": 10032, "\u0120happen": 5108, "\u0120establish": 5100, "\u0120extrac": 14401, "\u0120Rud": 21523, "imbabwe": 35976, "']": 6038, "\u0120Leigh": 49150, "\u0120modul": 13157, "\u0120diss": 5408, "\u0120ka": 16288, "scriptions": 28132, "\u0120ambit": 22261, "c\u00c3\u00a9": 32612, "\u0120anth": 13950, "affe": 23510, "ened": 2348, "\u0120Half": 23177, "\u0120stocks": 19487, "\u00e5\u0131\u0133": 29918, "\u0120daylight": 31335, "\u0120favor": 3718, "naissance": 34056, "\u0120Heath": 35578, "ilevel": 48268, "\u0120lemma": 18057, "isset": 33915, "Men": 18812, "\u0120lower": 2406, "class": 2437, "\u0120female": 5343, "\u0120walking": 7824, "\u0120armed": 12360, "\u0120summarize": 26799, "================================================": 33015, "\u0120estim": 3311, "\u0120\u00d0\u00bd\u00d0\u00b0": 8713, "\u0120spheres": 28394, "Values": 15888, "izontal": 19650, "\u0120Storm": 25005, "\u0120bins": 27925, "\u0120calculation": 10272, "\u0120oscillator": 27957, "\u00d0\u0139": 48390, "\u0120unders": 17433, "\u0120changes": 2544, ")}+": 49633, "icine": 35705, "\u0120Hudson": 23602, "\u00e5\u013e\u00a8": 13610, "232": 19136, "\u0120433": 38935, "\u00e2\u0138": 10897, "nj": 43498, "\u0120exempt": 13959, "Sk": 15992, "\u0120suppress": 10476, "\u0120inflammation": 10696, "vertisement": 27583, "\u0120cages": 41459, "\u0120WD": 40789, "mmr": 41615, "Community": 40645, "\u0120Michigan": 11314, "FW": 20941, "yson": 28533, "\u0120football": 5842, "\u0120publisher": 19600, "Cambridge": 33738, "\u0120skill": 10861, "\u0120myc": 33410, "ettle": 35189, "\u0120Joseph": 10092, "\u0120achieved": 6786, "\u0120\u00c5\u00be": 19888, "tid": 32247, "\u0120nour": 34470, "\u0120THIS": 10113, "forest": 38250, "\u0120robber": 42012, "\u0120gang": 10821, "Ci": 42524, "horizontal": 33464, "Nik": 39104, "\u0120explosive": 26660, "\u0120Sister": 35213, "ains": 1550, "\u0120deficit": 19094, "\u0120rows": 10175, "------": 4485, "pnt": 22137, "people": 13174, "harmonic": 38474, "\u0120tube": 9402, "\u0120associ": 1709, "\u0120Ang": 4965, "\u0120defects": 12834, "\u0120Perry": 21872, "\u0120displacement": 16837, "hm": 11774, "ocial": 2142, "etti": 21037, "adjust": 18570, ").\\": 17585, "personal": 21941, "\u0120DJ": 22533, "\u0120Iron": 17826, "\u0120Murphy": 21741, "\u0120disappearance": 31852, "Sing": 14017, "\u0120selector": 23434, "\u0120DATA": 27809, "\u0120Coulomb": 34008, "\u0120IM": 10744, "cels": 35430, "\u0120informant": 37065, "\u0120now": 1024, "\u00d1\u0123": 1674, "\u0120Saint": 11877, "\u0120wheelchair": 37962, "\u0120Israelis": 40968, "\u0120casually": 42708, "ront": 47610, "AO": 48713, "crets": 39796, "cgi": 23146, "\u0120Majority": 43471, "\u0120crashes": 29212, "iger": 8047, "ographics": 24959, "heres": 14210, "Batch": 34561, "Runtime": 17577, "racted": 14668, "\u0120treat": 1555, "\u0120Judiciary": 42591, "Having": 18562, "\u0120carotid": 30757, "\u0120Und": 42812, "\u0120dispense": 47564, "\u0120Titans": 47799, "912": 49416, "inez": 24063, "\u0120WANT": 40505, "\u0120creating": 6153, "\u0120Vari": 19988, "ate": 366, "icillin": 24664, "\u0120conferences": 27691, "After": 4553, "\u0120ratio": 4313, "\u0120Gospel": 33283, "rades": 36343, "\u0120Roma": 35532, "\u0120shotgun": 35694, "]{}\\": 12159, "\u0120complement": 13503, "plasty": 44406, "\u0120ultrason": 24223, "\u0120analysts": 26154, "EXP": 40207, "\u0120bounce": 31888, "\u0120don": 1053, "\u012024": 2164, "ailed": 7193, "\u0120reducing": 8493, "\u0120Marine": 18671, "vert": 1748, "\u0120Springs": 26250, "CTS": 33949, "medical": 38079, "\u0120\u0120\u0120\u0120\u0120\u0120\u0120\u0120\u0120\u0120\u0120\u0120\u0120\u0120\u0120\u0120\u0120\u0120\u0120\u0120\u0120\u0120\u0120\u0120\u0120\u0120\u0120\u0120\u0120\u0120\u0120\u0120\u0120\u0120\u0120\u0120\u0120\u0120\u0120\u0120\u0120\u0120\u0120\u0120\u0120\u0120\u0120\u0120\u0120\u0120\u0120\u0120\u0120\u0120\u0120\u0120\u0120\u0120\u0120\u0120\u0120\u0120\u0120\u0120\u0120\u0120\u0120\u0120\u0120\u0120\u0120\u0120\u0120": 39454, "choice": 22122, "\u00d1\u0122\u00d0\u00b5\u00d0\u00bc": 40412, "\u0120came": 2210, "\u010d\u010a\u0109\u0109\u0109\u0109\u0109": 42595, "\u0120peace": 6330, "neum": 11312, "\u00e4\u00bd\u0135": 29645, "ci\u00c3\u00b3n": 45198, "\u0120stresses": 24631, "eper": 8390, "Dr": 9034, "\u0120spectrometry": 25535, "\u0120German": 5685, "paths": 34605, "\u0120Mold": 49523, "\u0120NS": 6640, "\u00e7\u00bb": 12755, "Jones": 27595, "\u0120Raz": 39194, "'])": 23405, "liance": 38114, "\u0120chemot": 48875, "\u0120Tech": 18447, "onna": 5860, "iew": 827, "Obj": 18527, "\u0120Pret": 24907, "said": 26357, "zone": 13634, "\u0120303": 29980, "\u0120Entry": 30234, "\u0120academics": 36760, "\u0120rodent": 40815, "Frames": 45952, "\u0120recept": 4432, "ERR": 8015, "\u0120inherent": 12794, "asi": 9720, "lis": 38466, "\u010a\u0120\u0120\u0120\u0120\u0120\u0120\u0120\u0120\u0120\u0120\u0120\u0120\u0120\u0120\u0120\u0120\u0120\u0120\u0120\u0120\u0120\u0120\u0120\u0120\u0120\u0120": 20380, "275": 20450, "\u0120Xml": 43209, "()</": 46410, "\u0120via": 3066, "\u0120Hull": 42432, "neck": 34936, "plasia": 24506, "ORDER": 24066, "\u0120tapped": 32033, "\u0120grandparents": 37186, "Commission": 42698, "\u0120atheros": 24719, "\u0120Sounds": 41900, "\u0120counterpart": 14317, "\u0120Ji": 43590, "\u0120conject": 19704, "used": 3197, "\u0120allegations": 11307, "816": 46455, "TZ": 46714, "typically": 42623, "\u0120melanoma": 22835, "\u0120culinary": 44604, "DX": 33321, "\u0120cavity": 13369, "\u0120developed": 3715, "Ye": 47391, "Hom": 21569, "\u0120sisters": 18903, "775": 49310, "\u0120startups": 37735, "\u0120occupying": 38648, "scribed": 31509, "\u0120rhyth": 28715, "transl": 34881, "pher": 20640, "\u0120170": 18672, "\u00e7\u00ac\u00ac": 24893, "\u0120PS": 10890, "\u0120wave": 5149, "\u0120substitutions": 35225, "\u0120EOS": 46569, "\u0120horrific": 41485, "\u0120exceedingly": 42508, "Compat": 30616, "erves": 19085, "osure": 3934, "\u0120late": 3563, "\u0120digest": 19818, "\u0120knocking": 30906, "freak": 40562, "\u0120\u0120\u0120\u0120\u0120\u0120\u0120\u0120\u0120\u0120\u0120\u0120\u0120\u0120\u0120\u0120\u0120\u0120\u0120\u0120\u0120\u0120\u0120\u0120\u0120\u0120\u0120\u0120\u0120\u0120\u0120\u0120\u0120\u0120\u0120\u0120\u0120\u0120\u0120": 13475, "\u0120Kirk": 22579, "yses": 25381, "\u0120mount": 4205, "\u0120dog": 4370, "Camera": 31962, "FromString": 34874, "\u0120Cyprus": 44637, "le": 282, "rs": 2967, "annel": 3536, "\u0120Secure": 46251, "CCT": 35163, "\u0120Rat": 18194, "\u0120hackers": 38287, "fecture": 42459, "\u0120UIT": 38894, "\u0120unden": 43296, "ischen": 16050, "\u0120\u00ce\u00b5\u00cf\u0122": 29495, "usions": 16723, "\u0120knows": 6057, "\u0120jur": 5099, "ductor": 8543, "\u0120cortical": 17902, "\u0120({\\": 20886, "\u0120morbidity": 21055, "Ton": 36601, "otransferase": 47640, "FA": 5377, "ician": 6876, "\u0120Pay": 12286, "\u0120strang": 23457, "\u0120waited": 13308, "Rightarrow": 30536, "rivol": 33200, "textstyle": 36718, "|\\": 3577, "\u0120248": 28640, "\u00c2\u00aa": 19964, "za": 4019, "CP": 5305, "\u0120meantime": 22849, "\u0120Hero": 22885, "\u0120Room": 19121, "}})$.": 39049, "\u0120intellectual": 12720, "}$": 724, "\u0120warns": 42169, "\u0120seg": 8753, "elta": 1862, "\u0120leg": 1791, "\u0120translate": 16497, "psych": 20980, "\u0120Orthodox": 30154, "\u0120tables": 7180, "401": 25797, "ters": 1336, "\u0120activ": 1396, "\u0120subjected": 12021, "irts": 14068, "\u0120packets": 20342, "\u0120immedi": 3670, "\u0120susp": 5167, "aryngeal": 28643, "\u0120Bav": 43447, "Prefab": 43472, "hti": 45161, "\u0120Auburn": 49433, "development": 27055, "\u0120crystals": 20642, "135": 13743, "\u0120discourage": 43162, "\u0120shaken": 36712, "Certificate": 41169, "unit": 8522, "catalina": 48391, "\u00e5\u013d\u00bd": 23197, "\u0120europ": 23620, "prem": 37448, "\u0120problems": 3237, "\u0120Gir": 35480, "placeholder": 42152, "\u0120decreasing": 11052, "\u0120cream": 10777, "umbai": 29819, "illian": 42622, "innie": 49417, "\u0120about": 670, "\u0120Occup": 29314, "combe": 49766, "\u0120Stra": 19967, "\u0120Nem": 37901, "oper": 2211, "Car": 10697, "rev": 15079, "Mart": 15510, "asha": 22967, "\u0120exposing": 28248, "kal": 26076, "iquity": 28780, "\u0120Bend": 38020, "\u00e8\u00ba": 41777, "\u00d1\u0131\u00d0\u00bc": 49977, "iza\u00c3\u00a7\u00c3\u00a3o": 48873, "\u0120fract": 10232, "\u0120genomic": 14421, "\u00d8\u00ba": 50011, "fire": 11342, "WITH": 24906, "\u0120lineback": 38521, "\u0120versions": 9508, "ilate": 47602, "\u0120weakness": 14855, "\u00b8": 118, "akan": 40946, "\u0120416": 35272, "\u0120low": 1698, "\u0120cohort": 11077, "oat": 4875, "\u0120perf": 20403, "\u0120pollen": 31371, "Company": 32088, "\u0120CPR": 47316, "uffling": 47587, "Launch": 41803, "7554": 49565, "\u0120Contract": 20597, "live": 22621, "?\"": 865, "vector": 11000, "\u0120BMI": 15481, "Rest": 17613, "ycl": 9920, "\u0120goose": 44165, "\u0120placent": 35135, "\u0120ming": 43261, "\u00df": 155, "Cred": 29981, "\u0120Murder": 46681, "\u0120incidence": 9364, "\u0120Lisbon": 48104, "Fly": 43104, "pinion": 22104, "rant": 4991, "NU": 9744, "\u0120luxury": 18997, "\u0120Kr": 17145, "film": 18405, "\u0120incorporation": 24319, "\u0120femin": 19026, "\u0120Sheriff": 22565, "anto": 11780, "\u0120\\$": 25486, "\u0120183": 26235, "\u0120performances": 16226, "\u00d0\u00be\u00d1\u0123\u00d1\u0124": 19745, "\u0120impaired": 15506, "osexual": 20703, "\u0120gro": 7753, "Equal": 12827, "\u0120GC": 15679, "\u0120GM": 15509, "\u0120experiences": 8450, "nodes": 26451, "\u0120solvents": 32281, "\u0120depicting": 35668, "nM": 36483, "\u0120gyrus": 37919, "\u0120grow": 1756, "\u0120Ben": 6029, "acles": 13853, ".**]{}": 36487, "Gro": 38650, "dos": 38755, "kok": 39052, "ardless": 21350, "ellite": 29873, "\u0120Pride": 39523, "opro": 39587, "\u0120competency": 43346, "ffen": 46756, "\u0120SM": 9947, "iom": 48673, "auth": 14399, "\u0120205": 22750, "Arr": 25918, "\u0120para": 5586, "\u0120words": 3000, "find": 8606, "\u0120PI": 14328, "\u0120corrosion": 30613, "\u0120superhero": 36962, "\u0120\u00c3\u00a9tait": 27611, "\u0120tangled": 49515, "\u0120brigade": 43594, "adjusted": 23811, "\u0120viability": 17036, "\u0120elucidated": 41167, "\u0120linking": 20057, "\u0120\u010a\u0109": 39171, "\u0120sein": 27437, "\u0120Movie": 27615, "\u0120proton": 19025, "\u0120bans": 44464, "uest": 34401, "\u0120dreaming": 36515, "\u0120Eco": 48804, "iens": 44209, "fif": 25512, "arat": 47310, "posts": 28361, "\u0120bones": 14910, "\u0120decays": 27221, "cium": 44185, "\u0120Burger": 48565, "ordinary": 13339, "\u00f0": 172, "-------": 6846, "\u0120[^": 27075, "\u0120fought": 13465, "\u0120freel": 31847, "atism": 44451, "\u0120Railway": 23419, "London": 18868, "\u0120Belgium": 22785, "\u0120cl": 502, "\u0120metastases": 24738, "\u0120harmony": 27851, "\u0120Ariz": 33570, "\u00e4\u00b8\u0143": 13609, "\u0120MC": 15300, "\u0120Xia": 40326, "\u0120Austin": 16916, "\u0120Fab": 17287, "\u0120recycled": 37470, "uxe": 45669, "_[": 14767, "\u00d0\u00ba\u00d1\u0125": 34366, "\u01201987": 12034, "short": 14458, "\u0120decoder": 29810, "JR": 30784, "\u0120Arctic": 27693, "ordon": 14276, "\u0120pointing": 13458, "TRUE": 26501, "\u0120liking": 35908, "\u00d0\u00b6": 11954, "\u0120witnesses": 12170, "\u00af": 109, "\u0120broadcast": 10675, "steps": 20528, "\u0120proto": 21634, "\u0120Foods": 36215, "Declaration": 36914, "\u0120reacting": 37986, "\u0120lifting": 20284, "ground": 2595, "\u00c3\u00a4tt": 21204, "BSD": 33725, "utations": 35294, "oxacin": 38060, "\u00e7\u0130\u00b0": 35321, "\u0120daughter": 6122, "\u00c2\u00bd": 8313, "\u0120satisfies": 12310, "Very": 17534, "\u0120Ky": 18009, "leftarrow": 33028, "\u0120conductors": 39713, "\u0120follow": 956, "\u0120Setup": 40852, "\u0120_.": 42315, "\u00e0\u00b8\u00ab": 43260, "aisy": 34076, "\u0120Pav": 32069, "\u0120Victory": 44071, "\u0120->": 5204, "Congress": 39333, "\u0120quarter": 7150, "\u0120stabbed": 37836, "\u0120Oliv": 47900, "\u0120swallow": 17510, "\u0120construed": 21323, "structure": 18317, "\u0120Problems": 37357, "\u0120stage": 3924, "\u0120recommending": 46705, "\":{": 46243, "\u0120jeg": 24056, "\u0120luminal": 46142, "\u0120Legisl": 17152, "ivated": 8550, "PSS": 21851, "valueOf": 48559, "\u0120Rome": 12300, "watch": 13060, "IDENT": 25788, "hbar": 13861, "\u0120prog": 23995, "\u0120covered": 6107, "\u0120idiot": 28006, "\u0120periodically": 28557, "ission": 1538, ".": 15, "CG": 10206, "\u0120imagined": 18998, "\u0120Platform": 28449, "ophilic": 28992, "\u00eb\u00a1": 31554, "\u0120Hayes": 33275, "ared": 1096, "Elements": 25170, "ivirus": 41525, "\u0120LL": 21708, "\u0120underwater": 35355, "tica": 18259, "club": 34583, "\u0120backdrop": 37924, "\u0120Rural": 34148, "\u0120evolving": 25537, "venue": 7290, "\u0120fig": 3036, "colm": 30512, "\u0120earn": 6233, "\u0120artist": 9558, "\u0120redes": 30924, "\u0120incorrectly": 30833, "\u0120civilized": 47182, "\u00ec": 168, "stra": 10981, "Reference": 12905, "\u0120societies": 21262, "\u0120agency": 6757, "ug": 814, "\u0120she": 703, "pine": 23344, "irl": 2587, "\u0120sustained": 12321, "\u0120Vo": 15914, "indo": 40870, "\u0120experience": 2793, "ays": 698, "\u0120Homer": 43051, "\u0120Control": 9175, "\u0120Variables": 40949, "\u0120indebted": 37187, "Enabled": 19157, "243": 23525, "\u0120Uncle": 23894, "ERE": 8147, "\u0120terrified": 32052, "\u0120Bing": 48600, "\u0120Chicago": 8068, "\u00d0\u00bd\u00d0\u00be\u00d0\u00b9": 29862, "\u00c3\u0127": 18221, "\u0120Foundation": 6807, "task": 14605, "\u00d0\u00b8\u00d0\u00b7": 21887, "\u0120annoyed": 34639, "\u0120Chrys": 37117, "\u0120detailing": 38746, "largest": 45242, "ivalence": 44132, "emen": 14745, "\u0120wisely": 46529, "ullary": 46909, "\u0120Giovanni": 48505, "\u0120Notice": 17766, "\u0120props": 29060, "\u0120psoriasis": 44455, "\u0120vide": 8851, "\u0120Hamm": 25478, "--------------------------------------": 35349, "ongs": 23750, "Foot": 20212, "idium": 29455, "\u0120brightest": 43719, "oct": 22947, "folder": 26687, "\u0120Happy": 27575, "\u0120Linked": 29743, "\u0120contin": 1558, "\u0120br": 1308, "nice": 40199, "\u0120consequ": 4823, "rens": 25083, "browser": 28197, "\u0120siege": 33758, "sey": 5462, "065": 34109, "\u0120abolition": 39208, "\u0120pals": 39839, "\u0120eat": 6008, "ative": 800, "\u0120etern": 16649, "\u0120sewage": 42655, "ek": 1441, "\u0120suck": 15327, "\u0120pecul": 18183, "\":{\"": 24285, "\u0120prov": 872, "\u0120medic": 4912, "145": 11838, "\u0120attitude": 12046, "\u0120cigarettes": 25539, "ribe": 29798, "\u0120ultr": 18311, "\u0120skull": 19567, "\u0120referral": 28149, "heavy": 37893, "108": 12347, "\u0120resentment": 40586, "Kal": 40917, "ndt": 40979, "\u0120campaign": 4544, "\u0120preferable": 29224, "\u0120blender": 42672, "\u0120COU": 10074, "\u0120alignment": 12420, "MSCs": 31412, "\u0120hydroph": 17957, "\u0120Sound": 18874, "\u0120Compl": 17878, "\u0120Aviation": 38315, "1177": 45085, "rud": 42111, "\u0120CITY": 45893, "requests": 45983, "\u0120soci": 10621, "\u0120Capt": 9426, "biology": 36415, "\u0120reins": 45419, "reign": 46219, "\u0120Introduction": 12276, "/\">": 40354, "\u0120spl": 6821, "\u0120Syn": 14139, "\u0120proportion": 8394, "\u0120efficacy": 10307, "\u0120Cent": 2932, "\u0120learnt": 34003, "573": 43924, "\u0120propagator": 45425, "pora": 47915, "lasting": 31403, "\u0120379": 36351, "UTERS": 48181, "usamm": 48440, "vn": 26697, "\u0120Nevertheless": 12257, "acea": 46183, "\u0120Photography": 48612, "hene": 17866, "ability": 1430, "\u0120PRE": 26887, "\u0120tapping": 37005, "\u00d7\u00a1": 49657, "ably": 1598, "\u0120crops": 19492, "\u0120clutch": 30231, "\u0120skills": 6936, "\u0120unsuccessful": 28008, "Enron": 26917, "\u00e7\u013d\u00b8": 32313, "\u0120departure": 16018, "\u0120millig": 47663, "ODU": 14647, "\u0120hacer": 29634, "weak": 20881, "EA": 25716, "\u0120possible": 1896, "DIR": 13266, "\u0120reminding": 40935, "\u0120ker": 20017, "brew": 18321, "Pac": 27879, "\u012058": 9135, "associated": 12534, "archive": 22477, "AUC": 42080, "]{}": 1181, "\u0120CURL": 44422, "\u0120mathematical": 15965, "beyond": 42218, "\u0120evangel": 28813, "\u01201972": 15750, "convex": 44181, "\u0120toile": 18016, "otics": 20290, "Fr": 4604, "izarre": 25944, "-------------------------------------": 35000, "_.\"": 42511, "\u0120neutralizing": 50130, "\u0120SS": 13575, "biom": 29812, "17": 1166, "\u0120interaction": 5016, "\u0120assail": 49198, "\u0120discretion": 8637, "\u0120hygiene": 32931, "ARM": 24407, "\u0120nh": 31386, "\u0120universities": 18403, "ieves": 32451, ">\",": 43856, "959": 35461, ")$,": 4244, "established": 21877, "serial": 25836, "\u0120cement": 19165, "functions": 20619, "\u0120computerized": 47968, "\u0120sediment": 26556, "ration": 1589, "\u00ec\u00a7": 27750, "yc": 33855, "\u0120Nissan": 48432, "\u0120six": 2800, "bf": 3342, "\u0120answers": 9172, "\u0120ranging": 12319, "\u0120n\u00c3\u0125": 38229, "\u0120three": 1264, "\u0120Siem": 49894, "avan": 18444, "because": 12157, "nement": 34711, "\u0120NaCl": 22748, "hatic": 47863, "\u0120Dies": 34147, "John": 8732, "\u0120thereafter": 17096, "\u0120purchases": 21754, "12": 805, "\u0120squat": 39163, "\u00c5\u0124o": 39867, "\u0120Outcomes": 50253, "science": 21559, "\u0120invoice": 45156, "acterial": 24097, "\\,\\": 12577, "Null": 13141, "from": 4064, "ACC": 15804, "\u0120maxim": 11903, "\u0120antitumor": 41068, "\u0120Karn": 42948, "\u0120newly": 9841, "ivent": 48764, "Anna": 40805, "\u0120induced": 5802, "\u0120KP": 49012, "\u0120=\\": 14680, "\u0120Guatemala": 46560, "Py": 14819, "53": 3357, "\u0120ky": 44996, "\u0120SNP": 20231, "\u0120nesting": 47847, "\u0120interesting": 4722, ")_{": 14548, "crypto": 36371, "\u0120intracranial": 41244, "Ther": 24305, "\u0120Ya": 36523, "\u0120Bib": 26453, "reng": 3755, "\u0120fores": 35903, "\u00ef\u00bc\u012e": 6238, "\u0120forged": 37260, "sensitive": 19579, "yond": 4091, "\u0120details": 4278, "\u00e6\u013f": 12676, "FLO": 38979, "\u0120sino": 40442, "\u0120Arms": 41481, "\u0120Gloria": 46972, "\u0120ri": 4172, "\u0120Programme": 35226, "ippets": 46588, "\u0120707": 48071, "\u0120#\"": 34449, "\u0120\u0120\u0120\u0120\u0120\u0120\u0120\u0120\u0120\u0120\u0120\u0120\u0120\u0120\u0120\u0120\u0120\u0120\u0120\u0120\u0120\u0120\u0120\u0120\u0120\u0120\u0120\u0120\u0120\u0120\u0120\u0120\u0120\u0120\u0120\u0120\u0120\u0120\u0120\u0120\u0120\u0120\u0120\u0120\u0120\u0120\u0120\u0120\u0120\u0120\u0120\u0120\u0120\u0120\u0120\u0120\u0120\u0120\u0120\u0120\u0120\u0120\u0120\u0120\u0120\u0120\u0120\u0120\u0120\u0120\u0120\u0120\u0120\u0120\u0120\u0120\u0120\u0120": 49051, "itto": 35570, "\u0120staff": 4750, "293": 19630, "foreign": 37380, "\u0120cruelty": 38087, "\u0120thous": 4429, "idic": 44521, "\u0120wrongly": 47723, "ACCESS": 40842, "lemma": 21838, "\u0120matched": 13373, "\u00e0\u00a5\u012d": 25159, "\u0120unavailable": 29356, "\u0120dest": 3154, "\u0120anchor": 18536, "\u0120Arab": 8365, "\u0120Expression": 18299, "\u0120Internal": 21074, "vous": 30571, "inki": 31609, "\u0120HPLC": 32230, "location": 12428, "950": 38678, "ynthetic": 23744, "617": 41830, "\u0120brokers": 45064, "Blog": 48943, "Ve": 31516, "\u0120mitt": 50075, "\u0120mocking": 49282, "\u0120COX": 34957, "\u0120Pe": 3586, "\u0120entertain": 9845, "\u0120),": 12062, "\u0120scroll": 14084, "sed": 15690, "\u0120Helen": 23442, "vol": 8625, "\u0120freezing": 24250, "\u0120prudent": 40662, "lesssim": 20089, "\u0120chromium": 50064, "\u0120airport": 13952, "\u0120cerebellar": 45357, "agues": 9681, "\u0120interference": 11689, "\u0120invalid": 12078, "varn": 46035, "\u0120nuclei": 15935, "\u0120obstacle": 26982, "mania": 32009, "Around": 37198, "\u0120Starbucks": 47841, "\u0120arr": 4077, "\u0120small": 1355, "\u00da\u00af": 40134, "ment": 420, "\u0120discovering": 30375, "\u0120Profile": 27047, "\u0120Isaac": 29222, "monary": 10803, "\u0120retard": 31832, "\u0120Enron": 32377, "umps": 10628, "rst": 37520, "\u0120entrusted": 49979, "antry": 24977, "660": 38874, "\u0120methylation": 16783, "\u0120axial": 19853, "\u0120Role": 27729, "ano": 4692, "rawl": 50027, "Un": 2447, "eria": 5169, "Honey": 48871, "hesia": 19257, "\u0120quatern": 40163, "\u00c2\u00a7": 7803, "nc": 9068, "\u0120Harvard": 17330, "\u0120laser": 8166, "iop": 17591, "\u0120indul": 24509, "Valid": 13159, "\u0120fraudulent": 25447, "roleum": 26519, "\u0120blessing": 26569, "ophys": 16946, "\u00e9\u013f": 19127, "ilight": 30673, "sentence": 36817, "\u0120protagonist": 39092, "\u0120polish": 40167, "\u0120christ": 37622, "\u0120hides": 43660, "\u0120intermitt": 26509, "owners": 24172, "\u0120populated": 26956, "~\\]": 47389, "\u0120environments": 12620, "\u0120folder": 11534, "\u0120nombre": 31168, "\u0120disag": 10009, "Init": 10828, "}}}}$": 35937, "\u0120Bars": 39400, "atto": 44530, "dig": 11174, "\u0120rebel": 29703, "\u0120breeze": 29178, "\u00e5\u00b9\u00b3": 44084, "\u0120Unlike": 16513, "iterranean": 20478, "\u0120plead": 19494, "dashed": 32448, "\u0120advising": 44083, "\u0120brave": 21189, "Raw": 24436, "\u0120preponder": 34563, "\u0120432": 37296, "\u00d0\u0133": 45809, "\u0120**(": 11357, "\u0120Dex": 41109, "\u0120vara": 45844, "\u0120Junior": 25418, "\u0120disparate": 39653, "\u0120barley": 39913, "\u00cf\u0125\u00ce\u00b5": 41783, "\u0120ducks": 46495, "esses": 48998, "\u0120LT": 26124, "NUM": 20872, "Lic": 49124, "\u0120chast": 49882, "\u0120rev": 3585, "\u0120sizes": 9552, "\u0120hypot": 37251, "\u0120glimps": 50216, "ced": 758, "mun": 1815, "\u0120Upon": 15797, "\u0120Press": 5687, "\u0120Buffalo": 28299, "\u0120Hidden": 44145, "\u01201996": 8441, "\u0120Chris": 11007, "\u0120hepatic": 17508, "\u0120465": 37306, "\u0120husband": 5938, "\u0120HERE": 23531, "\u0120logos": 48757, "ishment": 8922, "\u0120Night": 12972, "\u0120mum": 29616, "\u0120scarce": 29967, "letons": 49004, "\u0120observable": 24802, "coh": 5905, "\u0120magic": 10721, "Dam": 21727, "\u0120dispens": 32895, "\u0120repaired": 33172, "\u0120vibrant": 31764, "\u0120redshifts": 43986, "\u0120statute": 6645, "\u0120times": 2069, "\u0120Keller": 44172, "\u0120Galois": 49468, "\u0120horm": 10101, "\u0120Que": 7035, "circum": 36752, "\u0120\u00ce\u00b5": 9737, "\u0120continually": 23265, "%\"": 28764, "textup": 32603, "\u0120commiss": 43555, "\u0120PFS": 47286, "\u0120February": 5080, "sus": 36903, "\u0120pigment": 30448, "GMP": 40340, "vet": 14763, "ouss": 46025, "mel": 18683, "\u0120submarine": 35898, "ran": 4011, "\u0120hol": 5965, "\u0120---------": 16810, "\u0120locom": 23904, "itro": 4905, "Sock": 38030, "\u0120tunnel": 16583, "\u0120Playing": 50000, "057": 30768, "\u0120speakers": 17999, "\u0120collabor": 8317, "\u0120FIGS": 36317, "\u0120\u0120\u0120\u0120\u0120\u0120\u0120\u0120\u0120\u0120": 2674, "\u0120helicopter": 25816, "getValue": 38950, "pero": 49822, "\u0120publ": 2958, "Ali": 25131, "\u00e3\u0123\u012d": 9146, "]),": 6660, "\u00c3\u00bb": 24690, "\u0120Iceland": 28651, "loe": 34072, "min": 1222, "\u0120regist": 6167, "\u0120dimension": 7877, "\u0120corp": 15098, "perl": 43511, "\u0120artic": 18575, "WK": 27767, "Spec": 8546, "\u0120estaba": 44810, "\u0120brushing": 45853, "\u0120rabb": 26345, "cker": 13692, "\u0120clinically": 16747, "\u0120economically": 29187, "\u0120seq": 22510, "\u00c2\u0138": 25371, "\u0120Might": 35284, "\u0120secre": 15324, "\u0120descend": 36672, "\u0120denied": 5868, "\u0120carpet": 23656, "\u0120complic": 5177, "umbling": 24886, "\u0120\u00c2\u00b1": 3279, "rying": 11729, "rig": 10389, "aku": 21493, "\u0120cher": 22765, "bk": 36058, "\u0120uid": 43323, "\u0120Chloe": 45014, "CASE": 42495, "\u00c2\u013a": 20006, "\u0120tutorial": 23647, "\u0120chaotic": 29784, "853": 35866, "\u0120basically": 10323, "\u0120citations": 30404, "\u0120humans": 7497, "\u0120surv": 3432, "\u0120forgot": 18298, "\u0120prone": 21291, "\u0120cle": 1391, "\u0120sore": 25132, "\u0120including": 1690, "STIT": 38858, "\u0120Executive": 16155, "uten": 10284, "tle": 22924, "\u0120solar": 9666, "Properties": 18401, "\u0120s\u00c3\u00a5": 18679, "\u0120plac": 21927, "Born": 30937, "\u0120\u00e2\u013b": 31963, "Meanwhile": 18978, "\u0120\u00d1\u0123\u00d0\u00bb": 25332, "\u0120tragic": 26183, "\u0120evacuation": 39774, "Stats": 29849, "\u0120Brother": 14533, "VI": 15778, "$)": 7884, "\u0120manufacturer": 11662, "\u0120bunch": 12190, "\u0120unsuccess": 22727, "ivalent": 22809, "\u0120lt": 46007, "Sz": 46840, "autres": 47730, "\u0120manage": 8722, "\u00c3\u00a9es": 14330, "\u0120464": 41652, "misc": 43671, "\u0120stay": 3297, "zilla": 43745, "enties": 47798, "uego": 35784, "\u0120Fisher": 14826, "cible": 20109, "\u0120Charg": 36355, "\u00e7\u012c\u00b6": 43397, "\u00e6\u00b0\u0139": 44899, "\u0120sacr": 45121, "BIT": 14609, "\u0120crowded": 22299, "\u0120confirmed": 5783, "\u0120parameter": 4764, "400": 8320, "\u0120Argent": 17794, "\u0120architects": 38446, "\u0120various": 2710, "Deprecated": 39473, "phan": 15671, "\u0120Keith": 24035, "bies": 47272, "\u0120deceive": 49768, "\u0120regular": 3963, "\u0120incon": 16656, "urname": 30829, "ral": 1544, "\u0120motivation": 16038, "\u0120intracellular": 14036, "\u0120kings": 25346, "\u0120indicator": 15301, "\u0120Cos": 18084, "\u0120227": 26472, "\u0120mascul": 30668, "\u0120reproducing": 39306, "Days": 41430, "\u0120Agric": 20040, "\u0120Map": 12968, "\u0120tracked": 27173, "\u0120Users": 28100, "\u0120informational": 46373, "Questions": 47595, "\u0120\u0120\u0120\u0120\u0120\u0120\u0120\u0120\u0120\u0120\u0120\u0120\u0120\u0120\u0120\u0120\u0120\u0120\u0120\u0120\u0120\u0120\u0120\u0120\u0120\u0120\u0120\u0120\u0120\u0120\u0120\u0120\u0120\u0120\u0120\u0120\u0120\u0120\u0120\u0120\u0120\u0120\u0120\u0120\u0120\u0120\u0120\u0120\u0120\u0120\u0120\u0120\u0120\u0120\u0120\u0120\u0120\u0120\u0120\u0120\u0120\u0120\u0120\u0120\u0120\u0120\u0120\u0120\u0120\u0120\u0120\u0120\u0120\u0120\u0120\u0120": 47666, "\u0120Bh": 26165, "\u0120attacked": 13964, "\u0120\u00d0\u00ba\u00d0\u00be\u00d0\u00bd": 34464, "\u0120Esther": 41120, "Status": 9505, "\u0120abdom": 13327, "=\"../": 17517, "\u0120sandwich": 25749, "\u0120shelves": 30058, "\u0120Rails": 35454, "\u0120Shortly": 35775, "analyses": 47927, "\u0120retarded": 48101, "asac": 44572, "\u0120bread": 10238, "stim": 15980, "\u0120Brom": 45778, "\u0120Fortunately": 29471, "\u0120Limit": 46757, "577": 48442, "itten": 2937, "asio": 39483, "94": 3953, "\u0120Springfield": 42669, "\u0120electrochemical": 34770, "\u0120sprite": 42994, "63": 3571, "\u0120sunt": 43098, "\u00e6\u0140": 17321, "\u0120tempo": 28250, "\u0120elevator": 26225, "651": 33297, "\u0120ident": 1548, "\u0120guarantees": 23632, "\u0120creep": 25461, "\u0120Ethernet": 40768, "\u0120Steps": 46854, "\u0120commit": 4514, "\u0120fet": 8264, "Category": 1413, "\u0120neurolog": 15674, "{|\\": 44851, "ellow": 3827, "\u0120evenly": 25356, "\u0120Lipschitz": 46646, "\u0120Vector": 17811, "\u0120concer": 2782, "\u012028": 3349, "\u0120PH": 8367, "pow": 13029, "\u0120refugee": 29302, "paired": 30125, "\u0120southeast": 32253, "\u0120332": 35107, "\u0120inquiry": 14392, "\u0120plot": 7484, "\u0120aut": 1125, "\u0120k\u00c3\u00b6nnen": 37241, "lp": 24343, "\u0120von": 8449, "ariant": 6410, "\u0120\u00d0\u0133": 38177, "\u0120probing": 39578, "\u0120Tele": 13940, "\u0120robe": 40234, "\u0120drap": 40981, "\u0120bite": 18470, "\u0120Code": 6307, "^\u00e2\u012a\u0134": 6006, "\u0120really": 1663, "ancing": 6816, "sten": 16750, "\u0120ester": 24153, "\u0120employs": 27532, "\u0120righteous": 28867, "ravel": 35545, "\u0120seeming": 41203, "ceptive": 31898, "\u0120semif": 45406, "\u0120outdoors": 32321, "\u0120Sky": 16194, "UTR": 33660, "\u0120PATH": 46536, "onomous": 20899, "\u0120splendid": 34095, "\u0120noble": 17874, "opold": 48034, "stitutes": 44884, "\u0120614": 48932, "FY": 48965, "SM": 6955, "ank": 1164, "FORE": 31966, "\u0120docket": 47145, "\u0120prosecuted": 39459, "\u0120aliqu": 37711, "\u0120Unfortunately": 12526, "\u0120Krist": 24131, "\u0120Surely": 34921, "\u0120mitral": 46205, "\u0120solder": 31223, "\u0120kat": 45470, "\u0120wording": 41066, "\u0120diff": 2171, "log": 2808, "rected": 18685, "\u0120lapt": 14498, "\u0120molecular": 5787, "andum": 19230, "ymb": 3445, "Direction": 36925, "\u0120HOLD": 37656, "\u0120\u00d1\u0123\u00d1\u012c": 40158, "\u0120bridging": 49519, "enge": 4703, "\u0120\u00ce\u00b4\u00ce\u00b5\u00ce\u00bd": 49456, "\u0120Harris": 13680, "\u0120hundreds": 8307, "\u0120469": 40089, "\u0120\u00d0\u00b1\u00d1\u012d": 23358, "Maximum": 40984, "\u0120jump": 6923, "\u0120prices": 7911, "\u0120hemisphere": 32660, "\u0120suggesting": 7738, "inth": 11902, "rations": 34789, "\u0120fasc": 10942, "Decl": 18608, "\u0120centers": 12127, "\u0120shiny": 30006, "celand": 26589, "\u0120lumen": 32369, "ofluorescence": 25748, "Mapper": 37479, "\u0120gast": 9144, "\u0120margin": 8459, "()),": 35632, "asse": 18546, "FFIR": 25862, "\u0120habitual": 41633, "\u0120-": 428, "\u0120sitting": 7063, "\u0120ry": 43938, "\u0120refrigerator": 29794, "chapter": 33080, "266": 22313, "\u0120sto": 4806, "\u0120month": 1770, "ogene": 6679, "\u0120topological": 17597, "were": 12796, "ammers": 42560, "\u0120tossing": 49488, "\u0120whenever": 10793, "\u0120EG": 36610, "\u0120stagger": 36668, "\u0120smash": 45905, ".\\": 4880, "Asian": 47548, "\u0120embarked": 48053, "\u0120quot": 12686, "\u0120walked": 7428, "\u0120pd": 31385, "\u0120exhibiting": 30259, "\u0120toss": 15331, "\u0120spans": 35742, "r\u00c3\u00a5": 36535, "inator": 12915, "\u0120\u00d0\u00b2\u00d1\u0123\u00d0\u00b5": 37975, "\u0120np": 15749, "\u0120speculated": 39377, "mouth": 19845, "\u0120paddle": 44432, "\u0120toxic": 12825, "omechanical": 45754, "\u0120--": 1969, "\u0120Random": 20221, "\u0120naj": 45520, "termin": 20792, "\u00c3\u00b6t": 32617, "eches": 27462, "\u0120anch": 11886, "Cre": 16501, "acrylate": 43070, "\u0120outstanding": 16383, "rito": 36902, "bestos": 38784, "\u0120custom": 2840, "#{$": 44391, "\u0120Task": 17526, "oscopy": 20388, "\u0120fireplace": 39696, "otide": 12281, "\u0120emot": 6546, "lichen": 27986, "\u0120Supp": 6023, "Article": 30858, "ungal": 29457, "ismatic": 43307, "\u0120variables": 4903, "\u0120WILL": 22268, "\u00e5\u0143\u013a": 32938, ")}}{\\": 48138, "Despite": 14067, "152": 17472, "\u0120upregulation": 30477, "\u00e4\u00be\u012d": 32378, "\u0120Sun": 4146, "\u0120hope": 3524, "\u0120Age": 11362, "ellar": 8739, "\u0120Lebanese": 46900, "\u0120cationic": 45034, "\u0120IFN": 15006, "Richard": 23833, "php": 5581, "\u0120they": 597, "\u0120auch": 18654, "\u0120factories": 29492, "\u0120infections": 10332, "rept": 22316, "\u010a\u0120\u0120\u0120\u0120\u0120\u0120\u0120\u0120\u0120\u0120\u0120\u0120\u0120\u0120\u0120\u0120\u0120\u0120\u0120\u0120\u0120\u0120\u0120\u0120\u0120\u0120\u0120\u0120\u0120\u0120\u0120\u0120\u0120\u0120\u0120\u0120": 25927, "vered": 29558, "\u0120taxp": 15479, "\u0120Yeah": 11739, "\u0120omission": 33860, "immun": 13111, "\u0120optionally": 33323, "\u0120retros": 14582, "itarian": 14621, "\u0120Side": 19942, "259": 20395, "ennas": 35148, "IRS": 35473, "\u0120worrying": 29124, "\u0120ku": 35978, "\u0120queen": 19538, "\u00e5\u0138": 39429, "1002": 41441, "\u0120loneliness": 43241, "\u0120harmed": 44137, "\u0120inclus": 44445, "\u0120pointers": 29476, "\u0120UR": 49189, "\u010a\u0120\u0120\u0120\u0120\u0120\u0120\u0120\u0120\u0120\u0120\u0120\u0120\u0120\u0120\u0120\u0120\u0120\u0120\u0120\u0120\u0120\u0120\u0120\u0120\u0120\u0120\u0120\u0120\u0120\u0120\u0120\u0120\u0120\u0120\u0120\u0120\u0120\u0120\u0120\u0120\u0120\u0120\u0120\u0120\u0120\u0120\u0120\u0120\u0120\u0120\u0120\u0120\u0120\u0120\u0120\u0120\u0120\u0120\u0120\u0120\u0120\u0120\u0120\u0120\u0120\u0120\u0120\u0120\u0120\u0120\u0120\u0120\u0120\u0120\u0120\u0120\u0120\u0120\u0120\u0120\u0120\u0120\u0120\u0120\u0120\u0120\u0120\u0120\u0120\u0120\u0120\u0120\u0120\u0120\u0120\u0120\u0120\u0120\u0120\u0120\u0120\u0120\u0120\u0120\u0120\u0120\u0120\u0120\u0120\u0120\u0120\u0120\u0120\u0120\u0120\u0120\u0120\u0120\u0120\u0120\u0120\u0120\u0120\u0120\u0120\u0120\u0120\u0120": 25835, "\u0120generates": 15693, "\u0120avec": 14333, "modules": 14825, "cil": 4463, "\u0120derivatives": 13335, "\u0120contemplate": 46973, "608": 25805, "^\\": 2850, "egen": 27701, "determined": 37501, "\u0120Electron": 28021, "\u0120gly": 7144, "100": 2313, "\u0120Revolution": 15033, "Con": 1773, "\u0120Type": 8078, "enching": 36616, "68": 2358, "\u0120Frederick": 26485, "\u0120alerts": 34854, "\u0120'@": 37994, "\u0120Tg": 42784, "arum": 29389, "\u0120postponed": 44866, "cached": 45438, "\u0120DIY": 45919, "\u0120triglyceride": 49020, "\u0120anytime": 28537, "\u0120Roman": 8370, "\u0120rom": 10102, "\u0120Clint": 43276, "\u0120studies": 2175, "\u0120yourselves": 36544, "Site": 27327, "posite": 26343, "\u0120America": 3968, "\u0120mononuclear": 44763, "\u0120Su": 4137, "frame": 6301, "toxic": 39826, "\u0120gigg": 41542, "sections": 21454, "\u0120embassy": 34202, "\u0120excitatory": 43740, "nuclear": 47745, "\u0120phones": 15169, "\u0120editor": 8121, "desc": 12898, "pag": 32590, "\u00e7\u00bc": 37661, "pulse": 48241, "\u0120Discovery": 29600, "\u0120cou": 2565, "\u0120Manit": 45248, "\u0120eso": 36876, "\u0120smoot": 38962, "Rel": 9112, "\u0120sp": 653, "\u0120flowering": 37958, "\u0120micron": 39436, "Assuming": 39313, "\u0120Mal": 5979, "\u0120Safe": 28481, "\u00d0\u00bd\u00d0\u00be\u00d1\u0123\u00d1\u0124": 25634, "\u0120F": 401, "ensis": 16520, "PY": 35389, "\u0120care": 1557, "\u0120sex": 2825, "minus": 10420, "\u0120Sacramento": 36405, "\u0120Immun": 14540, "issippi": 17530, "amp": 1301, "\u0120is": 310, "\u0120quarters": 19902, "\u0120compensate": 23514, "\u0120anne": 27175, "\u0120obed": 30017, "aryn": 20338, "\u0120proc": 15613, "\u0120paras": 11619, "\u0120noisy": 27620, "\u0120---------------------------": 32723, "\u0120Mann": 17672, "\u0120(),": 35518, "\u0120whist": 37031, "\u0120tunnels": 37285, "\u0120intimacy": 41159, "\u0120invocation": 45781, "\u0120615": 48210, "\u0120COM": 8610, "\u0120phenol": 45705, "\u0120judiciary": 46619, "\u00c2\u00b7": 6256, "\u0120side": 1930, "());": 6020, "\u0120guns": 11942, "\u0120differently": 13359, "\u0120supporters": 14501, "sizeof": 23269, "ateurs": 43643, "\u0120Temperature": 43669, "\u0120famil": 31786, "\u0120Revised": 50240, "}^{*": 28711, "\u0120constructor": 16757, "ocene": 41738, "\u0120therein": 15308, "inside": 40084, "]{\\": 42767, "\u0120Monroe": 34334, "\u0120Senator": 18718, "\u0120cfg": 49088, "\u0120curse": 28401, "fre": 18105, "\u0120domain": 5028, "xA": 37582, "+|": 33885, "\u0120ethic": 48538, "acebook": 6145, "\u0120initiatives": 21823, "\u0120belong": 5663, "322": 23625, "Compar": 31968, "\u0120Sid": 24752, "id": 301, "\u0120functions": 3470, "\u0120crystall": 14666, "\u0120cattle": 17228, "asketball": 31862, "'=": 33794, "atsu": 34055, "\u0120Organisation": 44115, "odontic": 49154, "\u0120Rob": 6625, "\u0120jihad": 37291, "\u0120clocks": 38620, "\u0120MN": 26583, "ingale": 46760, "oblastic": 49769, "arcer": 24276, "GHz": 33529, "\u0120ign": 4900, "\u0120odd": 8909, "\u0120embryo": 26223, "\u0120choices": 10165, "\u0120Quantitative": 36686, "\u0120Java": 8595, "\u0120i": 891, "\u0120Stock": 15725, "\u0120reproduce": 18302, "\u0120Evans": 19872, "\u0120heavier": 27953, "BOOST": 30113, "210": 16899, "sulf": 30923, "1101": 40416, "Preview": 43123, "ASM": 45352, "\u0120caf": 15660, "\u0120exercises": 18418, "\u0120'+": 47526, "\u0120poetic": 40522, "\u0120canine": 33110, "\u0120leases": 47194, "\u0120ter": 4109, "boy": 14889, "\u0120analyses": 6260, "\u0120Mayor": 18308, "\u0120aloud": 33454, ",%": 21795, "otides": 20327, "\u0120flooding": 28037, "elm": 37821, "Choose": 37923, "\u0120stupid": 11339, "gm": 34753, "\u0120multidisciplinary": 44656, "\u00e3\u0125\u012d": 40352, "\u0120solemn": 30551, "\u0120peaceful": 19951, "\u0120chess": 29992, "\u00cf\u0122\u00ce\u00b1": 42044, "\u0120chopped": 17513, "PRINT": 44032, "\u00e6\u013f\u00a5": 24370, "\u0120misdem": 34945, "\u0120brom": 27726, "\u0120cephal": 48814, "\u0120Dat": 12793, "Middle": 32486, "\u0120rugby": 29385, "empt": 2187, "\u0120Beach": 13140, "floor": 13848, "\u0120Angl": 25939, "693": 33291, "ooting": 22933, "\u0120primary": 3625, "\u0120Kan": 20626, "Ki": 40170, "\u0120analgesic": 49885, "\u0120closet": 26348, "\u010a\u0109\u0120": 17982, "ASS": 7810, "\u0120plaques": 38073, "\u0120Vale": 46166, "---------------------------------": 30282, "achel": 17470, "MX": 32310, "Prob": 40235, "\u0120retained": 14667, "erial": 30941, "\u0120contraception": 49907, "\u0120range": 2491, "iden": 9226, "\u0120production": 3275, "\u0120cryptocurrency": 29182, "\u00e8\u00ae": 14129, "\u0120gun": 5654, "\u0120AG": 13145, "\u0120Navy": 13669, "\u0120accorded": 48693, "|}\\": 47715, "LIM": 37009, "\u0120resolution": 6064, "\u0120solutions": 5482, "\u0120Society": 8273, "auer": 17146, "\u0120claimant": 23529, "Fresh": 42805, "ELE": 35417, "\u00ce\u00bf\u00cf\u0127\u00ce\u00bc\u00ce\u00b5": 43005, "\u0120regimen": 24020, "\u0120nicht": 13014, "\u0120DS": 20807, "\u0120faz": 42361, "\u0120aggravating": 43948, "\u0120drilled": 46721, "\u0120conversations": 16072, "\u0120unrestricted": 48566, ")))": 10689, "i\u00c3\u00a9n": 21878, "rette": 46021, "\u0120fer": 8388, "ophilia": 43639, "\u0120scrape": 49939, "Plan": 23092, "\u0120Oliver": 20554, "\u0120indicating": 7809, "\u0120stringent": 32881, "hang": 12109, "\u0120separable": 39690, "\u0120citizens": 7815, "^*$": 18636, "notify": 34457, "\u0120larvae": 23844, "mage": 27316, "\u0120pains": 31991, "Fac": 39965, "\u0120Review": 8439, "dez": 26196, "\u0120slogan": 43387, "\u0120Marina": 43519, "\u0120p\u00c3\u00a5": 9636, "\u01201959": 22824, "phyl": 24778, "\u0120scrub": 28990, "\u0120total": 2264, "\u0120lunar": 41929, "\u0120Between": 17842, "\u00e3\u0124\u00a2": 17072, "\u0120try": 1611, "\u0120farmer": 24718, "\u0120Lord": 6203, "agreement": 45694, "chart": 21341, "\u0120Munich": 32000, "=======================": 27240, "\u0120gradient": 11786, "Bet": 16339, "\u0120Of": 4683, "\u0120repeats": 24510, "\u0120phosphory": 10857, "\u0120bloody": 19867, "\u0120nephew": 33793, "\u0120Past": 20840, "\u0120ensuring": 17749, "\u0120JOHN": 48488, "ascular": 5670, "(#": 45818, "\u0120merc": 14480, "\u0120o\u00c3\u00b9": 27233, "------------------------------": 28693, "\u0120spreads": 35818, "\u0120Baker": 18749, "\u0120Fant": 23428, "\u0120bis": 17542, "\u0120poorer": 30560, "\u0120fingert": 41719, "\u0120Observe": 45356, "\u0120welfare": 15519, "oston": 8735, "rong": 29487, "\u0120figure": 4677, "Ho": 24721, "\u0120inactivated": 49192, "\u0120pressing": 17178, "\u0120desire": 8327, "\u0120capabilities": 13789, "Arg": 11141, "\u0120APPE": 17870, "\u0120listings": 32985, "Russian": 27397, "indices": 43971, "\u0120diseases": 6578, "\u0120Ocean": 17323, "Israel": 25054, "\u0120parcel": 32975, "citations": 34212, "\u0120downloaded": 20582, "^.": 20225, "\u0120Resource": 22106, "ensity": 2741, "HIV": 34331, "ensuremath": 5539, "oresis": 25609, "Theorem": 28892, "oblasts": 34564, "\u0120lengths": 16095, "\u0120mismo": 35650, "\u0120shortening": 39243, "\u0120Century": 21672, "\u0120neurom": 39650, "\u0120rm": 40373, "Flag": 22532, "\u0120erupted": 41763, "\u0120deflect": 44013, "adors": 44883, "aha": 19369, "\u0120tir": 45310, "\u0120(\\#": 45637, "orpor": 24993, "disc": 12722, "dagger": 11560, "atin": 5009, "ific": 692, "\u0120voters": 11163, "\u0120needles": 32545, "\u00ce\u00bb\u00ce\u00b5": 36030, "\u0120cit": 4851, "\u0120meta": 11419, "\u0120insure": 26838, "\u0120Myc": 43202, "und": 1504, "scores": 44142, "Daw": 49381, "Uh": 18931, "\u0120verify": 12654, "\u0120transcriptional": 18304, "\u0120jurisdiction": 7571, "\u0120posterior": 12637, "\u0120savage": 40810, "\u0120Hash": 22272, "relationship": 46397, "ifi": 18279, "Writ": 25191, "blow": 37777, "\u0120receptor": 6437, "reaction": 48235, "\u00c3\u0143s": 19637, "\u0120pol": 877, "\u0120ste": 2870, "\u0120curt": 25846, "\u0120detainees": 48512, "igr": 19531, "Uri": 31490, "\u0120trous": 36049, "ocyan": 26632, "\u0120Rough": 43375, "KING": 47339, "\u0120awareness": 11891, "atro": 35078, "\\]": 696, "36": 1812, "\u0120depths": 24484, "htm": 25071, "\u0120{};": 25425, "aeda": 28031, "chell": 16521, "giene": 28944, "Ur": 29796, "\u0120condensed": 35341, "Definition": 18712, "bst": 35441, "\u0120nanost": 44930, "ona": 8440, "rw": 30217, "\u0120foods": 12134, "atable": 17980, "\u0120Campaign": 27069, "width": 3429, "\u0120Stokes": 39634, "\u0120alkali": 42391, "\u0120SSD": 37037, "\u0120scrambled": 36369, "\u0120Edmund": 42953, "\u0120carried": 4824, "\u0120oli": 34163, "\u0120consequently": 17912, "erc": 2269, "temperature": 26158, "\u0120Didn": 40713, "\u0120York": 2816, "seeking": 41772, "\u0120neck": 7623, "\u0120Define": 25388, "intervention": 43198, "aspase": 19733, "\u0120[`": 44308, "\u0120prestige": 46466, "\u0120Combat": 46750, "\u0120albicans": 46761, "\u0120Yas": 48171, "\u0120motel": 48551, "\u0120obtaining": 13546, "\u0120bom": 13962, "raised": 42750, "\u0120subgroup": 14632, "\u0120loader": 38837, "\u0120Athletics": 49402, "[\"": 9855, "Res": 2632, "KL": 30925, "\u0120Wien": 48968, "\u0120summarizes": 37250, "raid": 46088, "\u0120homozygous": 36152, "\u00e7\u0138": 39393, "\u0120designer": 17039, "oard": 20908, "562": 33730, "\u0120Prism": 40508, "\u0120im": 516, "Certainly": 43954, "\u0120age": 2363, "rm": 1109, "idis": 30861, "lt": 5792, "ourced": 47549, "arms": 15326, "\u0120Interstate": 40874, "\u0120instantaneous": 35774, "\u0120describe": 6266, "}}_{": 6922, "\u0120nort": 20558, "\u00cf\u0123": 3952, "\u0120unreasonable": 20697, "\u0120[]{": 27501, "umes": 9181, "\u0120screened": 22546, "\u0120Squ": 25399, "\u0120West": 4255, "\u0120MySQL": 27777, "avier": 28024, "openh": 32610, "\u0120process": 1232, "saw": 35577, "Han": 34437, "\u0120NGO": 36096, "\u0120------------------": 23461, "translate": 36575, "\u0120google": 17899, "771": 40379, "Modal": 40644, "\u0120tribute": 27458, "\u0120Lines": 31322, "\u0120salient": 43066, "\u0120Generic": 44304, "library": 17921, "wrote": 48141, "hpp": 17471, "\u0120antico": 35719, "meric": 1446, "\u0120adv": 1604, "\u00c2\u012e": 13348, "\u0120Saf": 13855, "cpu": 19411, "handle": 13393, "\u0120classroom": 20874, "\u0120stake": 13841, "\u0120bien": 15923, "\u0120databases": 16634, "\u00d0\u00a1": 22690, "\u00c3\u0143an": 24501, "beta": 2461, "\u0120Global": 11841, "\u0120328": 33141, "emale": 15183, "\u00ce\u00b1\u00ce\u00bd": 27580, ".);": 39514, "\u0120depressing": 47517, "letter": 15139, "\u0120SMB": 49687, "\u0120seed": 8357, "\u0120candidates": 9183, "./": 11379, "diff": 13437, "icult": 2702, "Share": 18281, "\u0120Growth": 27219, "CHO": 28510, "\u0120pend": 32752, "\u0120Game": 10850, ")\\*": 45201, "\u0120uncontrolled": 42915, "&=&": 15638, "\u0120schemes": 15849, "\u0120encoding": 9706, "\u0120deity": 47498, "\u0120stain": 17996, "Winter": 47463, "HAVE": 41821, "SEA": 46124, "fusion": 12213, "osti": 28074, "UMENT": 44854, "\u0120Lad": 29663, "\u0120Waters": 34184, "\u0120Section": 5238, "Hello": 12092, "1995": 12731, "\u0120confident": 13224, "Repository": 26753, "\u0120mach": 3674, "nam": 6292, "\u0120residing": 33978, ")...": 41605, "progress": 24951, "\u012010": 884, "\u0120CF": 13528, "aturday": 7023, "033": 18092, "\u0120471": 41468, "\u0120conspicuous": 43988, "\u0120chiefs": 46282, "\u0120laun": 8748, "ounces": 48203, "\u0120Optional": 38016, "\u0120Sart": 44484, "\u0120father": 3392, "\u0120circumstances": 5989, "ainties": 19260, "({\\": 5716, "\u0120Console": 26466, "uz": 7958, "\u0120Legend": 29260, "Dis": 6744, "\u0120duplicate": 21036, "olved": 5336, "\u0120Schmidt": 31400, "\u0120almond": 31428, "\u0120phantom": 35698, "\u0120Exped": 45626, "'(\\": 41444, "\u0120\\*\\*\\*": 31904, "\u0120fluctuations": 15113, "\u0120Por": 20510, "445": 40948, "\u0120/*!": 35613, "\u0120omega": 40639, "\u0120microbiome": 44027, "\u0120arise": 12893, "LOC": 21766, "otrans": 30379, "\u0120Vu": 48452, "\u0120restaurant": 10301, "\u0120combinations": 13553, "\u0120debt": 6735, "\u0120QT": 48703, "\u00e5\u0123": 28915, "\u0120listened": 18029, "scriptscriptstyle": 27886, "\u0120restoration": 20384, "\u00d1\u0128\u00d0\u00b8\u00d1\u0131": 38077, "Pot": 29255, "\u0120dependent": 7976, "\u0120Nap": 18593, "notice": 37277, "anne": 17416, "~~": 2650, "\u0120kar": 46247, "\u0120Jos": 18559, "entry": 8873, "\u0120Nash": 20627, "onym": 7983, "Wrapper": 27757, "\u0120Kra": 30164, "\u0120uniformly": 17568, "\u0120inquiries": 34989, "\u00e4\u00bd\u0142": 24553, "shock": 35492, "\u0120Italy": 9972, "Club": 43402, "typen": 15224, "\u0120iod": 25723, "\u0120hyperbolic": 28095, "\u0120],": 11337, "ccess": 1828, "\u0120applic": 1799, "\u0120Address": 22483, "entric": 19458, "thermal": 35684, "\u0120mistrial": 48652, "Ca": 13614, "\u0120corporate": 10459, "===========": 15765, "nutrients": 16345, "\u0120lattice": 10979, "\u0120safer": 23107, "sequently": 9642, "alls": 10037, "\u0120off": 745, "onent": 5318, "\u0120roster": 22970, "\u0120Away": 37811, "\u0120firmware": 35433, "iry": 11028, "rotate": 44979, "\u0120Alexander": 13651, "trans": 3675, "\u0120pen": 4331, "iances": 18843, "\u0120Emma": 25975, "\u0120Scripture": 39447, "465": 40760, "ynthesis": 15001, "\u0120Dynam": 41682, "Street": 42992, "\u0120current": 1655, "\u0120contentions": 39304, "\u0120vra": 37312, "Ord": 45435, "hg": 47911, "\u0120evalu": 3595, "\u0120mang": 19695, "rely": 5314, "Want": 32841, "\u0120\u00c3\u0126": 34441, "\u00d7\u0135": 35790, "igger": 16046, "bows": 36553, "\u0120wig": 43610, "\u0120banning": 43916, "\u0120Pokemon": 45391, "UTH": 19366, "\u0120Gree": 14180, "i\u00c3\u00b3": 22125, "\u0120sail": 15901, "\u0120periodontal": 41875, "\u0120individual": 2060, "\u0120forensic": 35073, "\u0120illustrates": 18303, "\u0120cartridge": 28719, "\u0120xmlns": 15664, "\u0111": 194, "rowser": 16420, "Observ": 29758, "Art": 11796, "\u0120Fold": 46806, "istration": 21617, "\u00c2\u00ae": 8942, "\u0120Eur": 24520, "\u0120Ama": 9394, "\u00e7\u0136\u0141": 20025, "\u0120utilizes": 29820, "\u0120build": 1973, "onica": 43510, "\u0120Smart": 19778, "get": 788, "enia": 23364, "often": 32205, "\u0120crawl": 37431, "094": 41280, "\u0120pine": 21175, "\u00d0\u00bf\u00d1\u0122": 22682, "\u0120476": 42302, "\u0120forefront": 43213, "\u0120mass": 2280, "ynote": 50207, "\u0120transcriptome": 38552, "\u0120Tribunal": 45845, "\u0120substantially": 9619, "\u0120*)": 9657, "pay": 12080, "\u00e3\u0125\u00bb": 22448, "Pic": 37132, "\u0120commerce": 19938, "\u0120+": 559, "andon": 7541, "\u0120cottage": 29705, "\u0120Camera": 31475, "\u0120gods": 17373, "ideon": 42674, "782": 44037, "\u0120commissioner": 28845, "Executor": 35680, "lems": 44778, "avi": 23096, "\u0120oceans": 40277, "\u0120Login": 41977, "\u00c8\u013bi": 24427, "&&": 10494, "\u0120disciplines": 32870, "\u0120beautiful": 5389, "gray": 27250, "\u0120programmers": 39335, "\u0120SI": 17862, "\u0120matrices": 12624, "\u0120Env": 47684, "\u0120Bank": 6022, "\u0120directs": 38554, "\u0120Rapt": 46879, "\u0120lab": 5188, "\u0120Byron": 43634, "\u0120vols": 45025, "\u00ce\u00bb\u00ce\u00bb": 29704, "\u0120antid": 46053, "\u0120minim": 7221, "trust": 32993, "\u0120arom": 16367, "\u0120synthesis": 9066, "apopt": 35158, "}\\|": 31040, "\u0120executed": 11407, "|^{": 23882, "\u0120:-)": 32074, "\u0120thr": 7635, "\u0120philosophical": 22555, "\u0120realism": 40135, "\u0120reel": 41012, "\u0120Pediatric": 44039, "\u0120Meh": 48005, "\u0120exemptions": 48186, "\u0120brass": 27188, "yards": 38828, ")$$": 11189, "arXiv": 17418, "ctl": 19207, "\u00c3\u00a9ri": 31178, "\u0120TG": 24602, "\u0120hearings": 26388, "\u0120technicians": 40560, "OLOG": 41232, "\u0120smelled": 36280, "\u0120buoy": 42172, "\u0120Messenger": 48979, "\u0120CL": 8951, "\u0120lifestyle": 14898, "\u00c2\u013b": 20236, "\u00e5\u00b8\u00b8": 36548, "\u0120ophthal": 39109, "\u0120Pu": 14902, "Saint": 41676, "ok": 536, "issa": 14302, "OTHER": 39835, "fony": 37852, "\u0120Democratic": 9922, "\u0120respond": 3794, "\u0120facilitates": 29499, "ACA": 33550, "\u0120striatum": 46787, "Tue": 50110, "thening": 25230, "\u0120alot": 47899, "\u0120crack": 9370, "safe": 22768, "lin": 3642, "\u0120mer": 4285, "Psi": 8616, "\u0120Richard": 7727, "\u0120Fol": 28318, "\u0120million": 3041, "\u0120rese": 1927, "\u0120Assay": 37140, "\u0120ins": 1210, "zg": 42148, "}{|": 32767, "\u0120Terms": 26746, "making": 11849, "\u0120Resources": 19242, "\u0120Acts": 34013, "\u0120Dock": 41840, "ook": 645, "\u0120Tob": 20358, "\u0120propaganda": 23306, "\u0120serious": 4092, "\u0120export": 13474, "\u00e3\u0125\u0139": 22655, "\u0120RES": 21180, "\u0120footprint": 33257, "\u0120Brook": 11989, "\u00e3\u0123\u00be\u00e3\u0123\u013b": 15625, "ecess": 21017, "Examples": 32896, "\u0120decree": 21356, "\u0120Kim": 10766, "versions": 36446, "0032": 40363, "ronic": 3462, "\u0120mk": 36904, "Tour": 38289, "\u0120$.": 13355, "Night": 39090, "\u0120classes": 5971, "\u0120Commiss": 33366, "think": 18959, "oding": 4442, "izations": 5904, "\u0120\u00d8\u00a3": 23207, "\u0120Civ": 21352, "\u0120plat": 26588, "rator": 21573, "\u01201936": 27386, "\u0120adjuvant": 29398, "\u0120cherry": 33804, "\u010a\u0120\u0120\u0120\u0120\u0120\u0120\u0120": 648, "\u0120accumulation": 12037, "\u0120Doyle": 40289, "\u0120NHL": 22037, "asti": 41376, "\u0120ESR": 42209, "\u0120collaborative": 27549, "\u0120mysteries": 40710, "omod": 43712, "atching": 16464, "\u0120subdivision": 25364, "}}^{{\\": 48367, "\u0120Pompe": 40868, "uts": 14298, "1969": 25892, "idays": 19341, "\u00e5\u012a\u00b6": 34179, "rob": 18848, "\u0120afford": 7848, "erald": 16627, "oned": 11406, "\u010a\u010c": 8675, "orship": 15306, "\u00d0\u00b0\u00d0\u00b9": 21241, "\u0120slammed": 31800, "Defendants": 38421, "\u0120diverse": 11117, "\u0120Seventh": 33808, "gins": 35022, "\u0120commune": 40757, "ual": 780, "izaci\u00c3\u00b3n": 44841, "\u0120ol": 8919, "lander": 31457, "\u0120terrifying": 35247, "\u0120eb": 38391, "\u0120vicious": 30157, "kap": 47130, "\u0120helmet": 26358, "\u0120farm": 6389, "\u0120projecting": 35104, "\u0120connections": 10291, "message": 8559, "snd": 33999, "\u0120parallels": 43630, "\u0120Oil": 17226, "\u0120Equation": 20860, "\u0120activate": 17561, "\u0120perceptions": 24789, "\u0120adjustments": 23927, "\u0120immunofluorescence": 35055, "2100": 38832, "electro": 39782, "\u0120546": 43229, "\u0120antifer": 46965, "expect": 23824, "*](#": 47446, "\u0120determin": 11544, "\u0120Node": 16459, "\u0120Advance": 36808, "\u0120Subjects": 37235, "012": 12522, "\u0120Gard": 17064, "\u0120Supporting": 34325, "\u0120Package": 30454, "\u0120Danish": 26304, "\u0120bisc": 39438, "orphic": 41050, "\u0120canals": 47399, "\u0120optim": 5556, "\u0120tz": 47764, "member": 14360, "\u0120Emerson": 49243, "\u0120ate": 18739, "xtures": 16873, "\u0120adsorption": 24240, "\u0120interstitial": 36243, "snap": 38705, "Products": 47258, "romy": 23232, "orm": 526, "para": 18920, "\u0120apost": 30828, "\u0120receive": 4763, "\u0120antioxidants": 40536, "rill": 48072, "\u0120trick": 10480, "\u0120v": 362, "\u010a\u0109\u0120\u0120\u0120\u0120\u0120": 39472, "\u0120semic": 40296, "\u0120attack": 2983, "Determ": 44607, "\u0120Pope": 18422, "esteem": 40597, "hav": 10940, "\u0120\u00ce\u00bcg": 14986, "\u0120diamond": 16673, "\u0120pasture": 48554, "gregation": 18840, "937": 47508, "materials": 11310, "Lag": 47529, "\u0120board": 4450, "\u0120simplicity": 17647, "\u0120solic": 26854, "\u0120websites": 14248, "\u0120mos": 15039, "ffect": 887, "win": 6481, "slide": 35045, "\u0120SF": 15112, "\u00eb\u0131": 40025, "gels": 43130, "\u0120sen": 5303, "jd": 28034, "ES": 1410, "\u0120appeared": 5420, "\u0120saf": 4389, "\u0120451": 40982, "\u0120hydroxide": 44696, "dj": 45061, "Its": 27132, "855": 31013, "\u0120crimes": 12137, "ur": 321, "appings": 33650, "\u0120avenues": 44201, "=\"${": 31961, "\u0120Philippe": 46425, "\u0120colored": 18010, "Received": 41672, "\u0120Ira": 8831, "\u0120pact": 47448, "Max": 9684, "\u0120toes": 30106, "\u0120particulate": 37571, "sem": 6017, "\u0120detector": 13562, "\u0120Resort": 36322, "\u0120HBO": 41069, "\u0120Mike": 10035, "\u0120dishon": 31531, "fill": 9337, "elle": 4415, "ellig": 5327, "\u0120keyboard": 15487, "flex": 23210, "aturated": 24668, "BD": 8561, "\u0120durch": 29854, "\u00e5\u012c\u0142": 27727, "\u0120creator": 24799, "\u0120watches": 28654, "0012": 26313, "\u0120Jesse": 31472, "forum": 39061, "]^{": 30522, "tre": 5643, "plicit": 20692, "\u0120plugs": 49359, "\u00e5\u012f": 12363, "Excuse": 30395, "\u0120avenue": 39893, "\u0120Veh": 28493, "\u0120-----------------------------": 42332, "records": 46622, "\u0120gluten": 33666, "illus": 21306, "\u0120crad": 40517, "\u0120costing": 45964, "\u0120maple": 43946, "\u0120Pub": 22446, "\u0120Vacc": 36969, "\u0120thickness": 9544, "ietz": 33879, "\u0120fishermen": 45959, "\u00c4\u00b1k": 47772, "\u0120classifying": 49653, "\u0120ANY": 9103, "\u0120feder": 46381, "\u0120\u00ce": 1454, "Neg": 26700, "\u0120plague": 31781, "\u0120618": 49629, "\u0120kicked": 19301, "\u0120tang": 12717, "\u0120size": 1979, "\u0120hesit": 16063, "County": 43582, "\u0120fascination": 48249, "IPS": 24748, "\u0120observational": 21899, "1983": 16460, "\u0120staircase": 37212, "\u0120overhead": 18332, "\u00ec\u0139": 21053, "ilent": 39141, "ICs": 43128, "\u0120illum": 16023, "\u0120St": 659, "\u0120grouping": 32827, "\u0120SCH": 44026, "innerHTML": 41090, "\u0120gegen": 40362, "\u0120adult": 6782, "\u0120consumers": 11349, ">\\": 13544, "axy": 17445, "\u0120ligands": 22056, "\u0120hydrochlor": 41300, "\u0120buses": 23444, "rip": 7417, "\u0120\u0120\u0120\u0120\u0120\u0120\u0120\u0120\u0120\u0120\u0120\u0120\u0120\u0120\u0120\u0120\u0120\u0120\u0120\u0120\u0120\u0120\u0120\u0120\u0120\u0120\u0120\u0120\u0120\u0120\u0120\u0120\u0120\u0120\u0120\u0120\u0120\u0120\u0120\u0120\u0120\u0120\u0120\u0120\u0120\u0120\u0120\u0120\u0120\u0120\u0120\u0120\u0120\u0120\u0120\u0120\u0120\u0120\u0120\u0120\u0120\u0120\u0120": 28272, "semble": 12779, "\u0120Reed": 24518, "OURCE": 22656, "\u0120spokesperson": 28179, "\u0120Gly": 30133, "\u0120storm": 9902, "--------------": 10521, "\u0120float": 8253, "\u0120convicted": 13084, "mill": 17993, "Lett": 21457, "\u0120enjoys": 29566, "($": 3914, "\u0120occur": 2826, "\u0120sofa": 30929, "\u0120surfaces": 9421, "\u0120gorge": 20822, "itsu": 37529, "\u0120agitation": 39786, "Play": 21020, "obuf": 23605, "![\\[": 37982, "\u0120pounding": 39883, "\u0120cumulative": 18849, "\u0120AFM": 46152, "export": 15035, "\u0120Spectrum": 46177, "\u0120Turning": 49589, "\u0120podcast": 21110, "\u0120tubes": 17080, "__(": 21920, "\u0120pos": 803, "\u0120obs": 18373, "\u0120mindset": 36231, "\u00d0\u00be\u00d0\u00bb": 7869, "\u0120guitars": 47087, "\u0120excited": 9049, "\u0120Holland": 23253, "\u0120ig": 25477, "\u0120elections": 12337, "\u0120season": 2952, "075": 29631, "elected": 43514, "fine": 32829, "assen": 38740, "\u0120offender": 27484, "\u0120stimulates": 38197, "\u0120Next": 10209, "\u0120reacts": 44865, "\u0120DEF": 34428, "\u0120forecasts": 43942, "tron": 27418, "native": 23963, "\u0120crowd": 9539, "mate": 13884, "\u00c2\u0135": 27399, "\u0120Length": 32569, "\u0120syn": 2753, "\u0120oath": 25019, "\u0120Spacewatch": 45659, "\u0120catastrophe": 41786, "finder": 31732, "ENTIAL": 34172, "',\\": 37652, "lad": 17869, "\u0120Naz": 13025, "\u0120organs": 15384, "\u0120discomfort": 25699, "TF": 13837, "ishi": 31384, "()))": 32875, "\u0120known": 1929, "\u0120Lub": 40403, "FORMAT": 31447, "\\}$.": 19562, "unc": 7157, "grades": 25013, "\u0120dispose": 35125, "\u0120pro": 354, "osus": 46784, "FC": 6739, "\u0120sampling": 10491, "\u0120learners": 40390, "\u0120venom": 38222, "\u0120governmental": 24715, "\u0120qualitative": 18276, "\u0120locker": 33703, "\u0120shRNA": 45237, "\u0120Za": 49300, "\u0120mg": 5770, "ular": 792, "\u0120hom": 2860, "Class": 4947, "\u00e2\u0122\u00b2-": 14466, "\u0120technology": 4302, "\u0120remained": 6376, "\u0120supers": 17402, "\u0120hyper": 4373, "\u0120persec": 22411, "403": 25208, "\u0120lit": 6195, "\u00c3\u00bd": 10561, "\u0120Diff": 29277, "\u0120heterogeneity": 19331, ":%": 27976, "\u0120without": 1293, "BACK": 25292, "\u0120Nintendo": 26862, "\u0120403": 29716, "\u00e5\u013f": 31902, "instr": 32548, "oly": 10270, "Alloc": 33715, "\u0120pok": 43059, "635": 46480, "dem": 9468, "judge": 47075, "seb": 36899, "119": 12115, "138": 15148, "\u0120substituting": 40944, "\u0120entail": 46518, "\u0120FA": 10601, "\u0120integrals": 28676, "stroke": 26000, "\u0120Intel": 17545, "most": 2252, "\u0120cease": 22907, "wh": 2484, "plic": 1860, "forming": 14692, "enden": 27793, "liche": 29968, "\u0120fol": 6305, "\"\"\"": 32488, "\u0120trace": 10711, "\u0120fails": 10224, "1944": 42704, "\u0120fined": 44861, "184": 19105, "Div": 15187, "\u0120Sir": 9011, "enable": 14760, "\u0120axe": 44910, "zymes": 49481, "()->": 18331, "\u0120frames": 13009, "unstable": 48008, "\u0120illnesses": 31372, "\u0120keyword": 23473, "\u0120Mount": 8352, "prov": 11404, "\u0120Thomas": 7195, "\u0120abruptly": 30046, "\u0120shapes": 15029, "\u0120\u00c5\u00bc": 28252, "determ": 18916, "\u00e0\u00b9\u012a": 19551, "pending": 33965, "\u0120Fat": 20609, "pace": 4511, "Viet": 48654, "\u0120serve": 5752, "\u0120guardian": 29921, "cks": 6163, "INGTON": 33082, "\u0120anisotropic": 35319, "ODY": 35867, "303": 20914, "encoding": 27676, "\u0120Stewart": 19498, "\u0120PBX": 28295, "\u0120devil": 22144, "\u0120tutor": 16304, "logic": 46786, "DMA": 32843, "scriptsize": 42612, "\u0120Cup": 9167, "\u0120tung": 49128, "535": 42980, "\u0120Mark": 4744, "\u0120reply": 12252, "casters": 47107, "\u0120qualify": 19478, "\u0120mathematics": 23065, "\u0120rotor": 24633, "assay": 33263, "LB": 34547, "\u0120Genome": 36921, "KERNEL": 45723, "\u0120Abrams": 49665, "\u0120obsession": 37238, "ck": 777, "\u0120Bell": 11590, "\u0120Wars": 14848, "\u0120relaxed": 19595, "Legal": 49883, "\u0120feelings": 10450, "yk": 25073, "\u0120reports": 5012, "\u0120smokers": 26934, "\u0120Border": 26580, "\u0120captures": 28174, "authentic": 42996, "\u00e3\u0123\u00ae": 3917, "\u0120acknowledge": 14409, "\u00e5\u0131\u00af": 18148, "extern": 19560, "\u0120knot": 26994, "\u0120lapar": 25825, "\u0120reproducibility": 38041, "\u0120trig": 5951, "\u0120currents": 18476, "\u0120Yan": 18773, "STEM": 25370, "osion": 25429, "Admin": 30000, "\u0120isotropic": 29436, "\u0120Lions": 31143, "ressed": 2079, "\u0120regularization": 37820, "'": 8, "\u0120Measurement": 43014, "otti": 28205, "TEXTURE": 47062, "\u0120Keeping": 46769, "\u0120Socorro": 48847, "ongo": 19108, "\u0120supplied": 12164, "\u0120outbreaks": 34894, "void": 4353, "Series": 30301, "\u0120operating": 6498, "\u0120Commerce": 20249, "MIX": 43640, "aciones": 20381, "\u0120Franc": 6743, "chemical": 20465, "dag": 21675, "uje": 36295, "\u0120prophylaxis": 39633, "bean": 14844, "iation": 2492, "\u0120marg": 10792, "\u0120legislators": 37244, "\u0120plain": 8342, "\u0120ska": 42469, "\u0120rc": 27657, "porters": 33187, "\u0120inducible": 49217, "\u00e9\u0122": 11016, "atement": 26333, "\u0120sil": 2830, "Pal": 16281, "\u0120actions": 5231, "anking": 41988, "uded": 21015, "\u00d0\u00bd\u00d0\u00be": 8355, "anna": 9045, "Those": 15745, "\u0120owns": 21186, "\u0120Comment": 22955, "\u0120suffix": 34078, "hton": 41844, "\u0120kur": 42981, "\u0120contrast": 4499, "\u0120believes": 11532, "\u0120whites": 19991, "brace": 19276, "\u0120Isa": 20291, "\u0120bar": 2534, "038": 22439, "suite": 42877, "\u0120SPR": 46624, "\u0120Ort": 38188, "060": 24341, "bool": 10975, "ceeding": 46943, "\u0120contributors": 24781, "\u00e5\u0127": 7056, "\u0120sight": 8184, "mitting": 15318, "\u0120affirm": 10418, "vb": 30890, "odor": 36155, "\u0120Coffee": 33753, "INC": 32466, "\u0120engineering": 11369, "\u0120completely": 4336, "\u00d1\u0131\u00d0\u00b2": 45396, "   ": 50275, "\u0120\u00c3\u00a4r": 14710, "}_{-": 19289, "\u0120fuzzy": 31921, "\u01201999": 7544, "\u0120hovering": 46115, "\u0120dag": 31398, "\u0120disgrace": 40655, "\u0120owes": 42261, "ologies": 5970, "\u0120387": 37516, "omon": 16142, "\u0120Plant": 21307, "ksi": 22516, "\u0120Philip": 15887, "grand": 26852, "\u0120usefulness": 31471, "\u0120deng": 32087, "\u0120told": 2183, "Russia": 37881, "\u0120prognosis": 17102, "iels": 39837, "\u0120cert": 5306, "ORS": 16902, "632": 49268, "\u0120genuinely": 27364, "\u0120descent": 18499, "fact": 12690, "\u0120conscious": 9680, "234": 20210, "Process": 12919, "\u0120minority": 15156, "aminated": 22315, "unch": 3204, "\u0120Marketing": 25694, "om": 297, "\u0120Inst": 5376, "\u0120absorbance": 32593, "\u0120monkeys": 30552, "\u0120that": 326, "fs": 3671, "oric": 15937, "\u0120requesting": 24433, "\u0120Deep": 18147, "\u0120eccentric": 26418, "amilies": 27099, "\u0120subspace": 24822, "Main": 13030, "\u0120talents": 28621, "\u0120smaller": 4577, "\u0120listen": 8028, ")|": 8579, "\u0120extract": 4908, "ilst": 13352, "\u0120Ibid": 20140, "\u0120Reading": 21108, "\u0120clarified": 31637, "\u0120Figures": 27476, "amaz": 23300, "\u0120compelling": 18511, "\u0120coat": 11959, "\u0120change": 1818, "aling": 4052, "relation": 16429, "\u0120authentic": 10501, "\u00e3\u0123\u00a7\u00e3\u0123\u00af": 29741, "ational": 1050, "\u0120sovereign": 16629, "\u0120aston": 21278, "\u0120Certainly": 30445, "\u0120Whenever": 32271, "\u0120Judges": 19592, "\u0120Ges": 32580, "\u0120override": 12970, "upal": 33020, "\u0120Brazilian": 24110, "\u0120Peninsula": 33489, "\u0120attracting": 35748, "\u0120Graphics": 39071, "DTD": 41375, "UR": 3322, "Submit": 38403, "\u0120Reality": 41702, "\u0120{:": 45250, "\u0120kt\u00c3\u00b3": 36223, "seek": 32179, "\u0120upstream": 17934, "Pt": 35462, "sover": 28242, "Export": 39139, "Between": 28343, "\u0120371": 36696, "\u0120Listen": 33851, "\u0120Consult": 27560, "minded": 23674, "\u0120ionization": 28075, "\u0120Kremlin": 46885, "\u0120apt": 13390, "SE": 2354, "love": 26617, "\u0120Ker": 27831, "?**": 39148, "ji": 8020, "800": 10695, "\u00e1\u00bb\u0129": 35177, "\u0120\u00d1\u0123\u00d0\u00b5": 38366, "valid": 7210, "\u0120CONTRIBUTORS": 38623, "\u0120report": 1304, "Pur": 30431, "eson": 45336, "\u0120upright": 24922, "\u0120dusty": 38907, "observer": 44094, "antioxidants": 46967, "\u0120Vict": 27699, "\u0120235": 23540, "gester": 33935, "\u0120stint": 47467, "\u0120intraoperative": 43872, "\u0120Chaos": 48790, "\u0120\u00d0\u00b2\u00d0\u00be": 49323, "modern": 26944, "\u0120bachelor": 37589, "\u0120Lindsey": 50178, "phy": 12039, "\u0120migr": 24019, "ics": 982, "subscribe": 31473, "brainsci": 46045, "adj": 33553, "\u0120adrenal": 33903, "\u0120exerts": 45956, "herent": 7853, "ITH": 7176, "cleanup": 47049, "pcm": 35521, "keys": 12305, "\u0120jersey": 42896, "Resources": 22804, "('#": 30932, "\u0120mesmo": 39362, "\u0120ER": 7220, "Member": 20226, "feit": 44684, "\u00d0\u00b5\u00d1\u0124\u00d0\u00b5": 50231, "\u0120issuance": 33450, "Fun": 22096, "\u0120viscosity": 21819, "blogs": 46856, "\u0120disadvantage": 18928, "')->": 47007, "ellaneous": 43295, "ducers": 41590, "ophore": 40197, "\u0120Color": 9472, "\u0120request": 2748, "\u0120establishment": 13701, "\u0120mechanic": 39212, "\u0120isn": 3548, "Obama": 39302, "\u0120630": 43138, "OCT": 45619, "BW": 42230, "La": 7647, "\u0120CBS": 21946, "Metrics": 43764, "\u0120bet": 701, "\u0120phenotype": 13466, "\u0120unanimously": 38350, "\u0120confl": 49446, "\u0120em": 802, "respect": 21014, "zb": 30007, "int": 565, "\u0120subpo": 31152, "Portug": 40086, "bell": 10910, "\u0120dozens": 18660, "\u00d0\u00be\u00d0\u00bc\u00d1\u0125": 33576, "\u0120guards": 17269, "\u0120math": 14168, "\u0120region": 2919, "adata": 10433, "\u0120\u00d0\u0135": 41905, "\u0120LOSS": 45104, "\u0120Iran": 7751, "ikk": 24524, "oprop": 27403, "\u0120Answer": 37741, "\u0120vars": 41665, "\u0120trypt": 46055, "petition": 30351, "ceed": 2638, "\u0120killed": 5339, "\u0120Hunting": 36044, "\u0120pencil": 29514, "reported": 20527, "\u0120Winston": 33970, "\u0120wired": 36427, "\u0120hated": 21023, "\u0120\u00d7\u00a9": 33839, "\u0120patriarch": 46860, "\u0120ding": 50097, "\u0120Hansen": 40596, "157": 15882, "509": 17013, "\u00e9\u0127": 30088, "erior": 8538, "\u0120\u00d1\u0125": 11770, "vary": 39381, "\u0120employees": 6171, "\u00d0\u00b5\u00d0\u00bb": 9247, "\u0120honor": 10390, "\u0120recommended": 8521, "\u0120despite": 5747, "299": 24514, "\u00e6\u0136": 16127, "jpeg": 42787, "\u0120terms": 2426, "IBM": 47762, "\u00e2\u0128\u0134": 23759, "\u0120cin": 15573, "liament": 8782, "\u0120Courts": 33417, "\u0120hypers": 24052, "\u0120solidarity": 34394, "corp": 49017, "\u0120Vertical": 43632, "umu": 49304, "\u0120206": 25193, "\u0120messages": 8169, "\u0120certainty": 23140, "087": 45197, "\u0120pellet": 37278, "206": 18040, "linux": 13217, "\u0120elites": 43599, "\u0120cereal": 42725, "\u0120declare": 11165, "\u0120nature": 3753, "obi": 19111, "\u0120coded": 25175, "\u0120d\u00c3\u00a9c": 33677, "+-+-": 37046, "\u0120Scroll": 43103, "\u0120fut": 14484, "\u0120Physical": 22606, "andering": 48299, "urrent": 5732, "illar": 33787, "ctx": 11154, ")]{}": 21687, "eta": 1464, "Vol": 15271, "lam": 5247, "\u0120inspiration": 17006, "\u0120McCarthy": 32101, "\u0120HK": 39827, "hence": 48521, "\u0120Papers": 28182, "\u0120white": 3168, "confirm": 38286, "\u0120sorted": 20045, "\u0120restrictive": 29190, "electron": 30083, "\u0120denotes": 12853, "\u0120equivalence": 19945, "\u0120eyel": 32153, "\u0120oppression": 35635, "1978": 19791, "Plug": 48650, "\u0120dawn": 20632, "\u0120Factors": 38182, "\u0120entered": 5966, "coat": 33445, "\u00e2\u0122\u00a6\u00e2\u0122\u013f": 34857, "\u0120master": 6303, "ette": 5464, "\u0120thermal": 8609, "\u0120couple": 4564, "\u0120imagine": 8564, "(?": 47928, "\u0120horrors": 49933, "\u0120misuse": 41775, "\u0120simplex": 44053, "\u0120rice": 11789, "Taking": 33748, "\u0120Daily": 13992, "\u0120Feature": 36350, "\u0120oval": 32679, "SERV": 21355, "case": 5045, "\u0120\u00d1\u012f\u00d1\u0124\u00d0\u00be": 27854, "\u0120Bri": 41431, "Extended": 43185, "ipp": 5265, "stones": 35695, "\u0120builders": 44267, "\u0120Deutsche": 45187, "\u0120Columbus": 27899, "\u0120proportions": 22260, "\u0120Surface": 29700, "\u0120tener": 48014, "\u0120teenagers": 31147, ".|": 45629, "zig": 29899, "mud": 45400, "\u0120Taking": 21525, "RK": 50139, "\u0120wines": 33707, "orgetown": 47052, "\u0120convert": 6455, "\u0120Olive": 40193, "\u0120akin": 33917, "\u0120cof": 7691, "\u0120orange": 13735, "\u0120MOS": 30001, "orously": 29689, "\u0120misf": 30181, "isease": 42294, "CAS": 47503, "feld": 25281, "\u0120pizza": 22534, "ures": 980, "\u00c2\u0142\u00c2\u0142\u00c2\u0142": 21469, "odium": 26796, "\u0120smile": 8580, "\u0120dilemma": 34390, "MTP": 47887, "\u00d8\u00a7": 3142, "082": 45159, "\u0120abrog": 48736, "\u0120macrophage": 30719, "\u0120embracing": 41859, "\u0120\u00ce\u00bf": 16962, "\u0120dude": 29723, "\u0120treaty": 23848, "rible": 8448, "\u0120decor": 11482, "cccc": 19533, "icons": 30585, "\u0120oxidase": 36519, "gni": 45524, "\u0120dot": 14261, "cosystem": 16654, "Bul": 36068, "\u0120sabot": 45608, "osta": 21432, "\u0120gorgeous": 23535, "n\u00c3\u00a9": 22415, "otes": 4787, "uli": 22357, "\u0120avid": 46952, "DS": 5942, "itatively": 21404, "\u0120marriages": 36659, "CHE": 48425, "\u0120$(-": 49960, "\u0120theatrical": 38882, "isf": 3042, "mathop": 20999, "aper": 6653, "formance": 12301, "\u00d1\u0123\u00d1\u0124\u00d0\u00b2": 14887, "GeV": 27704, "\u0120CONDITION": 22231, "\u0120traders": 29262, "\u0120excitations": 35188, "\u0120377": 36508, "\u0120protection": 6055, "\u0120Glor": 38002, "\u0120commens": 42482, "\u0120collection": 4849, "(__": 18583, "\u0120shipments": 47707, "\u0120amph": 29555, "\u0120senior": 8474, "Mill": 21173, "\u0120&\\": 9443, "\u0120jQuery": 19386, "produ": 5551, "\u0120compel": 30705, "clinical": 20892, "\u0120unchanged": 19965, "ITS": 24265, "nih": 24645, "_{(\\": 26398, "\u0120Gren": 34450, "keywords": 47558, "\u0120syndromes": 41413, "}}\\,": 28503, "tok": 25348, "use": 2327, "\u0120migraine": 41755, "\u0120ERISA": 39601, "\u0120awakened": 48752, "\u0120legs": 9246, "avian": 35026, "LL": 2293, "Phone": 10504, "\u0120GTP": 37404, "56": 3208, "following": 34814, "viv": 40418, "\u0120Fran": 22976, "\u0120management": 4323, "\u0120Monitor": 41769, "\u0120dissent": 18776, "\u0120java": 7626, "ss": 859, "\u0120cheese": 12173, "\u0120Dem": 4281, "\u0120www": 8280, "\u0120speculation": 22898, "\u0120Joe": 9915, "Holder": 27046, "\u0120monkey": 28005, "\u0120anomalous": 31946, "\u0120Mexico": 8987, "\u0120Nigeria": 23856, "\u0120surprises": 37700, "Internet": 35031, "ourcing": 40883, "\u0120salon": 48574, "591": 43581, "\u0120stuff": 5017, "\u0120format": 5981, "bi": 4193, "\u0120cleaning": 12478, "\u0120fallen": 13547, "!)": 13724, "\u0120foster": 22846, "\u0120Floor": 32370, "292": 27122, "\u0120Lead": 12151, ",": 13, "\u0120effectively": 8069, "\u0120../": 28222, "\u0120intuition": 30328, "\u0120biblical": 35525, "\u00e5\u00bf\u0127": 41250, "\u0120generator": 14156, "ometimes": 9057, "textnormal": 28975, "illion": 2212, "near": 31323, "\u00d0\u00be\u00d0\u00b2\u00d0\u00b0\u00d0\u00bd": 33036, "USD": 38169, "\u0120Bundes": 42442, "\u0120TFT": 44202, "=============": 18669, "amed": 3163, "ticos": 45109, "\u0120textile": 44383, "\u0120ET": 17464, "\u0120indicators": 18172, "\u0120\"+": 31028, "\u0120sql": 21512, "hte": 28993, "consin": 14727, "\u0120dwelling": 31824, "\u0120launches": 37048, "0037": 45440, "\u00cf\u0123\u00ce\u00af": 34299, "\u0120revive": 47122, "\u0120divide": 10957, "\u0120Emer": 16729, "ync": 6665, "\u0120Eden": 36220, "\u0120grassroots": 46509, "\u0120scorn": 48260, "\u00d0\u00b5\u00d0\u00b9": 15290, "\u0120spoiled": 46935, "eters": 2521, "Module": 13570, "246": 23260, "\u0120value": 1318, "\u0120composite": 8212, "\u00e6\u00a8\u00a1": 41202, "SUCCESS": 34866, "By": 3463, "Drosophila": 37815, "\u0120projected": 16589, "cat": 8076, "CL": 3207, "Figs": 30155, "\u0120Dew": 45797, "lipidemia": 46573, "app": 1212, "\u0120farming": 23420, "\u0120est\u00c3\u00a1": 18219, "ocal": 3100, "\u0120356": 37071, "Settings": 16704, "\u0120CHAR": 30752, "730": 44828, "\u0120Bi": 6943, "\u00e8\u00b7": 31811, "\u0120solved": 14042, "rr": 2676, "hk": 44734, "cl": 498, "\u0120[\"": 15640, "\u0120park": 5603, "du": 563, "NON": 34656, "\u0120logarithm": 42407, "\u0120corridor": 25506, "jour": 19923, "\u0120referendum": 26479, "\u0120Mock": 33833, "\u0120plex": 43239, "Living": 14316, "\u0120lodged": 45678, "\u0120although": 3738, "Prom": 19262, "\u0120essentially": 9093, "\u0120Gab": 17422, "affected": 48130, "\u0120left": 1669, "omy": 4182, "mot": 24013, "\u0120Peak": 24515, "\u0120shouting": 26523, "\u0120dust": 8660, "\u0120Driver": 32911, "\u00e3\u0123\u00a7\u00e3\u0124\u0124": 45776, "BUS": 45483, "imiento": 29378, "\u0120recurs": 17910, "333": 20084, "\u0120evaluations": 27163, "fault": 40478, "illac": 49013, "\u0120Their": 7160, "Chen": 32031, "ARR": 9482, "\u0120citrus": 47321, "\u0120extend": 9017, "\u0120negatively": 18123, "buck": 24507, "aphylococcus": 38428, "\u0120g\u00c3\u00b6": 38980, "694": 30467, "\u0120fired": 11226, "\u0120Americ": 1613, "\u0120Argentina": 23881, "\u0120Shi": 31645, ",...": 35824, "\u0120eng": 2209, "\u0120herds": 47862, "\u0120estimators": 48489, "\u0120audible": 47055, "\u00e2\u0122\u00a6\u00e2\u0122\u00a6\u00e2\u0122\u00a6\u00e2\u0122\u00a6": 41391, "\u012f": 224, "\u0120Sutton": 49536, "Drive": 39780, "\u0120hostage": 43180, "ador": 9325, "\u0120laughing": 17053, "\u0120Definition": 23709, "\u0120uncon": 10915, "\u0120imprison": 14875, "\u0120Relative": 29666, "Santa": 39356, "Mike": 26946, "\u0120unified": 27998, "IGHT": 9981, "\u0120retrieve": 19553, "mosp": 8074, "\u0120Such": 6102, "\u0120Ur": 15520, "\u0120accommodation": 23241, "\":\"": 6302, "cule": 11047, "bucks": 41422, "\u0120groove": 27444, "\u0120plan": 2098, "\u0120giants": 33430, "\u0120diagrams": 21302, "638": 48416, "CLASS": 25734, "\u0120Denote": 44092, "\u0120Philadelphia": 14289, "ixon": 17707, "\u0120ineffective": 18860, "\u0120had": 574, "\u0120creditors": 25141, "\u0120Kaplan": 30615, "fox": 15736, "\u0120estoppel": 31658, "\u0120r\u00c3\u00a9g": 35234, "FO": 8768, "ARG": 24584, "mounted": 35758, "953": 41892, "\u0120tomorrow": 10873, "BT": 11584, "\u0120num": 930, "\u0120ether": 25704, "\u0120abras": 45105, "\u0120Juliet": 46326, "Specific": 35708, "\u00e1\u0125\u0132\u00e1\u0125": 32141, "\u0120clos": 2734, "\u0120blankets": 40144, "\u0120testifying": 49190, "\u0120\u00d8\u00a7\u00d9\u0126\u00d9\u0127": 30331, "mult": 9961, "\u0120\u0120\u0120\u0120\u0120\u0120\u0120\u0120\u0120\u0120\u0120\u0120\u0120\u0120\u0120\u0120\u0120\u0120\u0120\u0120\u0120\u0120\u0120\u0120\u0120\u0120\u0120\u0120\u0120\u0120\u0120\u0120\u0120\u0120\u0120\u0120\u0120\u0120\u0120\u0120\u0120\u0120\u0120\u0120": 15533, "\u0120knowingly": 30210, "Pin": 34585, "recated": 18115, "plus": 11095, "\u0120Thanksgiving": 32678, "\u0120burn": 5451, "\u0120confidence": 7162, "\u00ec\u013f\u0122": 37176, "........": 5638, "school": 19221, "\u0120Figs": 29230, "\u0120Functions": 36944, "\u0120resuspended": 38110, "\u0120shoulder": 9215, "icol": 20917, "\u0120encompassing": 46940, "\u0120potent": 13741, "\u0120pistol": 25288, "\u0120Biden": 26656, "\u0120minimizes": 46926, "\u0120stag": 33435, "\u00e9\u0138\u0135": 30004, "*]{},": 11661, "Ash": 35769, "\u0120mechan": 2543, "==": 381, "\u0120sera": 24932, "Where": 7161, "\u0120resulted": 7369, "MEM": 17589, ">(": 8743, "\u0120Ion": 40733, "\u0120lasted": 20578, "\u0120selenium": 45918, "\u0120440": 32210, "\u0120Theater": 32286, "\u0120v\u00c3\u00a4l": 42454, "\u0120percent": 2558, ")-(": 31867, "gnu": 26497, "\u0120ringing": 33802, "Exit": 34108, "\u0120Million": 34211, "JP": 20198, "ftware": 8179, "\u0120USSR": 48727, "drawn": 21584, "\u0120satisfied": 10048, "\u0120steady": 11792, "\u0120rather": 2581, "imp": 11548, "Organ": 25727, "\u0120seeing": 6523, "\u0120Hello": 24387, "\u0120lineages": 34835, "\u0120RU": 39572, "initialize": 44103, "\u0120ktor": 44797, "\u0120tempting": 39189, "\u0120assume": 5467, "egg": 48915, "spin": 16056, "\u0120filmed": 32325, "Australia": 37150, "\u0120rept": 43571, "joint": 16662, "\u00e4\u00bb\u00a5": 16877, "\u0120ss": 23524, "estly": 27459, "adjoint": 44121, "\u0120Brussels": 30167, "orers": 43770, "packet": 28575, "\u0120physician": 12878, "^{": 768, "\u0120quotations": 47331, "\u0120AIR": 49847, "\u0120SU": 9242, "adesh": 19205, "\u0120AND": 4889, "sold": 42022, "\u0120boyfriend": 22273, "\u0120leading": 4283, "manage": 48200, "\u0120green": 4759, "\u0120did": 858, "\u0120Gold": 7284, "\u0120docs": 27586, "\u0120und": 3807, "\u00d0\u00b5\u00d1\u012a": 30499, "\u0120skillet": 37548, "\u0120Ath": 20289, "ATIONS": 32663, "]}": 18095, "\u0120concluding": 26215, "\u0120Entity": 33162, "\u0120Mutual": 36797, "lotte": 20885, "\u0120265": 25905, "performance": 24159, "ictor": 8617, "\u0120Ralph": 26378, "\u0120screaming": 22233, "\u0120\u00ec\u0140": 32115, "\u0120trac": 43944, "\u0120Techn": 6439,
[...]
