{"(&": 6395, "\u0120eaten": 22186, "LW": 46106, "\u0120Kl": 18223, "\u0120fingers": 9881, "\u0120achievement": 19797, "\u0120cytoplasmic": 24256, "ANGE": 25876, "\u0120../": 28222, "\u0120protocol": 7241, "\u0120Kris": 37204, "\u00e2\u012a\u0139\u00e2\u012a\u0139": 38443, "Hit": 32914, "\u0120Differentiate": 43622, "\u0120INC": 21346, "\u0120privileges": 25687, "\u0120put": 1691, "Clear": 25376, "Visitor": 49757, "\u0120starred": 40903, "\u0120Luxem": 44133, "\u0120vanished": 30117, "\u0120choice": 4327, "ublished": 11229, "\u0120balances": 40216, "\u0120sett": 3414, "Calculate": 5850, "\u0120purch": 4147, "story": 19192, "hthal": 18563, "\u0120171": 24549, "\u0120s\u00c3\u00b3": 27884, "freq": 41122, "\u0120624": 50059, "flag": 17101, "numer": 40907, "os": 375, "\u0120gorge": 20822, "\u0120Tri": 11835, "Preview": 43123, "panic": 19239, "administration": 46264, "MENT": 10634, "\u0120eagle": 42484, "motion": 26049, "yp": 3170, "\u0120detecting": 15549, "\u0120-----------------": 22971, "\u0120credited": 26873, "883": 39273, "Tu": 37675, "Qual": 34255, "\u0120recognized": 7478, "\u0120Lindsey": 50178, "umping": 30022, "\u0120preponderance": 37158, "lik": 7513, "\u0120sandwich": 25749, "\u0120re": 294, "Th": 1044, "daily": 35431, "\u0120Por": 20510, "\u0120alteration": 26787, "\u0120Cer": 28608, "\u0120Figure": 5317, "iginally": 20306, "\u0120comic": 17478, "\u0120152": 21786, "\u0120\u0120\u0120\u0120\u0120\u0120\u0120\u0120\u0120\u0120\u0120\u0120\u0120\u0120\u0120\u0120\u0120\u0120\u0120\u0120\u0120\u0120\u0120\u0120\u0120\u0120\u0120\u0120\u0120\u0120\u0120\u0120\u0120\u0120\u0120\u0120\u0120\u0120\u0120\u0120\u0120\u0120\u0120\u0120\u0120\u0120\u0120\u0120\u0120\u0120\u0120\u0120\u0120\u0120\u0120\u0120\u0120\u0120\u0120": 25511, "infty": 3259, "\u0120consum": 3651, "\u0120Algorithm": 29088, "\u0120particulate": 37571, "\u00d1\u0122\u00d0\u00be": 41014, "\u0120Brunswick": 41813, "\u0120four": 1740, "\u0120obedience": 40138, "\u0120PGE": 48291, "Fisher": 40018, "\u0120attacks": 8104, "\u0120merchandise": 28499, "\u0120Ing": 37095, "\u0120say": 1333, "xim": 3266, "records": 46622, "Generally": 34595, "><": 2730, "\u0120gew": 34381, "\u0120Play": 10223, "\u0120\\+": 18214, "Protocol": 26692, "\u00b6": 116, "\u0120cohes": 28901, "\u0120SNR": 36120, "ithub": 6666, "tec": 39766, "ooth": 4902, "iedad": 46368, "owell": 49710, "posts": 28361, "]>": 42854, "\u0120generality": 31376, "assisted": 27310, "\u0120eighth": 23738, "\u0120microtub": 32918, "apk": 37104, "\u00d0\u00b0\u00d0\u00ba": 9640, "\u0120Sund": 28767, "neapolis": 29922, "\u0120324": 32479, "jav": 20304, "Dict": 38592, "\u0120bacterium": 42207, "\u0120cauc": 42775, "clear": 8250, "\u00d0\u00b0\u00d1\u0123\u00d1\u0124": 29685, "\u0120exercising": 30347, "Because": 8457, "\u0120Loss": 28622, "\u0120debug": 13844, "retched": 29635, "\u0120Titans": 47799, "\u0120plunge": 46894, "iliar": 6668, "upe": 48772, "\u0120segundo": 48118, "\u0120indeed": 6296, "\u0120comput": 2475, "WE": 10663, "\u0120asynchronous": 35576, "\u0120terror": 7075, "quisite": 37917, "illin": 18013, "ydrate": 25221, "\u0120Palest": 11481, "ayson": 45487, "\u0120transformed": 13657, "bytes": 15845, "\u0120pistol": 25288, "\u0120cotton": 17649, "\u0120168": 21748, "\u00c3\u00a7o": 31277, "\u0120Stone": 14963, "Push": 37331, "\u0120ess": 3265, "\u0120accused": 10145, "\u0120declined": 13072, "alleng": 27584, "\u0120competitor": 32048, "plic": 1860, "\u0120Cat": 12441, "\u0120claiming": 15081, "\u0120Archive": 29041, "\u0120fairy": 33784, "\u0120Recovery": 34882, "github": 7280, "\u0120exhibit": 10738, "\u0120Thing": 38104, "\u0120Qu": 3277, "\u0120competent": 20566, "ilent": 39141, "\u0120rif": 14173, "idable": 31074, "\u0120hab": 4776, "\u0120Bald": 28373, "\u0120Franco": 39035, "und": 1504, "\u0120lb": 32830, "boundary": 45794, "################": 11890, "child": 7003, "\u0120episodes": 13305, "REC": 34181, "gut": 45164, "\u0120NIH": 28569, "\u0120till": 7357, "\u0120naked": 16867, "\u00e4\u00bb": 5690, "\u0120educated": 19149, "arate": 33573, "\u0120Inter": 5383, "\u0120compensatory": 36948, "\u0120apt": 13390, "i\u00c4\u0129": 23287, "Upload": 31483, "uations": 12542, "\u0120somewhat": 8489, "check": 5903, "\u0120smaller": 4577, "herical": 16635, "461": 33597, "\u0120eldest": 39311, "\u0120make": 1056, "\u0120avail": 1961, "\u0120log": 2412, "sub": 2377, "\u0120Sheet": 44764, "\u00e7\u013d\u00b4": 46239, "\u0120multim": 23390, "\u0120embarrassed": 30069, "\u0120debts": 26131, "\u0120Case": 10498, "lementary": 3695, "\u0120quiz": 39627, "amen": 18986, "\u0120Beh": 49071, "\u0120\u00d0\u00a1": 22310, "ylene": 23196, "\u0120ok": 8718, "\u00d0\u00bd\u00d1\u0131": 32493, "\u0120paper": 2929, "educ": 23081, "\u0120crush": 30582, "\u0120charm": 22611, "omin": 5240, "\u0120Server": 13331, "\u0120Belgium": 22785, "**,": 8200, "\u0120adventures": 27420, "final": 13017, "\u0120swallow": 17510, "alk": 1278, "\u00cf\u0126\u00ce\u00b7": 17648, "\u0120deals": 13330, "\u0120commentary": 22378, "\u0120----------": 16213, "Rele": 43682, "\u0120bioactive": 45613, "\u0120doubt": 5545, "\u0120spo": 15695, "==========================": 48666, "\u0120adjoint": 39200, "tic": 3028, "crit": 24913, "\u0120transport": 4616, "\u0120inhaled": 44280, "MT": 6229, "aw": 1403, "\u0120CHAPTER": 32204, "\u0120curtains": 36708, "gid": 38902, "\u0120particular": 1798, "\u0120sulfate": 25649, "escent": 40513, "\u0120''": 15078, "833": 44160, "\u0120nests": 46590, "\u0120Cr": 7306, "\u0120Capitol": 27314, "\u00e6\u0134": 45128, "\u0120Return": 16140, "\u00e5\u013e\u00b0": 24086, "\u0120recognizes": 25153, "\u0120brane": 43168, "\u0120temps": 29324, "\u00c2\u00b4": 11679, "\u00e5\u0131\u00a3": 44002, "\u0120film": 3085, "780": 43698, "\u0120Amin": 45816, "\u0120aroused": 48247, "\u0120uint": 4770, "\u00e6\u013f": 12676, "vas": 9210, "\u0120coworkers": 47450, "\u0120synchron": 11842, "UP": 12456, "159": 17220, "\u0120closed": 4581, "158": 18663, "\u0120scrap": 18572, "\u0120femin": 19026, "\u0120oak": 29098, ":**]{}": 48471, "\u0120respect": 1675, "\u0120norm": 5222, "\u0120yeast": 15727, "\u0120memb": 35054, "\u0120Bod": 34239, "----------------": 573, "amsbsy": 8844, ")^\\": 25690, "desktop": 33710, "raj": 43792, "\u0120438": 40175, "umbles": 45143, "SEA": 46124, "ofs": 46627, "\u0120financing": 22599, "\u0120M": 353, "\u012004": 16703, "arning": 4026, "oxylin": 41713, "unger": 44078, "\u0120authentication": 19676, "\u0120filthy": 46280, "\u0120didn": 1904, "\u0120el": 1045, "\u00d0\u00b5\u00d0\u00bb": 9247, "orage": 4423, "\u0120plum": 29896, "\u0120indisp": 31207, "\u0120convict": 35171, ")}_{\\": 38225, "\u0120profoundly": 38245, "\u0120diagnostic": 10401, "\u0120Archives": 23728, "notice": 37277, "\u0120instructors": 46421, "\u0120Donovan": 49028, "ktop": 18487, "\u0120Natalie": 50033, "UTION": 43443, "\u0120Adapt": 47002, "\u0120nozzle": 28181, "\u0120Parenthood": 50155, "\u0120achievable": 39941, "eth": 678, "\u0120postponed": 44866, "\u0120salient": 43066, "\u0120poisoned": 47494, "\u0120Keller": 44172, "\u0120popul": 28969, "\u0120Gray": 18707, "\u0120\"_": 19292, "\u0120harass": 15598, "documents": 47878, "significant": 32258, "\u0120Scient": 11615, "\u0120pleading": 26412, "student": 39095, "\u0120Notably": 28776, "\u00d7\u00a7": 41855, "Rate": 25977, "\u0120celebrating": 28765, "ock": 825, "box": 3364, "\u0120sector": 8776, "\u0120Cricket": 42579, "Fi": 15723, "point": 3659, "\u0120Chap": 17235, "\u0120rotating": 17387, "\u0120Hus": 20699, "\u00e5\u0132\u012a": 24168, "\u0120entangled": 36255, "Message": 7474, "\u0120decentralized": 40880, "reptococcus": 46782, "tion": 19606, "\u0120sometimes": 4536, "\u0120maximum": 4869, "Forg": 47565, "\u0120deployed": 18329, "ators": 2392, "\u0120analyt": 11079, "\u0120math": 14168, "\u0120\u0120\u0120\u0120\u0120\u0120\u0120\u0120\u0120\u0120\u0120\u0120\u0120\u0120\u0120\u0120\u0120\u0120\u0120\u0120\u0120\u0120\u0120\u0120\u0120\u0120\u0120\u0120\u0120\u0120\u0120\u0120\u0120\u0120\u0120\u0120\u0120\u0120\u0120\u0120\u0120\u0120\u0120\u0120\u0120\u0120\u0120\u0120\u0120\u0120\u0120\u0120\u0120\u0120\u0120\u0120\u0120\u0120\u0120\u0120\u0120\u0120\u0120\u0120\u0120\u0120\u0120\u0120\u0120\u0120\u0120\u0120\u0120\u0120\u0120\u0120\u0120\u0120\u0120\u0120\u0120\u0120\u0120\u0120\u0120\u0120\u0120\u0120\u0120\u0120\u0120\u0120\u0120\u0120\u0120\u0120": 8369, "\u0120poly": 3488, "\u0120backup": 17119, "\u01202007": 5215, "\u00e3\u0123\u012a": 19857, "\u0120signatures": 20076, "\u0120updating": 22753, "\u0120biomarker": 28976, "segment": 29429, "\u0120senators": 31650, "\u00d1\u0130\u00d1\u0124": 28732, "protein": 20529, "appa": 5596, "\u0120Computing": 37696, "\u0120doubtful": 38342, "acies": 19103, "]=": 18772, "creation": 30767, "\u0131": 226, "^\u00e2\u012a\u0134": 6006, "\u0120posted": 9269, "asia": 13411, "rief": 3624, "would": 12756, "\u0120defeated": 16473, "recated": 18115, "beans": 26022, "\u0120markets": 10169, "diagn": 27631, "biggr": 34145, "\u0120CONTRIBUT": 35819, "Get": 3633, "\u0120residents": 8811, "\u0120prim": 2248, "Prep": 29779, "odor": 36155, "ploid": 37461, "]$": 8795, "Willi": 16792, "nol": 27058, "0065": 41545, "513": 42640, "\u0120Colleg": 43613, "\u0120transgender": 31737, "080": 24581, "\u0120Golden": 15790, "agland": 38324, "\u0120occas": 10900, "\u0120depriv": 14882, "\u0120unacceptable": 28536, "\u0120Flat": 36682, "\u0120cass": 20725, "322": 23625, "\u0120implying": 27594, "\u0120consortium": 42946, "\u0120mounted": 10877, "\u0120\u00ec\u0142": 43710, "Better": 36011, "Unable": 43794, "\\]),": 9014, "\u0120Odys": 45744, "\u0120Doe": 34365, "\u01201880": 32626, "\u0120Bacon": 43769, "pling": 4906, "\u0120spice": 39371, "\u0120clamping": 45059, "\u0120cheering": 45927, "\u0120Silva": 35084, "\u0120Cain": 46737, "factory": 20907, "\u0120patterning": 47149, "\u0120deported": 48004, "...\"": 3255, "DLT": 37892, "\u0120ankles": 48500, "\u0120Qatar": 38372, "isti": 49356, "\u0120nobility": 49578, "2002": 10016, "functional": 28445, "\u0120halluc": 33092, "\u00e2\u0126": 13262, "\u0120Ass": 2903, "\u0120Charlie": 16955, "inea": 20444, "114": 13391, "\u0120Dup": 40897, "\u0120meditation": 23986, "\u0120TEM": 29021, "\u0120prost": 17248, "\u0120Storage": 29019, "\u0120headers": 20546, "\u0120pig": 8393, "\u00eb\u012d\u012a\u00eb\u012d\u00a4": 31912, "INDEX": 34558, "\u0120394": 41267, "igl": 48148, "\u0120blockers": 48846, "ecause": 3274, "ments": 942, "\u0120Vill": 13758, "\u0120Manufact": 29405, "QP": 30570, "platin": 30600, "\u0120Bened": 31614, "\u0120Sing": 7712, "\u0120dos": 9500, "organ": 7397, "\u0120hal": 7905, "\u0120constitute": 12647, "\u0120worthy": 18338, "\u0120intram": 34626, "\u0120geodesic": 35917, "javase": 50024, "bara": 16231, "beh": 48384, "Tenn": 30461, "hdad": 38072, "placian": 43917, "orman": 39221, "ropathy": 47382, "\u0120enhanced": 8655, "(*": 9672, "aron": 10510, "\u0120Hack": 34999, "\u0120vet": 26925, "\u0120Bosnia": 46795, "\u0120adm": 7599, "\u0120thumb": 17300, "\u0120awk": 17488, "stock": 17764, "\".": 3446, "\u0120threatening": 18844, "\u0120\\'": 29792, "\u0120Advance": 36808, "terrorism": 49587, "595": 44159, "\u0120Martin": 8698, "University": 19339, "oultry": 30711, "uve": 48132, "\u0120Personally": 49920, "olic": 3422, "\u0120pant": 20018, "\u0120\u00ce\u00a3": 37849, "send": 13161, "\u0120azimuth": 40665, "\u0120ovat": 45079, "\u0120Writers": 45762, "\u0120SVM": 46715, "\u0120Transl": 46925, "omencl": 47468, "uckle": 47925, "}}}}": 10187, "\u0120flesh": 15447, "\u0120214": 25901, "among": 35094, "\u0120compressed": 21012, "inform": 37650, "\u0120imagin": 30087, "veis": 46975, "\u0120fast": 3809, "\u0120deaths": 8923, "Scheme": 32003, "\u0120Marketing": 25694, "Alt": 31879, "\u00e7\u00b7": 38675, "\u0120\u0120\u0120\u0120\u0120\u0120\u0120\u0120\u0120\u0120\u0120": 1932, "\u00e5\u013d\u0140": 26270, "\u0120him": 779, "\u0120deg": 6797, "\u0120google": 17899, "stimulated": 29643, "\u0120_(": 31670, "VOL": 36755, "assing": 38046, "\u0120Posts": 36304, "\u0120510": 33930, "\u0120XX": 24100, "\u00e3\u0125\u00aa": 17021, "\u0120Pablo": 46482, "\u0120contours": 33183, "\u0120splendid": 34095, "ictionary": 10052, "CE": 4339, "\u0120CNT": 43752, "\u0120butcher": 45975, "\u0120amb": 6861, "\u0120Letter": 23488, "\u0120Pelosi": 40585, "\u0120Qi": 44531, "Ps": 3724, "\u0120lod": 22237, "\u00d1\u0125\u00d0\u00bf": 42901, "connection": 14477, "\u0120Agents": 45709, "\u0120beat": 7171, "\u0120Roosevelt": 21519, "\u0120conjunct": 49961, "unnumbered": 22322, "\u0120Store": 16106, "\u0120snd": 23673, "\u0120551": 47319, "\u0120confocal": 29478, "/\\": 6602, "\u0120egg": 7238, "uble": 13228, "\u0120stairs": 16303, "\u0120MAC": 24871, "\u0120Hours": 36897, "\u0120Thank": 11239, "[\\*](#": 25416, "\u00ce\u00bcL": 35763, "\u0120unnecessary": 15279, "usep": 2089, "\u0120]$": 24254, "\u0120germ": 14638, "\u0120Romney": 24460, "\u0120Walmart": 41414, "\u0120encourage": 11907, "\u0120pods": 43701, "Barn": 49762, "vious": 3391, "\u00c3\u00b1a": 23748, "anchez": 31432, "\u0120Monsieur": 38321, "\u0120flange": 47713, "\u0120Outcomes": 50253, "f\u00c3\u00b6r": 30096, "\u0120wors": 31542, "\u0120conc": 7036, "soever": 23330, "446": 27590, "atile": 12596, "\u0120dissolved": 18224, "\u0120compilation": 25234, "58": 3680, "Transaction": 25580, "\u0120costume": 28067, "\u0120Hilton": 45280, "wil": 48951, "ackage": 1627, "\u0120FH": 48953, "\u0120completion": 12240, "\u0120promotional": 32223, "\u0120Mild": 49671, "\u0120clarify": 19148, "\u0120weights": 13461, "\u0120JO": 20152, "Parser": 20455, "\u0120Los": 8742, "\u0120Gould": 44511, "\u0120planned": 9355, "\u0120Barr": 27783, "\u0120Municipal": 35266, "\u0120elements": 3603, "\u0120whereabouts": 49924, "\u0120defenses": 25774, "\u00c4\u0135": 15194, "\u0120Cory": 48038, "\u0120began": 3407, "know": 14428, "\u0120\u00ce": 1454, "\u0120lang": 19457, "ynthe": 10285, "\u0120squared": 30044, "Fail": 44416, "ennis": 13659, "ody": 1197, "esi": 27544, "\u0120widened": 42248, "fre": 18105, "\u0120colleges": 24267, "Ald": 22088, "They": 3726, "\u0120appliances": 32701, "Since": 7542, "cm": 3591, "arc": 3178, "\u0120worry": 7664, "\u010a\u0120\u0120\u0120\u0120\u0120\u0120\u0120\u0120\u0120\u0120\u0120\u0120\u0120\u0120\u0120\u0120\u0120\u0120\u0120\u0120\u0120\u0120\u0120\u0120\u0120\u0120\u0120\u0120\u0120\u0120\u0120\u0120\u0120\u0120\u0120": 14222, "\u0120hourly": 33081, "ograms": 17629, "\u0120catching": 23862, "Hold": 26521, "\u0120extra": 4465, "Sigma": 6199, "mas": 6681, "\u0120sake": 13232, "\u0120trop": 14404, "\u00cf\u0123\u00ce\u00bf": 14733, "\u0120IgA": 45213, "\u00e3\u0122\u0131": 45856, "callback": 20104, "\u0120merc": 14480, "orentz": 27536, "68": 2358, "\u0120antioxid": 15998, "L": 45, "\u0120exit": 10463, "\u0120permits": 16000, "urations": 13087, "\u0120adverse": 10021, "eb": 2275, "\u0120Esc": 20748, "')$": 31807, "\u00c3\u00a9p": 41808, "Turk": 44354, "Sho": 49498, "057": 30768, "858": 31117, "\u0120attacked": 13964, "\u0120Grav": 29130, "ucky": 12202, "cnt": 26950, "235": 19568, "\u0120Jag": 25198, "481": 34474, "iden": 9226, "EINVAL": 37213, "xFF": 30962, "\u0120Apart": 23449, "\u0120excell": 6552, "790": 48172, "ission": 1538, "ska": 32518, "caps": 10127, "qualified": 28758, "\u0120388": 37112, "Dave": 39993, "\u0120E": 444, "zi": 9877, "\u0134": 229, "\u0120largely": 8127, "\u0120Manchester": 17427, "\u0120concentrate": 21364, "XR": 31576, "\u00e6\u00b3\u00a8": 44712, "\u0120annoy": 14810, "\u00bc": 122, "\u0120impact": 3486, "------------": 2912, "\u0120Cas": 12000, "ume": 2123, "packages": 24166, "boat": 27431, "bd": 14836, "684": 28883, "\u0120immunore": 32242, "\u0120projections": 20553, "Rs": 24274, "\u0120estos": 48421, "\u0120provision": 8332, "()\">": 49384, "\u0120anytime": 28537, "\u0120strands": 30450, "}({{\\": 35420, "\u00e5\u0131\u012c": 40658, "\u00ea\u00b8": 36178, "\u0120lost": 3663, "\u0120fluoride": 39181, "\u0120INSERT": 49784, "\u0120suppose": 9428, "ophilic": 28992, "thy": 24085, "060": 24341, "\u0120monk": 35295, "\u0120\u00d0\u00b2\u00d1\u0123\u00d0\u00b5": 37975, "\u0120Correction": 40862, "\u0120crisp": 29990, "Chars": 45132, "\u0120raised": 5439, "handling": 48590, "ripp": 21743, "\u0120flights": 20818, "\u0120maar": 33893, "\u0120together": 2366, "\u0120classifying": 49653, "\u0120Survival": 38312, "\u0120segregated": 50049, "by": 1615, "\u00c3\u00a5ng": 40406, "\u0120phase": 3408, "\u0120pathways": 9130, "ortunity": 32268, "\u0120drummer": 43982, "\u0120lively": 33073, "arta": 37964, "orescence": 18394, "\u00d0\u00bd\u00d0\u00b0\u00d1\u0131": 43167, "MY": 19805, "Definitions": 36235, "285": 23025, "compact": 36648, "ACE": 9566, "\u01202002": 6752, "anka": 22847, "rystal": 18568, "asone": 38187, "]['": 45443, "Ec": 48152, "\u0120wra": 9342, "\u0120727": 48470, "\u0120Europ": 13124, "Fall": 37327, "\u0120reef": 43544, "\u0120constructive": 25799, "Magn": 47981, "\u0120acyl": 40281, "cember": 4246, "\u0120thir": 20960, "\u0120extrap": 26480, "\u010a\u0120\u0120\u0120\u0120\u0120\u0120\u0120\u0120\u0120\u0120\u0120\u0120\u0120\u0120\u0120\u0120\u0120\u0120\u0120\u0120\u0120\u0120\u0120\u0120\u0120\u0120\u0120\u0120\u0120\u0120\u0120\u0120\u0120\u0120\u0120\u0120\u0120": 27323, "\u0120outside": 3345, "\u0120guidelines": 9600, "\u0120Ra": 11605, "\u0120sind": 21308, "\u01202013": 4072, "Std": 38821, "esan": 41080, "\u0120suppress": 10476, "\u0120undesirable": 26016, "\u0120Jamaica": 41198, "acrylamide": 42632, "/*!": 46170, "\u0120Inn": 14515, "\u0120curb": 33204, "ostatic": 48051, "internal": 11577, "\u0120Generate": 48533, "ran": 4011, "\u0120infusion": 20457, "\u0120tin": 20596, "\u0120sistema": 35920, "stars": 37146, "\u0120temporal": 11935, "blood": 25304, "\u0120importance": 6349, "\u0120dysplasia": 48723, "([]": 35237, "\"]": 9686, "\u0120appet": 22115, "\u0120battling": 41453, "\u00d0\u00be\u00d1\u0122\u00d0\u00bc": 38660, "\u0120usb": 29227, "\u0120imply": 16084, "\u0120drones": 35968, ";\"": 16352, "\u0120frontier": 34642, "TOP": 32887, "\u0120printed": 11462, "\u0120homes": 9076, "vision": 4694, "\u0120Fa": 15404, "\u0120CFU": 46828, "\u0120Menschen": 45172, "\u0120Valley": 10947, "\u0120lawsuits": 33563, "\u0120proceed": 4262, "clusions": 7797, "\u0120Con": 1716, "\u0120reconsideration": 39905, "\u0120programmable": 45062, "\u0120Stats": 48522, "\u0120posed": 22691, "bia": 26978, "\u0120THIS": 10113, "election": 24508, "tailed": 29551, "Width": 12175, "\u0120Style": 27417, "\u0120subpo": 31152, "ukes": 41757, "\u0120Coca": 49892, "\u00e9\u0122\u012b": 49037, "\u0120/>": 4725, "\u00c5\u013b": 14438, "\u0120PCT": 48608, "\u0120pyram": 25874, "\u0120bass": 16819, "432": 32803, "Receiver": 44582, "\u0120mutants": 15396, "\u0120Shar": 25454, "\u0120EF": 24931, "\u0120Sc": 1810, "\u0120discussion": 5955, "tensor": 26109, "\u0120432": 37296, "Shader": 38031, "\u0120fed": 10208, "109": 12852, "\u0120tyranny": 48320, "\u0120Chloe": 45014, "rac": 8306, "checked": 21542, "\u0120Prevent": 46915, "\u01201973": 15621, "\u0120commun": 1681, "rogen": 12991, "\u0120conceived": 20913, "DOM": 27395, "cedes": 30573, "Performance": 35975, "solution": 42023, "\u0120os": 7684, "\u0120absorbing": 33121, "\u0120jungle": 31500, "\u00e0\u00b8\u00a5": 32601, "mathit": 20429, "\u00e5\u0143\u013a": 32938, "\u0120prompts": 49887, "mmas": 44661, "\u0120inc": 1485, "oured": 9698, "\u0120ignorance": 24492, "YR": 18352, "\u0120chromosomes": 25112, "\u0120originate": 35282, "\u0120bushes": 40444, "\u00e9\u0124\u00a3": 40693, "\u0120chron": 20600, "lb": 24780, "orption": 19215, "cmp": 21630, "mot": 24013, "SEQUENTIAL": 46068, "arrison": 27995, "xmm": 27963, "642": 32834, "\u0120Aj": 41686, "\u0120Mam": 37963, "\u0120spelled": 43997, "oscope": 31269, "Cass": 42231, "1944": 42704, "\u0120bip": 15086, "western": 18288, "\u0120Arsenal": 33386, "\u0120Forty": 34981, "\u0120\u0120\u0120\u0120\u0120\u0120\u0120\u0120\u0120\u0120\u0120\u0120\u0120\u0120\u0120\u0120\u0120\u0120\u0120\u0120\u0120\u0120\u0120\u0120\u0120\u0120\u0120\u0120\u0120\u0120\u0120\u0120\u0120\u0120\u0120\u0120\u0120\u0120\u0120": 13475, "\u0120linking": 20057, "rack": 41565, "Loss": 43228, "\u0120Actions": 47483, ")}.$$": 42348, "\u0120Dark": 14182, "closed": 13784, "ABLE": 8908, "dashed": 32448, "\u0120equivalently": 39406, "\u0120surgeon": 20997, "\\[": 1447, "mL": 8316, "\u00e0\u00b0": 10681, "\u0120Resp": 12019, "LOAD": 29839, "beg": 37803, "\u0120Melissa": 38994, "\u0120bulk": 10713, "\u0120Finland": 25270, "\u0120praise": 19916, "\u00e2\u0124\u00ac\u00e2\u0126\u00a2": 47719, "!": 2, "Gr": 3594, "ottu": 29842, "assertEquals": 32315, "arynx": 44793, "nk": 30664, "\u0120consultation": 21183, "\u0120Compute": 45947, "Samples": 49644, "\u0120cardinal": 26892, "\u0120enforcing": 37703, "ropy": 10144, "\u0120Hamiltonian": 14342, "\u0120Additional": 14117, "\u0120thigh": 33845, "isks": 38235, "\u0120heroes": 22271, "oxyl": 35868, "\u0120continuing": 11440, "creat": 20132, "937": 47508, "\u010a\u0120\u0120\u0120\u0120\u0120\u0120\u0120\u0120\u0120\u0120\u0120\u0120\u0120\u0120\u0120\u0120\u0120\u0120\u0120\u0120\u0120\u0120\u0120\u0120\u0120\u0120\u0120\u0120\u0120\u0120\u0120\u0120\u0120\u0120\u0120\u0120\u0120\u0120\u0120\u0120\u0120\u0120\u0120\u0120\u0120": 38531, "hydr": 23889, "\u0120DF": 35425, "Church": 42462, "\u0120League": 6884, "\u0120diffe": 845, "\u0120Ext": 9052, "ialog": 6690, "\u0120\u00d7": 6810, "ampions": 6543, "ensus": 8536, "Jul": 24221, "\u0120docs": 27586, "\u0120TI": 27703, "\u00e7\u0137\u012e": 45261, "\u0120loan": 10119, "\u0120\u00c3\u0133": 22520, "\u0120introduces": 23970, "Cy": 25385, "zel": 21608, "\u0120politely": 45646, "\u0120affirmed": 16337, "\u0120margins": 24390, "\u0120watches": 28654, "\u0120candidate": 7431, "\u0120adip": 14497, "\u0120delicate": 21140, "\u00e3\u0122": 2155, "\u0120~": 5062, "aves": 3465, "\u0120adapt": 5223, "\u0120anest": 16028, "glut": 23897, "clusive": 7426, "\u0120Edmund": 42953, "\u0120transcripts": 16917, "Reason": 40722, "\u0120Queensland": 28748, "liest": 15717, "INCLUDING": 33509, "485": 34906, "\u0120photometric": 36392, "\u0120UV": 12160, "\u0120live": 3153, "occo": 29012, "\u0120gravel": 33791, ")',": 41149, "Table": 3235, "mitting": 15318, "\u0120freak": 37462, "tracking": 40111, "\u0120tranqu": 34131, "\u0120mechanics": 17823, "\u0120bounced": 45394, "388": 25085, "\u0120pseud": 10585, "\u0120stringent": 32881, "\u00d0\u00bb\u00d0\u00b5\u00d0\u00bd": 36723, "\u0120Database": 20421, "\u0120reassuring": 45462, "monary": 10803, "sek": 45902, "\u0120prominently": 46454, "Yes": 4374, "-\\": 2249, "\u0120zig": 48567, "terest": 6173, "technology": 48786, "\u0120womb": 49009, "\u010a\u010a": 535, "im": 303, "ura": 5650, "odds": 8421, "\u0120spectra": 9408, "\u00c3\u00aame": 17476, "wheel": 29061, "\u010a\u0120\u0120\u0120\u0120\u0120\u0120\u0120\u0120\u0120\u0120\u0120\u0120\u0120\u0120\u0120\u0120\u0120\u0120\u0120\u0120\u0120\u0120\u0120\u0120": 18118, "laughs": 48861, "oscow": 15635, "imon": 15329, "\u0120virtual": 7503, "\u0120desp": 26882, "\u0120plastic": 8013, "851": 37256, "\u0120partially": 10571, "(\".": 29825, "\u0120za": 20244, "\u0120GW": 23765, "\u0120Pes": 50035, "559": 36002, "\u0120perturbed": 44711, "-)": 16945, "stitute": 5157, "\u0120Hand": 10535, "\u0120growing": 5675, "\u010a\u010a\u0120\u010a": 46603, "\u0120Bootstrap": 47720, "\u0120304": 27639, "idding": 17270, "\u0120volley": 39767, "\u0120maj": 19684, "orin": 48333, "\u0120hereditary": 40454, "castle": 26689, "_{[": 29650, "\u0120Shannon": 35175, "             ": 50265, "\u0120trivial": 14916, "arly": 1285, "\u0120president": 4007, "\u00c3\u0139": 6027, ",~": 44322, "00000": 9439, "bial": 11588, "\u0120din": 13223, "\u0120HCT": 46363, "\u0120github": 40477, "\u0120sob": 30323, "\u0120dripping": 45687, "\u0120Qu\u00c3\u00a9": 47840, "\u0120intraoperative": 43872, "\u0120Dies": 34147, "\u0120loc": 1150, "wave": 15007, "\u0120intensive": 17193, "getting": 35777, "icate": 9038, "].$$": 44524, "\u0120way": 1039, "stem": 852, "ppy": 19500, "\u0120lambda": 29331, "\u0120impressions": 34965, "\u0120finitely": 30268, "940": 48173, "\u0120challenges": 7881, "\u0120di": 1073, "\u0120\u00e2\u0123\u00a2": 31522, "\u0120adequ": 7825, "Rober": 17586, "\u0120DMA": 30143, "\u0120Reverse": 38898, "\u0120illuminating": 48374, "\u0120DC": 9087, "\u0120Atlantic": 14847, "isl": 12937, "\u0120mindful": 44049, ",\"": 937, "\u0120reviewers": 30628, "oya": 28682, "From": 4509, "\u0120ao": 18547, "zent": 49738, "gether": 2365, "\u00e6\u00ac\u00a1": 35241, "92": 4529, "\u0120$^{": 19219, "ADDR": 20144, "glob": 28626, "\u0120Tukey": 44384, "\u0120wavelength": 11225, "ouses": 15011, "fills": 44849, "\u00e7\u00b3\u00bb": 44126, "umers": 49250, "\u0120safe": 4999, "\u0120Century": 21672, "ej": 24130, "\u0120efforts": 6031, "Western": 27733, "\u0120stealing": 27980, "llvm": 38381, "bounded": 44344, "\u0120)\"": 46713, "\u0120radiant": 50223, "\u0120Raymond": 29936, "map": 4251, "\u0120accomplished": 14123, "\u0120fulfilling": 34873, "\u0120inconven": 24890, "\u0120DX": 49183, "heimer": 18015, "lement": 1338, "\u0120Twitter": 7879, "iliation": 24567, "anic": 32092, "\u0120sail": 15901, "\u0120flare": 32818, "ISH": 14535, "\u0120binary": 8985, "\u0120heap": 26486, "\u0120Shock": 46085, "\u00cf\u0125": 3868, "\u0120fist": 20008, "\u0120Root": 26718, "hton": 41844, "\u0120154": 21603, "\u0120stretching": 23148, "cuador": 37487, "Copyright": 20968, "\u0120identically": 45963, "IBM": 47762, "sed": 15690, "\u0120Follow": 19166, "\u0120contre": 37379, "\u0120practices": 8333, "\u0120Otto": 37659, "MU": 40956, "ranging": 41814, "\u0120Fan": 29531, "\u0120Gob": 42216, "\u0120\u0120\u0120\u0120\u0120\u0120\u0120\u0120\u0120\u0120\u0120\u0120\u0120\u0120\u0120\u0120\u0120\u0120\u0120\u0120\u0120": 5144, "\u0120Transcript": 38654, "cart": 23487, "\u0120Having": 14566, "\u0120Lun": 39761, "ITE": 12752, "\u0120projecting": 35104, "MC": 7722, "advant": 11402, "athering": 44627, "\u0120wolf": 25872, "\u0120pretend": 22830, "\u0120Cell": 11641, "0034": 41674, "\u0120reprodu": 7598, "\u0120snap": 14496, "\u0120extends": 8725, "\u0120qualitative": 18276, "\u00e7\u00a6": 44020, "}\\!": 33714, "\u0120rank": 5958, "Previous": 25925, "\u0120adiab": 40735, "ubert": 34762, "\u0120ordered": 6960, "\u0120inactive": 25515, "]->": 33094, "\u0120others": 2571, "\u0120dwar": 18691, "arma": 21401, "\u0120ainsi": 41057, "\u0120dz": 33425, "\u0120Packers": 43290, "\u0120Junior": 25418, "Local": 12599, "778": 33505, "\u0120pools": 24283, "\u0120converter": 24660, "\u0120Tou": 44025, "\u0120superiority": 34385, "apache": 8418, "er": 254, "\u0120turbine": 27859, "suite": 42877, "running": 24220, "riers": 8856, "\u01201992": 9748, "\u0120sulf": 10997, "\u0120Ideas": 43504, "\u0120reaching": 10922, "\u0120shoulder": 9215, "\u0120cancers": 15110, "\u0120intervention": 7268, "require": 15684, "\u0120\u00e2\u0122\u0140": 16724, "\u0120benign": 21690, "\u0120Since": 3932, "\u0120verse": 23252, "\u0120tamb\u00c3\u00a9m": 31304, "ayout": 5038, "\u0120Models": 31581, "\u0120Chapel": 34687, "accept": 14764, "\u0120gluon": 42677, "RET": 22178, "\u0120Tea": 29464, "\u0120support": 1329, "asses": 30131, "actin": 20050, "]{.": 12004, "\u0120Krist": 24131, "\u0120Defender": 42943, "Generic": 25114, "k": 76, "^{{\\": 19022, "\u0120metastases": 24738, "\u0120Philipp": 16312, "ahi": 42128, "OUBLE": 43028, "\u0120conformation": 28324, "}}}=": 44766, "HER": 18449, "\u0120fitness": 14601, "\u0120lays": 41714, "\u0120relevance": 17200, "\u0120stiffness": 26370, "\u0120padd": 41243, "\u0120Perth": 44937, "\u0120EMT": 33566, "\u0120transcript": 7045, "igt": 17496, "\u0120labeled": 13130, "\u0120balloon": 23470, "\u00e0\u00a4\u00ae": 32191, "\u012023": 3495, "leman": 39772, "\u0120worthwhile": 32811, "\u0120prejudicial": 33218, "079": 41040, "\u0120moved": 4395, "\u0120somewhere": 9366, "\u0120liberal": 12773, "\u0120COL": 21849, "\u0120dismissal": 16852, "resent": 1631, "Token": 11200, "CODE": 16699, "\u0120MERCHANTABILITY": 20863, "\u0120dependency": 18925, "ountain": 24726, "u": 86, "\u0120coherent": 18893, "\u0120toxin": 27796, "\u0120lettuce": 43170, "ocomplete": 48116, "appendix": 50237, "\u0120holographic": 49843, "img": 8428, "activity": 12135, "====================": 13058, "\u0120arXiv": 22725, "____________": 27696, "iku": 38559, "\u0120basement": 21135, "timeout": 23896, "ette": 5464, "\u0120OT": 24417, "\u0120repairing": 47387, "damn": 34681, "\u0120//": 1380, "\u0120coun": 2258, "\u0120Integer": 22008, "\u0120proper": 1463, "\u0120---------------------": 26075, "train": 24382, "erved": 4994, "\u0120inh": 28869, "vl": 29576, "\u0120524": 41334, "\u012018": 1283, "stan": 18549, "\u0120mil": 2301, "Cr": 14201, "\u0120Why": 6049, "\u0120stabbed": 37836, "\u0120server": 4771, "\u0120founder": 15217, "\u0120transcribed": 34348, "\u0120VC": 29640, "\u0120Stop": 21305, "\u0120detached": 31418, "\u0120histology": 40102, "\u0120Orig": 42321, "spheres": 46051, "\u0120Z": 1503, "\u0120athe": 15389, "ODY": 35867, "\u00e0\u00ae\u00a4": 47361, "zza": 48407, "\u0120voices": 15547, "\u0120lace": 37878, "\u0120surprised": 9861, "Fake": 48410, "my": 2577, "ketch": 48411, "\u0120urgently": 45163, "world": 10186, "\u0120cinema": 26693, "media": 8236, "\u0120ICP": 48767, "\u0120thrust": 19031, "\u0120branc": 11363, "\u0120panic": 18829, "\u0120sudo": 20850, "\u0120SAL": 47305, "\u0120Essays": 49121, "oin": 31511, "\u0120inspections": 48350, "give": 31089, "\u0120hiding": 17197, "\u0120championships": 40507, "\u0120mainly": 7194, "\u0120body": 2133, "onal": 2814, "0000000000000000": 9754, "]))": 27829, "\u0120competence": 30281, "calc": 32557, "\u0120osteopor": 35618, "\u0120Ober": 38273, "\u0120excitations": 35188, "\u0120detectable": 21759, "\u0120angels": 29828, "\u0120Hein": 36029, "\u0120punct": 17256, "\u0120454": 37788, "\u0120dispatched": 39752, "\u0120/*!<": 44740, "arching": 50238, "\u0120parts": 4243, "\u0120Flor": 7230, "iar": 11158, "\u0120legend": 13691, "uri": 11317, "\u0120Hav": 32977, "It": 1147, "\u0120(,": 33820, "\u0120shorts": 32353, "\u0120DOC": 38909, "opot": 43191, "reatment": 9048, "\u0120fractured": 47779, "emit": 35999, "\u0120humanitarian": 30122, "\u0120fly": 8778, "\u0120dimensions": 10103, "mate": 13884, "rifug": 15294, "\u0120dynamically": 23043, "\u0120replic": 7446, "\u010b": 188, "]{}": 1181, "\u0120Time": 6865, "\u0120Housing": 28706, "course": 17406, "                     ": 50257, "==============": 26446, "\u0120IDs": 36919, "\u0120Republicans": 11885, "lock": 4348, "\u0120transported": 20870, "\u0120bipolar": 27842, "suggest": 35640, "\u0120Chest": 43267, "\u0120invite": 19864, "\u0120widening": 50050, "\u0120Dion": 43898, "\u0120roared": 49876, "dots": 6768, "\u0120reviewed": 9814, "\u0120fear": 4709, "\u0120\u00cf\u0129": 23977, "MORE": 47711, "\u0120gluc": 7124, "\u0120Bros": 29906, "respect": 21014, "\u0120Soci": 33962, "hetic": 11176, "systems": 39098, "\u00d7\u013b": 10740, "\u0120Mold": 49523, "\u0120Archer": 48802, "cloud": 18534, "\u0120\u0120\u0120\u0120\u0120\u0120\u0120\u0120\u0120\u0120\u0120\u0120\u010a\u0120": 44782, "<>();": 46145, "ember": 2037, "\u0120app": 622, "\u0120inflammatory": 10142, "roots": 32919, "heast": 12283, "\u0120<?": 17987, "\u0120provinces": 26020, "}:": 17168, "Us": 8484, "\u0120mater": 10691, "\u0120Patients": 12493, "\u0120relaxing": 32196, "\u0120ctrl": 44574, "\u0120Canada": 6144, "\u0120MEM": 25719, "ders": 12632, "\u0120hippocamp": 17592, "313": 27893, "\u0120repetition": 22563, "\u0120Thai": 28191, "640": 33031, "\u0120loro": 37938, "ilian": 38515, "\u0120granules": 39216, ")</": 17266, "ATIONAL": 41043, "transfected": 43140, "uelle": 43737, "\u0120wrongful": 32288, "\u0120whenever": 10793, "\u0120horse": 8815, "Pay": 19334, "\u0120toug": 28800, "\u0120assaults": 44848, "\u0120k": 465, "\u00e0\u00b5\u012f": 33695, "\u0120xmlns": 15664, "\u0120RNase": 46034, "bud": 27094, "\u0120Italian": 9890, "\u0120feasible": 17887, "\u0120paradox": 25286, "\u0120Rim": 48582, "\u0120establish": 5100, "\u0120Cond": 12776, "\u0120Fall": 16275, "1981": 18263, "\u0120absor": 5862, "\u00e6\u0125": 21555, "ontal": 8226, "\u00c3\u00a1": 1757, "yst": 9207, "\u0120somebody": 11853, "\u0120ti": 16816, "dez": 26196, "phis": 29155, "\u0120Henderson": 30756, "\u0120infantry": 32468, "\u0120Sir": 9011, "\u00e2\u0122\u0136\u00e2\u0122\u0136\u00e2\u0122\u0136\u00e2\u0122\u0136": 17803, "wi": 22084, "Connell": 31116, "\u0120shotgun": 35694, "\u0120workshop": 22586, "'(": 14249, "Behavior": 38066, "490": 38808, "\u0120Zar": 41379, "\u0120handc": 41993, "\u0120Kazakh": 46936, "/[": 48064, "combe": 49766, "\u0120dep": 1305, "inder": 6228, "\u00d0\u00b0\u00d1\u0124": 7065, "device": 10933, "\u0120puts": 12516, "\u0120Military": 20884, "\u0120am": 717, "km": 10294, "ycle": 21724, "Int": 4807, "\u0120been": 644, "Bad": 24494, "mt": 6917, "ania": 16642, "\u0120\u0120\u0120\u0120\u0120\u0120\u0120\u0120\u0120\u0120\u0120\u010a\u0120": 23893, "\u0120coherence": 25253, "\u0120blue": 4797, "\u0120ASP": 27548, "changing": 28276, "\u0120modulus": 28380, "cut": 7317, "geant": 18423, "oflu": 21158, "\u0120towel": 29861, "cia": 14265, "iji": 27520, "\u0120ore": 29900, "\u0120programs": 5659, "Must": 30519, "\u0120266": 30610, "\u0120Rac": 33005, "female": 35686, "ryn": 36618, "\u0120statute": 6645, "inguishable": 37148, "ROS": 38528, "\u0120Sarah": 15458, "Picture": 40701, "PES": 42143, "\u0120Kush": 49711, "          ": 50268, "\u0120Kenn": 12249, "\u0120channel": 5048, "\u0120Kor": 26096, "\u0120Mount": 8352, "\u0120photore": 38099, "\u0120rapidly": 9086, "LOW": 47123, "zer": 8260, "IVE": 11477, "\u0120Equations": 40242, "ellular": 7383, "\u0120therapists": 44880, "\u0120alphabet": 30156, "BUS": 45483, "ancing": 6816, "\u0120violation": 8411, "\u0120Posted": 36349, "engineering": 44602, "\u0120Which": 6758, "aaaaaaaa": 49642, "engo": 38434, "\u0120Cisco": 45292, "624": 44566, "width": 3429, "1002": 41441, "dere": 49811, "\u0120long": 1048, "shirt": 23565, "\u0120rivals": 28851, "Stan": 36447, "\u0120reject": 12009, "iatric": 9089, "xygen": 38190, "Emer": 43535, "Visible": 26998, "\u0120unhealthy": 36713, "\u0120Flight": 29726, "\u0120advocated": 36431, "\u0120FBS": 34518, "\u0120office": 3906, "drive": 27190, "\u0120greed": 37819, "herent": 7853, "Effect": 15131, "\u0132": 227, "\u00eb\u00a9": 48672, "\u0120ships": 11811, "\u00c2\u00af": 15500, "\u0120observer": 19969, "ads": 6594, "\u0120alternatives": 18075, "\u0120aden": 12067, "\u0120unaware": 25229, "amac": 33175, "quilibrium": 48494, "\u0120controvers": 9474, "\u0120February": 5080, "ote": 1584, "\u0120fo": 7954, "oglobin": 20491, "\u0120Zur": 41397, "recip": 19977, "ones": 2487, "inks": 3106, "vote": 40997, "Sounds": 41099, "\u0120installment": 41860, "\u0120constit": 3598, "\u0120deprivation": 26367, "Fair": 38645, "\u0120veterans": 22129, "\u0120invade": 42879, "\u0120back": 896, "\u01201952": 24652, "\u0120Hispanic": 28787, "Gly": 31599, "por": 1831, "\u0120Parameters": 32032, "\u0120failure": 4433, "\u0120plain": 8342, ")/(-": 5789, "\u0120Peak": 24515, "\u0120firef": 31273, "\u0120Awards": 18165, "\u0120inherit": 30686, "}}[": 31379, ">-": 34616, "othermal": 36857, "\u0120413": 37066, "\u0120daring": 38098, "\u0120asymptotically": 38311, "soluble": 42450, "grave": 45283, "Source": 7781, "stone": 10228, "ional": 1593, "\u0120Dick": 15392, "\u0120cage": 22133, "Color": 6573, "vi": 6584, "\u0120boil": 22149, "\u0120proportion": 8394, "\u0120cons": 772, "ango": 13903, "ef": 832, "\u0120motif": 14443, "\u0120limb": 18791, "SM": 6955, "\u0120stead": 8933, "\u0120presently": 21654, "\u0120celebr": 6615, "\u0120Calculate": 6762, "370": 23139, "auge": 9789, "stroke": 26000, "\u00ec\u0142": 29333, "\u0120allowance": 32301, "\u0120Fol": 28318, "\u0120neopl": 34177, "\u0120Orche": 35075, "\u0120Said": 35194, "\u00e0\u00a4\u00aa": 39695, "\u00e0\u00b8\u013c": 39789, "tes": 5298, "ivities": 16762, "\u0120perfect": 3962, "Count": 6878, "\u0120convincing": 21414, "251": 21451, "\u0120discusses": 25339, "liness": 28399, "\u0120decline": 10343, "\u0120lur": 29661, "AF": 9006, "\u0120indexes": 28308, "\u0120MVP": 39524, "Without": 20696, "\u0120minimized": 36625, "assembled": 45241, "\u00e3\u0125\u00b3\u00e3\u0125\u012a": 46357, "note": 9939, "\u0120consent": 7578, "\u0120ang": 2897, "\u0120squash": 38785, "\u0120Kingston": 47706, "\u0120microbiota": 30158, "\u0120horns": 38555, "consum": 20612, "\u0120multi": 4471, "\u0120waiting": 6179, "\u0120Leicester": 42457, "ocyst": 42774, "nest": 48050, "\u0120boarded": 50229, "\u0120scenario": 10076, "hub": 39981, "antioxidants": 46967, "ians": 2458, "\u0120Morning": 25565, "eta": 1464, "PO": 5964, "ligt": 29545, "\u0120sensit": 21750, "\u0120attic": 49254, "\u0120mycket": 50201, "}}}$.": 33471, "\u0120Teen": 41673, "\u0120multiplicative": 43904, "\u0120sqlite": 45675, "Shall": 47600, "\u0120subscriber": 30710, "ovi": 39594, "\u0120mant": 18006, "rvert": 29753, "tern": 931, "\u0120impover": 48682, "\u0120marker": 10705, "\u0120expire": 43106, "\u0120TYPE": 39024, "\u0120Lind": 12529, "MRI": 22410, "\u0120perceptions": 24789, "\u0120Renew": 50235, "\u0120league": 9728, "\u0120inspected": 36560, "Ni": 24534, "\u00c2\u00bb": 6234, "\u0120compress": 19477, "\u0120OF": 3481, "\u0120explored": 14859, "\u0120inhibits": 21425, "\u0120amateur": 27736, "\u0120homologous": 30742, "\u0120Marco": 28712, "\u0120particle": 8091, "stri": 32182, "witz": 37381, "<": 29, "\u0120panel": 5370, "\u0120curvature": 16841, "sell": 39217, "\u0120epidemiology": 42367, "fr": 925, "1006": 45535, "rz": 38852, "ography": 3756, "\u0120dab": 49265, "\u0120knit": 44474, "\u0120pero": 20056, "mega": 3937, "\u0120nuclear": 6069, "\u0120coil": 18783, "\u0120unbe": 46908, "\u0120patrons": 38412, "letal": 15449, "\u0120Request": 19107, "\u0120unlimited": 25470, "bo": 2399, "\u0120pedal": 36653, "\u010a\u010a\u0120\u0120\u0120\u0120\u0120\u0120\u0120\u0120\u0120\u0120\u0120\u0120\u0120\u0120\u0120\u0120\u0120\u0120\u0120\u0120\u0120\u0120\u0120\u0120\u0120\u0120\u0120\u0120\u0120\u0120\u0120\u0120\u0120\u0120\u0120\u0120\u0120\u0120\u0120\u0120\u0120": 48523, "\u0120Lum": 36652, "').": 8539, "\u0120Ult": 16036, "det": 5992, "\u0120succeeds": 44584, "idad": 10045, "\u0120abilities": 15277, "ulp": 31709, "\u0120ellip": 36809, "\u0120Ground": 29822, "\u0120pr": 819, "\u0120execute": 13194, "\u0120discrimination": 11081, "\u0120exhib": 4813, "\u0120contrasts": 39165, "\u0120Author": 10360, "\u0120killings": 40139, "\u0120challenging": 11132, "\u0120spans": 35742, "uspended": 30233, "Scal": 20480, "\u0120embarrassment": 36649, "\u0120prompting": 40021, "uffy": 26948, "Main": 13030, "osite": 4547, "\u0120McConnell": 41009, "\u0120mac": 5315, "\u0120variables": 4903, "Pain": 42728, "deriv": 46229, "Lau": 49698, "\u00ce\u00baB": 20688, "\u0120\u00ce\u00b2": 8361, "\u0120BET": 36855, "osities": 48250, "\u0120Sah": 32706, "confirmed": 37467, "\u0120const": 1030, "aj": 1432, "\u0120antigen": 11611, "\u0120intersections": 42320, "alore": 47180, "ockets": 15675, "Place": 23495, "\u0120mediators": 32837, "Coord": 32876, "\u0120perennial": 49714, "\u0120Golf": 32154, "\u0120spirits": 19851, "\u0120}_{": 30984, "jen": 22289, "0023": 34063, "\u0120lacking": 14999, "=\"$(": 43306, "yy": 12502, "FORE": 31966, "\u0120identifies": 22649, "ang": 606, "delim": 21694, "\u0120treasure": 21764, "\u0120nationwide": 23931, "iane": 26534, "\u00d0\u00be\u00d1\u0129": 31348, "\u0120particul": 46596, "\u0120converting": 22022, "336": 23126, "LLOW": 47689, "\u0120Davis": 11328, "\u0120Kra": 30164, "CTX": 36882, "\u0120HTML": 11685, "\u0120agonists": 36541, "\u0120Cuba": 24605, "\u0120fermion": 35530, "reat": 675, "month": 7791, "\u0120durch": 29854, "ALK": 31545, "heta": 22666, "uchar": 38130, "\u0120vivo": 8427, "\u0120keen": 19497, "onomous": 20899, "photos": 47377, "she": 6689, "\u0120Richard": 7727, "\\_[": 13380, "\u0120Portland": 20956, "AND": 5543, "invalid": 25359, "oriously": 49186, "\u0120true": 2032, "\u0120lepton": 45625, "\u0120Nu": 24903, "\u0120armies": 29894, "UTH": 19366, "\u0120revis": 27694, "(\\[": 7748, "OUP": 21359, "tons": 24787, "\u0120331": 36438, "\u0120nun": 28616, "\u0120gave": 3534, "\u0120Kelley": 49813, "\u0120Protection": 17504, "jan": 17551, "\u0120willingness": 24741, "\u0120bowel": 25211, "\u0120Cou": 28424, "oshop": 34195, "pent": 21601, "\u0120School": 4726, "istent": 6688, "\u0120remodeling": 27975, "\u0120Witt": 34534, "icense": 3278, "\u0120decreased": 6137, "capt": 17140, "\u0120overse": 18182, "\u0120herb": 23008, "vergence": 41801, "Prem": 43217, "\u0120Prec": 28430, "al": 267, "\u00c3\u00a3": 3312, "\u0120pend": 32752, "\u0120Detroit": 17372, "\u0120After": 2732, "\u0120pollution": 17432, "idades": 25252, "\u0120mans": 30433, "Modern": 33824, "mathop": 20999, "\u0120prevailing": 27274, "\u0120esper": 35656, "oly": 10270, "\u00c3\u00b6l": 38095, "ificates": 23994, "Affirmed": 49504, "\u00e2\u0124": 46979, "\u0120taken": 2668, "\u0120Wisconsin": 15558, "\u0120Europa": 19930, "magic": 40397, "versal": 34451, "\u0120Ban": 16456, "RR": 14253, "\u0120mall": 28974, "\u00d9\u012a\u00d8\u00b1": 39727, "\u0120uranium": 41031, "\u0120Offer": 47856, "alty": 9724, "\u0120Polit": 12766, "mathbb": 1991, "\u0120glob": 13371, "\u0120joke": 16391, "icle": 2024, "Div": 15187, "\u00e4\u00b8\u0138": 42848, "\u0120only": 760, "\u0120aureus": 26494, "Olymp": 33264, "measure": 30238, "During": 10457, "\u0120governs": 42086, "\u0120entire": 2862, "\u00e3\u0123\u013b": 7149, "\u0120ko": 20846, "\u0120card": 3120, "\u0120District": 4412, "\u0120voice": 4318, "345": 16767, "uity": 10533, "\u0120transl": 5600, "\u0120({\\": 20886, "\u0120comor": 24075, "\u0120ingredient": 24405, "\u0120tb": 34244, "supervised": 35421, "\u0120adaptations": 41655, "\u0120Lyon": 42268, "\u0120stipulation": 41626, "\u0120BT": 23755, "zzi": 29935, "ghan": 12608, "Among": 19799, "\u0120slug": 44031, "istani": 30474, "Tick": 44249, "\u0120wand": 18021, "\u00d0\u00bb\u00d0\u00b5\u00d0\u00bc": 46120, "\u0120~*": 24125, "Latin": 46284, "search": 8716, "inx": 27475, "\u0120Final": 16299, "\u0120excused": 48504, "\u0120descend": 36672, "\u0120gond": 48202, "\u0120ster": 10335, "\u0120policeman": 40677, "\u0120egy": 38179, "\u0120nations": 12390, "\u0120resur": 25189, "\u0120available": 2130, "\u0120special": 2714, "\u0120spiders": 48037, "\u0120standing": 6306, "\u0120being": 1146, "\u0120brethren": 49829, "\u0120incons": 12592, "\u0120citiz": 6211, "}^{(": 8814, "\u0120tiger": 39121, "\u0120auth": 24896, "vol": 8625, "Sun": 14594, "\u0120high": 1029, "\u0120Syscall": 27045, "\u0120Applied": 29236, "\u0120vested": 37478, "Hug": 46941, "\u0120Beauty": 36974, "\u0120publicly": 13644, "\u0120Islands": 18708, "webkit": 20726, "craft": 12517, "\u0120overlooked": 28849, "\u0120overview": 18389, "\u0120ransom": 46091, "509": 17013, "310": 19569, "\u00e7\u013c": 5138, "\u0120\u0120\u0120\u0120\u0120\u0120\u0120\u0120\u0120\u0120\u0120\u0120\u0120\u0120\u0120\u0120\u0120\u0120\u0120\u0120\u0120\u0120\u0120\u0120\u0120\u0120\u0120\u0120\u0120\u0120\u0120\u0120\u0120\u0120\u0120\u0120\u0120\u0120\u0120\u0120\u0120\u0120\u0120\u0120\u0120\u0120\u0120\u0120\u0120\u0120\u0120\u0120\u0120\u0120\u0120\u0120\u0120\u0120\u0120\u0120\u0120\u0120\u0120\u0120\u0120\u0120\u0120\u0120\u0120\u0120\u0120\u0120\u0120\u0120\u0120\u0120\u0120\u0120\u0120\u0120\u0120\u0120\u0120\u0120\u0120\u0120\u0120\u0120\u0120\u0120\u0120\u0120\u0120\u0120\u0120\u0120\u0120\u0120\u0120\u0120\u0120\u0120\u0120\u0120\u0120\u0120\u0120\u0120\u0120\u0120\u0120\u0120\u0120\u0120\u0120\u0120\u0120\u0120\u0120\u0120\u0120\u0120\u0120\u0120\u0120\u0120\u0120\u0120\u0120\u0120\u0120\u0120\u0120\u0120\u0120\u0120\u0120\u0120\u0120\u0120\u0120\u0120\u0120\u0120\u0120\u0120\u0120\u0120\u0120\u0120\u0120\u0120\u0120\u0120\u0120\u0120\u0120\u0120\u0120\u0120\u0120\u0120\u0120\u0120\u0120\u0120\u0120\u0120\u0120\u0120\u0120\u0120\u0120\u0120\u0120\u0120\u0120\u0120\u0120\u0120\u0120\u0120\u0120\u0120\u0120\u0120\u0120\u0120\u0120\u0120\u0120\u0120\u0120\u0120\u0120\u0120\u0120\u0120\u0120\u0120\u0120\u0120\u0120\u0120\u0120\u0120\u0120\u0120\u0120\u0120\u0120\u0120\u0120\u0120\u0120\u0120\u0120\u0120\u0120\u0120\u0120\u0120\u0120\u0120\u0120\u0120\u0120\u0120\u0120\u0120\u0120\u0120\u0120\u0120\u0120\u0120\u0120\u0120\u0120\u0120\u0120\u0120\u0120\u0120\u0120\u0120\u0120\u0120\u0120\u0120\u0120\u0120\u0120\u0120\u0120\u0120": 7421, "\u0120patents": 21410, "\u0120initialization": 31850, "\u0120arrow": 14150, "rst": 37520, "\u0120Louisville": 39492, "gtk": 41200, "\u00e2\u013a\u0127": 37649, "webpack": 48437, "ds": 1397, "\u00c2\u00bf": 12402, "\u0120Slov": 37603, "rost": 18419, "\u0120epidermal": 35371, "bp": 12303, "Bs": 13858, "\u0120((-": 12374, "Att": 6601, "\u0120civilians": 23332, "equation": 29813, "\u0120orphan": 33260, "\u0120Text": 10318, "\u0120retrieve": 19553, "\u0120Ja": 21572, "}}.$$": 32964, "\u0120Houston": 14296, "athing": 31816, "Starting": 33768, "\u0120Witch": 45165, "\u0120summing": 49947, "\u0120revelations": 43034, "nant": 45886, "\u0120ter": 4109, "\u0120abelian": 31106, "TING": 40932, "Wis": 48115, "\u0120template": 7646, "\u0120beyond": 4457, "\u0120Eastern": 11867, "\u0120Steven": 19436, "882": 39027, "\u0120commonplace": 47817, "\u0120Vietnamese": 30907, "ymp": 43768, "\u0120remainder": 6414, "\u0120protects": 24696, "\u0120\u00d0\u00b4\u00d0\u00b0": 23204, "\u0120\u00c3\u013c": 49035, "\u0120LAT": 35004, "stitutional": 15016, "\u0120conservative": 11518, "\u0120fug": 33067, "apple": 19934, "\u0120Wait": 21050, "\u0120words": 3000, "forcing": 22958, "\u0120ensure": 5416, "\u0120accessories": 28234, "everything": 35773, "\u0120NV": 24671, "\u0120}": 748, "\u0120randomly": 12421, "\u0120pores": 36331, "ighter": 8532, "quel": 38582, "Picker": 35561, "ogenetic": 15716, "ando": 6575, "lag": 14293, "_[": 14767, "\u0120456": 38094, "\u0120diplom": 27242, "\u0120chond": 28877, "ras": 6230, "\u0120jed": 23530, "\u0120Rho": 38776, "\u0120skins": 39274, "\u0120testimony": 6206, "ophagus": 40345, "umble": 19493, "\u0120fueled": 45511, "\u0120mounts": 47001, "\u00e1\u0122\u00b8": 48969, "\u0120enzym": 6085, "\u0120Kai": 41903, "\u0120acting": 8534, "\u0120Next": 10209, "ospor": 29768, "873": 43847, "\u0120supplier": 29622, "quare": 8974, "Sound": 31189, "\u00ed\u0137\u013e": 39742, "FO": 8768, "\u0120discriminatory": 30602, "\u0120heed": 43119, "\u00e8\u0130": 44966, "\u0120flex": 6520, "pool": 10730, "uitar": 36567, "\u0120Approach": 43584, "//": 605, "\u0120condu": 24911, "circuit": 39264, "\u0120GC": 15679, "\u0120radiological": 46513, "peace": 38385, "\u0120Applying": 33062, "\u0120sn": 3802, "Read": 5703, "\u0120refugees": 19382, "\u0120>=": 10122, "\u0120gifts": 17714, "\u0120mit": 4784, "Excuse": 30395, "\u0120ug": 15649, "CL": 3207, "unlock": 25919, "~/": 21785, "Mag": 29033, "\u0120suburb": 38523, "\u0120ration": 42904, "\u0120JNK": 44454, "\u0120Managing": 47651, "\u0120passing": 8136, "\u0120teachings": 28480, "(\"\\": 30094, "\u0120Hawk": 44390, "\u0120tells": 8599, "Availability": 48747, "Blog": 48943, "\u0120aesthetic": 24624, "\u0120imagine": 8564, "\u0120160": 12036, "\u0120relaxed": 19595, "\u0120metropolitan": 37814, "\u00c2\u0141": 24625, "\u0120moving": 4886, "\u0120appellant": 7048, "\u0120century": 5331, "RON": 27182, "\u0120Written": 36745, "\u0120carrot": 47215, "\u0120strict": 7654, "\u0120quietly": 16092, "\u00e8\u00bd": 27258, "\u0120pilgr": 31514, "Cit": 42670, "\u0120swim": 10831, "Educ": 25735, "\u0120granul": 27439, "\u0120stable": 6474, "ans": 507, "geq": 5090, "\u0120me": 479, "utils": 18833, "dst": 19335, "steps": 20528, "\u0120irradiation": 21057, "\u0120Mull": 29655, "Ele": 30377, "Float": 21125, "\u0120impacted": 27857, "\u00e8\u012b": 32417, "Trans": 6189, "\u0125\u00bd": 15911, "\u0120doctrine": 12791, "\u0120additive": 21842, "\u0120reciprocal": 33561, "bi": 4193, "\u0120Google": 5559, "cf": 7836, "\u0120mm": 5823, "\u0120aims": 13698, "\u0120281": 33790, "\u0120night": 2360, "\u0120Plan": 9224, "\u0120diabetic": 17435, "Import": 19206, "\u0120malaria": 19643, "\u0120Open": 7489, "\u0120charitable": 34251, "communication": 35437, "\u0120Jets": 35849, "amphetamine": 35877, "inery": 16029, "\u0120parties": 4676, "\u0120sooner": 19473, "odegrad": 42059, "declare": 42754, "receptor": 44501, "\u0120districts": 16475, "\u0120frequencies": 11383, "\u0120dig": 2836, "\u00e3\u0124\u0126": 21918, "ailable": 10407, "\u0120splic": 25940, "\u0120refugee": 29302, "\u00e6\u012a\u0138": 37542, "\u0120Graduate": 37770, "\u0120slut": 48196, "\u00e2\u0122\u0125\u00e2\u0122\u0125\u00e2\u0122\u0125": 48738, "\u0120Jagu": 46174, "Cover": 31996, ";;;;": 32657, "rende": 40827, "\u0120punto": 43672, "xym": 37543, "rr": 2676, "Gra": 49886, "\u0120orthon": 49674, "claiming": 43759, "\u0120center": 4055, "Tensor": 39596, "\u0120Beijing": 18496, "urally": 8572, "Che": 6892, "\u0120Colorado": 13338, "\u0120splits": 36509, "\u0120\u00d0\u00bf\u00d1\u0122\u00d0\u00b8": 36816, "\u0120Genetic": 37003, "algebras": 38840, "\u0120Dreams": 48774, "Ly": 27524, "ooting": 22933, "phot": 22468, "\u0120Ireland": 11011, "269": 23292, "ylic": 31252, "lick": 4655, "Users": 17104, "\u0120Organization": 17273, "\u0120submit": 11929, "\u0120advertise": 46459, "Serv": 13720, "\u00d8\u00a7\u00d9\u0128": 18906, "\u0120nouveau": 46700, "\u0120achie": 3143, "\u00c3\u0143m": 30856, "anden": 37925, "atform": 4012, "\u0120lifelong": 36536, "ASM": 45352, "\u0120earthquakes": 48833, "\u0120Tech": 18447, "\u0120verge": 39931, "\u0120v\u00c3\u00a9": 37973, "\u00e5\u00ae\u012e": 47961, "\u0120especial": 38787, "\u0120Biomed": 48465, "\u0120Blake": 27773, "partial": 3214, ")>": 21966, "\u0120phyl": 15583, "rencies": 24034, "TAIN": 41603, "260": 19319, "\u0120Midwest": 39030, "Transform": 22904, "ipment": 5805, "\u0120mph": 36772, "\u010a\u010a\u0109\u0109\u0109\u0109": 39900, "\u0120researched": 41548, "adjust": 18570, "\u0120Voy": 42724, "axon": 49306, "\u0120Disorder": 50045, "\u0120NM": 19193, "\u0120Toyota": 32714, "\u0120cytoskeleton": 45805, "4": 21, "atal": 3165, "\u0120microtubule": 48633, "\u0120Paris": 7785, "assay": 33263, "\u0120seriously": 10369, "\u0120nanoparticles": 18178, "\u00e0\u00a5\u0122": 22224, "\u0120implement": 3359, "Error": 4756, "odot": 16351, "\u0120landmarks": 39719, "\u0120group": 1387, "\u0120cultures": 11048, "\u0120disturb": 11639, "\u0120Only": 7214, "\u0120house": 2419, "ocolate": 12049, "{$\\": 24943, "\u0120permutation": 29391, "\u0120kidnapping": 39721, "springframework": 19377, "\u0120annotated": 28267, "\u0120connective": 41292, "\u0120metal": 5148, "icrosoft": 6599, "\u0120prone": 21291, "\u0120incompatible": 32555, "\u0120redes": 30924, "\u0120Are": 6272, "\u0120blotting": 27210, "\u0120undermine": 29614, "\u00d8\u00b9": 13793, "\u0120regimes": 27005, "\u00d7\u0142": 29052, "throughput": 41416, "\u0120py": 7239, "\u0120Liam": 44123, "ANK": 19871, "unte": 8808, "\u0120Online": 15650, "\u0120modulator": 46097, "\u00ce\u00ba\u00ce\u00b1": 48614, "2007": 8602, "combin": 39902, "\u0120transcription": 9464, "\u0120contest": 12417, "\u0120;;": 28513, "\u00e7\u00b1": 26844, "\u0120Olson": 49849, "\u0120Gand": 28257, "imide": 42279, "Video": 17213, "\u0120TEXT": 46434, "\u0120Elsa": 48076, "pntd": 23125, "\u0120ny": 31804, "Pear": 43361, "maid": 50147, "\u0120typing": 23629, "\u0120Program": 8246, "patients": 34732, "\u0120behaved": 44944, "\u0120millilit": 36670, "\u0120resort": 17942, "\u0120wholly": 21105, "\u0120vacation": 18125, "\u0120privile": 10385, "\u0120cysts": 41578, "\u0120440": 32210, "Hg": 20519, "ocur": 20020, "\u0120tale": 17005, "\u0120laying": 23157, "\u0120assisting": 34735, "\u0120Christie": 36741, "\u0120digested": 38780, "\u01201896": 43843, "\u0120ejected": 47378, "\u0120AES": 47423, "shown": 40831, "\u0120Venus": 36210, "\u0120Sk": 8229, "\u0120hash": 13283, "ior": 1528, "\u0120postal": 41448, "binding": 13018, "\u010d": 190, "operatively": 29670, "\u0120housed": 24981, "\u0120recession": 29276, "\u0120summar": 10405, "god": 30023, "popular": 32667, "Ol": 33319, "\u0120synchronized": 30492, "\u0120case": 1083, "stic": 11224, "\u0120downstream": 15450, "\u0120catalyst": 16803, "\u0120119": 12035, "eled": 17371, "sy": 19089, "\u0120POP": 42954, "oscal": 44709, "\u0120conduct": 2589, "?_": 19712, "\u0120Tol": 23860, "Static": 26904, "Education": 32868, "\u0120plas": 26507, "abulary": 25718, "\u0120ages": 11880, "\u0120ful": 3744, "\u0120\u00d0\u00be\u00d1\u0124": 15095, "\u0120479": 41372, "\u0120DATE": 46611, "\u0120incorporates": 31167, "\u0120exhibition": 20849, "\u0120redshift": 21211, "\u0120Ast": 15123, "\u0120phil": 30005, "bels": 45786, "\u0120authorized": 14047, "\u00e3\u0122\u012f": 13752, "Flu": 43493, "\u0120ranked": 17045, "rud": 42111, "\u0120nach": 23424, "\u0120raises": 16540, "\u0120Bil": 34445, "\u0120Devil": 32974, "\u0120farewell": 42076, "\u0120roz": 33971, "\u0120delta": 18687, "FIX": 27225, "ignore": 30029, "\u0120109": 12652, "\u0120apex": 33155, "\u0120bullying": 38738, "\u0120ib": 18890, "\u0120Rd": 21775, "ocols": 12862, "\u0120spectrometer": 36254, "\u0120dod": 33413, "~-": 17977, "\u0120wishes": 16995, "\u0120Boyd": 36297, "\u0120BytePtrFromString": 42010, "oliberal": 46220, "hat": 700, "\u00c3\u00bcr": 8824, "Hook": 40568, "\u0120association": 5864, "medsc": 37087, "akan": 40946, "\u0120SUR": 45022, "\u0120responsibility": 8294, "\u0120obt": 1823, "\u0120\u00c3\u00a8": 12187, "\u0120medal": 19358, "\u0120polyclonal": 38513, "\u0120epidemiological": 31634, "\u0120requests": 9762, "enezuel": 20656, "\u0120grated": 41824, "\u0120bathrooms": 44204, "\u0120Uk": 11915, "ynthetic": 23744, "\u0120Family": 12079, "\u0120oscillation": 28088, "\u0120wrestling": 28508, "\u00e0": 156, "iko": 20592, "\u00e8\u00b2": 32363, "\u0120RPG": 38068, "ough": 602, "Greek": 45924, "\u0120inaug": 23942, "ontally": 34106, "\u0120sug": 25822, "connect": 11025, "379": 24880, "Department": 25508, "\u0120Opt": 12551, "\u0120Eval": 20928, "itures": 30153, "\u0120[_": 42989, "\u0120pregnant": 12821, "\u00e0\u00a4\u00a8": 23068, "\u0120$[": 9793, "\u0120Rag": 45968, "MH": 37691, "ulpt": 16884, "wright": 28158, "\u0120mai": 24843, "\u0120Abbas": 47979, "Sport": 47477, "ged": 2400, "ado": 3377, "\u0120dro": 3926, "ressive": 8122, "Still": 16812, "\u0120proton": 19025, "\u0120Fal": 20055, "\u0120Jud": 4268, "\u0120oxide": 11893, "etts": 12513, "ergic": 12598, "\u0120declaration": 16204, "gated": 27189, "\u0120tempo": 28250, "uristic": 32838, "\u0120library": 6335, "\u0120voyage": 31192, "\u0120sauce": 12364, "\u0120While": 3900, "0003": 14602, "Filter": 9824, "\u0120ovarian": 18984, "Funding": 29610, "LIN": 29193, "\u0120announcements": 43400, "\u0120axe": 44910, "TOF": 46873, "aphragm": 32556, "lings": 13713, "\u0120Mann": 17672, "Not": 3650, "enger": 9562, "access": 10773, "\u0120Tw": 4867, "deal": 25115, "outing": 20309, "\u0120radius": 9941, "\u0120station": 4660, "\u00d9\u0125": 12346, "\u0120practicing": 25815, "\u0120characterized": 7943, "\u0120211": 24978, "ursuant": 27956, "\u0120conn": 30606, "ungs": 25190, "\u0120Celebr": 43896, "SO": 8683, "URE": 10860, "\u0120cylindrical": 23990, "leftrightarrow": 38409, "\u0120escal": 20092, "vant": 3179, "bersome": 40494, "\u0120trav": 11074, "\u0120sen": 5303, "\u0120mystery": 16909, "\u00e3\u0123\u00ab\u00e3\u0124\u012a": 39593, "Basic": 23088, "Array": 6542, "Intr": 43598, "TP": 12261, "arrhea": 28487, "iquity": 28780, "oun": 415, "ilde": 6227, "\u0120vacuum": 12124, "\u0120Ry": 19571, "\u0120LIM": 20166, "\u0120gru": 26970, "\u0120Forces": 24495, "\u0120Arctic": 27693, "\u0120Johnny": 22810, "\u0120repr": 30667, "Times": 27555, "Supporting": 33327, "ubble": 35308, "cci\u00c3\u00b3n": 29978, "\u0120Triple": 36216, "eng": 1205, "hearing": 31629, "\u0120these": 841, "astics": 26245, "\u0120activating": 27149, "(__": 18583, "\u0120305": 26402, "\u0120External": 37320, "ogon": 38931, "jee": 39101, "\u0120pyramid": 39694, "\u0120Rest": 11726, "\u0120MAL": 40273, "SEE": 40838, "872": 41493, "rot": 8601, "rep": 4762, "[]": 5456, "oler": 15740, "\u00ec\u00a7": 27750, "}[\\": 28231, "\u0120sack": 34707, "\u0120Beau": 42224, "\u0120sow": 39666, "enthal": 45541, "\u0120tbl": 47838, "ONA": 48133, ").](": 17981, "\u0120participants": 5014, "encephal": 41667, "aside": 45529, "smen": 49357, "gu": 4297, "LAS": 40075, "wort": 48782, "\u0120contralateral": 41782, "\u00e5\u012c\u00a1": 45008, "requires": 36042, "ug": 814, "YRIGHT": 26051, "ios": 3783, "\u0120Sy": 5619, "much": 25914, "\u0120tous": 29671, "password": 15760, "loaded": 19052, "\u0120specimen": 20204, "\u0120cation": 27201, "rue": 32340, "\u0120logo": 18479, "\u0120range": 2491, ">();": 18257, "\u0120manifold": 16751, "\u0120NHL": 22037, "\u0120exterior": 19633, "\u0120interactions": 6355, "kill": 24212, "\u0120injections": 25602, "\u0120citizenship": 24588, "\u0120Enjoy": 30706, "\u0120Welfare": 34142, "aggreg": 46601, "\u0120Tao": 48916, "\u0120endings": 47834, "\u0120remem": 10409, "\u0120Hess": 37526, "vinyl": 37530, "\u0120heart": 2798, "\u0120Flo": 46311, "\u0120STR": 18443, "xffffffff": 46213, "\u00c2\u00be": 12136, "\u0120acceptable": 12207, "adelphia": 13254, "\u0120boundaries": 13674, "\u0120suspension": 13394, "\u0120digits": 24321, "\u0120disproportion": 30839, "ementia": 19914, "CRE": 15718, "\u0120Fourteenth": 39056, "\u00e6\u0126\u0141": 38011, "\u0120Ted": 17446, "inction": 9977, "\u0120nov": 22458, "\u0120succession": 27262, "\u0120468": 41029, "\u0120FW": 44318, "\u0120lt": 46007, "pping": 2784, "tan": 12505, "\u0120collection": 4849, "hero": 19255, "\u0120apert": 19587, "0100": 28949, "\u00e0\u00a4\u00af": 29950, "\u0120Interests": 34665, "\u010a\u0120\u0120\u0120\u0120\u0120\u0120\u0120\u0120\u0120\u0120\u0120\u0120\u0120\u0120\u0120": 1015, "\u0120reply": 12252, "\u0120packed": 14998, "\u0120pyro": 44993, "\u0120Bangkok": 48771, "\u0120slowly": 7808, "akin": 28709, "\u0120cabbage": 42688, "\u0120finder": 47135, "\u0120\u00d0\u00ba\u00d0\u00b0\u00d0\u00ba": 25043, "anner": 9582, "\u0120Old": 8937, "\u0120bouncing": 46754, "\u0120mass": 2280, "\u0120largest": 6253, "Bet": 16339, "\u0120tribute": 27458, "\u0120physical": 3520, "\u0120packaging": 18420, "As": 1909, "\u0120extrav": 32792, "\u0120Publishing": 24837, "uffs": 25428, "\u0120l\u00c3\u0142": 27824, "\u0120hex": 15442, "969": 47763, "\u0120flor": 49716, "\u0120commut": 43416, "unicip": 9760, "--------------": 10521, "pub": 16712, "\u0120Ald": 19811, "ant": 386, "\u0120Travel": 20816, "hire": 11094, "irmingham": 24971, "\u010a\u0120\u0120\u0120\u0120\u0120\u0120\u0120\u0120\u0120\u0120\u0120\u0120\u0120\u0120\u0120\u0120\u0120\u0120\u0120\u0120\u0120\u0120\u0120\u0120\u0120\u0120\u0120\u0120\u0120\u0120\u0120\u0120\u0120\u0120\u0120\u0120\u0120\u0120\u0120\u0120\u0120\u0120\u0120\u0120\u0120\u0120\u0120\u0120\u0120\u0120\u0120\u0120\u0120\u0120\u0120\u0120\u0120\u0120\u0120\u0120\u0120\u0120\u0120\u0120\u0120\u0120\u0120\u0120\u0120\u0120\u0120\u0120\u0120\u0120\u0120\u0120\u0120\u0120\u0120\u0120\u0120\u0120\u0120\u0120\u0120\u0120\u0120\u0120\u0120\u0120\u0120\u0120\u0120\u0120\u0120\u0120\u0120\u0120\u0120\u0120\u0120\u0120\u0120\u0120\u0120\u0120\u0120\u0120\u0120\u0120\u0120\u0120\u0120\u0120\u0120\u0120\u0120\u0120\u0120\u0120\u0120\u0120\u0120\u0120\u0120\u0120\u0120\u0120": 25835, "optic": 37016, "inen": 14899, "idency": 20927, "\u0120logs": 20131, "quito": 20675, "\u0120Reyn": 24138, "\u0120wing": 12916, "\u0120synerg": 26455, "\u0120Gene": 15763, "Chart": 27994, "uchi": 26550, "\u0120alkyl": 17519, "\u0120ery": 17900, "\u0120confusing": 21643, "\u0120casc": 18779, "\u0120medieval": 24196, "enes": 24453, "FUNC": 32652, "\u0120Interface": 33106, "links": 23053, "restrial": 28646, "ondo": 23863, "\u0120Fischer": 37454, "indow": 2174, "\u0120eg": 24088, "\u0120trophy": 39259, "\u0120ops": 38322, "\u0120multiplying": 39763, "enko": 41971, "\u0120pathologic": 43225, "\u0120jaws": 43567, "\u0120Eld": 22921, "Documents": 43080, "\u0120dv": 43857, "Sol": 30428, "\u0120multiplic": 30840, "\u0120enhance": 7278, "\u0120activator": 35196, "\u0120Gir": 35480, "\u0120subtract": 43444, "\u0120Borough": 45663, "\u0120Lots": 40381, "\u0120simulated": 15524, "Newton": 44557, "PHP": 26631, "Lind": 45029, "\u0120Russell": 17410, "\u0120{\"": 17579, "\u0120Rapids": 45907, "\u0120markings": 46547, "\u0120Fib": 34125, "truth": 33024, "\u0120constructing": 26736, "writ": 8510, "\u0120currencies": 39105, "\u0120diagnoses": 28978, "\u0120Randolph": 44198, "\u0120lien": 23480, "\u0120pretreatment": 33555, "\u0120t": 246, "\u0120Mang": 41540, "eking": 22230, "Del": 13569, "ETH": 12775, "brain": 21590, "EMA": 44983, "\u0120Surgical": 42819, "\u0120\u00e0\u00a4": 6280, "\u0120connected": 4802, "CREATE": 25875, "\u0120GPs": 48564, "pref": 11499, "\u0120morphological": 21418, "\u0120cir": 5947, "_{|": 42643, "\u0120Frame": 17780, "\u0120retrieving": 48484, "ATT": 20905, "\u0120se": 396, "dies": 37229, "\u0120elections": 12337, "ujah": 48120, "\u0120limestone": 48475, "\u0120135": 13620, "\u0120un": 440, "lt": 5792, "\u0120Dest": 20593, "\u00e2\u0122\u013f": 668, "\u0120physicians": 14975, "264": 17984, "\u0120Beat": 18666, "reach": 21943, "64": 1540, "\u0120Tyler": 26953, "\u0120preventive": 31382, "\u0120unbelie": 31570, "Working": 32197, "\u0120submarine": 35898, "\u0120rivers": 21646, "Gi": 30206, "\u0120${{": 35953, "FIG": 8209, "\u0120Quantitative": 36686, "\u0120governing": 13200, "CUSS": 27527, "\u0120resides": 31951, "Geometry": 37130, "\u0120GM": 15509, "\"}](#": 39083, "\u0120Eb": 26100, "identifier": 31668, "Anna": 40805, "Jer": 42355, "\u0120taxpayers": 27551, "\u0120Fry": 38553, "\u0120abandonment": 43289, "_,": 7481, "\u00c3\u00b1o": 21000, "\u0120According": 4794, "\u0120transforming": 27197, "kubernetes": 45077, "dictionary": 46717, "atever": 4844, "\u0120Abel": 49919, "\u0120HIM": 49526, "Height": 13881, "\u0120go": 564, "\u0120Premier": 19425, "\u0120Independence": 32237, "\u00e6\u00b3": 14670, "ration": 1589, "\u0120153": 21579, "\u0120feeding": 12422, "\u0120complex": 2570, "\u0120explicit": 6843, "Offset": 13736, "---------------------": 22873, "\u0120\\<": 4398, "\u0120exclus": 46853, "\u0120distraction": 34169, "\u0120bag": 7351, "\u0120stellar": 13671, "Regardless": 47271, "ayed": 19416, "\u0120dub": 19155, "vised": 13337, "\u0120viewing": 14657, "\u0120intersect": 23965, "\u0120workshops": 29561, "ady": 5102, "353": 29137, "\u0120Pennsylvania": 11637, "\u0120horn": 17081, "344": 22543, "\u0120imposs": 37593, "\u0120malicious": 24764, "ACK": 8100, "\u0120cares": 24505, "\u0120follow": 956, "Until": 24753, "gi": 7311, "\u0120designs": 11809, "\u0120attack": 2983, "ATIONS": 32663, "fts": 34010, "\u0120reported": 2361, "\u0120mathematical": 15965, "\u0120Institute": 6516, "\u0120Gent": 25870, "\u0120Eisen": 32133, "\u0120quot": 12686, "otten": 7382, "\u0120Jill": 36253, "\u0120wrote": 4159, "ynamic": 12328, "\u0120railroad": 23859, "\u0120/**<": 37944, "\u0120478": 42035, "\u0120WH": 7245, "\u0120Select": 16551, "\u0120pervasive": 42551, "\u0120OV": 42978, "\u0120characterizes": 45589, "\u0120lawful": 29889, "\u0120leukocytes": 42521, "\u0120604": 46771, "*****": 46928, "\u0120hog": 47891, "abol": 22386, "\u0120Ham": 5516, "\u0120Loren": 31529, "yml": 46415, "\u0120gren": 35596, "/(": 5624, "completely": 43665, "commands": 44291, "pv": 45270, "\u0120mortgages": 45371, "\u0120addicted": 46512, "yne": 48783, "\u0120mint": 32995, "oval": 19249, "\u0120\u00d1\u0127": 27968, "\u0120conv": 2410, "\u0120proxy": 17335, "\u0120reads": 9563, "?)": 14677, "manage": 48200, "\u0120Defense": 14971, "\u0120Priv": 19178, "\u0120total": 2264, "\u0120rem": 867, "\u0120Val": 4009, "ih": 6356, "\u0120wanted": 3078, "\u0120Berg": 19869, "arrow": 2501, "\u0120drink": 5484, "\u0120nonlinear": 14561, "offee": 23520, "\u0120unjust": 26694, "\u0120catalysts": 32208, "\u0120incarcer": 25793, "Americans": 34436, "\u0120heterozygous": 37754, "spectrum": 39862, "\u0120modem": 42286, "\u0120height": 4898, "ICU": 43007, "\u0120expertise": 15040, "\u0120overlaps": 47685, "agnetic": 9967, "\u0120halfway": 25854, "\u0120Sh": 1608, "\u00d7\u00a9": 26344, "velle": 45716, "\u0120Nas": 30672, "shake": 35350, "stood": 6545, "\u0120Mul": 26251, "\u0120Character": 18633, "\u0120shut": 6294, "\u0120narrower": 39937, "pH": 24867, "!!": 4672, "\u0120friendship": 19429, "antics": 28601, "\u0120Plot": 40185, "\u0120Matthews": 34313, "\u0120assignments": 23768, "\u0120Samsung": 23061, "ifference": 17693, "\u0120Augustus": 48088, "_->": 31547, "HEP": 33337, "Buf": 28829, "\u0120Interview": 31466, "\u0120WD": 40789, "110": 7749, "\u0120unemployment": 20549, "South": 17967, "\u0120careers": 25829, "\u0120pa": 1349, "cone": 37184, "\u0120uprising": 47930, "\u0120demonstr": 2837, "\u0120older": 5662, "ALTH": 38112, "\u0120actively": 15257, "\u0120bio": 9015, "\u0120militants": 36917, "\u0120Kitt": 34738, "\u0120cold": 5412, "\u0120competency": 43346, "\u00c3\u00ba": 6187, "ollowing": 8165, "\u0120grams": 23891, "\u0120tan": 23136, "\u0120outcome": 6454, "\u0120cleans": 30671, "\u0120biased": 23539, "eas": 19010, "\u0120silk": 23048, "\u0120Gates": 27982, "\u0120casino": 25961, "\u0120reconstruction": 14433, "\u0120Income": 33224, "\u0120mega": 41354, "roads": 29488, "\u0120Pand": 29347, "993": 35410, "\u0120betrayal": 46337, "\u0120pornography": 37314, "GF": 4161, "716": 48379, "\u0120lender": 39403, "\u0120hops": 47010, "\u0120corre": 2643, "np": 18650, "\u0120466": 34536, "\u0120Windsor": 42835, "opathology": 36691, "\u0120relax": 7921, "endant": 5483, "\u0120antigens": 22240, "Criteria": 49489, "\u0120ESPN": 27478, "Sam": 17232, "\u0120pore": 25496, "\u0120McN": 32433, "\u0120conflicting": 24648, "\u0120Random": 20221, "Structure": 34359, "\u0120anything": 2712, "\u00c3\u00a6r": 37823, "\u0120investigations": 14006, "\u0120neg": 2297, "\u00e3\u0123\u00be\u00e3\u0123\u013d\u00e3\u0124\u0135": 46212, "\u0120questionnaires": 28687, "Te": 7573, "\u0120plurality": 11234, "776": 32332, "092": 46838, "ht": 384, "density": 20425, "awks": 44685, "ynote": 50207, "osed": 1700, "AIN": 23098, "\u00d0\u00bd\u00d0\u00be": 8355, "\u0120upheld": 30620, "\u0120school": 2143, "\u0120pir": 19188, "Nav": 14749, "\u0120BMP": 37985, "\u0120resign": 17928, "OU": 2185, "\u0120coping": 30963, "erred": 13004, "obby": 18846, "done": 17506, "\u0120Dictionary": 26372, "escence": 34201, "hb": 38057, "andez": 24673, "\u0120architects": 38446, "\u0120473": 38961, "\u0120Jenny": 36097, "ocar": 27713, "\u0120academy": 35893, "\u00e7\u013e\u0141": 48561, "Um": 26186, "\u0120escap": 12870, "ritic": 17425, "ithmic": 29229, "worm": 36141, "\u0120fabric": 8067, "format": 8124, "\u0120node": 4666, "quant": 17149, "iative": 18168, "\u0120closing": 11196, "\u0120relatively": 4942, "\u0120password": 9868, "\u0120prospect": 11091, "\u0120apples": 28580, "Worker": 35370, "\u0120spots": 13977, "\u0120Related": 15073, "\u0120Obviously": 22469, "OLOG": 41232, "Hidden": 37828, "\u0120#": 1852, "\u0120college": 6831, "\u0120formerly": 20975, "GROUP": 30220, "^{\\": 1743, "\u0120Books": 16103, "\u0120Container": 40684, "\u0120established": 4232, "\u0120laughs": 33350, "middle": 16389, "\u0120trou": 10524, "iture": 10233, "Bus": 26031, "}}^\\": 28073, "\u0120nad": 33078, "\u0120Test": 6004, "\u0120Hitler": 18816, "\u0120flame": 21253, "\u0120Alexander": 13651, "\u0120roses": 38910, "\u0120privat": 35641, "\u0120DLL": 40343, "contin": 8190, "\u0120anniversary": 19054, "\u0120capturing": 26475, "Fly": 43104, "\u00d1\u0123\u00d1\u0131": 12587, "\u0120Eating": 46285, "\u0120TRUE": 24420, "\u0120tee": 44722, "uties": 47407, "wise": 3020, "\u0120Newcastle": 35459, "\u0120tho": 37152, "\u0120phosphatidyl": 48093, "\u0120Whatever": 21836, "\u0120proxim": 16578, "\u0120ENG": 47000, "\u0120weakly": 22112, "girl": 23660, "\u0120Method": 8378, "BE": 8998, "\u0120caregiver": 44148, "\u0120territories": 26949, "\u0120botan": 44820, "1938": 44611, "okrat": 45725, "ign": 525, "\u0120CRE": 27176, "\u0120solves": 35910, "\u0120sh": 439, "\u0120aud": 3820, "\u0120476": 42302, "uv": 8962, "\u0120dad": 12247, "\u0120//!": 33047, "\u0120Cur": 11579, "roleum": 26519, "\u0120discounted": 42214, "ieval": 19549, "choice": 22122, "SG": 32302, "\u0120reduced": 3777, "\u0120frequ": 2549, "leton": 10747, "\u0120makeup": 24071, "oarthritis": 44483, "jn": 33126, "olving": 11932, "\u0120starvation": 35351, "\u0120mattered": 43074, "Doctor": 44407, "\u0120elect": 1516, "\u0120len": 8472, "oration": 7843, "\u0112": 195, "Gaussian": 44765, "\u0120generosity": 42548, "Australia": 37150, "\u0120diagnose": 33901, "tetra": 49513, "\u0120ACE": 29376, "\u0120\u00c2\u00bf": 25769, "\u0120owning": 37695, "\u0120QString": 44486, "\u0120exceeds": 23141, "lining": 30927, "\u0120intensified": 45253, "opo": 38332, "illery": 21347, "\u0120envision": 31161, "\u0120bre": 1517, "quis": 26500, "\u0120DHS": 45728, "ourt": 950, "arance": 30253, "sp": 1033, "onald": 6540, "naissance": 34056, "\u0120Hua": 45108, "oietic": 30850, "\u0120marching": 37655, "lceil": 42914, "lift": 38722, "\u0120chromatography": 19849, "worth": 11448, "\u0120savage": 40810, "\u0120increments": 42344, "\u0120sludge": 42759, "\u0120SOME": 44933, "LANG": 47043, "terness": 42673, "appy": 11599, "ospheric": 48800, "Flow": 20671, "pace": 4511, "\u0120cosmology": 42716, "\u0120mobility": 16239, "king": 4351, "AMPLE": 40419, "\u0120suspicions": 44873, "\u0120Pour": 27808, "ydr": 31892, "\u0120conventional": 6041, "acha": 43065, "\u0120Dee": 47433, "\u0120challenged": 14870, "senal": 23685, "ADA": 40851, "E": 38, "\u0120deline": 30191, "\u0120cardio": 40992, "fly": 16247, "\u0120terminate": 24174, "ston": 5493, "\u0120Dong": 39571, "-.": 21549, "CM": 5883, "\u0120Indy": 49893, "\u0120employment": 8410, "\u0120terrible": 11527, "\u010a\u0120\u0120\u0120\u0120\u0120\u0120\u0120\u0120\u0120\u0120\u0120\u0120\u0120\u0120\u0120\u0120\u0120\u0120\u0120\u0120\u0120\u0120\u0120\u0120\u0120\u0120\u0120\u0120\u0120\u0120\u0120\u0120\u0120\u0120\u0120\u0120\u0120\u0120\u0120\u0120\u0120\u0120\u0120\u0120\u0120\u0120\u0120\u0120\u0120\u0120\u0120\u0120\u0120\u0120\u0120\u0120\u0120\u0120\u0120\u0120\u0120\u0120\u0120\u0120\u0120\u0120\u0120\u0120\u0120\u0120\u0120\u0120\u0120\u0120\u0120\u0120\u0120\u0120\u0120\u0120\u0120\u0120\u0120\u0120\u0120\u0120\u0120\u0120\u0120\u0120\u0120\u0120\u0120\u0120\u0120\u0120": 27728, "\u0120EU": 8215, "rosc": 10425, "oting": 5341, "Connect": 27642, "\u0120testament": 43864, "\u0120\u00c2\u00bd": 24142, "Pool": 19287, "\u0120sunset": 32712, "andom": 2976, "\u0120gar": 6746, "\u0120configured": 15378, "\u0120Rob": 6625, "\u00f0": 172, "\u0120bal": 4273, "\u0120gradient": 11786, "\u0120subtypes": 25407, "CLUSION": 32200, "culo": 45434, "otypic": 19671, "BD": 8561, "\u0120lifting": 20284, "('#": 30932, "fully": 2920, "\u0120maritime": 37223, "atchewan": 46738, "\u0120Florida": 7758, "\u0120Luna": 47392, "\u0120Ferdinand": 47457, "\u0122": 211, "\u0120bandwidth": 16992, "\u0120requested": 9521, "rocyte": 31948, ")\u00e2\u0122\u0136": 37011, "\u0120Feb": 4416, "\u0120isoforms": 30246, "\u0120$\\{": 10809, "\u00ce\u00ba": 5676, "\u0120genuinely": 27364, ")-(": 31867, "\u0120tasted": 37907, "\u0120internally": 26506, "\u0120mean": 1599, "\u0120substr": 5390, "\u00c3\u00a9t\u00c3\u00a9": 39929, "\u0120research": 2561, "\u0120Boh": 39878, "\u0120lens": 9655, "eday": 35862, "\u0120pill": 12575, "\u0120integrates": 49661, "\u0120prophets": 45888, "Class": 4947, "\u0120monitoring": 8667, "\u0120embryo": 26223, "\u0120rookie": 29938, "\u0120Rank": 25299, "\u0120deceit": 48548, "\u0120ED": 8360, "\u0120nucleus": 13787, "\u0120privately": 27904, "\u0120exercises": 18418, "ailed": 7193, "\u0120branch": 7789, "\u0120WILL": 22268, "acry": 21800, "}}+": 26284, "\u0120internationally": 29549, "\u00e7\u00a4\u00ba": 30420, "\u0120gener": 1006, "met": 3899, "\u0120Lamb": 25852, "\u0120Politics": 27282, "struct": 2855, "\u0120median": 8876, "ocy": 6711, "})=": 19002, "\u00e0\u00a5\u012a": 33358, "\u0120enlisted": 42969, "\u0120fry": 39622, "\u0120fuzzy": 31921, "\u0120XY": 45920, "\u0120Fans": 47472, "deep": 22412, "obacillus": 47757, "xton": 28807, "icolor": 49122, "\u0120wheels": 17727, "inic": 17841, "\u0120defense": 5684, "issance": 18478, "micromachines": 41163, "prise": 10344, "\u0120Scotland": 13944, "\u0120VAL": 15527, "Food": 32473, "\u0120neutrophil": 37040, "\u0120outreach": 37344, "\u0120accur": 3933, "\u0120Morph": 43875, "1021": 42596, "lied": 16283, "zzles": 44426, "psis": 26633, "\u0120secretion": 15088, "\u0120Jin": 32260, "\u0120Salem": 45354, "normal": 6320, "ivirus": 41525, "msg": 4856, "\u0120nil": 5296, "\u0120ampl": 5457, "80": 1438, "\u0120marks": 10880, "\u0120celebrated": 19651, "\u0120authorization": 26239, "zig": 29899, "\u0120DEC": 32823, "PIN": 21793, "thing": 1597, "994": 34307, "Pass": 12161, "\u0120victim": 5487, "\u00d0\u00be\u00d0\u00b3": 9689, "Esc": 32629, "\\*": 3458, "dar": 27083, "\u0120SEM": 18555, "\u0120match": 3761, "iddell": 29801, "\u0120Py": 8462, "\u0120encouragement": 31868, "\u0120bout": 23928, "273": 25671, "\u0120Wright": 17025, "\u0120Hamas": 32885, "ople": 879, "\u0120splend": 29428, "\u0120Raven": 37932, "\u0120without": 1293, "))*": 25468, "ulas": 37961, "\u0120Instant": 41337, "mob": 42096, "\u0120spectators": 44173, "\u00e6\u00b0\u0139": 44899, "\u0120\u00cf\u0125\u00cf\u0126\u00ce\u00b7\u00ce\u00bd": 47607, "\u0120meet": 2525, "\u0120relic": 34787, "\u0120Ms": 10137, "Evaluation": 48640, "\u0120DET": 43190, "\u0120fibers": 13154, "rings": 32226, "\u0120Olivia": 45790, "\u0120Sid": 24752, "\u0120digestive": 36013, "\u0120application": 2898, "\u00e8\u00b6": 34138, "\u0120quotations": 47331, "\u0120plaintiff": 3482, "[]$": 27618, "\u0120typename": 7919, "\u0120gent": 8030, "ainer": 7566, "\u0120enable": 8046, "\u0120Alice": 16922, "altern": 30991, "32": 1237, "\u0120saved": 9809, "%\"}": 20868, "\u0120Airlines": 29218, "\u0120antagonist": 25166, "voltage": 36133, "\u0120saving": 13868, "\u00e3\u0125\u0137\u00e3\u0124": 38892, "\u0120vibr": 13601, "\u0120Geo": 44826, "ipp": 5265, "\u0120imitation": 45738, "300": 7554, "230": 17569, "\u0120continuum": 19106, "\u0120MV": 25587, "Pretty": 41774, "\u0120Tobacco": 47786, ".\\": 4880, "805": 27632, "fortunately": 9520, "\u0120robustness": 31640, "\u0120McCarthy": 32101, "^^": 16896, "orkshire": 32753, "uch": 976, "ulif": 49438, "\u0120Customers": 49627, "\u0120surpassed": 49634, "\u0120Lett": 12464, "................................": 21770, "oof": 49912, ":\"){": 18031, "Notice": 30943, "\u0120electrophoresis": 27273, "\u0120'[": 41000, "\u0120Orient": 45674, "ptions": 6372, "\u0120Kings": 20567, "\u0120Sep": 16925, "\u00c3\u0132\u00c2\u00b5": 18251, "\u0120vacate": 33085, "\u0120centered": 18932, "\u0120legitim": 29933, "\u0120nationals": 47912, "Brand": 49600, "\u0120properly": 6283, "\u0120Summit": 31692, "\u0120Property": 15347, "ographers": 42679, "\u0120Each": 5815, "\u0120battle": 6680, "\u0120midnight": 21811, "ipot": 27469, "\u0120glow": 15795, "ILE": 35336, "\u00e0\u00b8\u0137": 41132, "ovsky": 42891, "\u0120Ruby": 21521, "Kelly": 49062, "\u0120Complaint": 25868, "uki": 19385, "\u0120despu\u00c3\u00a9s": 46380, "\u0120pony": 50044, "archy": 12638, "olid": 9528, "inger": 4940, "\u0120corn": 14128, "\u0120symbols": 14217, "strings": 27329, "ELY": 39155, "\u0120sources": 4973, "\u0120Trip": 34896, "Enable": 27265, "Assign": 44467, "654": 29195, "SIZE": 12771, "\u0120DID": 41718, "Dispatch": 48010, "contents": 28662, "\u0120389": 36206, "\u0120combinations": 13553, "OVE": 19252, "edes": 39820, "FileType": 48632, "igg": 20878, "\u0120explains": 11424, "CAP": 20027, "quered": 35551, "\u0120abdominal": 17322, "398": 26221, "\u0120William": 7252, "\u0120RIGHT": 33238, "max": 4090, "TV": 12101, "\u0120ugly": 19513, "\u0120cytoplasm": 15848, "\u0120reiter": 28411, "\u0120prophet": 33494, "animation": 36047, "\u0120theoretical": 10527, "\u0120Therefore": 3813, "ippets": 46588, "iab": 31289, "\u0120anomal": 19376, "allic": 38347, "ennes": 41564, "\u0120dictates": 44682, "OUR": 11862, "\u0120QC": 47230, "\u0120Plug": 48823, "ableness": 31772, "ersion": 4761, "\u0120Estado": 43188, "\u0120ank": 18282, "INCLUDE": 47128, "\u0120Gro": 14038, "\u0120bean": 24732, "\u0120contributed": 9945, "\u0120Cra": 15615, "WIN": 25079, "\u00e2\u0136\u0122": 11458, "\u0120HA": 15817, "\u0120loyalty": 22964, "690": 31055, "aines": 27666, "\u0120helped": 6518, "\u0120nom": 7163, "\u0120defining": 13947, "\u0120SD": 7388, "lia": 19702, "heading": 33049, "\u0120Seeing": 41583, "\u0120paved": 41608, "axy": 17445, "Alex": 18552, "523": 44219, "Fortunately": 48851, "\u0120tactic": 36633, "hus": 10034, "casters": 47107, "\u0120contracted": 29320, "\u0120caries": 48226, ")^{-": 14607, "\u0120melting": 22244, "Below": 30003, "\u0120circles": 14240, "\u0120bol": 16049, "oner": 26732, "\u0120holiday": 13319, "\u0120metaphysical": 47983, "\u0120Barker": 48659, "\u0120glomer": 28516, "\u0120stakes": 36309, "\u0120pushed": 10184, "\u0120Q": 1165, "\u0120Meg": 18694, "\u0120coh": 8126, "ULL": 4523, "\u00e0\u00a4\u00bf": 20489, "77": 2357, "\u0120Num": 21046, "\u0120Mumbai": 32111, "lat": 13324, "Frank": 20655, "\u0120Continental": 33911, "VEGF": 47737, "\u0120situ": 5999, "2009": 7857, "\u0120adequate": 10599, "Martin": 28448, "\u0120nominee": 28690, "\u0120establishes": 25097, "\u0120\u00c3\u0132": 13033, "\u0120Milwaukee": 31914, "\u0120Coffee": 33753, "\u0120cens": 23339, "mon": 2163, "grey": 35579, "\u0120oss": 31058, "\u00e7\u0131\u00be": 41492, "\u0120Forrest": 46734, "watch": 13060, "\u0120sme": 47993, "\u0120primes": 42740, "\u0120Principal": 34840, "hydration": 37249, "\u0120creatures": 17268, "\u0120investment": 8149, ".(\\[": 27114, "establish": 39961, "exclude": 49309, "\u0120Conse": 40764, "PHY": 33910, "\u0120Seth": 32393, "\u0120condensation": 33974, "......": 33021, "\u0120Cody": 48545, "\u010a\u0120\u0120\u0120\u0120\u0120\u0120\u0120\u0120\u0120\u0120\u0120\u0120\u0120\u0120\u0120\u0120\u0120\u0120\u0120\u0120\u0120\u0120\u0120\u0120\u0120\u0120\u0120\u0120\u0120\u0120\u0120\u0120\u0120\u0120\u0120\u0120\u0120\u0120\u0120\u0120\u0120\u0120\u0120": 22672, "\u0120ln": 43321, "\u0120cyl": 10783, "\u0120Behavior": 29475, "\u0120silence": 10837, "\u0120Logger": 45708, "Control": 10588, "\u0120HLA": 24743, "ODUCT": 47965, "\u0120TIM": 25503, "\u0120Lew": 11146, "955": 31722, "\u0120dreams": 13702, "wealth": 13902, ")*": 2888, "angle": 2134, "Method": 6942, "\u0120Sant": 18056, "\u0120lending": 32497, "\u0120Namely": 39431, "\u0120Gonzales": 50112, "\u0120Sixth": 25164, "\u0120everybody": 11648, "\u0120flav": 8043, "\u00e0\u00a8": 18537, "\u0120min": 1054, "\u0120falls": 11521, "\u0120Diamond": 25148, "\u0120presidency": 26083, "Carl": 29916, "\u0120asc": 9407, "\u0120fan": 7989, "\u0120street": 6406, "\u00c2\u00b2": 15818, "sender": 36294, "\u0120JR": 38175, "\u0120exponents": 41025, "agged": 37522, "\u0120hemisphere": 32660, "\u0120advantage": 5750, "ffff": 8832, "\u0120Squ": 25399, "separated": 49741, "oplast": 43040, "\u0120surrender": 23277, "pac": 44896, "there": 9088, "\u0120155": 20029, "\u0120habeas": 23870, "\u0120Dame": 33003, "\u0120bureaucracy": 48356, "umor": 15502, "ession": 2738, "me": 1405, "\u0120crystalline": 28138, "rong": 29487, "\u0120void": 2991, "\u0120Apple": 8217, "\u01201940": 16952, "\u0120Comment": 22955, "bright": 33951, "hots": 40396, "ailing": 13454, ")}_{": 20669, "exe": 20963, "\u0120garments": 42179, "\u0120Spani": 46544, "\u0120Relations": 18817, "coordinate": 36236, "Solution": 37533, "\u0120Rights": 12484, "reign": 46219, "\u0120HashMap": 47523, "\u0120ON": 8160, "\u0123": 212, "\u0120justify": 15249, "vents": 27156, "458": 29435, "\u0120Costa": 26002, "\u0120questo": 30975, "\u0120Wilder": 40065, "\u0120hits": 12830, "bur": 13156, "\u0120cherry": 33804, "\u0120Conventional": 44347, "rugged": 20493, "\u0120Murder": 46681, "iment": 2092, "avor": 15100, "\u0120kinetic": 17818, "Walk": 29300, "\u0120dynamic": 7870, "elaide": 37485, "\u00e3\u0123\u00a7\u00e3\u0124\u0124": 45776, "\u0120belt": 13779, "esis": 6090, "\u0120sexuality": 30545, "\u0120disagree": 14936, "\u0120interests": 6284, "CK": 7519, "EMENT": 17260, "got": 19559, "\u0120}(": 37199, "\u0120conced": 17225, "those": 21808, "aisy": 34076, "\u0120producers": 18014, "thro": 38088, "Ser": 6075, "etermined": 15769, "\u0120Roger": 19528, "\u0120masking": 44790, "xiv": 32693, "Frames": 45952, "NEY": 40740, "FFF": 45231, "\u0120notes": 7211, "\u0120exotic": 26015, "worthy": 26214, "\u0120fears": 18055, "planes": 32763, "hall": 24489, "graphs": 33884, "\u0120Hit": 14473, "Haw": 35034, "\u0120Twelve": 38809, "bold": 12509, "\u0120themes": 16876, "\u0120frivolous": 41111, "inc": 1763, "\u0120audi": 41174, "\u0120Movie": 27615, "arrest": 45389, "compiled": 49140, "\u0120environmentally": 39331, "\u0120bishops": 39180, "\u0120utilized": 12845, "aturday": 7023, "Rule": 16295, "\u0120parasites": 27338, "591": 43581, "\u0120Cott": 46497, "\u0120towards": 4404, "\u0120completing": 21006, "spirit": 31443, "ln": 6677, "oral": 7909, "\u0120indulge": 47617, "\u00df": 155, "\u0120taps": 50156, "red": 433, "LRQ": 43591, "\u0120ft": 23899, "{{{\\": 18955, "\u00ce\u00bb\u00ce\u00b1": 43994, "Review": 18658, "\u0120pi\u00c3\u00b9": 27060, "\u0120rect": 9004, "]_{": 35830, "Utils": 19611, "Jes": 23016, "\u0120either": 2057, "\u00e7\u012b\u00b9": 36114, "\u0120Carp": 36468, "utive": 4995, "ears": 6364, "\u0120There": 1707, "\u0120ph": 815, "\u0120inappropriate": 19582, "\u0120nicotine": 31788, "\u0120Austria": 21753, "\u0120numpy": 36950, "\u0120bony": 45861, "expected": 9127, "14514500": 39743, "\u0120NRA": 48812, "apters": 49872, "ome": 485, "mM": 14685, "\u0120upside": 28636, "vis": 4534, "vv": 24260, "\u0120wrapper": 27436, "Fragment": 24054, "iets": 46426, "nio": 48830, "kets": 43846, "uggest": 21662, "Computer": 41051, "\u0120Rogers": 22456, "go": 2184, "\u0120Nashville": 30647, "\u0120Liverpool": 22808, "Legal": 49883, "cons": 5040, "\u0120franc": 38996, "\u0120admired": 35030, "ilic": 24479, "\u0120Loan": 36907, "\u00e5\u00b7\u00b2": 48584, "\u0120adult": 6782, "define": 3182, "\u0120Acad": 40060, "\u0120bromide": 43903, "Harris": 46593, "\u0120performed": 2684, "\u0120wrong": 3430, "\u0120baseline": 8245, "\u00d0\u00bb\u00d0\u00b8": 11378, "\u0120mut": 2873, "\u0120mapping": 10603, "\u00d0\u00b5\u00d0\u00b3": 19985, "\u0120Secret": 7743, "454": 27087, "iman": 25884, "plitudes": 22069, "ums": 7640, "\u0120surrogate": 35701, "\u0120cheating": 37142, "\u0120Coast": 13153, ".''": 40669, "blic": 21287, "\u0120coat": 11959, "\u0120precluded": 38932, "1994": 13034, "original": 19164, "\u0120permissions": 15607, "xor": 28374, "\u0120Nova": 30947, "\u0120WHERE": 17242, "\u0120needle": 15460, "BSD": 33725, "\u0120recruits": 38136, "died": 42729, "BUFFER": 34137, "uities": 39560, "PED": 48389, "etes": 6214, "\u0120clasp": 39712, "\u0120Smith": 6212, "\u0120echocardiography": 45612, "jug": 18936, "\u0120www": 8280, "\u00d0\u00bf": 7179, "atz": 16859, "Duration": 24921, "\u0120sober": 31864, "nej": 33841, "\u0120\u00ce\u0133": 48185, "\u0120grief": 20993, "\u0120\"<": 16375, "\u0120blinding": 49167, "MD": 7414, "French": 21258, "Which": 7371, "\u0120River": 7121, "tu": 16853, "\u0120Syrian": 17959, "zheimer": 22110, "\u0120Tibet": 27061, "\u0120gyrus": 37919, "\u0120ly": 12865, "\u0120Resources": 19242, "ids": 2352, "\u0120cat": 5798, "fle": 39923, "\u00c3\u00a9g": 16266, "menopausal": 38901, "itored": 15931, "\u0120flat": 6507, "\u0120Clar": 23362, "\u0120responders": 38427, "\u0120amenities": 39456, "\u0120Partner": 46411, "\u0120ridic": 41962, "protected": 18641, "\u0120clk": 49362, "Result": 9179, "ROW": 39326, "\u0120Ga": 12146, "amino": 19741, "\u0120But": 1292, "atism": 44451, "\u0120briefly": 13366, "\u0120responds": 27019, "\u0120Eliot": 45773, "cas": 16559, "102": 11335, "ellow": 3827, "\u0120examines": 33888, "\u0120clones": 21825, "\u0120while": 1223, "front": 6342, "\u0120Philippe": 46425, "\u0120current": 1655, "RQ": 48402, "\u0120Arabian": 49185, "Overview": 35067, "\u0120books": 5098, "\u0120extensively": 18171, "\u0120concurrently": 35046, "Science": 34191, "\u00c2\u0130": 28372, "\u0120configuration": 6661, "\u0120rebels": 28550, "\u0120Sprint": 41058, "\u0120Swed": 11042, "repeat": 24712, "\u0120dismay": 41190, "Camp": 25046, "\u0120Star": 8141, "\u0120f\u00c3\u00a5": 36283, "imals": 21185, "\u0120contempt": 20334, "Vector": 15219, "\u0120offender": 27484, "\u0120outliers": 42559, "\u0120d\u00c3\u00a4r": 42666, "\u0120cytotoxicity": 27863, "\u0120Milk": 41452, "lique": 29265, "bund": 45268, "\u0120surgery": 5869, "\u00e6\u0139\u0142": 47029, "()": 1082, "\u00eb\u00a6": 32654, "onen": 47591, "orient": 13981, "\u0120peaceful": 19951, "\u0120parch": 44959, "bellum": 38569, "194": 19332, "itably": 20961, "\u0120detrimental": 30078, "agment": 15349, "\u0120inclination": 30388, "God": 13618, "\u0120assets": 10434, "\u0120Pros": 33523, "\u0120Treasure": 44220, "Things": 32244, "tokens": 45499, "\u0120Parse": 35592, "\u0120Curt": 24126, "Exit": 34108, "NET": 11502, "\u0120inputs": 14800, "\u0120radiative": 35873, "\u0120190": 21732, "\u0120ges": 32624, "------------------------------------": 34638, "\u0120Cron": 39186, "rinos": 34573, "\u0120outskirts": 46413, "\u0120Armenian": 46657, "\u00e7\u00a5": 37769, "\u0120cand": 3940, "dil": 43886, "\u0120continuity": 21815, "\u0120Kit": 12418, "\u0120Vari": 19988, "pod": 29871, "\u011b": 204, "\u0120suf": 8806, "\u0120Collect": 22729, "\u0120Mozilla": 44502, "\u0120devices": 4095, "\u0120hundreds": 8307, "some": 8826, "\u0120Edition": 17897, "US": 3016, "\u0120twin": 19661, "\u0120tourism": 26742, "\u0120pou": 22241, "\u0120Philosophy": 27284, "\u0120nano": 27126, "\u0120extend": 9017, "\u0120Syd": 16739, "\u0120314": 33198, "isdiction": 37420, "GV": 31073, "\u0120obviously": 9090, "\u01201901": 40488, "\u0120clear": 2590, "\u00c3\u00b4le": 42761, "\u0120creepy": 43152, "\u0120intense": 12680, "514": 42389, "\u0120wsp": 45718, "\u0120precludes": 46704, "ippy": 47621, "\u0120escapes": 44716, "\u0120aren": 6403, "\u0120neither": 6747, "\u0120Univers": 12565, "nv": 31287, "vee": 19406, "\u0120upl": 27165, "\u0120PIP": 50248, "\u0120attempting": 13756, "\u0120Tanzania": 45914, "\u00e8\u00a8": 14945, ")\\].": 37077, "\u0120emphasizes": 35520, "\u0120Vaugh": 38923, "\u0120brackets": 26609, "piring": 46496, "\u0120efficient": 5919, "\u0120accuracy": 7200, "\u00cf\u0125\u00ce\u00b5": 41783, "him": 13243, "\u0120gown": 31079, "translated": 49916, "\u0120Cher": 30260, "\u0120Dis": 5201, "science": 21559, "[-": 16614, "uuid": 36268, "({\\": 5716, "awning": 37567, "\u0120hate": 9239, "ARK": 18004, "\u0120bundles": 25663, "\u0120corrosion": 30613, "\u0120saga": 44481, "}</": 28379, "732": 48549, "\u0120OPINION": 36111, "yzed": 49453, "\u0120nicht": 13014, "ose": 583, "\u0120importing": 45527, "\u0120Jess": 18827, "obe": 8594, "\u0120aston": 21278, "\u0120snow": 8762, "ikipedia": 15170, "\u0120failures": 20101, "ol": 311, "zan": 30317, "\u0120TLS": 36249, "\u0120claims": 3916, "\u0120trimmed": 36756, "romes": 37361, "Prof": 44800, "\u0120alarms": 49454, "\u0120dreaming": 36515, "\u0120Hoe": 49502, "\u0120contains": 4428, "\u0120law": 1569, "\u0120were": 497, "CT": 1647, "adder": 14630, "\u00d7\u0136": 18007, "\u0120111": 11334, "dog": 21428, "iota": 21620, "\u0120ongoing": 10800, "ubernetes": 27419, "\u0120realities": 34759, "\u0120Paradise": 40577, "[$\\": 46265, "bserver": 24002, "ouds": 13360, "\u0120Ltd": 12098, "Jesus": 27035, "\u0120preceding": 17691, "\u0120391": 38794, "\u0120conver": 5975, "antic": 6484, "\u0120homeost": 22920, "\u0120buzz": 23357, "Ctrl": 32303, "\u0120tipo": 36147, "\u0120quatern": 40163, "\u0120pink": 14863, "687": 29868, "to": 936, "\u0120solutions": 5482, "GET": 9278, "jpg": 11368, "\u0120OD": 26514, "rological": 36083, "\u0120staggering": 41954, "GIS": 45142, "KING": 47339, "\u0120Surv": 24725, "voice": 22619, "\u0120old": 1711, "\u0120walk": 2940, "ral": 1544, "\u0120Cruz": 16874, "\u0120foam": 22441, "\u0120surprise": 9326, "\u0120unique": 4451, "apper": 16794, "\u0120prescribed": 15588, "\u0120Cool": 25714, "utor": 6854, ")}{": 9783, "\u0120statistics": 9990, "\u0120begun": 13207, "encil": 21177, "\u0120deliberate": 24807, "\u0120fix": 4993, "\u0120Scots": 45690, "JD": 30612, "adi": 11282, "\u0120September": 4397, "?\u00e2\u0122\u013f": 7721, "oshi": 25453, "\u0120alternative": 5795, "platform": 19161, "\u0120classified": 10509, "\u0120spectrom": 17606, "\u0120Paula": 42006, "$]{};": 31350, "\u00e3": 159, "ani": 6451, "NC": 9431, "League": 43174, ",\u00e2\u0122\u0136": 47359, "ioxidants": 44129, "\u0120elite": 17832, "Cha": 49029, "\u0120shovel": 42553, "\u0120Appe": 7650, "constant": 22174, "\u0120polarized": 25865, "\u0120Depend": 44904, "\u0120initial": 3302, "OO": 4985, "where": 2811, "Si": 14581, "\u0120ic": 17857, "\u0120exagger": 23668, "\u0120numb": 39856, "\u0120trenches": 44297, "coli": 46351, "eous": 22953, "\u0120urgency": 34623, "osh": 6934, "\u0120conject": 19704, "\u0120greenhouse": 27160, "yc": 33855, "\u0120236": 28131, "\u0120homem": 29590, "Replace": 34435, "094": 41280, "\u0120shedding": 43932, "\u0120Bernard": 22547, "Leave": 30359, "\u0120Cardi": 46283, "lection": 1788, "\u0120Once": 7243, "ZZ": 25314, "\u0120Deborah": 47627, "riet": 47950, "_\"": 25233, "\u0120enthusi": 12833, "elles": 18502, "\u0120incentive": 25275, "\u0120mutations": 9197, "\u0120smartphones": 33188, "\u0120eleg": 13990, "\u0120sacred": 20075, "\u0120cirrh": 32188, "\u0120sperm": 20903, "destroy": 26316, "[{": 39487, "\u0120Eth": 10570, "guard": 18625, "\u0120Porter": 27636, "eners": 36335, "\u0120sporadic": 39631, "\u0120decorations": 45069, "\u0120incor": 5050, "\u0120CF": 13528, "596": 36679, "\u0120dynam": 3970, "inces": 18508, "bn": 15453, "ogene": 6679, "\u0120Man": 3083, "ISHED": 44024, "suppl": 27063, "emphasis": 18532, "\u0120cookie": 19550, "\u0120Gra": 10672, "\u0120Veget": 42629, "\u0120ligation": 43854, "\u0120superintendent": 45480, "ibility": 2322, "\u0120plate": 5340, "\u0120batch": 14604, "\u0120ingen": 35604, "istry": 4721, "\u0120medically": 44597, "\u0120compliant": 38147, "quired": 17050, "ocr": 3131, "){#": 4253, "\u0120vertices": 13388, "\u0120A\u00ce\u00b2": 28381, "Few": 49397, "\u0120+\\": 14030, "btn": 15581, "\u0120envelop": 29275, "Bg": 46134, "\u0120snatched": 48134, "\u0120chosen": 6777, "\u0120stool": 32217, "onel": 14405, "\u0120-.": 26435, "545": 42772, "anto": 11780, "\u0120summon": 23439, "\u0120variations": 10575, "\u0120formal": 7473, "pbio": 27889, "Nos": 45433, "\u01202001": 6585, "\u0120undermined": 48178, "Capt": 17745, "\u0120disappear": 15529, "\u0120refresh": 22906, "\u0120Boris": 35665, "than": 14644, "\u0120gad": 27835, "estinal": 11278, "\u0120cosmetic": 35361, "current": 6259, "\u0120crazy": 10412, "}})\\": 27927, "\u0120strength": 4757, "\u0120faster": 7938, "\u0120Suzuki": 47848, "cript": 1687, "Advertisement": 34757, "inating": 8779, "Port": 11688, "NGC": 49949, "\u0120Rhe": 40334, "\u0120breathing": 14578, "\u0120UTF": 34773, "\u00ce\u00b1\u00ce\u00bd": 27580, "padding": 17333, "\u0120disk": 7592, "que": 1452, "izens": 22100, "Molecular": 43687, "\u0120reflux": 39708, "Elizabeth": 45150, "\u0120IRC": 48674, "tur": 39493, "\u0120gast": 9144, "\u0120arrog": 29586, "\u0120Aw": 20352, "\u00c3\u00bc": 3090, "\u0120compel": 30705, "\u0120Islamic": 13281, "itzerland": 17893, "\u00d1\u0125\u00d1\u0130": 26199, "\u0120CX": 20732, "\u0120Astr": 22042, "\u0120stamps": 37946, "Pro": 1845, "gru": 30107, "lemn": 29332, "\u0120Preliminary": 46296, "Salmonella": 46266, "\u0120instincts": 39609, "\u0120metastatic": 19798, "Buck": 32475, "berries": 25058, "754": 31254, "fors": 48755, "canvas": 32688, "elected": 43514, "NAL": 21686, "osaic": 31098, "\u0120injured": 11062, "JECT": 19290, "\u0120systemic": 13407, "\u0120shutdown": 26897, "\u0120Dear": 37268, "ulmonary": 35534, "observ": 23705, "Twitter": 31068, "\u0120Vehicle": 37614, "\u0120creatinine": 31585, "ClassName": 43731, "\u0120other": 643, "\u0120smoked": 29757, "\u0120gripping": 44413, "\u0120glances": 49781, "\u0120jar": 21152, "wg": 46506, "\u0120restaurants": 15114, "\u0120Jak": 32319, "\u0120Hastings": 49234, "main": 7265, "\u0120ast": 7846, "\u0120Irene": 47613, "ricia": 32055, "\u0120tangent": 28196, "\u0120Christine": 36449, "\u00e1\u00bd": 10623, "653": 35726, "rington": 25915, "\u0120Ke": 6018, "\u0120acetate": 23150, "\u0120coincidence": 27454, "aming": 6472, "\u0120Surface": 29700, "\u0120These": 2053, "acci": 42401, "906": 30920, "arming": 28456, "\u0120accommodations": 45579, "Altern": 26149, "\u0120dic": 37266, "457": 28744, "\u0120christ": 37622, "\u0120preferred": 9013, "\u0120doctr": 34587, "chrome": 23079, "\u01202012": 4050, "\u0120Nice": 29902, "\u0120Bend": 38020, "\u0120confirm": 6583, "\u0120GL": 9653, "\u0120inversely": 39342, "\u0120Hed": 46689, "\u0120Ghana": 34905, "rom": 409, "\u0120finds": 9010, "\u0120shifting": 19507, "\u0120federal": 4400, "\u0120Vin": 20047, "\u0120tresp": 40209, "\u0120inhibitor": 10680, "\u0120previously": 3786, "aceutics": 48734, "\u0120fishes": 49720, "\u0120chromium": 50064, "\u0120ineffective": 18860, "lets": 6639, "inner": 5338, "primary": 21423, "\u0120initiatives": 21823, "\u0120memorial": 27672, "\u0120sept": 22688, "\u0120Bug": 32134, "icas": 42888, "Ik": 45532, "(\\": 1035, "\u0120Mov": 19345, "\u0120dysfunction": 12909, "Little": 25392, "atti": 26797, "\u0120judgement": 31536, "\u0120Sunni": 45409, "Cache": 15554, "\u0120Spec": 5587, "\u0120yog": 30197, "\u0120blocking": 14589, "c": 68, "}}=\\": 29270, "close": 10483, "fine": 32829, "\u0120Flex": 34340, "\u0120coinc": 10891, "\u0120longe": 35133, "\u01201909": 38624, "866": 46639, "\u00f4": 176, "\u0120Marc": 22662, "\u0120bro": 1795, "\u0120patiently": 46606, "\u0120dance": 11012, "\u0120habit": 8803, "\u0120analyzed": 5867, "\u0120Alzheimer": 23294, "\u0120earn": 6233, "Bibliography": 41353, "orp": 24578, "\u0120prohibits": 33093, "\u0120TiO": 38867, "\u0120revert": 43004, "ostomy": 50089, "\u00e5\u00be": 12005, "\u0120glucocortic": 44154, "\u0120vehicle": 4958, "vity": 27789, "\u0120prospectively": 44045, "ochond": 9217, "\u0120hosp": 45304, "\u0120bladder": 18676, "\u0120circuitry": 29009, "IK": 22550, "osterone": 20535, "\u0120transplanted": 38887, "weg": 41768, "\u0120von": 8449, "achel": 17470, "illo": 16078, "helm": 35528, "\u0120Conn": 27301, "\u0120tele": 4014, "\u0120Steam": 28984, "\u0120$$(": 34027, "ocard": 10676, "\u010a\u0120\u0120\u0120\u0120\u0120\u0120\u0120\u0120\u0120\u0120\u0120\u0120\u0120\u0120\u0120\u0120\u0120\u0120\u0120": 2580, "set": 1178, "\u01201865": 42741, "529": 45316, "owners": 24172, "\u0120aggrav": 17725, "entered": 49601, "\u0120maintained": 8838, "\u0120itself": 3139, "ica": 3737, "\u0120compan": 3795, "\u0120male": 5086, "\u0120origins": 20801, "\u0120claws": 43390, "\u0120Six": 11067, "\u0120PART": 14865, "\u0120slave": 15945, "nel": 8101, "\u0120proceeds": 16947, "\u0120notifications": 30584, "\u0120Ah": 15344, "Real": 17642, "\u0120rounds": 16334, "\u0120chol": 27554, "\u0120photographers": 38676, "\u0120eco": 42830, "\u0120GSK": 45489, "\u01201862": 45834, "\u0120DWORD": 49135, "\u0120governor": 14176, "iod": 1970, "\u0120pre": 638, "\u0120quand": 37639, "uling": 16292, "Scene": 34925, "\u0120regret": 14938, "esse": 26491, "\u0120partnership": 11696, "atted": 19822, "\u0120owned": 9633, "\u0120\u00c3\u00a4r": 14710, "\u0120startup": 20500, "\u0120agitation": 39786, "\u0120reluctantly": 46572, "\u0120tense": 29341, "\u0120unless": 5734, "match": 8992, "\u0120decoder": 29810, "away": 12594, "\u0120Stevens": 22801, "esp": 24182, "\u0120creature": 15906, "ubl": 2292, "Byte": 19117, "healthy": 27952, "\u0120coff": 33374, "\u0120Maryland": 15812, "673": 35791, "kids": 36358, "\u0120Abdul": 39509, "\u0120wink": 42790, "\u0120Shot": 43761, "\u0120DMSO": 29864, "\u0120intolerance": 45458, "\u0120Breaking": 47179, "\u0120slightest": 33456, "\u0120circus": 44703, "ampton": 32362, "1998": 11496, "earing": 10745, "\u0120Arn": 21155, "\u0120\u00cf\u0125\u00cf\u0126\u00ce\u00bf": 42191, "\u0120commend": 49638, "\u0120cush": 26938, "\u0120thirst": 31391, "\u0120creek": 38879, "#####": 22002, "\u0120Ec": 24253, "\u0120skeleton": 29564, "She": 2993, "/\"": 23911, "08": 2904, "riages": 26074, "\u0120diminishing": 48245, "\u0120Rhode": 35743, "\u0104": 181, "\u0120Luke": 18247, "Though": 18765, "\u0120dal": 26932, "\u0120progresses": 42851, "\u00e6\u012b\u0122": 25276, "\u0120Ment": 48253, "\u0120atomic": 13805, "\u0120Yuan": 50051, "scribed": 31509, "\u00d9\u0129\u00d8\u00a7": 37760, "Open": 9807, "regulation": 11973, "Component": 12118, "\u0120nucleotides": 31227, "\u0120Huss": 44035, "\u0120obscured": 45650, "\u0120Argentine": 47637, "woods": 48853, "\u0120becomes": 4916, "olini": 47193, "igate": 12894, "\u0120defines": 13067, "\u0120float": 8253, "uddled": 40747, "\u0120progn": 11150, "\u0120discs": 28217, "Alright": 47292, "\u0120satellite": 15109, "tl": 17945, "why": 22309, "IDTH": 24282, "\u0120normalized": 12650, "\u0120schools": 6629, "requency": 13494, "atured": 30387, "inf": 2050, "\u0120alright": 34557, "Nik": 39104, "\u0120proceeding": 12162, "\u00e5\u0131\u00af\u00e4\u00bb\u00a5": 33018, "located": 46033, "encial": 49016, "\u0120Agreement": 14297, "\u0120reconst": 49866, "Please": 7845, "\u0120malf": 37540, "\u0120preced": 8436, "\u0120Asc": 33420, "\u0120would": 651, "mered": 38086, "\u0120vul": 8554, "]^": 3725, "condition": 12380, "\u0120Gut": 39205, "vertex": 31560, "\u0120phosphor": 43734, "\u0120member": 3558, "Nob": 25372, "\u0120sharp": 9479, "elin": 28957, "Isa": 48728, "\u0120Abbey": 37875, "\u0120Debt": 16494, "atives": 3993, "\u0120incorporate": 19071, "ORK": 17047, "\u0120India": 5427, "}},": 8503, "\u0120Buch": 27907, "\u010a\u0109\u0109\u0109\u0109\u0109\u0109\u0109\u0109": 13523, "=-\\": 29715, "FU": 30531, "\u0120soil": 8825, "\u0120facilitating": 30753, "download": 21596, "album": 31638, "\u0120dd": 32765, "\u0120Rein": 35013, "olt": 7391, "oche": 13807, "\u0120pregnancy": 10438, "\u0120shaped": 16745, "dip": 31665, "\u0120Official": 23607, "\u0120Horizontal": 46724, "\u0120mot": 1733, "ospace": 36119, "\u0120optic": 26961, "\"}](": 10148, "\u0120databases": 16634, "rics": 18211, "\u0120hers": 22502, "\u0120[`": 44308, "othal": 30205, "\u0120Rah": 27614, "\u0120bought": 8686, "}]": 12084, "\u0120Basic": 20233, "\u0120Possible": 40550, "\u0120wording": 41066, "seen": 16564, "258": 22029, "\u0120Bapt": 24425, "\u0120okay": 8261, "\u0120grav": 7462, "\u0120BS": 23446, "\u0120Pittsburgh": 22119, "amous": 14919, "\u0120excitement": 18349, "tfn": 24750, "\u0120Redist": 25936, "\u0120Ag": 3419, "\u0120tomb": 26908, "\u0120restraint": 28891, "ouncing": 28590, "\u0120coordinator": 30468, "\u0120disordered": 36046, "\u0120Morris": 17771, "ATA": 9033, "CCESS": 30583, "aton": 13078, "shaw": 40590, "Schedule": 42377, "\u0120Meaning": 45734, "spread": 42755, "}+\\": 9213, "\u0120assure": 21684, ":=\\": 25942, "\u0120plating": 40774, "\u0120dermal": 48381, "\u0120americ": 41290, "answer": 31984, "\u0120treason": 44331, "\u0120surfaces": 9421, "\u0120asking": 7004, "spin": 16056, "stellar": 31885, "\u0120pestic": 27172, "\u0120cover": 3835, "\u0120Arabia": 20498, "\u0120freed": 21517, "django": 44472, "probe": 32373, "doped": 43142, "\u0120sock": 32584, "\u0120Float": 44376, "\u0120fertil": 30465, "\u0120networking": 23245, "\u00cf\u0126\u00ce\u00b1\u00ce\u00b9": 30656, "ibel": 42723, "brown": 33167, "\u0120coincides": 30150, "\u0120finale": 36454, "\u0120ts": 28669, "\u0120cute": 20295, "\u0120lymphoid": 43853, "\u0120tangled": 49515, "\u0120computes": 48169, "hide": 21179, "\u0120Clause": 26377, "ANE": 33807, "\u010a\u0120\u0120\u0120\u0120\u0120\u0120\u0120\u0120\u0120\u0120\u0120\u0120\u0120": 4945, "il": 300, "\u0120intuition": 30328, "ensions": 5354, "\u0120slit": 31688, "implementation": 39595, "\u0120med": 1129, "\u0120rural": 11393, "606": 25358, "\u00e5\u00bb\u00ba": 40309, "\u0120ESR": 42209, "_{\\": 1126, "\u0120radicals": 26875, "igent": 32189, "fib": 36240, "\u0120sounding": 31283, "\u0120chickens": 29466, "\u0120supreme": 24555, "\u0120quarter": 7150, "\u0120$(-": 49960, "\u0120Mueller": 26596, "\u0120substantive": 22918, "gen": 1541, "\u0120pouring": 31226, "Props": 32461, "Neither": 34571, "\u0120box": 3817, "\u0120measurement": 6814, "\u0120solic": 26854, "\u0120GmbH": 38230, "atype": 39960, "\u0120discrete": 13358, "\u0120filtering": 19690, "empre": 46404, "luent": 36711, "\u0120nie": 15361, "\u0120architectures": 35615, "ibly": 4360, "\u0120drastically": 31063, "\u0120Norfolk": 37252, "\u0120asserted": 16402, "\u0120meats": 47098, "\u00e6\u0126\u0131": 31129, "agt": 49394, "\u0120\"--": 49700, "\u0120Planet": 29719, "\u0120luc": 18205, "\u0120identification": 8137, "mem": 6441, "\u0120Helen": 23442, "parents": 24905, "\u0120ORDER": 19140, "\u0120crushed": 24983, "\u00e5\u00b0\u00b1": 29297, "))$.": 34801, "\u0120Gothic": 38707, "\u0120extremities": 47964, "\u0120Cold": 20754, "\u0120cope": 23808, "\u0120missions": 21468, "goto": 18026, "\u0120descendants": 32148, "\u0120Bert": 21804, "\u0120forgive": 23697, "\u0120admissible": 22961, "\u0120z": 1182, "\u0120piv": 15213, "BU": 7817, "olly": 10378, "\u0120owing": 21681, "culture": 29831, "\u0120ammonium": 33322, "\u0120rins": 32677, "\u0120indifference": 36163, "ivering": 36731, "\u0120associ": 1709, "\u0120cocoa": 41621, "\u0120Dist": 3656, "\u0120dispat": 27758, "rese": 43038, "577": 48442, "\u0120Says": 49918, "\u0120hesitate": 32379, "\u0120]{}": 15707, "\u0120Handle": 34107, "ir": 343, "Sarah": 40587, "mpi": 42225, "iano": 10356, "\u00e4\u00b8\u0130": 40564, "[/": 32871, "\u00c2\u013b": 20236, "\u0120bicycle": 25812, "\u0120relig": 4607, "iberal": 42883, "\u0120insulator": 42415, "\u0120baggage": 40834, "Bud": 40255, "\u0120Dept": 33646, "attrs": 46707, "\u0120List": 5552, "idel": 5735, "\u0120wanting": 14707, ".',": 40219, "\u0120glutamate": 29204, "\u0120know": 871, "ativ": 13490, "\u0120prophecy": 45368, "\u0120\u010a\u0120\u0120\u0120\u0120\u0120\u0120": 44863, "\u0120killed": 5339, "\u0120grandes": 45521, "\u0120competitive": 12085, "\u0120Come": 13516, "\u0120recordings": 19654, "itches": 27539, "!,": 40928, "diamond": 41369, "tek": 34968, "\u0120Malcolm": 34409, "BRE": 37168, "\u0120masked": 34741, "\u0120Buck": 18885, "\u010a\u0120\u0120\u0120\u0120\u0120\u0120\u0120\u0120\u0120\u0120\u0120\u0120\u0120\u0120\u0120\u0120\u0120\u0120\u0120\u0120\u0120\u0120\u0120\u0120\u0120\u0120\u0120\u0120": 20102, "\u0120exaggerated": 36074, "\u0120DIV": 39404, "\u0120afterwards": 16906, "\u0120doctors": 11576, "\u0120yielded": 20714, "\u0120stacked": 24982, "\u0120jail": 12907, "\u0120\u00d1\u0124\u00d1\u0122": 43084, "\u0120lupus": 43552, "\u0120hypox": 17793, "\u0120Tat": 28887, "ogr": 31481, "valueOf": 48559, "\u0120unconditional": 49795, "\u0120such": 824, "\u0120\u00e2\u0122\u0136": 1905, "\u0120iPad": 23143, "sworth": 33739, "\u0120hope": 3524, "\u0120aspects": 7794, "\u0120capsule": 26661, "having": 30819, "\u00e5\u0127\u00ac": 35601, "\u0120predator": 41143, "\u0120Majority": 43471, "icum": 45745, "ma": 785, "Ent": 7580, "Pan": 12309, "\u0120Proced": 37611, "\u0120passage": 10056, "\u0120rendered": 13697, "\u0120486": 42196, "\u0120PP": 20250, "GeV": 27704, "\u0120hailed": 46156, "leine": 44431, "oclonal": 21137, "\u0120scient": 4970, "\u0120sofa": 30929, "\u0120crashing": 34869, "\u0120Kimber": 46907, "belt": 47349, "odium": 26796, "\u0120grandmother": 20606, "onset": 37716, "\u0120Message": 17775, "\u0120diameter": 9080, "\u0120Whe": 13274, "\u0120buffer": 6391, "\u0120Naval": 29066, "\u010a\u010a\u0120\u0120\u0120\u0120\u0120\u0120\u0120\u0120\u0120\u0120\u0120\u0120\u0120\u0120\u0120\u0120\u0120\u0120\u0120\u0120\u0120\u0120\u0120\u0120\u0120\u0120\u0120\u0120\u0120\u0120\u0120\u0120\u0120\u0120\u0120\u0120\u0120\u0120\u0120\u0120\u0120\u0120\u0120\u0120\u0120": 48513, "\u0120emails": 16530, "\u0120waived": 23391, "\u0120Funding": 44303, "wear": 21417, "\u0120[\\": 24430, "\u0120reunion": 45591, "arguments": 31126, "\u0120Cognitive": 43419, "mosp": 8074, "\u0120demographic": 18825, "\u0120Bradford": 36890, "\u0120mare": 45048, "\u0120950": 49305, "\u0120surveyed": 28671, "\u0120waits": 38724, "\u0120Alexandria": 38783, "Proxy": 23074, "\u0120eligibility": 26281, "\u0120locking": 22081, "\u0120hero": 8080, "\u0120holder": 17051, "\u0120EGFR": 26720, "\u0120informal": 25040, "\u0120rs": 14208, "\u0120epigen": 26516, "\u0120'./": 33378, "\u0120Whit": 17353, "\u0120BSA": 35098, "bucks": 41422, "\u0120pur": 1460, "servlet": 33391, "\u0120parap": 38594, "\u0120Elements": 41273, "\u0120pelvic": 31084, "standing": 6924, "Db": 23213, "\u0120squeezed": 29172, "\u0120Lu": 7511, "\u0120driver": 6254, "\u0120picking": 8871, "stage": 13311, "rives": 39477, "\u0120coordinates": 11627, "\u0120elaborate": 21184, "272": 25121, "\u0120423": 38880, "eric": 6555, "before": 9131, "sigma": 2592, "rase": 30319, "\u0120distracted": 31564, "imated": 18280, "\u0120Ski": 43807, "ood": 836, "\u0120dust": 8660, "CHANTABILITY": 20386, "\u0120sch": 5807, "publ": 30146, "================================": 4578, "\u0120abbrev": 31931, "\u0120Ti": 15984, ".[^": 35117, "\u0120damages": 8540, "compute": 39413, "\u0120&#": 40114, "lot": 11753, "\u0120Guinea": 34410, "\u0120Leib": 43661, "\u0120Vern": 30052, "ools": 23699, "\u0120firefighters": 45399, "\u0120\u00cf\u0125\u00cf\u0126\u00ce\u00b7": 37384, "\u0120Ministry": 13421, "displaystyle": 15652, "\u0120Importantly": 27628, "sufficient": 31031, "\u0120securing": 24682, "\u0120pulp": 32061, "\u0120Rainbow": 46375, "ricted": 24106, "\u0120bounds": 14493, "rus": 14734, "\u0120exert": 14227, "\u00e6\u013f\u00a5": 24370, "\u0120Regional": 19804, "\u0120messaging": 29908, "LEVEL": 36868, "\u0120capacitors": 45036, "WL": 23272, "*(*": 24222, "usc": 19387, "resh": 2935, "\u0120Sever": 35395, "\u0120balls": 15254, "\u0120Turkey": 14307, "\u0120mountain": 11129, "Delete": 19238, "\u01201870": 35828, "Percent": 34878, "\u0120crank": 33852, "conditioned": 44321, "\u0120boats": 19750, "\u0120forever": 11654, "\u0120inhabited": 41477, "\u0120essential": 5667, "astom": 36769, "\u0120contrary": 10214, "\u0120newsletters": 46566, "\u0120SPECIAL": 38152, "\u0120Ari": 9533, "\u0120punitive": 29460, "\u0120Bang": 14332, "eneath": 11211, "\u0120op": 1121, "\u0120probative": 42192, "\u0120Randall": 43522, "\u0120sucking": 42296, "TTPS": 44168, "\u0120shRNA": 45237, "\u0120specially": 24443, "\u0120bl": 787, "\u0120pooled": 24462, "\u0120imposes": 35979, "\u0120abortions": 41591, "\u0120counters": 33605, "\u0120706": 48436, "\u0120sua": 20983, "\u01201944": 21930, "hdr": 26241, "\u0120immunost": 36325, "\u0120Disorders": 49566, "\u0120Lucia": 47040, "\u0120heal": 20658, "\u0120h\u00c3\u00a5": 47898, "\u0120En": 3035, "fill": 9337, "herence": 11724, "\u0120demonstrated": 5183, "\u0120nas": 13332, "\u0120instantly": 18319, "\u0120bodies": 8248, "cells": 13101, "\u0120mineral": 17160, "\u0120sist": 25560, "\u0120Raf": 28962, "\u00c3\u013d": 30041, "\u0120vow": 30130, "\u00e2\u0122\u0136\u00e2\u0122\u0136\u00e2\u0122\u0136\u00e2\u0122\u0136\u00e2\u0122\u0136\u00e2\u0122\u0136\u00e2\u0122\u0136\u00e2\u0122\u0136": 33098, "nuts": 33507, "bm": 5844, "\u0120undue": 39284, "\u0120PL": 11188, "\u0120embodied": 36080, "lay": 15328, "\u0120hat": 7856, "\u0120\u00ce\u00bb": 23871, "olateral": 43711, "\u0120Arbit": 44287, "\u0120awakening": 47158, "\u011f": 208, "oslav": 31792, "\u0120Prote": 8694, "\u0120handwriting": 47021, "\u0120shares": 10764, "\u0120antib": 4042, "\u0120earthqu": 21852, "\u0120infringement": 29157, "Canadian": 31478, "\u0120fighters": 20998, "APS": 37681, "\u0120concaten": 32147, "\u0120circumvent": 39256, "\u0120rental": 19272, "\u0120Mb": 48681, "\u012028": 3349, "\u0120amph": 29555, "\u0120sporting": 28802, "\u0120dunge": 42034, "ST": 1267, "Skip": 38241, "wat": 16526, "\u0120communism": 48709, "\u0120<!": 44342, "\u0120Lag": 15184, "\u0120Apache": 14325, "velocity": 40106, "eligible": 43851, "\u0120increase": 2572, "\u0120HE": 10197, "mlin": 38263, "\u0120ans": 7897, "oky": 44814, "\u0120Lou": 6100, "\u0120penalty": 12339, "\u0120complain": 17805, "SY": 14305, "\u0120CONCLUSION": 49950, "\u0120His": 3032, "rant": 4991, "\u0120ori": 47692, "piratory": 48208, "vist": 49906, "\u0120cloud": 9005, "RUN": 29537, "\u0120bef": 40660, "\u0120represents": 6125, "\u0120\u00e0\u00b2": 47568, "\u0120prospects": 22087, "\u0120mosquito": 22790, "Tasks": 44131, "125": 9312, "symbol": 25354, "\u0120overwhelming": 16400, ";|": 45599, "vironment": 2671, "mitt": 16855, "csv": 25265, "\u0120subclass": 35851, "preserve": 39810, "Using": 11888, "\u0120Kathleen": 45711, "firm": 49053, "\u0120crises": 39532, "358": 26422, "expr": 18689, "\u0120Herm": 19423, "ween": 855, "jor": 15188, "\u0120Antar": 31913, "\u0120Tournament": 34947, "\u00c9\u013b": 24870, "\u010a\u0120\u0120\u010a\u0120": 30324, "\u0120blond": 37559, "\u0120product": 1885, "\u0120Circ": 5819, "\"'": 27898, "IGN": 13003, "aur": 4411, "\u0120mur": 4682, "adel": 11391, "\u00e3\u0124\u00a4": 13682, "\u0120HOU": 41831, "endra": 49955, "\u0120thrill": 39314, "people": 13174, "ims": 14381, "\u0120chairman": 16782, "\u0120stuff": 5017, "\u0120musical": 12256, "164": 18467, "404": 20611, "\u0120saddle": 26759, "Song": 41296, "athom": 50092, "\u00e4\u00ba\u013d": 40951, "\u0120Something": 18190, "ptide": 18238, "\u0120deferred": 36334, "orbit": 30339, "\u0120481": 41981, "\u0120revived": 43941, "rated": 14092, "inja": 34483, "\u0120Logic": 41224, "\u0120amidst": 47323, "vette": 48359, "\u0120--------------": 16913, "\u0120usefulness": 31471, "\u0120torsion": 32266, "inence": 40156, "\u0120\u00d8\u00ae": 45232, "pharm": 24616, "\u0120fee": 9801, "\u0120marched": 31653, "asket": 20253, "\u0120team": 2285, "\u0120stripping": 42922, "MAP": 13820, "\u0120WHEN": 33181, "----------------------------------------------------------------": 2518, "\u0120LAN": 37439, "orers": 43770, "ceeding": 46943, "\u0120Men": 9730, "\u0120ABS": 45080, "\u0120tooth": 15205, "\u0120positioned": 15471, "\u0120encoun": 7702, "\u0120Names": 35876, "\u0138": 233, "\u0120billing": 33484, "orter": 5521, "\u0120disclose": 17611, "chy": 43749, "\u0120167": 22743, "\u0120insults": 44812, "\u0120Greece": 17785, "given": 28821, "\u0120art": 1445, "\u0120Fitzgerald": 41926, "\u0120awakened": 48752, "iser": 9141, "\u0120defective": 22327, "leqslant": 20866, "\u0120silencing": 29611, "\u0120educators": 37419, "\u00e3\u0123\u00a7": 6344, "Pret": 35737, "\u0120affirm": 10418, "\u0120capsules": 43642, "\u0120mitochondrial": 13227, "hops": 26001, "alex": 47510, "\u0120Thornton": 50087, "\u00f2": 174, "\u0120disappoint": 11034, "\u0120Ethical": 46665, "\u0120ventilation": 23815, "\u0120blogger": 38816, "\u0120infectious": 18023, "\u0120barrel": 15474, "\u0120reversal": 21080, "\u0120GT": 22733, "Seg": 23083, "Sher": 40337, "--------------------------------------------------": 45263, "bab": 43658, "\u0120Graph": 15941, "`": 65, "orious": 16224, "\u0120tied": 12331, "\u0120concede": 46272, "Creation": 47731, "\u0120Ir": 7854, "BUF": 36675, "\u010a\u0109\u0109\u0120": 40973, "\u0120Poisson": 24513, "Joseph": 32618, "authentic": 42996, "\u0120Orchestra": 38008, "Shell": 27589, "\u0120passer": 44997, "\u00cf": 139, "emat": 14359, "\u0120Area": 14564, "\u010f": 192, "\u0120sentido": 45174, "\u0120Sch": 3697, "\u0120hogy": 31530, "\u0120bundle": 13204, "riends": 15145, "iosity": 20367, "\u0120Evaluation": 27605, "\u0120tong": 12386, "\u00d1\u012b\u00d0\u00b5": 30594, ".$$": 4700, "\u0120gossip": 34168, "ilipp": 14134, "\u0120chop": 38419, "\u00d1\u0123\u00d0\u00ba": 10453, "upt": 18642, "\u0120glimp": 27092, "\u0120573": 49756, "kid": 49934, "\u0120gardens": 23308, "\u0120augmented": 31612, "\u0120journalists": 18680, "\u0120mt": 26301, "cemia": 27942, "\u0120pancreatic": 18404, "lege": 3792, "142": 17364, "hoc": 37806, "\u0120refrain": 35531, "\u0120:=": 3843, "\u0120marking": 26099, "\u0120relevant": 4623, "\u0120sugars": 36984, "ick": 781, "\u0120Lord": 6203, "PCs": 30632, "abs": 5375, "co": 1940, "flux": 26364, "\u0120Vit": 24198, "\u0120requirement": 8284, "apse": 8023, "\u0120vain": 23732, "\u0120kings": 25346, "\u0120deposited": 17063, "\u0120sleek": 47115, "\u0120separately": 11794, "\u0120offspring": 22167, "\u0120lineages": 34835, "\u0120Wyoming": 36582, "\u0120genital": 34020, "\u0120criticisms": 43680, "erala": 44191, "leted": 24894, "\u0120Mexican": 16234, "\u010a\u0120\u0120\u0120\u0120\u0120\u0120\u0120\u0120\u0120\u0120\u0120\u0120\u0120\u0120\u0120\u0120\u0120\u0120\u0120\u0120\u0120\u0120\u0120\u0120\u0120\u0120\u0120\u0120\u0120\u0120\u0120\u0120\u0120": 26213, "\u0120d\u00c3\u00a9c": 33677, "\u0120v\u00c3\u0143": 48546, "\u0120Kw": 48601, "\u0120Diagnosis": 48854, "\u0120controversy": 16305, "isEmpty": 41703, "ABILITY": 13845, "\u0120failing": 11741, "266": 22313, "\u0120beach": 11600, "\u0120Isaac": 29222, "\u0120gymn": 45125, "015": 10496, "Hard": 24953, "\u0120locals": 25108, "lod": 39079, "\u0120allergic": 26884, "bound": 9458, "\u0120Atlanta": 18267, "innings": 32599, "\u00d0\u00b8\u00d0\u00b5": 13080, "UH": 38450, "\u0120repertoire": 39287, "\u0120Tradition": 41283, "2001": 8971, "\u0120executed": 11407, "\u0120weakened": 33153, "\u0120distance": 4181, "\u0120Jupiter": 34434, "\u0120Bon": 11228, "\u0120Adv": 13536, "cont": 1987, "\u00e8\u012d": 38672, "\u0120competitors": 21607, "\u0120d\u00c3\u0143a": 44433, "\u0120\u00ea\u00b2": 46438, "crypt": 22243, "[*": 20197, "reflect": 22697, "268": 22913, "uter": 18696, "cibility": 33593, "'}": 13995, "Y": 58, "\u0120efficiency": 6733, "\u0120assembled": 17412, "iev": 28017, "\u0120contin": 1558, "Want": 32841, "ancer": 21955, "\u0120unfamiliar": 32139, "\u0120gathering": 16778, "\u0120Rut": 33538, "y": 90, "adjoint": 44121, "\u0120Angular": 33001, "\u0120Oper": 9704, "\u0120polym": 9871, "queue": 14487, "\u0120Nig": 18759, "^/": 27652, "\u0120Female": 26993, "\u00c3\u00b1or": 30765, "\u0120dead": 3846, "midt": 23533, "\u0120Eco": 48804, "\u0120podcast": 21110, "\u0120monoton": 41907, "Renderer": 34135, "\u0120ITS": 37879, "\u0120Waters": 34184, "\u0120FIL": 32630, "\u0120Mir": 11777, "\u00e8\u00bf": 9078, "dj": 45061, "\u0120freedoms": 45971, "\u0120chall": 3089, "/>": 4357, "\u0120artific": 37842, "ausing": 36314, "thought": 24286, "\u0120defaults": 30470, "pike": 37333, "\u0120Est": 8464, "asis": 4914, "cor": 5528, "\u0120artic": 18575, "\u0120Kennedy": 16598, "GLE": 24450, "theta": 3124, "\u0120CAT": 29782, "\u0120diastolic": 33767, "pp": 377, "Hash": 16850, "\u0120lesson": 16507, "kay": 4629, "Feature": 27260, "\u0120overest": 35039, "\u0120Sat": 11191, "Georg": 35848, "\u0120solicit": 37391, "\u0120hackers": 38287, "\u0120estates": 42183, "\u0120COMM": 15135, "\u0120H\u00c3\u00b6": 45307, "utory": 9911, "\u0120attenuated": 26513, "\u0120excessively": 45891, "\u00e5\u00ba\u0131": 49056, "actively": 39237, "HAVE": 41821, "\u0120Indonesia": 23340, "green": 11707, "\u0120popping": 42084, "insulin": 49585, "Meanwhile": 18978, "venile": 18044, "sic": 25831, "ower": 1017, "jury": 20551, "\u0120catch": 5834, "n\u00c3\u0143": 23216, "\u0120shaping": 29209, "\u0120cual": 32308, "\u0120}^{": 47260, "\u0120definitely": 7964, "\u0120162": 23094, "\u00cf\u0122\u00ce\u00b1": 42044, "ser": 2152, "\u00e6\u00b0\u0133": 46356, "zoom": 44164, "221": 20735, "\u0120quadratic": 21396, "amento": 12263, "\u0120bow": 6026, "\u0120overlook": 20621, "icating": 30782, "\u0120filter": 5806, "bet": 9900, "CLC": 23839, "\u0120sounded": 17132, "\u0120column": 5084, "\u0120Garn": 48855, "dc": 12352, "\u0120glut": 13627, "ohn": 2116, "acement": 3913, "addy": 15242, "\u0120purely": 15846, "ari": 1792, "\u0120industries": 17057, "\u0120cyber": 20239, "Federal": 35535, "onance": 47872, "\u0120depend": 3469, "term": 3945, "\u0120Congress": 5759, "Photos": 46570, "\u0120therapies": 17484, "derer": 21052, "\u0120shuttle": 30201, "\u0120jars": 40609, "\u0120prejudiced": 39124, "\u0120saves": 26866, "243": 23525, "\u0120ail": 44244, "subseteq": 11861, "\u0120dendritic": 30279, "\u0120advocating": 43243, "FOR": 9675, "\u0120running": 3515, "\u0120Arms": 41481, "\u0120Circle": 29572, "orrow": 5725, "ND": 6577, "\u0120intensities": 26112, "\u0120Estate": 22301, "\u0120cries": 31791, "cross": 16599, "\u00d0\u00b5\u00d0\u00b6": 30826, "\u0120saliv": 36203, "concat": 35707, "\u0120cement": 19165, "ERV": 11710, "ester": 9358, "\u0120Returns": 16548, "ac": 317, "\u0120turkey": 34112, "string": 2703, "fc": 12964, "xC": 31932, "\u0120356": 37071, "2011": 7330, "\u0120visceral": 37392, "\u0120programmers": 39335, "lam": 5247, "\u0120Ultr": 49995, "Circ": 27610, "Good": 8620, "\u0120Arc": 26476, "\u0120DPP": 43895, "\u0120cub": 12966, ",[@": 22372, "<=": 44072, "\u0120nature": 3753, "gerald": 39277, "\u0120vest": 20229, "\u0120courtroom": 34496, "\u0120shortened": 36439, "Appellees": 46558, "\u0120divis": 35076, "\u0120Handbook": 42958, "\u0120aide": 35200, "Univers": 44920, "\u0120\u00e2\u0136": 22760, "Object": 4241, "\u0120epidem": 12495, "ho": 1689, "PM": 9122, "\u0120JOIN": 27253, "=#": 18350, "\u0120bab": 5366, "\u0120exposing": 28248, "$_{\\": 30148, "\u0120unable": 7591, "\u0120Oak": 17026, "\u0120repression": 32070, "INVALID": 35557, "\u0120documentation": 10097, "\u0120sampled": 19958, "\u0120Echo": 40443, "\u0120certainly": 5604, "CRO": 36228, "\u0120martial": 29731, "\u0120concern": 4468, "\u0120bacteria": 9574, "Really": 22582, "\u0120repairs": 25931, "\u0120...\"": 29001, "intensity": 38172, "\u0120Spe": 8598, "\u0120resh": 40206, "\u0120Tet": 37822, "\u0120contaminants": 36306, "ave": 1123, "\u0120dipl": 11833, "apons": 40127, "\u0120deliberately": 21547, "\u0120Lem": 6935, "\u0120Indians": 16869, "labels": 31294, "\u0120tactical": 31532, "\u0120acquaintance": 38153, "\u0120humour": 38452, "\u00e6\u013d\u00b8": 47008, "RAM": 37231, "\u0120visas": 48175, "le": 282, "rito": 36902, "\u0120intrigued": 48515, "Guy": 46963, "icin": 24754, "\u0120Generated": 41415, "\u0120apache": 43449, "\u0120Gil": 14383, "\u0120Alex": 6539, "\u0120peripheral": 10844, "\u0120affiliate": 26582, "thread": 11972, "\\|_": 28876, "\u0120implies": 8018, "\u0120Mickey": 44065, "\u0120Emerson": 49243, "\u0120destination": 12095, "IDE": 15400, "\u0120organiz": 20573, "\u0120fa": 4195, "aus": 666, "Rose": 37070, "\u0120differentiating": 43073, "\u0120select": 3609, "\u0120emergencies": 46996, "\u0120French": 5112, "\u0120acquire": 16270, "othelium": 41259, "ocal": 3100, "\u0120Ply": 41659, "doctor": 38272, "\u0120toddler": 50245, "\u0120Claude": 39107, "arks": 7969, "\u0120mandatory": 17396, "\u0120visits": 12941, "\u0120hygiene": 32931, "biology": 36415, "ophagy": 20728, "iaz": 13306, "\u0120fight": 3819, "\u0120titles": 14505, "hao": 31035, "\u0120dyes": 36348, "hee": 31622, "\u0120kar": 46247, "\u0120instruction": 9775, "\u0120wide": 4618, "ry": 610, "\u0120della": 14804, "gate": 15353, "\u0120violating": 26554, "\u0120openness": 47418, "formaldehyde": 47236, "\u0120laid": 10090, "\u0120occurred": 5866, "\u0120Sebast": 29953, "\u0120Mark": 4744, "umina": 25029, "quet": 21118, "\u0120transformer": 39707, "\u0120Democrats": 10823, "Upper": 34252, "\u0120\u00e0\u00a4\u0137": 21433, "tree": 12588, "Radio": 30045, "astery": 29305, "\u0120hormone": 14689, "\u0120branched": 36690, "\u0120disag": 10009, "\u0120sie": 14266, "LEV": 25684, "\u0120Pa": 3643, "\u0120Solve": 7593, "Point": 8682, "\u0120exemption": 25744, "\u0120develops": 24357, "arte": 26228, "Volume": 28968, "bench": 31591, "\u0120conversion": 9436, "\u0120estoppel": 31658, "Execution": 35449, "mixed": 37340, "\u0120beforehand": 38565, "arsh": 7894, "\u0120seroton": 30894, "\u0120morphology": 15448, "\u0120cafe": 40847, "Rx": 40950, "\u0120binomial": 47585, "\u0120skill": 10861, "\u00ef\u00bf\u00bd": 21478, "\u0120describ": 1800, "\u0120Its": 7850, "Light": 19258, "\u0120Ur": 15520, "\u0120Harrison": 23698, "\u0120Rout": 30852, "brid": 7807, "irez": 40410, "\u0120Exposure": 44560, "though": 2004, "\u0120MO": 14789, "plets": 28041, "\u0120manifolds": 28236, "\u0120troop": 34883, "\u0120upt": 11776, "pective": 4911, "\u0120fog": 23010, "\u0120Appeal": 19160, "Board": 32994, "\u0120Utt": 49740, "\u00e4\u00ba\u00a4": 50037, "\u0120Set": 6618, "omology": 26929, "ch\u00c3\u00a9": 32716, "\u0120Mell": 40487, "\u0120insulting": 50124, "\u0120parsing": 29072, "\u0120shrugged": 22638, "law": 6937, "egin": 1956, "Third": 25110, "amount": 19581, "\u0120Negative": 32725, "facing": 33681, "],[": 34418, "\u0120Ca": 6047, "widehat": 8752, "\u0120homework": 32110, "\u0120torus": 32621, "\u0120pellets": 38326, "bags": 46728, "\u0120Hamb": 31405, "\u0120227": 26472, "\u0120press": 2315, "\u0120Combat": 46750, "\u0120bolt": 22491, "tum": 48556, "vier": 40714, "\u0120dif": 722, "\u0120gets": 4850, "\u0120menstrual": 46182, "\u0120drank": 27215, "\u0120waive": 40872, "\u0120turnout": 46430, "\u0120responses": 6128, "\u0120game": 2165, "Machine": 32192, "CTION": 8286, "claimed": 13578, "PROTO": 32573, "\u0120fading": 33088, "\u0120immer": 37643, "\u0120spirituality": 50151, "\u0120strangely": 38612, "-----------": 9998, "uesday": 7131, "\u0120recurs": 17910, "\u0120original": 3236, "umerable": 25552, "\u0120336": 34128, "otoxicity": 35767, "hd": 13838, "cale": 25912, "\u0120thats": 28763, "~:": 44577, "\u00bf\u00bd": 19675, "\u0120conformity": 46073, "atu": 37577, "\u0120Cass": 16211, "OWER": 27306, "\u0120Rent": 44485, "\u0120CCA": 47820, "almost": 25855, "\u0120Must": 19680, "icity": 5755, "\u0120supern": 13708, "herichia": 31977, "oca": 14799, "\u0120polyethylene": 37352, "GPU": 45915, "\u0120idiopathic": 46075, "\u0120vertically": 28446, "\u0120Crawford": 33330, "\u0120fidelity": 32422, "\u0120441": 40657, "\u0120crawled": 46944, "\u0120courage": 15838, "\u00e4\u00ba\u0130": 30329, "\u0120concluded": 7945, "047": 27706, "\u0120sphere": 15269, "\u0120Village": 20186, "\u0120rece": 1645, "\u0120necessary": 3309, "\u0120abnormal": 10969, "acon": 11660, "\u0120cheek": 19723, "\u0120fractures": 22877, "\u0120simulate": 26065, "\u0120chromosomal": 32795, "WITH": 24906, "\u0120flashing": 36070, "\u0120ch": 448, "\u0120defects": 12834, "queous": 16993, "\u0120Rs": 22504, "\u0120phr": 9839, "Syscall": 41446, "\u0120syringe": 40674, "CHANT": 19970, "\u0120redirect": 21124, "cad": 21192, "\u0120\u00eb": 10608, "\u0120HER": 20467, "\u0120announcing": 30849, "journals": 34859, "\u0120visitor": 23218, "whose": 39374, ")[@": 43189, "TU": 45335, "}{": 1217, "\u00e3\u0124\u012a": 15275, "\u0120Fuck": 49142, "adding": 8052, "\u0120sig": 9788, "\u0120Baptist": 30021, "Ty": 31742, "}$).": 34942, "\u0120pathogens": 19788, "\u0120Wizard": 45076, "Cli": 49452, "\u0120construction": 5140, "\u0120Todd": 24010, "\u0120TFT": 44202, "\u0120viewers": 20985, "\u01201937": 27598, "Tools": 32953, "\u0120titled": 18879, "\u0120palp": 36385, "\u0120\u00d0\u0134": 21615, "\u0120bet": 701, "\u0120Many": 6676, "\u0120Bulgar": 31519, "MODE": 18129, "\u0120Pompe": 40868, "ook": 645, "\u0120Product": 13126, "\u0120enumerated": 41671, "\u0120destruct": 21181, "\u0120Rem": 6235, "Has": 15413, "KR": 24989, "\u0120longing": 40484, "\u0120exceed": 8268, "\u0120relapse": 28524, "\u0120HCV": 22899, "\u0120commutative": 33796, "\u0120Pok\u00c3\u00a9mon": 41979, "\u0120chemotherapy": 13215, "\u0120miscon": 44890, "istle": 19300, "\u0120Cert": 19937, "\u00d0\u00b0\u00d1\u0129": 46800, "\u0120water": 1824, "mozilla": 45189, "\u0120Deutsch": 42141, "ociety": 4078, "\u0120trajectories": 24102, "fere": 16957, "\u0120607": 47555, "hn": 13107, "\u00e6\u013e\u00ac": 18957, "------------------------------": 28693, "\u0120Volunte": 39067, "rapeut": 7439, "aped": 7760, "\u0120rockets": 39647, "HI": 18469, "\u00e2\u0122\u013f?": 43820, "aul": 40186, "\u0120twice": 7019, "cule": 11047, "\u0120psychologists": 46008, "mount": 16285, "Event": 5949, "Header": 12618, "\u0120among": 2190, "behavior": 38631, "ME": 5288, "\u01202016": 4022, "CIT": 9190, "\u0120Christopher": 19717, "\u0120shud": 35928, "ne": 570, "\u0120psychiatrist": 39738, "pires": 31659, "-%": 42910, "\u00cf\u0126\u00ce\u00ac": 33627, "\u0120ye": 9094, "eding": 7022, "widget": 14778, "ienna": 22890, "draw": 6553, "\u0120babies": 18740, "\u00cf\u0126\u00ce\u00b9\u00ce\u00ba": 22206, "\u0120wandering": 31590, "sciously": 43386, "195": 17726, "stat": 8766, "ISA": 12988, "\u0120Rptr": 35998, "i\u00c3\u00a7\u00c3\u00a3o": 43362, "\u0120316": 33152, "Testing": 38571, "552": 39338, "\u0120enjo": 23919, "ophila": 25400, "\u0120maneuver": 32183, "\u0120Interaction": 48281, "Happy": 33298, "\u0120cassette": 31392, "Appro": 30305, "Bitmap": 31325, "quez": 27680, "\u0120GPIO": 37362, "\u0120liabilities": 37729, "\u0120drone": 28141, "\u0120(\u00e2\u012a\u0134": 18239, "atories": 15829, "\u00e2\u012a\u00bc": 40673, "ichever": 33780, "\u0120stability": 7882, "\u0120doing": 2509, "Future": 30724, "ylation": 16499, "\u0120directive": 26777, "\u0120slash": 41048, "etable": 48453, "P": 49, "%(": 46217, "\u0120decoding": 28490, "\u0120jaw": 21065, "cession": 22979, "Bring": 35344, "\u0120repeal": 35682, "satellite": 46079, "\u0120KY": 47500, "ply": 2881, "\u0120spat": 7046, "\u0120Uncle": 23894, "\u00c3\u00bcss": 33880, "\u0120argument": 4154, "\u0120siblings": 26379, "stable": 11351, "\u012000": 7449, "\u0120Vel": 22484, "\u0120just": 816, "\u0120claim": 1750, "\u0120Scholar": 42354, "======================": 17863, "\u0120unders": 17433, "\u0120mixing": 12480, "remote": 28213, "Developer": 45682, "vp": 29035, "\u0120render": 8600, "\u0120nec": 15136, "\u0120crept": 43801, "illy": 9352, "\u0120CAC": 48187, "anno": 23099, "))**(-": 28128, "cell": 3992, "\u0120medium": 4646, "\u0120hearts": 15060, "genes": 22422, "eras": 11987, "obacteria": 29951, "\u0120Output": 24882, "\u0120Nixon": 26089, "\u0120jump": 6923, "\u0120juror": 32519, "STRU": 33284, "idemargin": 8865, "\u0120supper": 33637, "laughter": 36425, "gio": 40635, "toolt": 39389, "\u0120\u00cf\u0125": 9529, "vil": 33745, "\u0120stale": 46745, "\u0120\u00ce\u00b5\u00cf\u0122": 29495, "\u0120HCl": 47808, "\u0120Rodgers": 41678, "\u0120Cemetery": 36839, "\u0120end": 990, "\u0120clicks": 31317, "44": 2031, "\u0120\u00ce\u00bcL": 28375, "tcp": 34133, "azer": 24613, "at": 255, "\u0120Presidential": 37029, "Fill": 30296, "ister": 2131, "dB": 33658, "\u0120world": 1533, "\u0120ket": 23792, "\u0120BAR": 43793, "ability": 1430, "\u0120careful": 10182, "ogens": 14627, "split": 9148, "backslash": 27054, "\u0120Sequence": 31583, "\u0120m\u00c3\u00a5ste": 42499, "herche": 48571, "\u0120hacia": 49774, "\u0120-----------": 14796, "\u0120trib": 9546, "\u0120choices": 10165, "review": 15337, "\u0120guilty": 8106, "cibly": 43187, "Don": 5498, "culate": 3699, "\u0120};": 7734, "\u0120polynom": 10661, "294": 22858, "\u0120\u00d0\u00b7\u00d0\u00b0\u00d0\u00bf": 40769, "\u0120encoding": 9706, "\u0120Lane": 19051, "\u0120denied": 5868, "\u0120neglig": 9768, "\u00e5\u0143\u0139": 30886, "\u00e6\u0123\u00af": 43136, "serving": 46343, "\u0120concentr": 5078, "seud": 8270, "\u0120greeted": 29919, "othes": 4521, "\u0120tam": 21526, "\u0120psycho": 30543, "\u0120Questionnaire": 38536, "part": 2003, "avg": 42921, "\u0120LN": 40850, "\u0120restitution": 32551, "}}-\\": 42637, "18": 1093, "\u0120protection": 6055, "Attribute": 11756, "\u0120automobile": 19744, "\u0120undertaken": 20023, "\u0120kernel": 10295, "ine": 460, "\u0120happily": 26174, "events": 20969, "720": 26813, "\u0120340": 28528, "\u0120solvents": 32281, "1038": 43224, "\u0120Season": 18605, "neck": 34936, "\u0120ending": 12365, "\u0120intracellular": 14036, "\u0120siege": 33758, "\u0120Belle": 31596, "\u0120amounts": 8322, "\u0120eds": 35779, "\u0120makes": 2789, "\u0120baking": 17326, "ilarly": 6241, "\u0120registered": 9856, "\u0120Ap": 4276, "OOGLE": 29367, "INESS": 37008, "}}}}\\": 39272, "\u0120upload": 12119, "\u0120LM": 25840, "\u0120progression": 10005, ">.": 13208, "\u0120formidable": 36418, "prus": 41423, "~^": 39303, "\u0120coatings": 33734, "\u0120rapp": 18737, "throw": 22408, "ussy": 25646, "\u0120connecting": 12873, "\u0120peculiar": 19532, "610": 38599, "228": 20694, "\u0120rights": 3570, "ionale": 44365, "\u0120Som": 27516, "\u0120kun": 23382, "roll": 1811, "cert": 15004, "root": 9723, "\u0120recycl": 18490, "\u0120IO": 19698, "eston": 25103, "ideos": 31686, "\u0120Kenny": 39370, "\u0120physics": 12057, "\u0120CCT": 39794, "dala": 40931, "\u0120Muslim": 8797, "\u0120mark": 1616, "\u0120glimps": 50216, "adas": 15333, "AGE": 7669, "alous": 19357, "\u0120penn": 33945, "&": 7, "gc": 23654, "\u0120197": 25336, "\u0120Great": 6495, "cen": 33967, "\u0120immun": 2984, "avascript": 9874, "378": 25139, "voir": 37393, "vf": 39985, "Img": 40148, "\u00d7\u0137\u00d7\u00aa": 36894, "\u0120Latin": 12760, "\u0120sr": 49975, "\u0120converse": 42810, "\u0120Zam": 50017, "\u0120notation": 14951, "\u0120AUC": 30728, "\u0120psychologist": 35085, "hard": 10984, "ropolis": 37489, "sea": 15681, "License": 17736, "\u0120HC": 20663, "\u010a\u010a\u0120\u0120\u0120\u0120\u0120\u0120\u0120\u0120\u0120\u0120\u0120\u0120\u0120": 31072, "\u0120enthus": 12754, "0020": 20515, "\u0120Calif": 34280, "\u0120instruments": 13225, "\u0120compost": 40910, "\u0120peoples": 22132, "code": 3211, "prov": 11404, "icks": 5519, "Bean": 20317, "Instead": 20576, "log": 2808, "\u0120tens": 7114, "\u0120zoom": 21282, "\u00c2\u0142\u010a": 21304, "\u0120wool": 25818, "\u0120Wildlife": 32760, "\u0120GitHub": 34644, "\u0120Patri": 21740, "\u0120facebook": 36979, "\u0120blankets": 40144, "\u0120Tibetan": 41592, "\u0120AML": 34653, "\u0120Lake": 9396, "orbent": 45146, "ieron": 34314, "\u0120galax": 7595, "\u0120parametric": 36833, "alin": 19337, ")],": 41256, "\u0120stabilizing": 41427, "ovial": 41476, "\u0120culprit": 43412, "Stop": 15021, "legate": 17674, "istical": 11230, "\u010d\u010a\u010d\u010a\u0120\u0120\u0120\u0120\u0120\u0120\u0120": 23883, "Abbreviations": 35558, "\u0120desire": 8327, "\u0120stack": 8031, "urbed": 16193, "\u0120please": 4496, "\u0120ur": 2936, "\u0120until": 1919, "),$$": 16489, "\u0120Moz": 24872, "\u0120infants": 15330, "\u0120prevalent": 21270, "izards": 35426, "\u0120yogurt": 39191, "\u0120Builder": 42489, "\u0120Regular": 35116, "uned": 37437, "Days": 41430, "\u00ec\u012d": 35169, "\u0120lam": 16519, "573": 43924, "\u0120eyeb": 21182, "}\\;": 32453, "coins": 38279, "maximum": 36116, "ili": 3093, "\u0120Isabel": 36139, "\u0120rapid": 5233, "carbox": 38402, "\u0120Stewart": 19498, "\u0120moet": 42397, "lightly": 46711, "\\^[-": 47686, "\u00c3\u0143v": 49099, "odom": 49576, "rror": 37369, "\u00e5\u00bc\u0122": 35930, "\u00cf\u0137": 50020, "\u0120Bold": 45596, "serial": 25836, "\\}\\": 22092, "iek": 36332, "Links": 44225, "dong": 45689, "idently": 45996, "\u0120limit": 2701, "PUT": 16143, "\u0120tactics": 21041, "\u0120pear": 27887, "annie": 43233, "\u0120oligonucleotide": 46383, "\u0120CRM": 47428, "\u0120US": 1982, "\u0120tires": 26429, "\u0120recol": 28433, "Derived": 48300, "fficients": 9923, "\u0120Predict": 48243, "water": 7779, "\u0120DOM": 25586, "095": 37684, "\u0120Indones": 18457, "33": 1610, "\u0120apple": 19126, "075": 29631, "shut": 43780, "ocarcinoma": 25554, "dead": 26928, "\u0120\\[[@": 1254, "=\"../../": 12227, "\u0120j\u00c3\u00a1": 36252, "yla": 46877, "\u0120'.": 29996, "\u0120Mus": 4878, "\u0120Employees": 41166, "\u0120\u00c3\u00a9gal": 41865, "v\u00c3\u00a4": 21380, "orphism": 28506, "\u0120fever": 15198, "\u0120contacts": 12716, "\u0120imperative": 30048, "\u0120jej": 44446, "ankton": 41484, "Where": 7161, "\u0120Paper": 21897, "Cfg": 40822, "wo": 680, "integer": 18743, "\u0120ventral": 29866, "~,": 9854, "('/": 28199, "ggle": 27920, "\u0120shutting": 40806, "geon": 32719, "anian": 44316, "\u0120triggers": 23785, "\u0120INTER": 22508, "care": 6672, "\u0120sax": 44392, "response": 10927, "\u0120ovar": 16119, "\u0120crosses": 25808, "907": 29249, "\u0120Cells": 15993, "]^,": 18413, "\u0120rotational": 22090, "\u0120http": 3944, "\u0120Muk": 40465, "\u0120ecl": 42267, "\u0120Government": 7295, "\u0120submissions": 35103, "\u0120Ni": 15753, "\u0120abdomen": 30781, "\u0120morphine": 37464, "\u0120Office": 7454, "\u0120wiping": 46945, "white": 11300, "\u0120Rab": 21385, "\u0120meer": 42964, "\u0120Cl": 1639, "]\\]": 1184, "\u00bf": 125, "hell": 14440, "\u0120und": 3807, "\u0120replica": 36804, "\u0120dove": 38688, "\u0120parece": 49267, "affe": 23510, "\u0120Curtis": 32324, "ortunately": 6761, "\u0120Meat": 47696, "\u0120burial": 33672, "\u0120gives": 4245, "'},": 35450, "\u0120Chief": 9060, "Wire": 31889, "\u0120Vis": 9773, "\u0120Zone": 24380, "\u0120ss": 23524, "Between": 28343, "\u0120instant": 8164, "\u0120malignant": 17566, "\u0120preg": 28376, "\u0120eminent": 43609, "rendan": 44815, "PT": 5736, "Absolutely": 48462, "Write": 10639, "\u0120averaged": 17522, "\u0120experienced": 7407, "\u0120strangers": 26636, "\u0120tomato": 24108, "\u0120Hillary": 18175, "\u0120knight": 30605, "OTT": 31219, "\u0120gh": 32798, "\u0120\u00c8\u013bi": 27487, "\u0120quantum": 6318, "guards": 36259, "\u0120Museum": 11032, "\u00c3\u012b": 17483, "uit": 2338, "Tables": 29153, "\u0120fanc": 43126, "\u0120pathogenic": 23551, "\u0120provincial": 25432, "\u0120stru": 4630, "\u0120Chapman": 37108, "UInt": 39136, "\u0120stip": 18798, "\u0120Corporate": 40254, "\u0120don": 1053, "\u0120Hearing": 38308, "Beyond": 37188, "PCI": 38941, "\u00e7\u0138": 39393, "vm": 11618, "ng": 1251, "1016": 37524, "\u0120phenotypes": 21903, "ICT": 30152, "ordinate": 18293, "ellen": 22220, "particular": 50077, "\u0120Dust": 35540, "\u0120Lov": 34411, "ctrl": 24845, "**](#": 37786, "\u00d0\u00b8": 1389, "wang": 33317, "oku": 23909, "\u0120186": 25384, "process": 7404, "\u0120Index": 13193, "BG": 21279, "Suppose": 4140, "\u010a\u0109\u0109\u0109\u0109\u0109": 7308, "had": 10178, "\u0120rgba": 32267, "Endpoint": 36997, "Assuming": 39313, "\u0120cricket": 25154, "\u0120Catal": 17684, "Perfect": 47638, "\u0120consc": 7354, "\u00e3\u0123\u0142": 13973, "\u0120villa": 44760, "\u0120Victor": 9964, "\u0120Aer": 37785, "ikes": 13972, "\u0120etching": 29411, "\u0120preseason": 46667, "\u0120357": 34506, "\u0120po": 2963, "\u0120strateg": 3483, "\u0120Just": 3771, "\u0120Arch": 7984, "\u01201930": 17437, "\u0120Owner": 43747, "\u0120driveway": 35664, "Extension": 24057, "quo": 21343, "\u0120Political": 23132, "mag": 20752, "\u0120numerically": 27184, "ertained": 27448, "\u0120payment": 7830, "aline": 16373, "\u0120Edd": 20709, "496": 30693, "\u0120drinks": 17208, "Hist": 32736, "MAR": 35938, "Pipeline": 47469, "\u0120compliance": 10276, "\u0120cytok": 10815, "\u0120Rachel": 22739, "blocks": 27027, "\u0120Biological": 35210, "\u0120Enum": 46222, "\u0120Frontier": 48688, "\u0120444": 37688, "\u0120Cho": 13999, "\u0120\u0120\u0120\u0120\u0120\u0120\u0120\u0120\u0120\u0120\u0120\u0120\u0120\u0120\u0120\u0120\u0120\u0120\u0120\u0120\u0120\u0120\u0120\u0120\u0120\u0120\u0120\u0120\u0120\u0120\u0120\u0120\u0120\u0120\u0120\u0120\u0120\u0120\u0120\u0120\u0120\u0120\u0120\u0120\u0120\u0120\u0120\u0120\u0120\u0120\u0120\u0120": 22177, "Set": 4531, "difficult": 38157, "\u0120insufficient": 12497, "\u0120compromising": 48637, "\u0120renowned": 30101, "agram": 12068, "By": 3463, "\u0120critic": 7291, "Rel": 9112, "\u0120entering": 11734, "\u0120colours": 22290, "\u0120tapped": 32033, "\u0120anisot": 19729, "\u0120phylogenetic": 23165, "\u0120obtain": 4044, "\u0120launch": 8027, "\u0120$$": 3318, "\u0120matching": 11038, "\u0120prostate": 14527, "\u00e2\u0122\u013b.": 15385, "\u0120damp": 16109, "\u0120creep": 25461, "\u0120Tit": 27897, "\u0120envelope": 17329, "\u0120Shield": 29109, "kov": 17131, "\u0120CODE": 40447, "\u0120BRCA": 40624, "aked": 6840, "olphins": 35706, "\u0120sempre": 42722, "\u0120europ\u00c3\u00a9enne": 46143, "\u0120injection": 8829, "121": 15144, "\u0120Well": 6089, "\u0120DON": 24694, "FILTER": 44624, "\u0120iteration": 19502, "\u0120Kindle": 43252, "\u0120Videos": 46165, "\u00e0\u00b8\u0136": 35071, "elves": 45624, "lesssim": 20089, "ived": 1567, "Prov": 11509, "1934": 42362, "DIS": 15857, "\u0120uit": 26053, "emetery": 22120, "unted": 16218, "adh": 33233, "\u00d0\u00b5": 1207, "\u0120Markets": 47675, "SDK": 45007, "\u0120emailed": 48325, "\u00d6": 146, "\"-": 40648, "symmetric": 39617, "]--[@": 7254, "\u0120Technologies": 20174, "\u0120HPLC": 32230, "\u0120beverages": 35115, "scious": 14529, "\u0120XXX": 29373, "\u0120Fuj": 38036, "selves": 3049, "aryl": 31271, "\u0120bright": 6627, "\u0120chlorine": 42488, "Phi": 6065, "\u0120adorable": 42742, "W": 56, "\u0120sinister": 46189, "ethoxy": 45873, "\u0120scarf": 46934, "eat": 48497, "\u0120KK": 49606, "ostatin": 49897, "ventions": 9637, "prob": 22275, "\u0120sper": 14413, "?>": 28391, "\u0120persistent": 15663, "\u00d8\u012e": 26969, "\u00d1\u012b": 11514, "\u0120musicians": 20230, "\u0120Chester": 37228, "layout": 7916, "\u0120screamed": 29273, "\u0120widths": 34414, "\u0120avoiding": 17816, "\u0120findViewById": 48687, ");\\": 45958, "\u0120specim": 10248, "\u0120///<": 46880, "t": 85, "283": 28933, "ultan": 34049, "\u0120prominent": 11906, "\u0120disappearance": 31852, "\u0120correlation": 5921, "\u0120possible": 1896, "\u0120rectal": 37263, "\u00e6\u00b2\u00a1": 46049, "sexual": 32813, "category": 14267, "\u0120travellers": 43817, "\u0120wealthy": 20193, "gium": 20811, "etc": 14069, "\u0120DEF": 34428, "\u0120gigantic": 41490, "....\"": 24554, "\u0120athlete": 27799, "\u0120Belgian": 31351, "\u0120clicked": 25363, "\u012032": 4567, "\u0120Testament": 26529, "\u0120Haven": 28093, "cue": 30940, "\u0120Individual": 21330, "\u0120DEBUG": 40374, "\u0120Crom": 45010, "\u0120Mar": 2398, "396": 24698, "files": 11242, "\u0120whistle": 27792, "\u0120Joshua": 29092, "\u0120screws": 31648, "\u0120offerings": 27278, "Excel": 43062, "dep": 7955, "\u0120reven": 15008, "\u0120Lex": 24766, "\u0120synaptic": 21066, "Python": 27363, "]{}\\_": 45382, "\u0120nationality": 47166, "\u00e6\u0142\u0129": 42292, "die": 20875, "\u0120reform": 8460, "\u0120bubble": 19251, "\u0120calculations": 10426, "\u0120nob": 39046, "Gab": 46565, "].": 1570, "ophil": 15019, "nod": 41933, "\u0120\u0120\u0120\u0120\u0120": 674, "\u0120York": 2816, "gels": 43130, "ain": 404, "...'": 29678, "culos": 36828, "  ": 50276, "]{}\\^": 33805, "perl": 43511, "\u0120eso": 36876, "\u0120concept": 4473, "\u0120stimuli": 15374, "\u0120lim": 1579, "2019": 9638, "aley": 25406, "\u0120leaks": 31693, "\u0120amelior": 35977, "^{*": 17840, "\u0120rebut": 30080, "rients": 11539, "\u0120Fermi": 22499, "\u0120bacon": 29855, "\u0120cal": 1724, "plastic": 32502, "\u0120optimization": 13757, "rowing": 18639, "rivol": 33200, "assador": 18692, "\u0120Apparently": 25998, "\u0120prints": 22774, "\u00e9\u0125": 24299, "overrightarrow": 45195, "\u0120cancelled": 26224, "\u00d5": 145, "\u0120\u00d0\u00ba\u00d0\u00be\u00d0\u00bc": 40698, "\u0120Shirley": 44339, "\u00e0\u00b8\u00a1": 27010, "\u0120immunological": 40469, "opath": 11036, "\u0120deeply": 11617, "\u0120teammate": 43827, "Nat": 45721, "\u00e9\u0136": 39915, "omonas": 31911, "\u0120cutoff": 23046, "\u0120sentencing": 14625, "////": 2917, "\u0120inspector": 34771, "\u0120139": 15470, "\u0120testis": 49034, "\u0120remembering": 29055, "iles": 3205, "\u0120Hash": 22272, "\u0120Het": 33100, "\u0120vertebral": 39031, "\u0120Vegas": 18088, "\u0120proofs": 27947, "\u0120Android": 10469, "\u00e8\u00b7": 31811, "\u0120sad": 8872, "\u0120chart": 8326, "abeth": 10881, "\u0120ng": 9782, "\u0120QR": 47173, "Proof": 19545, "IFN": 39679, "Indust": 47219, "\u00e4\u00bd\u0142": 24553, "didn": 48879, "\u0120God": 2656, "unto": 35106, "inator": 12915, "Profile": 23912, "SHIFT": 28864, "\u0120eating": 9123, "umin": 6059, "AUT": 32364, "\u0120GPL": 32506, "fast": 7957, "lin": 3642, "\u0120Vul": 34820, "\u0120umbilical": 47224, "\u0120158": 22287, "\u0120land": 2659, "Variant": 40734, "DOC": 27984, "737": 46525, "\u0120shock": 6966, "reading": 24042, "\u0120Constitutional": 39722, "Flash": 45327, "governmental": 47557, "ouched": 27151, "\u0120LSD": 47803, "\u00e6\u0141": 26974, "\u0120directional": 36799, "rob": 18848, "\u0120Conclusions": 35329, "475": 30176, "Association": 28521, "Cookie": 40461, "\u0120glared": 47278, "1947": 41858, "icket": 21315, "\u0120suspected": 13282, "\u0120billions": 25866, "\u0120sentenced": 16290, "\u00d0\u00a3": 48773, "kinase": 49278, "\u0120wired": 36427, "\u0120Leone": 49771, "\u0120Excel": 24252, "Films": 32159, "\u0120knows": 6057, "RENT": 39244, "\u0120quartz": 40664, "prot": 10075, "ul": 335, "\u0120Thailand": 23174, "\u0120taxonomic": 43653, "oretic": 30325, "\u0120sliding": 20661, "\u0120unw": 10357, "\u0120SEC": 19115, "\u0120mighty": 25427, "\u0120KCl": 46664, "\u0120donated": 26837, "_{*": 47206, "\u0120Desktop": 45946, "^*$,": 49538, "\u00d1\u0127": 6715, "\u0120patter": 43181, "ige": 9236, "lickr": 44599, "vet": 14763, "\u013d": 238, "]\\]).": 34494, "ence": 566, "\u0120neigh": 4381, "wife": 27505, "\u0120Silicon": 34413, "\u0120shots": 13768, "ogan": 19356, "\u0120utilizes": 29820, "\u0120educate": 31150, "isting": 9020, "\u0120sounds": 7835, "compan": 32729, "\u0120members": 2758, "tab": 8476, "\u0120interpre": 18396, "'_": 12721, "essee": 15031, "Sch": 10859, "\u0120winner": 13688, "\u0120repos": 13929, "347": 23568, "\\\\\\\\": 36038, "\u0120dex": 27625, "\u0120graduated": 20981, "KN": 25227, "\u00e0\u00a6\u00b0": 38221, "ulse": 15748, "0000000": 23113, "\u0120roar": 40257, "\u0120disguise": 40646, "Analy": 42768, "arette": 17395, "\u0120Boot": 24146, "Ult": 33447, "atus": 3144, "\u0120Boulevard": 38715, "\u0120woke": 23686, "PSS": 21851, "\u0120------------": 6557, "\u0120eth": 5105, "\u0120replicate": 25464, "\u00e3\u0125\u00b3\u00e3\u0125": 25558, "kp": 50120, "stained": 31975, "\u0120strengthened": 34615, "Redirect": 50053, "\u0120fool": 11213, "TLS": 29699, "inese": 5187, "\u0120vacc": 7062, "\u0120habe": 44836, "\u0120lesions": 10429, "\u0120Best": 9567, "\u0120flaps": 49910, "Micro": 25810, "mail": 5719, "ISTS": 44237, "\u0120Anton": 12705, "\u0120jour": 7204, "',": 1383, "\u0120landsc": 28108, "\u0120kommer": 33045, "\u0120proposing": 36636, "\u010a\u010a\u0120\u0120\u0120\u0120\u0120\u0120\u0120\u0120\u0120\u0120\u0120": 6066, "osa": 6859, "encoder": 36465, "IO": 6527, "\u0120Jeffrey": 30274, "${": 8626, "\u0120430": 34068, "call": 4065, "\u0120spa": 39072, ",}": 46609, "\u0120Polic": 47670, "\u0120enforceable": 48840, "900": 18104, "ernate": 25028, "\u01201910": 31707, "Authentication": 38305, "\u0120Moran": 50046, "\u0120utf": 40502, "\u0120Then": 2635, "\u0120\u00ce\u00b3": 13850, "\u0120pasta": 27725, "cycles": 37360, "\u0120thor": 9062, "ical": 474, "\u0120redistribute": 25529, "World": 14947, "\u00c3\u00aam": 45926, "\u0120Wednesday": 8330, "\u0120fertile": 38681, "\u0120Jeff": 9069, "aste": 4740, "\u0120intrinsic": 15276, "\u0120Billy": 19669, "\u0120entrance": 13032, "\u0120disreg": 20398, "\u0120incredibly": 16088, "\u0120reagent": 25519, "\u0120Cornwall": 44677, "\u0120sex": 2825, "quer": 14056, "\u0120HAD": 45236, "\u0120denounced": 48836, "\u0120canoe": 47884, "1993": 13549, "\u0120memorable": 27795, "\u0120shoes": 12682, "\u0120corrid": 20608, "\u0120surrounded": 13750, "\u012060": 3925, "\u0120relieve": 29522, "\u0120noc": 40124, "serve": 40875, "\u0120recognizable": 43455, "\u0120Ces": 44533, "abin": 25967, "nh": 23713, "\u00d7\u00a2": 31468, "'?": 46146, "Portug": 40086, "702": 30967, "\u0120growth": 3116, "\u0120resol": 37732, "illed": 2591, "atosis": 41272, "\u0120Connecticut": 20973, "\u0120unit": 3943, "\u0120activated": 10564, "\u0120astr": 15395, "\u0120Recently": 17746, "arcelona": 23056, "\u0120Usually": 25683, "\u0120Switch": 26457, "Prefix": 27111, "\u0120incompet": 30515, "\u0120fran": 42839, "\u0120341": 36076, "\u0120barg": 14862, "\u00d0\u00b2\u00d0\u00b5\u00d1\u0122": 47659, "\u0120Loading": 32784, "\u0120sue": 25457, "\u0120Canal": 33042, "agent": 12788, "\u0120solved": 14042, "\u0120Medicare": 22538, "RF": 22986, "\u0120Jim": 8438, "Audio": 23751, "\u0120developments": 16936, "\u0120rose": 9461, "vit": 34490, "Pers": 16330, "\u00e5\u00bf\u0127": 41250, "\u0120conoc": 45305, "\u0120hours": 3038, "eight": 19521, "\u0120residency": 37647, "\u0120vintage": 30939, "ulous": 15873, "Kilos": 48622, "\u0120conf": 1461, "\u0120debian": 43353, "\u0120Wake": 34625, "ctype": 46510, "\u0120esophageal": 34728, "\u0120evaluation": 7103, "\u0120ISO": 22776, "\u0120Scottish": 17960, "\u0120clue": 22796, "\u0120earned": 12431, "\u0120inoc": 19081, "\u0120Component": 27740, "elligence": 16032, "\u0120NON": 36429, "\u0120famously": 39316, "\u0120densely": 42350, "oti": 49259, "urban": 21104, "GFP": 14160, "\u0120itiner": 44414, "\u0120Happy": 27575, "\u0120synthetic": 13506, "\u0120icon": 10651, "\u0120Rus": 29132, "\u0120TH": 4392, "\u0120Glasgow": 31127, "ides": 1487, "\u0120Ek": 44375, "lbrack": 26874, "jack": 18043, "Quote": 33711, "either": 26597, "\u0120calibration": 18543, "\u0120BIT": 40302, "Ju": 40700, "\u0120undef": 46583, "\u00e5\u0137\u0131": 49554, "\u0120desarroll": 50158, "istant": 5567, "\u0120Vik": 26189, "\u0120churn": 43132, "MAG": 46492, "\u0120Counsel": 19330, "\u0120Sam": 5769, "ength": 1746, "\u0120opts": 32659, "Around": 37198, "\u0120perman": 7867, "\u0120": 209, "\u0120psori": 38573, "\u0120joy": 11010, "bital": 14424, "azole": 18871, "2000": 6914, "urity": 5051, "ope": 1714, "\u0120SNP": 20231, "Library": 20607, "ONE": 11147, "inode": 27592, "writers": 34782, "}={\\": 38400, "\u0120COMPANY": 40441, "\u0120academ": 8371, "\u0120marginally": 42876, "\u0120Bills": 47491, "ottenham": 48498, "\u0120coined": 48945, "rets": 39021, "\u0120Photo": 15837, "\u0120hier": 10549, "\u0120Hab": 25181, "\u0120rehears": 33558, "\u0120outlines": 36264, "\u0120Tina": 45655, "\u0120{\u00c2\u00b6": 26362, "\u0120racial": 15066, "\u0120327": 31133, "\u0120larval": 40076, "\u0120Variable": 34725, "ctx": 11154, "FW": 20941, "\u0120Info": 28730, "\u0120tons": 16298, "\u0120greet": 16524, "\u0120caste": 50091, "\u0120displays": 12646, "\u0120practitioners": 24432, "Lambda": 5764, "666": 24185, "]{}(": 35869, "uning": 25004, "\u0120expenses": 12222, "sens": 6209, ")}$$": 40227, "\u0120replay": 44864, "\u0120paddle": 44432, "\u0120request": 2748, "FET": 30516, "\u0120article": 3929, "sv": 11427, "average": 25629, "1999": 9595, "\u0120207": 25589, "\u0120economically": 29187, "\u0120Super": 6053, "\u0120bonds": 13403, "\u0120divers": 7940, "\u0120Turkish": 18416, "\u0120suffice": 36433, "phants": 38128, "\u0120DAT": 41424, "\u0120Tensor": 41529, "Additional": 14087, "\u0120partly": 13730, "\u0120PB": 15192, "\u0120CMOS": 47088, "\u0120FUN": 37607, "\u0120compiling": 40877, "\u0120nation": 5674, "\u0120manageable": 49951, "\u0120hy": 1465, "\u0120hypers": 24052, "\u0120treasures": 43469, "modules": 14825, "\u0120Ty": 16639, "\u0120proliferation": 9489, "%%%%%%%%": 24630, "\u0120wij": 33670, "\u0120schol": 35749, "\u0120Steps": 46854, "\u0120alloys": 38010, "\u0120sexual": 5615, "good": 12311, "tico": 26869, "\u0120darkness": 13862, "\u0120Writ": 16679, "\u0120meter": 21623, "\u0120island": 8930, "\u0120fracture": 17681, "\u0120Bengal": 37063, "\u0120Making": 24709, "\u0120belonged": 20651, "tics": 49631, "ww": 1477, "\u0120dealership": 46564, "osal": 22399, "\u0120Johann": 26737, "\u0120adopting": 25987, "ilities": 3191, "\u010a\u0120\u0120\u0120\u0120\u010a\u0120\u0120\u0120": 15398, "\u0120desperate": 18439, "\u00c5\u00a5": 20572, "\u0120moduli": 34838, "WriteLine": 33626, "ographically": 32414, "autiful": 35752, "HANDLE": 45191, "\u0120Weaver": 45226, "\u0120erythe": 45481, "ikan": 38522, "\u0120pendant": 41215, "\u00e0\u00b8\u013b": 16845, "hemat": 10479, "arrows": 37672, "\u0120mat": 1111, "\u0120appoint": 6544, "\u0120vessels": 12671, "\u00e3\u0123\u0139\u00e3\u0123\u00be\u00e3\u0123\u013b": 42075, "\u0120message": 3935, "\",": 995, "grat": 25923, "\u0120aggression": 27894, "\u0120plot": 7484, "PART": 26765, "('<": 45635, "GS": 10339, "ATURE": 40668, "\u0120tissues": 7944, "idential": 9440, "rocytes": 20158, "\u0120limited": 3710, "\u0120amin": 32609, "\u0120whiskey": 41236, "\u0120arbitrator": 45196, "\u0120elites": 43599, "\u0120predict": 3283, "uffle": 23831, "\u0120244": 27146, "\u0120Balance": 46378, "void": 4353, "\u0120themselves": 3746, "\u0120morph": 6695, "\u0120generation": 5978, "\u0120incorrect": 13583, "\u0120realise": 27753, "\u0120confl": 49446, "flash": 33390, "647": 25953, "ochrom": 28759, "ken": 3612, "\u0120fraud": 9116, "\u0120approving": 43815, "\u0120descent": 18499, "\u0120sket": 30547, "DIRECT": 31577, "\u0120364": 35585, "\u0120poder": 33693, "\u0120roofs": 45784, "iley": 11416, "\u012098": 10508, "ractable": 44374, "\u0120rearrang": 33289, "USS": 24001, "\u0120Later": 14772, "\u00c4": 128, "\u0120\u00d8\u00b1": 39410, "\u0120welcomed": 25213, "\u0120cake": 15221, "492": 33964, "\u0120HIV": 7452, "\u0120permitted": 11460, "\u0120throwing": 15950, "cod": 19880, "ATE": 4966, "\u0120Post": 5779, "\u01201917": 27062, "\u0120JJ": 25544, "\u0120arte": 39624, "\u0120Fruit": 43974, "\u0120reproduction": 21068, "\u0120fancy": 18612, "\u0120Cancer": 13877, "\u0120disadvantage": 18928, "\u0120explorer": 46041, "\u0120DEAL": 49731, "\u0120curiosity": 24536, "\u0120distributors": 47676, "joint": 16662, "\u00c3\u0132": 5186, "\u0120goodness": 23190, "\u0120careless": 48292, "\u0120ram": 17653, "\u0120resemb": 22066, "\u0120wardrobe": 43530, "\u0120btn": 23929, "\u0120induces": 14757, "instein": 14130, "SIG": 22963, "youtube": 24583, "\u0120appellants": 21142, "\u0120hoc": 26901, "\u0120demon": 2725, "\u0120sans": 20155, "\u0120biases": 31306, "ivat": 43236, "\u0120fiber": 9538, "\u0120Judaism": 43506, "OH": 8575, "\u0120tossing": 49488, "=\u00e2\u0122\u013f": 44680, "\u0120UE": 21581, "\u0120Viv": 31802, "\u0120quin": 42116, "\u00e0\u00b9\u0122\u00e0\u00b8": 23101, "\u00ce\u00b5": 3393, "758": 33607, "\u0120p": 268, "\u0120rendering": 18164, "\u0120USD": 28689, "Errors": 36655, "\u0120fibroblast": 39044, "\u0120Philosoph": 43380, "neb": 49980, "\u0120Margaret": 20145, "lain": 40033, "\u0120Hole": 46386, "Brush": 44777, "50": 1235, "\u00c3\u00aate": 33557, "\u0120Together": 20058, "\u0120WHE": 31286, "\u0120obstructive": 37534, ")}}{": 46890, "\u0120Notification": 50002, "\u0117": 200, "\u0120swo": 35983, "\u0120offence": 34306, "wey": 41285, "ffen": 46756, "oughton": 48075, "Self": 23315, "anie": 24132, "\u0120remod": 21150, "\u0120photosensitive": 43787, "\u0120Sunny": 47998, "owner": 18602, "\u0120TW": 30694, "\u0120WA": 27100, "ecess": 21017, "otics": 20290, "protocol": 26324, "\u0120wird": 23905, "\u0120lou": 29245, "\u0120renewable": 27606, "\u0120Desert": 36274, "\u0120taxed": 48715, "\u00e3\u0123\u00aa\u00e3\u0123\u00a9": 41326, "\u0120ri": 4172, "\u0120II": 3719, "\u0120containing": 4508, "\u0120Oh": 5531, "\u0120Christians": 15600, "\u0120laptop": 16556, "502": 28873, "\u00d0\u00b0\u00d1\u0123\u00d1\u0123": 42732, "\u0120include": 2486, "prem": 37448, "'}(": 41883, "FAULT": 16250, "\u0120trout": 40732, "180": 11395, "center": 9229, "ibration": 11457, "cus": 11675, "\u0120?": 3736, "vs": 10936, "265": 21317, "Chicago": 32544, "\u0120cleanup": 34709, "\u0120Parts": 41371, "cci": 46668, "otions": 47839, "\u00e9\u00ab": 27712, "\u0120siempre": 48092, "ident": 888, "\u0120endors": 25741, "\u0120Bit": 10210, "\u0120hors": 43347, "ur": 321, "\u0120ih": 25730, "Override": 9677, "\u0120derivation": 28529, "\u0120Legend": 29260, "\u0120phenol": 45705, "editor": 20511, "\u0120clergy": 41082, "\u0120monotone": 49123, "Ya": 49221, "\u0120Drama": 49637, "Jam": 40695, "zone": 13634, "\u0120notified": 23274, "\u00c3\u0141en": 39583, "\u0120year": 807, "ribut": 1782, "\u00e4\u00bb\u00b6": 23366, "\u0120Buddhist": 27235, "\u0120Food": 11431, "ocular": 26292, "ensin": 29118, "\u0120encl": 30084, "eded": 16533, "\u0120Jah": 30403, "\u0120Myanmar": 43828, "*((": 42660, "\u0120weighing": 27466, "ocus": 2423, "\u0120Bo": 3452, "\u0120desktop": 15439, "\u0120fall": 2965, "\u0120\u00c3\u00ba": 16438, "\u0120Robin": 22463, "\u0120epilepsy": 29931, "%\\": 33760, "\u0120Rafael": 46901, "issors": 43842, "Nevertheless": 36048, "ics": 982, "\u0120hormones": 23884, "\u0120software": 3694, "\u0120atom": 13112, "ensity": 2741, "\u0120Description": 11451, "tbl": 12749, "\u0120Gal": 7667, "abases": 15409, ",\u00e2\u0122\u013b": 15933, "\u0120\u00c4\u0133": 17949, "tiny": 24290, "Green": 18942, "blance": 29993, "\u0120enzyme": 9548, "\u0120scanner": 25152, "\u0120pes": 27246, "^\\*^": 33653, "\u0120352": 35362, "\u0120BN": 35602, "\u0120Lars": 40295, "\u0120grievance": 41462, "\u00e5\u012a\u013f": 47754, "\u0120bibli": 48137, "Alan": 45898, "\u0120tractor": 39463, "\u0120arousal": 45264, "207": 18202, "\u0120amplic": 48537, "adequ": 14629, "\u0120(\u00c2\u00a3": 36397, "ount": 702, "\u0120No": 1621, "\u0120fill": 7522, "cfg": 22181, "subset": 6040, "\u0120suspicion": 18910, "strap": 13871, "zyk": 44109, "dule": 8009, "\u0120enables": 13276, "\u00bb\u00bf": 24384, "\u0120tears": 12330, "\u0120expon": 13287, "\u0120tasty": 36766, "int": 565, "\u0120Jo": 8174, "\u0120veto": 35204, "\u0120MOD": 39823, "\u0120$[\\": 34398, "\u0120resentment": 40586, "\u0120specialty": 28648, "view": 1374, "\u0120Aub": 29560, "MATCH": 45293, "\u00e7\u00b5": 21700, "\u0120Race": 23752, "\u0120SDSS": 47631, "\\,": 4615, "\u0120rises": 22844, "\u0120specialized": 18052, "matter": 30596, "command": 12467, "\u0120Hurricane": 34473, "thren": 40857, "\u0120tablets": 23368, "Ha": 18853, "\u0120determining": 8925, "\u0120embargo": 39135, "edin": 36777, "\u0120skeptic": 38504, "\u00eb\u0124": 44028, "\u0120dream": 7156, "\u0120ech": 21509, "\u0120Again": 10036, "--": 283, "\u0120Such": 6102, "\u0120histor": 5153, "\u0120Bet": 8387, "\u0120141": 21886, "\u0120slopes": 28677, "\u0120muttered": 30807, "\u0120Rew": 34479, "\u0120Organisation": 44115, "qui": 41496, "))/((": 44306, "\u0120Doc": 18589, "\u0120eliminating": 23703, "\u0120MSM": 44986, "745": 47871, "\u0120sensed": 32041, "naments": 27647, "iphatic": 48629, "\\],": 5290, "oxide": 14420, "\u0120outs": 20823, "Proc": 29319, "issippi": 17530, "\u0120Arist": 23500, "\u0120invested": 22171, "\u0120intricate": 36930, "nested": 47628, "hl": 12408, "\u0120omega": 40639, "\u0120insurance": 6503, "\u0120again": 969, "Crim": 39546, "\u0120Automatic": 47367, "ICAN": 48697, "wedge": 12707, "\u0120connections": 10291, "iat": 5946, "\u0120SUB": 33908, "\u0120dut": 5387, "thermal": 35684, "urdy": 36849, "\u0120THEORY": 49212, "\u0120complaining": 25917, "342": 27222, "\u0120Elliot": 49867, "\u0120coarse": 25319, "destruct": 43739, "entry": 8873, "St": 998, "56": 3208, "horse": 33647, "\u0120Ded": 47131, "\u0120100000": 47288, "overs": 12239, "\u0120barriers": 15938, "\u0120Barcelona": 24639, "\u0120chez": 43695, "\u0120Determine": 11374, "\u0120drug": 2854, "\u0120unclear": 12744, "\u0120spiritual": 12435, "\u0120licence": 35683, "\u0120Digital": 16132, "\u0120taller": 38165, "ospel": 19620, "ACTION": 38546, "BIO": 39253, "\u0120package": 5522, "Ky": 41062, "}}.": 47254, "\u00d0\u00b0": 1152, "\u0120Hassan": 47420, "\u0120cynical": 47892, "\u0120Lin": 18077, "\u0120Tribune": 33602, "orange": 35270, "\u0120lawmakers": 23830, "textit": 33063, "France": 33639, "\u0120Weak": 49092, "\u0120slides": 19459, "equ": 2655, "management": 26454, "\u0120Lah": 47662, "\u0120emergency": 8945, "\u0120selfish": 27915, "\u0120Picture": 30038, "feld": 25281, "\u00c3\u00a9rie": 32278, "Sel": 37315, "\u0120nanost": 44930, "\u0120editor": 8121, "\u0120computer": 4382, "\u0120quoting": 32249, "fig": 926, "\u0120pleased": 13864, "ederal": 3224, "foreign": 37380, "\u0120Quad": 43553, "l\u00c4\u00b1": 41189, "ringes": 45324, "}$]{}": 20977, "\u0120threats": 14207, "sr": 18356, "pan": 4029, "ami": 7588, "\u0120pads": 25297, "cock": 26822, "\u0120Convention": 15757, "\u0120TN": 24758, "\u0120Touch": 31092, "\u0120SER": 38802, "Actions": 40013, "\u0120NC": 11248, "\u0120priest": 14959, "\u0120premier": 24654, "VR": 18601, "\u0120Mean": 9601, "\u0120imposed": 11295, "teenth": 16565, "\u0120wave": 5149, "\u0120performs": 17923, "\u0120porque": 25366, "\u0120Cec": 31661, "\u0120NaN": 32694, "\u0120ghosts": 35057, "\u0120Earlier": 36072, "\u0120SOD": 36634, "growth": 25869, "\u0120velocity": 7602, "\u0120kn": 694, "ung": 1947, "\u0120secure": 7895, "MASK": 18690, "\u0120couch": 21985, "MK": 26399, "ilty": 7443, "ched": 2147, "\u0120rebel": 29703, "\u0120excav": 27960, "\u0120crossing": 14270, "\u0120si\u00c4\u013b": 27870, "IQR": 34914, "vast": 35982, "often": 32205, "\u0120rid": 8314, "\u0120oste": 10160, "\u0120bottles": 20321, "\u0120Simpson": 29480, "poser": 38253, "\u00e5\u012a\u0139": 44157, "].\\": 46694, "\u0120%}": 23791, "\u0120como": 8733, "\u0120Sgt": 48653, "\u0120waveform": 34048, "\u0120Dav": 3826, "Arab": 24850, "\u0120literal": 22436, "\u0120Thunder": 27926, "\u0120pneumoniae": 36500, "\u0120contests": 39858, "\u0120lower": 2406, "figure": 13206, "veau": 37574, "Maria": 44906, "\u0120elicited": 32112, "\u0120measles": 47151, "\u0120Khal": 35667, "\u0120heme": 47086, "\u0120Progressive": 39935, "\u0120ISP": 48575, "\u00e0\u00a5\u012f": 17665, "\u0120den": 1850, "93": 4590, "gressive": 11020, "\u0120Qaeda": 41136, "ensively": 15158, "brook": 30103, "arp": 5916, "high": 8656, "\u0120anatom": 23842, "\u0120\\!": 21846, "avorite": 36170, "\u0120cad": 18072, "\u0120complained": 19375, "aters": 20264, "ativistic": 22102, "\u0120idea": 2934, "\u0120glimpse": 27105, "1950": 32522, "\u0120ATT": 35645, "ifen": 39644, "cp": 7693, "\u0120resilience": 35124, "\u0120USC": 41268, "\u0120merits": 16108, "466": 43490, "\u0120tant": 22602, "\u0120listings": 32985, "455": 24614, "Springer": 45074, "078": 36709, "GRect": 46121, "\u0120borough": 46861, "\u0120tomat": 15262, "\u0120Created": 36501, "\u0120weeping": 47012, "quarter": 35443, "lyss": 47758, "monton": 41795, "\u0120eigenstates": 48843, "\u012051": 8319, "nop": 45303, "\u0120chromatin": 24014, "rican": 37027, "antibodies": 46345, "asting": 14669, "zb": 30007, "\u0120theory": 3762, "\u0120involve": 6388, "amss": 8809, "\u0120expiration": 32298, "optional": 21676, "judge": 47075, "UW": 47370, "\u0120having": 1907, "\u0120Beck": 17600, "\u0120harbour": 36050, "nsylvania": 11187, "DI": 11364, "\u0120Take": 11668, "ENN": 47791, "\u0120sophistic": 16348, "\u0120pole": 15903, "\u0120GET": 19220, "carbon": 17027, "\u0120finally": 4720, "Aust": 16796, "\u0120[****,": 23734, "uid": 11455, "\u0120unexpl": 35021, "hea": 21071, "Invalid": 19504, "\u0120transfusion": 34190, "igo": 15973, "\u0120mosaic": 37997, "\u0120values": 2193, "\u0120lands": 13446, "sections": 21454, "uant": 25513, "Folder": 27903, "\u0120Amazon": 10550, "\u0120rein": 9838, "\u0120awkward": 19328, "CSF": 25827, "\u0120browse": 34740, "\u0120Diane": 36965, "\u0120ambitions": 37321, "\u0120playing": 4882, "hydroxy": 19304, "fav": 34281, "\u0120Lives": 38494, "\u0120alors": 38903, "\u0120IBD": 42342, "\u00e1\u00bd\u00b8": 42479, "\u0120Consortium": 42849, "s": 84, "Above": 45743, "\u0120Messenger": 48979, "\u0120Et": 17218, "\u0120favourable": 39262, "\u0120Bullet": 36926, "\u00e5\u00a4\u00a7": 15962, "\u00c2\u012c": 26261, "Expect": 42049, "Close": 17667, "190": 16129, "397": 26933, "\u0120Minutes": 48474, "idor": 49410, "anni": 30100, "domin": 33285, "\u0120Ma": 7057, "\u0120fel": 11664, "\u0120remission": 31701, "\u0120GOOGLE": 30619, "Category": 1413, "\u0120safely": 15792, "Auth": 15714, "\u00d0\u00b8\u00d1\u0129": 18565, "\u0120Ott": 26118, "\u0120forum": 12209, "otta": 31797, "\u0120multil": 33362, "\u0120cf": 21194, "\u010a\u0120\u0120\u0120\u0120\u0120\u0120\u0120\u0120\u0120\u0120\u0120\u0120": 7833, "\u0120Insert": 33340, "aient": 35493, "\u0120bidding": 36698, "Received": 41672, "\u0120USDA": 45921, "assets": 26094, "\u0120vocational": 49084, "\u0120Maintenance": 49108, "awk": 28989, "\u0120initiative": 15952, "\u0120trademark": 26014, "ms": 983, "erry": 9587, "\u00c3\u00bcn": 17499, "Sal": 15426, "\u0120stair": 22298, "\u0120desde": 28947, "ubin": 34610, "ney": 2191, "\u0120misdemeanor": 39889, "scaling": 49708, "took": 50079, "\u0120clash": 36583, "\u0120files": 4367, "\u0120Ach": 31651, "Business": 27270, "rVert": 28042, "\u0120insertion": 16941, "\u0120Cock": 37621, "\u0120GPS": 21303, "\u00d0\u00b2": 4183, "Limit": 24314, "\u0120rational": 8870, "\u0120L": 418, "txt": 10134, "\u0120song": 4498, "itro": 4905, "\u0120()": 6734, "ograp": 10555, "\u0120Iowa": 14890, "\u0120withdrawal": 18185, "\u0120prospective": 13893, "arcel": 19526, "\u0120flaw": 19652, "\u0120bree": 20831, "\u0120\u00e2\u0138": 25516, "\u0120breach": 13770, "\u0120basal": 15919, "ream": 1883, "peat": 16388, "\u0120Bou": 21446, "\u0120Speaker": 26587, "\u0120chem": 3554, "\u0120openings": 29239, "\u0120embark": 29394, "trigger": 29363, "\u0120Processing": 32774, "\u00e9\u0125\u00bd": 34446, "\u0120soldiers": 9647, "\u0120cables": 24686, "\u0120Lips": 37089, "five": 12071, "\u0120triv": 35820, "\u00c3\u0143ses": 37294, "smith": 37915, "\u0120Myers": 34061, "Lif": 38657, "CAS": 47503, "\u0120\u00c2\u00a3": 8157, "\u0120agitated": 47902, "\u0120encour": 5888, "\u0120Neu": 29459, "\u0120signaling": 7601, "\u00c5\u0141": 9663, "Full": 16135, "\u0120Leonard": 27708, "\u00e3\u0123\u00a8": 6088, "\u0120possibly": 6830, "ryst": 11925, "\u0120represent": 1957, "\u01201860": 36525, "EMPT": 47913, "\u0120defeats": 49204, "za": 4019, "brahim": 44147, "\u0120Legion": 36200, "\u0120Asst": 39379, "\u0120p\u00c3\u00a4": 49635, "\u0120natural": 3626, "prom": 13382, "\u0120Observatory": 33982, "\u0120iodine": 39887, "************************": 49691, "yme": 28705, "\u0120publishing": 18051, "\u0120shades": 30553, "aras": 31210, "007": 7931, "onica": 43510, "\u0120immunosuppressive": 45169, "\u0120MRI": 14478, "\u0120Jean": 13089, "\u0120Hels": 31078, "\u0120routing": 24749, "To": 1992, "\u0120criteria": 6866, "uture": 2532, "\u0120ranc": 50008, "\u0120Represent": 12675, "\u0120Saturday": 7814, "\u0120owns": 21186, "\u0120LAW": 47782, "Order": 13921, "\u0120Hawks": 41834, "\u0120abst": 20965, "Scalar": 29094, "\u0136": 231, "\u0120tra": 1140, "\u0120UTC": 38040, "\u0120tug": 30139, ")}}": 17125, "\u0120witch": 25204, "time": 2606, "\u0120degenerate": 29458, "\u0120enamel": 46803, "property": 9134, "aiver": 18386, "\u0120123": 15567, "conversion": 44503, "astically": 20595, "\u0120drift": 16924, "\u0120forests": 21327, "Staff": 44440, "ton": 1299, "wc": 38212, "cephal": 25088, "completed": 47954, "ARD": 10449, "\u0120\u00ec\u013f\u00b4": 49264, "atization": 47159, "$=": 34954, "\u0120simpler": 19554, "\u0120reminds": 25264, "\u0120lest": 38138, "\u0120mort": 4920, "\u0120academic": 11073, "\u0120attacking": 20362, "ovan": 22053, "opard": 19739, "\u0120proactive": 46200, "\u0120spurious": 46541, "618": 47017, "IBLE": 38274, "formations": 44837, "\u0120cursor": 20482, "---------------------------------------": 36311, "posed": 7334, "\u0120at": 387, "\u0120television": 7315, "\u0120Movement": 25678, "\u0120trench": 32775, "Done": 34739, "ithe": 37018, "nap": 40057, "plicated": 37787, "human": 13961, "\u0120122": 17115, "_.\"": 42511, "\u0120Pradesh": 35112, "\u0120480": 25888, "\u0120paint": 6848, "\u0120spoon": 26531, "membrane": 27313, "fefe": 25673, ":--": 42841, "\u0120monks": 34955, "npmjs": 47449, "\u0120West": 4255, "\u0120carriers": 15495, "opes": 11192, "\u0120cruel": 17877, "\u0120nonetheless": 23188, "\u0120houses": 9910, "\u0120instrumental": 23033, "\u0120Ethiop": 27247, "\u0120reduction": 5141, "\u0120functionality": 13175, "\u0120object": 1789, "IENT": 31093, "Taking": 33748, "\u0120remained": 6376, "\u0120dens": 12006, "Sen": 18681, "inburgh": 23683, "immune": 20916, "\u0120immersion": 34729, "\u00d7\u0139": 36403, "ynn": 38051, "ociation": 17810, "\u0120fabrics": 38865, "\u0120\u00c3\u00aen": 13090, "\u0120CYP": 27987, "406": 24854, "Pr": 6140, "\u0120\u010a\u0120\u0120\u0120\u0120": 27401, "\u0120Sql": 39542, "r\u00c3\u0143a": 40980, "\u01201951": 25124, "\u0120line": 1386, "\u0120uncommon": 24666, "\u0120bliss": 39577, "]{}[": 42274, "\u00bd": 123, "\u0120Parents": 37850, "\u0120Member": 17792, "Official": 38023, "\u0120persists": 42575, "\u0120barrier": 11394, "tration": 14046, "PCR": 9343, "ipt": 9155, "Focus": 26078, "\u0120Inside": 25081, "\u00e0\u00a6\u00be": 33225, "riton": 35727, "\u0120SAT": 38176, "Outside": 42983, "wu": 44217, "\u0120Panama": 37783, "087": 45197, "\u0120clashes": 45880, "TEXTURE": 47062, "ion": 279, "inge": 18909, "\u0128\u0134": 13076, "Logger": 26428, "\u0120royal": 17292, "\u0120ves": 18287, "asio": 39483, "lac": 42184, "Config": 6155, "fork": 43491, "\u00c2\u012a\u00c2\u0133": 46230, "\u0120contingency": 46729, "\u0120architect": 6805, "urin": 46930, "\u0120diplomats": 47755, "knock": 48459, "ource": 1505, "\u0120annual": 7970, "oddsidemargin": 8867, "\u0120value": 1318, "yes": 9820, "\u00a3": 98, "\u0120residue": 16558, "\u0120CB": 17933, "\u0120shifted": 14728, "\u0120Cov": 30517, "\\(": 22229, "\u0120Glad": 36977, "\u00d1\u0123\u00d0\u00bb\u00d0\u00b8": 38749, "\u0120Kom": 17644, "ente": 13589, "overview": 39930, "\u0120Every": 6000, "\u0120bus": 1685, "\u0120valuable": 9865, "\u0120Christianity": 20242, "Bra": 32893, "\u0120incur": 36967, "relax": 39471, "\u0120asymmet": 40736, "\u01201980": 9178, "obic": 12789, "\u012080": 5096, "Everything": 22242, "\u0120treaty": 23848, "\u0120rotor": 24633, "Coming": 44655, "\u0120Gomez": 46586, "xico": 46591, "iNdEx": 47312, "\u0120grids": 42590, "\u0120pictured": 35957, "Variables": 48439, "\u0120job": 2628, "uscitation": 48043, "\u0120confronting": 49672, "source": 6756, "mock": 24568, "ENV": 33735, "\u0120sod": 9359, "\u0120Dorothy": 40103, "\u0120born": 5686, "depend": 14455, "\u0120commitments": 32316, "\u0120Kosovo": 48863, "\u0120Bernie": 29580, "\u0120ce": 2636, "hift": 32190, "\u0120density": 4038, "ained": 1243, "\u0120HB": 26404, "std": 8400, "^\u00c2\u00ae": 27596, "\u0120tilted": 37126, "\u0120hidden": 8763, "\u0120ger": 21974, "\u00e6\u0139\u00b6": 22975, "\u0120segment": 8223, "iya": 44631, "Particip": 47177, "microsoft": 22730, "\u0120contemporary": 13399, "\u0120someone": 3095, "\u0120manner": 5133, "\u0120centrifugation": 29691, "\u0120Boltzmann": 48274, "\u0120deduction": 34143, "]).": 2498, "\u0120reciproc": 33704, "tor": 13473, "Builder": 12038, "\u0120specimens": 13751, "\u0120nerv": 8507, "\u0120suppressed": 16013, "\u0120Gard": 17064, "\u0120Alexand": 26958, "\u0120caf\u00c3\u00a9": 36241, "NotNull": 41419, "\u0120autore": 47694, "\u0120Syn": 14139, "letter": 15139, "SH": 5648, "'}$": 37055, "added": 22566, "\u0120\u0120\u0120\u0120\u0120\u0120\u0120\u0120\u0120\u0120\u0120\u0120\u0120\u0120\u0120\u0120\u0120\u0120\u0120\u0120\u0120\u0120\u0120\u0120\u0120\u0120\u0120\u0120\u0120\u0120\u0120\u0120\u0120\u0120\u0120\u0120\u0120\u0120\u0120\u0120\u0120\u0120\u0120\u0120\u0120\u0120\u0120\u0120\u0120\u0120\u0120\u0120\u0120\u0120": 24356, "609": 27059, "\u0120Catholics": 33097, "\u0120expr": 40280, "\u0120glance": 17834, "\u0120fucking": 12835, "\u0120Edward": 12824, "Person": 19589, "\u0120centre": 9145, "\u0120malice": 42233, "network": 18428, "RM": 26889, "esh": 15897, "\u0120Lloyd": 24395, "office": 30496, "ridges": 37945, "\u0120consisting": 11253, "\u0120bizarre": 27541, "hou": 14451, "\u0120hearty": 49618, "\u0120ERK": 29494, "\u0120contig": 32898, "\u0120Pursuant": 37368, "ucent": 49973, "\u0120vagina": 42797, "atl": 42029, "\u00e1\u0125\u0136": 36017, "852": 38819, "Remember": 21914, "\u0120inferior": 18134, "\u0120floats": 48158, "\u0120once": 2378, "thanks": 35501, "\u0120@\"": 27508, "constraint": 30995, "\u0120word": 3159, "apshot": 27760, "\u0120evaluated": 6760, "\u0120deterministic": 30027, "\u0120sanction": 25162, "\u0120dashed": 17889, "\u0120HOW": 28281, "yler": 19482, "\u0120divides": 37141, "\u0120benefited": 37081, "\u0120hairs": 39746, "534": 45225, "\u0120steep": 16624, "mud": 45400, "\u00c2\u012a": 14681, "ype": 1692, "\u0120benchmarks": 49602, "51": 3712, "UGH": 47897, "316": 28581, "\u0120Join": 29355, "\u0120Fuk": 34990, "\u0120presses": 39145, "\u0120Emer": 16729, "\u0120euros": 32306, "\u0120Effects": 24350, "\u0120A": 329, "\u0120refuge": 12100, "-----------------------------": 29648, "ropolitan": 19646, "\u0120stab": 25520, "\u0120Admiral": 28244, "repos": 28486, "\u0120emerge": 20177, "SAM": 43335, "761": 40187, "Steve": 31969, "\u0120black": 2806, "klahoma": 16279, "Different": 21956, "INO": 48868, "iology": 10537, "\u0120pi": 12580, "\u0120breakdown": 19501, "\u0120supernatural": 34612, "\u0120booked": 32346, "apat": 43448, "\u0120revise": 49620, "inn": 2966, "\u0120aliqu": 37711, "upp": 1135, "\u0120Suz": 27308, "\u0120engage": 11377, "\u0120v": 362, "\u0120Kon": 21928, "textup": 32603, "\u0120pharmacy": 33173, "BF": 16380, "ioned": 10998, "\u0120hath": 29272, "Counter": 27077, "\u0120\u00c3\u0143": 37133, "\u0120whisper": 24476, "bones": 47473, "\u0120calculating": 18899, "\u0120player": 4760, ".\");": 23715, "\u0120335": 32575, "\u0120helpful": 9371, "\u0120sono": 24268, "\u01201981": 13402, "{'": 46912, "\u00e5\u0134\u012e": 21458, "\u0120pol": 877, "\u0120kissed": 23651, "\u0120PLA": 36770, "Em": 11223, "\u0120Hop": 16890, "izoph": 20080, "\u0120\u00d0\u00b4\u00d0\u00be": 43694, "\u0120sir": 8674, "\u0120MIT": 20695, ")?": 6177, "\u0120colonic": 46024, "kt": 5751, "which": 4609, "\u0120games": 3958, "\u0120segments": 13288, "\u0120portrait": 22946, "\u0120Sold": 29668, "\u0120opioid": 28447, "Comput": 24408, "\u0120shred": 28347, "\u0120Charge": 42770, "\u0120sein": 27437, "\u0120494": 44336, "\u0120Webb": 34932, "Err": 3810, "raction": 3460, "\u0120technological": 20417, "\u0120mucho": 44379, "\u0120histograms": 47846, "\u0120Use": 7890, "\u0120outputs": 18012, "\u0120rulings": 36127, "\u0120launches": 37048, "\u0120draft": 7482, "Plus": 25263, "\u00e3\u0124\u00aa": 35482, "iece": 36450, "zyme": 23682, "\u0120hepatitis": 21366, "\u0120Applications": 27492, "\u0120Sar": 9997, "\u0120ourselves": 9361, "encoding": 27676, "\u0120duplicates": 40430, "\u0120possess": 7081, "\u0120legislature": 18818, "\u0120founded": 11420, "uclidean": 26365, "iels": 39837, "\u0120453": 42955, "\u0120cartridges": 49599, "orns": 35546, "\u0120pool": 6363, "\u0120Wald": 48690, "\u0120Stat": 6515, "cool": 26175, "\u0120pumps": 29131, "Agent": 28172, "ively": 1242, "\u0120refrigerator": 29794, "\u0120dialogue": 17414, "361": 29917, "spinal": 45895, "ensors": 32541, "HA": 10114, "Now": 4125, "\u0120resem": 16188, "\u0120creativity": 22794, "\u0120\u00c3\u00a9p": 45431, "\u0120figures": 8442, "1918": 45995, "\u0120fines": 29701, "duino": 43728, "\u0120thermal": 8609, "\u0120convex": 17133, "\u0120migraine": 41755, "521": 48219, "\u0120dette": 49319, "\u0120imprint": 41212, "alan": 30637, "=\"{{": 43615, "\u0120Cav": 20120, "cence": 6466, ",...,": 22561, "\u0120wid": 5261, "\u0120intra": 8376, "\u0120UFC": 31057, "\u0120TeV": 39784, "may": 11159, "isher": 6850, "adjusted": 23811, "\u0120means": 2097, "\u0120Stanley": 20923, "YA": 41239, "\u0120noting": 15806, "\u0120attachment": 14170, "\u0120capit": 43395, "iced": 5491, "greater": 46274, "\u0120Major": 11432, "\u00ec\u0126": 29597, "ieves": 32451, "\u0120INTEGER": 41847, "\u0120powers": 9136, "\u0120mixer": 33947, "mad": 34180, "\u0120Dell": 36938, "\u0120ROC": 39526, "\u0120servants": 20325, "\u0120Different": 13773, "\u01201912": 32295, "Finding": 43223, "\u0120Serbian": 48069, "\u0120Phosph": 38826, "ussed": 47291, "\u0120scientifically": 50164, "ogeneity": 14812, "\u0120felt": 3543, "\u0120III": 6490, "\u0120Dj": 43050, "\u0120cosmic": 23147, "\u0120turned": 3531, "\u0120scream": 12452, "+-": 22501, "Buff": 40331, "FilePath": 48617, "\u0120nodes": 7632, "Conclusion": 18786, "\u0120genomes": 21885, "\u0120\"${": 26107, "876": 35432, "\u0120filings": 48174, "ivos": 35860, "\"}**).": 39310, "Mobile": 29279, "\u0120argv": 39989, "\u0120everyday": 15363, "\u0120\u00d9\u012a": 18152, "\u0120oppose": 25437, "\u0120government": 2208, "itely": 6988, "treated": 9415, "\u0120coli": 14347, "\u0120caso": 27759, "\u0120rotates": 45933, "\u0120Auto": 17252, "Google": 17664, "1970": 20686, "Bre": 16212, "\u0120Farmer": 49146, "acles": 13853, "\u0120immensely": 45224, "\u0120electrochemical": 34770, "\u0120Move": 17097, "\u0120\")": 36660, "design": 19417, "xyz": 35609, "\u0120crystall": 14666, "\u0120responsiveness": 36281, "\u0120chore": 36872, "\u0120Agricultural": 40717, "\u0120Shan": 41098, "deploy": 45552, "\u0120marine": 17787, "\u0120Exped": 45626, "\u0120approaching": 17682, "\u0120acknowledge": 14409, "\u0120stagger": 36668, "CMD": 24840, "\u0120Spread": 43611, "commun": 11713, "aci": 26293, "configuration": 24693, "erv": 677, "\u0120Asian": 11650, "iton": 24786, "\\.": 15461, "\u0120fertility": 27161, "\u0120Want": 29430, "$}}": 36576, "\u0120depressive": 27909, "GFR": 13826, "\u0120acquaint": 28262, "Unit": 14074, "ortium": 27011, "\u00e9\u0124": 30086, "\u0120revelation": 28423, "\u0120elephants": 42322, "\u0120incontin": 47275, "Feed": 31666, "Anth": 37701, "\u0120dealers": 31346, "\u00cf\u0123\u00ce\u00af": 34299, "\u0120Russians": 24794, "clean": 16437, "\u0120Products": 23910, "\u0120noble": 17874, "\u0120Levin": 49014, "288": 21340, "\u0120incorpor": 6220, "Columns": 32641, "\u0120bosses": 39682, "\u0120dipped": 42600, "\u0120qualities": 18701, "\u0120descriptors": 42785, "\u0120elective": 44529, "iret": 38959, "BV": 13152, "ams": 1317, "\u0120motivate": 41509, "\u0120meu": 48743, "onas": 46605, "\u010d\u010a\u0120\u0120\u0120\u0120\u0120\u0120\u0120\u0120\u0120": 18761, "uable": 8584, "\u0120beverage": 32715, "recent": 45019, "Dependencies": 47671, "\u0120Jude": 41692, "containing": 15408, "hidden": 19057, "\u0120anticipate": 30258, "\u0120Rodrig": 22709, "chel": 29311, ")--": 32186, "ESP": 32718, "\u0120soaked": 38149, "\u0120\u0120\u0120\u0120\u0120\u0120\u0120\u0120\u0120\u0120\u0120\u0120\u0120\u0120\u0120\u0120\u0120\u0120\u0120\u0120\u0120\u0120\u0120\u0120\u0120\u0120\u0120\u0120\u0120\u0120\u0120\u0120\u0120\u0120\u0120\u0120\u0120\u0120\u0120\u0120\u0120\u0120\u0120\u0120\u0120\u0120\u0120\u0120\u0120\u0120\u0120\u0120\u0120\u0120\u0120\u0120\u0120\u0120\u0120\u0120\u0120\u0120\u0120\u0120\u0120\u0120": 36732, "\u0120stainless": 31361, "\u0120George": 6086, "\u0120service": 2579, "\u0120CONDITION": 22231, "\u0120FN": 41063, "\u0120'''": 42011, "\u0120fp": 44296, "740": 44449, "\u0120Allison": 45664, "\u0120Tyson": 47873, "\u0120indexing": 44176, "\u0120PROC": 25717, "0059": 49180, "Intern": 16320, "\u0120muscles": 13370, "\u0120flourish": 44958, "detection": 49558, "izontal": 19650, "Ide": 42317, "chars": 30830, "EOF": 34812, "\u0120Controls": 47393, "\u0120Poetry": 47315, "assuming": 37411, "\u0120subcutaneous": 31967, "SS": 3528, "\u0120gentlemen": 24173, "\u0120kin": 5708, "\u0120Rouge": 44727, "\u0120Mol": 24429, "brace": 19276, "\u0120accus": 20387, "z": 91, "INTER": 19118, "\u0120sued": 23460, "igroup": 37259, "\u0120imagining": 42249, "\u0120personalities": 34514, "\u0120gi": 15891, "\u0120g": 305, "\u0120assessment": 6803, "\u0120waiver": 20066, "\u0120boolean": 12419, "\u0120conducting": 16472, "\u0120Cir": 4082, "\u00c9": 133, "\u0120header": 10478, "Sorry": 15953, "\u0120fibrosis": 19990, "auses": 19726, "\u0120Hind": 15713, "\u0120cmd": 20390, "\u0120found": 1119, "\u0120fren": 28080, "responding": 29078, "ceans": 33749, "\u0120Virginia": 9385, "090": 39703, "\u0120agency": 6757, "News": 19537, "blind": 27895, "\u0120PARTICULAR": 20383, "\u0120polymers": 20147, "PLE": 20982, "Added": 33988, "\u0120Merc": 21988, "\u0120cripp": 35956, "utton": 28738, "yel": 44447, "\u0120ent": 994, "const": 3474, "\u0120Gran": 22346, "\u0120thank": 5717, "160": 9913, "\u0120Licensed": 21737, "\u0120duo": 32458, "\u0120Stim": 38459, "\u0120Note": 5838, "\u0120interaction": 5016, "\u0120abolition": 39208, "\u0120Hyde": 42703, "($": 3914, "\u0120therapy": 4918, "\u0120Among": 9658, "\u0120moder": 16938, "aris": 26232, "\u0120rhythm": 19407, "\u0120Gul": 43484, "RESET": 47885, "\u0120Conservative": 23222, "osen": 5458, "\u0120apologize": 26012, "\u0120intermediates": 43163, "\u0120obtained": 2797, "\u0120Clinton": 9662, "\u0120:-": 40679, "\u0120opioids": 49001, "]),": 6660, "\u0120Script": 20378, "\u0120\u00c3\u0139": 6806, "Position": 13883, "raw": 2040, "\u0120athlet": 11916, "isan": 16870, "\u0120Apollo": 34197, "Brother": 50003, "\u0120Third": 12245, "context": 8882, "URES": 43087, "\u0120butter": 10379, "\u0120Hey": 18793, "\u0120apoptosis": 10596, "\u0120Observ": 16177, "thin": 35275, "Thanks": 8061, "\u0120drag": 9310, "variable": 18645, "\u0120chunk": 20540, "ertainly": 20427, "Validation": 31780, "\u0120want": 971, "waukee": 29298, "\u00e5\u00af\u00b9": 25949, "\u0120formulae": 42764, "Complete": 26626, "\u00d1\u0124\u00d0\u00b8": 43811, "Tile": 44334, "\u0120achieve": 5115, "\u0120modul": 13157, "\u00e4\u00bb\u00a5": 16877, "\u0120NBA": 19305, "\u0120contractual": 30727, "\u0120refusing": 21455, "sted": 30230, "\u0120slapped": 41352, "\u0120tubing": 39240, "isex": 39549, "\u0120magn": 2849, "sample": 16848, "\u0120easily": 4354, "\u0120methodological": 35961, "\u0120VM": 20797, "\u0120periodic": 15316, "\u0120Magistrate": 46527, "\u0120\u00d0\u00b7\u00d0\u00b0": 19113, "\u0120village": 7773, "ism": 1204, "lander": 31457, "mus": 14557, "dia": 45179, "\u0120vel": 5828, "\u0120Along": 23243, "Excellent": 45441, "Pref": 14868, "_;": 17540, "lane": 34669, "\u0120Sen": 4673, "Expr": 28044, "DEVICE": 28663, "fony": 37852, "Michel": 43160, "\u0120n\u00c3\u00a4": 26243, "\u0120renovation": 45081, "yma": 46122, "\u0120wherein": 10646, "\u0120Diego": 14912, "\u0120barbar": 38615, "\u0120heck": 36603, "CTOR": 39321, "\u0120Wick": 47172, "\u0120\u00cf\u012b": 46422, "$\\": 1202, "///": 10638, "\u0120consciousness": 14099, "\u00d0\u00be\u00d0\u00b9": 12007, "\u0120ankle": 23469, "above": 25117, "\u0120functor": 27259, "\u0120urea": 32739, "\u0120sanctuary": 35514, "\u0120onCreate": 42458, "antiago": 34566, "\u0120Serge": 35176, "})}": 22613, "\u00e7\u0143\u012b": 38563, "\u0120perce": 50135, "\u01201928": 31751, "urbs": 28312, "KEY": 13888, "tube": 34995, "\u0120mute": 49425, "ram": 3358, "\u0120prerequ": 31341, "\u0120calories": 24692, "\u0120prototype": 21841, "\u0120explanation": 8813, "REG": 11991, "Material": 30240, ",'\"": 45719, "\u0120Turks": 47563, "hit": 26824, "oad": 1376, "RV": 36031, "fefefe": 41330, "lichen": 27986, "levels": 43836, "Issue": 48712, "\u0120poster": 20731, "House": 26448, "\u0120prox": 16843, "Cycl": 48314, "chr": 19882, "/>.": 40000, "irmed": 4504, "\u0120revised": 17265, "\u0120dou": 2443, "isol": 18762, "urchase": 25125, "Proto": 36627, "\u0120\u00ce\u00bd\u00ce\u00b1": 19073, "\u0120litigation": 15561, "elen": 23622, "\u0120nib": 44768, "\u0120contamination": 17969, "\u0120delighted": 25534, "649": 26937, "\u00eb\u012d": 14394, "\u0120recorder": 40438, "\u00d1\u0122\u00d0\u00b0\u00d0\u00b2": 44532, "\u0120managing": 14419, "endar": 10124, "\u0120recurrent": 18902, "\u0120hydrolysis": 29112, "\u0120MAPK": 32406, "\u0120replacements": 47105, "USD": 38169, "\u0120whispered": 18017, "Petition": 40453, "gram": 1710, "ettes": 23314, "\u0120trillion": 28126, "\u0120Ampl": 47695, "press": 7100, "\u0120Default": 18193, "Properties": 18401, "ICH": 23959, "yk": 25073, "\u0120liberty": 17843, "\u0120Georgia": 12096, "\u0120Lock": 19989, "sulf": 30923, "Sw": 12455, "\u0120robotic": 35121, "ESULT": 46119, "arius": 26548, "eles": 6719, "Proposition": 49162, "\u00c4\u0122": 21070, "\u0120chair": 6951, "]]": 9502, "\u0120dalla": 49315, "dependent": 6820, "\u0120majority": 5020, "\u0120Mil": 6939, "\u0120discussing": 16585, "\u0120earlier": 4321, "bey": 22905, "\u0120snaps": 48569, "\u0120Bcl": 33164, "\u0120awaken": 25708, "\u0120monarch": 33490, "\u0120Nous": 39672, "\u0120osteoporosis": 39292, "\u0120Promise": 32949, "\u0120Ali": 14355, "essential": 33132, "\u0120forthcoming": 31196, "\u0120transporter": 29362, "\u0120notorious": 32566, "\u0120materials": 4753, "\u0120grapes": 41417, "estyle": 12463, "AFP": 42382, "emplo": 44309, "committee": 43206, "reasonable": 14885, "\u0120correlates": 27972, "\u0120bathroom": 15336, "\u0120chefs": 49828, "\u0120defensive": 14397, "\u0120notions": 27367, "avas": 9382, "\u0120Brussels": 30167, "\u0120examination": 8368, "\u0120zombie": 42120, "\u0120Citizen": 47422, "\u0120domain": 5028, "Gold": 22526, "\u0120localization": 14536, "\u0120Celtic": 40327, "\u0120tot": 1931, "\u0120subspace": 24822, "sterdam": 24621, "\u0120Proc": 24603, "emitting": 42658, "\u00e3\u0125\u0135": 44649, "ritis": 13825, "nesday": 7502, "subscribe": 31473, "c\u00c3\u00a9": 32612, "ouin": 44818, "\u0120IPA": 46423, "\u0120Lucas": 22838, "using": 5302, "iary": 7855, "\u0120Delaware": 25794, "\u00e0\u00b8": 2869, "\u0120pod": 7360, "\u0120pel": 10065, "ified": 1245, "imit": 16563, "1234": 28941, "\u0120core": 5161, "\u0120Coin": 37022, "NODE": 39143, "\u0120board": 4450, "\u0120nonnegative": 46214, "\u0120extensions": 18149, "Repository": 26753, "048": 27244, "\u0120shoots": 32299, "enstein": 32782, "rophe": 33875, "R": 51, "\u0120cam": 4049, "\u0120\u00d9\u0126": 23630, "\u0120fine": 4030, "bind": 13245, "\u0120stabilization": 28366, "guns": 44186, "\u0120donc": 33985, "ODING": 47242, "\u0120verd": 27553, "ActivityThread": 44369, "\u0120PCI": 22447, "\u0120contracting": 34602, "\u0120Ai": 49673, "\u0120Lange": 49890, "\u010a\u010c\u0120\u0120\u0120\u0120\u0120\u0120": 37682, "aken": 2114, "unken": 35157, "ucle": 2627, "\u0120paths": 11865, "\u0120HL": 28414, "ask": 1945, "con": 585, "\u0120functioning": 15415, "\u0120reign": 19485, "+,": 24728, "\u0120limiting": 14155, "\u0120cannabis": 19625, "\u0120AFTER": 46199, "\u0120Tig": 25631, "\u0120ventil": 39825, "\u0120myocardial": 17883, "\u0120Weinstein": 49224, "rett": 12436, "\u0120client": 5268, "\u0120Chambers": 40972, "\u0120Craft": 35090, "\u0120prod": 30508, "\u00a2": 97, "ferroni": 37990, "className": 42145, "fall": 12615, "un": 328, "=/": 33870, "\u0120Worcester": 41491, "\u0120trier": 42474, "\u0120575": 45916, "\u0120erred": 14416, "\u0120parliamentary": 30566, "\u0120Iz": 37418, "\u0120subd": 33215, "\u0120Siber": 46634, "\u0120primates": 47063, "\u0120choked": 48722, "\u00b4": 114, "\u0120Karen": 25062, "\u0120expansion": 7466, "\u0120uneasy": 43025, "Quality": 36251, "ollywood": 41265, "**--**": 35496, "\u0120Wilcoxon": 48824, "\u0120exception": 6517, "\u0120Cop": 29231, "uy": 7352, "\u0120immunoprecip": 36889, "\u0120rough": 7227, "\u0120|=": 19470, "QUAL": 34532, "\u0120diff\u00c3\u00a9": 42885, "\u0120assembling": 44015, "\u0120piezoelectric": 36564, "iterr": 19138, "cond": 1038, "\u0120rebellion": 32480, "\u0120light": 1708, "\u0120bridges": 24853, "\u0120integer": 7007, "\u0120sin": 6868, "mand": 7076, "\u0120confidential": 18987, "uka": 25501, "\u0120broth": 26425, "bread": 31212, "\u0120awards": 16620, "\u0120veloc": 6641, "()))": 32875, "\u0120abort": 25618, "CAM": 34508, "\u0120congregation": 35997, "decre": 40600, "\u0120HQ": 41053, "ocket": 5156, "\u0120restrain": 46270, "\u0120\u00c3\u00aent": 49406, "KH": 17768, "sey": 5462, "\u0120earth": 6149, "\u0120waiter": 46216, "\u0120Tickets": 48702, "\u0120cyn": 31970, "\u0120ordinary": 9826, "\u0120registers": 25611, "sett": 12569, "zen": 5282, "Link": 10516, "ium": 1514, "\u0120RA": 12875, "302": 19044, "\u0120retal": 24998, "\u0120graphs": 14580, "\u0120microm": 25390, "inel": 29943, "\u0120fragment": 10087, "igation": 5538, "\u0120grave": 16102, "\u0120bore": 17564, "\u0120\u0120\u0120\u0120\u0120\u0120\u0120\u0120\u0120\u0120\u0120\u0120\u0120\u0120\u0120\u0120\u0120\u0120\u0120\u0120\u0120\u0120\u0120\u0120\u0120\u0120\u0120\u0120\u0120\u0120\u0120\u0120\u0120\u0120\u0120\u0120\u0120\u0120\u0120\u0120\u0120\u0120\u0120\u0120\u0120\u0120\u0120\u0120\u0120\u0120\u0120\u0120\u0120\u0120\u0120\u0120\u0120\u0120\u0120\u0120\u0120\u0120\u0120\u0120\u0120": 36321, "ARRAY": 37983, "443": 28871, "\u0120Kh": 15858, "\u0120manga": 38788, "\u0120386": 35312, "Franc": 39265, "Special": 22166, "\u00e8\u00bf\u0136": 47397, "separ": 16806, "\u00e3\u0123\u00ab\u00e3\u0123\u00aa": 33403, "\u0120deform": 22403, "OE": 32658, "\u0120stalled": 48283, "402": 24948, "Differentiate": 41124, "\u00c3\u00a7as": 49802, "onde": 19070, "etta": 19953, "\u0120hottest": 43526, "rass": 13404, "\u0120January": 4247, "\u0120TE": 12248, "aser": 12290, "\u0120insulating": 22831, "Defendants": 38421, "rosse": 47427, "ski": 9327, "\u0120traff": 19225, "\u0120This": 831, "\u0120guarantee": 12215, "unnable": 45757, "marinedrugs": 30371, "\u0120GTP": 37404, "fragment": 36136, "London": 18868, "\u0120Griffin": 29926, "threshold": 34503, "irectional": 30869, "\u0120encouraged": 14659, "\u0120decedent": 35666, "\u0120Andrews": 34855, "\u0120syntax": 16144, "\u0120Horse": 27950, "\u0120necrosis": 21467, "\u0120continental": 39222, "\u0120Exhibit": 33072, "vectors": 34383, "\u0120affected": 5876, "plug": 17381, "\u0120\\*\\*": 22004, "\u0120================================================================": 40038, "DNA": 8354, "\u00c3\u00b5es": 13128, "\u0120Bennett": 26853, "\u0120stratification": 40752, "\u0120wig": 43610, "\u0120premiere": 33552, "Submitted": 42520, "\u0120biosynthesis": 26132, "\u0120awaited": 48717, "\u00e8\u00ae": 14129, "\u0120366": 33274, "\u00d0\u00b3\u00d0\u00be": 41623, "\u0120representation": 6779, "Zhang": 36378, "\u0120horrific": 41485, "\u0120chocolate": 14354, "\u0120analogues": 41222, "Uk": 42399, "stitutes": 44884, "\u0120conditional": 17697, "\u0120Treat": 21560, "889": 33546, "\u0120Lynn": 33603, "erialize": 44350, "\u0120n\u00c3\u00a9": 31627, "\u0120prayed": 34469, "\u0120Marks": 46954, "0030": 29728, "\u0120expl": 1414, "\u0120Die": 9362, "ering": 2158, "utf": 17880, "\u0120mars": 40584, "\u00e3\u0123\u013f": 15936, "1986": 14880, "\u0120possesses": 25099, "ees": 4317, "\u0120v\u00c3\u00a6": 30422, "ergus": 26163, "imensional": 37613, "\u0120hatch": 32732, "\u0120elevate": 50181, "Feb": 17961, "camera": 32499, "\u0120university": 9835, "\u0120568": 46148, "\u0120alk": 9348, "IPV": 33539, "inners": 12947, "\u0120HN": 30792, "\u0120embol": 37165, "\u0120ministers": 23885, "acio": 37831, "assen": 38740, "URAL": 48160, "ferenced": 50252, "\u0120premise": 26536, "rosine": 21797, "\u0120propagate": 38500, "\u0120evolutionary": 16483, "\u0120EDIT": 17675, "\u0120Fel": 17918, "GN": 26756, "labeled": 22027, "\u0120trails": 27192, "\u0120decays": 27221, "Got": 25302, "\u00c8\u013b": 16163, "X": 57, "\u0120allegations": 11307, "\u0120neighborhoods": 25237, "\u0120HD": 10116, "ements": 3658, "ridge": 16068, "\u0120Census": 31188, "soap": 44337, "pl": 446, "\u0120\u00c2\u00b1": 3279, "FB": 18446, "\u0120resolutions": 30285, "\u0120violet": 43597, "\u0120treat": 1555, "\u0120MgCl": 49220, "\u00e9\u0138": 15954, "\u0120endpoint": 21229, "\u0120sleepy": 48849, "\u0120tracked": 27173, "\u0120Tr": 1535, "ischer": 23268, "\u0120proceedings": 10061, "\u0120speculate": 30821, "\u0120bg": 15826, "Examples": 32896, "\u0120Charles": 8444, "\u0120mitochond": 10162, "photo": 24442, "iner": 7068, "\u00e5\u0140\u012d": 34380, "\u0120CBS": 21946, "\u0120Herz": 41660, "\u0120orderly": 42062, "\u0120consciously": 42913, "\u0120considerably": 15455, "\u0120alcoholic": 32840, "\u0120inflict": 25504, "ocyt": 5221, "\u0120hither": 35788, "tty": 46678, "vii": 47963, "Environment": 27041, "\u0120according": 2556, "guided": 26960, "\u00e3\u0123\u013a": 31355, "\u0120evolve": 23554, "\u00ce\u00b1": 2141, "FPar": 21284, "\u0120Oliver": 20554, "CRC": 35939, "apiro": 37557, "\u0120integrable": 40369, "842": 41612, "\u00e3\u0123\u00aa\u00e3\u0123\u0131": 48784, "\u00d9\u012a\u00d8\u00af": 49788, "construct": 17439, "\u0120nud": 34408, "\u0120experts": 10071, "\u0120jealous": 23327, "pendicular": 19865, "\u0120Position": 26598, "\u0120LONG": 43078, "\u0120crore": 43813, "\u0120Conway": 47313, "\u0120Does": 9876, "ussen": 36357, "Matt": 29823, "\u0120smart": 7060, "\u0120Integrated": 41275, "\u0120excluding": 22914, "\u0120magnetic": 5212, "\u0120efficiently": 14556, "DN": 29681, "\u0120pathogenesis": 19556, "sembles": 40275, "\u0120Publishers": 41486, "\u0120{%": 37183, "aldehyde": 38869, "faces": 6511, "first": 7053, "\u0120phenomena": 16958, "\u00c3\u00a1v": 34141, "\u0120Developer": 37305, "\u0120antibiotic": 18820, "\u0120count": 1385, ":\"": 5136, "\u0120prize": 17767, "oded": 7459, "\u0120close": 2810, "\u0120Haz": 25992, "resistance": 40697, "itives": 23223, "\u0120describes": 8631, "\u0120alert": 10028, "Harry": 33244, "\u00e6\u00b4\u00bb": 46549, "\u0120Ju": 19120, "020": 9992, "\u0120indices": 14452, "sensors": 8751, "=%": 23869, "HAS": 35183, "Spin": 38115, "\u0120Platform": 28449, "ensional": 5422, "\u00d1\u0124\u00d1\u012e": 40837, "\u0120low": 1698, "\u0120legal": 4320, "ORT": 7396, "comple": 7507, "Expand": 12897, "\u00e2\u0138\u012a": 24177, "aughs": 34042, "\u0120GENER": 17666, "\u00e5\u00a6\u0124\u00e6\u0140\u013e": 42055, "ec": 886, "CSI": 45068, "\u0120deity": 47498, "\u0120Buffer": 32917, "\u0120topography": 48865, "\u0120Secure": 46251, "\u00e5\u012a\u00b6": 34179, "\u0120Dirichlet": 47340, "\u0120Close": 24445, "029": 18348, "\u0120steroid": 28972, "\u0120Gallery": 21778, "mostly": 39025, "constructor": 36073, "\u00e6\u0142\u00bc": 45683, "\u0120THE": 3003, "\u0120enforced": 27810, "\u0120rib": 9412, "\u0120FGF": 38118, "ethe": 10666, "\u0120Contract": 20597, "\u0120strom": 25542, "\u0120569": 49545, "wer": 8358, "ampa": 24079, "\u0120stare": 25885, "ros": 2921, "asgow": 26227, "\u0120surveys": 17276, "glich": 45075, "CORE": 47338, "!.": 47346, "atsu": 34055, "\u0120accredited": 48267, "indicated": 47084, "\u0120Merr": 34069, "\u010a\u0120\u010a\u0120": 12593, "walk": 13678, "\u0120passport": 31195, "IONS": 21109, "\u0120browser": 9882, "\u0120Rig": 34382, "\u0120cooks": 48972, "plete": 13350, "\u0120addressing": 15974, "\u0120commod": 20315, "!'": 11388, "\u0120vinyl": 27179, "\u0120Jr": 10512, "\u0120calor": 46636, "\u0120Option": 27357, "\u0120TOP": 16087, "\u0120keine": 47363, "itone": 17495, "\u0120Wh": 1536, "itol": 16180, "ammatory": 7030, "\u00cf\u0129": 9650, "\u0120Inf": 13160, "\u0120ascribed": 45800, "\u0120Social": 8404, "Border": 29694, "\u0120constants": 14637, "\u0120Brig": 20202, "\u0120ordinance": 25245, "OA": 31794, "\u0120fon": 37885, "textarea": 44749, "ahead": 42338, "\u0120Edu": 43826, "cluding": 6547, "\u0120recur": 11896, "link": 4492, "1997": 12430, "larg": 14915, "\u0120additionally": 23000, "\u0120302": 29044, "olla": 30997, "\u0120Ear": 40627, "texture": 38595, "asons": 3743, "dig": 11174, "\u0120ensemble": 19862, "\u00cf\u0122\u00ce\u00b5\u00ce\u00b9": 47403, "\u0120thriving": 43377, "289": 24208, "\u0120api": 23370, "\u0120\u00c2\u00ab": 7539, "\u0120aby": 48689, "170": 15046, "\u00e6\u012e": 18245, "\u0120Allah": 27006, "\u0120Enc": 35506, "\u0120orchestra": 37970, "EXCEPT": 44788, "\u0120cents": 23903, "\u0120provide": 2085, "\u0120anos": 41658, "\u0120Eyes": 39503, "ensory": 41593, "\u0120immig": 7978, "\u0120Deal": 25412, "\u0120anc": 6164, "\u0120chairs": 21583, "\u0120exceptional": 18714, "xff": 21671, "287": 24117, "Part": 7834, "rit": 902, "\u00e8\u012a": 34372, "uls": 7228, "ria": 5182, "\u0120snakes": 37094, "\u0120rat": 2839, "\u0120detr": 22636, "================": 1702, "PI": 8022, "\u0120magic": 10721, "\u0120gratefully": 47444, "opold": 48034, "\u0120justices": 50236, "described": 25598, "MESS": 32311, "length": 3985, "\u0120Apply": 39530, "\u0120cyt": 4554, "\u0120Preston": 44124, "Calendar": 37443, "\u0120comprehens": 9483, "Lib": 19467, "DV": 26807, "\u0120Wool": 32632, "\u0120corro": 23149, "\u0120sac": 7044, "\u0120guaranteed": 16293, "\u0120Git": 22393, "\u0120sins": 27932, "\u0120Bulgaria": 43905, "{\"": 9819, "fert": 44399, "\u0120LIFE": 49367, "\u0120stagn": 36879, "\u0120Pres": 3327, "\u0120Boston": 9693, "UN": 4037, "\u0120followers": 18409, "Check": 9063, "\u0120renamed": 27624, "\u0120modifications": 14586, "\u0120Regiment": 30068, "fields": 15069, "vid": 18049, "\u0120ext": 1021, "\u0120desired": 6799, "\u0120substances": 15991, "\u0120Cut": 18665, "\u0120Baker": 18749, "\u0120penalties": 22414, "\u0120dining": 17552, "\u0120operative": 24685, "\u0120modelling": 26278, "\u0120MAN": 31250, "Nick": 31853, "\u0120Evil": 34565, "\u0120Bec": 40392, "\u0120glial": 42782, "\u0120Liver": 17687, "Opt": 13967, "\u0120Historic": 23041, ".\u00e2\u0122\u012d": 32477, "istar": 43418, "\u0120Freddie": 48882, "\u0120mechanisms": 6297, "\u0120involvement": 10171, "603": 29251, "ysym": 8627, "precedented": 22665, "\u0120toxic": 12825, "\u00e5\u00a4": 7249, "\u00d0\u00b7": 7762, "\u0120disgr": 30190, "tabs": 33754, "dle": 34630, "\u0120429": 35597, "\u0120Law": 5405, "\u0120illusion": 25451, "setup": 23320, "\u0120Religion": 34959, "\u0120Aboriginal": 42053, "\u0120Kath": 23843, "USH": 27224, "\u0120Grande": 35896, "(.": 29369, "brainsci": 46045, "\u0120gases": 21379, "\u0120theorem": 10012, "\u0120erupted": 41763, "\u0120Limit": 46757, "\u0120pattern": 3102, "vironments": 11986, "}}}": 6092, "etra": 49434, "Ped": 49789, "\u0120confidentiality": 39581, "149": 16717, "orna": 46932, "String": 2776, "\u0120Heaven": 22758, "comm": 2823, "antom": 25417, "\u0120exploratory": 41075, "endants": 8817, "attribute": 15810, "aling": 4052, "STE": 38795, "\u0120remorse": 47753, "\u0120\u00d0\u0132": 31820, "\u0120Cre": 13501, "\u0120Bom": 40985, "aryng": 43420, "ep": 554, "}$,": 3303, "\u0120repl": 2397, "business": 21616, "\u0120lua": 33617, "\u0120entertain": 9845, "\u0120mem": 1167, "\u0120Aristotle": 35274, "anus": 38628, "\u0120spear": 31636, "\u0120classroom": 20874, "\u0120Cache": 41342, "\u0120sous": 32022, "\u0120pertains": 45703, "Binary": 32849, "April": 19591, "\u0120converted": 11516, "lvert": 28526, "\u0120enlarged": 28148, "\u0120tit": 8225, "ovir": 34088, "gran": 28859, "aliana": 48108, "\u0120@@": 34346, "DD": 11927, "\u0120wounded": 16545, "Equals": 16911, "istration": 21617, "outheast": 18518, "\u0120MR": 11928, "\u0120vulnerable": 14043, "\u0120bere": 29958, "\u0120series": 2962, "\u0120use": 897, "\u0120representative": 8612, "uction": 14684, "\u0120Herald": 31566, "\u01201989": 11161, "comment": 13982, "\u0120fridge": 32454, "ike": 2804, "\u0120saliva": 37074, "\u0120rede": 23020, "\u0120Anyway": 28814, "\u0120378": 38316, "\u012001": 14805, "Se": 3251, "plements": 16603, "\u0120cDNA": 17060, "\u0120mour": 23679, "\u0120React": 23782, "\u0120donations": 23866, "\u0120193": 26138, "escape": 34189, "emu": 36812, "\u0120downregulation": 38726, "\u0120Heart": 15382, "66": 2526, "Objects": 28747, "\u0120Odd": 43871, "\u0120AMERICA": 46063, "orescent": 40411, "\u0120Sym": 16048, "dit": 22940, "\u012026": 3436, "\u0120scores": 7363, "\u00d8\u00a9": 12458, "Menu": 14324, "\u0120Combining": 39369, "\u0120overlapped": 48955, "\u0120diversion": 41567, "oved": 3149, "\u0120Verizon": 39790, "\"});": 43061, "\u0120unreasonable": 20697, "\u0120fuse": 34824, "\u0120conjecture": 24366, "\u0120parent": 2885, "\u0120Olympics": 17165, "\u0120Jacobs": 41183, "\u0120grim": 22072, "\u00d0\u00b5\u00d0\u00bd\u00d1\u012e": 40123, "\u0120Revolutionary": 42427, "\u0120worsh": 43055, "\u00ca": 134, "\u0120offer": 3959, "\u0120fuck": 7435, "idered": 2744, "rad": 4614, "vendor": 33247, ",$": 12063, "\u0120extraction": 11998, "sd": 8289, "Ready": 31777, "bit": 2713, "\u0120batteries": 19978, "\u0120esc": 6262, "atomic": 16807, "\u0120proceeded": 20311, "parable": 36730, "\u0120watershed": 49074, "UTE": 23638, "formula": 19350, "\u0120witnessed": 21153, "\u0120amusement": 36067, "manifold": 38556, "892": 39328, "\u0120monstrous": 49358, "ules": 2651, "petition": 30351, "\u0120superoxide": 41180, "\u0120conductivity": 20791, "obenz": 46648, "\u0120chitosan": 49206, "anz": 11670, "\u0120482": 43823, "\u00d0\u00be\u00d1\u0123": 13043, "thick": 27663, "\u0120Match": 29954, "andi": 38911, "\u0120hapl": 21586, "unicode": 44054, "\u0120none": 5293, "\u0120een": 10814, "\u0120amended": 13799, "Bel": 15343, "054": 29695, "\u0120jot": 42845, "\u0120Mice": 33133, "Dog": 47074, "\u0120semiconductor": 10236, "\u0120speaker": 14925, "\u0120puls": 24295, ")^": 4800, "\u0120Err": 9717, "ushima": 46102, "\u0120Himal": 49389, "\u0120Sounds": 41900, "\u0120dialysis": 29267, "observed": 45912, "DW": 14279, "umped": 26515, "\u0120comparison": 5301, "General": 13425, "Env": 32883, "\u0120Techn": 6439, "\u0120sli": 12031, "ovation": 21373, "\u0120rodent": 40815, "\u0120fil": 1193, "\u0120Pr": 2604, "emn": 24551, "\u0120Percentage": 46171, "arser": 9332, "Aff": 26216, "\u00c2\u0124": 8381, "however": 35529, "\u0120pela": 35553, "\u0120undergraduate": 31454, ".**": 6019, "\u00e5\u0122\u00bc": 40969, "\u0120illust": 15612, "Call": 7865, "Present": 25582, "lVert": 27805, ":.": 43118, "\u0120mail": 8888, "Touch": 29330, "\u0120reun": 27135, "\u0120Newman": 35403, "\u0120findings": 4342, "do": 3088, "\u0120principles": 9241, "\u0120<=": 11049, "\u0120suggest": 1804, "\u0120adherence": 19471, "\u0120Aviation": 38315, "IR": 3027, "\u0120wheat": 18173, "fm": 22401, "\u0120Enterprise": 26470, "iset": 42468, "\u0120affiliation": 37846, "enta": 20891, "Does": 10795, "itzer": 13412, "\u0120nutritional": 21989, "\u0120fra": 6005, "\u0120London": 4693, "\u0120generalize": 39970, "\u00e0\u00b9\u0123": 40455, "PropertyGroup": 41410, "Validator": 41205, "\u0120RBC": 33948, "\u00e3\u0123\u0139\u00e3\u0123\u0126": 46016, "925": 48054, "\u0120Mountains": 28214, "nal": 2110, "\u0120354": 38614, "idget": 13776, "\u0120Sequ": 18374, "owski": 15767, "\u0120ground": 3216, "ensure": 5358, "\u0120interacts": 29290, "\u0120beings": 14965, "shaped": 13824, "remove": 12163, "\u0120characterization": 14846, "\u0120homosexual": 29721, "\u0120widespread": 14414, "ISION": 34316, "\u0120Mega": 44969, "\u0120repo": 30905, "\u00d0\u00b5\u00d1\u0124\u00d1\u0123\u00d1\u0131": 36663, "bles": 9143, "\u0120ved": 27685, "\u0120hereinafter": 41611, "\u0120Janeiro": 48648, "\u0120Spring": 10039, "\u0120flavors": 26791, "\u0120nv": 39151, "\u0120Jensen": 42054, "\u0120nearer": 37335, "ksen": 45988, "\u0120PAS": 42300, "\u0120milling": 49946, "\u0120BUT": 17706, "\u00eb": 167, "pte": 41523, "Im": 3351, "textrm": 11920, "\u0120ML": 13993, "\u0120teenager": 28713, "\u0120Somehow": 45138, "\u0120suspects": 25638, "\u0120DSL": 49166, "ilib": 9746, "\u0120Carnegie": 48476, "ikel": 41503, "\u0120Santos": 40059, "\u0120Coc": 40825, "eval": 15419, "\u0120stay": 3297, "atically": 5372, "IDEO": 38949, "\u0120incent": 15210, "Medium": 46374, "ocial": 2142, "ED": 1703, "\u0120xenograft": 35032, "843": 38119, "\u0120underlying": 6944, "\u00e3\u0123\u0124\u00e3\u0124\u012c": 38591, "clus": 3679, "trained": 32927, "\u0120MARK": 45375, "\u0120\u00e2\u0128\u0134": 19167, "\u00e2\u0139": 27739, "\u0120duplication": 35793, "olute": 18046, "\u012090": 5091, "chan": 2291, "\u0120defect": 7071, "_{{": 20416, "\u0120condition": 1617, "\u0120months": 2607, "artments": 25545, "rength": 27410, "Score": 29064, "slow": 31200, "(<": 40473, "\u0120blends": 43709, "\u0120plantation": 45051, "yl": 1190, "cv": 17312, "\u0120excurs": 37390, "\u0120motifs": 25907, "\u00c4\u0123n": 39353, "\u0120URLs": 40489, "disambiguation": 42412, "467": 44598, "mathrsfs": 8828, "\u0120honey": 14795, "\u00d8\u00ac": 23072, "\u0120Mens": 33582, "Hall": 35455, "cancers": 19141, "ocin": 37091, "bs": 1768, "\u0120comprehensive": 11088, "\u0120invol": 1901, "LECT": 9656, "\u0120prevented": 14415, "\u00e7\u00a8": 22580, "`:": 38416, "inski": 26630, "\u0120CCL": 39756, "Attributes": 23372, "\u0120purchasing": 21016, "FR": 6764, "\u0120Devices": 41442, "\u0120uni": 42015, "decoration": 43101, "Roll": 43956, "ounding": 13802, "\u0120sorrow": 26034, "\u0120exclusion": 14978, "\u0120appointments": 30219, "\u0120Borel": 42967, "\u0120brom": 27726, "\u0120Pole": 45724, "\u0120considerable": 10665, "\u0120OP": 13664, "evo": 46261, "\u0120Priority": 46859, "Magic": 47205, "widetilde": 6796, "\u0120Advent": 23271, "\u0120avoidance": 28772, "\u0120chuck": 22522, "\u0120enjoyable": 30357, "\u00e0\u00b2": 14489, "Black": 15383, "aning": 18197, "\u0120prev": 1404, "\u0120liber": 10875, "\u0120slower": 17357, "asser": 30666, "unden": 46747, "\u0120PFS": 47286, "Wave": 34059, "\u0120constitutionally": 38704, "\u0120delaying": 47308, "\u0120Abr": 30473, "\u0120atrial": 27974,
[...]
