{"\u2581k\u00f6": 8392, "\u2581Az": 7393, "tu": 17512, "\u2581crushed": 25358, "-)": 27346, "\u043a\u043e\u043d": 10676, "\u6e21": 31512, "emen": 15295, "\u2581desc": 2283, "\u2581horizontal": 18116, "\u2581vis": 1717, "\u2581systems": 4918, "\u2581\u0420\u0443": 14116, "\u2581cette": 8821, "\u2581Rub": 12178, "\u2581clothing": 13278, "\u2581Square": 15308, "\u2581Share": 21115, "\u2581coefficient": 23982, "\u2581\u043d\u0430\u0441\u0435\u043b\u0435\u043d\u0438\u044f": 23031, "\u2581Sylv": 25987, "\u793a": 29073, "\u00e2te": 17748, "')": 1481, "scape": 8951, "\u2581CD": 8204, "AtA": 26570, "\u6218": 30272, "\u2581around": 1401, "\u2581dys": 20840, "\u2581snapshot": 20304, "neurs": 24283, "\u2581Faith": 25098, "\u2581Device": 20000, "EE": 6367, "\u2660": 30736, "\u2581After": 2530, "\u2581bes": 3432, "\u2581teaching": 9432, "\u2581Choice": 27710, "\u2581situation": 4620, "able": 522, "\u2581reflected": 17222, "\u2581frank": 23580, "\u770c": 31432, "\u2581desires": 23545, "entity": 5584, "\u2581comme": 6702, "Select": 7464, "\u2581Row": 14392, "Overflow": 24181, "\u2581stored": 11141, "\u103a": 30247, "side": 2205, "\u2581si\u00e8cle": 13717, "verted": 18692, "<0x1F>": 34, "\u2581Anderson": 15661, "\u2581configure": 20919, "\u00a9": 29002, "\u2581poi": 19325, "usch": 26628, "ologist": 12418, "\u2581veh": 5639, "\uad70": 31672, "\u2030": 30412, "\u2581warning": 9536, "\u2581lugar": 16132, "\u09b9": 31245, "\u2581Activity": 24066, "\u2581embedded": 20007, "\u2581am": 837, "rt": 2576, "\u2581growth": 6057, "l": 28714, "\u2022": 28899, "\u0576": 29688, "\u0432\u0430\u0432": 14215, "\u6750": 31239, "\u66b4": 31492, "ceptor": 18933, "=\"#": 15532, "\u2581Organization": 21919, "\u2581cleanup": 22005, "pick": 22685, "\u2581evac": 25469, "\u2581(!": 1661, "\u3058": 30692, "Generate": 23342, "\u2581<!--": 12828, "\u0432\u0430\u043b\u0430": 18846, "ec": 760, "\u2581decades": 10073, "\u2581vehicle": 8114, "\u2581sd": 19515, "Sum": 9881, "ocation": 10001, "\u2581broadcast": 11837, "thal": 21361, "\u2581demon": 5762, "Ident": 8876, "\u2581athletes": 23403, "\u2581batt": 8396, "\u2581occupied": 16512, "\u2581doub": 19686, "\u2581believed": 7761, "\u2581athlet": 14587, "colo": 17382, "encoding": 17958, "istically": 26588, "tml": 7684, "\u00fablic": 11850, "\u2581flick": 15850, "sek": 25933, "RA": 5244, "i\u00e8me": 17803, "\u2581Large": 23292, "\u2581franz\u00f6s": 24869, "\u2581end": 948, "Consum": 16277, "\u2581mism": 25279, "\u0088": 30463, "\u65b0": 29056, "resh": 2874, "\u2581Bernie": 26009, "lo": 731, "\u2581fp": 16108, "News": 25614, "\u2581pens": 12811, "\u00f3\u0142": 12023, "\u2581pregnancy": 18974, "\u2581gods": 16578, "\u2581,": 1200, "ading": 7836, "\u02cc": 30636, "\u2581Atlantic": 16343, "Dit": 15324, "isan": 18164, "\u5706": 30952, "\u2581matters": 9760, "<0xA3>": 166, "writ": 10253, "\u2581invariant": 18567, "\u2581Harry": 9726, "\u9b3c": 31435, "ande": 5224, "deep": 17398, "\u2581Pract": 15961, "Tick": 22812, "\u2581Papers": 24697, "red": 893, "based": 5527, "configuration": 13925, "\u2581Ind": 1756, "bin": 5721, "\u2581intended": 8926, "\u2581Fac": 13924, "Debug": 7156, "\u2581heute": 21602, "\u2581Miche": 27891, "Once": 16114, "\u2581Eventually": 20825, "arden": 5699, "iones": 4639, "percent": 18799, "\u5bcc": 31017, "\u2581underneath": 21901, "\u2581disappoint": 10734, "leted": 5627, "\u2581\u0441\u043b\u0443\u0436": 26683, "syn": 25690, "tags": 12586, "\u2581Writer": 28167, "\u2581Channel": 14250, "\u2581stolen": 18318, "\u2581Should": 10934, "\u8bae": 30361, "msg": 3932, "\u2581Pin": 17929, "itage": 13979, "mul": 18176, "\uac83": 30439, "itos": 17122, "\u2581`${": 22468, "print": 2031, "\u63d0": 29279, "\u5fc3": 29574, "\u099a": 31531, "\u6771": 30366, "UR": 1990, "\u2581Miss": 5586, "\u2581sept": 10344, "\u2581quot": 17528, "\u2581Jet": 28252, "\u2581Configuration": 20058, "\u008f": 29658, "\u2581Sac": 17219, "\u0444\u043e": 21103, "\u2581nv": 25962, "\u00c0": 28964, "\u2581transaction": 8966, "\u2581affect": 5197, "\u2581deputy": 25176, "\u0631": 28947, "\u2581sheep": 19583, "\u2581XX": 12931, "\u2581population": 4889, "fp": 8808, "\u2581Dou": 9108, "\u2581convince": 18951, "groups": 12420, "\u2581intense": 14373, "\u2581Other": 5299, "\u2581reveals": 21579, "Are": 5985, "\":": 1264, "Actions": 15826, "________________": 17226, "\u2581ausge": 26227, "\u2581sponsored": 28332, "\u2581Perry": 24150, "\u2581Sul": 19604, "\u2581\u0430\u043b\u044c": 20462, "\u2581adds": 13633, "\u2581powered": 26006, "destination": 20333, "iven": 5067, "\u00e0": 28839, "\u043f\u0440\u0430\u0432": 12959, "Error": 1708, "\u2581wel": 5661, "\u2581Primary": 25938, "\u2581nearly": 5597, "detail": 16017, "olves": 18725, "\u2581Writing": 19920, "\u2581\u043e\u0440\u0433\u0430": 13561, "\u2581variety": 6677, "annels": 7229, "\u9810": 31283, "\u2581Typ": 15633, "Anim": 14224, "ania": 4877, "\u0441\u0442\u0432\u0430": 6238, "\u2581wool": 25943, "\u2581Brig": 15114, "\u2581publications": 23311, "\u2581oficial": 21774, "\u5e86": 31301, "\u2581steps": 5944, "\u2581lever": 22599, "(\\": 1365, "\u672a": 29509, "\u2581aff": 2211, "\u2581Cop": 9321, ">\")": 26461, "\u5185": 29188, "platz": 23591, "\u2581staat": 24617, "Uniform": 23472, "<0xE1>": 228, "aci": 13114, "les": 867, "\u2581generic": 12921, "\u2581retval": 25232, "ifier": 3591, "\u2581tiempo": 17925, "\ud06c": 30056, "\u2581services": 3345, "Listener": 5031, "\u2581Install": 22609, "\u6210": 29025, "\u2581protocol": 10189, "\u2581m\u00e5n": 24481, "\u2581Things": 15573, "\u2581inc": 2258, "coming": 4343, "Turn": 23429, "\u2581situations": 11846, "\u2581fins": 22339, "program": 13329, "\u2581ultra": 26600, "\u1f21": 31990, "Vol": 9503, "ments": 1339, "PG": 12722, "<0xBE>": 193, "\u2581SU": 13319, "\u80e1": 31669, "\u2581alleged": 22362, "ifacts": 24639, "\u2581radial": 28021, "\u2581Liv": 23121, "panic": 19771, "\u2581aggress": 12788, "oya": 27338, "\u2581hasta": 11539, "\u2581auto": 4027, "<0x07>": 10, "\u2581secret": 5169, "\u2581Brazil": 13250, "\u2581Ernest": 27915, "\u2581gradient": 21135, "reg": 1376, "\u2581hex": 19703, "atra": 21909, "\u2581Monte": 14706, "ref": 1013, "\u2581\u043e\u0431\u043b\u0430\u0441\u0442\u0438": 14973, "\u2581liability": 22581, "parent": 3682, "watch": 10330, "\u2581fellow": 8828, "\u2581denote": 14543, "\u9752": 30377, "Operations": 23709, "\u2581\",": 7717, "mesh": 18372, "\u2581Scar": 23147, "\u2581derive": 24058, "jours": 22200, "riage": 6161, "ny": 1780, "\u2581strip": 15039, "<0xB8>": 187, "\u2581pipe": 13661, "RST": 22551, "\u1f70": 31235, "\ud3ec": 30387, "\u2581strikes": 24128, "\u2581Eu": 28067, "\u2581oppos": 5793, "\u2581Grande": 18446, "\u2581ultimately": 12665, "\u5bf9": 29051, "\u2581pit": 11265, "\u2581command": 3445, "miss": 7924, "\u2581stands": 10969, "Come": 14724, "\u2581actress": 18334, "\u2581perd": 17266, "vol": 3871, "Measure": 25241, "\u8fce": 31366, "Main": 9000, "ipv": 21294, "shirt": 21122, "\u2581youth": 9539, "\u2581evangel": 24276, "\u2581calories": 24336, "OS": 3843, "\u0018": 30555, "\u2581cigarette": 19819, "\u2581accidentally": 27630, "ILED": 17094, "\u2581spell": 13050, "velt": 16920, "\u2581onde": 25747, "Cert": 12584, "\u2581may": 993, "\u03ce": 29803, "\u2581qual": 4109, "aje": 11237, "legal": 7090, "\u2581WITH": 17974, "\u2581\u041e\u0440": 20805, "\u2581sow": 28689, "ida": 2331, "\u2581dread": 17790, "\u2581enhance": 11976, "Filters": 24261, "\u9ed2": 31911, "\u2581Sto": 16774, "osz": 24982, "Sig": 25047, "\u2581people": 905, "\u2581useful": 5857, "TRY": 13224, "\u2581United": 2969, "ason": 1412, "ais": 1555, "\u2581Linda": 23285, "\u2581Beg": 25572, "\u2581altered": 25980, "\u2581communications": 16300, "\u6cd5": 29095, "illed": 2636, "\u2581Dublin": 22263, "leep": 3109, "\u2581slip": 13070, "\u2581les": 1514, "\u674e": 30548, "\u2581\u0414\u0436\u0435": 24690, "esta": 9221, "\u2581nej": 25699, "Would": 26024, "\u2581Integr": 18208, "tain": 12092, "\u2581Samuel": 16595, "\u2581\u043a\u043e\u0442\u043e\u0440\u044b\u0445": 28202, "\u2581USS": 22961, "child": 4657, "\u2581ignored": 11389, "\u62df": 31005, "\u043a\u043e\u0432\u0430": 14069, "\u2581continuous": 12734, "\u2581va": 4536, "\u80cc": 30402, "ched": 1572, "\u2581records": 7806, "\u2581categories": 13187, "fu": 21278, "\u2581Sed": 23945, "Library": 17183, "pp": 587, "\u526f": 31429, "\uba70": 31718, "\u2581Par": 2316, "\u4e00": 28969, "iet": 1296, "\u00bb,": 6279, "LD": 12093, "\u2581wind": 5535, "\u0442\u0438\u0438": 28430, "\u955c": 31555, "\u2581analog": 16468, "\u2581argue": 13391, "\uccad": 30594, "\u2581Jos\u00e9": 12369, "\u2581posterior": 20862, "iene": 6863, "\u2581lan": 26573, "\u2581boss": 10949, "ovember": 4208, "\u2581gradually": 17885, "\u2581transformation": 12958, "\u2581outdoor": 15382, "\u2581everything": 2905, "\u2581matched": 16933, "gem": 20898, "\u2581Kinder": 23786, "\\|_{": 26978, "oses": 14779, "roz": 27641, "\u039f": 29865, "\u0923": 31001, "\u8f09": 31362, "EQ": 5692, "ede": 6497, "component": 7451, "\u015f": 28987, "\u2581assert": 2177, "atever": 4651, "$;": 24912, "\u2581Ess": 11299, "ourse": 8306, "\u2581Lion": 23236, "\u0398": 30394, "wid": 8727, "^{+": 24206, "geme": 18232, "\u2581hope": 3317, "\u2581edific": 23680, "Contin": 22610, "\u2581nove": 9076, "ribute": 1983, "cases": 14418, "isf": 4281, "\u2581nationale": 22296, "\u043e\u0433\u0440\u0430\u0444\u0438": 14784, "\u2581machines": 12155, "\u00e9t": 2959, "\u2581n\u00e9": 8688, "\u2581Sound": 14811, "\u2581chap": 11708, "\u2581Cas": 8194, "\u2581ten\u00eda": 23396, "\u2581package": 3660, "\u2581germ": 23157, "\u2581research": 3332, "binary": 18442, "dsi": 26416, "\u2581sn": 2502, "\u9593": 29996, "Boolean": 9925, "icode": 15535, "\u2581bamb": 27048, "\"],": 8883, ".\\": 5923, "\u2581rend": 6884, "Attributes": 9956, "main": 5389, "\u2581Beck": 16596, "\u2581environments": 20031, "\u4f5c": 29089, "\u2581Example": 16693, "awk": 22527, "\u2581depends": 9618, "ironment": 3333, "Filter": 5249, "\u2581afraid": 8526, "\u2581Washington": 5924, "\u2581bench": 11984, "sel": 2325, "\u2581Cloud": 13832, "\u2581medal": 16338, "\u2581crown": 22718, "sequence": 16705, "\u2581heels": 22822, "\u2581niet": 14654, "Rest": 9133, "arks": 7696, "\u2581Training": 15394, "omon": 20785, "\u2581\u043f\u0435\u0440\u0435": 4978, "\u2581sail": 12432, "FIELD": 13452, "\u2581brill": 12000, "\u2581Columbia": 14402, "\u1f76": 30492, "\u5176": 29450, "ler": 1523, "plex": 8899, ">/": 23211, "\ub3c4": 29599, "\u2581muj": 20397, "\u2581protect": 5321, "??": 8908, "api": 3016, "save": 6568, "_,": 6930, "aaaa": 12648, "\u2581\u0434\u0435\u043a\u0430": 21871, "\u2581Northern": 12781, "posite": 18439, "\u2581There": 1387, "ED": 1906, "\u2581stations": 14474, "article": 15461, "\u2581Guard": 12391, "\u2581Hawai": 18839, ">();": 7100, "\u2581emails": 19863, "Middleware": 26285, "econom": 26390, "\u2581Pope": 21633, "\u2581owners": 10703, "\u2581M\u00e9": 16786, "fen": 16926, "LOCK": 7588, "\u2581second": 1676, "\u2581affiliate": 24933, "math": 928, "iding": 3269, "\u2581operate": 13858, "\u2581monster": 18251, "\u2581timeout": 11965, "\u2581guid": 12412, "\u0432\u0435\u043d": 16227, "icals": 25079, "\u2581Stadt": 11363, "ivas": 25268, "\u26d4": 30184, "setState": 24624, "\u4e60": 30978, "\u2581serie": 11577, "isto": 19074, "\u2581Abs": 12709, "\u5957": 30846, "sty": 22958, "\u2581Time": 5329, "\u2581\u041e\u043d": 25507, "\u0441\u044c\u043a\u043e": 5205, "ijn": 6364, "Helper": 5129, "includegraphics": 7621, "chaft": 6655, "\u2581Much": 15465, "icate": 5749, "\u2d4f": 31443, "\u2581lie": 4852, "\u2581Normal": 23325, "\u2581J": 475, "\u2581sense": 3367, "a\u0142": 3862, "cht": 5862, "\u2581eyes": 2282, "rieben": 25077, "PDF": 28484, "uent": 9938, "\u7dda": 30501, "\u2581closed": 5051, "]->": 11379, "\u2581Cast": 6440, "\u2581concl": 5233, "LP": 11661, "Warnings": 24708, "\u6263": 31444, "\u2581paid": 5907, "ails": 2014, "\u2581\u043a\u043b\u0443": 17137, "\u2581bez": 18037, "\u2581u": 332, "}[": 5842, "\u0440\u0438\u0441\u0442\u0438": 23406, "unt": 2794, "\u2581forced": 7207, "\u2581num": 2075, "Execut": 7776, "fr": 898, "jen": 6956, "\u2581brands": 15638, "flu": 17262, "\u2581poor": 5366, "\u2581mejor": 23209, "Miss": 14252, "optional": 14496, "\u77e5": 29661, "\u2581fantasy": 17393, "omb": 3865, "\u2581gest": 7165, "\u2581needle": 25710, "\u2581dates": 12791, "per": 487, "ane": 1564, "\u0abe": 31290, "continue": 10243, "\u2581job": 2389, "pleted": 14258, "ging": 3080, "equiv": 13220, "\u2581buffer": 5496, "([]": 15993, "\u2581wait": 2444, "\u2581diam": 10748, "\u2581Yan": 18421, "\u2581critical": 7276, "\u00e8": 28840, "\u4efb": 29454, "<0x75>": 120, "\u2581Map": 7662, "\u2581plant": 5100, "\u2581Wars": 12096, "l\u00e4": 15135, "version": 1790, "\u2581Quarter": 24391, "\u092d": 30893, "atures": 2863, "\u6267": 29556, "Collection": 7587, "Prim": 18888, "\u2581mientras": 22188, "adays": 25182, "................": 22207, "\u2581performance": 4397, "\u2581\u0441\u0442\u0430\u043d": 21479, "EventArgs": 26809, "\u2581\"./": 11171, "TEXT": 9219, "\u6ce2": 30382, "\u2581in": 297, "ze": 1374, "\u2581football": 6569, "\u2581thous": 5003, "\u2581stars": 7448, "\u2581Bou": 14574, "\u2581industrial": 10663, "\u30a2": 29322, "\u2581Lap": 23760, "\u2581Han": 8225, "\u0441\u043a\u0443\u044e": 20717, "\u2581tens": 19391, "\u2581\u043e\u043a\u0440\u0443": 15119, "\u2581Magn": 19654, "defaults": 22086, "Annotation": 17087, "\u0441\u0442\u0435\u0440": 16487, "\u2581module": 4597, "afka": 22167, "eous": 25818, "\u2581\u0442\u0443": 19365, "\u30b3": 29573, "\u00e9ge": 24981, "MAGE": 15269, "\u2581And": 1015, "owie": 7493, "\u2581Wor": 22366, "\u6a4b": 31730, "\u2581stepped": 9593, "\u0434\u0443": 2454, "ournal": 7116, "izable": 11552, "\u0446\u0438\u0439": 22940, "\u2581Cit": 16334, "<0x23>": 38, "apply": 10877, "\u2581employee": 12234, "\u2581temps": 12974, "Entry": 4909, "\u00f3wn": 16213, "\u2581Airlines": 28415, "disable": 9613, "ern": 1173, "\u2581career": 4835, "\u2581Indones": 16653, "en\u00ed": 16640, "variable": 15332, "Phi": 8106, "ship": 4760, "Listen": 17705, "\u0c15": 31985, "\u2581Conserv": 12200, "ubre": 19773, "\u2581herself": 4746, "StackTrace": 20270, "public": 2001, "\u2581Rodr": 20368, "\u82d7": 31927, "\u2581series": 3518, "Nodes": 12674, "Command": 4740, "Un": 1733, "dyn": 23076, "\u2581Relig": 18877, "\u2581Zw": 19678, "\u2581betray": 26580, "\u2581neglect": 26902, "\u0578": 29837, "cep": 18316, "Variable": 10516, "\u2581TH": 6146, "P": 28753, "\u2581cannab": 25761, "\u2581Identity": 28399, "uple": 7723, "\u2581hay": 16664, "\u2581indul": 24155, "linked": 27465, "\ub9ac": 29288, "aw": 1067, "\u2581Monday": 9262, "chem": 23164, "\u77f3": 29942, "une": 1802, "}+\\": 13582, "tbl": 15316, "\u121d": 31798, "\u2581stem": 17854, "\u2581Story": 13689, "\u2581disorder": 17404, "mmc": 28648, "EXIT": 28344, "\u989c": 30327, "\u2581trailing": 27166, "\u2581\u0441\u0431\u043e\u0440": 25094, "<0x52>": 85, "izza": 13983, "\u2581registration": 14409, "razy": 7853, "roe": 23034, "\".": 2586, "\u2581screening": 23191, "Media": 9426, "\u2581\u0440\u0456": 15629, "Fe": 5980, "PyObject": 21554, "\u2581journalists": 26197, "\u2581Priv": 15650, "\u2581Third": 14671, "\u2581developed": 6202, "\u2581klikken": 15708, "\u2581priest": 16032, "Mal": 20682, "\u2581press": 2944, "etes": 10072, "Initialize": 22719, "\u2581advert": 7991, "grp": 25890, "\u0432\u0443": 6725, "Write": 5238, "\u0584": 31289, "\u2581wie": 7220, "\u2581Old": 7470, "\u6a2a": 31249, "\u2581impossible": 8313, "\u2581scroll": 11445, "\u0430\u043d\u0430": 20909, "\u2581(\u201c": 27156, "\u2581him": 713, "\u2581neuro": 20342, "\u2581Bei": 17457, "\u2581Sch": 1609, "sey": 7353, "\u2581invitation": 22504, "ography": 5064, "\u03ad": 29271, "unicip": 6724, "agent": 14702, "\u2581Tool": 12877, "\u2581tight": 6975, "\u2581sour": 18193, "\u2581reduces": 21123, "\u2581fierce": 27118, "\u53c8": 30744, "\u2581starts": 8383, "\u2581Has": 10981, "ifting": 13120, "cuss": 12804, "<0x44>": 71, "door": 9405, "\u00fcber": 20173, "\u2581ranging": 22741, "negative": 23238, "html": 3391, "\u73fe": 30651, "\u2581Voice": 25815, "ene": 1860, "\u2581wonder": 3383, "ijk": 17722, "\u0b95": 29856, "\u2581decade": 12250, "\u2581Disc": 23294, "\u2581places": 5563, "\u2581involved": 5290, "\u2581aest": 20429, "SF": 23710, "\u2581Police": 12338, "\u7167": 30131, "\u2581visited": 11542, "\u2581Memorial": 18506, "oute": 3241, "\u2581gray": 11870, "ikh": 26276, "Args": 6686, "\u2581factor": 6999, "Light": 12524, "\u2581cached": 19970, "typ": 23306, "earch": 3625, "\u2581\u0412\u044b": 24311, "\u2581Jr": 12698, "\u2581Lub": 25115, "routing": 17975, "\u2581encourage": 12829, "\u017ce": 10564, "\u2581clinic": 24629, "\u2581fr\u00fc": 27197, "\u2581glo": 19720, "\u2581FROM": 10657, "Return": 6168, "\u2581deployed": 26694, "\u2581risk": 4623, "\u2581pattern": 5340, "\u03a4": 29777, "Mapper": 15760, "Kernel": 24988, "Chunk": 17124, "ultur": 18604, "ifik": 19758, "\ud83e\udd70": 31510, "\u2581deeper": 13551, "\u2581reached": 5048, "\u2581organ": 2170, "antic": 6164, "\u2581Without": 11528, "\u2581stud": 1362, "\uc5b8": 30856, "()));": 8797, "\u2581fasc": 10532, "\u2581Decl": 19066, "\ub828": 31608, "\u2581estad": 21760, "\u8239": 31828, "NET": 11698, "\u2581presents": 15890, "\u2581\u00e9galement": 13417, "\u2581traffic": 8475, "Network": 8653, "cpy": 9860, "\u2581League": 6165, "\u2581merely": 10783, "cdots": 11797, "\u2581Taking": 20648, "\u2581Cart": 13870, "\u2581Marvel": 26696, "\u7f3a": 31040, "style": 3839, "<0xA1>": 164, "nico": 24280, "\u2581time": 727, "\u2581sometimes": 4662, "\u2581f\u00e9vrier": 20905, "\u2581nails": 26539, "whe": 15831, "\u2581stripped": 27371, "\u2581Russians": 27232, "bullet": 18129, "\u2581accur": 6464, "\u2581direction": 5007, "Eq": 14564, "\u2581\u0442\u0430": 2937, "\u043d\u0438\u043a\u043e\u0432": 18154, "\u2581venture": 21106, "\u2581own": 1216, "\u2581puede": 16523, "apshot": 8674, "\u2581Johnny": 18354, "\u2581LP": 18905, "\u2581symmetric": 21030, "edes": 20124, "\u2581Gil": 12416, "\u2581seiz": 25368, "V": 28790, "\u202a": 31791, "\u7d22": 29630, "ought": 1322, "olute": 13703, "asi": 8608, "\u0219ti": 25252, "\u2581Holy": 12830, "\u51b0": 31835, "igkeit": 17134, "ovi\u0107": 22006, "junit": 13720, "\u2581export": 3223, "eto": 5655, "\u2581Radio": 12038, "\u2581republic": 19988, "\u2581storm": 9735, "Under": 16778, "\u2581authentic": 18250, "Extra": 18982, "\u65af": 30320, "\u2581spend": 6305, "Other": 15681, "\\\\": 2214, "kie": 23383, "\u2581delighted": 23038, "\u2581coff": 6350, "\u2581cuatro": 27429, "ful": 1007, "Quest": 14929, "Need": 22829, "Billboard": 26889, "\u2581loans": 15556, "\u2581mal": 6125, "\u2581town": 3736, "^^^^": 27657, "\u2581MT": 23619, "\u2581spoke": 7310, "\u2581orb": 19935, "\u2581({": 13734, "\u7740": 30163, "awt": 17402, "\u30a9": 30302, "\u2581Personen": 25480, "rq": 11916, "\u0441\u043b\u0443": 16467, "ifa": 25622, "\u2581attr": 7527, "\u2581expressed": 11558, "ground": 2812, "\u2581Budd": 13772, "\u2581Compar": 21963, "ah": 912, "Bottom": 15482, "\u2581Creative": 23626, "\u2581featuring": 16312, "\u2581Rand": 16253, "\u2581d\u00e9": 2306, "xit": 28619, "\u4f01": 31159, "\ucc3e": 31161, "socket": 14210, "\u0442\u0435\u043b\u0435\u043c": 27146, "<'": 12729, "Node": 2259, "\u54ea": 30951, "\u2581Sure": 12875, "\u2581singles": 16975, "\u2581fr": 1104, "\u3070": 30653, "\u2581bet": 924, "isl": 8069, "\u2581alike": 21892, "\u0432\u0448\u0438": 10697, "\u2581NT": 26577, "many": 24081, "ack": 468, "\u2581LGBT": 28400, "Has": 5402, "\uc874": 31025, "\u2581moy": 19802, "ke": 405, "\u2581pointed": 8563, "asia": 28038, "\u2581intensity": 16800, "\u2581possibly": 8189, "\u2581importantly": 21485, "\u2581heav": 9425, "\u2581loudly": 28003, "WARE": 12508, "\u00c3": 29364, "\u2581\u043a\u043e\u0440\u043e": 16673, "\u2581feder": 27006, "\u2581alloc": 7053, "\u2581per\u00f2": 19005, "}=": 6429, "\u2581Are": 4867, "iences": 12923, "\u2581expenses": 16972, "\u2581British": 4409, "\u2581voters": 17947, "eree": 14447, "\u2581musicians": 21895, "\u2581stuck": 10231, "\u2581\u010d": 6612, "\u2581lovers": 24883, "\u2581occasion": 8778, "\u2581Lic": 8851, "configure": 19425, "\u2581invoked": 26377, "\u2581slides": 27331, "\u623f": 30376, "\u2581pod": 3531, "\u2581rebell": 24980, "\u2581chaque": 27424, "\u2581explicitly": 15956, "\u2581Express": 16722, "\u2581Japan": 4720, "\u2581queries": 23681, "\u2581cater": 22250, "\u2581Ms": 16870, "\u2581Gra": 19095, "ately": 1999, "\u2581fran\u00e7": 10530, "\u2581displayed": 13992, "\u2581computation": 21728, "\u6269": 30708, "Decimal": 16682, "\u2581Vietnam": 14642, "\u2581verw": 14125, "\u2581phrases": 27512, "ffff": 10756, "compile": 18434, "rass": 12316, "\u2581occupation": 22179, "\u2581\u0442\u0435": 3882, "alter": 19831, "Failed": 9523, "/*!": 19994, "CON": 3185, "\u2581gets": 4739, "\u2581Dennis": 24047, "\u2581compared": 6731, "Zero": 14837, "\u512a": 31743, "\u2581Tom": 4660, "bek": 26118, "\u2581mand": 9915, "nog": 28470, "\u7ec8": 30538, "Inv": 10188, "AspNetCore": 14141, "\u0e1c": 30416, "\u2581deutscher": 16765, "cb": 6145, "\u2581neat": 17730, "\u2581klub": 22782, "\uc6a9": 29424, "\u6c34": 29692, "oro": 8811, "\u2026]": 21888, "+(": 24993, "wart": 11328, "\u2581delay": 8579, "]{\\": 23854, "\u2581trends": 17869, ".~(\\": 21622, "\u2581crack": 9551, "\u2581fire": 3339, "\u2581bag": 6635, "\u2581ehemal": 24156, "TagHelpers": 21399, "\u2581Freud": 24729, "urls": 25110, "opes": 14336, "jor": 9577, "<0x95>": 152, "\u2581death": 3168, "gress": 2736, "\u2581provinc": 12605, "\u2581Kap": 14457, "\u2581Serge": 16866, "\u2581wore": 12003, "\u2581Communist": 21743, "HOST": 17415, "\u2581compon": 3867, "\u2581Best": 5470, "Statement": 9299, "\u2581guided": 23701, "REGION": 27291, "\u2581territo": 26372, "gren": 27526, "\u043d\u043e": 703, "\u2581PK": 28519, "\u2581trib": 11309, "ateral": 21034, "ape": 1748, "Classes": 21357, "Sir": 25994, "\u2581establishing": 24491, "imation": 8258, "\u2581Constant": 15120, "()).": 9079, "a\u00f1a": 15568, "\u5bf8": 31222, "\u2581\u0430\u043d": 23706, "\u2581Classic": 21755, "\u2581\u0454": 15020, "\u2581ruled": 20080, "\u2581Pe": 3242, "\u2581cidade": 26560, "tick": 17755, "\u2581glob": 15737, "arter": 4136, "\u2581caf\u00e9": 28345, "\u2581summary": 14060, "\u2581grade": 12146, "\u026a": 29603, "can": 4230, "\ufe0e": 31954, "\u2581unknown": 9038, "\u2581new": 633, "\u2581Bu": 10944, "\u2581affection": 21147, "Q": 28824, "plicated": 23080, "Unis": 18524, "\u2581brows": 19252, "\u2581Costa": 19311, "\u2581vest": 16568, "arith": 28422, "fed": 27880, "\u0441\u0441\u0435": 21986, "\u65e5": 29142, "\u2581Machine": 13253, "python": 17667, "\u2581Est": 3978, "\u2581nuclear": 12025, "SE": 1151, "\u2581\u0442\u0430\u043a": 8517, "\u043d\u0438\u0442\u0435": 11568, "\u2581arrangements": 20229, "led": 1006, "get": 527, "\u2581der": 891, "\u2581organic": 15897, "istration": 8585, "\u7b97": 29481, "\u2581Buff": 15163, "\u2581Oscar": 18650, "\u2581must": 1580, "bery": 26666, "\u2581ripped": 27755, "\u2581finish": 7446, "when": 11233, "\u2581Airport": 16795, "Om": 5943, "\u2581Dean": 17378, "eward": 23899, "ctx": 3077, "SER": 8548, "\u2581Liste": 20131, "\u2581McG": 18407, "g": 28721, "EXT": 4036, "\u2581ges": 10665, "\u2581Hit": 11288, "Headers": 11871, "\u2581each": 1430, "wide": 5734, "\u2581Prof": 6235, "minded": 25117, "\u2581spir": 14652, "\u2581stagger": 25132, "dup": 20267, "\u2581Od": 11424, "\u2581context": 2758, "PER": 6512, "\u2581infect": 16991, "\u00e9rica": 21698, "\ud83d\ude33": 31208, "resentation": 15918, "\u2581ped": 8235, "\u2581revel": 17120, "description": 6518, "\u2581fires": 21600, "\u2581genu": 11624, "oid": 806, "holders": 15523, "Warn": 17291, "\u2581Intelligence": 23091, "<0x06>": 9, "_\\": 2801, "\u2581jur": 12310, "\u2581composed": 15021, "\u2581results": 2903, "\u2581Stop": 13560, "\u2581enemy": 8454, "Identifier": 11068, "phere": 8800, "imental": 15402, "\u2581stuff": 4705, "\u2581lifting": 22853, "\u2581debate": 12745, "special": 14908, "\u6b4c": 30509, "<s>": 1, "\u2581placement": 21783, "\u2581julio": 26018, "Argument": 8949, "\u2581dalla": 12102, "\u043b\u043e\u0433\u0438": 13428, "\u2581morte": 24116, "\u2581spect": 5203, "\u2581Chris": 9900, "\u2581hoping": 11114, "\u5bf6": 31683, "\u2581swing": 14088, "arono": 20321, "\u2581fier": 16307, "spring": 7558, "atting": 14758, "\u2581helped": 6481, "\u2581put": 1658, "law": 10656, "LECT": 8785, "pute": 8145, "\u17c4": 31956, "\u0103r": 24703, "exports": 10126, "\u2581fragment": 13693, "\u2581bast": 15776, "\u2581const": 779, "\u2581balance": 7873, "\u2581pr\u00e8s": 26708, "GU": 25459, "\u300e": 31176, "\u2581payment": 8850, "BY": 9732, "\u2581lu": 16899, "\u2581K\u00f6n": 15958, "\u2581comments": 7616, "Monitor": 19606, "\u2581\u043e\u043a": 10525, "thing": 1440, "\u2581total": 3102, "\u2581cold": 5256, "\u00e1z": 8905, "\u2581posts": 10005, "\u6b0a": 31923, "\u2581ids": 26214, "mm": 3221, "HE": 1821, "\u2581Friend": 13109, "lin": 2294, "ander": 4427, "lie": 5715, "\u2581conserv": 6961, "\u2581settle": 17493, "aty": 20721, "\u2581defining": 22629, "\u043b\u0442\u0430": 22130, "\u2581missions": 23225, "\u2581diagnostic": 23360, "\u2581Dop": 15967, "iao": 23985, "ceil": 28379, "\u0430": 28763, "\u2581mistaken": 26236, "ome": 525, "\u2581jap": 28663, "nate": 25134, "There": 5816, "Pen": 26950, "\u2581t\u00eate": 27687, "jet": 8358, "\u2581assumes": 27460, "regation": 28260, "\u2581vie": 11198, "\u029f": 31665, "rices": 17783, "\u00d8": 29287, "\u2581channel": 5866, "\u2581enable": 8234, "\u2581passes": 15167, "\u5230": 29036, "\u9f99": 30404, "wallet": 23673, "\u2581Colombia": 23938, "\u2581intimate": 22772, "\u2581individually": 28570, "romise": 6187, "enso": 14452, "\u2581seated": 24732, "dt": 7051, "\u2581publication": 14098, "\u2581ti": 17061, "Inf": 20417, "\u2581\u0410\u043d\u0434": 22378, "\u00fat": 24043, "\u2581shouldn": 8869, "\u2581heavily": 12759, "ed": 286, "\u2581duty": 11193, "r\u00e4": 16718, "ulin": 24726, "ardon": 25021, "\u2581served": 6117, "\u2581lib": 6538, "reated": 10322, "\u2581VT": 24710, "up": 715, "\u2581clusters": 20501, "aler": 16351, "\u2581developments": 22310, "Sing": 25623, "Hol": 28584, "\u02b9": 31788, "\u2581caf": 18302, "iness": 1494, "\u2581ArrayList": 11534, "\u2581distract": 18565, "\u2581dst": 10778, "nov": 20920, "\u2581lived": 6262, "reek": 6857, "\u2581ten": 3095, "\u10e7": 31287, "\u2581Pays": 26828, "\u2581\u0456\u043d": 12109, "mind": 15471, "\u2581surg": 24130, "\u2581crim": 8404, "More": 15279, "uses": 6912, "cs": 3141, "Literal": 13306, "\u2581grandfather": 19300, "<0x04>": 7, "\u2581supplier": 25877, "\u2581deport": 22146, "\u2581Barn": 15002, "EINVAL": 10902, "E": 28749, "isine": 26704, "\u2581officers": 9164, "File": 2171, "uerte": 25395, "\u2581});\r": 26392, "oden": 26623, "och": 4042, "\ud83d\udfe1": 30770, "\u2581maps": 11745, "cou": 20172, "\u5f1f": 31478, "\u2581\u0438\u043c\u0435": 11345, "\u2581belonged": 22232, "REQ": 8728, "\u2581\"": 345, "anks": 3750, "Entity": 5075, "\u2581daughters": 19244, "GLOBAL": 21742, "PI": 3110, "\u2581May": 2246, "back": 1435, "\u2581Since": 4577, "Fetch": 18527, "\u2581speeds": 27480, "\u2581Hern": 28521, "\u2581Describe": 27984, "Algorithm": 25302, "\u2581armed": 14630, "coln": 13629, "crypto": 23614, "isher": 7827, "entry": 3991, "GC": 9389, "\\+\\_\\": 26382, "\u2581\u044d": 4235, "\u2581r\u00e9g": 10551, "ueva": 22400, "ierto": 27180, "\u00f4": 28906, "\u2581homes": 9039, "\u2581bil": 16037, "Depth": 17603, "EX": 2335, "\u2581saved": 8686, "\u2581swept": 20643, "\u2581een": 2817, "\u2581Zone": 20312, "}\"": 7935, "\u2581Mexico": 10242, "med": 1591, "You": 1976, "\u2581Rain": 17774, "\u30cb": 30297, "\u2581rc": 8921, "cpp": 5222, "\u8df3": 30187, "\u2581Rud": 15010, "\u2581Pri": 12170, "wrap": 8497, "apolis": 20389, "\u2581make": 1038, "fund": 23158, "\u00e5": 28851, "\u2581helper": 20884, "fortunate": 26042, "\u2581Gent": 22980, "\u0621": 30052, "\u2581expense": 19475, "\u30f3": 29044, ".\r": 5488, "\u2581worked": 4198, "\u252c": 30884, "rick": 9450, "\u2581tea": 9510, "riet": 13769, "\u0127": 30830, ":}": 26657, "\u66f4": 29250, "argo": 8473, "\u2581essay": 10360, "\u80b2": 31350, "\u2581observe": 14631, "\u2581};": 2337, "Factory": 4990, "\u79bb": 30254, "DIRECT": 19788, "\u2581COPY": 18517, "\u2581Elle": 9801, "\uc870": 29841, "cknow": 8979, "\u2581Chapter": 7513, "\u2581\u043f\u0440\u043e\u0442\u0438\u0432": 19636, "dule": 5898, "\u2581terror": 9107, "getText": 20821, "\u2581Rec": 3523, "\u914d": 29253, "\u628a": 29855, "<0x89>": 140, "\",\"": 5988, "\u2581appointed": 12260, "\u043f\u0456": 10620, "ifndef": 17981, "\u2581forecast": 19912, "\u2581vin": 18146, "\u2581invite": 19411, "+\\_\\": 25471, "bug": 3718, "mag": 10808, "\u2581counting": 20014, "\u2581performs": 25597, "id": 313, "Result": 2716, "\u2581lo": 1448, "\u2581appointment": 14351, "\u2581Ship": 23168, "\u2581advances": 27505, "tbody": 28383, "otive": 28538, "\u2581Wow": 24527, "\u2581failed": 4679, "So": 5142, "\u043c\u0435\u0440": 8840, "\u2581luck": 6576, "\u2581Amer": 1660, "isti": 20589, "Font": 7168, "\u2581segment": 10424, "um": 383, "icious": 10573, "\u2581baking": 22411, "\u04d9": 30141, "\u2581Every": 4203, "\u2581\u0442\u0435\u043b\u0435": 21094, "Threshold": 26436, "\u2581\"%": 7919, "\u2581>=": 3966, "\u2581reactions": 21319, "encoded": 27208, "\u1f14": 31781, "\u2581var": 963, "t\u00f3": 9709, "factory": 13001, "bis": 24971, "\u2581BY": 11732, "\u2581down": 1060, "\u2581hover": 18848, "commerce": 24008, "suspend": 21836, "ounce": 10818, "own": 656, "\u2581determine": 7655, "\u2581gradu": 7461, "\u2581gau": 10844, "uy": 4533, "\u2581layout": 9866, "\u0448\u043b\u0438": 28480, "pping": 7319, "\u2581flat": 7007, "\u2581Robert": 5606, "\u2581rain": 7296, "ictionary": 8078, "Set": 1436, "Enumer": 14925, "\u2581placing": 20632, "arb": 28343, "\u2581knowledge": 4788, "\u2581Nom": 13055, "y": 28724, "safe": 7248, "<0xFC>": 255, "\u5f80": 30717, "\u03c2": 29013, "\u2581camera": 7555, "\u2581diagram": 13735, "\u2581grows": 20382, "\u2581Ern": 13829, "\u2581Kunst": 19280, "valid": 2398, "\u2581Wind": 13558, "\u2581Minor": 28394, "\u2581Per": 2744, "Call": 3001, "Location": 6319, "<0xFE>": 257, "\u2581experiments": 14107, "\u2581\u0442": 3265, "Query": 3294, "\u2581vaccine": 21250, "\u2581programa": 25698, "\u2581BAS": 11502, "itan": 11374, "\u518d": 29740, "\u2581princip": 4061, "ielle": 20857, "\u2581BSD": 26409, "\u2581motion": 8036, "%%": 6069, "\\|": 10729, "atri": 28326, "\u2581urgent": 25976, "\u043d\u0430\u043b\u044c": 28029, "\u2581\u043f\u0456\u0432": 21350, "\u2581William": 4246, "ctrl": 8022, "\u1e47": 29774, "\u2581gegen": 12039, "\u2581stalk": 25073, "\u2581?></": 20198, "\u2581Io": 25445, "\u043f\u0440\u0435\u0434\u0435": 23569, "Head": 3761, "raction": 18296, "Resolve": 28487, "full": 7779, "Since": 24091, "ended": 2508, "Api": 7119, "\u2581Bey": 16015, "MM": 4962, "\u2581unnecessary": 22376, "\u2581scared": 14541, "eft": 18179, "wort": 28577, "\u2581master": 5968, "\u2581enforce": 13707, "\u2019": 28809, "\u2581known": 2651, "\u2581flood": 17268, "ift": 1795, "\u2581\u043d\u0430\u0440\u043e\u0434": 23877, "\u2581sometime": 28088, "\u0446\u044b": 17851, "ACH": 16522, "]));": 20568, "NUMBER": 23776, "\u043d\u0430\u0440": 28019, "cope": 6865, "\u2581Hud": 20247, "\u2581ware": 21110, "\u2581\u0440\u0430\u0431\u043e": 10054, "\u2581E": 413, "qpoint": 10762, "ungs": 6571, "\u2581Alexand": 18275, "\u2581Head": 9655, "\u2581beim": 17454, "\u5012": 31146, "\u2581diversity": 18644, "\u2581chips": 21968, "\u2581When": 1684, "\u2581els": 7698, "\u043b\u0430\u0441\u044c": 12147, "\u2581(\u2020": 19143, "wm": 18897, "\u2581acting": 10601, "roups": 3515, "\u2084": 31598, "igung": 19089, "\u2581Int": 4666, "olv": 19680, "lig": 4310, "\u2581fade": 26530, "\u2581academ": 8853, "\u10ec": 30937, "\ubb38": 29710, "\u2581agreed": 5825, "\u6b22": 30920, "entes": 11829, "\u2581que": 955, "\u968a": 31534, "ille": 2457, "\u2581as": 390, "',\r": 10278, "warning": 15845, "\u2581Container": 25204, "\u2581vote": 7893, "\u2581events": 3926, "\u2581\u0431\u044b\u043b": 7593, "rep": 9157, "\u2581Pray": 27881, "\u2581divide": 21556, "\u0250": 30469, "pgfset": 19107, "\u043a\u0432\u0430": 23476, "\u2581Television": 22730, "ral": 1650, "uggest": 16939, "\u2581NEW": 24746, "\u2581enhancement": 27764, "\u2581desk": 9431, "\u2581sticks": 25762, "\u2581Championship": 8906, "ailand": 21151, "chedul": 6256, "\u2581Eth": 11482, "\u2581Cool": 21359, "oustic": 27621, "\u00f6l": 9958, "times": 4593, "\u2581blur": 19690, "\u2581Ep": 14710, "\u2581tower": 15894, "*,": 1561, "rand": 12219, "overy": 9580, "\u2581apple": 19767, "\uc54c": 30976, "Equal": 4283, "{}{": 23265, "\u2581er": 1234, "\u2581reaches": 18710, "\u2581newer": 26259, "phabet": 26311, "\u2581rejected": 15585, "\u5b9d": 30172, "\u671d": 30746, "ollary": 21120, "\u2581avril": 19330, "\u2581Queens": 19689, "\u725b": 30857, "\u00da": 29070, "\u2581X": 1500, "ection": 10101, "\u2581Brew": 23280, "\u2581Mil": 5040, "\u2581Upon": 20921, "\u2581prest": 15374, "\u2581despite": 7577, "\u2581log": 2085, "ored": 2455, "default": 2833, "caption": 7150, "\u57df": 29829, "\u2581awareness": 13619, "\u0019": 30969, "ste": 2453, "\u2581acres": 20647, "\u2581cookies": 15648, "\u2581pain": 3358, "\u2581holds": 8288, "val": 1052, "\u2581prevent": 5297, "\u2581Storage": 18857, "ysk": 18825, "\u2581inflation": 20613, "wa": 4985, "\u2581Sic": 22664, "\u2581Muslims": 21731, "\u2581gewann": 26778, "Marshal": 24374, "\u2581analyzed": 28649, "\u7a81": 31125, "stream": 3888, "\u6c11": 30136, "\u2581dram": 9473, "\u2581simultaneously": 18134, "gz": 23746, "\ub85d": 29832, "\u2581Du": 6335, "ennes": 12824, "\u2581premi\u00e8re": 14102, "\u2581Exception": 7011, "Required": 10135, "\u2581shall": 4579, "nah": 14354, "gi": 5330, "\u2581\u0445\u0430\u0440\u0430\u043a": 26209, "\u2581tracing": 28469, "\u2581inv\u00e5n": 26939, "\u2581respective": 17376, "\u2581Maine": 23579, "band": 3785, "\u2581rel": 1016, "\u2581corruption": 21363, "\u2581regional": 11908, "\u2581core": 6421, "\u5c01": 30503, "\u2581comm": 901, "nitt": 20845, "\u2581compliment": 23085, "Fat": 24076, "WITH": 21646, "\u00e1rio": 17763, "flow": 4356, "ollow": 1257, "\u2581Kas": 22965, "\u00f6": 28834, "WA": 12245, "Buff": 15989, "\u2581aw": 2546, "\u09bf": 29857, "egy": 25375, "\u0011": 30557, "imate": 3314, "polit": 20424, "__,": 8934, "\u30a7": 30042, "servers": 21032, "block": 3356, "\u2581``": 5008, "drv": 15555, "\u2581Egy": 9074, "nc": 14770, "(?:": 26733, "<0xF2>": 245, "gres": 20697, "\u2581screen": 4921, "\u2581comprend": 23913, "\u2581flip": 19071, "<0xB4>": 183, "\u2581s\u00e9": 7553, "\u2581zap": 19060, "irmingham": 24467, "\u2581Emperor": 20709, "\u2581sacrific": 22074, "\u2581\u0444\u043e\u043d": 19968, "sprintf": 27292, "\u5907": 29613, "\u2581Flow": 21127, "\u2581permanent": 13089, "\u2581bild": 22052, "xpected": 9456, "\u2581Sue": 22516, "\u2581gibt": 21959, "\u2581pref": 27718, "\u2581Lily": 25492, "\u2581suppliers": 24295, "\u2581dun": 27421, "bury": 12272, "obi": 16204, "\u2581\u0427": 5477, "send": 5221, "Pi": 14240, "univers": 21426, "nem": 22890, "\u2581Double": 15233, "\u2581Assume": 28024, "cr": 3810, "\u2581convin": 13058, "lyn": 12998, "\u2581hab": 3019, "\u2581retriev": 17913, "\u2581\u043c\u0430\u0442": 18850, "aut": 1228, "\u0447\u0435\u043d\u043d\u044f": 22948, "\u2581Associ": 6097, "\u2581paus": 11992, "\u2581Singles": 24922, "\u2581tak\u017ce": 25717, "\u2581norm": 6552, "ouri": 17337, "orough": 11376, "\u2581tel": 18408, "\ud070": 31694, "\u2581Italy": 10828, "\u2581\u0437\u0456": 26883, "\"><?": 26109, "\u2581Wa": 24867, "\u2581fu": 6649, "Impl": 6404, "Pipeline": 20190, "Hom": 25792, "\u2581arguments": 6614, "\u0987": 31342, "\u2581sports": 8657, "\u2581Contin": 13718, "svg": 14244, "\u2581\u0439\u043e\u0433\u043e": 18136, "\u2581\u00e9taient": 24572, "Follow": 28093, "Preview": 22398, "\u2581elf": 22270, "setup": 11324, "\u2581Mom": 9870, "lington": 26183, "oking": 8992, "rief": 4667, "\ud2bc": 31285, "\u2581involve": 17516, "\u9a8c": 29502, "ina": 1380, "\u2581Care": 8000, "\u30b7": 29527, "olly": 11394, "\u2581figured": 14775, "bro": 5601, "\u0151l": 15930, "\u2581rh": 23535, "To": 1551, "\u2581proof": 7167, "\u2581aspir": 26985, "\u2581cob": 24258, "\u5099": 31410, "\u2581avoir": 18837, "Mod": 1701, "\u2581makeup": 19781, "\u2581ghost": 12975, "\u2581His": 2354, "\u2581mirror": 12142, "\u2581particularly": 6311, "\u2581:=": 2137, "\u2581},\r": 20692, "Master": 16060, "\u2581Change": 13204, "cro": 22171, "\u2581GT": 19713, "\u2581tegen": 26602, "\u2581[`": 27875, "ici\u00f3": 23840, "\u2581gmin": 19079, "\u2581\u0433\u043e\u0440\u043e\u0434\u0430": 22316, "De": 3337, "\u2581projection": 18975, "rial": 6144, "\u2581technologies": 14880, "\u2581goal": 5541, "\u2581\u00e9t\u00e9": 7166, "sl": 2181, "\u2581Despite": 10191, "\u2581commerce": 21806, "\u2581made": 1269, "\u2581Ira": 11721, "\u2581obligations": 26405, "\u2581good": 1179, "agnostic": 13685, "\u2581Barcel": 15371, "(|": 18214, "FL": 4001, "user": 1838, "\u2581\u0441\u0435": 2310, "large": 16962, "\u2581sketch": 21789, "\u2581tablet": 24296, "tv": 9791, "\u0219": 28903, "\u2581booth": 26868, "Optional": 15115, "\u043c\u0456": 5482, "\u2581mour": 22004, "ifications": 7467, "\u2581\u0440\u0430\u0439\u043e\u043d\u0430": 22243, "\u02dc": 30742, "\u9589": 31964, "chestra": 18357, "Some": 11600, "\u2581learned": 5996, "ski": 5253, "AU": 18228, "Canvas": 20573, "War": 24378, "GRO": 14234, "\u2581eq": 12084, "\u2581\u0434\u0435\u0440\u0435\u0432\u043d\u044f": 28398, "\u2581doc": 5844, "fit": 7785, "ior": 1782, "iko": 13370, "\u2581Herm": 14741, "person": 9701, "\u043c\u0435\u043d\u0438": 16938, "dynamic": 18691, "\u2581often": 2608, "\u00e4ft": 21084, "anson": 21140, "isArray": 28000, "\u2581her": 559, "ibli": 10798, "\u2581Wo": 20093, "\u2581lev": 16100, "\u2581weit": 17642, "\u2581aveva": 22405, "\u2581measures": 10582, "\u0421\u0420": 12402, "drop": 8347, "\u2581evalu": 6548, "windows": 12113, "oons": 26618, "Area": 12026, "\u2581called": 1987, "\u2581food": 2887, "\u2581towards": 5083, "\u2581constr": 8130, "\u2581++": 6537, "Tool": 6778, "hover": 20635, "ggreg": 16798, "RPC": 22115, "\u2581harmful": 26299, "s": 28713, "\u0432\u0435\u0442": 8496, "rsp": 25341, "+'": 23922, "\u04c0": 31731, "uj\u0105": 20606, "\u2581ak": 13067, "\u2581Along": 20211, "\u2581bug": 10079, "\u2581politique": 19885, "\u2581Email": 16880, "\u2581truck": 8388, "\u2581traditions": 21703, "\u2581\u017ee": 23374, "burn": 14035, "\u2581cow": 12072, "\ud83d\udc49": 31811, "uffer": 2376, "\u8ba9": 30447, "Top": 6228, "\u2581decorated": 24616, "ocket": 3955, "\u0435\u0432": 7331, "\u2581flows": 21142, "itz": 4334, "\u2581realistic": 19595, "gray": 17645, "\u518c": 30001, "\u17bb": 31061, "\u2581brother": 5510, "\u2581movements": 15071, "\u2581marca": 24870, "Styles": 17640, "\u0e1d": 31620, "\u2581quant": 4664, "mitt": 23023, "\u5e16": 30972, "\u2581interpret": 7190, "\u2581yes": 5081, "\u2581internation": 17861, "\u2581extreme": 12290, "\u2581express": 4072, "\u2581begann": 25328, "\u2581captain": 13565, "ouw": 27298, "\u2581Meeting": 25961, "VICE": 17762, "generic": 19105, "Effects": 27175, "ocur": 28457, "\u049a": 31419, "\u2581Russ": 3770, "\u2581unless": 6417, "\u2581g": 319, "\u6444": 31128, "\u0437\u043e": 3965, "\u2581describe": 6685, "bled": 9704, "iveau": 22566, "\u2581religious": 8553, "endpoint": 15153, "![": 25531, "\u2581propose": 19333, "offset": 3783, "Cell": 7740, "\u2581asc": 13294, "\u2581drinking": 11605, "\u0097": 29439, "\u2581supportive": 27729, "adrat": 28118, "\u2581globe": 21889, "\u2581gew": 9514, "\u2581circle": 9661, "\u2581magazine": 11059, "lista": 26965, "\u2581yellow": 9684, "\u05d5": 29006, "achi": 23827, "\u2581mitt": 27150, "ever": 1548, "\u2581\u0412\u043b\u0430\u0434\u0438": 25823, "?\u201d": 10584, "\u2581downt": 15129, "\u2581voy": 15545, "ST": 920, "retval": 15063, "ICK": 14595, "ific": 921, "quir": 10851, "\u76ca": 30914, "\u2581imposed": 24739, "]),": 11501, "\u2581convent": 12368, "\u2581achieving": 25122, "gun": 7429, "PERTY": 24298, "\u2581Chi": 17792, "youtube": 20502, "serie": 23455, "\u2581drawer": 27673, "iture": 8861, "Const": 8151, "\u2581gained": 14018, "\u00e5ng": 13733, "iny": 4279, "amos": 14481, "\u2581pid": 21654, "\u2581let": 1346, "\u2581ministry": 23470, "Wrapper": 10843, "footer": 18743, "\u2581Ale": 9766, "\u2581Turner": 22913, "Cache": 5622, "\u2581deb": 5665, "ubern": 16940, "\u2581\u0423\u043a\u0440\u0430\u0457\u043d\u0438": 22224, ".$": 5910, "\u2581individuals": 6992, "\u2581append": 10308, "footnote": 19129, "$,": 1777, "\u6302": 31431, "Lite": 24701, "$(\"#": 26690, "\u2581Sud": 9099, "\u2581Holly": 11512, "assen": 16044, "\u2581you": 368, "\u2581ones": 4413, "\u00e9ho": 12689, "\ud83c\uddf8": 31818, "izione": 12769, "ih": 4371, "adesh": 20830, "memory": 11336, "\u2581closet": 23622, "\u2581due": 2940, "\u2581percentage": 13822, "\u2581tanto": 17689, "\u2581carries": 21277, "\u2581obsc": 16502, "\u2581publicly": 19200, "fly": 16210, "initions": 22909, "[\"": 2221, "NP": 24257, "\u2581Walter": 13517, "issent": 27400, "\u2581Thursday": 10983, "\u8f49": 31623, "\u2581melod": 27043, "=(": 9463, "\u015bci": 7216, "\u2581Lebens": 26976, "\u2581moved": 4142, "\u2581regex": 22899, "\u7248": 29547, "df": 4053, "\u00e4lt": 17966, "\u2581Young": 9465, "\u2804": 30897, "\u300f": 31169, "aben": 19309, "\u2581following": 2296, "\u2581Labor": 14160, "\u5b9e": 29247, "\u2581method": 2038, "\u2581beta": 21559, "\u2581commence": 25599, "Executor": 21382, "\u2581Ground": 22455, "DAT": 23775, "\u2581Beat": 17618, "\u2581newspapers": 19466, "\u2581voting": 17035, "\u0440\u044f": 3911, "bool": 5416, "\u2581generate": 8270, "Mgr": 22109, ")\\\\": 23527, "\u2581\u0418\u0441\u0442\u043e\u0440\u0438\u044f": 24439, "BL": 8152, "\u2581Apache": 8958, "\u7f8e": 29817, "follow": 23951, "Unique": 20730, "Sys": 22824, "\u2581\u0434\u0435\u044f\u0442\u0435\u043b\u044c": 26787, "\u2581lover": 19568, "arium": 26207, "ynamics": 25705, "\u2581}));": 25968, "\u2581meets": 18487, "\u25a1": 30618, "\u2581ev": 683, "\u2581vag": 23195, "update": 3818, "\u2581*": 398, "chn": 1818, "\u2581distingu": 11731, "\u2581ic": 19699, "\u2581cleaning": 11906, "\u2581\u0441\u0442\u0430\u043d\u043e\u0432\u0438": 21206, "PT": 6316, "\u2581flies": 28030, "udo": 9297, "\u2581patent": 23445, "anced": 3692, "estone": 18557, "\u2581data": 1178, "\u043d\u0435\u0440": 16146, "\u2581Press": 6127, "\u2581dick": 23108, "<0x55>": 88, "ressed": 10025, "\u2581launched": 11087, "\u2581\u0442\u0435\u0440\u0440\u0438\u0442\u043e": 24891, "\u2581Optim": 27268, "TOM": 27507, "\ud83d\ude4f": 30768, "\u2581Kle": 14306, "\u2581leurs": 17951, "By": 1930, "builder": 10151, "\u2581Gebiet": 26240, "\u2581AMD": 27837, "\u2581VIII": 24475, "\u2581ing\u00e5r": 11169, "\u2581claiming": 20188, "inkle": 26630, "\u2581estate": 9490, "\u2581quantities": 21709, "techn": 23207, "\u2581Source": 8193, "\u2581ASS": 8602, "\u2581Psy": 13020, "\u2581state": 1665, "compat": 14097, "\u2581rifle": 19427, "\u0941": 30034, "\u2581den": 1457, "\u2581Enable": 22177, "\u2581at\u00e9": 24961, "\u5c0a": 31935, "\u2581grad": 4317, "\u2581nerve": 23284, "\u2581GB": 22709, "\u043d\u0430": 612, "\u2581why": 2079, "\u2581II": 3717, "Include": 26438, "\u10d3": 29878, "\u2581teil": 22442, "L": 28758, "\u2581ore": 14712, "\u2581Ill": 7942, "\u2581\u0440\u043e\u0434\u0438": 23212, "\u0447\u043d\u0438\u0439": 24016, "\u2581historia": 23394, "\u2581naam": 14276, "\u2581Cal": 2984, "\u2581journal": 7024, "\u2581islands": 21029, "ferred": 9497, "\u043b\u0435\u043d\u043d\u044f": 10507, "\u2581touched": 12527, "\u2581Arch": 6573, "\u2581scandal": 28569, "opy": 1600, "\u2581provoc": 27249, "\u2581foundation": 13865, "\u2581amazing": 6821, "ussy": 23215, "\u2581items": 4907, "\u2581contributions": 14036, "\u641c": 30125, "\u2581Wol": 12840, "\u2581Shar": 20071, "kem": 28281, "\u9759": 30709, "Bal": 13450, "\u2581professional": 5024, "\u2581parish": 23539, "\u2581demand": 5637, "LONG": 20138, "ington": 14066, "adget": 18142, "icks": 5446, "\u2581Bit": 11014, "\u2581stellar": 21523, "\u00e8mes": 27973, "ret": 1441, "\u2581pop": 1852, "bars": 28008, "\u2581violent": 14643, "\u2581Statement": 28055, "\u2581everyday": 15048, "\u0441\u0441\u0438\u0439": 24416, "value": 1431, "\u2581INCLUDING": 26565, "cles": 5962, "\u2581accompl": 9605, "\u2581\u043e\u0434\u043d\u043e": 26751, "download": 17359, "\u2581hurried": 21893, "azy": 13478, "\u0493": 31023, "mid": 8041, "repository": 19944, "\u2581SP": 14600, "\u2581guests": 11089, "iere": 16302, "\u2581IBM": 25709, "\u0bbe": 30419, "related": 9646, "\u2581conducted": 12816, "\u2581max": 2666, "\u2581assets": 12858, "\u2581Zero": 23697, "inde": 8355, "\u2581Pre": 4258, "\u2581minut": 28270, "\u2581Delhi": 21548, "\u2581prosper": 20814, "\u043d\u0438\u044f": 2491, "CM": 15155, "\ud83d\ude22": 31659, "\u2581Affairs": 20871, "VT": 10098, "\u0490": 29559, "missing": 22324, "\u2581gep": 14152, "usk": 14948, "\u6784": 29612, "\u2581Design": 8648, "kehr": 19177, "\u78ba": 30504, "annon": 18182, "\u2581worst": 8748, "++){": 23385, "\uc554": 31436, "Static": 13232, "\u2581Parte": 24162, "\u2581zosta\u0142": 11686, "\u2581listening": 9857, "\u0087": 29924, "\u2581Face": 7197, "\u2581THIS": 13624, "\u0150": 30265, "\u2581STR": 17235, "\u5c1a": 31291, "xxx": 22607, "olation": 21570, "hand": 2625, "HL": 11758, "\u00fdch": 8739, "\u2581bajo": 22418, "\u6731": 31947, "\u2581Mother": 12387, "\u2581guarantee": 12587, "\u2581zm": 19523, "\u2581men": 1683, "has": 3537, "\u0436\u0435\u043d": 6565, "urent": 17178, "\u2581USE": 13467, "\u0441\u043c\u043e": 27231, "\u2581sotto": 28159, "limp": 22305, "lean": 7962, "\u8a0a": 30844, "Station": 23558, "\u2581rou": 17148, "orter": 7046, "\u2581genius": 22027, "\u2581favorite": 6656, "\u2581Ave": 27170, "\u2581Maurice": 25350, "\u2581Sever": 12120, "eve": 21111, "\u2581settlement": 13694, "\u2581activated": 27024, "\u2581room": 2003, "\u2581An": 1094, "dirty": 23724, "\u2581Jah": 4096, "\u2581Dopo": 28170, "\u2581\u0440\u0430\u0439": 12770, "\u0441\u043a\u0438\u0439": 4704, "\u2581\u00dcber": 19265, "\u30c1": 29973, "\u2581grave": 14272, "nick": 22554, "\u2581Taylor": 11285, "\u2581IMP": 15347, "\u2581fulfill": 16427, "\u2581Li": 11469, "\u2581User": 1247, "getKey": 28434, "REG": 5216, "ocon": 24859, "<0x74>": 119, "unction": 19879, "czas": 22582, "iana": 5127, "\u2581\u043d\u0430\u0441\u0435\u043b\u0435\u043d\u043d\u044f": 22807, "\u043b\u0435\u0435": 15620, "Float": 9007, "\u2581sear": 15321, "\u00e4t": 5291, "\u0451": 28881, "\u2581Ital": 4503, "encode": 12079, "\u016f": 28913, ")**": 10095, "Picker": 23318, "Subscription": 19590, "\u2581pretty": 3468, "Expected": 17015, "\u2581import": 726, "\u2581ac": 1183, "\u2581\u041f\u0440\u043e": 12119, "\f": 29683, "\u2581Opt": 15767, "\u2581intellectual": 15984, "brace": 24256, "act": 572, "iente": 8783, "\u2581graz": 27004, "\"];": 20652, "nings": 24200, "orage": 3374, "\u2581Pro": 1133, "\u2581Entre": 19361, "\u2581allowing": 9836, "aj": 1150, "\u25cb": 31269, "\u0161t\u011b": 27832, "\u2581uk": 20028, "\u6226": 30842, "personal": 28545, "ario": 3756, "\u2581channels": 11671, "\u2581Je": 3291, "\u2581ph": 1108, "\u2581indices": 17853, "ritz": 24855, "\u093f": 29554, "\u2581\u0436\u0438\u0432\u043e": 25455, "reci": 6506, "\u2581participants": 12850, "ize": 653, "\u2581lead": 1736, "Reference": 7926, "\u2581inspired": 11971, "Number": 4223, "\u5c11": 29805, "ese": 3368, "elled": 6099, "orig": 5831, "\u2581articles": 10437, "hel": 2805, "athol": 23593, "\u2581Prec": 28386, "\u2581rece": 2080, "\u2581Dow": 20271, "\u2581billion": 8737, "\u2581distribution": 6023, "__)": 15614, "attr": 3457, "\u2581We": 816, "uen": 8256, "\u2581Bul": 10440, "\u0441\u043a\u0438\u044f": 25827, "\u2581periodo": 26959, "\u513f": 30915, "\u2581Rus": 16501, "Workspace": 27474, "hing": 2299, "HS": 10031, "\u2581Sver": 28238, "Preferences": 25148, "\u2581Parad": 24493, "yp": 1416, "\u2581Af": 8786, "\u5fd8": 31763, "fre": 19575, "\u2581office": 4007, "\u2581high": 1486, "\u2581Diam": 19235, "Sur": 11616, "We": 2324, "\u2581completely": 4716, "\u2581Prince": 11567, "su": 2913, "\u2581Caribbean": 27093, "\u2581NV": 27470, "\u2581civilization": 26173, "\u2581intentions": 25087, "\u2581recommendation": 26077, "\u5df4": 30824, "uma": 10089, "\u2581override": 8013, "\u2581serving": 10732, "\u2581Mond": 7672, "eltemperaturen": 26718, "\u2581Bor": 9411, "\u2581revenue": 14008, "\u2581bars": 13529, "\"])": 18073, "\u2581{\r": 1969, "Part": 4917, "\u2581\u043c\u0435\u0441\u0442": 25839, "\u2581zwe": 8047, "ause": 869, "\u2581Chel": 21996, "\u0434\u043e\u043b": 24019, "agh": 25189, "paces": 26298, "integr": 16273, "\u2581Lake": 8703, "<0x41>": 68, "\u2581scale": 5657, "\ubbf8": 29967, "\u2581number": 1474, "\u2581Hend": 18588, "\u0e36": 31211, "resents": 9825, "ZZ": 26212, "\u2581\",\"": 28685, "\u6597": 31248, "ribe": 5748, "i\u00e3o": 23978, "\u2581vision": 8021, "\u0442\u043e\u043d": 21347, "iting": 4328, "gather": 24136, "\u00e4st": 28068, "\u6309": 29518, "oo": 3464, "\u2581sub": 1083, "\u2581hired": 15866, "Try": 17666, "\u1789": 31901, "\u2581styles": 12078, "\u2581Prem": 7809, "audio": 11203, "site": 10041, "\u2581effectively": 11466, "\u2581tuple": 21000, "uce": 12783, "\u2581hypothesis": 23592, "ailed": 2384, "\u2581Switzerland": 22491, "abb": 13277, "\u2581preserv": 16176, "\u2581tar": 11838, "\u2581searched": 22671, "\u2581worden": 13348, "\u00e9rc": 23219, "\u5178": 30465, "\u2581Reviews": 24429, "iking": 16040, "\u2581determines": 25374, "\u2581Illinois": 15632, "Container": 5738, "inth": 18618, "Execute": 17715, "base": 2893, "\u2581feas": 25953, "bl": 1231, "\u2581Alban": 26037, "\u2581Load": 11924, "\u2581\u043e\u0441\u043e\u0431\u0438": 27953, "\u5348": 30296, "\u0698": 31114, "mv": 23366, "\u2581ses": 6737, "ounters": 19610, "\u2581vend": 13479, "\u2581involvement": 20447, "\u2581prima": 12030, "\u2581remainder": 23317, "an": 276, "\u2581grupo": 18550, "colors": 21249, "\u2581allocate": 21637, "\u2581femin": 13426, "health": 14513, "\u4e0b": 29061, "\u62ec": 30574, "chet": 24388, "\u2581idi": 25927, "\u2581fam\u00edlia": 25338, "cha": 8136, "\u2581handsome": 22215, "\u2581AG": 14778, "\u2581reck": 20088, "\u2581demol": 25598, "\u2581entities": 19810, "Mag": 14749, "too": 24979, "\u2581Brow": 19332, "\u2581Tam": 17821, "descriptor": 17325, "\u88dd": 31937, "\u2581distances": 24224, "\u2581Angel": 15878, "<0x81>": 132, "\u2581Mar": 1471, "compiler": 19874, "\u2581likewise": 24963, "\u2581ry": 24780, "erie": 15519, "\u2581boy": 4531, "\u2581later": 2062, "\u2581patron": 20367, "aurus": 24308, "\u2581Raf": 21926, "\u2581softly": 18345, "\u2581productivity": 24504, "\u2581tri": 2629, "indexOf": 14414, "\u30a8": 29795, "\u2581extent": 11125, "\uc744": 29189, "ching": 11097, "ou": 280, "bler": 22413, "innerHTML": 22974, "igte": 23355, "\u2581PAR": 19055, "\u1038": 30773, "\u2581Tower": 19895, "SUB": 16541, "\u2581crowds": 26674, "bros": 25851, "\u300d": 29577, "\u2603": 31666, "\u2581music": 3427, "\u2581Brian": 12569, "\u0441\u043b\u0435": 5333, "\u018f": 31557, "\u2581Dum": 28512, "oria": 4684, "----------": 16417, "\u2581cz": 8726, "CU": 24164, "\u2581FE": 21121, "PART": 28069, "\u51b7": 31888, "\u2581fighters": 26476, "ele": 1643, "\u2581\u00e4": 14239, "\u2581Updated": 26807, "\u2581generated": 7138, "FREE": 28137, "Missing": 22647, "\u2581meg": 9742, "\u2581Rhe": 23214, "grpc": 26488, "\u2581amounts": 14838, "olia": 22925, "\u2581presc": 20791, "seq": 8930, "\u044e\u0442\u0441\u044f": 15278, "\u2581Mama": 25579, "election": 9082, "cm": 4200, "\u2581Ant": 3821, "ermo": 27252, "\u2581Pi": 19488, "\u672f": 30485, "burg": 5467, "iten": 6329, "\u2581stay": 3079, "\u2581pil": 7586, "\u2581Player": 13684, "\u2581\u0440\u0430\u0439\u043e\u043d": 20656, "\u652f": 29428, "\u2581frequencies": 27905, "\u2581Action": 9624, "\u2581joint": 9353, "\u2581Paulo": 22149, "ationale": 28381, "\u2581Arbitro": 26607, "\u043d\u0434": 8545, "\u2581STAT": 20824, "\u2581checked": 9681, "cite": 1935, "\u2581cov": 16609, "\u2581Balt": 17111, "AGE": 6130, "\u2581leading": 5374, "\u2581Jordan": 14151, "\u2581\u0434\u0432\u0443": 23053, "uge": 3683, "\u7d30": 31451, "\u043b\u0435\u043d\u0430": 21048, "\u2581Fernando": 24302, "word": 2186, "deserialize": 25689, "\u2581finance": 15978, "ereg": 27740, "RX": 9847, "\u00d2": 30565, "ymbol": 2709, "\u2581//!": 19497, ")(": 3847, "actly": 19241, "\u2581focuses": 21165, "UD": 8115, "\u2581restaur": 6438, "\u2581\u0448\u0438": 20964, "Control": 5452, "\u2581Rivers": 28574, "\u2581negative": 7087, "\u2581exactly": 4668, "\u8111": 31753, "\u2581effectiveness": 23798, "\u2581v\u00e4": 15670, "\u0300": 29891, "\u2581unique": 4842, "\u2581Chart": 16923, "nek": 11593, "\u2581Tip": 22420, "fried": 25670, ".}": 8089, "INE": 5472, "\u2581Rosen": 23368, "\u2581cyber": 23449, "\u2581independ": 5060, "astern": 10230, "DITION": 11160, "\u2581fprintf": 21098, "\u0441\u044c\u043a\u0438\u0439": 10379, "oirs": 27986, "\u2581YO": 10834, "\u66f9": 30644, "\u2581institutional": 28211, "Shell": 15718, "window": 5147, "\u6b62": 29885, "Comm": 3912, "\u2581paintings": 19572, "\u043d\u043e\u043a": 21143, "\u2581distance": 5328, "\u2581\u0431\u044b\u043b\u0430": 13342, "\u524a": 30975, "\u0448\u0430": 7176, "\u2581nar": 21119, "\u2581go": 576, "\u2581autom": 4607, "\u2581hi": 12014, "\u2581Exchange": 21162, "Small": 22349, "('": 857, "hattan": 20425, "\u2581pr": 724, "}{": 1400, "\u2581concent": 7249, "\u2581bone": 14056, "\u0407": 29879, "VERT": 24149, "oubt": 22531, "urst": 24168, "\u2581liver": 24824, "\u06a9": 29130, "\u2581ML": 19003, "\u2581Although": 5800, "\u2581specify": 15759, "elin": 26310, "\u2581Sebast": 18935, "TC": 8386, "espec": 23082, "Ref": 3680, "\u2581reli": 22889, "Fill": 16946, "quis": 11225, "\u2581signals": 15972, "Returns": 16688, "\u2581L": 393, "oric": 16891, "\u2581relaxed": 18788, "\uc774": 29015, "\u2581transmission": 16209, "\u2581exhibit": 22620, "\u5929": 29354, "\u5df1": 29957, "\u2581th": 306, "\u2581\u043d\u0430\u0443": 13585, "\u2581REG": 13923, "\u2581would": 682, "<0x5D>": 96, "ING": 2043, "acja": 22218, "\u2581Go": 3187, "\u2581stri": 4216, "\u2581On": 1418, "scrib": 23418, "overline": 7595, "dep": 8823, "\u2581\u0441\u043a\u043b\u0430": 14094, "\u2581Dar": 8220, "\u2581{})": 25226, "\u2581prints": 25831, "\u4e5d": 30807, "\u0442\u0440\u043e": 14162, "Autow": 25789, "\u0251": 29813, "<0x24>": 39, "intern": 14705, "\u2581geometry": 17639, "\u2581arrives": 26746, "CI": 5726, "\u2581Dictionary": 22828, "Every": 13852, "opath": 23461, "\u2581pool": 6313, "raid": 7370, "\u2581jewel": 20737, "\u2581\u0414": 2375, "\u2581happening": 9615, "\u2581proceedings": 28096, "linear": 13548, "\u2581Audio": 16957, "\u9686": 31302, "\u2581enumer": 25988, "ZERO": 28303, "\u2581challenged": 24730, "\u2581Pand": 24802, "\u2581glory": 20756, "\u2581surveillance": 26146, "\u2581nan": 23693, "\u5200": 31516, "\u2581Race": 20056, "\u2581reputation": 12947, "usters": 12855, "\u2581mining": 15121, "\u2581educational": 14165, "Slice": 21202, "\u2581relating": 21487, "\u2581\u015a": 18730, "\u2581George": 5163, "\u2581router": 15736, "Previous": 28284, "Last": 7202, "\u2581przy": 13986, "\u2581rm": 24614, "\u2581twee": 25802, "\u0435\u0432\u0438\u0447": 24792, "att": 1061, "\u2581SC": 9730, "\u2581elabor": 16252, "\u2581Peak": 27416, "usher": 9905, "\u2581Arg": 10852, "Events": 11208, "\u2581inline": 12901, "leg": 1946, "\u2581Feder": 12969, "achte": 22986, "Behavior": 22872, "\u2581commitment": 13106, "\u00ean": 26841, "\u2581mothers": 21574, "prime": 9302, "\u2581compl": 3852, "\u2581Singh": 24442, "ishes": 8137, "<0x39>": 60, "\u2581\u00e8": 3473, "itung": 24422, "\u304f": 29666, "\u9580": 31031, "\u2581blend": 20521, "\u2581$-": 24279, "\u2581ap": 979, "\u2581Prim": 16059, "\u2581tek": 27107, "Padding": 18273, "amination": 25914, "G": 28777, "\u09a8": 29811, "\u2581TODO": 9420, "\u2581Follow": 9822, "\u2581modeling": 27472, "\u1e28": 31949, "\u2581et": 911, "CEPT": 19951, "Green": 22991, "Serial": 9124, "Ctrl": 18795, "\u2581witch": 23816, "\u2581ace": 23705, "\u2581\u0414\u0438": 16189, "entric": 27053, "\u2581\u0432\u043e\u043b\u043e": 28229, "at\u0103": 20426, "Da": 27672, "\ud544": 30427, "fic": 15906, "\u2581projects": 7028, "\u2581!": 918, "\u2581rural": 13359, "\u2581Pictures": 26887, "\u2581Native": 16024, "ista": 3581, "--;": 16850, "\u0121": 31173, "\u2581witness": 9149, "\u2581angle": 10417, "auth": 6414, "\u2581isol": 9777, "\u0103": 28867, ".).": 15745, "parents": 20415, "\u2581basically": 10321, "rolled": 7780, "\u2581shower": 13164, "Cir": 19257, "ocial": 24186, "Register": 7832, "\u2581sei": 18578, "umbling": 23491, "igation": 4821, "\u2581searching": 12869, "lection": 1784, "\u2581groom": 28583, "\u2581foreign": 7223, "\u0437\u0430\u043d": 17478, "\u2581wooden": 12602, "\u2581\u00bb,": 13231, "ATION": 4866, "\u2581gran": 8494, "\u2581indeed": 8166, "\u2194": 30375, "\u0433\u0440\u0435": 21634, "\u2581Si": 8693, "\u2581drug": 7876, "\u2581passenger": 18990, "ican": 1772, "\u4f4d": 29147, "\u2581Global": 9970, "\u2581cout": 19324, "\u2581elderly": 22476, "ount": 696, "cache": 5319, "\u2581exagger": 25945, "\u2581Console": 19518, "\u2581Peru": 28230, "\u0440\u0443": 1728, "\u2581sevent": 11130, "\u2581repr\u00e9s": 18880, "\u2581org": 2247, "\u2581cards": 8445, "\u2581Nord": 8402, "\u2581primitive": 22739, "cit": 21990, "leans": 20803, "\u0e18": 30057, "\u0279": 31931, "\u2581dej": 28471, "recht": 26429, "\u2581unhappy": 26658, "\u7eb3": 31536, "kle": 16993, "Until": 25072, "\u2581Sad": 16750, "\u2581determin": 16710, "\u2581\u0411\u0440\u0430": 25701, "faces": 9288, "placement": 17140, "\u2581ar": 597, "iss": 815, "\u2581speak": 4085, "\u2581boxes": 13446, "\u2581prince": 20180, "\u0432\u0430\u043d\u043e": 26170, "ines": 1303, "dy": 4689, "\u2581\u0428\u0430": 25541, "Rank": 24347, "\u2581That": 1725, "\u2581fest": 12649, "\u2581login": 14570, "\u2581St": 662, "\u2581locks": 25347, "subsubsection": 21763, "render": 6577, "kr": 6175, "scription": 6811, "\u2581betting": 22567, "sq": 4791, "\u4e48": 29797, "RS": 11306, "\u2581grap": 27532, "\u2581evidence": 5566, "\u2581sold": 3910, "\u2581Federation": 22520, "o": 28709, ")));": 7574, "LowerCase": 19855, "\u2581explosion": 22258, "reach": 18932, "\u2581yesterday": 12091, "\u2581quel": 12971, "\u2581\u00d7": 15770, "\u2581refugees": 25611, "\u2581despair": 25477, "\u2581outcomes": 18014, "\u2581Canal": 25772, "cean": 8983, "\u2581Inn": 12810, "assign": 12895, "acz": 19985, "\u2581advent": 9987, "\u2581washed": 21243, "\u2581musician": 26458, "\u2581preferences": 22731, "\u2581bra": 12015, "\u04b3": 31856, "\u2581ax": 6056, "GO": 11628, "\u570b": 30499, "\u2581dark": 3199, "ov": 626, "abor": 3226, "dc": 9147, "acked": 18580, "taient": 21035, "\u2581saf": 4972, "irit": 4442, "\u2581wieder": 13125, "\u2581env": 2881, "\u2581excessive": 24213, "\u2581Dragon": 19444, "\u2581inspect": 16279, "\u2581gi": 5220, "\u2581capit": 16809, "\u00f3s": 11901, "\u2581whe": 2277, "\u0151s": 28153, "\u2581Virgin": 8471, "acher": 10333, "\ubcc4": 31044, "\u2581basic": 6471, "EA": 18772, "xt": 510, "ingly": 7381, "\u2581Stand": 7613, "\u2581French": 4949, "\u2581parc": 26790, "\u2581wood": 4768, "xFF": 4570, "esz": 27751, "\u2581cycl": 14211, "\u2581ben": 2798, "\u2581anci": 21267, "ad\u00e9m": 27382, "\u2581training": 4154, "\u660c": 31265, "top": 3746, "iglia": 22616, "\u2581realised": 24425, "\u2581flowing": 25757, "\u2581sede": 26784, "UE": 3027, "\ud0c0": 30304, "ile": 546, "Sets": 25144, "\u4f18": 30077, "\u2581Lux": 18194, "\u2581exploring": 21354, "\u50b3": 31036, "mond": 8025, "\u2581Certain": 20828, "spieler": 25591, "empty": 4977, "ock": 629, "ieu": 14021, "cord": 19056, "\u2581More": 3764, "\u2581High": 4556, "\u2581inner": 7450, "zym": 17304, "\ub529": 31836, "\u00edr": 19236, "uel": 3009, "Not": 2601, "\u2581passed": 4568, "\u2581sempre": 22637, "\u2581out": 575, "From": 3400, "\u2581Transfer": 24969, "\u2581smoothly": 28147, "\u8d4b": 30823, "\u6d6e": 31171, "\u2581Moreover": 11302, "\u2581opponent": 20364, "\u2581Jacob": 12615, "derive": 21303, "ummy": 9440, "\u2581belongs": 17827, "\u83b7\u53d6": 26257, "\u015a": 29009, "}\")": 24984, "spi": 17456, "ateur": 10229, "outing": 8892, "\u2581drawn": 10421, "\u2581entr": 7142, "ncia": 9529, "\u2581Liberty": 27370, "\u2581Ran": 27193, "\u2581early": 2935, "pd": 9885, "CLK": 14711, "\u2581dishes": 18454, "\u2581\u041b\u043e": 18806, "idad": 4526, ".(": 21057, "\u2581kont": 21674, "\u2581Court": 6924, "skiego": 17983, "<0x98>": 155, "encies": 6094, "\u2581subsequ": 9499, "\u2581IL": 10428, "\u2581forever": 10739, "\u2581Lanc": 23141, "\u2581inspire": 26649, "\u2581Thus": 7110, "\u2581vil": 16767, "\uc790": 29294, "Kind": 6660, "cal": 1391, "\u2581dw": 10743, "\u2581illustrated": 24210, "\u2581contacted": 28330, "\u05b6": 30780, "anda": 5904, "kn": 13223, "cp": 4743, "\u043c\u0438\u043d\u0430": 17622, "REEN": 25755, "hall": 26912, "\u2581aligned": 23581, "\u2581GL": 8537, "\u2581Anne": 12042, "\u2581opinion": 7382, "\u2581schema": 12493, "\u2581Zen": 25153, "\u2581sobre": 7469, "\u2581manifest": 11052, "worth": 11360, "\u2581versions": 11031, "ongs": 24487, "\u2581addressed": 16715, "\u2581sisters": 17118, "ikt": 14579, "\u00e9qu": 14177, "\u2581Canada": 6082, "\u0006": 30314, "\u2581born": 5381, "\u2581sind": 6822, "Fig": 10638, "ogn": 3159, "\u2581algebra": 13397, "\u2581\u0440\u0430\u0437": 5234, "ghan": 13996, "including": 14682, "\u2581expertise": 14900, "\u2581Laura": 16145, "\u1ebf": 29622, "\u043a\u0442\u043e": 13483, "\uc2e0": 30126, "\u2581varieties": 27610, "\u2581sad": 7456, "Ant": 13389, "\u2581regulation": 22470, ">@": 24406, "\u2581fen": 27442, "\u2581climate": 11259, "ANT": 12738, "n\u00edm": 21038, "Package": 11079, "oci": 2139, "Account": 7820, "\u0432\u0430\u043d\u043d\u044f": 12267, "\u0415": 28907, "icial": 5867, "\u2581rolled": 12183, "ationToken": 17324, "FORE": 26755, "au": 581, "rian": 6260, "\u2581Fast": 17539, "\u305d": 30292, "\u2581innovation": 16863, "\u949f": 30612, "odge": 13167, "instance": 5241, "\u0142": 28843, "\u2581Cir": 10460, "indent": 10388, "oust": 18361, "\u2581Lag": 20997, "\u2581neue": 27989, "\u2581byte": 7500, "\u2581\u043f\u0438": 10484, "\u2581electricity": 17242, "SETTING": 19629, "\u2581hen": 8755, "\u2581instinct": 16823, "\u2581gebru": 23257, "\u2581\u0432\u0435\u0440": 12946, "\u2581\u0441\u0442\u0430\u043d\u043e\u0432": 16141, "\u2581Lemma": 13584, ")\");": 18490, "rangle": 6820, "\u2581Union": 7085, "\u2260": 30932, "\u2581east": 9005, "\u2581disappointed": 18913, "\u0654": 31865, "ober": 2510, "\u2581Stefan": 27656, "aj\u0105c": 28565, "\u2581consent": 15134, "\u2581weird": 10481, "\u2581Hung": 15171, "\u2581staying": 13465, "\u2581warrior": 25838, "\u014d": 28934, "\u2581Code": 7596, "\u5de8": 31786, "uss": 1349, "sk\u00e9": 20079, "\u2581secrets": 19376, "\u2581perceived": 21887, "\u2581jerk": 19748, "\u2581reaction": 10285, "\u2581mm": 6020, "imary": 7754, "ating": 1077, "rawn": 7936, "\u2581Criteria": 26496, "\u2581Georges": 28161, "\u2581\u0434\u0430\u043d": 19170, "\u2581Grad": 17252, "Login": 12611, "MODULE": 10820, "\u2581advocate": 25320, "MC": 7814, "\u2581hill": 12254, "\u043d\u043e\u044e": 19130, "\u03a5": 30549, "Exists": 15862, "ath": 498, "\u2581frequently": 11220, "\u2581atr": 21857, "\u2581imply": 25385, "\ubaa8": 29820, "\u2581\u0411\u0438\u043e\u0433\u0440\u0430\u0444\u0438\u044f": 25097, "Count": 3072, "\u2581${": 6051, "\u0430\u043d\u0433\u043b": 18058, "Col": 1577, "ON": 832, "auer": 10988, "WE": 6631, "\u2581treats": 27378, "\u2581\u017c": 24579, "dam": 8929, "may": 12001, "\u043b\u044c\u043d\u043e": 17921, "named": 18561, "\u2581Institute": 8624, "AT": 962, "TP": 4904, "\u2581\u0418\u043d": 18170, "\u2581Both": 7829, "Draw": 5656, "\u2581\u041d\u0438": 11504, "\u2581Officer": 16797, "\u2581\u0441\u0442\u0443": 20558, "\u2581bytes": 7597, "\u2581sage": 26640, "\u2581hire": 15270, "rupted": 17488, "ained": 1738, "\u2581Script": 15548, "\u2581isinstance": 17607, "\u2581handful": 18303, "\u2581encounter": 10301, "\u2581phil": 6862, "ytics": 18717, "{}": 6397, "\u2581ihrer": 19320, "Ob": 1445, "pas": 22328, "permission": 24654, "Directory": 11811, "___": 8485, "\u2581franchise": 21014, "Os": 23547, "\u2581\u041b\u044e": 24667, "\u2581teas": 24789, "\u8d5e": 31829, "niej": 20386, "\u2581Educ": 7948, "\u2581A": 330, "\u2581filtered": 25028, "urable": 17499, "\u05d2": 29632, "\u2581opportunities": 8812, "oples": 19619, "\u2581SHA": 18970, "\u0274": 31074, "bil": 26702, "\u7269": 29535, "\u2581towns": 17579, "\u2581sowie": 11298, "\u0925": 31783, "\u2581Pad": 17390, "\u2581point": 1305, "iral": 10097, "\u2581Shah": 23452, "Flow": 13444, "eds": 5947, "\u5ea6": 29184, "archive": 23682, "k\u00e9": 10641, "\u2581descriptor": 17387, "ENDOR": 23669, "peonato": 19687, "\u2581commer": 6002, "odio": 26301, "\u9152": 30887, "\u2581ancest": 14014, "ottage": 21881, "\u2581void": 1066, "dots": 10234, "iforn": 5507, "\u2581politics": 9800, "\u2581\u0413\u0435": 12935, "Tra": 14839, "newcommand": 20570, "\u2581fascinating": 23069, "\u2581TYPE": 18143, "\ub9e4": 30556, "vid": 14410, "\u2581Anim": 27295, "\u043f\u043e\u043b": 14004, "quire": 18948, "\u2581FM": 23586, "\u2581from": 477, "\u2581Morris": 18865, "\"/>": 2720, "\u2581Apparently": 24098, "\u2581outputs": 21842, "short": 10046, "nl": 14476, "\u2581\u041f\u0443": 25636, "clear": 6206, "\u2581photo": 8428, "integer": 14296, "\u2581k\u00f6r": 28059, "\u2581Highway": 22248, "achten": 28579, "\u2581stories": 5979, "\u2581Sale": 19338, "\u2581S\u00fc": 24365, "oss": 2158, "\u6539": 29220, "\u2581bin": 10708, "fortun": 7874, "wed": 13274, "<0xA8>": 171, "\u2581rigid": 25323, "\u2581lieu": 18569, "\u2581\");": 14588, "\u2581Jack": 4299, "\u2581contain": 7001, "\\!": 24835, "\u0442\u0430\u043b": 15122, "\u2581respect": 3116, "\u2581unc": 9967, "\u2581Auth": 15579, "GUID": 24591, "Dr": 9587, "\u00e9m": 4854, "pite": 4995, "track": 7822, "\u2581dug": 21616, "amic": 21039, "\u2581twe": 9394, "\u2581Marcatori": 27916, "\u2581prey": 27911, "ASS": 4816, "\u2581utiliz": 20673, "xml": 6459, "\u2581dess": 9625, "\u2581disable": 11522, "\u0bb2": 30616, "\u2581Esp": 10576, "\u2581reality": 6940, "umbs": 21681, "\u2581respected": 23425, "Site": 17606, "\u2581anten": 25940, "\u5fd7": 29796, "\u2581dispatch": 14323, "\u2581declar": 18227, "\u2581DJ": 18767, "ory": 695, "energy": 18785, "\u2581\u0444\u043e": 26379, "\u2581\u043d\u0435\u0437\u0430": 27476, "inject": 25410, "\u2581plate": 9703, ";}": 26070, "\u05d7": 29358, "\u5e38": 29408, "Arm": 26610, "DMA": 17632, "\u7ec3": 30947, "DECL": 24826, "\u0447\u043a\u0430": 19247, "ascript": 15367, "ategory": 3532, "\u2581convicted": 28553, "<0xFF>": 258, "ighter": 8918, "izo": 19692, "\u2581R\u00fcck": 25539, "\u504f": 30719, "\u5922": 31494, "(*": 4756, "\u2581aunque": 23510, "\u2581vers": 3502, "\u2581Metal": 24144, "\u2581Jed": 24987, "\u2581somet": 4378, "\u2581announce": 12411, "\u2581wurde": 3350, "\u2581Mex": 6874, "toString": 7127, "\u2581virtue": 24885, "\u2581embarrass": 13648, "\u2581sche": 4803, "cmd": 4458, "\u2581propos": 8395, "\u2581isset": 20050, "andro": 20082, "\u2581anytime": 27760, "\u1784": 30765, "\u2581Squadron": 27081, "\u2581h": 295, "\u2581takes": 4347, "aires": 10024, "hin": 15176, "rcu": 28268, "GM": 16977, "\u2581/*": 1385, "\u2581bod": 7646, "Utilities": 28157, "Binding": 14792, "\u2581Britain": 10174, "\u2581tail": 8675, "\u2581message": 2928, "\u00f8r": 14750, "Project": 8216, "&#": 27440, "CONTEXT": 27181, "USB": 16323, "\u2581admin": 11173, "\u2581XVI": 23528, "\u2581confident": 10689, "Pin": 20024, "\u2039": 29922, "\u2581Stack": 25319, "\u2581gave": 3395, "\u2581Sof": 21918, "\u2581competitors": 24619, "\u7ebf": 29437, "\u2581\u00ce": 17417, "?.": 11030, "\u56de": 29034, "don": 11112, "\u2581baseline": 26605, "\u2581strangers": 24305, "\u9009": 29216, "\u2581Santa": 9231, "jour": 18777, "\u2581ol": 10370, "\u2581ri": 3191, "\u2581jeans": 21576, "\u5854": 31166, "forward": 11397, "\u2581Thailand": 23561, "\u2581pam": 26362, "\u2581Joe": 7833, "\u2581riv": 8191, "\u2581di": 890, "\u2581Method": 10011, "Available": 18949, "\u2581subscription": 15400, "\u2581Authority": 20653, "icons": 14356, "\u2581Eff": 24584, "VENDOR": 24762, "\u2581Poss": 19796, "rated": 27210, "lte": 27939, "\u0446\u0438\u044e": 20483, "dead": 23303, "\u8861": 31632, "\u0447\u043d\u0438\u0445": 24409, "\u2581Professional": 16081, "\u2581Peace": 18864, "+": 28806, "names": 5889, "format": 3762, "Don": 6017, "\u043b\u0451\u043d": 24731, "<0xCB>": 206, "\u2581Pal": 4187, "_+": 18875, "\u2581triangle": 24411, "\u2581thrust": 20600, "\u2581screaming": 19455, "\uc778": 29324, "\u2581awesome": 11923, "\u2581stern": 26890, "\u0441\u0442\u0432\u0435\u043d": 7265, ":\",": 26906, "colon": 19502, "\u2581Acc": 4035, "\u2581radar": 24951, "\u2581till": 4861, "\u904d": 30436, "\u2581compact": 12424, "onto": 10533, "\u2581shooting": 11743, "\u2581acknowled": 13964, "kl": 4784, "\u2581Miami": 16932, "\u2581\u041c\u0435": 8749, "\u2581\u0440\u0430\u0439\u043e": 14159, "uture": 8649, "\u2581disk": 11295, "\u2581Ped": 11943, "\u2581becoming": 7888, "Used": 21601, "\u4eac": 29936, "\u2581sehr": 24188, "\u2663": 30726, "\u2581bright": 6833, "acc": 4373, "\u2581??": 19563, "\u2581p\u0159": 6910, "\u2581Legal": 22010, "\u2581panel": 8357, "\u2581lingu": 24017, "\u2581Bus": 6114, "\u2581m\u00e5naden": 27432, "\u2581dans": 2422, "ISING": 26265, "\\_": 14048, "Subject": 22210, "\u2581lou": 20280, "\u2581shiny": 27348, "\u2581\u043c\u0456\u0441\u0446\u0435": 26972, "km": 8251, "construct": 15607, "\u2581detector": 25979, "UV": 21326, "\u2581beauty": 9689, "\u2581disgu": 27409, "UINT": 13215, "\u2581instead": 3519, "\u2581portfolio": 19125, "\u4f9b": 29954, "\u2581teen": 10799, "\u2581prz": 7713, "illing": 8317, "\u2581exceed": 12436, "im": 321, "function": 2628, "rium": 16988, "YN": 26687, "\u0012": 30298, "riors": 18152, "oven": 8722, "DAP": 25857, "\u4e1c": 29717, "\u2581beginnetje": 15739, "\u2581kids": 4551, "lyph": 18516, "\u2581Ass": 3348, "\u2581Biographie": 24289, "\u2581wars": 19270, "\u2581meth": 24992, "his": 16355, "Configuration": 6365, "\u2581everybody": 12798, "\u2581limitation": 26775, "\u0e49": 29318, "\u2581acknowledge": 20199, "\u2581sixth": 20865, "orial": 8525, "item": 1751, "\u2581disabled": 11426, "lar": 15027, "inely": 16297, "play": 1674, "\u2581ger": 16447, "\u2581Vegas": 18233, "netic": 20527, "r": 28712, "ling": 1905, "\u7b26": 29252, "\u2581eff": 1397, "LOT": 24198, "\u5ba2": 29763, "\u10d1": 29704, "\u8a9e": 30321, "nu": 3556, "\u090f": 31014, "\u2581bias": 16117, "\u2581ella": 19880, "Decl": 7557, "\u2581remembered": 10216, "Tim": 9834, "\u2581crimes": 17440, "Partial": 25049, "\u2581({\\": 28699, "\u2581\u0420\u0430": 7543, "apor": 19845, "\u2581mayo": 23714, "\u2581Grab": 23924, "\u2581Clean": 14510, "\u10e4": 30880, "csv": 19197, "php": 2842, "\u2581ownership": 13965, "\u2581prediction": 19386, "iger": 4886, "finity": 19104, "\u2581birthday": 12892, "NI": 16457, "\u2581readers": 12076, "\u2581\r": 1302, "\u2581witnessed": 24385, "\u2581Clear": 16676, "\u300c": 29579, "\u2581legacy": 17424, "aine": 4262, "\u2581charm": 22533, "sf": 5784, "\u2581cele": 5207, "testing": 10163, "\u2581anim": 4691, "\u2581\u0432\u0438": 3542, "\u05dc": 29077, "bytes": 6845, "\u0e34": 29568, "\u2581profits": 20285, "\u2581heritage": 22597, "\u2581Given": 12628, "\u2581Fern": 10830, "\u2581Gab": 10849, "\u2776": 31739, "\u2581Fre": 5694, "arr": 2654, "\u2581Job": 14633, "vor": 11766, "Using": 26021, "\u0446\u0438\u0458\u0435": 28401, "\u2581Steven": 20257, "plies": 7631, "').": 4532, "They": 6037, "\u2581telephone": 15429, "ino": 2164, "layer": 10204, "\u2581denied": 16703, ".\u2019": 18526, "\u2581avoiding": 23329, "\u2581abundance": 25468, "lers": 8531, "\u2581applications": 8429, "\u591c": 30755, "failure": 23973, "Array": 2712, "\u2581implicit": 21628, "\u2581Jap": 23106, "client": 3305, "vars": 13819, "createElement": 17023, "arrow": 3362, "\u2581\u0432\u0438\u043a\u043e": 20572, "\u2581motivation": 21594, "\u2581photos": 8886, "\u2581R\u00e9": 15417, "\u00b0": 28902, "\u2581ruin": 21878, "\u0443\u0434\u043e": 16978, "izen": 20084, "\u2581\u0422\u043e": 10378, "\u2581decay": 15224, "\u9501": 30448, "subfigure": 22854, ":%.*": 16772, "wij": 24231, "\u2503": 30663, "Co": 7170, "\u2581Jewish": 9952, "aupt": 12099, "\u7565": 30223, "\u2581Find": 8769, "\u2581deserve": 16133, "SP": 3701, "\u2581Miller": 13674, "\u2581cuenta": 27947, "\u2581Loc": 5232, "\u2581believes": 15302, "\u0c3e": 31282, "int": 501, "py": 2834, "\u2581su": 519, "eries": 12865, "\u2581David": 4417, "achers": 26120, "\u2581Ende": 17166, "\u2581american": 21419, "\u2581mast": 27529, "\u2581accommod": 11810, "\u2581Johnson": 9370, "\u2581\u0432\u0435": 6048, "iar": 9043, "\u2581Collections": 27395, "opt": 1642, "\u00e8me": 8158, "uchar": 21298, "els": 1190, "\u00f1o": 6987, "\u2581Ste": 2349, "ril": 9085, "mn": 15358, "\u2581Sept": 22638, "\u2581Vall": 26997, "\u2581sandwich": 28267, "erta": 21313, "\u2581Fuck": 19449, "}(": 2292, "ATURE": 16051, "covery": 8841, "\u2581reads": 16336, "\u2581safety": 6661, "NdEx": 19248, "issues": 19474, "\u0627": 28915, "\u2581Esta": 25653, "\u2581Eliz": 10051, "\u2581likely": 3917, "\u0e1f": 30725, "\u2581\u043f\u0438\u0441\u0430": 25216, "\u2581Env": 12590, "\u2581wreck": 22293, "\u3044": 29132, "\u2581Ren": 8734, "aram": 762, "nde": 18773, "eben": 8960, "\u043a\u0430\u043c\u0438": 21237, "osti": 22160, "\u2581clothes": 8155, "ult": 517, "\u2581Lat": 7402, "\u2581{{": 13949, "\u2581beat": 8239, "\u2581Cleveland": 21920, "\u2581Schema": 24051, "\u2581corporations": 24171, "\u2581Collect": 26272, "Matcher": 28466, "\u2581seas": 28443, "hir": 22590, "\u2581thousand": 8028, "models": 8676, "\u2581CRC": 20731, "<0xE0>": 227, "BN": 6848, "icular": 18114, "unkt": 13518, "<0x3F>": 66, "\u2581k\u00f6n": 14967, "\u2581returns": 5723, "\u2581materials": 7069, "\u2581p\u00e9riode": 28546, "pty": 2046, "\u2581Sales": 16377, "LT": 24913, "\u2581provider": 9782, "\u2581newly": 12486, "\u2581nerv": 9434, "v\u00e1": 15504, "\u043b\u0456\u0432": 23279, "gram": 1596, "\u2581\u00e9p": 12163, "\u2581conscious": 9994, "\u5b58": 29079, "\u2581surface": 5439, "itsch": 22158, "ached": 2694, "\u2581\u044f\u0432\u043b\u044f": 16207, "\u2581bolt": 24610, "\u2581suggesting": 20223, "\u2581c\u00f3": 21977, "<0x2D>": 48, "\u2581indicator": 24492, "tom": 28154, "\u96fb": 30939, "\u2581combination": 9470, "\u2581cable": 15822, "hent": 5577, "\u2581Fl": 2494, "\u2581vent": 8061, "\u2581narrow": 8484, "\u2581parallel": 12635, "\u0442\u0435\u043b\u044c": 4446, "textit": 10162, "\u2581noble": 19343, "\u2581collecting": 22852, "vari": 13018, "\u614b": 31094, "\u0441\u0442\u0440\u0443": 17405, "ema": 6391, "\u0442\u043e\u0432": 7660, "\u2581\u0432\u0443": 27983, "\u4e0d": 28988, "\u2581Cap": 6275, "\u2581soup": 18851, "recogn": 28007, "\u2581imagination": 16842, "\u2581Bulgar": 22390, "\u2581k": 446, "\u00e4nd": 5901, "\uff01": 29267, "\u2581\u0431\u0443\u0432": 17623, "\u2581\u043e\u0431\u0449\u0435": 18556, "\u2581largest": 7639, "\u2581Pred": 19122, "\u2581\u043a\u0430\u0442\u043e": 14126, "\u266f": 30905, "\u2581Dead": 14292, "gro": 25344, "\u2581Clearly": 25421, "END": 5000, "\u2581notification": 14901, "\u2581relativ": 22957, "adv": 10925, "irical": 25537, "\u2581Crit": 16773, "\u2581portion": 11580, "\u2581folder": 14249, "\ubabb": 31408, "\u2581paras": 27629, "igue": 12216, "\u2581Complete": 21929, "\u2581Commander": 22690, "\u2581flesh": 14063, "\u2581half": 2795, "AC": 1645, "\u2581chim": 21367, "\u2581Jin": 27794, "\u2581pri": 3061, "\u1eef": 30586, "aved": 4393, "gon": 28684, "\u2581Neg": 12165, ".\"\"\"": 16498, "\u2581consist": 4817, "\u2581lower": 3889, "hub": 21230, "\u2581Observable": 27572, "\u1ee7": 30190, "\u2581Virginia": 10117, "\u2581amaz": 5818, "\u2581boards": 19434, "\u2581Skip": 24419, "\u2581salt": 9685, "aro": 10281, "h\u00f6r": 11730, "ancers": 25799, "\u2581absor": 10612, "\u2581\u042e": 11396, "os": 385, "ia": 515, "\u2581\u0442\u0443\u0440": 18247, "\u2581monaster": 27128, ">(": 3323, "ENABLED": 23788, "ki": 3430, "\u8bed": 29892, "\u2581\u0441\u0435\u043b\u043e": 15377, "\u2581Fur": 8179, "\u73b0": 29419, "/:": 26387, "<0x47>": 74, "Red": 7516, "\u2581mandatory": 26732, "\u2581NBC": 28316, "\u06c1": 30235, "Trigger": 16140, "\u043d\u043e\u0441\u0442": 12757, "\u2581pap": 12930, "\u2581Vor": 11975, "\u2581\u041f\u043e\u0441\u043b\u0435": 17759, "\u2581pret": 9525, "\u7206": 31817, "anni": 15054, "\u043c\u0430\u043d": 5829, "\u2581hatred": 25944, "S": 28735, "\u2581Making": 19387, "\u2581anti": 6891, "\u0443\u0440": 8339, "\u2581explanation": 13268, "\u2581none": 6547, "\u7bb1": 30262, "cap": 4996, "\u5956": 30598, "embre": 8058, "ensions": 5143, "Mix": 26388, "distance": 18122, "oire": 10710, "\u2581Urs": 28305, "\u2581Construct": 23821, "\u2581turno": 27200, "\u2581Thanks": 8868, "\u2581\u0441\u0430\u043c\u043e": 12510, "stra\u00dfe": 20134, "ea": 11062, "ens": 596, "\u2581began": 3125, "\u2581eng": 2536, "LS": 6687, "Ass": 7226, "jes": 16967, "\u5f02": 29761, "uction": 15029, "About": 22261, "\u2581Option": 7664, "\u2581replaced": 8939, "FR": 9790, "\u2581FITNESS": 13200, "F": 28765, "Cap": 9953, "DEBUG": 8297, "\u0440\u0435\u0432": 23375, "velle": 17348, "\u2581cro": 7950, "buffer": 4260, "ampion": 8042, "urs": 1726, "\u2581proud": 9393, "\ub9c8": 30103, "Managed": 26215, "liament": 10669, "\u2581Tra": 8534, "\u2581settings": 6472, "mathfrak": 8530, "\u2581Hel": 5424, "\u2581zak": 24473, "anean": 23554, "ination": 2235, "\u2581either": 2477, "literal": 25853, "\u2581Wood": 8010, "\u2581filed": 16691, "\u043d\u0438\u0448\u0442\u0432\u043e": 20624, "\u2581regener": 26319, "\u0457": 28869, "\u98ce": 30206, "urations": 16963, "itational": 25674, "\u2581Morning": 25869, "Warning": 16185, "\u2581password": 7908, "width": 2617, "zo": 4167, "ACTION": 17615, "\u2581cave": 17630, "\u2581concentr": 8902, "\u2581farming": 25209, "\u2581wet": 7569, "\u2581%": 1239, "ptic": 19742, "ello": 4508, "anned": 5928, "\u043c\u0438\u043d\u0438": 17804, "\u03a1": 30528, "\u2581healthcare": 15240, "\"]": 2242, "\u2581favorites": 28651, "\u026f": 31678, "<0xD8>": 219, "\u2581shifts": 23573, "\u2581\u043e\u043d\u0430": 24312, "\u2581Incre": 24377, "plug": 24960, "\u2581stan": 17920, "\u2581candle": 26000, "\u4e24": 29745, "\u0442\u0443\u0440\u0430": 15337, "\u2581medi": 17286, "\u2581Bruce": 16668, "\u2581titled": 21508, "cciones": 24598, "shaller": 21771, "\u5bfa": 30799, "ton": 1158, "\u044e": 28842, "\u2581emphasis": 19679, "\u2581Digital": 13770, "\u2581whose": 4636, "ric": 1491, ">:]<": 15880, "\u2581Smart": 17285, "\u2581Hannah": 24124, "nullptr": 25610, "\u0628": 28983, "\u0432\u0435\u0434": 20183, "\u2581sidewalk": 27430, "\u2581utilizing": 28464, "\u2581uses": 6098, "arge": 2010, "ons": 1053, "\u2581effects": 6092, "\u2581accept": 3458, "\u2581enjoy": 3555, "Bill": 18069, "\u5305": 29333, "itting": 3257, "\u2581start": 1149, "\u2581dumb": 15475, "visible": 13556, "\uccb4": 29823, "param": 1148, "\u2581equipped": 17042, "\u0445\u043e\u0434\u044f": 21647, "\u2581Emily": 16941, "\u2581\u0430\u0432": 8664, "atrice": 23097, "\u2581Rat": 20876, "\u2581sucked": 28436, "\u04bb": 31141, "column": 5571, "rek": 28089, "mer": 794, "\u2581procedures": 15251, "\u0439\u043e": 7328, "ER": 725, "\u2581mid": 4725, "\u2581durch": 6331, "\u2581DAG": 24821, "\u2581reserves": 26863, "extend": 14104, "\u6d88": 29311, "\u2581una": 1849, "\u2581explained": 7955, "\u2581established": 6740, "lambda": 3266, "\u2581ordinary": 13207, "\u2581annual": 9558, "\u0acd": 31486, "arlier": 5265, "\u5011": 31247, "ike": 2474, "\u2581floors": 21264, "ynom": 14863, "<0xBA>": 189, "Cart": 17057, "<0x3A>": 61, "\u2581Program": 7347, "acji": 13586, "\u2581Drag": 23185, "\u2581institut": 9557, "\u2581about": 684, "\u2581hate": 7665, "\u2581info": 4931, "aude": 18188, "\u2581rates": 7978, "\u2581language": 3842, "guard": 16191, "xA": 18178, "ump": 1804, "EV": 7321, "\u2581critic": 8394, "gl": 1727, "\u2581Host": 15511, "\u2581Kansas": 17778, "\u2581Pedro": 18444, "\u2581carpet": 18612, "\u2581Anyone": 21012, "aho": 24715, "\u2581Wire": 26375, "\u2581lin": 12893, "okes": 9486, "\u2581Kit": 13402, "\u2581glasses": 16014, "\u2581access": 2735, "ashi": 19915, "zs": 27896, "\u2581dual": 13350, "\u2581grow": 2333, "\u2581stays": 22361, "\u2581forgotten": 13652, "\u2581dignity": 27182, "arde": 27655, "\u2581published": 4775, "PY": 11519, "Sure": 22099, "iii": 19747, "\u2581idea": 3028, "\u2581params": 6150, "Arrow": 23874, "istrzost": 25000, "ub": 437, "\u2581Stadium": 8993, "}^{-": 17592, "scr": 10426, "\u2581Utah": 23672, "\u2581bapt": 26907, "\u0643": 29171, "\u2581struggled": 19274, "\u2581frightened": 23889, "\u2581\u0433\u0430": 13206, "\u043b\u044f": 1941, "seven": 28098, "\u2581rational": 15202, "entr": 21683, "*:": 16550, "heart": 14754, "\u2581\"${": 12833, "security": 10165, "\u0440": 28785, "\u2581Golf": 22932, "\u5e27": 30821, "\u2581Korea": 13544, "ube": 4276, "\u2581onChange": 27530, "\u2581lights": 9416, "COM": 18451, "\u2581weeks": 4587, "ioctl": 26478, "\u2581erst": 15825, "\u2581Google": 6182, "\u2581feel": 1601, "atal": 3196, "\u0440\u043e\u043c": 7407, "yg": 9690, "\u30d9": 30277, "\u2581refer": 3295, "!(\"": 19228, "Max": 5010, "\u0159\u00ed": 9528, "\u304b": 29399, "\u2581path": 2439, "\u2581Canadian": 10435, "po": 2345, "PCM": 23758, "Writer": 9543, "Side": 16170, "Theta": 16643, "onomy": 15631, "iego": 8956, "Cmd": 10490, "\u2581termin": 13552, "\u2581comic": 19607, "\u2581solving": 22100, "icol": 8176, "\u2581tf": 14618, "\u2581shopping": 11157, "\u2581Susan": 17569, "\u2581rules": 5879, "\u2581publi": 25918, "\u01ce": 29788, "arguments": 16684, "\u2581photograph": 9180, "\u2581\u043d\u043e": 5304, "\u8a8d": 30697, "\u2581Hospital": 12754, "\u2581gioc": 27491, "ysz": 27713, "\u017c": 28882, "Marker": 19854, "asz": 17747, "channels": 16335, "\u0093": 29331, "nil": 9454, "\u0441\u043f\u043e": 5761, "amil": 8551, "\u0438\u043b": 24962, "hyper": 23348, "\u2581stabil": 16888, "MENT": 7178, "\u2581formula": 11303, "\u2581pills": 19436, "\u5757": 29739, "\u53f2": 30214, "\u2581syn": 7071, "\u2581fastest": 25754, "\u2581At": 1794, "\u2581agre": 6271, "\u2581AC": 11949, "console": 14124, ")},": 14810, "\u2581Parker": 19673, "PN": 12812, "\u2581mines": 25989, "ashion": 7106, "parameter": 14490, "TagHelper": 20889, "\u2581costume": 27239, "\u2581schemes": 23812, "amente": 3958, "appy": 9813, "Battle": 24747, "\u2581Direct": 6055, "Func": 9715, "\u2581Palest": 13897, "\u2581\u0441\u043c\u0435\u0440": 28271, "\u2581weed": 27151, "ieurs": 14544, "\u2581\u0430\u0440\u0445\u0438": 25678, "\u2581model": 2229, "\u2581Today": 8784, "\u2581logs": 22898, "threads": 26202, "\u2581Asian": 13464, "\u2581bell": 15676, "\u2581correctly": 12742, "\u2581ra": 13419, "\u2581Fort": 6963, "\u2581\u041a\u0438": 11364, "prov": 11951, "\u2581contest": 13968, "\u2581surrounded": 14161, "keep": 16409, "\u2581ferm": 17310, "\u2581img": 16001, "\u2581damned": 26442, "\u2581Bobby": 20507, "acyj": 24063, "\u2581migrations": 27052, "tiny": 25149, "\u2581'#": 12252, "\u2581posted": 10198, "pent": 21557, "\u2581suggested": 8750, "akten": 21305, "\u2581contributing": 25885, "berries": 28363, "\u2581sensation": 23413, "lass": 12532, "\u2581stop": 2115, "\u2581clin": 8837, "\u2581identity": 8208, "\u2581causa": 20813, "\u2581barrier": 19644, "\u1e45": 30827, "hn": 10721, "icles": 4992, "\u2581Commission": 9238, "\u043e\u0432": 14592, "eled": 19691, "\u00fclet": 24190, "\u2581peu": 12631, "\u2581szer": 17267, "\u2581Sym": 12356, "\u2581\"*": 12406, "Pay": 9602, ">\\": 11266, "rible": 7030, "$$": 10811, "WO": 20463, "\u0679": 30634, "\u2581quick": 2936, "\u2581funeral": 18979, "poss": 6338, "\u2581\u041f\u0440\u0430": 25074, "Browser": 16008, "EAR": 25557, "Eng": 5871, "FIL": 17168, "Score": 18120, "GroupLayout": 21984, "fter": 810, "getAttribute": 20296, "\u0432\u044a\u0440": 22797, "\u2581stagione": 24248, "\u2581GC": 22278, "\ubd80": 29775, "nik": 8491, "\u2581recommend": 6557, "\u2581preserved": 23910, "\u2581$(": 4451, "Check": 3828, "uing": 10523, "\u2581refused": 11390, "\u2581dough": 24511, "\u2581Lesser": 19570, "CTX": 26564, "Com": 1163, "\u2581hid": 18750, "\u2581trained": 10898, "\u0441\u043a\u043e\u0432": 20060, "linewidth": 17685, "\u2581attrs": 20793, "\u2581reconc": 25349, "\u2581\u043c\u0435\u0434\u0430": 28165, "\u2606": 29839, "omitempty": 15509, "<>": 28675, "result": 2440, "ao": 5044, "unal": 24764, "Music": 24778, "\u2581plans": 6400, "prototype": 6633, "\u2581durant": 21105, "\u0440\u0430\u0431": 24462, "prob": 22083, "\u2581diab": 17571, "Deleted": 28558, "EF": 16327, "\u2581irrit": 16418, "<0x8B>": 142, "\u2581std": 2829, "erson": 1084, "\u2581\u044f\u043a": 15143, "duration": 15458, "\u2581weekly": 16496, "\u2581income": 7904, "kc": 17017, "($": 1501, "\u2581charging": 22402, "\u2581K\u00f6": 19253, "Direction": 14757, "seen": 18226, "Men": 22963, "\u2581Mand": 14572, "\u2581bord": 22183, "\u0695": 30983, "\u2581tra": 5455, "\u2581Table": 7582, "eln": 12228, "}-": 8767, "\u2581Hand": 6322, "\u2581Ian": 17311, "omega": 4848, "\u2581launch": 8817, "\u2581Ple": 23436, "tti": 21099, "\u2581works": 3791, "<0x12>": 21, "\u2581primo": 18472, "\u5e55": 30911, "\u2581immer": 23030, "\u9996": 29993, "\u2581sleeping": 12863, "\u2581luminos": 27829, "\u2581victory": 11115, "REQUEST": 16396, "Url": 5140, "ilton": 9398, "\u2581anc": 5930, "\u09b8": 30234, "\u2581Molly": 28006, "\u2581Delete": 15263, "\u2581insights": 20715, "\u2581tilt": 24758, "\u0441\u0442\u0432\u043e\u043c": 23334, "\u7f57": 30767, "got": 6066, "='": 2731, "ugg": 23065, "validation": 16193, "\u2581convention": 18698, "\u2581surfaces": 19454, "\u2581scatter": 11190, "\u2581decide": 7964, "\u2581Where": 6926, "it\u00e4t": 12890, "res": 411, "icket": 10106, "\u2581\u0441\u043f\u0435": 16201, "\u0441\u0438": 2206, "itect": 5588, "Namespace": 13292, "\u2581Nar": 16392, "asets": 20363, "nych": 10317, "avel": 3177, "CORE": 22901, "\u5b9f": 30513, "meisterschaft": 27668, "\u2581Vir": 6595, "\u2581share": 4098, "\u2581operation": 5225, "\u2581sphere": 21517, "\u2581Return": 4571, "\u043c\u043f\u0438": 12737, "\u2581c\u00e9l": 28596, "\uae09": 31563, "\u2581product": 2093, "\u2581ott": 19137, "\u2581cookie": 17661, "iaz": 25939, "\u2581\u2022": 3700, "\u2581older": 6402, "orney": 10899, "ixels": 11122, "+-": 22805, "\u5c3a": 31076, "\u7d0d": 31824, "\u2581Barbara": 17332, "\u2581Cour": 5073, "\u2581Tob": 20479, "\u2581\u0415": 5612, "\u2581Whe": 6738, "anner": 7041, "owners": 24689, "\ud788": 31909, "uro": 2138, "\u2581Association": 7738, "\u2581doors": 9289, "\u2581veget": 10035, "inz": 12461, "\u2508": 31179, "\u2581IE": 20244, "\u2581prev": 8177, "\u5170": 31199, "\u2581Money": 17786, "\u2581kter": 12904, "\\{\\": 25951, "\u2581implements": 10538, "\u2581conservative": 16038, "roit": 15055, "\u5e76": 29457, "trfs": 26969, "\u2581AUTH": 25270, "\u2581perfectly": 9943, "\u2581mx": 26800, "\u2581placed": 6838, "INVAL": 7049, "\u2581headers": 12489, "TYPE": 3657, "\u2581democracy": 17548, "\u00e8ncia": 19620, "\u2581pu\u00f2": 28010, "\u2581girls": 6093, "\u2581$.": 10884, "asp": 10124, "VR": 18240, "\u8ba1": 29382, "\u5224": 29485, "igible": 13538, "\u043f\u0430\u0434": 15655, "\u2581whist": 20978, "\u2581slowly": 7160, "\u2581helps": 7263, "\u2581matching": 11623, "\u9605": 30738, "\u2581Conference": 13115, "\u2581outs": 19717, "\u2581tense": 28445, "\u2581apost": 26643, "stable": 17588, "\u2581sa": 637, "aneous": 18834, "\u2581\u044f\u043d\u0432\u0430\u0440\u044f": 26069, "ura": 2614, "\u00f6m": 16707, "aiser": 22098, "\u2581UV": 25231, "peed": 6714, "\u2581occurred": 9894, "\u2581dopo": 14752, "\u2581continuously": 25783, "\u2581Jud": 7404, "\u0402": 29278, "amp": 1057, "\u2581britann": 25206, "\u2581ourselves": 8915, "\u043c\u043e\u0432": 19264, "\u2581addiction": 23823, "\u82f1": 30193, "<0x59>": 92, "former": 20700, "rown": 3329, "\u2581\u0438\u0441\u043f\u043e": 13783, "quier": 22253, "Une": 18813, "\u2581catching": 23729, "\u2581returned": 4253, "\u2581dinner": 7854, "\u6392": 29720, "\u73e0": 31845, "mate": 15356, "\u2581support": 1760, "\u2581chicken": 13088, "\u2581individ": 3004, "added": 17447, "CLUDING": 16634, "\u2581Factory": 24264, "Built": 28002, "\u2581flower": 14994, "\u2581precious": 17967, "\u2581graduated": 19215, "\u2581carriage": 26669, "\u2581Bot": 17174, "\u0432\u044f": 8281, "\u2581tie": 14628, "\u255a": 30706, "lam": 5989, "\u5eb7": 30720, "glass": 23846, "oom": 8605, "\u043a\u043b\u0430": 7847, "antal": 25855, "uly": 3089, "weight": 7019, "\u2581Toronto": 14984, "radio": 19036, "\u523b": 30861, "jj": 23659, "\u2581poet": 8796, "\u2581Na": 7084, "wan": 10074, "conom": 2868, "\u2581mob": 10886, "\u2581Este": 20586, "CLO": 22132, "\u2581spaces": 10599, "Fixed": 16126, "\u2581remove": 5281, "berger": 23259, "asty": 11136, "\u2581opening": 7032, "\u2581incons": 25331, "iffe": 27007, "\u2581SO": 6646, "\u2581conoc": 16022, "\u2581];": 11890, "\u2581bedroom": 9384, "\u2581desper": 10975, "\u2581\u043f\u043e\u0441": 18678, "\u6743": 29520, "obal": 1995, "widetilde": 10215, "\uc88c": 31455, "fore": 994, "M": 28755, "\u2581kat": 25345, "<0x90>": 147, "NV": 16106, "\u2581\u0422\u0443": 24519, "\u2581DA": 13060, "uffy": 23892, "\u2581Gew": 21188, "rn": 27094, "oren": 6736, "orts": 15587, "\u2581expectations": 13879, "odo": 11139, "etzt": 17982, "\u2581fis": 18445, "=\"{{": 21686, "\u2581youngest": 25806, "\u2581sin": 5450, "\u2581ran": 5591, "\u2581\u00e5r": 19430, "iggers": 21102, "\u2581Kong": 12544, "(\"-": 24751, "\u2581synd": 18690, "\u2581immune": 20930, "\u2581multiple": 5166, "\u2581Henry": 6808, "threshold": 21286, "\u2581bad": 2607, "\u2581Cape": 18817, "\u2581resolution": 10948, "replace": 6954, "IEW": 19212, "nic": 6374, "\u2581spel": 28501, "\u2581expecting": 15550, "\u2581Tax": 14093, "\u5cf6": 30418, "\u2581upset": 13265, "\u2581volatile": 23632, "\u2581questions": 4224, "zone": 7795, "Java": 15473, "hy": 5942, "\u8ba4": 29262, "the": 1237, "ulous": 9504, "\u5904": 29326, "\u677f": 29561, "verbose": 24650, "\u2581contemporary": 13621, "\u2581emphas": 10574, "\u2581induced": 21327, "\u2581ment": 4498, "throws": 10081, "\u2581bos": 16158, "\u2581zum": 6103, "aughter": 4762, "\u2581Environmental": 25607, "\u68c0": 29580, "\u2581profession": 7585, "gged": 10901, "running": 17316, "\u2581detect": 6705, "\u2581\u0434\u043e\u043c\u0430": 21807, "ito": 3068, "\u00f5es": 7849, "\u8a08": 30629, "\u2581ihn": 19467, "ep": 615, "\u2581beg": 2049, "\u2581mise": 26743, "\u2581sauce": 16042, "itted": 3309, "\u2581friend": 1832, "\u2581Count": 4165, "\u2581striking": 19910, "dentry": 28513, "\u6377": 31823, "\u2581Extra": 26494, "\u2581Mort": 14789, "\u2581happened": 4243, "\u2581Ta": 14247, "\u043d\u0443\u044e": 10841, "ulative": 20851, "aden": 7547, "Observer": 18085, "\u2581ihren": 24461, "\u1ef1": 30500, "\u0454\u044e": 23667, "hemat": 11953, "\u2581front": 2778, "\u2581#####": 5609, "\u2581blocked": 18770, "leading": 22066, "\u2581publishing": 20449, "\u2581boom": 25157, "idges": 20499, "\u2581carrying": 10839, "\u2581Ein": 6004, "\u307b": 31529, "\u2581YouTube": 14910, "\u2581NS": 12043, "\u2581Kenn": 10960, "\u2581racial": 18450, "\u2581rather": 3210, "Action": 3795, "ondon": 3801, "\u2581),": 6223, "\u2581dig": 3968, "\u2581intel": 9568, "\u2581Kill": 25262, "cu": 7340, "<|im_start|>": 32001, "\u2581Aw": 21960, "\u2581primer": 13537, "\u2581beds": 21137, "\u2581visitor": 19446, "TARGET": 23187, "\u63d2": 29959, "backup": 27078, "\u2581sheets": 18763, "ando": 2567, "\u2581wyst": 23196, "\u0441\u0442\u0432\u0435\u043d\u043d\u043e\u0439": 25166, "\u2581speaks": 19203, "annte": 25542, "\u2581href": 5501, "\uc804": 29600, "\u2581couch": 18602, "DESCRIP": 25205, "lat": 7387, "kor": 17066, "\u0119": 28864, "\u2581reset": 9627, "ough": 900, "abs": 4737, "\u2581\u043d": 24595, "\u2581CR": 12007, "Camp": 23268, "\u00e4ter": 13201, "\u2581PG": 27793, "String": 1154, "\u2581Area": 14488, "\u2581Wonder": 21950, "\u2581eating": 8652, "gor": 4553, "emic": 10771, "ensor": 4037, "\u2581reass": 18126, "\u2581\u0421\u0442\u0430\u043d\u043e\u0432\u043d\u0438\u0448\u0442\u0432\u043e": 21160, "\u2581Denmark": 26486, "specific": 15590, "\u2581gentleman": 24830, "<0xE6>": 233, "\u2581dummy": 24084, "\u00b4": 29204, "\u2581Ol": 7012, "\u2581Sample": 27797, "\u2581zich": 19517, "\u00fas": 11704, "\u2581\u0422\u0435": 15074, "\u2581[\u2026]": 22819, "img": 5422, "oop": 9325, "((": 1880, "\u2581Custom": 7973, "\",\r": 10939, "\u2581);\r": 12193, "\u2581knocked": 18625, "\u2581destruct": 25274, "\u2581sighed": 16331, "\u2581\u043a\u0443\u043b\u044c": 21828, "issa": 13723, "\u2581based": 2818, "\u2581\u0413\u0443": 24672, "\u2581obt": 3182, "\u2581Ya": 26849, "\u2581Sau": 23707, "ouse": 1284, "Byte": 8150, "\u2581Autom": 15939, "\u2581slot": 10544, "\u2581Morgan": 15165, "ro": 311, "\u2581Reading": 19118, "ushing": 9305, "dataset": 18200, "\u2581tm": 25476, "\u2581situ": 2921, "ylvania": 14194, "\u5269": 31120, "\u2581Production": 18860, "\u6298": 31201, "\u2581Fran": 26578, "\u2581PHP": 20194, "\u043b\u0438\u044f": 13124, "\u2581Protocol": 28564, "Trace": 9937, "\u2581exposure": 15368, "\u2581fiber": 18867, "\u7840": 30811, "http": 2872, "\u2581\u0432": 649, "\u2581Alice": 14003, "\u2581cock": 12408, "\u0449\u0435\u043d": 17612, "\u2581neighb": 13869, "\u7075": 31310, "Att": 2517, "\u2581interval": 12571, "\u2581acc": 932, "\u2581anxiety": 12758, "\u043a\u0430\u0437\u0430": 13258, "\u2581parl": 18435, "\u2581Robin": 18486, "\u0440\u0435\u043d": 9273, "Sem": 21565, "\u2581trucks": 22988, "\u2581chrom": 24448, "\u2581\u0440\u0430": 2101, "\u2581DM": 19884, "\u2581obten": 26685, "Tur": 28348, "\u6843": 31750, "\u2581motivated": 22403, "\u2581pending": 15466, "formed": 12914, "\u2581uuid": 26886, "\u2581LLC": 19401, "\u4e92": 30989, "\u2581waved": 20617, "\u2581greatest": 9932, "\u5b8b": 31403, "\u2581Felix": 26463, "solid": 27344, "\u2581Vien": 21136, "Put": 16280, "emon": 7884, "\u00f0": 29092, "\u2581dentro": 24219, "\u2581werd": 7680, "\u2581selfish": 26206, "\u57ce": 29727, "\u2581four": 2308, "WW": 22240, "\u2581ward": 17874, "adio": 24745, "\u2581Line": 9127, "\u2581grip": 16593, "\u2581energet": 28236, "\u2581Heat": 24191, "\u2581absolutely": 7771, "Custom": 7219, "pliers": 18403, "\u2581boys": 8066, "\u0441\u0442\u0432\u043e": 4492, "\u2581ro": 712, "Ext": 5338, "\u02b2": 30280, "ut": 329, "aten": 6486, "\u272d": 31776, "\u2581incredible": 13978, "\u00fchr": 7736, "Her": 18078, "\u2581gaz": 14961, "\u2581dernier": 26592, "\u2581stronger": 12774, "\u2581Rap": 15544, "\u2581Nathan": 20514, "\u62a4": 30641, "\u2581grid": 10541, "lav": 12453, "\u2581menu": 8514, "arters": 10489, "ution": 17841, "\u2581Prest": 24478, "records": 28257, "\u2581Assert": 7360, "EOF": 23745, "exit": 9427, "\u2581pued": 11127, "otype": 21475, "beans": 22672, "Like": 14454, "\u05b7": 30175, "\u2581Drop": 22732, "<0x9F>": 162, "\u2581wordt": 9930, "question": 17496, "ensk": 17829, "circle": 13392, "\u6280": 30021, "bits": 7669, "\u2581submitted": 16726, "\u2581Header": 24286, "rav": 20524, "\u2581photographer": 24159, "\u2581\u0440\u0435\u043a\u0438": 27935, "\u2581son": 1966, "zeta": 10770, "\u7ee7": 30471, "\u2581IN": 2693, "heng": 28550, "\u2581cer": 6942, "\u2581except": 3741, "jections": 19102, "camp": 18405, "\u2581Wasser": 24366, "\u2581mon": 1326, "bid": 9679, "\u015e": 29528, "\u2581equilibrium": 24699, ")=": 6706, "loader": 12831, "\u2581Mill": 6274, "\u2581hij": 7174, "\u2581": 28705, "\u2581AN": 2976, "\u2581advantage": 7859, "\u2581worm": 25736, "uo": 27736, ".-": 14902, "\u2581Throughout": 23501, "\u2581comed": 26677, "\u2581Pier": 9101, "\u984c": 31054, "\u2581at": 438, "asant": 10482, "\u043c\u0430\u0442\u0438": 15481, "\u2581relation": 9378, "\u2581flying": 11470, "]/": 22959, "\u2581thickness": 28032, "\u2581Pen": 9756, "uck": 1384, "\u2581since": 1854, "\u2581defence": 22763, "\u2581limitations": 9658, "\u2581Open": 5629, "wl": 13982, ">{": 13216, "\u2581practice": 5245, "\u2581sig": 4819, "BA": 4844, "../../": 4290, "\u00f3j": 25830, "\u2581elected": 11401, "\u2581SR": 20815, "\u2581healthy": 7783, "\"%": 28413, "\u585e": 31411, "\u2581mode": 4388, "\u2581Observ": 15951, "<0x99>": 156, "Del": 9489, "\u2581giugno": 25442, "\u2581Mah": 10947, "athan": 9871, "roy": 3674, "\u2581flights": 22447, "ethod": 1301, "SOC": 13472, "do": 2432, "\ud14c": 30566, "mc": 12961, "production": 24900, "\u53ca": 29965, "\u6bb5": 29390, "\u22c5": 30020, "frastructure": 11932, "\u2581Ann": 7303, "\u2581seine": 11733, "\u2581correct": 4714, "\u2581sap": 23061, "eyed": 20732, "\u2581\u0434\u043b\u044f": 6286, "\u2581components": 8076, "Imp": 19484, "\u2581ma": 4128, "\u2581Richmond": 26182, "\u2581Regional": 18718, "WR": 7210, "Edge": 15310, "\u2581ant": 2725, "itte": 26055, "\u2581methods": 5562, "\u2581shorter": 19367, "\u2581blast": 23096, "transform": 10038, "\u2581Allow": 26012, "\u2581efficiently": 23463, "\u2581equip": 4731, "\u2581theatre": 18635, "compute": 16753, "\u6cbb": 30137, "\u2581Cant": 21216, "\u0440\u043e\u0434\u0438": 21145, "\u9675": 31593, "endo": 4722, "TRA": 22057, "mix": 23350, "MI": 5877, "third": 16507, "\u4e2d": 28991, "RD": 15363, "\u2581western": 12772, "published": 27414, "\u043f\u043e\u0440": 27593, "\u178f": 30460, "\u2581sees": 12477, "over": 1483, "UEST": 12171, "Author": 11318, "\u2581Aud": 14421, "sim": 4410, "iour": 27290, "matrix": 8054, "LOW": 9630, "finder": 25619, "\u2581Career": 18050, "Tor": 22059, "\u9084": 31497, "\ud83d\ude00": 30575, "Y": 28802, "widehat": 11896, "\u2581dei": 6511, "\u2581corrected": 27840, "\u009d": 29272, "elte": 25278, "Navigation": 17896, "\ub54c": 30178, "\u0431\u0456": 11430, "\u2581Move": 13663, "$('#": 24546, "\u2581\u0441\u043e\u0441\u0442\u0430\u0432": 12281, "NE": 4390, "\u2581lecture": 23347, "erst": 25742, "\u2581mentioned": 7083, "\u2581critique": 27306, "ieck": 27578, "Install": 25868, "player": 7449, "lr": 22259, "\u043a\u0430\u0440": 22688, "\u2581happens": 6881, "\u2581\u0426": 8911, "uniform": 26786, "\u043d\u0438": 669, "items": 6949, "amazonaws": 26919, "\u2581party": 4150, "\uac1d": 30411, "irect": 1297, "\u2581emb": 7101, "\u7cbe": 30170, "Love": 23220, "angers": 10568, "\u2581satisf": 4864, "uri": 6395, "Comparator": 18249, "\u0634": 29083, "degree": 27027, "\u2581libraries": 24133, "\u2581subset": 19804, "\u2581Display": 20121, "\u2581jewelry": 25528, "\u5f69": 30902, "acket": 9170, "\u2581randomly": 24678, "\u01d4": 30466, "\u0442\u0440\u0435": 19317, "Sym": 17065, "itas": 21131, "Med": 15774, "Depend": 17716, "\u2581involving": 14971, "\u2581virt": 9306, "iento": 7652, "Matrix": 10701, "<0x84>": 135, "\u2581flight": 9314, "ologically": 23651, "\u2581patri": 17668, "\u2581f\u00fchr": 19549, "curr": 14032, "pred": 10477, "\u2581promot": 18022, "Body": 6982, "\u2581countless": 23387, "\u2581Wahl": 26421, "\u274c": 31200, "\u2581Colorado": 15837, "\u9192": 31224, "\u2581bless": 14389, "\u0432\u044b\u0439": 16265, "\u2581capac": 17025, "\u2581\u0441\u0438\u0441\u0442\u0435": 21609, "\u2581(!$": 23942, "TIME": 8197, "<0x65>": 104, "\u0440\u0438\u0438": 10033, "ipping": 10206, "\u30e7": 29964, "good": 12684, "\u2581unm": 22926, "\u2581Julia": 19526, "single": 14108, "\u2581\u201e": 3018, "vious": 2123, "iterr": 19647, "\u0670": 31095, "\u2581Aut": 3745, "ivel": 17414, "\u2581Welcome": 19417, "\u2581examples": 9254, "NM": 25860, "\u2581deleted": 15185, "\u2581Text": 7379, "\u56fa": 30657, "\u2581friends": 3282, "\u2581Jos": 9574, "VE": 3728, "\u2581scen": 6460, "\u2581\u043f\u043e\u043c\u043e": 21589, "\u2581sympathy": 26453, "\u2581Gordon": 15937, "ial": 505, "\u2581Ma": 6068, "\u2581seat": 7278, "\u2581von": 1808, "\uac8c": 29833, "\u4e03": 30733, "\u2581Mix": 19630, "\u2581County": 5068, "emporary": 9376, "stract": 5199, "\u2581LO": 6807, "\u2581contribute": 14951, "\ufb01": 30160, "insi": 11738, "ipher": 10447, "ask": 1152, "Stop": 10543, "\u2581contrast": 9349, "\u00e9rie": 10326, "ENOMEM": 20259, "\u2581Liber": 8592, "osity": 24879, "\u2581\u0444\u0438\u043b\u044c": 21454, "\u2581interference": 26994, "\u2581elevator": 26445, "TCP": 22331, "disp": 28223, "\u2581Wait": 13118, "\u2581accompan": 13498, "agu": 12736, "\u2581Ana": 23103, "\u2581rif": 12950, "\u2581conflic": 17358, "\u2581Fund": 11051, "\u2581giorn": 16251, "\u00fcll": 19165, "\u2581version": 2751, "\u0442\u043e\u043c": 7852, "\u2581stake": 15790, "\u2581sends": 20980, "\u2581carved": 26464, "\u0932": 29759, "iejsc": 18840, "\u2581wave": 8333, "\u2581Daniel": 8103, "\u535a": 30284, "series": 17384, "b\u00f6rd": 16681, "\u0441\u043a\u043e": 1789, "absolute": 26022, "']))": 16433, "\u2581Ci": 16896, "\u2581la": 543, "\u2581sprintf": 22804, "uts": 5725, "essions": 8642, "\uc788": 29604, "\u2581Cath": 8746, "\u2581io": 8665, "olver": 8867, "\u2581loves": 13468, "\u2581badly": 15494, "\u2581rental": 18808, "uum": 14388, "\u2581=": 327, "\u2581traveled": 19948, "\u2581random": 5509, ">=": 23343, "ierz": 25076, "\u2581united": 27434, "\u932f": 31098, "\u7eaa": 31466, "\u2581majority": 7757, "\u90e1": 31174, "\u00fcn": 6749, "\u2581screens": 18794, "\u2581evaluated": 23001, "sylvania": 14790, "\u611f": 30266, "inv": 9102, "ID": 1138, "\u2581approached": 14709, "\u000f": 30698, "\u2581manufacturing": 15186, "Millis": 26106, "ials": 11974, "\u2581won": 1747, "rena": 14248, "akers": 8774, "tainment": 19019, "\u2581democratic": 22303, "\u021b": 28905, "::<": 23015, "\u2581trading": 11674, "\u017d": 29022, "\u17c2": 31692, "\u2581painting": 11514, "\u2581rugby": 27437, "\u0441\u043e\u0431": 26913, "\u2581accent": 19440, "\u2581TR": 6378, "\u2581ere": 15699, "ased": 1293, "\u00e8se": 26289, "cow": 14450, "\u2581grasp": 22055, "sid": 17554, "\u2581Please": 5919, "\u2581(+": 28367, "\u2581Phill": 17083, "\u8c22": 31639, "forms": 14367, "segment": 19447, "\u2581\u0441\u043e\u0441\u0442\u0430\u0432\u043b\u044f": 19990, "response": 4439, "\u2581logged": 27036, "\u2581possibilities": 18053, "\u2581hur": 7033, "\u2581bride": 25248, "Case": 6160, ".'": 1815, "\u2581ridic": 12882, "est": 374, "\u2581sur": 1147, "enter": 7262, "\u2581Isa": 17578, "\u044c": 28822, "\u9f20": 31106, "\u2581febru": 22632, "\u2581mineral": 25837, "\u5b8f": 31934, "\u7231": 30731, "<0x58>": 91, "\u2581proposals": 26054, "PH": 7209, "lot": 22682, "\u2581survived": 16761, "\u2581bronze": 20067, "\u2581champ": 22942, "tax": 16019, "\u2581Format": 18748, "raf": 3976, "\u2581behavior": 6174, "\u2581submar": 26680, "\u2581DO": 9317, "\u4e8e": 29160, "\u2581countryside": 28594, "arten": 12125, "\u2581amen": 22891, "stick": 23277, "\u2581Ontario": 18572, "commun": 15976, "Foot": 22043, "\u25cf": 29393, "<0xDC>": 223, "\u2581host": 3434, "\u2581Entity": 20465, "\u2581templates": 24906, "\u2581\u043f\u043e\u0441\u043b\u0435\u0434": 25354, "olent": 26346, "AD": 1841, "\u2581every": 1012, "vis": 3225, "iji": 17062, "olph": 23814, "\u2581accessories": 25667, "Pt": 26326, "Than": 23721, "\u2581principle": 12814, "\u2581store": 4143, "Ke": 7238, "\u2581Portal": 22314, "\u2581limited": 6516, "\u2581formation": 11515, "zz": 6748, "Rule": 7693, "\u2581absurd": 22976, "cri": 1381, "\u2581cheap": 9650, "emed": 17239, "invoke": 21658, "\ub9bd": 31751, "\u043b\u044c\u043d\u043e\u0433\u043e": 22821, "atu": 22608, "cester": 27050, "\u2581Hamilton": 10904, "\u2581jury": 19723, "\u2581composite": 24117, "\u1940": 30929, "\u2581defens": 26479, "rum": 6295, "\u2581collision": 23322, "iov": 18762, "\u2581Aur": 25935, "emp": 3938, "Quick": 24463, "\u2581\u0413": 2592, "\u2581Unit": 13332, "\u2581{\"": 9830, "\u2581Extension": 28664, "\u2581('": 8272, "ff": 496, "\u2581Pu": 23078, "\u2581Jessica": 24062, "\u2581described": 5397, "\u538b": 30563, "\u2581bi": 4240, "\u2581fant": 7399, "\u606f": 29069, "\u2581divor": 12800, "\ud83e\udd23": 29650, "\u6d4f": 30796, "FW": 18254, "\u2581eight": 5435, "processor": 24424, "\u738b": 29825, "adem": 4247, "\u2581slight": 5543, "riving": 16982, "setting": 15062, "WN": 7866, "\u2581plasma": 28141, "\u2581Orleans": 21604, "DC": 6513, "\b": 31129, "ov\u00e9": 20208, "\u2581battles": 20469, "\u2581rated": 25101, "\u2581\u0438\u0441\u0442\u043e": 13196, "gage": 11332, "\u2581Vin": 12670, "\u2581estaba": 18281, "lish": 2295, "\u0440\u043e\u0433\u043e": 21826, "\u2581cum": 14931, "\u203b": 31422, "atel": 19256, "\ub984": 30307, "Texture": 10761, "']['": 8780, "coord": 17213, "\u2581assumptions": 19573, "\u2581definitions": 20343, "irlines": 22201, "\u2581mind": 2273, "\">": 1355, "Common": 12081, "\u2581credit": 6183, "Options": 4018, "\u2581bre": 3412, "\u2581til": 9757, "\u2581\u0430": 1622, "\u031e": 31327, "\u2581Cert": 12089, "\u2581NY": 11800, "\u51cf": 30608, "\u2581became": 3246, "hf": 26990, "eni": 17914, "\u043c\u044b": 9379, "insert": 6889, "formation": 1517, "\u2581leg": 1942, "\u2581Each": 7066, "Enabled": 7315, "\u2581incoming": 21850, "ccess": 1518, "\u2581Salvador": 27785, "\u2581rating": 15470, "\u2581forma": 10997, "Detail": 14525, "eld": 4333, "isten": 13866, "filer": 27992, "ap": 377, "\u2581deployment": 23039, "\u2581van": 1697, "\u2581SSL": 20669, "\u2581Eight": 24182, "<0x30>": 51, "\"][\"": 24635, "\u2581confirmation": 22511, "\u6587": 29019, "\u2581\u0414\u043e": 9193, "\u6d4b": 29584, "\u76d1": 29999, "\u2581\u2192": 15672, "\u2581Rome": 10827, "\u2581responsibility": 9680, "\u0437\u044b": 7763, "\u2581consum": 6288, "\u2581complex": 4630, "mos": 7186, "\u2581Fat": 20373, "\u2581jumping": 23058, "\u2581reste": 26124, "\u2581transm": 27179, ":": 28747, "angled": 21086, "\u2581sat": 2495, "every": 19662, "undred": 4381, "ference": 2103, "<0xD7>": 218, "\u2581AV": 13190, "\u2581actor": 10964, "\u00e9t\u00e9": 12329, "asion": 5797, "\u2581aapt": 13130, "\u2581Stay": 20066, "\u2581deserves": 24985, "\u2581efect": 27392, "<0xA7>": 170, "\u2581Aires": 24537, "gew": 16539, "\u60f3": 30023, "\u2581Los": 5729, "licher": 18241, "\u2581thermal": 18966, "\u2581\u0445\u0430": 19539, "throw": 10847, "ttes": 21067, "\u1ec3": 29910, "Times": 17473, "projects": 21080, "\u2581\u0443\u0447\u0430": 10414, "\u2581inv": 1304, "\u2581CC": 16900, "\u2581Tur": 6372, "\u2581hoped": 12431, "\u2581consolid": 22968, "\u5df2": 29235, "\u8f74": 30788, "ordon": 13499, "\u2581VII": 20983, "\u2581Validate": 26768, "arl": 1977, "\u2581foss": 21036, "FIG": 6390, "\u2581Mes": 21758, "\u2581clear": 3081, "\u2581servant": 22075, "::": 564, "\u2581Hug": 13287, "\u2581resur": 28308, "<0x33>": 54, "also": 18033, "\u2581$(\"#": 27549, "\u7b56": 30777, "ifies": 8961, "\u2500\u2500": 16526, "\u2581European": 6392, "ings": 742, "\u9304": 31554, "\u2581prize": 17848, "\u2581Analysis": 19442, "filename": 9639, "\u2581visitors": 12085, "\u2581mostly": 7444, "\u2581basement": 21466, "\u2581prote": 2096, "\u2581Swedish": 22677, "\u2581stru": 4500, "][<": 20411, "\ucabd": 31117, "Occ": 22451, "\u2581discour": 27314, "\u2581ist": 3103, "\u0bc8": 30576, "avier": 18695, "\u2581cares": 22338, "\u001a": 30759, "\u66fe": 31676, "\ud83d\udd34": 31928, "\u2581destroy": 6665, "\u2581disease": 8030, "\u2581bones": 15262, "\u2581manually": 23060, "\u2581\u0444\u0443\u0442\u0431\u043e": 20513, "\u2581qualify": 23549, "=\"\"": 19164, "\u2581heter": 23402, "\u2581grat": 15177, "\u2581Commun": 5795, "alth": 1663, "\u2581claims": 9278, "\u2581\":": 20299, ",_": 5796, "\u2581Londres": 26432, "\u2581backpack": 28217, "\u2581enjoyed": 10306, "nam": 6701, "\u03b1": 28948, "ionen": 23613, "\u2581Pap": 16028, "\u2581\u00e9t": 3763, "Esp": 27467, "\u2581medieval": 23223, "\u7b49": 29414, "\u2581deadline": 25326, "\u2581territor": 12550, "WARN": 11865, "\u2581Marine": 16155, "Ga": 25872, "\u2581his": 516, "\u2581if": 513, "\u2581manifold": 28130, "\u2581mad": 7245, "\u2581sum": 2648, "\u0e06": 31383, "\u043e\u0433\u043e": 14197, "cout": 16429, "oti": 9469, "\u2581cool": 5106, "\u2581Hum": 17442, "\u2581distribut": 2886, "\u2581what": 767, "\u2581crusher": 14747, "Bound": 13100, "}({\\": 22845, "\u2581czas": 23906, "\u2581cri": 21040, "\u2581template": 6897, "\u0447\u0435\u0441\u043a\u0438": 11583, "Idx": 12157, "\u2581\u0430\u0432\u0442\u043e": 14460, "\u00f6ff": 14505, "ancies": 28481, "\u2581Forest": 15777, "Field": 2297, "(:": 7306, "\u2581jobs": 7794, "Attr": 9049, "paren": 18544, "\u2581bij": 10826, "\u2581Brun": 20091, "?(": 21185, "ieme": 24755, "\u2581numbers": 5551, "\u2581wor": 1045, "ini": 3494, "\u79ef": 30462, "\u2581camb": 15700, "olution": 2100, "\u2581=\\": 17988, "\u2581IC": 18587, "\u2581detection": 15109, "attachment": 28150, "mf": 19263, "apt": 1459, "ote": 1590, "\u2581announced": 7004, "olved": 7060, "\u2581Author": 9216, "\u00f3d": 9666, "Multi": 10889, "\u2581past": 2609, "\u0444\u043e\u0440\u043c\u0430": 22131, "\u9879": 29541, "\u8d28": 30625, "\u2581\u0443\u0441\u043f\u0435": 28205, "\u2581expect": 1675, "\u2581Mor": 4151, "ROW": 19989, "iki": 7137, "ipeline": 8384, "usb": 13990, "\u2581remembering": 26036, "\u8ddf": 30848, "\u2581telling": 7124, "\u00e9ration": 17908, "\u2581hesitated": 24717, "\u2581controversial": 24720, "Descriptor": 8482, "\u2581program": 2007, "PB": 27982, "\u2581WH": 14897, "\u2581tables": 9882, "\u2581league": 10674, "\u2581departure": 20622, "<!--": 18449, "Parameters": 7405, "\u2581sequ": 5331, "\u2581nation": 5878, "\u2581trabaj": 23017, "\u2581ainsi": 13255, "\u2581Duncan": 27815, "hot": 10672, "\u2581\u043c\u043d\u043e\u0433\u043e": 20580, "\u2581exposed": 13438, "\u2581angel": 23190, "isk": 2606, "\u2581Book": 5737, "resize": 16138, "esen": 23668, "\u2581apro": 18883, "eton": 21064, "ichtet": 24165, "pix": 24799, "MR": 16226, "sure": 17989, "\ub2f4": 31569, "\u2581fragments": 26866, "Member": 10553, "\u2581\u201c": 981, "\u2581laying": 27587, "mitted": 10286, "Objects": 15142, "\u2581Brigade": 27861, "\u200c": 29611, "\u4f86": 30425, "void": 2828, "\u2581tutorial": 27272, "ej": 15808, "\u84dd": 31084, "\u2581Mod": 3813, "\u2581law": 2309, "\u2581developer": 21782, "\u2581play": 1156, "\u2581Douglas": 17335, "\u2581RC": 26730, "\u0440\u0430\u0442": 22325, "@{": 24140, "Slot": 15457, "INVALID": 13562, "\u2581brutal": 23736, "gate": 7999, "wb": 26078, "\u2581Sw": 3904, "Ah": 17114, "\u2581sono": 9371, "\u2581classroom": 19729, "\u2581are": 460, "RIGHT": 14166, "\u2581Col": 1888, "aters": 17244, "proxy": 13764, "\u96f6": 30922, "INIT": 11613, "anton": 15427, "\u0937": 31118, "\u2581styled": 23138, "),\r": 23486, "eps": 2671, "\u2581toward": 4112, "\u2581Und": 19870, "\u2581\u00a9": 18675, "OPT": 17954, "Room": 22185, "\u4e0e": 29551, "\u091c": 30196, "\u4ecd": 31971, "\u2581Fight": 25143, "capture": 26609, "\u5ba4": 30763, "\u306b": 29174, "\u2581minimize": 26518, "\u2581Element": 11490, "\u2581reporter": 19044, "\u2581\u0410": 2182, "\u2581nature": 4735, "nen": 4588, "BB": 8923, "\u2581FC": 9138, "scene": 18570, "\u2581updating": 26187, "\u2581annually": 27359, "\u2581compatible": 17696, "\u2581ste": 2710, "\u2581date": 3608, "\u2581serious": 4592, "\u2581transparent": 20175, "azine": 7868, "\u2581ET": 27570, "\u2581cited": 22881, "\u9970": 31915, "memset": 21253, "Open": 6493, "\u2581Margaret": 17197, "\u2506": 31172, "berry": 14233, "\u2581white": 3075, "\u2581edited": 19527, "rale": 19289, "\u2581car": 1253, "\u2581Kelly": 15282, "\u2581horm": 19115, "ized": 1332, "users": 10247, "\u2581Feb": 18198, "\u2581neutral": 14214, "Dictionary": 17798, "\u2581DOM": 21045, "kel": 13766, "\u2581parking": 12128, "\u2581pode": 26165, "Buttons": 27178, "\u2581occur": 5264, "\u2581OTHER": 16897, "\u2581steady": 14889, "iano": 4728, "\u062f": 28968, "\u2581Black": 4777, "\u2581suscept": 27595, "tok": 11178, "\u2581recorded": 9364, "Dep": 7091, "\u2581MR": 26044, "amy": 27313, "\u064d": 31993, "\u2581Jean": 6719, "Sequence": 13248, "Component": 3621, "\u2581interested": 6348, "\u0440\u0442": 12491, "\u7b11": 31364, "\u2581retail": 11603, "\u53e4": 30313, "orm": 552, "\u2581concer": 14055, "Sink": 25512, "\u01c0": 31870, "})$.": 23012, "\u2581\\(": 18823, "\u2581Buffalo": 28100, "\u2581Dog": 13311, "\r": 28801, "\u2581representations": 23384, "\u2581Tem": 9166, "\u2581\u043e\u0441\u0442": 27635, "\u2581\u00e9": 1233, "\u2581deutschen": 25996, "\u2581orders": 8636, "umn": 1786, "dern": 22502, "\u2581concluded": 16489, "\u0cb8": 31707, "\u2581familie": 14875, "\u2581Within": 15621, "\u2581Stanford": 28116, "\u2581quatre": 19419, "\u2581seeing": 6252, "\u2581English": 4300, "Sep": 18079, "\u2581nelle": 20663, "\u2581classification": 16776, "poque": 25576, "dap": 24260, "\u2581destro": 22089, "Did": 10277, ":-": 18684, "\u2581Louise": 23928, "\u30d2": 31311, "\u2581Partido": 26595, "ced": 1354, "\u2581Pas": 12184, "\u2581memory": 4733, "because": 20475, "estern": 5190, "\u2581procedure": 10722, "era": 2126, "\u8881": 31979, "video": 9831, "b": 28726, "\u2581temple": 14842, "MESS": 18747, "\u2581res": 605, "\u901a": 29217, "\u4e66": 30117, "\u2581Records": 10704, "\u2581shelves": 28201, "urches": 18088, "\u2581\u044d\u0442\u043e\u043c": 26512, "erk": 6751, ";;": 19406, "\u2581seven": 6671, "rency": 7492, "\u2581drum": 16049, "----------------": 1177, "yard": 10892, "\u2581varying": 22312, "\u2581with": 395, "\u2581more": 680, "\u00fdm": 15690, "AAAAAAAA": 21844, "\u2581responding": 26167, "ificate": 8053, "\u043d\u043e\u0432": 3568, "\u2581Second": 7052, "../": 1979, "hm": 16913, "\u2581\\": 414, "\u2581ly": 18467, "mobile": 19022, "\u2581harass": 22280, "\u2581Benef": 22710, "Bind": 12741, "riter": 4178, "\u2581psychiat": 26210, "(()": 10289, "\u2581lab": 7867, "Hide": 23309, "uffs": 27355, "\u56e0": 29657, "\u5ea7": 30635, "\u2581Urban": 22007, "\u2581\u043f\u043e\u043b": 13577, "\u042c": 30683, "vals": 13175, "\u2581voegen": 15652, "\u2581needs": 3208, ")$,": 7927, "\u0e41": 29853, "'": 28742, "rx": 7144, "proc": 11274, "Qt": 20193, "\u2581Reyn": 25883, "\u2581kur": 20532, "Socket": 12500, "\u2581att": 998, "\u2581\u043b\u044e": 12566, "icher": 16151, "\u306a": 29270, "\u2581victims": 13980, "Filename": 24773, "stri": 26229, "count": 2114, "\u2581Post": 5112, "\u7ea2": 30311, "\u4f0a": 30873, "rent": 1114, "\u2581pointer": 10300, "\u2581caracter": 23574, "Pop": 10022, "\u2581\u043f\u0440\u0438": 2683, "\u2581modules": 15901, "\u2581Beyond": 21483, "ule": 1390, "due": 27396, "\u2581Staats": 28560, "\u2581Against": 27506, "Failure": 16274, "\u2581he": 400, "\u043b\u0443": 2932, "/\\": 8673, "\u2581filters": 17123, "\u6c92": 30931, "\u5b5d": 31907, "\u2581Queensland": 28536, "Dem": 16989, "\u2581Chelsea": 27106, "\u2581Oh": 5434, "'=>": 14186, "\u21fd": 31853, "\u2581jud": 4612, "\u2581buzz": 21242, "')).": 27662, "\u09af": 30365, "\u66f8": 30481, "bird": 18843, "\u2581neck": 7215, "\u2581charges": 11040, "\u2581others": 2663, "SIGN": 20506, "\u2581closing": 12984, "\u0441\u043a\u043e\u043c": 9330, "\u2581appearances": 21190, "\u2581essence": 21213, "oser": 20738, "\u041c": 28856, "\u2581ramp": 21246, "\u2581Hy": 10540, "\u2581blond": 28506, "IFI": 21438, "<0xF7>": 250, "\uc74c": 29881, "\u00e2n": 18215, "\u2581WC": 27825, "\u2581seeks": 27297, "\u2581bike": 13045, "\u885b": 31899, "\u2581pixels": 16626, "\u2581common": 3298, "pixel": 22078, "\u2581conced": 25402, "<0x80>": 131, "\u2581stated": 9256, "inceton": 26797, "\u2581ecc": 27080, "eking": 25447, "\u2581crop": 21948, "\u2581Street": 5383, "Random": 14735, "\u2581_": 583, "quote": 14307, "\u2581never": 1484, "\u2581\u2581\u2581\u2581\u2581\u2581": 428, "icide": 12414, "bach": 11875, "ishop": 12019, "DESC": 14085, "\u2581\u043e\u0434": 5524, "cut": 7886, "\u2581IM": 17593, "Game": 8965, "Database": 9906, "\u2581ton": 6339, "\u2581Nort": 22584, "Appro": 27885, "\u2581facts": 11412, "\u2581chosen": 8729, "\u2581sl\u00e4ktet": 12645, "\u2620": 31840, "\u2581arrange": 23503, "\u2581tempor": 6613, "Capacity": 28004, "\u06af": 29461, "\u043e\u0440": 3135, "\u2581posit": 14139, "\u2581Situ": 28119, "\u2581USB": 11588, "Zone": 13962, "aged": 2569, "getItem": 26303, "\u2581Promise": 10197, "\u2581raise": 7234, "custom": 6628, "\u2581Features": 20900, "\u2581corridor": 21550, "\u2581extr": 9237, "sembled": 20221, "\u2581suspend": 14551, "rdev": 23338, "MAGES": 24441, "IME": 14462, "\u2581brig": 20723, "\u00e8res": 9603, "\u2581steep": 19267, "\u2581sure": 1864, "---": 7395, "DataType": 19234, "nej": 10719, "\u0161e": 25306, ")):": 24770, "olin": 27545, "\u2581network": 3681, "\u2581resource": 3715, "\u2581networking": 26780, "itut": 3288, "\u8349": 30995, "Completion": 26977, "ILL": 11852, "\u2581committed": 10252, "\u2581celui": 20948, "\u2581allow": 1914, "\u2581Imagine": 22031, "\u2581vale": 28210, "Vertical": 24647, "\u2581horror": 15032, "cery": 20322, "\u2581Florida": 9500, "\u2581instant": 10990, "\u2581fet": 16685, "Proxy": 11950, "ek": 950, "\u2581Lucas": 19531, "PD": 8268, "PROTO": 19584, "\u2581barr": 20427, "uity": 25239, "\u2581hide": 9123, "\u519c": 31538, "\u2581Werk": 26444, "\u2581\u0444\u0438": 8456, "\u2581stopping": 17203, "\u2581Andr\u00e9": 24046, "\u5f35": 31241, "\u2581okay": 8810, "theless": 13054, "\u2581continues": 10352, "\u2581Sh": 1295, "AUTH": 18038, "Exp": 8003, "\u2581receiving": 11864, "\u2581hallway": 23655, "\u2581up": 582, "\u0432\u043e\u0440": 15769, "metric": 13997, "\u0446\u0456\u044f": 17263, "\u10d8": 29165, "\u2581es": 1037, "\u2581lux": 11967, "\u2581congreg": 25324, "\u9019": 30367, "Too": 25679, "Device": 6489, "\u2581hommes": 27678, "Models": 13736, "ptions": 1720, "qq": 22736, "\u2581Auss": 27775, "\u2581Brook": 12148, "\u2581dare": 19402, "indi": 24097, "\u2581sustainable": 19318, "\u2581Theory": 27211, "\u2581[[": 8070, "\u2581Using": 9616, "abol": 21530, "idan": 27966, "\u2581depend": 3289, "dai": 26862, "\u2581storage": 7073, "\u5883": 30396, "\u2581cloth": 17673, "logger": 11279, "cel": 4070, "Customer": 18477, "\u043d\u0435\u043d\u0438\u044f": 23993, "\u2581empt": 28534, "\u2581properties": 5508, "\u0411": 28861, "\u045a": 28917, "list": 1703, "conne": 3824, "cost": 14174, "'),": 4829, "\u2581trigger": 8366, "\ubc1b": 30605, "\u2581Victoria": 13682, "\u2581influences": 26386, "<0x5F>": 98, "ippet": 27583, "\u3073": 31050, "\u2581Ki": 22485, "\u2581giving": 5239, "substr": 23341, "ss": 819, "vee": 27579, "\u2581covered": 6823, "UnityEngine": 24658, "\u2581Sleep": 24027, "\u2581homme": 26130, "\u2581franc": 13004, "dem": 8343, "agles": 26664, "\u0432\u0430\u043d": 5406, "\u2581CHAPTER": 16399, "ves": 1855, "\u2581watching": 6265, "\u2581unsafe": 15426, "\u2581shout": 11428, "\u2581Nether": 18841, "PO": 3402, "\u2581legit": 12700, "\u2581Comb": 19422, "\u2581sla": 19734, "\u2581Above": 28301, "\u2581\u041f\u0435\u0440": 14353, "\u2581Oliver": 17979, "\u2581reb": 14547, "\u2581entertainment": 15175, "\u9891": 30030, "\u2581histor": 4264, "\u2581interviews": 18209, "\u2581percent": 4153, "\u540d": 29046, "\u2581mag": 2361, "antage": 22357, "\u2581compan": 4021, "\u0435\u043d": 939, "fail": 9267, "\u2581join": 5175, "\u2581arena": 24059, "opf": 24955, "compar": 24218, "\u2581opts": 13069, "rose": 16965, "\u2581cb": 15623, "parts": 14565, "\u2581votes": 12768, "orb": 19894, "chg": 18689, "arius": 23989, "aps": 1882, "\u2581sir": 10116, "assem": 23154, "TA": 6106, "ohn": 1953, "\u2581Own": 16545, "\u7ed1": 30384, "\u57fa": 29691, "\u25b8": 31939, "phi": 3163, "ponse": 1405, "net": 1687, "\u2581Corporation": 12377, "\u7edc": 30229, "\u2581maggio": 24080, "\u2581label": 3870, "\u2581Run": 6320, "\u00e9ben": 23825, "bitro": 18829, "\u2581recru": 17372, "\u653b": 30666, "<0xC4>": 199, "\u2581hero": 10725, "RP": 28543, "\u2581database": 7499, "\u2581www": 9404, "atic": 1711, "\u2581Cuba": 21935, "\u00e9rcito": 27485, "gar": 4749, "r\u00e1": 12210, "{{\\": 11610, "\u2581spectacular": 23966, "das": 26110, "ederal": 5717, "\u2581Kirche": 19978, "\u09c1": 30408, "Py": 6218, "erv": 784, "\u2581algo": 25682, "\u2581accepts": 26223, "\u2581Inv": 16992, "\u2581newest": 27510, "histoire": 25291, "\u2581arguing": 21440, "\u2581Jake": 18742, "\u2581BU": 20260, "\u0c82": 31966, "\u2581stones": 17388, "\u0430\u0440": 2362, "\u2581cinema": 22905, "\u2581Die": 2941, "oster": 8731, "\u2581dimin": 17724, "opsis": 22761, "\u2581ellos": 26645, "\u2581splitting": 28578, "hon": 21133, "\uc2dc": 29236, "\u2581sudden": 5302, "\u2581Ce": 12494, "tilde": 5178, "\u2581units": 8007, "owa": 8253, "adores": 10591, "\u2581Conne": 8771, "THREAD": 25647, "\u2581backs": 24007, "\u2581tons": 15995, "}}{\\": 12887, "\u2581Her": 2584, "\u2581\u043a\u043e\u043b\u043e": 28242, "\u2581indoor": 24990, "isible": 17727, "\u2581Do": 2378, "\u2581\u043e\u043a\u043e\u043b\u043e": 23376, "button": 4559, "gery": 10557, "\u2581glass": 5252, "\u68ee": 31296, "\u2581patients": 6883, "\u50cf": 29663, "\uc124": 30058, "\u2581prepare": 10221, "ogs": 22990, "depth": 11685, "\u2581Aus": 7352, "\u2581Song": 11509, "Connect": 16644, "\u2581Anyway": 20129, "\u2581FALSE": 11221, "resolve": 12555, "\u0448\u0456": 20159, "\u2581stages": 15360, "rup": 7064, "\u2581Unlike": 17383, "\u2581acted": 20384, "How": 5660, "unwrap": 14719, "\ub9ad": 31318, "\u2581summar": 18062, "<0xE4>": 231, "\u2581hair": 3691, "mates": 15123, "three": 16480, "appropri": 25381, "://": 1508, "\u2581aboard": 22446, "Gamma": 6376, "ska": 9883, "\u2581eyebrows": 27469, "\u2581Billy": 14532, "\u6548": 29532, "\uc0b0": 30336, "mathscr": 15445, "\u2581com": 432, "neo": 17462, "\u2581nor": 4678, "\u2581webs": 3738, "\u2581fr\u00e5n": 13738, "\u2581dt": 16599, "assemb": 15351, "\u2581_.": 17309, "<0x2B>": 46, "\u2581tous": 16065, "\u2581shifting": 24334, "\u2581dive": 25198, "anked": 27527, "Method": 3942, "itempty": 15500, "Abs": 15521, "\u2581Graf": 23654, "\u2581immediately": 5347, "\u2581jsou": 25954, "\u2581buy": 3848, "\u2581picture": 5754, "\u2581IR": 14149, "\u2581\u043a\u043b\u0430": 14835, "\u2581brand": 5804, "\u2581liqu": 9491, "\u2581advised": 21020, "ambda": 2566, "<0x35>": 56, "\\,": 5568, "BIN": 27576, "\u0441": 28788, "wheel": 25952, "<0x9C>": 159, "\ud83d\ude80": 30012, "\u043b\u0438\u0439": 17000, "\u2581Ph": 1972, "uki": 17299, "SHA": 18577, "ptember": 3666, "USH": 23896, "\u2581autre": 20638, "\u2581realizing": 27494, "ope": 1845, "\u2581calling": 6852, "\u044f\u0432\u0438": 20241, "\u2581Impro": 21831, "\u2581Director": 9298, "\u2581Eye": 26861, "ati": 3986, "\u2581Racing": 22024, "\u043c\u0435\u0442": 17480, "\u2581considerable": 16062, "]}": 9205, "\u2581imp": 2824, "\u2581voll": 28353, "\u6ed1": 31062, "\u2581Politiker": 28510, "\u043b\u043e\u043a": 23135, "\u2581Centre": 11304, "\u0017": 30841, "\u2581Ho": 10488, "hell": 13436, "\u2581polynomial": 22879, "\ub9c9": 31655, "\u2581Tex": 6886, "xs": 19381, "\u2581cr\u00edt": 27965, "\u2581presidente": 22882, "\u8853": 31488, "\u2581\u0440\u043e\u0446\u0456": 13554, "\u2581Bol": 10823, "\u0458": 28855, "\u2581intention": 12782, "zed": 12616, "\u2581S\u00fcd": 21449, "\u4eea": 31842, "\u2581compatibility": 25419, "\u2581suggests": 12308, "\u2581Trade": 17684, "\u2581drama": 13792, "\u2581philosophy": 13795, "\u2581regarded": 15390, "\u2581prohib": 16128, "IT": 1153, "\u0456\u0431": 16821, "\u2581Ret": 8337, "\u2581Tib": 20839, "\u2581kitchen": 6132, "\u2581evaluation": 15197, "\u2581band": 4028, "\u2581mir": 6076, "\u2581wealth": 9120, "\u2581Lol": 23118, "\u2581composer": 24983, "eman": 11513, "\u2581ray": 21338, "\u2581Mount": 7612, "\u2581Frauen": 28203, "\u2581Capt": 9218, "\u2581varied": 20331, "\u2581pierws": 28448, "awn": 11646, "\u2581aussi": 11631, "\u2581cv": 19342, "\u2581Universal": 21874, "\u2581animal": 8527, "utter": 10112, "\u2581Hey": 17162, "=\"-": 23013, "zin": 26404, "ORS": 13520, "\u2581grandes": 20892, "\u6bcd": 30518, "\u2581living": 3687, "shots": 26339, "\u2581breaking": 11313, "\u2581freeze": 26927, "uration": 2394, "\u2581letter": 5498, "\u2581gef": 17241, "RB": 24042, "\ub514": 30399, "\u2581pseud": 22787, "\u2581subs": 11994, "IGH": 18145, ")((": 26053, "\u00b1": 29023, "\u2581attractive": 13999, "\u2581encouraging": 21885, "\u2581modo": 20273, "\u2581neighbor": 7422, "\u2581reddit": 22003, "\u2581fiscal": 24937, "\u2581fears": 20142, "\u2581oper": 1764, "\u2581Mercedes": 26501, "\u30e2": 30177, "getString": 14077, "\u2581forme": 19396, "\u043b\u0435": 1125, "\u2581tent": 10268, "<0x56>": 89, "\u2581Department": 6946, "olean": 2481, "{\r": 4441, "\u2581theater": 17363, "\u2581above": 2747, "\u2581aims": 20566, "Region": 11518, ".[": 20011, "\u2581games": 3897, "\u2581Often": 24640, "iane": 18861, "\u2581Kam": 15346, "\u0442\u043e\u0439": 22939, "bs": 1816, "\u2581Lim": 10609, "\u2581Democratic": 12821, "\u2581mechanics": 24367, "union": 14324, "\u2581crying": 15671, "Activ": 18127, "\u2581sele": 25019, "\u2581GO": 15044, "insic": 16119, "\u2581hacer": 21581, "\u2581merge": 13973, "\u2581sou": 5271, "\u2581comprehensive": 15313, "eny": 20552, "SEE": 27670, "\ud83d\ude21": 31690, "\u2581Claire": 20817, "\u2581Define": 27350, "\u0442\u043e\u043a": 20264, "\u2581learning": 5168, "Shared": 15686, "\u2581miles": 6052, "\u2581Pack": 11676, "\u2581Arr": 20037, "\u2581inside": 3416, "\u2581ISO": 23052, "Adapter": 8683, "\u2581collected": 12469, "ico": 2224, "\u2581Sel": 11361, "\u2581Brown": 8364, "isha": 22674, "gamma": 3933, "\u2581skin": 4759, "\u043d\u043e\u0457": 10625, "amma": 2653, "\u7cca": 31984, "\u2581education": 5362, "century": 15900, "\u2581Y": 627, "\u2581valued": 25309, "\u8d34": 30022, "\u2581mathematical": 27240, "nten": 20340, "\u2581urb": 26243, "calendar": 28258, "\u178e": 31803, "\u2581kick": 7604, "\u2581knees": 13431, "\u2581Jenny": 25785, "\u2581mole": 12160, "\u2581condition": 4644, "Address": 5049, "\u2581fin": 854, "\u2581younger": 9729, "after": 7792, "\u043c\u043e\u0440": 17595, "liter": 24477, "\u2581provision": 18381, "ospher": 27552, "\u2581nella": 8360, "Ray": 25109, "rh": 28352, "referto": 28557, "\u2581threats": 19843, "Skip": 24322, "\u671b": 30606, "mr": 17886, "\u00fct": 11270, "eb": 1169, "task": 5553, "\u2581expanded": 14708, "\u2581corn": 16869, "Structure": 20897, "HH": 23834, "FILTER": 24139, "(": 28732, "jquery": 21126, "\u5145": 30282, "\u2581origins": 26081, "\u8eab": 29894, "\u2581undefined": 6176, "\u2581utf": 26238, "\u2581integrate": 28618, "\u2581Outside": 25116, "\u2581mother": 3057, "\u2581schon": 26980, "\u2581speaker": 17153, "br": 1473, "\u2581have": 506, "\u2581\u00e9gal": 12951, "\u2581particular": 2830, "\u2581Land": 5062, "}_": 2427, "jud": 14042, "autom": 23033, "\u2581je": 2218, "\u2581crash": 14456, "\u2581bush": 25516, "ron": 1689, "ulate": 6212, "aker": 4776, "\u2581by\u0142": 18389, "\u2581approximately": 10870, "IX": 6984, "\u2581Almost": 20676, "\u2581literary": 16956, "bb": 1754, "\u258c": 30073, "\u2581wheels": 19876, "\u2581setTimeout": 28168, "\u2581Econom": 11003, "\u2581'\\": 8846, "\ud55c": 29282, "naire": 25008, "Mic": 28372, "inea": 21406, "\u654f": 31703, "\u6beb": 31331, "VERSION": 10147, "\u2581Save": 15226, "grow": 20621, "pen": 2748, "\u2581flags": 6809, "\u2581Joseph": 8218, "Owner": 15431, "\u2581century": 5445, "maker": 19963, "<0x73>": 118, "<0x66>": 105, "\u2581kv": 14584, "\u2581ideas": 5766, "\u2581trap": 16452, ",": 28725, "\u2581greater": 6517, "\u2581attempts": 13199, "blank": 15387, "fetch": 11362, "\u2581pets": 24642, "oon": 4973, "\u2581INT": 13289, "\u2581Clay": 19230, "Never": 22855, "reddit": 14254, "\u2581rue": 22090, "\u2581artists": 10611, "ci\u00f3": 10775, "fin": 3013, "\u2581\u0447\u0430\u0441": 21358, "worker": 18205, "\u2581Warner": 25533, "\u2581probably": 3049, "\u2581according": 4771, "RT": 7042, "\u2581horses": 11938, "TEST": 9552, "\u2581STE": 26178, "\u2581signific": 3753, "CMD": 11261, "\u2581severely": 28064, "\u2581uso": 27427, "\u2581cm": 8372, "\u0454\u0442\u044c\u0441\u044f": 13137, "gin": 6207, "\u0644": 28933, "\u2581zona": 21193, "\u2581divine": 20428, "\u2581toda": 26323, "ps": 782, "othes": 6317, "\u2581Cross": 10464, "\u2581yeah": 12176, "\u2581Gib": 16090, "itter": 4706, "\u2581Wil": 5368, "\u043f\u043b\u0430": 24392, "\u2581pour": 2669, "\u2581Seine": 25517, "\u2581ext": 1568, "\u2581Assembly": 12033, "\uc131": 29465, "\u865f": 30809, "ward": 1050, "abstract": 15474, "staff": 27943, "\u00f7": 29582, "avid": 20163, "\u2581finest": 21561, "\u2581Rosa": 25649, "MAT": 25412, "quate": 16780, "\u2581laundry": 25907, "\u2581Cor": 3198, "\u0458\u0435": 3129, "vas": 6170, "\u2581headquarters": 18484, "\u2581PhD": 25167, "\u2581upright": 27525, "\u2581identified": 10248, "ALL": 4945, "\u0433\u0443": 5378, "labels": 17031, "etta": 16631, "\u2581Emer": 16762, "\u01dd": 31948, "\u2581mat": 1610, "\u5b83": 29928, "\u2581Josef": 27622, "Maybe": 13044, "\u2581Track": 13907, "\u2581pilot": 13448, "adora": 20916, "attered": 17109, "\u6301": 29569, "\u2581Va": 18786, "rou": 518, "\u2581Rachel": 16764, "SS": 1383, "Import": 11944, "archy": 12940, "\u2581Ward": 19512, "addle": 14539, "\u0f62": 31185, "strip": 18184, "Something": 28493, "\u2581seconds": 7231, "\u2581slower": 25642, "\u2581essere": 15865, "\u2581\u00c4": 18912, "<0x6D>": 112, "\u7b14": 31417, "auc": 14158, "overflow": 24709, "\u2581States": 3543, "~\\": 2658, "crate": 18298, "\u2581folded": 20631, "caps": 23438, "\u0323": 30906, "\u2581Mun": 15818, "\u2581Robinson": 20191, "kh": 15887, "ator": 1028, "urb": 5354, "f\u00f6r": 14634, "Dlg": 28097, "equal": 7318, "\u2581teach": 3453, "BP": 9399, "\u2581loads": 22560, "inese": 5965, "\u2581Historia": 23051, "gain": 23634, "\ud638": 29730, "ors": 734, "Alt": 19980, "LES": 20335, "\u2581compte": 24380, "\u2581gap": 10467, "precated": 18139, "\u2581MODULE": 27023, "\u2581Pow": 14326, "\")\r": 16949, "\u2581segundo": 22667, "\u2581showed": 6642, "\u0432\u0430\u0442": 14423, "\u00cb": 31108, "\u2581conn": 12513, "conditions": 24952, "istributions": 25043, "\u2581Mexican": 17092, "diff": 11836, "acious": 17292, "\u2581Lad": 20542, "\u1e29": 31913, "Helpers": 15506, "\u2581Za": 25819, "\u8eca": 31601, "\u2581FL": 13675, "\u2581Mon": 3217, "elijk": 11667, "Real": 12995, "\u3083": 31028, "\u2581palace": 20695, "oph": 3126, "ync": 2122, "\u2581vr": 22954, "Stack": 6793, "lineto": 12582, "\u2581porch": 22252, "\u2581harmon": 26739, "Servlet": 13588, "\u2581march": 11853, "\u584a": 31860, "\u2581dest": 2620, "ild": 666, "\u2581Min": 3197, "enable": 7235, "===": 14203, "gt": 3606, "\u2581politician": 17587, "multicolumn": 18474, "/\"": 17713, "\u30e4": 31234, "\u00c8": 29029, "\u2581meta": 11678, "\u2581Har": 3407, "\u2581Port": 4194, "ExecutionContext": 20808, "\u2581coaching": 21464, "\ubc30": 30403, "idge": 4307, "emplate": 3949, "\u2581overnight": 22128, "\u2581Poll": 19116, "arna": 10903, "OK": 4903, "\u2581Short": 11530, "\u2581\u0424\u0435": 18329, "alt": 2304, ")^{": 10825, "\u8fde": 29641, "aled": 4742, "\u2581h\u00f6": 14404, "\u2581\u0434\u0438": 6971, "\u2581casa": 13954, "VP": 18246, "\u017f": 30515, "\u2581dim": 3987, "\u2581Islam": 10251, "\ube44": 29859, "\u2581del": 882, "\u2581wife": 4285, "edy": 7264, "\u2581ja": 10987, "\u2581merch": 18724, "\u2581bien": 9628, "floor": 15261, "Src": 15886, "\u2581attached": 11053, "\u2581sentence": 12271, "\u2581assuming": 16347, "\u0432\u0438\u0447\u0430": 26785, "\u2581Darwin": 27213, "\u2581dem": 1493, "separ": 17519, "\u2581where": 970, "\u2581Cultural": 24974, "\u2581desperate": 17353, "nea": 19660, "Ed": 3565, "Wr": 17055, "actic": 19585, "Sim": 7554, "\u2581irre": 14872, "\u2581deren": 25283, "\u2581om": 3422, "aniu": 28458, "\u2581cin": 7132, "\u2581simple": 3588, "\u2581EXPECT": 7270, "\u2581promoted": 19075, "\ub354": 30519, "\u2581dr": 1605, "<0x02>": 5, "\u0393": 30149, "\u2581proper": 4979, "\u2581ded": 5589, "\u2581})": 4984, "\u2581happiness": 15079, "\u2581queen": 18204, "\u6b8b": 31649, "\u80fd": 29084, "form": 674, "san": 20297, "!_": 19193, "\u2581delet": 21750, "\u2581change": 2268, "\u2581Cel": 17233, "\u2581exem": 19997, "\u2581Touch": 25086, "\u5e0c": 30655, "oped": 11416, "\u5d0e": 31686, "\u0434": 28799, "\u2581bounded": 17443, "esar": 22221, "\u2581En": 1618, "\u2581sen": 5351, "\u2581Olympics": 21351, "\uefc0": 31738, "Handler": 4189, "Initialized": 24923, "\u043e\u043b\u043e\u0433\u0438": 27100, "\u2581depos": 11199, "extensions": 22198, "\u2581wise": 16446, "idi": 10064, "\u2581elite": 20278, "\u62f7": 31850, "organ": 8974, "\u2581Dutch": 14738, "\u2581Crow": 19543, "np": 8535, "lt": 2244, "\u2581possession": 18149, "\u2581answer": 4372, "oks": 25808, "ird": 1844, "TL": 11521, "EventListener": 14101, "\u2581successfully": 10130, "\u2581\u0440\u0435\u0433\u0438": 24514, "\u00e4ude": 24576, "\u2581symmet": 10003, "alf": 2121, "\u2581]": 4709, "\u2581Question": 22478, "\u008d": 29987, "\u2581hy": 6521, "\u2581comput": 3633, "il": 309, "compatible": 23719, "\u2581autumn": 24818, "\u2581torture": 26026, "\u2581Archives": 28477, "\u6b8a": 31267, "Public": 14140, "\u2581js": 14034, "Unit": 6831, "\u78c1": 31834, "\u2581pick": 3088, "Groups": 14958, "\u2581spec": 1229, "lect": 844, "Google": 16922, "\u2581dessen": 23092, "\u2581tall": 9369, "\u2581Imp": 15182, "\u2581turns": 8617, "\u2581vacuum": 18362, "\u2581nest": 17875, "\u85cf": 29895, "\u0563": 31305, "lor": 5638, "\u7ecf": 29464, "ter": 360, "dev": 1363, "Certificate": 19119, "\u2581otros": 17731, "\u2581airport": 14400, "\u2581Burn": 13708, "\u2581Louis": 6698, "iba": 26365, "\u2581subjects": 14575, "\u2581Episode": 24772, "\u0436\u0434\u0435\u043d\u0438\u044f": 28253, "etime": 6244, "\u2581rage": 19490, "\u2581gates": 21625, "\u2581Gle": 26796, "\u2581psychological": 18835, "Bro": 21404, "\u89e3": 29386, "idades": 11520, "children": 9342, "\u2581themes": 18978, "====": 965, "\u2581Dem": 4267, "\u2581commented": 22191, "\u0437\u0443": 6307, "\u2581$,": 28542, "\u2581UK": 6194, "\u2581sentences": 23748, "\u2581outside": 3536, "\u2581Limited": 19637, "Tree": 7147, "unc": 10474, "\u2581ps": 12384, "noindent": 14458, "itory": 4560, "\u2581helpful": 10865, "omorph": 11179, "\u2581anybody": 15159, "\u2581\u0431\u043e\u043b\u0435\u0435": 21314, "Changed": 8195, "limit": 9203, "\u2581whatever": 5681, "\u2581founder": 18291, "\u2581Jazz": 22049, "\u2581tr": 467, "\u2581lig": 18985, "\u2581forward": 3814, "property": 6558, "\ufe19": 30813, "\u2581Co": 3092, "\u2581Hop": 15406, "\u2581octobre": 19171, "\u263c": 31560, "\u2581commonly": 14473, "vote": 22644, "ants": 1549, "rec": 3354, "\u8acb": 30539, "\u2581college": 6302, "\u2581Major": 10664, "\u00e1l": 4304, "\u2581bull": 10386, "ENCE": 15683, "ylan": 21605, "\u2581Napole": 22204, "\u2581\u0441\u043f": 27780, "\u2581pale": 12805, "tem": 20515, "\u865a": 31415, "\u2581techniques": 9804, "\u00a4": 30445, "Mr": 18590, "<0x85>": 136, "<0xF4>": 247, "\u2581\"@": 14604, "\u2581\u0447\u0430\u0441\u0442\u0438": 14881, "cn": 9832, "ufficient": 23885, "ucker": 20380, "\u2581Posted": 17317, "\u2581secur": 22214, "Force": 19714, "\u2581rape": 21170, "\u0448": 28841, "\u2581iPhone": 17391, "\u013d": 30833, "ent": 308, "\u2581steel": 9445, "\u2581Cost": 9319, "\u043d\u0456\u0441\u0442\u044c": 19147, "\u2581Ken": 8885, "ITH": 16919, "gorithm": 6433, "\u2581Fisher": 22174, "\u0dcf": 31627, "\uff08": 29186, "desc": 5916, "in": 262, "manager": 9307, "lessness": 28015, "Setting": 15222, "\u030c": 31891, "\u2581cases": 4469, "\u2581nowhere": 16877, "\u2581Economic": 20451, "ders": 10802, "\u2581noting": 25222, "camera": 19779, "\u2581habit": 6189, "n\u00edho": 23720, "page": 3005, "\u2581tan": 12222, "\u0441\u043d\u044f": 26893, "\u2581FOR": 6907, "\u2581politicians": 18594, "\u2581Southern": 12031, "}\\\\": 13085, "\u2581terrified": 26874, "\u2581def": 801, "\u2581swim": 10923, "\u2581cris": 8578, "\u2581meters": 18776, "\u2581curios": 19489, "\u2581shorts": 27365, "\u0152": 29504, "\u2581Bir": 21562, "\u2581\u00ab": 1509, "\u2581meaning": 5746, "\u2581experiences": 9021, "\uff1a": 28994, "\ud83d\ude4c": 31326, "serts": 27339, "\u03c3": 29016, "j\u00e4r": 20034, "Db": 13171, "idents": 6640, "ENTRY": 19839, "Should": 15035, "\u2581accus": 21786, "\u2581They": 1306, "\u2581plenty": 8969, "\u2581indirect": 20690, "\u2581\u0441\u0432\u043e\u0438": 25589, "\u2581this": 456, "diction": 24737, "ULAR": 12103, "\u2581**": 619, "eren": 9417, "\u2581waters": 15507, "ct": 310, "Win": 13029, "\u2581Cer": 16411, "Loc": 2871, "\u00f6rd": 12462, "\u2581bor": 24863, "\u2581East": 5691, "\u2581\\|": 14688, "Scale": 10398, "\u2581Sn": 10881, "statement": 22910, "\ub4f1": 30390, "\u2581brut": 16147, "\u2581precip": 27640, "\u96be": 31407, "\u0650": 29421, "\u2581Quick": 16652, "\u2581\u0436": 8937, "den": 1620, "\u2581nahm": 28196, "\u2581handle": 4269, "q": 28775, "\u2581sung": 27173, "\u2581analy": 10148, "\u2581tand": 27631, "water": 9175, "\u2581mechanism": 14175, "\u2581Twenty": 23263, "nas": 16405, "\u2581ranking": 21620, "interpret": 16789, "kol": 16592, "\u00e7o": 15309, "ues": 1139, "\u2581avec": 4346, "\u00fcl": 8889, "\u2581dx": 18733, "\u2581lado": 25418, "icing": 9065, "arc": 6527, "\u2581\u041d\u0438\u043a\u043e\u043b\u0430": 23979, "ions": 594, "\u10e8": 30300, "\u2581Greek": 11715, "\u2581\u043a\u043e\u043c\u0430\u043d": 11015, "}})": 27204, "Tx": 12593, "xf": 7542, "nte": 15111, "\u9b54": 30410, "\u8bb0": 29442, "\u2581wholes": 25911, "typen": 25835, "apan": 4209, "ata": 563, "\u2581bulk": 15059, "\u2581\u0412\u0430": 10678, "online": 20154, "\u2581Kan": 14748, "\u2581member": 4292, "\u2581Sull": 25519, "DED": 16048, "current": 3022, "ME": 1574, "\u2581egy": 9064, "\u0448\u043a\u0438": 23858, "Amount": 13276, "alls": 6629, "\u2581spatial": 18397, "itime": 26843, "\u2581suffix": 26017, "\u04af": 30186, "\u2581elementary": 24267, "\u2581userId": 23836, "kins": 8298, "\u69d8": 31874, "\u2581usual": 8434, "finished": 6159, "WEBPACK": 16524, "\u2581Collection": 13079, "ilor": 20323, "\u0441\u0438\u044f": 27782, "\u2581worthy": 21220, "\u2581Country": 13008, "\u00f6ffent": 19596, "\u2580": 30374, "\u2581pass": 1455, "\u2581bibli": 22426, "\u2581cx": 26196, "\u9006": 31770, "\u2581height": 5110, "OFFSET": 16562, "ialized": 7271, "\u2581forest": 8613, "\u2581working": 2739, "\u2581recip": 14273, "uns": 13716, "\u2581preparation": 16744, "azi": 19597, "iece": 21422, "\u2581tv\u00e5": 22364, "\u2581weapons": 10115, "\u2581aux": 5672, "TextView": 26554, "\u2581principles": 13818, "osph": 24512, "\u673a": 29363, "\u043f\u044b": 13802, "\u2581outstanding": 17329, "iously": 7990, "fx": 9367, "country": 16912, "\u2581Asc": 28294, "\u2581TX": 17679, "\u2581\u0432\u043c\u0435": 27293, "amb": 1379, "\uc6b0": 29687, "\u2581gesture": 19313, "\u2581fact": 1639, "\u2581Madrid": 14334, "food": 18972, "II": 2559, "\u2581Mel": 6522, "\u2581families": 6812, "\u2581Video": 12273, "\u2581coalition": 28131, "\u1ea3": 29508, "\u2581adventure": 15982, "ousel": 25400, "\u2581chair": 6225, "\u2581bird": 7727, "\u2581life": 1411, "\u0441\u0435\u043d": 19709, "\u0432\u0430\u044f": 20026, "\u04bd": 31932, "\u0433\u043e\u0432\u043e": 27726, "SET": 4270, "\u2581frequ": 5059, "\u2581Sunday": 7729, "\u2581Dol": 15052, "\u2581Happy": 19094, "\u2581blev": 12861, "\u2581pixel": 18012, "msm": 14289, "\u2581september": 25494, "\u2581televis": 25483, "\u2581Pers": 10407, "\u2581Korean": 17394, "onne": 18304, "\u01d0": 30372, "\u2581whole": 2894, "tex": 4690, "\u2581grabbed": 13300, "\u1f08": 30966, "\u2581Swiss": 22255, "\u2581Roman": 8325, "\u00fablica": 18305, "\u2581cust": 18542, "\u2581cit": 5963, "\u2581provincial": 26019, "oke": 2656, "\u2581\u043a\u0430": 2790, "\u2581democr": 9895, "modal": 13742, "\u3089": 29572, "\u2581emot": 6983, "\u2581screw": 14693, "\u5e01": 30735, "isation": 5463, "\u2581machine": 5599, "zip": 13249, "\u2581Task": 10290, "uis": 14867, "\u2581sprint": 15409, "unic": 11961, "aced": 2701, "\u2581pul": 10021, "osto": 10583, "\u2581Jonathan": 16656, "\ud655": 30270, "\u2581traged": 21389, "Reflection": 24633, "\u0446\u0438\u044f": 7359, "anten": 23601, "ributes": 4302, "\u2581statements": 12908, "\u2581as\u00ed": 18237, "\u2581mois": 27019, "\u043c\u0430\u0442": 23918, "\u2581\u041b\u0443": 16332, "\u2581sophistic": 20327, "Class": 2472, "zu": 13581, "CUR": 13336, "\u2581disput": 13362, "erten": 28645, "\u0c97": 31789, "iles": 3429, "\u2581Gi": 6622, "\u0ba3": 31748, "\u10d9": 30540, "scale": 5705, "\u2581Corpor": 9764, "\u2581Blood": 17143, "\u2581Madison": 20503, "rank": 13626, "\"},": 7706, "\u2581strongly": 12287, "\uc9dc": 31405, "mun": 9487, "\u2581dude": 16924, "\u2581\u041a\u0440\u0430": 17451, "\u2581Aaron": 20486, "getData": 25842, "\u2581threat": 5483, "\u2581least": 2429, "\u2581mechan": 6330, "\u00e1b": 25657, "\u2581Creates": 20518, "\u5916": 29638, "\u2581brings": 11164, "\u2581Springs": 24846, "\u2581taken": 3214, "\u0417\u0430": 20530, "raz": 5237, "\u2581mol": 10250, "agr": 13947, "TER": 4741, "ester": 7933, "PIN": 18104, "\u2581\u043a\u043e\u043b\u0438": 19519, "\u2581dominated": 20135, "Toggle": 20464, "\u2581hasn": 11638, "\u2581last": 1432, "\u0434\u0438\u043d\u0430": 16428, "\u2581compromise": 25479, "\u2581RET": 28620, "*).": 12619, "hire": 20685, "ascade": 28134, "\u00ad": 28927, "riel": 13374, "\u2581ethnic": 18433, "\u2581\u0413\u0430": 12972, "\u2581titles": 15773, "\u2581Fig": 4826, "\u057a": 31881, "onds": 15779, "\u2581Sydney": 14469, "Amer": 8820, "\u2581reduction": 13388, "\u2581\u043b\u043e": 18812, "\u043a\u0440\u0430\u0457": 11292, "\\": 28756, "rench": 4284, "\ud53c": 31306, "\u043e\u0442": 15242, "\u2581Space": 13497, "\u2581dropped": 7679, "\u2581Besch": 26231, "pec": 841, "textwidth": 13592, "_{-": 22729, "::~": 27893, "\u2581\u0434\u0435\u0439": 20592, "\u2581therapist": 26558, "\u2581asset": 13458, "rivial": 14805, "\u2581Harper": 23649, "\u0446\u0438\u0430\u043b\u044c": 18878, "venue": 8008, "\u0438\u043c": 14624, "\u2581BASIS": 12259, "Bas": 10836, "\u2581occasions": 18323, "J": 28798, "\ud83d\udc9c": 31762, "\u2581Conse": 26300, "\u2581Cat": 10758, "rub": 22213, "vendor": 17635, "Shift": 23328, "\u2581feed": 5575, "\u2581Chicago": 8449, "Rev": 11165, "\u4ee4": 29752, "Dataset": 23941, "\u2581OR": 3994, "\u2581Pent": 21619, "\u2581Style": 17338, "\u2581\u043c\u043e\u0440": 23882, "eping": 11734, "chten": 23708, "\u2581sofa": 23117, "\u00e4hlt": 25409, "ov\u00e1": 10874, "\u2581operators": 12765, "DATA": 7954, "\u2581Japanese": 8092, "\u2581Value": 8382, "pur": 14692, "\u2581femme": 25040, "strong": 9849, "Grad": 20910, "\u2581Ghost": 25821, "\u2581page": 2884, "\u2581seemed": 3593, "cers": 15148, "utat": 27426, "\u2581GPIO": 21652, ".^{[": 22803, "ordered": 17029, "\u2581kon": 5765, "\u0440\u043e\u0438": 22518, "occup": 18562, "\u2581attack": 3517, "filters": 16867, "\u2581Jamie": 19017, "never": 8174, "\u2581lawn": 20200, "\u2581enforcement": 19046, "\u2581UI": 16324, "\u2581sealed": 21998, "\u272a": 31667, "inn": 2594, "\u2581thoroughly": 19877, "layers": 22944, "\u2581produced": 6763, "\u2581Giov": 18605, "lict": 7410, "\u2581Kath": 14940, "ignment": 6151, "idas": 12563, "\u2581ligger": 18230, "\u62e9": 29608, "London": 20491, "\u2581determ": 3365, "<0xE8>": 235, "how": 5845, "\u2581talented": 21712, "\u0434\u043e\u043c": 13503, "\u2581s\u00f3": 25119, "pos": 1065, "Scan": 17272, "\u2581pse": 14808, "itched": 14209, "\u68a6": 31999, "PRE": 6314, "\u2581limiting": 27931, "\ub7a8": 31965, "imal": 3048, "\u2581predict": 6782, "\u0e0d": 31064, "\u2581ade": 14921, "\u2581magnificent": 27574, "Mut": 11874, "STRU": 19199, "draw": 4863, "ONE": 6349, "\u2581safe": 5023, "\u2581{};": 10451, "sun": 19875, "=\"../../": 9765, "\u500b": 30070, "\u2581investment": 8542, "erts": 9916, "environment": 21680, "\u2581Year": 7601, "Trans": 3131, "\u2581talking": 4434, "El": 5773, "\u2581Hor": 8221, "mean": 13646, "\u2581scales": 19232, "\u0419": 28996, "\u0432\u044b\u0435": 16072, "\u2581\u043d\u0435": 2409, "ertain": 2029, "}_{\\": 6198, "<0x8A>": 141, "\u2581heated": 26853, "\u2581Five": 15243, "\u00bf": 28970, "\u0304": 30778, "\u8ddd": 30369, "conscious": 13787, "\u2581\u0441\u0443": 5652, "es": 274, "ali": 4827, "\u2581mounted": 18543, "\u2581slots": 19708, "\u043a\u0430": 917, "new": 1095, "Target": 5332, "\u2581\u043c\u043e\u043b\u043e": 23529, "HER": 8121, "auto": 6415, "\u2581child": 1502, "\u2581squeezed": 26131, "\u0430\u043b\u044c": 8067, "tera": 20328, "\u2581diff": 2800, "\u2581quote": 13658, "<0x3D>": 64, "delta": 3973, "\u2581disagree": 18189, "\u2581chunk": 11077, "\u2581sle": 7767, "lib": 4472, "\u2581patrol": 22294, "ulent": 21834, "\u043b\u044f\u0440": 22020, "\u544a": 29915, "\u2581earthqu": 27719, "LIED": 19829, "\\,\\": 15877, "ffic": 21533, "<>(": 27315, "\uff5e": 30328, "\u015b": 28884, "\u2581net": 2512, "\u00fch": 11472, "\u2581home": 1611, "\u2581fluctuations": 27951, "\u2581gent": 8888, "\u2581gard": 13837, "\u2581sending": 10313, "\u2581descriptions": 25308, "NOP": 26389, "\u2581dependency": 26473, "ix": 833, "hens": 7533, "enders": 14930, "\u2581modal": 22946, "lan": 7411, "\u2581jealous": 21176, "\u2581\u041e": 2807, "\u2581ers": 15920, "\u2581\u0440\u0443\u043a\u043e": 25604, "source": 1394, "\u2581Planning": 23542, "\u6cb3": 30143, "!\");": 22896, "x": 28744, "onder": 9816, "\u2581soph": 16500, "${": 3996, "VD": 10293, "ydro": 11033, "wood": 4871, "minecraft": 22875, "esto": 10631, "\u4f9d": 30505, "\u2581adjacent": 20480, "\u2581kter\u00fd": 28162, "\u3000": 29351, "plica": 15354, "\u2581Leb": 13304, "\u2581($\\": 18157, "ository": 8266, "ak": 491, "\u2581recovery": 12106, "\u2581Cold": 19260, "Slider": 26952, "Use": 8543, "\u2581contract": 5001, "\u2581capture": 11319, "toggle": 13615, "\u2581byla": 23070, "ense": 1058, "woman": 24132, "\u2581trouve": 25171, "\u0440\u0430\u0432": 23081, "angles": 21744, "\u2581pers": 3708, "\u2581Settings": 18923, "area": 7458, "SYNC": 23871, "\u2581kn": 747, "ver": 343, "\u2581representative": 15312, "impse": 26612, "\u2581Mario": 20564, "\u2581ii": 23302, "\u09b7": 31980, "written": 15957, "nesday": 10912, "specially": 18647, "\u2581quarter": 8249, "network": 9482, "TOKEN": 25478, "\u2581pont": 20687, "\u2581upward": 25246, "\u2581COL": 20101, "\u064a": 28972, "\u040b": 30888, "overn": 5794, "\u2581D": 384, "\u2581\u043f\u043e\u0434": 6008, "\u2581enjo": 28033, "\u2581bru": 16575, "\u2581ejempl": 28324, "spe": 14500, "PACK": 20683, "\u2581file": 1729, "\u2581batteries": 25267, "\u2581eat": 5310, "\u2581estado": 17865, "\u2581\u0434\u0432\u0430": 17489, "\u2581\u0431": 1279, "key": 1499, "\u9001": 29434, "\u2581Spain": 12567, "efined": 4761, "\u2581durante": 9794, "\u2d53": 31922, "Record": 7079, "={{": 14039, "\u5c31": 29379, "\u2581vertex": 14183, "\u2581Fa": 12594, "\u2581actors": 16760, "\u4f4e": 30456, "\u8baf": 31316, "ieder": 7102, "\u2581consulting": 27303, "sterdam": 18928, "\u092a": 29794, "<0xC8>": 203, "Payment": 19835, "\u2581become": 2727, "initialize": 19106, "\u043f\u0430": 2789, "code": 1409, "\u2581Dorf": 27577, "oper": 3015, "prote": 8716, "(((": 11133, "pc": 3280, "\u2581iterator": 24119, "Year": 15679, "\u2581worry": 7980, "\u00fd": 28889, "sdk": 17287, "\u8c37": 30894, "\u2581Up": 4324, "******/": 15212, "\u2581falling": 10931, "\u2581can": 541, "\u2082": 30202, "\u2581\u043c\u0435\u0436\u0434\u0443": 16360, "\u2581team": 1918, "\u611b": 30678, "\u2581design": 2621, "skip": 7671, "\u602a": 31042, "\u2581Knight": 21228, "neum": 28051, "wn": 880, "\u0441\u043a\u0438\u0435": 15795, "SUPPORT": 17343, "\u2581Provinc": 27600, "\u2581thank": 6979, "\u2581vertices": 17794, "cci\u00f3n": 9699, "TION": 10940, "one": 538, "\u2581Bible": 12717, "\u0440\u043e\u0434": 6063, "ouses": 16807, "\u0082": 30015, "\u2581XVIII": 23984, "ato": 1827, "\u2581neural": 25726, "\u2581payments": 14923, "\u2581familiar": 8228, "\u2581benef": 3749, "ampions": 5624, "Hot": 22539, "\u2581Hom": 11537, "\u2581Jord": 12116, "\u2581echo": 3894, "Simple": 13256, "avirus": 22397, "\u1eb1": 31642, ">?": 23911, "\u2581Fou": 22577, "\u2581communicate": 16287, "\u2581Like": 5410, "\u2581Full": 11439, "\u043d\u0438\u043a": 5647, "\u2581Tamb": 17432, "predict": 23077, "\u2581comfortable": 8450, "\u0428": 28910, "\u2581bout": 21726, "issue": 11681, "margin": 14656, "bear": 25114, "\u2581seek": 5695, "\u2581smiles": 24733, "forEach": 14182, "\u7a2e": 31209, "\u2581abrupt": 21735, "\u2581H": 382, "mass": 18480, "\u5668": 29180, "\u2581loop": 7870, "\u2581surprise": 8982, "\u2581recher": 26590, "kan": 9763, "\u2581productive": 22779, "\u2581Coll": 9215, "\u2581devil": 23153, "\u2581elegant": 20583, "\u2581'../": 13285, "\u2581Impact": 27803, "ieval": 19168, "\u00f3": 28825, "\u5408": 29234, "}$-": 22298, "\u2581Have": 8290, "\u5bb9": 29329, "\u2581frances": 17923, "DBG": 14701, "\u2581grande": 11807, "\u2581False": 8250, "\u2581Cord": 25207, "\u5404": 30344, "\u2581Fif": 16296, "\u2581).": 11505, "getValue": 12448, "\u2581trauma": 24815, "\u2581pilots": 27109, "\u2581datetime": 23916, "\u7968": 30559, "\u2581temporary": 13415, "}-\\": 14038, "ce": 358, "Compar": 11481, "<<<<": 17192, "zi": 4295, "\u2581naked": 15913, "Items": 7816, "\u2581Gree": 15752, "\u2581Interior": 28646, "\uc758": 29187, "Lambda": 8023, "dings": 23127, "ther": 620, "Data": 1333, "isi\u00f3n": 13386, "\u5f71": 30083, "\u2581Roc": 22152, "\u2581Looks": 27684, "am": 314, "\u2581av": 1182, "mot": 16322, "NEL": 19014, "\u2581vault": 26850, "Black": 15060, "sb": 4513, "\u2581Fab": 12055, "IMPORT": 15101, "\u2581saves": 28507, "\u8d2d": 30207, "\u2581Ten": 11819, "\u2581novembre": 13183, "\u2581Pet": 6728, "\u1000": 31158, "Exception": 1861, "\u2581controlled": 12888, "\ub4e4": 29939, "\u2581Cons": 5504, "deg": 13780, "DUCT": 27074, "\u2581concerning": 15942, "epsilon": 5956, "\u2581tape": 15814, "zer": 3506, "\u2581skilled": 20799, "apest": 20804, "orsz\u00e1g": 22825, "olds": 4858, "\u2581Ukr": 11712, "\u2581Os": 9449, "pan": 3420, "\u2581successful": 6053, "\u2581average": 5151, "\u2581respon": 2603, "\u2581Sal": 4902, "HANDLE": 24292, "ie": 412, "cheduler": 17474, "GPU": 25804, "argin": 6009, "South": 26813, "\u0426": 28928, "\u2581Mas": 9183, "\u2581Buy": 14824, "\u5973": 29933, "prevent": 21129, "\u2581vas": 26452, "cule": 27969, "\u2581Pod": 11928, "\ud1a0": 30776, "unique": 10561, "\u2581logical": 16441, "\u1f04": 31822, "Inputs": 28681, "\u2581Role": 21596, "ell": 479, "\u2581Then": 2479, "\u2581\u041f\u0440\u0438": 11824, "aaaaaaaa": 25332, "<0xF9>": 252, "\u2581Kat": 14294, "ges": 2711, "\u2581Hair": 27523, "\u5403": 31182, "\u2581licenses": 19984, "$^{-": 23596, "\u2581M\u00e9xico": 24602, "\u0432\u043e\u0433\u043e": 11877, "\u2581correspondence": 24911, "\u2581Average": 27701, "\u2581Sar": 7663, "\u2581Going": 25659, "\u2581thinking": 4195, "erei": 26158, "thlet": 10016, "icas": 8316, "\u2581alumin": 22894, "read": 923, "endant": 8090, "\u2581asshole": 25676, "\u043a\u0442": 6299, "\u2581Though": 10080, "acer": 9172, "ary": 628, "\u044c\u0435": 18628, "{},": 15691, "\u2581request": 2159, "\u2581capitalism": 26540, "\u67e5": 29110, "\u2581weitere": 24908, "werk": 16817, "ulation": 2677, "enced": 4697, "iest": 11281, "kow": 12637, "\u2581extraord": 14577, "\u2581vice": 12465, "SED": 16884, "ublic": 651, "\u2581tune": 21337, "\u2581moving": 5272, "\u90a3": 29793, "\u2581Pan": 7687, "produ": 7309, "\u2581sav": 8639, "\u2581optimal": 15399, "AF": 8116, "ption": 768, "\u2581heaven": 14591, "\u2581simpler": 27013, "\u2581CP": 16571, "hedral": 19749, "\u2581bags": 14616, "Extension": 10430, "\u2581reinforce": 25234, "\u2581sufficient": 9406, "delete": 6067, "\u2581exemple": 26260, "\u0433\u043e\u0432": 25873, "\u8a72": 31688, "available": 13952, "\u2581tug": 24197, "\u2581incorporated": 23799, "Cross": 26068, "\u2581Apart": 20754, "\u2581vamp": 21505, "\u2581document": 3248, "\u2581Controller": 25677, "\u2581big": 2032, "Struct": 10753, "ins": 1126, "ahoo": 27568, "\u2581t\u00f6": 23272, "\u2581usually": 4312, "\u2581compet": 3440, "estic": 9546, "\u2581\u00c8": 22256, "\u2581discrete": 24788, "\u2581XIII": 27648, "\u00edcul": 12639, "Enc": 7570, "rying": 5125, "Super": 15503, "gest": 5111, "ably": 1907, "lege": 3528, "\u0163": 29360, "ri\u00e8re": 14825, "\u2581mp": 18419, "scan": 11451, "bn": 13591, "\u2581travail": 28541, "strap": 12720, "boldmath": 26080, "Rules": 17315, "\u10e6": 31278, "\u2581packet": 11200, "\u2581dent": 12156, "\u2581retained": 25764, "\u2581ce": 3670, "\u2581Russell": 17300, "\u2581movie": 5994, "PEG": 26180, "Button": 3855, "\u2581serve": 7031, "yt": 4475, "\u2581Bull": 16998, "\u2581Dru": 17799, "ggi": 24816, "\u2581false": 1341, "\u2581soon": 3403, "BR": 11145, "amt": 13805, "EXP": 22136, "\u1295": 31276, "\u2581rab": 16479, "\u2581Valley": 10509, "Sal": 18461, "owym": 24547, "\u2581ladies": 16009, "\u2581Drive": 16857, "ait": 1022, "\u2581Ro": 5243, "olen": 12115, "\u2581while": 1312, "\u821e": 31622, "\u2581invol": 3303, "\u043a\u043b\u0430\u0434": 27680, "\u2581lengths": 25458, "yl": 2951, "administr": 28181, "\u2581temporal": 26569, "\u2581circul": 15092, "'.": 4135, "\ubc0f": 31262, "\u2581most": 1080, "\u2581history": 3340, "\u0459\u0443": 19743, "hest": 6426, "\u0442": 28786, "atalogue": 10626, "\u5bc4": 31777, "\u0ab0": 31427, "ain": 426, "dict": 4063, "\u2581males": 21071, "ty": 884, "\ubcc0": 29901, "\u2581Sierra": 26048, "\u2581cook": 4600, "\u2581kole": 21840, "SYSTEM": 27842, "owi": 24810, "bolds": 8004, "Core": 5908, "IM": 4019, "\u2581Woman": 20010, "ighters": 21465, "itivity": 16868, "\u2581parliament": 20848, "relative": 19814, "\u2581broad": 5841, "\u2581reflect": 7967, "\u2581Children": 12708, "\u2581Ces": 17097, "add": 988, "\u2581film": 2966, "\u2581Stanley": 19805, "slide": 19635, "umped": 19999, ")}": 3460, "ment": 466, "\u2581Jak": 18779, "tern": 974, "\u2581flav": 15637, "\uc73c": 29583, "\u2581abort": 13515, "\u2581Night": 10357, "\u6570\u636e": 21642, "\u2581impat": 24766, "\u2581crossing": 17076, "std": 3719, "Io": 26086, "\u2581problem": 2700, "\u2581denom": 26891, "\u2581Mons": 28212, "\u0e0b": 31049, "\u897f": 29633, "sert": 1121, "icator": 17573, "\u2581smell": 11016, "\u2581cops": 19407, "\u2581discipline": 18714, "\u2581\u0447\u0442\u043e\u0431\u044b": 27717, "\u62db": 31654, "\u2581tren": 20704, "\u2581condu": 8667, "dale": 21352, "constants": 23610, "\u2581Client": 13522, "\u2581G": 420, "\u2581SOFTWARE": 14891, "Blocks": 23388, "\u2581Green": 6248, "\u2581oak": 27407, "\u2581mem": 1626, "Username": 22281, "\u2581colleges": 26819, "\u2581excuse": 16803, "\u043f\u043e\u0432": 21897, "\u2581demo": 23969, "\u0421\u0421\u0420": 18140, "bi": 6309, "\u2581Lord": 6208, "\u043d\u044c": 7934, "heit": 12307, "\u2581\u043d\u0430\u0439": 15977, "\ud504": 30212, "vi": 5219, "\u2581Shadow": 24874, "avg": 23750, "UserId": 19276, "\u629e": 31072, "\u2581homework": 26284, "List": 1245, "Deep": 23229, "offs": 14567, "\u0438\u043d": 10400, "sheet": 19623, "\u2581V": 550, "\u2581poz": 22571, "\u2581diplom": 13527, "\u2581additional": 4870, "rowned": 14335, "\u2581$|": 17429, "device": 3915, "\u2581BT": 23126, "ok": 493, "\u2581stub": 14601, "\u015b\u0107": 10683, "\u767b": 29510, "\u2581scient": 6269, "\u827a": 31504, "ita": 3156, "unter": 16442, "\u2581firing": 20076, "\u2581oil": 5503, "\u30d3": 30385, "\u9500": 30286, "\u03c4": 28978, "\u2581Tak": 18754, "are": 492, "\u0445": 28831, "thern": 4399, "\u2581Films": 28243, "\u2581hosted": 18822, "\u2581Gram": 21629, "Layout": 4359, "\u2581gaining": 25221, "Parts": 26908, "\u2581nurses": 26579, "\u2581syst": 18874, "interrupt": 23801, "CURRENT": 26381, "jax": 15797, "\u2581Rangers": 28371, "\u0014": 30721, "////////////////": 5172, "\u2581ne": 435, "\u2581Screen": 24432, "\u2581Kirk": 21746, "<0x3C>": 63, "\u2581galaxies": 18072, "\u0451\u0442": 14687, "Table": 3234, "\u2581conj": 11365, "\u0452\u0435": 27214, "\u2581landsc": 27308, "velope": 17173, "\u2581ou": 3466, "\u2581satellite": 22046, "wake": 20001, "\u2581ignorant": 27972, ")->": 6952, "abulary": 24000, "\u2581shots": 14487, "\u0434\u0435\u043b\u0430": 19656, "\u2581Str": 3838, "\u05dd": 29398, "\u2581breasts": 24356, "\u2581project": 2488, "\u2581late": 3909, "Agent": 14829, "notations": 19254, "\u2581-->": 6998, "des": 2279, "\u2581api": 10429, "\u043f\u0438\u0441\u0430": 13099, "illery": 19431, ")--": 20560, "\u2581languages": 14028, "\u2581Expect": 28468, "\u2581valuable": 12302, "FUN": 9793, "aba": 5544, "\u98df": 30716, "\u043c\u0438\u044f": 24684, "\u0e0a": 29851, "\u2581Net": 5269, "Track": 8493, "\u2581admit": 11617, "\u2581junto": 21396, "\u2581Pl": 1641, "czy": 11486, "\u2581alle": 8477, "\u2581\u043d\u043e\u044f\u0431\u0440\u044f": 27251, "\u043b\u0435\u0432": 28110, "Coord": 15082, "prepare": 16180, "\u2581configurations": 24991, "\u56fd": 29453, "\u2581presid": 23790, "\u4f46": 29926, "Emitter": 26264, "\u2581advise": 25937, "color": 3456, "PHY": 21852, "vere": 10888, "\u2581\u0431\u043b\u0438": 22228, "\u043d\u0456\u0439": 13238, "\u2581Otto": 21289, "avelength": 26795, "\u2581Especially": 20538, "\u2581straightforward": 20361, "\u2581dash": 25967, "gart": 26948, "volume": 15392, "\u2581nep": 22798, "leq": 4688, "ass": 489, "\u2581worn": 15903, "<0xAC>": 175, "\u2581Tony": 12040, "Unknown": 12324, "<0x1E>": 33, "\u2581soil": 14315, "\u2581lieutenant": 26219, "\u2581Parameters": 26750, "Formatter": 23533, "\u5f52": 30588, "CTION": 5324, "DELETE": 22070, "\u2581esp": 7581, "ushed": 5204, "\u2581pon": 17984, "lica": 24534, "\u2581marine": 22983, "\u4ed9": 31859, "<0x49>": 76, "\u2581Mak": 20046, "\u2581\u043b\u0443": 24641, "////////": 2810, "olding": 25107, "anal": 11267, "\u0580": 29702, "\u2581tok": 12666, "\u2581Ry": 15971, "\u5fa9": 31711, "\u2581alto": 28077, "Review": 25861, "\u2581recurs": 19681, "\u0144st": 24972, "\u2581kindness": 27404, "\u2581meter": 14386, "secret": 16727, "\u2581answering": 24402, "em": 366, "\u2581footage": 26536, "\u2581Random": 20575, "\u2581bio": 17004, "\u2581Days": 19503, "\u2581emission": 17067, "\u2581assured": 17903, "**:": 9189, "\u2581Proposition": 19697, "elly": 9985, "\u2581promised": 13272, "\u2581Girl": 10850, "\u2581Tools": 26258, "oslav": 21734, "Will": 12695, "\u2581Tag": 12996, "Hard": 23226, "\u2581under": 916, "\u2581wand": 15533, "\u2581retry": 21370, "\u2581auction": 25029, "\u0441\u0442\u0430": 1621, "\u2581my": 586, "\u0446\u0438": 1788, "iani": 17151, "impl": 9252, "\u2581uz": 26040, "col": 1396, "Horizontal": 22841, "\u2581brace": 27856, "\u2581dut": 7756, "\u2581showing": 8102, "\u2581officer": 8119, "\u2581layers": 13083, "eli": 20949, "\u2581participation": 17002, "\u8fd9": 29176, "rys": 24957, "iesa": 22133, "\u2581ticket": 13490, "\u2581staring": 13144, "\u2581documentary": 22054, "tons": 8901, "-----------": 26684, "igator": 17769, "\u2581Gro\u00df": 20146, "\u2581IS": 3396, "IR": 4599, "\u636e": 29020, "\u2581ampl": 16401, "\u2581relieved": 23564, "\u2581\u0412\u0441\u0435": 25615, "\u2581handled": 15570, "iefs": 25495, "\u6d3b": 29785, "pair": 10402, "\u2581damn": 9741, "3": 28770, "itative": 16462, "\u30bc": 31998, "\u2581Industrial": 22302, "\u2581READ": 24805, "essages": 9251, "\u2581parents": 4386, "ortion": 25382, "Shape": 11124, "\u2581inspir": 22547, "<0xD3>": 214, "\u2581DS": 25840, "uild": 1678, "keit": 11231, "nn": 9472, "zero": 8981, "\u2581&=&": 17481, "ld": 417, "books": 17297, "\u0e48": 29296, "\u2581Sister": 21310, "\u2581glance": 15853, "\u2581recall": 8596, "\u2581cheeks": 19764, "\u0928": 29540, "KE": 4457, "\ud83d\ude0a": 30464, "matches": 17990, "\u2581exec": 19626, "ulas": 21541, "YP": 26058, "COL": 9600, "\u0688": 31489, "ml": 1653, "IVER": 27169, "\u2581tends": 21747, "\u2581memorable": 27661, "\u2581suffer": 13572, "\u2581eg": 14486, "ibrary": 4129, "\u2581elbow": 26433, "ers": 404, "\u2581royal": 13753, "uld": 24782, "Criterion": 28336, "\u2581Namen": 24333, "emb": 20603, "\u2581skill": 10346, "Less": 28360, "Diff": 18331, "\u0434\u0435\u043b\u044c": 21054, "\u2581foster": 27560, "\ud56d": 30968, "\u2581Read": 4939, "rar": 19581, "summary": 3499, "\u2581afterward": 28587, "STRING": 10505, "atti": 16708, "\u2581Ly": 10319, "\u2581grocery": 24811, "\u2581cover": 2796, "\u2581Connecticut": 23998, "\u2b1c": 31636, "ville": 5485, "cember": 4354, "################": 6668, "\u2581injuries": 15871, "\u2581Those": 8827, "\u2581Building": 14578, "ified": 1799, "\u2581issued": 11793, "trained": 28247, "\u060c": 30124, "\u2581brilliant": 14424, "NF": 23000, "\u2581[]": 3980, "icture": 10358, "!": 28808, "ison": 2350, "\u2581\u043d\u0430\u0441\u0435": 7599, "\u8fc7": 29202, "lying": 4089, "++": 1680, "ILITY": 8101, "\u2581brick": 18236, "\u2581Leop": 26872, "\u2581viewers": 24886, "\u2581ide": 1872, "\u2581engaged": 13173, "hp": 18634, "tocol": 4851, "\u2581espec": 3343, "Next": 6693, "MAX": 5578, "\u2581judg": 11866, "\u2581sixty": 20739, "\u2581lines": 4715, "\u2581leak": 24798, "\u2581burn": 5698, "\u2581__(": 25185, "\u2581Mono": 27464, "\u2581farmer": 25673, "Mer": 12509, "\u2581m\u0171": 28122, "\u2581toss": 13647, "\u2581transport": 6209, "\u2581Consider": 11772, "\u2581keeping": 7603, "ATH": 7145, "\u2581\u0444\u0456": 26204, "global": 5515, "\u2581freed": 21563, "\u0437": 28812, "\u2581ont": 7957, "\u2581Butter": 28182, "\u043a\u0438\u043c": 15616, "\u2581wom": 1615, "\u2581sea": 6163, ",-": 7667, "\u2581use": 938, "\u2581gegr\u00fcnd": 28222, "uda": 9657, "Normal": 13303, "\u4e09": 29492, "\u0561": 29372, "dater": 28615, "\u2581Seven": 21283, "\u2581BL": 19987, "PROC": 15812, "\u2581cig": 11595, "Push": 19086, "Anchor": 21792, "\u2581seal": 22700, "uv": 5388, "\u2581Mrs": 7107, "\u2581motiv": 8972, "ENC": 20314, "\u2581China": 5077, "roduction": 13632, "ifica": 20750, "lev": 2303, "\u00f4le": 18606, "\u2581receives": 21415, "\u2581Disney": 14665, "].": 1592, "\u2581Europ": 10122, "\u2581nacional": 19136, "\u2581argv": 21863, "\u2581HP": 22379, "~$\\": 24319, "\u2581epoch": 23784, "\u2581clarity": 25312, "\u2581puls": 26691, "\u2581l\u00e9g": 19416, "\u2581viable": 27826, "\u0997": 31254, "af": 2015, "\u2581behind": 2910, "enties": 11586, "\u2581fois": 15396, "functions": 19659, "FLO": 20072, "icos": 8368, "\u2581elem": 10550, "\u2581nah": 20330, "\u2581prosecut": 16813, "PRIV": 26341, "\u2581Geschichte": 16088, "\u0cae": 31941, "\u2581sql": 12199, "\u0440\u0435\u0439": 16874, "\u2581roof": 9145, "\u2581mart": 15370, "\u2581matrices": 21512, "ENT": 2431, "\u2581dol": 13824, "\u00fcnd": 9744, "pler": 14932, "KS": 23143, "need": 14464, "For": 2565, "proto": 5346, "\u2581WA": 26279, "emor": 28704, "\u00f1": 28877, "\u0431\u0440\u0430": 8345, "\u0444\u0438": 4981, "\u2581heat": 6601, "\u2581enthusi": 18185, "\u2581crazy": 9280, "controller": 11517, "\u2581Muslim": 11258, "nak": 14854, "\u2581Layout": 23479, "xl": 22406, "\u2581OFF": 22615, "\u985e": 30837, "\u2581pen": 4969, "\u2581Freedom": 22429, "ony": 2557, "\u2581tab": 7683, "pectives": 26859, "\u2581conc": 3078, "\u2581differently": 16841, "\u2581coordinates": 15634, "\u2581Pra": 16997, "\u0430\u0442": 17108, "MX": 26534, "Html": 14736, "assertEqual": 11073, "\u044c\u044e": 16283, "Unable": 24085, "\ub9d0": 31253, "\u2581ng": 16937, "\u2581hole": 9697, "\u2581museum": 13041, "\u2581Hell": 15244, "\u2581platform": 5181, "\u2581fashion": 8844, "\u2581Broadway": 24331, "\u2581eliminate": 20545, "upt": 20413, "nd": 292, "\u8907": 31119, "\u2581root": 5557, "Parse": 9961, "\u6b64": 29320, "\u2581preferred": 11719, "cius": 27212, "\u2581enorm": 12151, "\u2581Very": 13649, "uspend": 16547, "\u2581Jane": 10805, "\u2581df": 13808, "tls": 21908, "\u2581LIABILITY": 22208, "elijke": 11718, "Price": 12304, "\u2581hey": 28139, "\u2581syntax": 25227, "\u2581hed": 23737, "\u2581lb": 23441, "bar": 1822, "\u2581focused": 9045, "\u2581factors": 8612, "uffix": 18020, "\u2581\u0423": 3375, "\u300b": 30028, "\u0448\u0435\u0433\u043e": 26459, "arator": 22813, "\u2581\u0431\u0443\u043b\u0438": 24596, "\u1019": 31218, "\u2581shell": 10043, "\u2581Hunter": 18476, "\u2581static": 1062, "kern": 28269, "enum": 10057, "\u2581abs": 2873, "\u2581estimate": 11679, "\u2581getting": 2719, "\u2581present": 2169, "Apply": 21597, "\u2581Bar": 3011, "\u2581Lock": 17582, "\ud83d\ude06": 31021, "\u2581supporting": 11787, "\u2581lista": 22101, "=\"$": 24235, "atch": 855, "ORM": 14851, "\u2581recovered": 19471, "\u2581Hav": 23780, "\u043e\u043d": 3463, "Child": 5047, "\u2581Squad": 16756, "LAN": 9559, "\u2581peak": 13093, "\u2581\u0441\u0430": 4468, "\u2581\u043f\u0456\u0434": 11103, "vr": 11277, "\u2581pier": 10833, "cept": 1358, "\u2581box": 3890, "\u2581myst": 11947, "\u2581ages": 14506, "\u2581manus": 17935, "\u2581europ": 22028, "AIL": 26763, "IP": 2665, "\u2581\u00ee": 4591, "Second": 10385, "\u2581electron": 14044, "\u2581Mars": 15798, "Val": 2637, "\u2581voice": 3441, "case": 2210, "Xamarin": 27206, "arms": 18466, "\u2581Bomb": 25805, "\ubca4": 31852, "\u2581threshold": 14053, "rw": 19741, "\u2581Fu\u00df": 21309, "\u2581Saturday": 8513, "\u5f9e": 31517, "\u03ae": 29280, "\u2581\u0421\u0438": 12430, "\u2581deven": 24999, "\u2581bec": 838, "\u0445\u043e": 2593, "\u2581pictures": 8310, "\u2581print": 2682, "ierre": 22874, "\u2581did": 863, "\u2581Original": 17745, "sync": 8959, "igned": 1731, "\u2581Vincent": 20403, "\u2581yoga": 21615, "UM": 4171, "\u2581hub": 14546, "\u2581hollow": 25052, "ISH": 26571, "hos": 22848, "aju": 24072, "\u1e2b": 31101, "Accept": 17589, "quest": 6911, "\u2581compound": 18300, "\u2581Hir": 24384, "\u2581Dezember": 19314, "\u2581extending": 25765, "\u2581structured": 28429, "\u0448\u043b\u0430": 28095, "ates": 1002, "\u043a\u0438": 1107, "\u2581Ve": 13343, "[\\": 7535, "wp": 9359, "\u2581Can": 2418, "\u2581Stars": 22444, "fish": 16483, "\u00eda": 2189, "\u2581cities": 9245, "\u00e9l": 5560, "\u2581K\u00f6nig": 20609, "ir": 361, "\u2581Invest": 11606, "\u2581awards": 17141, "tech": 13429, "\u2581butt": 21921, "flix": 22401, "\u2581na": 1879, "\u2581mil": 2120, "\u2581sits": 19050, "istry": 4535, "\u2581southern": 12227, "\u2581Dire": 19370, "Exec": 20002, "\u2581fluct": 19363, "Pad": 17117, "\u2581Bert": 20215, "Hist": 8690, "\u2581tomorrow": 10759, "Cookie": 22519, "a\u0142a": 23234, "\u2581hans": 24401, "\u00f6ffentlicht": 28106, "\u2581pressure": 6403, "\u0447\u0430": 1956, "\u2581\u043e\u0442\u0440\u0438": 27538, "\u2581crypt": 18649, "Limit": 13063, "sem": 5367, "\ub178": 30525, "\u2581\u2581\u2581\u2581\u2581\u2581\u2581\u2581\u2581\u2581\u2581\u2581\u2581\u2581": 1417, "auch": 21300, "\u2581Illegal": 17352, "\u00e9vrier": 20158, "\u2581Dam": 8474, "\u2581pounds": 14090, "\u2581allies": 23180, "<0xC7>": 202, "\u5c06": 29248, "And": 2467, "\u2581pract": 2844, "Operation": 6972, "chio": 27887, "import": 7841, "ipped": 5885, "ux": 1554, "Sources": 27105, "\u2581tact": 12529, "step": 7691, "RAY": 12661, "\u2581wasted": 26508, "server": 4323, "\u2581lungs": 25195, "\u2581Wien": 26935, "\ucc9c": 31244, "\u02bc": 29846, "\u2581End": 5764, "\u2581Sher": 10511, "\u2581Treat": 15424, "\u2581Erst": 28227, "\u2581fix": 6293, "hpp": 20567, "anca": 19205, "\u2581casual": 13316, "\u2581freedom": 8467, "\u4f24": 31546, "\u2581Nothing": 11081, "condition": 12058, "\u2581entrepre": 15801, "\u2581traces": 26354, "\u2581networks": 12167, "\u0440\u0430\u043c\u0438": 27142, "azar": 21364, "\u2581P\u00e9": 21972, "\u2581Ver": 2927, "mine": 16350, "\u2581Tell": 15259, "\u2581Different": 27588, "UNKNOWN": 24652, "\u968f": 30179, "assembly": 16476, "apos": 17936, "\u2581television": 8575, "\u00c5": 28984, "AAAA": 11086, ",,,,": 20863, "ven": 1434, "\u2581g\u00e9": 19134, "\u2581translation": 13846, "\u2581rund": 24187, "\u043d\u0438\u0446\u0438": 16370, "\u00e1ny": 11596, "road": 8584, "$-": 4616, "\u2581fabric": 10455, "ardless": 26343, "erde": 19161, "anta": 9092, "MON": 17349, "\u2581gre": 3656, "\u2581prototype": 25192, "\u2581books": 4796, "\u2581HA": 16450, "\u2581gear": 13133, "usive": 6657, "\u0441\u0442\u0432\u0435": 13748, "\u2581Bureau": 18052, "\u2581cho": 2183, "\u2581bas": 2388, "aking": 1288, "++++": 17501, "\u2581consultant": 28459, "\u2581jak": 19755, "ctrine": 18371, "\u2581is": 349, "\u2581rounded": 19372, "props": 7329, "rating": 28599, "\u2581\u2581\u2581\u2581\u2581\u2581\u2581\u2581\u2581\u2581\u2581\u2581": 558, "\u2581\u00c1": 10415, "Ag": 13859, "\u2581chest": 8118, "dialog": 10565, "akh": 17212, "xff": 5600, "Comp": 5839, "\u2581Sequ": 22716, "glob": 23670, "\u534f": 30781, "^{(": 6680, "heap": 22937, "\u2581cricket": 26023, "\u2581observer": 21854, "\u2581Louisiana": 24269, "\u0448\u0435\u043d\u0438\u0435": 27372, "ag": 357, "\u2581victim": 12354, "\u2581compass": 16444, "ADD": 10868, "\u2581cyl": 20218, "\u2581points": 3569, "\u2581secured": 21667, "grades": 26830, "\u2581enterprise": 18355, "draft": 27490, "\u0432\u043e\u0457": 24620, "\u0445\u0438": 8009, "\u2581examine": 17801, "k": 28729, "\u2581buff": 4325, "\u2581Error": 7419, "\u2581Government": 9714, "\u671f": 29275, "\u2581Central": 7993, "\u3064": 30072, "\u2581emergency": 11843, "ployee": 16199, "art": 444, "agy": 11644, "\u2581lay": 4897, "\u2581Ent": 6662, "\u2581Temp": 27279, "\u2581handed": 12752, "\u2581Fellow": 23783, "\u2581havet": 28447, "\u2581\u041c\u0430\u0440": 13666, "OF": 10907, "\u2581larg": 3201, "comes": 5254, "tee": 6267, "AX": 15385, "bean": 16504, "IDS": 19954, "Dest": 9277, "\u2581Pun": 22495, "\u308c": 29387, "\u0144ski": 20939, "\u2581onto": 5380, "prefix": 8713, "\u2581solve": 12049, "accept": 12678, "\u00e9l\u00e9": 18310, "\u2581benefits": 7196, "\u2581Life": 5372, "appen": 25150, "\u2581unfortunate": 27245, "Ps": 27246, "tyard": 27463, "look": 5819, "\u2581Europe": 3401, "pletion": 14621, "\u7387": 29886, "\u2581Buck": 16577, "Printf": 26462, "\u8425": 30782, "\u2581rec": 937, "($_": 14076, "\u2581connecting": 19135, "machine": 19569, "\u2581Tig": 26222, "\u30c7": 29644, "\u2581understands": 27422, "aca": 13690, "ast": 529, "egen": 5772, "\u90fd": 29460, "\u2581morph": 18087, "\u6d41": 29642, "ially": 1929, "\u2581Close": 18537, "icc": 26867, "\u2581URL": 9066, "\u2581Pak": 12044, "\u00eas": 17194, "\u2581proved": 10984, "Met": 4680, "\u2581juice": 18342, "\u2581FBI": 18622, "ocolate": 11959, "\u2581lap": 14348, "\u2581PL": 17980, "\u2581Census": 27938, "\u52d5": 29842, "\u2581enthus": 12374, "\u2581forgot": 9400, "\u2581UnityEngine": 14677, "\u2581parse": 6846, "Tri": 18332, "emu": 24067, "\u4f55": 29984, "\ufb02": 31473, "i\u00e9": 26420, "\u2581proven": 12598, "\u2581Stuart": 23733, "hooks": 25142, "cription": 2342, "ife": 1027, "\u2581furn": 8556, "\u2581toile": 15567, "\u2581boyfriend": 18173, "\u2581Lauren": 23119, "\u2581necessity": 24581, "\u2581streets": 10468, "\u2581difficulty": 14426, "\u2581immigration": 21715, "\u2581dragon": 18984, "\u2581hydro": 15208, "\u011f": 29088, "\u2581cause": 4244, "\u2581pump": 12048, "NEW": 19917, "\u2581Wend": 23025, "oder": 5722, "\u2581rapp": 21779, "\u2581ready": 4313, "live": 17064, "\u2581bullshit": 20210, "\u00e3": 28865, "\u2581encontr": 17100, "...,": 25272, "\u045f": 28989, "\u2581\u0414\u0443": 23520, "IL": 2234, "\u2581engines": 17048, "\u2581DNA": 16007, "\u02c7": 31721, "pref": 16697, "pot": 14676, "\u2581fem": 4141, "\u5939": 30900, "\u10e2": 30119, "\u2581indicates": 12825, "ition": 685, "\u2581went": 2068, "\u2581Norweg": 25067, "\u95f2": 31929, "\u2581borrow": 14219, "\u2581waiting": 5345, "\u2581\u043f\u0440\u043e": 2127, "inition": 3775, "Art": 10363, "alling": 20441, "bast": 15174, "igg": 24706, "<0xCA>": 205, "cer": 2742, "\u2581surprisingly": 23107, "\u7236": 30276, "\u2581DCHECK": 22643, "\u2581arrow": 18623, "omen": 4361, "\u529f": 29206, "\u2581ass": 1155, "\u2581city": 2990, "no": 1510, "\u2581errors": 7559, "uits": 23843, "\u2581Total": 10711, ">": 28767, "bris": 24220, "KEY": 6478, "left": 1828, "\u2581resting": 25280, "CAST": 27196, "\u2581German": 5567, "ichte": 9382, "\u2581Neither": 19100, "incl": 1505, "\u2581NULL": 1952, "OG": 21112, "CLU": 28354, "B": 28760, "\u2581recipes": 21116, "bus": 6383, "\u0437\u0438": 3020, "\u2581Answer": 26307, "\u2581reasonable": 11301, "\u2581kne": 7770, "\u2581fun": 746, "\u2581avant": 14221, "ingu": 7473, "Se": 1980, "bon": 5997, "know": 19726, "\u8f7d": 29435, "akespeare": 17864, "\u2581Age": 14065, "\u2581Ng": 27652, "tenance": 9944, "HAS": 27889, "\u2581\u043a\u043e\u0458\u0438": 22929, "_.": 2769, "\u0446\u044e": 23997, "\u2581Lud": 13953, "FRA": 17012, "\u2581Kiss": 27658, "\uacb0": 30075, "\u2581PDF": 18520, "vspace": 15911, "Encoder": 22352, "scriber": 22941, "\u2581Adult": 24765, "\u2581Accept": 26953, "\u2581yourself": 3936, "\u009e": 30924, "\u2581vulnerable": 17508, "ierung": 11911, "\u2581much": 1188, "\u2581Gun": 20655, "OwnProperty": 22760, "\u2581\u0438\u0441\u043f\u043e\u043b\u044c\u0437\u043e\u0432\u0430": 28658, "why": 27014, "nb": 8611, "\u0f42": 31035, "\u2581Minister": 8241, "\u00e1g": 8043, "\u2581Society": 8522, "\uc720": 30127, "\u00edan": 9927, "air": 992, "\u2581golf": 15485, "Ch": 1209, "proof": 6761, "Plugin": 10443, "\u2581embargo": 20883, "\ud83d\udc40": 31232, "ests": 5946, "\u2581\u0421\u0430": 9177, "isValid": 28390, "\u2581(!(": 14606, "Asset": 16328, "\u6062": 30999, "SY": 6358, "\u2581elaborate": 24340, "canvas": 19670, "\ub9cc": 29757, "\u2581tooth": 17961, "igger": 4079, "\u2581Kr": 7787, "\u2581Which": 9595, "\u2581AA": 24724, "\u2581plural": 26001, "\u2581partir": 12599, "direction": 15782, "\u2581\u043f\u043e\u043b\u043e": 17996, "\u2581Plant": 18044, "Dom": 7781, "standard": 20587, "\u0447\u0435\u0441\u043a\u043e\u0433\u043e": 21697, "\u62d2": 31792, "\u53d1": 29099, "Round": 22483, "\u2581nl": 25745, "ichen": 12201, "\u2581enthusiasm": 23099, "wd": 9747, "\u2581Frankfurt": 26858, "\u2581thinks": 10896, "\u2581Brad": 12906, "halt": 18274, "\u0432\u0435\u0434\u0435": 14398, "\u2581shel": 8816, "orf": 7800, "\u032f": 30541, "\u2581deciding": 24568, "rf": 12624, "\u2581Carr": 27639, "\u2581advertis": 21662, "\u2581timer": 14585, "\u0bae": 30228, "\u2581metadata": 11214, "\u2581String": 1677, "\u2581vec": 13080, "pes": 4384, "Gre": 25656, "\u2581alt": 5054, "Links": 28416, "<0x19>": 28, "\u2581Section": 8397, "\u0eb2": 31616, "\u0e38": 29903, "\u2581specified": 6140, "\u1021": 31995, "\u603b": 29758, "\u2581try": 1464, "arts": 8060, "\u2581Editor": 15361, "\u2581rhs": 25490, "Testing": 20618, ">',": 26161, "\u0458\u0443": 11066, "\u2581book": 1820, "\u2581Bryan": 27919, "\u2581advanced": 10023, "\u2581wondering": 12785, "lemma": 13177, "\u2581piano": 13221, "_);": 13400, "\u2581concerned": 9059, "edly": 12395, "\u2581Joan": 20616, "\u2581gaps": 27612, "\u2581recognize": 11286, "brit": 24508, "\u6c7a": 31515, "\u2581initialization": 27620, "\u2581Mass": 7576, "\u2581Wisconsin": 19047, "Sound": 18340, "Life": 21329, "\u9694": 30451, "iah": 14475, "\u6ee1": 30493, "\u2581Web": 6353, "\ub429": 31367, "\u2581blue": 5045, "ech": 5295, "\u2581GD": 24217, "master": 9548, "\u2581quit": 14597, "\u2581devoted": 19312, "\u2581sim": 1290, "Parameter": 6038, "\u2581wherein": 27271, "\u2581centro": 19905, "\u2581ob": 818, "Promise": 16853, "ry": 643, "\u2581equipo": 23742, "<0x32>": 53, "\u2581appearing": 19711, "ol": 328, "\u2581anonymous": 23267, "\u00eate": 14583, "\u2581Mul": 21691, "Destroy": 17520, "Router": 16907, "\u0445\u0435": 21207, "\u2581publisher": 21568, "\u2581fos": 22876, "\u2581link": 3062, "\u2581longest": 23397, ":\"": 4825, "\u8282": 29312, "\u2581Spencer": 27325, "\u2581love": 2016, "pause": 26431, "\u2581focus": 3232, "actory": 3765, "\u2581gr": 847, "tr": 434, "mor": 21621, "Ro": 23909, "Level": 6268, "capacity": 26353, "\u2581transc": 24330, "\u53e3": 29269, "ery": 1193, "\u3001": 29041, "bread": 28090, "\u2581}}": 11670, "\u2581Marshal": 27602, "\u2581title": 3941, "\u2581Engine": 9387, "\u0436\u0443": 14477, "\u2581concert": 14560, "\u2581denen": 27796, "\uc624": 29647, "\u2581terr": 4462, "\u2581vert": 7175, "ifs": 12843, "\u2581ladder": 25016, "\u00e4hr": 15072, "\u2581justice": 10754, "iri": 16105, "rib": 758, "!\\": 8263, "\u2581Logger": 22414, "\u2581Nova": 20534, "plements": 9612, "\u099f": 30579, "ulpt": 14237, "HttpServlet": 25497, "Upload": 15888, "\u0159e": 21611, "\u0940": 29735, "\u773c": 31112, "<0x03>": 6, "stal": 10891, "ge": 490, "vers": 740, "OM": 4341, "\u2581F\u00fcr": 18034, "\u2581Upper": 25407, "\u2581Driver": 24420, "\u2581sale": 7796, "enen": 12224, "\u2581K": 524, "Ret": 8637, "Buffer": 4182, "\u2581bat": 9753, "ra": 520, "\u2581magaz": 21262, "\uae40": 30869, "\u5979": 30715, "<=": 25796, "\u2581Maggie": 25858, "\u2581velocity": 13469, "\u2581whites": 19719, "h": 28716, "\u2581riding": 14557, "Bool": 15571, "\u2581Xbox": 26631, "\u201a": 29290, "\u2581Inter": 4287, "\u00e2nd": 16801, "disk": 17460, "balance": 18024, "\u2581pint": 20453, "\u2581Trail": 24494, ">'": 14117, "\u045a\u0435": 11970, "fprintf": 23833, "\u2581comune": 25845, "\u2581toast": 26312, "essed": 9740, "\u2581existing": 6594, "\u2581weather": 8086, "\u2581Work": 5066, "\u2581|": 342, "blue": 12349, "\u2581read": 1220, "ala": 4575, "\u2581occurs": 12022, "\u2581balls": 16852, "\u000b": 30638, "SING": 22835, "\u1791": 30973, "\u5bb3": 31346, "\u4e86": 29105, "rho": 4132, "['": 1410, "\u2581Handle": 16736, "imir": 20226, "\u0434\u0435\u043d": 6775, "\u2581SER": 16123, "\u2581smile": 6458, "\uc791": 29781, "return": 807, "\u010e": 31461, "\u2581summer": 5561, "\u2581spirit": 5838, "\u2581-*-": 25640, "<0xB2>": 181, "\u5468": 29874, "\u2581has": 659, "\u2581administr": 5466, "frac": 1655, "\u2581ai": 11216, "ZE": 4421, "\u2581necessarily": 11867, "scal": 19040, "<0x37>": 58, "hidden": 9748, "haps": 3662, "\u2581bekannt": 24239, "\u2581marzo": 15230, "cursor": 12601, "\u2581Ark": 17965, "UNK": 18571, "ired": 1360, "requency": 17400, "\u2581stra": 4512, "\u2581sites": 7363, "\u2581Adv": 10822, "\u2581seg": 3979, "\u2581BIT": 26234, "iale": 9712, "\u2581pr\u00e9sident": 25446, "!!!!": 19010, "\u2581fighter": 23865, "clipse": 11458, "Props": 7314, "iller": 8878, "\u961f": 30031, "sche": 8203, "reduce": 21334, "\u2581ACTION": 28509, "\u0986": 31496, "\u03a7": 30438, "\u2581\u0433\u043e\u0434\u0438\u043d\u0430": 18614, "\u2581plugins": 25006, "\u0441\u043a\u0430\u0442\u0430": 19537, "uation": 10223, "frame": 3413, "\u2581medicine": 12502, "folder": 18676, "\u2581diagnosis": 21967, "prit": 25450, "omy": 12956, "frak": 7917, "\u00e8ve": 24893, "Resources": 13257, "\u2581control": 2602, "\u2581Celt": 28417, "\u4e3a": 29003, "\u2581do": 511, "\u2581BO": 12070, "\u2581Texas": 7826, "\u2581d\u00e9j\u00e0": 28320, "ancouver": 22000, "\u2581loyal": 13457, "\u0440\u0438\u044f": 7199, "\u2581molecular": 24919, "\u2581\u0441\u0438": 5294, "\u2581devient": 23125, "pipe": 12911, "\u043b\u043b\u0435": 16832, "\u2581Miles": 25264, "\u2581sein": 6578, "neg": 12415, "\u2581erste": 19233, "\u2581r\u00e9": 3264, "\u2581lip": 11144, "alpha": 2307, "issant": 28438, "\u2581square": 7930, "sec": 3249, "\u2581Their": 6723, "\u0456\u0441\u043b\u044f": 20607, "\u2581prem": 5146, "estra": 19825, "here": 7750, "\u4ee3": 29314, "**************": 20798, "\u2581Australia": 6664, "\u2581och": 2634, "text": 772, "\").": 4145, "vre": 19465, "\u2581Gand": 24414, "Tokens": 24839, "[-": 11440, "\u2581they": 590, "elf": 599, "\u2581escrit": 21362, "must": 19959, "\u2581Here": 4003, "\u2581coupling": 18047, "linux": 8502, "abling": 18617, "Prote": 22543, "\u2581Roth": 23134, "\u2581testimony": 23648, "Sy": 13403, "\u8f6e": 30908, "zenia": 19716, "\u2581invisible": 20187, "ASK": 16804, "\u591a": 29292, "nail": 21418, "Look": 9291, "))": 743, "\u2581sus": 3121, "\u2581dogs": 9540, "\u2581Based": 17158, "\u2581simulations": 19918, "token": 5263, "\u2581Sql": 20950, "()}": 25800, "zeichnung": 27448, "\u00db": 31530, "\u0e37": 30008, "\u2581nurs": 13797, "rets": 18716, "\u0f7c": 31162, "omas": 23856, "\u043a\u0442\u0438\u0432": 13418, "rc": 1718, "\u2581Link": 9351, "\u2581SS": 13823, "\u2581Buffer": 21495, "\u2581gol": 20918, "\u2581ihr": 11893, "\u2581th\u00e9": 19353, "\u2581human": 2930, "\u00ca": 30116, "\u2581Olympic": 19403, "\u2581Peg": 26806, "\u898b": 30599, "\u2581pand": 12140, "CN": 15126, "\u2581CF": 16308, "\u2581Defense": 20774, "\u045a\u0438": 24860, "reate": 2730, "\u2581frustrated": 25511, "\u2581tattoo": 28105, "\u2581listing": 16243, "\u2581questioning": 27203, "\u2581Side": 15256, "\u2581intelligence": 10895, "\u201d,": 9350, "General": 15348, "\u2581\u043b\u0435": 7622, "scope": 6794, "\u0438\u0437": 9912, "getType": 16053, "Ut": 20448, "\u2581phr": 23660, "minute": 17386, "_(": 10653, "idal": 17594, "VC": 17832, "\u2581Dialog": 27304, "\u1e62": 30871, "\u2581lik": 2583, "WORD": 10993, "\u2581Marian": 27117, "\u2581authority": 9637, "(\",": 23431, "\u2581climbed": 17070, "\u2581making": 2492, "\u2581urban": 12270, "ourses": 26401, "\u2581quantity": 15069, "\u2581Medical": 12195, "ervation": 23587, "\u2581mamm": 27454, "\u2581Cy": 12080, "uh": 8884, "\u2581meal": 11314, "\u4f1d": 31884, "ik": 849, "necess": 17172, "\u2581rolls": 25880, "\u2581god": 5525, "\u2581surn": 26937, "\u2581initial": 3742, "\u2581pronounced": 28232, "*>(": 19011, "\u2581san": 8417, "\u2581KIND": 11067, "ores": 3626, "\u2581supplement": 12982, "oir": 7236, "\u2581guerra": 15328, "puis": 13838, "ru": 551, "lane": 25124, "\u2581species": 7018, "\u2581sequences": 22456, ")\r": 3174, "pts": 10730, "\u2581\u0434": 942, "userId": 23490, "\u2581manufactured": 27516, "\uc815": 29233, "\u2581bigger": 9942, "ength": 1340, "\u2581sucks": 25033, "umi": 12965, "\u2581compre": 10715, "\u2581kept": 4558, "bo": 1798, "\u2581Sa": 7506, "\u2581coeff": 12626, "itating": 23251, "\u2581continually": 27388, "\u2581Mik": 16340, "\u2581threw": 11915, "rapper": 6131, "activity": 15996, "\u2581middle": 4986, "\u2581\u0420\u043e\u0441\u0441\u0438\u0438": 19180, "\ubb34": 30449, "\u2581gr\u00f6\u00df": 22707, "\u2581n\u00e4": 22992, "\u2581thoughts": 7403, "\u2581sh": 480, "\u2581diseases": 18257, "complex": 19612, "\u2581Sat": 10586, "\u2581EXPORT": 20713, "ikan": 13579, "\u043f\u0440\u0438": 10804, "\u5238": 30835, "\u2581Elizabeth": 11289, "\u2581Romans": 28282, "decode": 13761, "\u043a\u0440\u0430\u0457\u043d": 24226, "\u2581Orth": 25663, "\u03c0": 29030, "provider": 14620, "\u2581protests": 24740, "Abstract": 16384, "\u2581reporting": 14438, "\u2581invested": 24161, "uren": 11239, "operatorname": 12614, "\u2581familia": 19266, "\u2581Valent": 18103, "build": 4671, "general": 18264, "\u2581breast": 13886, "\u2581painful": 17340, "\u2581Update": 8980, "icity": 25130, "\u2581ged": 28530, "\u2581Kentucky": 21509, "dating": 19196, "\u00edses": 27075, "\u00d9": 31619, "\u6d4e": 31644, "\u4ea1": 31796, "\u2581proposal": 15297, "\u2581bob": 28142, "\u2581kiss": 8374, "\u2581consume": 23327, "\u2581mess": 4687, "variables": 24227, "\u00f6lker": 26087, "\u2581energies": 22972, "\u2581children": 2436, "unlikely": 21956, "CONT": 12162, "\u2581dove": 15622, "removeClass": 22705, "VM": 8572, "\u2581Georg": 7505, "\u2581fi": 6407, "\u2581Math": 6960, "\u2581sequence": 7768, "ate": 380, "dv": 16546, "ood": 1004, "\u00ce": 28992, "\u2581premium": 16317, "\u2581+=": 2679, "fo": 902, "IC": 1604, "\u2581Zent": 27979, "\u2581navy": 28433, "\u062d": 29100, "\u2581input": 2787, "\u2581toll": 24910, "\u2581Senator": 22927, "Invoke": 21764, "\uae00": 30354, "istributed": 25625, "\u2581Fol": 12543, "\u2581lovely": 12393, "\u2581appar": 19744, "etry": 27533, "\u2581Jackson": 9955, "\u2581extremely": 7625, "\u2581mean": 2072, "\u2581domestic": 12866, "itol": 24250, "\u529e": 31298, ")'": 24996, "\u2581Found": 5196, "\u2581Enc": 17611, "\u2581Haz": 23990, "\u2581secondo": 23958, "ava": 1750, "Vel": 24351, "\u6e05": 29649, "\u2581WAR": 6180, "Live": 18119, "\u2581Media": 9347, "\u9577": 30531, "\u7063": 31521, "State": 2028, "\u2581f\u00fcr": 3446, "\u0e40": 29301, "ission": 1937, "\ud83c\udffc": 30558, "\u2581therefore": 6166, "varepsilon": 6490, "feat": 28310, "\u2581stone": 7253, "\u2581gene": 17198, "\u2581execut": 4546, "\u534e": 30430, "ipper": 27691, "gesch": 12386, "PORT": 5021, "bel": 7244, "\u2581magnetic": 12485, "\u2581p\u0159ed": 22774, "wise": 3578, "eze": 19961, "gal": 7846, "\u0570": 31378, "\u2581ending": 12826, "\u2581Cho": 25405, "j\u0105": 12004, "\u2581civ": 13269, "nero": 19684, "\u2581loro": 16491, "ken": 2314, "\u2581Gott": 24543, "\u2581Jesus": 6466, "Sheet": 19565, "\u2581hall": 7224, "\u2581\u00b0": 8793, "\u2581GEN": 25778, "\u2581worrying": 27453, "\u2581work": 771, "\u2581coupled": 22081, "Free": 10998, "\u2581sync": 14012, "\u2581\u0414\u0436": 16046, "\u2581Manchester": 17533, "\u0448\u0438\u043d": 25578, "rik": 8129, "\u2581Henri": 20374, "\u011bt": 16610, "\u5b66": 29500, "\u2581scream": 8933, "\u2581pressing": 20902, "fort": 2878, "\u2581erh": 15455, "\ud328": 30680, "VER": 3491, "HasColumnType": 18239, "\u043c\u0438\u0438": 18551, "\u2581deserved": 27725, "stv\u00ed": 24574, "\u2581shoot": 6041, "\u2581Germany": 7293, "\u2581Leader": 26144, "Loaded": 24368, "\u2581patches": 26961, "\u2581Marg": 10149, "\u2581il": 1521, "posal": 27244, "\u1e24": 30231, "\u8bcd": 30352, "\u2581Built": 25631, "iterator": 11188, "\u2581dies": 5148, "\u2581Jan": 2997, "\u79c1": 30593, "\u2581ensuite": 26368, "\u2581circuit": 15306, "\u515a": 31562, "\u6982": 31137, "Hal": 26924, "design": 16057, "mk": 16259, "\u043b\u043a\u043e": 23054, "\u2581nut": 9246, "z\u0105": 10412, "\u00e8ge": 24399, "\u2728": 30816, "Sub": 3540, "\u00e4d": 16902, "\u2581\u0432\u0456\u0434": 6233, "\u2581Francis": 6617, "\u2581pi\u00f9": 8436, "px": 4125, "\u2581flow": 4699, "\u2581Inst": 3133, "Client": 3166, "CLE": 21521, "\u2581Harvey": 26101, "\u2581button": 6261, "\u2581Ald": 17545, "aught": 4016, "conv": 13338, "\u2581LE": 14181, "angu": 2374, "\u4f8b": 29362, "\u2581fortunate": 28595, "lla": 10365, "wear": 20233, "\u7fa4": 30204, "\u2581PARTICULAR": 13094, "Air": 22764, "\u2581crew": 9505, "\u2581\"-": 11645, "ificates": 23575, "\u2581licensed": 17045, "\u2581Art": 3951, "\u2581Cook": 13092, "\u2581trapped": 20868, "\u2581func": 2745, "\u2581neither": 9159, "hou": 11331, "Describe": 22836, "Async": 7289, "\u2581satell": 17345, "Statistics": 27478, "\u2581tire": 22251, "\u2581marvel": 27778, "\u2581tremend": 20555, "\u2581Bis": 23764, "\u00e4ll": 14357, "Pixel": 17318, "\u2581copper": 21569, "><?": 24787, "Catalog": 27937, "\u093c": 31609, "ottom": 3757, "\u2581circum": 7863, "\u2581fmt": 9755, "Serv": 11529, "ihood": 17531, "\u2581customers": 5688, "\u2581Ru": 12562, "\u2581Winter": 13951, "Default": 4158, "\u2581BE": 10368, "\u2581exempl": 18688, "\u2581lifestyle": 16218, "\u2581Prin": 14495, "Graph": 8380, "Sigma": 9806, "\u2581juris": 21716, "Sh": 1981, "\u2581sed": 9178, "omp": 23947, "ierte": 8912, "\u9014": 31787, "bundle": 25023, "\u2581employed": 14675, "customer": 18523, "RM": 14715, "\u2581vector": 7206, "\u2581means": 2825, "\u2581saison": 20543, "aison": 13390, "\u8bc1": 29425, "weise": 14647, "\u0e31": 29378, "\u0636": 29623, "\u2581sua": 6929, "nice": 22515, "\u2581bend": 25527, "Authentication": 19504, "\u2581treated": 9852, "uid": 4161, "aru": 24344, "\u2581Sab": 11527, "\u2581fixing": 28341, "\u5024": 30261, "\u8865": 31029, "\u2581\u0444\u0435\u0432\u0440\u0430\u043b\u044f": 28240, "\u2581efforts": 8280, "\u2581surveys": 28254, "\u2581Attorney": 23064, "\u2581Detroit": 19784, "ras": 5895, "\u2581strain": 20842, "er": 263, "\u2581\u043a\u043e\u0440": 21146, "\u30af": 29221, "\u2581Ukraine": 16654, "rings": 26661, "ifferent": 15791, "\u4ed6": 29440, "\u2581resident": 11468, "\u05e4": 29467, "<0xB3>": 182, "\u2581\"[": 14264, "mina": 28085, "does": 23727, "transfer": 19513, "\u0433": 28810, "\u2581setup": 9520, "\u2581designing": 26989, "\u2581champions": 27345, "\u2581')": 27890, "\u201e": 28887, "\u2581Hem": 21942, "\u0192": 30753, "Begin": 13871, "\u0085": 31363, "\u2581}": 443, "...\"": 7508, "amar": 11369, "\u2581WM": 27704, "me": 1127, "apture": 13568, ":*": 15563, "\u2581Independ": 23971, "\u2581McK": 18346, "DEV": 7341, "\u2581hunting": 16268, "\u2581deliberately": 24177, "Sender": 25125, "\u043b\u0435\u043d\u0438\u0435": 9042, "\u2581Masters": 24522, "\u2581vanished": 26475, "ahn": 8745, "\u2581challenges": 10369, "\u2581stell": 14062, "ore": 431, "\u2581Someone": 16124, "helm": 15980, "\u2581categ": 8510, "\u0b9f": 30251, "\u2581Loren": 23658, "mt": 2630, "pul": 27818, "\u2581weap": 6477, "elements": 16510, "sat": 23258, "subseteq": 18768, "\u2581Wells": 26290, "\u30ae": 31307, "Mvc": 18261, "\u2581Referee": 17641, "especially": 26160, "\u2581zijn": 7666, "itet": 8606, "fil": 2088, "profit": 17940, "\u10d4": 29286, "i\u00f3": 1310, "\u2581willing": 7813, "isely": 11973, "ormal": 2616, "HTML": 9986, "\u02bb": 29595, "\ub864": 31953, "|_{": 28221, "\u2581bour": 25715, "omic": 7412, "\u00e9ra": 18924, "\u2581Opera": 24795, "tpl": 21279, "\u2581suitable": 11633, "\u2581Villa": 21192, "\u2581Political": 21684, "\u2581figures": 10389, "\u2581Hig": 14327, "\u2581Andy": 16514, "\u2581married": 6368, "\ud589": 30094, "\u2581Ridge": 25440, "\u2581\"../": 15835, "\u2581jedoch": 16154, "\u2581unre": 27011, "\u2581currency": 15547, "\u2581restoration": 27243, "ew": 889, "Root": 7983, "\u2581frag": 11334, "\u2581bl": 843, "\u0ca6": 31775, "ulations": 6341, "\u2581**_": 23269, "erry": 13327, "\u2581cheese": 13628, "\u2581skb": 22076, "imedia": 21861, "\u2581belie": 1989, "\u2581Block": 9063, "ceiver": 15237, "\u2581Past": 17860, "emi": 17957, "\u01b0": 29323, "xygen": 19303, "agues": 11723, "agnostics": 14127, "'],": 5807, "hostname": 27278, "\u2581childhood": 13159, "TT": 16235, "\u2581software": 3930, "\u0111": 28977, "\u2581celebration": 20744, "\u7c73": 30752, "char": 3040, "\u2581ka": 18782, "\u2581revolution": 11029, "lector": 4183, "\u0649": 29591, "useum": 5858, "udder": 24646, "\u2581chocolate": 14403, "li": 1144, "\u2581until": 1996, "\u1004": 31284, "\u2581Rogers": 26484, "Checker": 27229, "\u2581Bez": 22627, "*\"": 27045, "\u2581ut": 3734, "\u2581Franc": 4696, "fy": 26253, "lines": 8063, "\u2581Color": 7831, "\u2581stretch": 14742, "\u2581carb": 24167, "\u2581determination": 20051, "\uaca0": 31810, "\u2581lies": 10427, "alk": 1093, "VO": 12539, "\u2581}{": 26528, "\u2581Either": 19551, "Row": 5590, "\u2581shelter": 18596, "\u2581buildings": 9702, "\u2581closely": 11640, "SC": 3315, "Des": 2715, "uta": 11473, "\u2581bzw": 26520, "MAC": 13037, "htt": 1920, "\u2581task": 3638, "\u2581Record": 12496, "orer": 14465, "\u2581crap": 21849, "\u2581ex": 439, "zd": 13335, "\u2581ny": 13576, "\u5341": 29927, "\u0179": 30109, "\u2581terrible": 9783, "\u5c0f": 29138, "family": 12483, "\u5225": 30798, "\ud83d\ude0e": 30817, "\u2581Sup": 8931, "snap": 26597, "\u043a\u043e\u043d\u043e\u043c\u0438": 28189, "\u2581words": 3085, "\u2581Galaxy": 28228, "\u2581reconstruction": 27419, "\u0442\u0438\u043d": 14981, "iver": 2023, "pm": 3419, "\u2581planning": 7394, "emat": 16633, "<0xD4>": 215, "\u2581\u043a\u0443": 9997, "\u2581hoof": 28376, "\u014b": 29930, "\u2581residents": 11305, "cas": 11768, "\u2581Fourth": 28185, "Capt": 24649, "heading": 26771, "\u2581About": 7634, "REE": 8472, "\u2581qu": 526, "\u2581Hon": 7673, "\u2581Alber": 16531, "original": 11802, "\u2581Getting": 19896, "shops": 21673, "useppe": 28697, "\u2581arrival": 13758, "div": 1538, "BITS": 27001, "\u2581frustr": 10856, "\u2581jel": 21776, "\u2581Gast": 28505, "on": 266, "\u2581Hot": 6895, "\u2581clutch": 27883, "\u039c": 29812, "\u2581pockets": 21702, "til": 2167, "\u2581verification": 26878, "\u2581engine": 4456, "\u2581Gaz": 27161, "Weight": 16310, "\u2581relief": 10853, "\u2581dog": 3914, "\u2581mor": 2544, "\u2581desen": 26789, "\u2581small": 1741, "\u2581Station": 13354, "\u2581targets": 13728, "\u2581trailer": 21498, "\u2581\u043a\u0430\u0440": 17438, "vertical": 24313, "rotation": 26688, "lock": 1607, "\u2581INFO": 22977, "\u90ce": 30682, "mon": 2640, "jpg": 11692, "\u2581placeholder": 17455, "\u2581political": 4355, "\u2581dragged": 20212, "Arguments": 19024, "\u2581clearing": 22639, "\u2581integration": 14678, "\u2581Kont": 28631, "counter": 12520, "\u2581Biography": 27167, "cycl": 21369, "\u2581Gregory": 27113, "FORM": 9357, "\u2581keep": 1840, "ancial": 14497, "){\r": 18055, "wedge": 19201, "reck": 16136, "\u2581Door": 26519, "\u2581probe": 21227, "\u2581bonds": 22541, "<0x16>": 25, "\u2581chemical": 10845, "\u27a4": 31695, "\u05e0": 29246, "apple": 24175, "Rep": 4781, "\u2581Mid": 11083, "ometimes": 8367, "\u2581\u043c\u0435\u0441\u0442\u043e": 20674, "\u0441\u043a\u043e\u0433\u043e": 4809, "\u2581Into": 27121, "\u2581Ell": 7205, "\u2581\u00c5": 15744, "\u2581sy": 5747, "\u2581l": 305, "ako": 7050, "\u2581configuration": 7427, "\u2581Michel": 12622, "\u2581smallest": 22341, "v": 28728, "\u2581yards": 11107, "\u2581banks": 13283, "\u2581Watson": 22603, "\u043a\u0430\u0445": 15274, "\u2581Mum": 25590, "\u7d1a": 31373, "stra": 6781, "?)": 15009, "spot": 20269, "amon": 22686, "\u2581coc": 14609, "\u0442\u043e\u0440\u0430": 22009, "iled": 4360, "kb": 21799, "\u2581lost": 3654, "\u2581Tit": 9495, "\u1ecb": 29765, "properties": 10723, "Seg": 11560, "\u2581yet": 2783, "\u2581System": 2135, "acter": 2441, "\u2581AM": 10401, "\u2581absorb": 28311, "\u2581emit": 16670, "\u2581Edwards": 27336, "ibling": 25641, "\u2581James": 4797, "\u2581vide": 8414, "\u2581\u043f\u0435": 8153, "\u09c7": 29914, "\u2581senior": 9362, "\u2581embrace": 20318, "\u2581heal": 21385, "phrase": 27617, "dao": 28218, "\u102d": 31321, "========": 1647, "\u2581near": 3065, "tto": 27099, "hook": 10872, "\u6682": 30547, "agraph": 11280, "\u2581whispered": 12916, "\u2581mascul": 20442, "\u2581legal": 5648, "CONTROL": 22826, "\u00e9ment": 22952, "\u2581du": 1415, "Series": 20736, "\u2581.": 842, "\u2581Michael": 5459, "\u2581ability": 5537, "\u2581technique": 11108, "\u2581Might": 28439, "\u2581Indep": 13487, "<0xCE>": 209, "\u2581gem": 15037, "Phys": 18191, "\u0e2d": 29228, "\u2581stato": 11995, "\u2581curr": 19494, "\u2581potential": 4628, "\u5e93": 29581, "\u00c6": 29669, "\u2581Kal": 12117, "bian": 18632, "\u0442\u0435\u043c": 18988, "\u2581General": 3592, "\u2581Person": 6441, "\u2581$$\\": 20116, "\u2581dedic": 21810, "multicol": 18223, "OBJECT": 17879, "\ub824": 30710, "\u2581attribut": 19096, "\u2581letters": 9181, "Hidden": 25460, "\u00e1n": 2892, "\u2581walls": 8133, "\u2581separated": 14700, "\uac15": 30967, "\u2581radio": 6480, "\u2581detailed": 10537, "\u2581dock": 20097, "9": 28774, "\u5b88": 30992, "olk": 27227, "SOURCE": 17426, "\u17c6": 31251, "\u542f": 29625, "\u2581house": 2134, "aran": 22754, "\u2581SDValue": 27265, "\u5bfe": 30881, "Jo": 22387, "\u2581Manufact": 19663, "\u7d42": 30899, "\u2581interview": 5927, "\ub144": 31479, "\u2581biggest": 8964, "Release": 17327, "\u2581amount": 3558, "\u5c07": 30858, "Bad": 14580, "\u2581Maur": 14728, "\u2581souls": 23804, "\u043a\u043e\u0433\u043e": 13961, "\u2581drums": 25697, "\u2581pedest": 27475, "\u2581gli": 9973, "\u2581React": 8171, "\u2015": 29370, "bitmap": 20090, "\u2581questo": 16709, "\u2581Eins": 24055, "\u2581MON": 25259, "\u2581/": 732, "\u2581secure": 8760, "resa": 17677, "\u7bc4": 31974, "Primary": 17766, "\u2581OF": 4033, "\u2581west": 7635, "\u2581tone": 10294, "\u2581rode": 17265, "\u2581BR": 19721, "<0xE9>": 236, "\u2581extends": 4976, "unregister": 28535, "\u2581cloud": 6945, "\u2581lease": 23741, "oup": 14245, "n\u00e9es": 25012, "isches": 23458, "\u2581\u0432\u044b": 4627, "\u30d1": 29888, "address": 5540, "reat": 836, "\u2581LI": 12149, "uk": 2950, "\u2581(-": 11419, "\u2581tough": 10342, "\u2581Imm": 25555, "ivi": 19231, "LL": 5292, "\u2581existe": 26766, "Diagnostics": 18174, "ault": 1118, "\u2581miss": 3178, "\u2581dated": 21847, "\u2581ads": 17644, "\u2581situated": 22725, "\u0433\u0440\u0430": 3634, "\u2581\"\"": 7482, "ailing": 16615, "Term": 11579, "\u2581Several": 15223, "\u0446\u044f": 16407, "\u2581Ni": 18001, "\u2581seller": 26824, "\u53f6": 31634, "\u2581java": 3070, "\u0440\u0435\u043c\u0435\u043d": 20546, "\u0bb1": 31002, "anqu": 20668, "yll": 19530, "\u94fe": 29615, "ect": 530, "rie": 3552, "Selected": 9062, "adi": 12035, "wind": 14401, "\u2581meeting": 5283, "oggle": 9282, "MBOL": 16532, "\u2581merc": 21687, "\u0935": 29862, "\u68cb": 31735, "\u2581ke": 945, "Cur": 4432, "\u2581sust": 8131, "\u2581sets": 6491, "\u2581sitting": 6398, "\u2581\u041a\u043e": 5779, "\u2581locations": 11293, "GUI": 21778, "\u2581Johann": 12381, "\u2581dis": 704, "\u2581'_": 17671, "omes": 28548, "rile": 20747, "<0xD2>": 213, "\u2581atomic": 19091, "sd": 5848, "\u6001": 29283, "world": 9471, "Ali": 14514, "\u2581took": 2056, "\u2581Dod": 22790, "\uac10": 31402, "\u2581overwhel": 12987, "cod": 19114, "\u2581Eric": 12867, "\u00f6n": 5438, "\u2581hills": 18553, "\u2581Get": 2483, "False": 6995, "emony": 14360, "\u2581erhielt": 23203, "\u2581\u043c\u0438": 6589, "\u2581indication": 24183, "\u2581suspension": 26542, "\u2581Architect": 19608, "NG": 17167, "\u2581accomplish": 17700, ":\\": 9941, "\u2581'';": 13235, "ago": 4567, "\u2581MAX": 11651, "\u2581quarters": 22142, "\u2581Magic": 19833, "/": 28748, "\u2581organizations": 9909, "HD": 12591, "dp": 8805, "\u6700": 29190, "\u2581iss": 2257, "\u2581Toy": 20944, "\u2581Circ": 20861, "\u2581*)": 4491, "ko": 4798, "\u5316": 29192, "\u2581miser": 22172, "IMP": 10238, "\u2581begins": 10658, "consin": 18091, "\u2581blanc": 28609, "<0x3E>": 65, "\u2581HT": 7260, "riev": 10212, "`)": 25920, "\u2581wanted": 2613, "\u0435\u043c": 5210, "pointer": 12978, "\u2581COMP": 22093, "Fact": 19558, "\u2581eyeb": 17659, "Renderer": 13812, "\u05e8": 29075, "\u2581\u043a\u0438": 12902, "egin": 1278, "\u2581PURPOSE": 12878, "\u2581variation": 18423, "rypt": 4509, "abort": 28209, "\u2581diagonal": 25202, "\u2581ikke": 28639, "\u2581pm": 10632, "\u2581teens": 27995, "\u0f53": 31847, "\u0445\u0456\u0434": 16144, "\u2581PROVID": 25118, "bru": 13065, "\u2581Tips": 26406, "\u2581Jerry": 19176, "\u2581somewhere": 8622, "Lead": 24353, "\u5bab": 31785, "var": 1122, "\u8abf": 31404, "\u2581January": 4624, "mail": 6645, "\");\r": 6913, "\u2581\u0433\u0434\u0435": 17912, "STOP": 26599, "\u2581wheel": 10297, "alle": 4504, "\u2581franch": 16838, "\u3066": 29257, "\ub530": 31359, "atori": 13191, "leaf": 22542, "skich": 26079, "Pse": 28391, "\u0447\u0435\u0441\u043a\u0438\u0435": 24458, "\u2581Util": 16157, "atory": 5377, "\u2581Herbert": 24112, "UA": 25099, "<0x01>": 4, "\u2581remain": 6344, "\u2581stride": 23623, "\u0e14": 29488, "\u2581impression": 13700, "\u2581\u043f\u0440\u043e\u0435": 23249, "\u2581equally": 13387, "otti": 22703, "\u2581legs": 7969, "\u516d": 30467, "thon": 7418, "\u2581slide": 16513, "\u2581NOT": 5457, "Construct": 26799, "\u2581an": 396, "\u2581\u0411\u0435": 11543, "owa\u0142": 11406, "sender": 21910, "pb": 11497, "\u91cf": 29195, "textrm": 18118, "\u2581S": 318, "ByName": 23177, "ensity": 5454, "Disk": 23308, "\u2581Nak": 24828, "\u2581operand": 27455, "pr": 783, "\u2581flu": 13857, "}}^": 21308, "\u0449\u0438": 4522, "osten": 17074, "\u2581Publish": 19675, "\u2581roce": 15693, "autres": 21240, "errno": 17818, "\u0447\u0435\u0441\u043a\u043e\u0439": 19349, "ARB": 24907, "esa": 11207, "\u2581Avenue": 13994, "rows": 3541, "\u2581ON": 9688, "quarters": 14446, "\u043a\u0435": 4026, "ASSERT": 10232, "\u2581\u0423\u043a\u0440\u0430\u0457": 15516, "\u2581engineers": 22488, "ifi": 10273, "NL": 16717, "\ud83e\udd21": 31370, "\u7de8": 30689, "\u97f3": 29838, "onde": 13985, "immer": 14917, "end": 416, "\u2581Raymond": 23540, "\u2581sweet": 7221, "cell": 4860, "Sprite": 22473, "Er": 17900, "each": 8365, "\u2581Thomas": 6083, "\u2581bother": 11026, "\u2581romance": 21695, "\u2581NFL": 17868, "\u5faa": 30484, "guid": 26793, "\u2581fingers": 7856, "\u2581Circle": 25330, "\u63db": 30970, "expression": 15848, "transport": 19645, "\u2581religion": 10048, "eves": 22915, "\u2581withdraw": 14393, "\u0582": 30291, "del": 5149, "boldsymbol": 8033, "istic": 3320, "\u2581fa\u00e7": 23500, "if": 335, "\u00e9ny": 19600, "esk": 19657, "\u2581Haw": 9402, "\u9f8d": 30749, "\u2581divided": 13570, "\u0434\u043e\u043d": 25612, "\u00e4h": 6533, "logs": 25850, "\u2581precisely": 14246, "\u2581dic": 19184, "\u0440\u043e\u043a": 26531, "oked": 8641, "\u2581Mathemat": 26698, "ering": 2131, "\u00dfer": 28028, "\u2581remote": 9308, "\u03bd": 28976, "\u2581decode": 21503, "ustom": 1635, "\u2581technical": 10067, "<0x22>": 37, "crete": 7916, "a\u0142o": 27189, "\u4ef6": 29011, "\u2581Edinburgh": 25970, "\u2581III": 6950, "\u2581client": 3698, "\u2581Bundes": 15678, "ky": 4845, "Engine": 7003, "Pending": 18826, "\u2581Luxem": 28556, "\u2581director": 6859, "\u2581water": 2130, "\u2581assistant": 13892, "\u2581ocup": 20903, "arget": 1533, "Bean": 12366, "werken": 14639, "\u2581Brothers": 22793, "book": 3521, "otion": 5318, "glise": 19622,
[...]
