{"AtIndex": 44936, "\u0120REAL": 40830, "this": 2520, "\u0120followers": 18409, "|$": 23116, "ises": 3013, "\u0120../../": 35955, "\u0120OV": 42978, "however": 35529, "\u0120eup": 43398, "\u01201840": 46537, "iol": 10966, "\u0120answ": 2928, "\u0120\u0120\u0120\u0120\u0120\u0120\u0120\u0120\u0120\u0120\u0120\u0120\u0120\u0120\u0120\u0120\u0120\u0120\u0120\u0120": 5121, "\u0120Sandy": 27504, "Last": 8693, "\u00e5\u012e\u0138": 27707, "\u0120{},": 30744, "\u0120bye": 44319, "\u0120Amend": 44518, "malloc": 44754, "dirname": 45518, "\u0120GL": 9653, "\u0120dam": 2687, "Definition": 18712, "\u0120take": 1379, "\u0120pale": 14530, "\u0120GOOGLE": 30619, "ZA": 40074, "('": 2073, "geq": 5090, "\u0120organic": 8708, "\u0120corrections": 17660, "\u0120poder": 33693, "\u0120peripheral": 10844, "allowed": 31263, "\u0120rainbow": 37422, "\u0120Celtic": 40327, "\u0120mater": 10691, "\u0120imposed": 11295, "atten": 21562, "oint": 842, "\u0120sexes": 35717, "\u0120dubious": 42326, "Room": 42556, "\u0120Elena": 44846, "protective": 39925, "\u0120historically": 24842, "\u0120moreover": 25761, "\u0120professions": 48502, "True": 5088, "onte": 25599, "south": 34542, "inn": 2966, "game": 13197, "\u0120Send": 23934, "ps": 793, "ful": 1020, "09": 2693, "\u0120enhancement": 14314, "\u0120gravit": 15885, "\u0120Cort": 26135, "\u0120relapse": 28524, "\u0120grind": 35001, "\u0120Travis": 35382, "cks": 6163, "\u0120trimmed": 36756, "nox": 42480, "\u0120whereas": 5727, "\u0120Spani": 46544, "\u0120heritage": 21904, "511": 39849, "Chapter": 13617, "\u00d8\u00a3": 32416, "electronic": 47333, "\u0120Sudan": 27325, "\u0120bash": 29826, "\u0120Doctors": 48270, "\u0120estimated": 5998, "\u0120Sorry": 26070, "robl": 15484, "\u0120injective": 39510, "\u0120STATES": 18746, "\u0120normally": 9403, "\u0120griev": 20563, "bel": 8382, "\u0120jets": 24825, "\u0120Min": 3689, "\u0120dementia": 21763, "acion": 33271, "3000": 26990, "\u00b0": 110, "\u0120goddess": 33764, "linked": 16862, "\u0120balcony": 36009, "871": 40010, "Disk": 42278, "\u0120places": 5053, "\u0120frustration": 22014, "\u0120Fowler": 47574, "\u0120Cain": 46737, "\u0120Wedding": 48735, "decision": 33642, "\u0120symm": 6248, "\u0120\u00d0\u013e": 29280, "\u0120transcriptome": 38552, "Ven": 39685, "\u0120Coc": 40825, "cticut": 20030, "\u00cf\u0130\u00ce\u00bd": 26867, "\u00c4\u00b1k": 47772, "beat": 19505, "\u0120takes": 3936, "\u0120Revolution": 15033, "\u0120Salv": 28178, "stable": 11351, "\u0120gluten": 33666, "\u0120By": 2896, "\u0120suddenly": 8423, "\u0120masses": 11843, "\u0120EVERY": 39669, "LINK": 26679, "\u0120epitope": 40548, "\u0120lymphocyte": 36329, "dj": 45061, "hower": 47577, "\u0120Kurd": 32738, "]{})": 45472, "illing": 3867, "\u0120processing": 5162, "ARN": 16652, "Competing": 24163, "hello": 25521, "\u0120exams": 34666, "\u0120interested": 6110, "\u0120Arabia": 20498, "\u0120Kommission": 39604, "\u0120MX": 42311, "Methods": 15568, "\u0120authenticity": 40318, "\u0120Lip": 22609, "bare": 39517, "\u0120formulas": 23276, "untime": 10849, "\u0120prohibit": 33459, "Usage": 31838, "setup": 23320, "\u0120darling": 31556, "\u0120uneasy": 43025, "\u0120understood": 7192, "\u0120und": 3807, "resses": 16443, "\u0120Memorial": 20718, "orio": 44940, "\u0120classifying": 49653, "\u0120shapes": 15029, "\u0120typ": 1745, "Lev": 35438, "\u0120RED": 40559, "\u0120musicians": 20230, "yson": 28533, "arek": 46396, "kh": 17616, "\u0120dopaminergic": 47658, "Bundle": 18099, "\u0120galaxy": 13649, "ly": 314, "\u0120lord": 17991, "\u0120inquired": 39257, "rome": 5450, "\u0120swept": 22007, "\u0120Walker": 16156, "!\"": 1476, "\u0120kinetics": 24273, "\u0120discern": 26923, "\u00e2\u0122\u0125": 3930, "\u0120blur": 29017, "\u0120-----------": 14796, "\u0120FB": 30284, "morning": 44233, "\u0120coffin": 44596, "ajan": 48964, "\u0120Arist": 23500, "329": 22011, "\u0120adjunct": 49816, "\u0120need": 878, "\u0120omissions": 49889, "\u0120institutional": 15772, "\u0120elem": 38062, "\u0120skeptical": 33872, "ibile": 48316, "379": 24880, "\u0120persu": 12407, "circ": 5574, "\u0120Jim": 8438, "esian": 16561, "noise": 24946, "\u00e6\u00b0\u0139": 44899, "\u0120enamel": 46803, "heer": 44403, "\u0120pavement": 37984, "\u0120event": 2362, "\u0120Zel": 36538, "\u0120Vernon": 42171, "attice": 9772, "antically": 39904, "\u0120plagued": 48086, "Instr": 39616, "\u0120trier": 42474, "\u00e3\u0125\u012a": 14202, "\u0120seven": 5093, "sensors": 8751, "\u0120undesirable": 26016, "\u0120se": 396, "\u0120du": 3443, "\u0120furthermore": 33810, "\u0120mov": 1855, "\u0120UI": 12693, "Sequence": 26102, "\u0120styling": 43753, "\u0120disasters": 36578, "\u0120ascribed": 45800, "\u00e0\u00a6\u00b0": 38221, "\u0120speaker": 14925, "\u0120drank": 27215, "Columns": 32641, "50": 1235, "\u0120Conference": 12651, "ilit": 6133, "\u0120\u00cf\u0126\u00ce\u00b7": 13810, "\u0120serotonin": 34818, "\u0120costumes": 37635, "depend": 14455, "\u0120Warrior": 46191, "\u0120Transmission": 48578, "\u0120Emmanuel": 49765, "\u0120Auss": 48739, "^\u00e2\u012a\u0134/\u00e2\u012a\u0134": 23286, "iked": 33457, "\u0120typename": 7919, "Bet": 16339, "ateurs": 43643, "\u0120antit": 20711, "\u0120stimul": 7328, "iples": 7540, "\u00ce\u00bf\u00cf\u012f": 27435, "\u0120recipe": 13612, "\u0120hex": 15442, "239": 20487, "\u0120Safe": 28481, "($": 3914, "\u0120Quran": 49970, "\u0120352": 35362, "\u0120Merc": 21988, "Despite": 14067, "Intr": 43598, "\u0120rotten": 46301, "\u0120Je": 4591, "cil": 4463, "\u0120blowing": 24935, "above": 25117, "aty": 37968, "\u00c3\u00a5ng": 40406, "\u011c": 205, "\u0120mechanisms": 6297, "\u0120collabor": 8317, "\u0120solic": 26854, "amming": 28444, "owa": 11413, "\u0120Edited": 41221, "\u0120niche": 25803, "\u0120apenas": 43058, "*****": 46928, "Rest": 17613, "orer": 14071, "near": 31323, "\u0120Close": 24445, "iative": 18168, "\u0120recipes": 20247, "fficient": 2276, "\u0120immigrant": 28054, "\u0120PCs": 36164, "\u0120loci": 20024, "\u0120131": 19593, "izarre": 25944, "\u0120intel": 9806, "ioxid": 13540, "\u0120Michel": 16833, "\u0120lap": 13427, "\u0120Fernando": 39795, "Pretty": 41774, "\u0120intensified": 45253, "\u0120ether": 25704, "\u0120lawn": 23298, "\u0120Tow": 24819, "iations": 10944, "\u0120add": 823, "\u0120questioned": 17801, "SL": 7084, "NR": 10189, "Zhang": 36378, "Jewish": 37721, "\u0120methylation": 16783, "\u00e6\u00a5\u0143": 39468, "\u0120dish": 11609, "\u0120Day": 6258, "\u0120replaced": 7932, "\".\"": 43196, "\u0120BS": 23446, "\u0120ad": 519, "oors": 37371, "\u0120Paso": 43623, "Find": 9867, "\u0120liberated": 50204, "\u0120cannot": 2550, "TARGET": 31613, "itz": 5432, "\u0120Across": 39635, "\u0120meson": 41341, "\u0120chloride": 21437, "forcement": 19503, "\u0120sold": 4211, "Then": 5872, "\u0120Gary": 18975, "RTC": 46490, "\u0120exchanger": 49045, "\u0120perpet": 14549, "\u0120happy": 5211, "pez": 29283, "\u00c3\u00b3g": 33320, "\u0120\u0120\u0120\u0120\u0120\u0120\u0120\u0120\u0120\u0120\u0120\u0120\u0120\u0120\u0120\u0120\u0120\u0120\u0120\u0120\u0120\u0120\u0120\u0120\u0120\u0120\u0120\u0120\u0120\u0120\u0120\u0120\u0120\u0120\u0120\u0120\u0120": 13113, "\u00c3\u00a1vel": 46706, "\u0120unmist": 47639, "\u0120todd": 35130, "\u0120arguably": 25711, "\u0120nano": 27126, "\u0120Tibet": 27061, "\u00d0\u00bb": 3415, "\u0120Coun": 2678, "nu": 3023, "msgstr": 10653, "\u010a\u0120\u0120\u0120\u0120\u0120\u0120\u0120\u0120\u0120\u0120\u0120\u0120\u0120\u0120\u0120\u0120\u0120\u0120\u0120\u0120\u0120\u0120": 17482, "\u0120depletion": 21022, "\u0120revocation": 40213, "\u0120addition": 1635, "\u0120Heights": 34841, "\u0120535": 43333, ")\\]": 31148, "\u00e6\u0124": 32403, "()": 1082, "\u0120assurance": 29299, "\u0120Carson": 33313, "emos": 20789, "\u0120economists": 34216, "ills": 3171, "'])": 23405, "\u0120Laf": 35735, "FLO": 38979, "checks": 43488, "\u0120inventions": 47112, "\u0120routing": 24749, "\u0120peu": 27749, "\u0120lugar": 33479, "\u0120NBA": 19305, "\u0120Spirit": 14559, "\u0120rescued": 28187, "\u0120waking": 31582, "\u0120laptops": 44310, "\u0120Bulletin": 48805, "otta": 31797, "ish": 763, "\u0120airlines": 39995, "\u0120Kang": 42828, "\u0120From": 4325, "\u0120vesicle": 48025, "500": 5388, "\u0120conspiracy": 13445, "fficiency": 15412, "\u0120linking": 20057, "filters": 41282, "\u0120critic": 7291, "reshold": 6842, "\u0120graphite": 42639, "\u0120Catholic": 10503, "Was": 18412, "\u0120courtesy": 23633, "Fr": 4604, "\u0120cigar": 43186, "Batch": 34561, "\u0120lect": 11873, "imetry": 41696, "plant": 8186, "\u0120teeth": 9970, "\u0120corne": 30312, "column": 11631, "\u0120departed": 29115, "\u0120Pic": 20424, "\u0120Connie": 40104, "doc": 7152, "\u0120involvement": 10171, "feed": 19261, "\u0120migration": 10346, "\u0120lions": 44536, "CMS": 45362, "pace": 4511, "ifter": 44805, "\u0120pinch": 33161, "anded": 12086, "pes": 19064, "\u0120Hopkins": 27353, "PP": 4785, "flies": 31652, "\u0120whis": 10866, "}}}$": 12011, "*\\*": 36952, "\u0120expanded": 11848, "\u0120Cer": 28608, "\u00e7\u00b3\u00bb": 44126, "ourier": 15421, "anners": 23217, "\u0120surgically": 49958, "\u0120Think": 19296, "544": 45259, "pntd": 23125, "\u0120comedy": 17325, "\u0120\u00cf\u0125\u00cf\u0126\u00ce\u00b7": 37384, "assertEqual": 34046, "eration": 3328, "\u0120tro": 6727, "\u0120Master": 10718, "\u0120credited": 26873, "\u0120injustice": 31427, "andidate": 33524, "\u0120dd": 32765, "\u0120begun": 13207, "\u0120175": 20105, "\u0120\u00c3\u0132": 13033, "Pat": 9147, "\u0120drum": 14988, "\u00ce\u00b5\u00ce\u00af": 24745, "ilic": 24479, "\u0120interior": 10755, "\u0120LIMITED": 25666, "\u0120Stories": 30902, "significant": 32258, "ega": 3604, "\u0120tales": 25970, "ru": 579, "\u0120colony": 17562, "\u0120hybrid": 9769, "\u0120Ariz": 33570, "\u0120Kid": 26184, "\u0120lottery": 36284, "\u0120DG": 39268, "\u0120restless": 43958, "\u0120preschool": 45390, "},\\": 5548, "\u0120Ly": 12829, "\u0120discovered": 6888, "arming": 28456, "iversal": 28632, "pler": 17407, "\u0120arriv": 4582, "\u0120Soft": 31307, "\u0120kits": 28049, "\u0120Resort": 36322, "\u0120differentiate": 22629, "\u0120Potential": 38473, "\u0120cosmology": 42716, "\u0120Logger": 45708, "\u0120Larry": 20681, "\u0120dilated": 49783, "496": 30693, "2222": 48049, "\u0120improve": 3157, "\u0120gaps": 18388, "545": 42772, "\u0120meer": 42964, "\u0120servo": 48269, "\u0120extinction": 21891, "INGS": 19212, "\u0120cond": 6882, "2002": 10016, "\u0120rend": 21233, "\u0120Chapel": 34687, "heated": 49856, "ftime": 48937, "\u0120chol": 27554, "\u0120reinforce": 28432, "\u00e8\u00ab": 43894, "\u0120461": 40137, "onant": 43057, "\u0120///<": 46880, "\u0120Ethics": 21482, "\u00c2\u013f": 20475, "reference": 14005, "ibe": 24669, "\u0120Championship": 11218, "EMENT": 17260, "\u0120grades": 23129, "\u0120169": 23504, "\u0120\u00c2\u0142\u00c2\u0142\u0120\u00c2\u0142\u00c2\u0142\u0120\u00c2\u0142\u00c2\u0142\u0120\u00c2\u0142\u00c2\u0142": 26939, "among": 35094, "Digital": 36516, "\u0120talent": 12816, "ermal": 19278, "\u00e5\u00a6": 21683, "\u0120accidents": 23678, "\u0120solder": 31223, "\u0120doctr": 34587, "\u0120Directory": 36186, "\u0120contre": 37379, "enties": 47798, "ODUCT": 47965, "\u0120closest": 8642, "vasive": 34850, "2006": 8603, "\u0120Tab": 19660, "\u0120settlement": 10858, "FO": 8768, "\u0120missing": 5816, "roelectric": 47943, "slo": 37953, "\u0120imbalance": 31561, "\u0120repulsive": 47381, "Ac": 9692, "\u0120feared": 21490, "\u0120alarm": 13965, "\u0120empathy": 32496, "\u0120dehydr": 44317, "\u0120bodies": 8248, "****": 1134, "\u0120percent": 2558, "\u00d0\u00be\u00d0\u00b2": 5790, "\u0120deadline": 20639, "suggest": 35640, "+}": 46015, "hemer": 47842, "listener": 48888, "\u0120primary": 3625, "\u0120psychology": 20162, "PCI": 38941, "erville": 43382, "angi": 24091, "\u0120extinct": 40168, "sinh": 39281, "York": 46225, "\u0120contract": 3310, "eto": 16713, "\u0120fired": 11226, "\u0120yell": 42963, "\u0120Thank": 11239, "wait": 14061, "\u0120McK": 16638, "endor": 13047, "oric": 15937, "+$": 23547, "\u00e6\u00a8": 26487, "aman": 14990, "\u0120hurting": 34426, "\u0120Nissan": 48432, "UT": 3329, "ZE": 9339, "\u0120Sample": 24046, "\u0120coales": 40405, "\u0120999": 48778, "\u0120supplies": 13191, "\u0120variance": 11041, "\u00c8\u013di": 38851, "eman": 11155, "armed": 21201, "\u0120asymptotically": 38311, "\u0120have": 452, "\u0120Bl": 2071, "\u0120Xml": 43209, "part": 2003, "\u0120Tell": 19906, "\u0120refund": 23005, "FUNC": 32652, "\u0120domest": 41574, "\u0120tanks": 20470, "\u0120}$": 27324, "\u0120\u00d0\u00b6": 25705, "\u0120shareholder": 39384, "\u00e5\u0131\u0139": 43368, "saving": 40133, "invalid": 25359, "patcher": 34726, "\u0120Hang": 39008, "\u0120Lithuan": 40115, "odot": 16351, "\u0120solution": 2900, "\u0120toss": 15331, "\u0120Orth": 20268, "\u0120HB": 26404, "\u0120Analyses": 45706, "imiento": 29378, "\u00d5\u00a5": 48451, "UCK": 36746, "\u0120flaw": 19652, "\u0120Prest": 31291, "\u0120Achie": 41541, "\u0120pride": 15555, "\u0120fasting": 25006, "\u0120Matt": 12429, "\u0120tapping": 37005, "\u0120unrelated": 20804, "562": 33730, "\u0120Ear": 40627, "abl": 1752, "\u0120Lett": 12464, "\u0120Temple": 17658, "Blue": 22036, "\u0120\\:": 40527, "\u0120phonon": 40882, "\u0120Texas": 6112, "orf": 34760, "imester": 39972, "\u0120contain": 3831, "\u0120plasmid": 18242, "\u0120confined": 18414, "\u0120k\u00c3\u00b6": 20781, "\u0120?": 3736, "\u0120transmitting": 25104, "\u0120esta": 19764, "pressed": 30813, "Tok": 32040, "\u0120weed": 32983, "\u0120antagonists": 33226, "\u0120tendencies": 37725, "\u0120eagerly": 37774, "\u0120mattered": 43074, "\u0120commander": 17747, "jections": 11817, "\u0120incidents": 18048, "\u0120Berg": 19869, "Extended": 43185, "\u0120pkg": 48492, "enza": 13166, "\u0120Questions": 30254, "appoint": 9626, "\u0120offices": 14145, "\u0120homogeneous": 17010, "\u0120burst": 12948, "rific": 14830, "\u0120Mik": 31419, "\u00e0\u00a9": 38897, "\u0120Ank": 42847, "\u0120Console": 26466, "\u00ce\u00b5\u00cf\u0124": 28434, "ess": 405, "\u0120creations": 45414, "inux": 8810, "\u0120phon": 20445, "\u0120tt": 42085, "\u00e3\u0125\u0138": 36924, "\u0120predecess": 21895, "\u0120vid": 29069, "\u0120oz": 23621, "Alternatively": 42297, "\u0120subordinate": 42301, "\u0120Then": 2635, "int": 565, "\u0120copies": 10125, "}|^": 37207, "\u0120altogether": 17965, "\u00d0\u00b5\u00d1\u0124\u00d0\u00b5": 50231, "\u0120somehow": 10380, "\u0120trial": 2332, "enin": 27112, "\u0120investing": 23415, "\u0120sofa": 30929, "Entity": 14984, "Handle": 16722, "880": 43277, "\u0120Bureau": 15904, "iding": 2821, "\u0120cerebral": 16562, "\u00e0\u00b8\u0123": 26265, "kernel": 22562, "858": 31117, "\u0120Choice": 31303, "\u0120unbiased": 38663, "]<": 47384, "bot": 12042, "\u0120aggress": 27562, "\u0120andere": 40200, "\u0120adhere": 29534, "=$(": 44241, "hat": 700, "coded": 38059, "\u0120follicular": 48107, "\u0120continents": 49900, "\u0120Ion": 40733, ",[": 17555, "agons": 27702, "\u0120Her": 4058, "\u0120gard": 15934, "\u0120surg": 8622, "fault": 40478, "fefe": 25673, "f\u00c3\u00b6r": 30096, "\u0120adrenal": 33903, "yahoo": 49269, "rected": 18685, "\u0120motiv": 15265, "\u0120analytics": 31140, "hard": 10984, "\u0120Tribunal": 45845, "\u0120Or": 2207, "\u0120Finals": 47329, "andy": 13183, "\u0120vaccine": 12538, "\u00cf\u0126\u00ce\u00b9\u00ce\u00ba": 22206, "\u00ce\u00bf\u00cf\u0127": 8520, "\u0120tones": 28232, "\u0120obs": 18373, "================================": 4578, "\u0120inserting": 30471, "perform": 32231, "runner": 28971, "\u0120fill": 7522, "etch": 11429, "\u0120NEGLIGENCE": 49505, "\u00e3\u0123\u00af": 6418, "\u0120Plasma": 32904, "apers": 6143, "ashes": 13539, "657": 28339, "\u0120Princ": 13545, "\u0120professors": 33108, "iang": 22589, "\u0120synthesis": 9066, "\u00d0\u00b8\u00d1\u0124\u00d0\u00b5": 21387, "herty": 38960, "\u0120miR": 9844, "\u0120Lo": 9497, "\u0120biased": 23539, "Prov": 11509, "loan": 37810, "\u0120mucho": 44379, "nikov": 47835, "\u0120Engine": 10797, "\u0120Wizard": 45076, "\u0120rogue": 44355, "\u0120NATO": 24952, "\u0120Tribune": 33602, "\u0120marks": 10880, "\u0120colloqu": 50014, "ased": 833, "\u0120Two": 5761, "\u0120avoid": 3693, "\u0120neurolog": 15674, "\u0120nitrogen": 14164, "genic": 15881, "\u0120221": 27587, "aaaa": 23342, "surface": 26555, "ropri": 12341, "\u0120342": 36153, "\u0120contrasts": 39165, "\"(": 31770, "\u0120sympath": 34144, "\u0120travail": 46158, "\u01201969": 16648, "\u0120risks": 10502, "\u0120implements": 17930, "\u0120rehabilitation": 20123, "\u0120chaos": 20142, "\u0120approved": 7012, "chip": 18421, "container": 13299, "\u0120infusion": 20457, "BLE": 18688, "ANS": 19038, "\u0120bef": 40660, "\u0120reach": 3986, "similar": 22202, "\u0120risk": 2495, "links": 23053, "\u0120apost": 30828, "ize": 907, "otropic": 32801, "\u0120creepy": 43152, "\u0120Germans": 20003, "\u0120wart": 34950, "Bow": 47935, "pu": 11113, "Wrapper": 27757, "ulture": 7546, "Weight": 25935, "\u0120practition": 18112, "Sep": 22342, "\u0120Require": 37880, "\u0120unitary": 24287, "hon": 25224, "\u0120crit": 2268, "\u0120hippocampus": 26382, "DQ": 27474, "\u0120willful": 47187, "beg": 37803, "vc": 16788, "America": 24573, "Social": 25123, "Texture": 22648, "\u0120slower": 17357, "\u0120attacked": 13964, "Average": 33993, "Messages": 40245, "\u0120Greece": 17785, "\u0120\u00d0\u00bf\u00d0\u00be\u00d0\u00bb": 26072, "ATCC": 47020, "\u0120pocket": 11320, "\u0120instructions": 7997, "alpha": 1637, "\u0120ein": 9416, "\u0120Perl": 33515, "\u0120548": 45297, "hern": 3766, "\u0120God": 2656, "\u0120quart": 17033, "\u0120Manila": 43949, "\u0120rd": 47939, "sometimes": 32307, "\u0120synchronization": 27801, "\u0120movable": 30650, "aminergic": 41123, "\u0120coh": 8126, "\u0120Ped": 16868, "ynthesis": 15001, "\u0120embarked": 48053, "Model": 7104, "\u0120Bishop": 19520, "\u00e3\u0124\u00a4": 13682, "253": 22067, "ikel": 41503, "\u0120Aff": 9767, "ature": 1177, "${": 8626, "\u0120BI": 28885, ".\"\"\"": 46289, "\u0120dialysis": 29267, "FS": 7864, "\u0120proc": 15613, "\u0120backward": 19265, "Par": 4221, "\u0120Nest": 34660, "-----------------------------": 29648, "phyl": 24778, "\u0120accompany": 13920, "\u0120fibrobl": 18003, "{}\\": 43945, ")}+": 49633, "508": 27101, "\u0120\u00c3\u0139": 6806, "Disc": 21831, "ow": 319, "rit": 902, "|^": 10819, "\u00e0\u00a4\u00a8": 23068, "\u0120dyst": 32692, "\u0120elect": 1516, "\u0120Sk": 8229, "\u0120TH": 4392, "\u0120Moscow": 16496, "\u0120Default": 18193, "upiter": 29755, "omyces": 36315, "\u0120Kay": 23961, "\u0120attaching": 36976, "\u0120entertaining": 25945, "issen": 38677, "\u0120avenue": 39893, "\u0120intimacy": 41159, "\u0120shovel": 42553, "\u0120pic": 14402, ".-": 8634, "\u0120Veteran": 44117, "\u00e3\u0123\u00a8\u00e3\u0123\u0139\u00e3\u0123\u00a6": 44517, "corr": 45100, "\u0120batt": 11750, "osc": 5829, "\u0120Auto": 17252, "July": 20443, "Ak": 35832, "}}}}$": 35937, "degenerate": 42822, "utter": 12216, "ahren": 39114, "]^": 3725, "discussion": 49794, "\u0120dream": 7156, "borne": 17861, "ussels": 24300, "loo": 42064, "\u0120Frequency": 38544, "\u0120textbooks": 45789, "\u0120artist": 9558, "\u0120anytime": 28537, "\u0120coefficient": 10235, "\u0120wolves": 36162, "\u0120mimics": 43341, "\u0120609": 45370, "\u0120Diego": 14912, "\u00c3\u0132\u00c2\u00b5": 18251, "\u0120and": 285, "\u0120cooler": 28576, "label": 1968, "Without": 20696, "\u0120instructors": 46421, "Stone": 49518, "\u0120packing": 22485, "\u0120donated": 26837, "\u0120Profile": 27047, "\u0120mal": 4691, "vist": 49906, "\u0120og": 9040, "decoder": 48759, "\u0120od": 7687, "\u0120Ab": 3506, "STE": 38795, "\u0120vers": 1888, "236": 21358, "agles": 23044, "\u0120progression": 10005, "Dom": 17004, "entin": 41319, "\u0120SCC": 36192, "\u0120insp": 6381, "\u00e3\u0123\u00a7\u00e3\u0123\u013b": 20776, "\u0120buyer": 22894, "\u0120Faith": 27955, "\u0120268": 30783, "\u00e2\u0123": 25086, "giene": 28944, "\u0120Cricket": 42579, "ored": 2149, "![(": 34476, "\u0120shifting": 19507, "\u0120Lar": 10374, "adam": 43089, "\u01207": 818, "otry": 48645, "\u0120Cassie": 40136, "\u0120myel": 16203, "\u0120bov": 19861, "\u0120attachment": 14170, "Entry": 14085, "Returns": 34551, "\u0120Eleventh": 50028, "elist": 43874, "187": 17306, "\u0120\u00c5\u0141i": 21067, "wheel": 29061, "\u0120coverage": 7031, "\u0120reticul": 38202, "andi": 38911, "\u0120liberals": 36025, "\u0120future": 2852, "\u0120mechanism": 5122, "Cs": 6072, "ulous": 15873, "\u0120steering": 21406, "83": 3245, "OUN": 32671, "\u0120glowing": 33055, "\u0120recruits": 38136, "patrick": 38456, "\u0120Danny": 20882, "\u0120depiction": 48528, "\u0120Un": 914, "\u0120Ord": 41917, "eg": 909, "\u0120innings": 28828, "](\\": 30537, "\u0120\u00c5\u00bce": 33604, "\u0120particle": 8091, "\u0120attempting": 13756, "Lookup": 48061, "plate": 3789, "\u0120\\}$": 38606, "\u0120Handler": 49263, "\u0120excit": 10964, "\u0120borrowing": 40770, "Final": 21747, "\u0120commiss": 43555, "ness": 1255, "omethyl": 37109, "\u0120IgA": 45213, "\u0120Sed": 31593, "\u0120stretches": 33902, "\u0120certainty": 23140, "\u0120psychic": 39928, "\u0120position": 1899, "\u0120happened": 4592, "uitive": 48714, "FROM": 22050, "fake": 39182, "\u0120transistor": 16781, "\u0120Yahoo": 31230, "\u0120playback": 35415, "\u00c2\u0142\u00c2\u0142\u00c2\u0142\u00c2\u0142\u00c2\u0142\u00c2\u0142\u00c2\u0142\u00c2\u0142": 10906, "\u0120\u00c3\u00a1": 21079, "axon": 49306, "\u0120coff": 33374, "school": 19221, "\u0120GHz": 30588, "\u0120familiar": 7615, "doctoral": 49888, "\u0120decision": 3061, "\u0120aka": 38857, "\u0120zal": 47148, "\u0120Year": 10519, "\u0120elbow": 24784, "349": 21095, "\u0120purch": 4147, "\u0120meters": 17249, "cium": 44185, "\u0120TB": 14792, "\u0120Payne": 42073, "SYMBOL": 47788, "\u00e5\u00a5\u00b3": 40007, "\u0120java": 7626, "ouri": 13979, "\u0120publicity": 29957, "ocon": 16033, "been": 20394, "\u0120magical": 21653, "anza": 29847, "\u0120outside": 3345, "\u0120Zeit": 34825, "\u0120OVER": 39161, "\u0120scalable": 44755, "\u0120\u0120\u0120\u0120\u0120\u0120\u0120\u0120\u0120\u0120": 2674, "fare": 17937, "\u0120tickets": 14997, "izza": 16683, "\u0120Marriage": 39138, "\u0120loan": 10119, "\u0120catalyst": 16803, "\u0120\u00d1\u0123\u00d0\u00b5": 38366, "\u0120revol": 46577, "\u0120DWORD": 49135, "\u0120settle": 16359, "dependence": 39606, "\u0120pushes": 32804, "\u0120female": 5343, "\u0120Sym": 16048, "},\\\\": 39115, "sys": 10404, "\u0120mimic": 25066, "EXT": 9465, "\u0120math": 14168, "www": 2700, "rr": 2676, "FFIRMED": 28696, "**(": 8703, "\u0120anc": 6164, "scala": 36650, "\u0120\u00ec\u0140": 32115, "\u0120Opening": 44500, "\u0120UC": 23455, "\u0120Wheat": 39979, "\u00c3\u00b5": 10100, "1976": 19813, "sel": 2034, "\u0120rituals": 37455, "\u00e5\u00ae\u0125": 39465, "\u0120Airl": 27848, "riton": 35727, "Us": 8484, "\u0120liquids": 32819, "ject": 720, "`:": 38416, "ATP": 25606, "visors": 30178, "\u0120wenn": 35569, "\u0120Animation": 47828, "_[": 14767, "\u0120chatter": 47580, "\u0120archives": 31523, "notes": 21377, "xyz": 35609, "\u0120chiefly": 40699, "Format": 10069, "auc": 14827, "dale": 22604, "\u0120plateau": 30025, "ije": 32583, "\u0120whence": 40689, "ifies": 7790, "\u0120races": 15820, "chemical": 20465, "\u0120commutative": 33796, "zzles": 44426, "\u0120saf": 4389, "\u0120Inn": 14515, "iv": 400, "\u0120Should": 14482, "\u0120Polish": 19701, "\u0120brushed": 35273, "\u0120\u00d8\u00ae": 45232, "\u0120Sisters": 46242, "\u0120jurisdiction": 7571, "\u0120stores": 10111, "\u0120dramat": 50104, "]\\]).": 34494, "\u0120concepts": 12342, "\u0120foss": 17122, "Android": 18842, "vict": 40312, "iratory": 10767, "\u0120immunological": 40469, "\u0120pioneering": 45200, "\u0120liv": 14121, "956": 36176, ")\u00e2\u012a\u0134": 48885, "\u0120Colleg": 43613, "\u0120Mild": 49671, "\u0120Caucasian": 43748, "easy": 36423, "auss": 10064, "\u0120prolif": 7987, "\u0120address": 2953, "\u0120Nursing": 42985, "\u0120451": 40982, "uther": 16580, "\u0120tongue": 14018, "\u0120acqu": 4171, "Ron": 42353, "Height": 13881, "\u0120Importantly": 27628, "]{}\\_": 45382, "ages": 1131, "\u0120exciting": 12302, "\u0120noch": 28547, "\u0120Lodge": 35444, "\u0120apprehens": 36792, "\u00e6\u0137\u00b0\u00e6\u012f\u00ae": 36998, "zn": 27509, "ichlet": 42878, "\u0120MAPK": 32406, "chars": 30830, "tumor": 38335, "\u0120k\u00c3\u00a4": 27082, "ostics": 21234, "Touch": 29330, "\u0120Ek": 44375, "\u0120HAD": 45236, "Actor": 49925, "reek": 7209, "\u0120Teaching": 45287, "ophageal": 24816, "\u0120RBC": 33948, "\u0120scroll": 14084, "\u00e5\u00ae\u0141": 38107, "\u00e1\u00bb\u0129": 35177, "aming": 6472, "rifice": 16297, "1959": 36122, "\u0120waiting": 6179, "\u0120grandparents": 37186, "difference": 40651, "\u0120[<": 43521, "\u0120Surprisingly": 44156, "lop": 46319, "Device": 15982, "SK": 16582, "\u0120reinforcement": 35221, "\u0120epid": 19075, "\u0120credible": 24542, "\u0120documentary": 18802, "\u0120dig": 2836, "\u0120solidarity": 34394, "411": 33775, "744": 50222, "\u0120occupations": 45517, "\u0120spending": 9100, "\u0120addressed": 9713, "hours": 22724, "\u00e5\u00b8\u00b8": 36548, "----------------------------------------------------------------------": 43067, "\u0120Domain": 33865, "Lab": 21663, "\u0112": 195, "Treatment": 40189, "\u0120accepted": 7607, "\u012060": 3925, "corn": 30736, "\u0120sag": 18561, "\u0120reservation": 28930, "\u0120notwithstanding": 30812, "Ids": 33922, "\u0120Man": 3083, "\u01201936": 27386, "\u0120Particularly": 37664, "crib": 6559, ")\"": 6844, "\u0120\u00d0\u00b0": 15057, "\u0120Maced": 40549, "\u0120554": 47053, "\u0120batch": 14604, "\u0120baby": 6858, "\u0120vag": 12531, "\u0120Risk": 22887, "\u0120journalist": 17264, "\u0120splendid": 34095, "keepers": 39160, "Complex": 39865, "inherit": 45990, "\u0120Bart": 17486, "iab": 31289, ").$": 34488, "\u00e3\u0123\u00b3": 46674, "\u0120didnt": 42126, "\u0120retained": 14667, "Hs": 31176, "412": 30965, "\u0120changed": 4391, "546": 45533, "ya": 5973, "\u0120rental": 19272, "}}_": 5000, "\u0120Hi": 17459, "aturing": 39643, "0125": 49464, "\u0120((-": 12374, "Month": 28907, "\u0120gour": 49992, "\u0120patients": 1363, "\u0120save": 5321, "ima": 8032, "kan": 17369, "\u0120Sixth": 25164, "\u0120tail": 8105, "\u0120organisations": 23617, "\u0120James": 5490, "\u0120gli": 16439, "Depth": 34733, "\u0120$({\\": 30780, "\u0120Riemannian": 42601, "\u0120conversation": 7827, "\u0120Similar": 15397, "\u0120draining": 44636, "\u0120df": 20926, "stra": 10981, "\u0120Truth": 23921, "rod": 16104, "\u00d5\u00b8": 50062, "\u0120defeat": 13313, "\u0120Rangers": 29629, "\u0120importante": 33345, "\u0120Sor": 24367, "\u0120fallen": 13547, "\u0120renewable": 27606, "\u0120(\"": 5550, "\u0120handful": 17167, "kers": 23521, "\u0120CONTRACT": 32833, "}$": 724, "\u0120Elli": 34221, "\u0120Rect": 38893, "\u0120ONE": 21252, "\u0120Liver": 17687, "529": 45316, "\u0120Deep": 18147, "\u0120dancer": 42411, "\u0120gorgeous": 23535, "capacity": 37473, "\u0120peroxide": 34288, "\u0120Inte": 11677, "\u0120Secondary": 29625, "fill": 9337, "uild": 4084, "\u0120fif": 5813, "\u0120\u00c2\u0139": 14716, "ulty": 11788, "opan": 37580, "\u0120restitution": 32551, "ashi": 17850, "\u0120\u00ce\u00bc": 4654, "\u012073": 11087, "\u0120Cow": 18544, "esp": 24182, "overline": 4862, "\u0120litig": 42024, "Flash": 45327, "\u0120dre": 45957, "\u0120hy": 1465, "\u0120sailed": 33497, "PROT": 39129, "//----------------------------------------------------------------": 48924, "linear": 8172, "\u0120implicit": 15424, "\u0120if": 604, "223": 20360, "oor": 1887, "guide": 22433, "adition": 30718, "uku": 42379, "\u0120CMD": 48168, "Cause": 33460, "ynaptic": 35692, "\u0120Plat": 48758, "\u0120famine": 48768, "\u0120Hall": 6696, "\u0120claimants": 49639, "\u0120ect": 26570, "Rich": 17389, "laid": 37712, "grat": 25923, "poll": 30209, "zie": 29879, "\u0120Lic": 17247, "roe": 20950, "\u0120rhs": 38309, "\u0120mourning": 43841, "thick": 27663, "\u0120logs": 20131, "bilt": 50243, "SU": 6971, "\u0120translated": 15786, "razil": 9918, "\u0120aston": 21278, "\u0120fost": 25243, "\u0120Conservatives": 40055, "\u01201200": 31268, "CPP": 39600, "Regardless": 47271, "ptide": 18238, "atas": 47578, "shaw": 40590, "\u0120flaps": 49910, "onyl": 38258, "Unless": 28645, "\u0120fur": 11829, "Launch": 41803, "Provider": 14725, "IZE": 38517, "]\"": 9336, "\u0120carcin": 9322, "estine": 22019, "\u0120seats": 13512, "\u0120truths": 35086, "/,": 40391, "bridge": 8298, "\u0120synt": 43548, "\u0120Celebr": 43896, "toolbar": 44338, "ome": 485, "\u0120ATCC": 48745, "\u00b4": 114, "423": 38043, "\u0120revise": 49620, "Mur": 24354, "\u0120Ap": 4276, "\u0120Testing": 30750, "\u0120Hearing": 38308, "\u0120flexion": 42392, "\u0120hearty": 49618, "\u0120dilig": 23947, "\u0120carbohydrates": 38401, "\u0120fetal": 16728, "urry": 20657, "\u0120Dw": 36113, "\u0120smoke": 11283, "Progress": 25155, "Graphics": 37430, "\u0120hydration": 48129, "\u0120Eliot": 45773, "\u0120**": 1401, "\u0120pron": 11093, "\u0120whiskey": 41236, "commend": 27167, "\u0120fee": 9801, "\u0120trader": 41739, "imately": 7325, "\u0120wrapping": 31705, "\u0120cultural": 8928, "\u0120lives": 4852, "\u0120tors": 26258, "\u0120graz": 36012, "Pack": 28794, "\u0120strange": 8921, "\u0120Midd": 34012, "\u0120Rhode": 35743, "\u0120disappe": 8321, "\u0120preferable": 29224, "\u0120Chrys": 37117, "\u0120Findings": 41429, "\u0120unm": 23355, "\u0120garments": 42179, "VERS": 15511, "\u0120sei": 42185, "aggio": 45824, "\u0120arXiv": 22725, "\u0120tuned": 24251, "\u0120accepts": 25026, "\u0120irony": 33740, "\u0120biomark": 15236, "\u0120Fors": 45977, "\u0120collecting": 17055, "paragraph": 43575, "\u0120proactive": 46200, "\u0120Fold": 46806, "\u0120agent": 5570, "\u0120hob": 48287, "\u0120uri": 41475, "frast": 9627, "\u0120suscept": 10219, "ulsive": 22480, "ungle": 24895, "\u0120penal": 29697, "er": 254, "\u00e0\u00b8\u0137": 41132, "\u0120error": 2228, "Ich": 39980, "\u0120tener": 48014, "\u0120Whitney": 42809, "37": 1787, "\u0120Customs": 36262, "\u0120tiger": 39121, "\u0120jealousy": 44170, "\u0120ninet": 19510, "\u0120century": 5331, "\u0120Allan": 38266, "\u0120Never": 9018, "\u00ce\u00b6": 25651, "\u0120belly": 23828, "\u0120Leonard": 27708, "\u0120Westminster": 34328, "\u0120\u00d0\u00bf\u00d0\u00be\u00d1\u0123": 38940, "\u0120Permission": 40078, "omod": 43712, "457": 28744, "Guard": 35854, "\u0120travelers": 31754, "altern": 30991, "\u00e5\u0142\u00b4": 31895, "\u0120ordinarily": 36165, "Negative": 41263, "tfrac": 21103, "\u0120\u00c5\u00bee": 27650, "989": 47302, "\u0120Marsh": 15463, "\u0120Victor": 9964, "\u0120Cra": 15615, "HEAD": 22225, "\u0120refreshing": 31255, "\u0120Lynn": 33603, "mass": 14611, "\u0120unambig": 29472, "\u0120say": 1333, "Sound": 31189, "\u0120onion": 21635, "\u0120cysteine": 35750, "\u0120Tg": 42784, "esque": 44179, "\u0120colonies": 19665, "================================================================": 15256, "\u0120fol": 6305, "\u0120kin": 5708, "\u0120TAG": 43907, "\u0120234": 27812, "\u0120Sy": 5619, "\u0120Excel": 24252, "\u0120tumorigen": 37486, "eclipse": 21835, "\u0120Rise": 39952, "lements": 9115, "\u0120trustees": 39777, "\u0120padd": 41243, "\u0120formulae": 42764, "syn": 14107, "\u0120soda": 29737, "\u0120heating": 12220, "Tal": 41520, "but": 2858, "\u00cf\u0126\u00ce\u00b5": 16411, "\u0120When": 2091, "Center": 21972, "OUBLE": 43028, "cia": 14265, "\u0120spheres": 28394, "\u0120constituent": 31239, "\u0120from": 432, "Modal": 40644, "\u0120reporters": 16817, "empl": 12837, "\u0120onwards": 39210, "\u0120phenomena": 16958, "\u0120Prize": 21803, "\u0120excerpt": 32491, "Dad": 34234, "\u0120174": 24727, "\u0120Profess": 9895, "\u0120recess": 24096, "\u0120Betty": 33686, "amyl": 47162, "\u0120_________": 38834, "\u0120615": 48210, "\u0120Magn": 18482, "Topic": 46167, "isia": 30160, "\u0120Drake": 36338, "Flex": 49463, "\u0120sober": 31864, "\u0120paral": 37909, "\u0120AT": 4915, "establ": 15425, "\u0120statistically": 10126, "Indust": 47219, "\u0120intrusion": 39482, "\u0120engaged": 9583, "\u0120RMS": 39250, "\u0120coe": 6161, "\u0120combinations": 13553, "\u0120Ve": 19716, "Spot": 46450, "tv": 18698, "\u0120mathematical": 15965, "\u00c3\u00a8res": 26444, "Publisher": 33983, "\u0120coral": 34110, "\u0120rulers": 36491, "\u0120healed": 38596, "ze": 2721, "855": 31013, "\u00cf\u0129": 9650, "\u0120vert": 5765, "\u0120Pool": 32879, "\u0120index": 3605, "\u0120instances": 10872, "\u0120DS": 20807, "James": 18448, "\u0120Mc": 3044, "thening": 25230, "Mg": 35811, "))/": 13987, "ape": 2259, "\u0120backlash": 43343, "\u0120writing": 4028, "\u0120vend": 20019, "\u0120converse": 42810, "\u0120$^": 31502, ".),": 11507, "Class": 4947, "\u0120Greg": 13916, "anne": 17416, "inic": 17841, "\u0120Divine": 35502, "efficacy": 48995, "isely": 9299, "gency": 17997, "\u0120xcex": 34833, "\u0120expands": 35205, "\u0120batter": 7074, "tone": 48619, "\u0120planting": 31761, "\u00ce\u00af": 6450, "\u0120reward": 10921, "opic": 6361, "\u0120listened": 18029, "\u0120grandes": 45521, "\u0120tone": 10541, "Error": 4756, "\u0120artifacts": 24165, "amoto": 32150, "\u0120maiden": 42358, "ullary": 46909, "\u0120\u0120\u0120\u0120\u0120\u0120": 979, "\u0120counting": 15496, "avelength": 10415, "incre": 19687, "\u0120Spacewatch": 45659, "\u0120evenly": 25356, "cester": 27449, "\u0120University": 2499, "\u0120oversee": 48870, "\u0120diagrams": 21302, "\u0120alt": 6945, "\u010a\u0120\u0120\u0120\u0120\u0120\u0120\u0120\u0120\u0120\u0120\u0120\u0120": 7833, "\u0120urge": 21434, "\u0120told": 2183, "1964": 29639, "\u0120md": 31934, "Resource": 11133, "nuclear": 47745, "\u0120stance": 22567, "\u0120crystal": 9266, "\u0120\u00d1\u0131": 22744, "\u0120\u00c3\u00a2": 25404, "IDENT": 25788, "\u0120Anglo": 33252, "\u0120Initiative": 30314, "start": 5478, "\u0120giv": 1259, "charts": 45945, "\u00c4\u0122": 21070, "\u0120ribs": 28061, "\u0120CHAR": 30752, "marker": 39754, "\u0120reluct": 18249, "\u0120))": 39705, "\u00e2\u0122\u00b2-": 14466, "\u0120fitted": 14662, "chr": 19882, "overview": 39930, "shape": 15721, "termin": 20792, "BY": 15012, "\u0120unim": 32505, "Po": 8816, "hog": 44855, "\u0120foci": 37057, "\u0120mystical": 47955, "\u0120MIC": 29120, "\u0120Tong": 37477, "\u0120reminiscent": 35036, "ers": 398, "\u0120unw": 10357, "\u0120narc": 23328, ".\");": 23715, "292": 27122, "Transaction": 25580, "Studio": 39701, "\u00ce\u00bc\u00ce\u00bf": 40237, "\u0120pointless": 41690, "\u0120sucking": 42296, "\u0120Target": 17661, "GCC": 26173, "\u00c5\u00a3": 13069, "\u0120medicines": 26114, "\u0120Edition": 17897, "\u0120pip": 9196, "\u0120Bailey": 27738, "\u0120Dynamic": 31799, "\u0120wheat": 18173, "Far": 24234, "\u0120camp": 2986, "\u0120discipline": 17518, "uan": 9041, "\u0120bidding": 36698, "\u0120\u00c2\u0142\u00c2\u0142": 10967, "\u0120Live": 14309, "\u0120Weber": 37247, "Fac": 39965, "\u0120medicinal": 34121, "\u0120NY": 10310, "\u0120specs": 41135, "IL": 3077, "\u0120words": 3000, "urrent": 5732, "\u0120protests": 18162, "Ky": 41062, "\u0120Mats": 31999, "\u0120edited": 16168, "w": 88, "Language": 26170, "landers": 39950, "\u0120below": 2708, ".](": 5774, "\u0120GC": 15679, "mul": 31601, "[])": 47093, "\u0120Units": 47623, "\u0120trends": 13554, "Struct": 21772, "\u0120LIABLE": 34745, "\u00c3\u00a8ne": 35080, "skins": 49818, "\u0120Respondents": 43607, "\u0120valign": 34317, "\u0120keys": 10149, "\u0120<": 654, "\u0120testified": 7859, "sime": 13899, "oop": 24318, "\u0120HAL": 31604, "eger": 38142, "edly": 15376, "SOL": 45136, "plicity": 12986, "voir": 37393, "\u0120wa": 5172, "\u0120vamp": 25176, "Hamilton": 44748, "eme": 20867, "curl": 31064, "\u0120cigarettes": 25539, "sche": 9163, "exception": 22558, "./": 11379, "\u0120Julia": 27261, "\u0120Japan": 4047, "FTA": 30262, "ickness": 46113, "\u0120tiss": 3375, "ativa": 35060, "\u0120knew": 3260, "\u0120Values": 23409, "\u0120apply": 4647, "\u0120relevance": 17200, "Sk": 15992, "\u0120exerted": 33916, "\u0120cart": 7281, "inous": 37724, "\u0120Italy": 9972, "Chem": 29845, "endez": 46869, "race": 27679, "\u0120459": 40230, "\u0120trek": 42099, "\u0120\u00ce\u013c": 43666, "cast": 4008, "\u0120plight": 47142, "\u0120WHERE": 17242, "\u0120Lem": 6935, "\u0120catalytic": 19677, "POS": 24413, "F": 39, "\u0120harmed": 44137, "ableView": 38375, "\u0120amorphous": 30831, "enger": 9562, "\u0120approached": 13781, "\u0120tuberculosis": 23669, "\u0120Bund": 26079, "\u0120horn": 17081, "\u0120unsett": 42467, "scrib": 8425, "\u0120Halo": 50067, "\u0120dancing": 18792, "\u0120wreck": 24028, "\u0120benefits": 5373, "\u0120172": 24347, "ajor": 1995, "\u0120cardboard": 40068, "\u0120config": 3596, "\u0120legis": 5634, "ished": 1428, "eve": 20010, "\u0120\u00d0\u00bc\u00d0\u00be\u00d0\u00b6": 30954, "\u0120skal": 34997, "raints": 21462, "\u0120amusement": 36067, "NUMBER": 40804, "\u0120Indy": 49893, "\u0120Years": 20175, "\u0120spine": 17201, "Meta": 23062, "MAT": 15090, "ovir": 34088, "gui": 36961, "\u0120since": 1580, "\u0120flowering": 37958, "\u0120corticoster": 36891, "onym": 7983, "\u0120shots": 13768, "\u00e2\u0122\u0132": 3250, "Servlet": 29293, "urname": 30829, "\u0120needles": 32545, "\u0120commissions": 36662, "ahoma": 15809, "\u0120Questionnaire": 38536, "\u0120darker": 28170, "mmr": 41615, "\u0120Friend": 25845, "\u0120Principal": 34840, "\u0120zum": 30070, "\u0120follower": 47201, "four": 12496, "Desc": 24776, "\u0120accustomed": 30795, "holds": 15532, "\u0120dick": 33702, "\u0120Healthy": 39219, "\u0120dictators": 39710, ":#": 18459, "\u0120simplex": 44053, "\u0120Gener": 15345, "\u0120Dy": 31787, "vate": 35913, "wordpress": 40317, "type": 881, "\u0120NSA": 25120, "Ter": 33878, "\\,": 4615, "\u0120REG": 24068, "\u0120vortex": 25584, "\u00ce\u00bd\u00ce\u00bf": 21027, "\u0120Jake": 23239, "technology": 48786, "\u0120oppressive": 50205, "\u0120180": 12660, "unsigned": 10790, "rile": 25007, "itively": 25785, "206": 18040, "\u0120Aboriginal": 42053, "\u0120Appellants": 27528, "\u0120MM": 16975, "vier": 40714, "\u0120quien": 44311, "\u0120frequency": 4294, "Only": 11564, "\u0120ur": 2936, "\u0120Lieutenant": 22389, "\u01201981": 13402, "\u0120angles": 14636, "immune": 20916, "sha": 20409, "\u0120trophy": 39259, "Invitrogen": 29166, "\u0120__": 4772, "\u0120segu": 32644, "\u0120sten": 24950, "\u0120\u00cf\u0125\u00cf\u0126\u00ce\u00bf": 42191, "088": 42952, "\u0120greater": 3687, "\u0120ing": 6446, "Sim": 4749, "\u0120disc": 1262, "Various": 36744, "\u0120Xi": 36852, "\u0120nude": 30790, "ulla": 26171, "liers": 19139, "Adding": 41350, "\u0120soon": 3517, "transformed": 45088, "planation": 45525, "'s": 434, "\u00d0\u00b5\u00d1\u0124": 7508, "\u0120architects": 38446, "\u0120Rad": 7754, "np": 18650, "minent": 10211, "\u0120disob": 40556, "'?\"": 47186, "\u0120pneumoniae": 36500, "OUP": 21359, "\u0120gr": 650, "\u0120constructive": 25799, "\u0120Lange": 49890, "Volume": 28968, "\u0120noble": 17874, "ik": 1479, "\u0120performing": 9591, "\u0120miss": 2985, "\u0120Fourth": 16650, "\u0120attitudes": 18222, "Hydro": 43798, "\u0120claimant": 23529, "bed": 3026, "\u0120formidable": 36418, "\u0120gun": 5654, "\u0120Calculate": 6762, "\u0120aortic": 22678, "\u0120Priest": 41701, "MR": 6784, "\u0120Morse": 43542, "\u0120Tamil": 34861, "\u0120qualitative": 18276, "Tp": 39422, "posable": 34690, ",{\\": 11400, "\u0120stuck": 10960, "\u0120auch": 18654, "ermo": 48777, "\u0120Kitchen": 31990, "\u00e6\u0138\u0129": 20855, "Our": 6067, "\u0120femin": 19026, "quantity": 47704, "\u0120January": 4247, "\u0120term": 1307, "\u0120remodeling": 27975, "\u0120Lect": 30223, "\u0120Germ": 3323, "\u0120Rain": 21398, "\u0120evidence": 1941, "\u0120Vic": 29876, "\u0120evidentiary": 26800, "accharides": 35679, "\u0120transf": 47415, "sar": 48417, "\u0120reduces": 11355, "cco": 42037, "\u00e1\u00bd\u0132": 43182, "\u0120sqrt": 8084, "Review": 18658, "\u0120ADC": 34026, "\u0120Container": 40684, "\u0120colorful": 30820, "son": 1665, "\u0120prospectively": 44045, "\u0120Python": 13814, "\u0120\u0120\u0120\u0120\u0120\u0120\u0120\u0120\u0120\u0120\u0120\u0120\u0120\u0120\u0120\u0120\u0120\u0120\u0120\u0120\u0120\u0120\u0120\u0120\u0120\u0120\u0120\u0120\u0120\u0120\u0120\u0120\u0120\u0120\u0120\u0120\u0120\u0120\u0120\u0120\u0120\u0120\u0120\u0120\u0120\u0120\u0120\u0120\u0120\u0120\u0120\u0120\u0120\u0120\u0120\u0120\u0120\u0120\u0120\u0120": 25878, "\u0120weeping": 47012, "Do": 4045, "\u0120courts": 7829, "\u0120scholar": 26902, "();": 1874, "\u0120lute": 40118, "estial": 40994, "\u0120transitional": 42933, "\u0120forthcoming": 31196, "\u0120regulated": 13527, "sto": 11769, "drag": 35505, "\u0120erased": 44767, "+^": 12765, "\u0120Result": 22195, "\u0120Chan": 26177, "\u00e3\u0123\u00ae": 3917, "\u0120\"{": 36028, "LET": 38742, "init": 4478, "Are": 6723, "!=": 35495, "\u0120endowed": 39433, "\u00d8\u00a8": 13621, "\u0120ss": 23524, "\u0120deformations": 45989, "\u0120acquiring": 28635, "\u0120celebr": 6615, "kins": 7232, "\u0120fancy": 18612, "wiki": 16123, "utor": 6854, "apps": 28047, "\u0120Ground": 29822, "\u0120biomed": 33379, "avir": 29365, "\u0120councils": 45667, "swick": 39127, "\u0120specialized": 18052, "\u0120lawsuit": 15091, "\u0120beneficiaries": 35029, "biomolecules": 33053, "]--[@": 7254, "\u0120logar": 21953, "\u0120*.": 33481, "FFFF": 15651, "\u0120Notably": 28776, "367": 25140, "idor": 49410, "\u0120gin": 48347, "ef": 832, "\u0120sleeves": 37318, "\u0120hilarious": 37750, "\u0120Political": 23132, "izo": 38585, "\u0120Flex": 34340, "\u0120Sans": 28495, "rangle": 3799, "\u0120proved": 8058, "\u0120concentr": 5078, "\u01201995": 8878, "\u0120NOW": 29659, "\\{\\": 17567, "\u0120privileged": 30082, "486": 27538, "aments": 19491, "\u0120member": 3558, "\u0120resent": 23381, "\u0120Respondent": 21485, "\u0120publishing": 18051, "\u0120islands": 17546, "\u0120ener": 21606, "\u0120pentru": 28618, "\u0120neo": 28522, "\u0120inoculated": 33599, "\u0120Pakistani": 34538, "\u0120unfortunately": 19235, "\u0120Amb": 15889, "potent": 35741, "\u0120mistress": 36285, "\u0120removable": 38109, "Loss": 43228, "iture": 10233, "\u0120dotted": 24817, "\u0120Sew": 39037, "<%": 46762, "\u0120\u00c3\u00bcber": 20150, "\u0120mound": 44507, "\u0120obliter": 47371, "\u0120geometry": 12087, "\u0120dict": 10886, "\u0120charged": 6636, "KI": 34462, "\u0120recycling": 28604, "\u0120ends": 7637, "\u0120Assert": 22265, "________________________________": 16881, "\u0120sun": 5101, "\u0120umbil": 43822, "Fi": 15723, "mut": 10082, "\u00e2\u0122\u0136\u00e2\u0122\u0136": 8465, "\u0120interrupt": 11606, "Enter": 15886, "erring": 24247, "\u0120varchar": 38021, "trigger": 29363, "DELETE": 44285, "\u0120unit": 3943, "\u0120resem": 16188, "-----------------------------------------": 38944, "nes": 5210, "\u0120247": 28875, "\u0120Cast": 9893, "taken": 42533, "\u0120McConnell": 41009, "\u0120Supp": 6023, "System": 7761, "ariju": 12635, "Gradient": 49361, "schild": 50040, "\u0120sea": 6150, "dog": 21428, "\u0120Lord": 6203, "\u0120COMMAND": 19527, "\u0120vacant": 33997, "Asset": 37910, "\u0120fiery": 43620, "\u0120Hu": 16251, "ys": 656, "hip": 1456, "\u00ce\u00bd": 3147, "olog": 862, "\u0120am": 717, "\u0120maint": 2982, "place": 5070, "\u0120triangle": 19037, "bmatrix": 20809, "osa": 6859, "pgen": 15943, "\u0120subject": 2256, "More": 7673, "\u0120280": 22121, "\u0120correlate": 24888, "\\|_": 28876, "roots": 32919, "\u0120digestive": 36013, "ESS": 5479, "region": 17187, "\u0120foreach": 21495, "inctions": 36520, "whe": 18432, "\u0120---------------------------": 32723, "\u0120headaches": 37403, "\u0120Bean": 38102, "\u0120wh": 364, "\u00e1\u00bb\u0133": 39110, "\u0120Premium": 41790, "\u0120prefrontal": 42793, "raj": 43792, "\u0120substances": 15991, "\u0120{#": 1712, "jee": 39101, "OW": 4290, "[@": 683, "ifting": 12545, "rax": 31097, "\u00c2\u0142": 575, "\u00bd": 123, "semb": 4393, "\u0120corresponding": 3969, "ong": 543, "\u0120papers": 9380, "access": 10773, "\u0120betray": 19829, "\u0120VALUES": 20436, "tered": 3606, "rystall": 26674, "\u0120Discovery": 29600, "\u0120blinked": 38449, "\u0120alters": 41077, "Money": 42066, "\u0120shouts": 44974, "\u0120advertise": 46459, "\u0120Quint": 46557, "acetate": 47560, "timer": 26320, "\u0120cultured": 13637, "PHP": 26631, "iplex": 48572, "\u00ed": 169, "action": 1913, "MPL": 45590, "nae": 48918, "\u00c6\u00b0": 23227, "                        ": 50254, "\u0120Shot": 43761, "\u0120favorites": 30740, "\u0120cab": 7674, "\u0120area": 2170, "initis": 46999, "\u0120heap": 26486, "]{}(": 35869, "\u0120~*": 24125, "\u0120signature": 11118, "ader": 6475, "illa": 6077, "155": 15054, "Creating": 40353, "\u0120isoforms": 30246, "\u0120action": 2250, "\u0120Music": 11412, "\u0120wt": 22923, "\u0120substitutions": 35225, "conditional": 35428, "\u0120displaying": 19703, "\u0120kos": 29348, "Managed": 49465, "\u0120electrophoresis": 27273, "\u010a\u010a": 535, "^.": 20225, "positions": 35507, "pend": 16183, "\u0120slack": 37358, "\u0120oddly": 45814, "\u0120ori": 47692, "\u0120features": 3386, "For": 2214, "\u0120responded": 10974, "\u0120dehydrogen": 26427, "\u0120Rogers": 22456, "\u0120nerv": 8507, "\u0120Capitol": 27314, "itably": 20961, "\u0120District": 4412, "Tool": 13285, "\u0120punch": 18750, "\u0120satisfactory": 20297, "verter": 20043, "\u0120Tas": 35203, "\u0120throughout": 4768, "Nothing": 16440, "\u00e0\u00ba": 34556, "ITLE": 43561, "\u0120accelerator": 44420, "}})$": 16996, "\u0120bump": 19496, "nah": 39521, "acycline": 46893, "\u0120cake": 15221, "\u0120clip": 17230, "\u0120bastard": 32199, "\u0120propriet": 41473, "usage": 24483, "ATE": 4966, "\u0120consisting": 11253, "chat": 23481, "PBS": 37000, "inal": 989, "IED": 16577, "One": 4041, "\u0120targeting": 12262, "ance": 593, "Upper": 34252, "aped": 7760, "0007": 19635, "itas": 30126, "861": 38978, "\u0120autres": 43379, "\u0120firefighters": 45399, "ram": 3358, "nia": 15298, "\u0120symbol": 9484, "\u0120zijn": 18949, "\u00e4\u00ba\u012d": 22010, "\u0120Teen": 41673, "orov": 42017, "phone": 6198, "cens": 46874, "153": 16271, "\u0120CHECK": 18342, "orems": 28657, "\u0120clinical": 3382, "\u0120420": 30642, "\u0120stamped": 43407, "funded": 34492, "pool": 10730, "\u0120patriotic": 50174, "ivan": 18064, "\u00c2\u00ab": 12391, "|||PHONE_NUMBER|||": 50278, "alling": 11822, "\u0120drill": 21353, "shadow": 20644, "\u0120accessories": 28234, "chan": 2291, "\u0120Cauchy": 39788, "\u0120BC": 12895, "asaki": 38371, "\u0120increment": 17627, "hey": 26512, "benef": 31891, "century": 9888, "\u0120arrhythm": 38369, "\u00c2\u0122": 9589, "Body": 15163, "bject": 3412, "\u0120upwards": 32372, "\u0120mortar": 39247, "Is": 2513, "\u0120pept": 7653, "\u0120123": 15567, "Anal": 31280, "\u0120arms": 6174, "widetilde": 6796, "\u0120enjoy": 4264, "\u0120earlier": 4321, "327": 20298, "Jose": 27342, "took": 50079, "\u0120coarse": 25319, "Book": 12323, "nea": 21254, "\u0120Schl": 48692, "644": 25959, "\u0120financing": 22599, "\u0120Jensen": 42054, "Louis": 34830, "\u0120cri": 47032, "\u0120Boulevard": 38715, "\u0120cort": 7323, "\u0120TLR": 21575, "\u0120Dayton": 40003, "oting": 5341, "\u0120Win": 12932, "\u0120synthetic": 13506, "\u00c3\u012b": 17483, "otive": 20082, "\u0120steadily": 25060, "168": 13851, "ore": 410, "\u0120movement": 4866, "\u0120sides": 7123, "ottu": 29842, "founder": 31456, "vers": 735, "\u0120NT": 20483, "bul": 9705, "\u0120authorize": 37015, "gid": 38902, "RR": 14253, "\u0120Prim": 14140, "ons": 790, "ift": 2094, "osures": 17867, "ordinate": 18293, "015": 10496, "PSS": 21851, "umar": 22711, "\u0120packet": 13138, "\u0120\\[": 905, "sch": 10629, "\u0120paradigm": 22199, "QR": 18787, "\u0120$-": 9929, "\u0120shear": 19707, "\u0120compatibility": 22862, "\u0120packaging": 18420, "ammed": 15416, "\u010a\u010a\u0120\u0120\u0120\u0120\u0120\u0120\u0120\u0120\u0120\u0120\u0120\u0120\u0120\u0120\u0120\u0120\u0120\u0120\u0120": 19738, "train": 24382, "PL": 3859, "publ": 30146, "\u0120Phosph": 38826, "coll": 14641, "\u0120rewarding": 34975, "phalt": 45302, "\u0120888": 48761, "\u00d0\u00bb\u00d0\u00b5\u00d0\u00bc": 46120, "Construct": 49284, "\u0120weaving": 49840, "jest": 46669, "MHz": 32023, "\u0120perturb": 12230, "\u0120antisense": 45632, "\u0120Doesn": 44205, "\u0120Megan": 45867, "\u0120obese": 21967, "Getty": 24051, "\u01201876": 50074, "\">": 1138, "\u0120licence": 35683, "\u0120Lemma": 8755, "\u0120turbine": 27859, "fold": 8089, "\u0120Picture": 30038, "ener": 4330, "etype": 40427, "\u0120medalists": 45378, "\u0120hailed": 46156, "\u0120sym": 18870, "ardi": 24535, "695": 26541, "onica": 43510, "\u0120Num": 21046, "Pay": 19334, "\u0120PF": 22919, "\u0120preserve": 14003, "\u0120\u00d0\u00b2\u00d1\u0123\u00d0\u00b5": 37975, "\u00e3\u0125\u012d": 40352, "iev": 28017, "\u0120corporations": 18674, "\u0120standalone": 40468, "1971": 25197, "\u0120Statutes": 47654, "\u0120myth": 13296, "\u0120motel": 48551, "\u0120heeft": 32903, "ague": 3611, "\u0120Govern": 5631, "\u0120Portuguese": 26467, "\u01202016": 4022, "\u0120tachy": 38922, "von": 29997, "\u0120royal": 17292, "ifiers": 13783, "\u0120Observer": 46335, "dominal": 43405, "\u0120Malaysian": 48191, "\u0120flatt": 30627, "\u0120loyalty": 22964, "\u0120monkeys": 30552, "\u0120Programme": 35226, "uries": 6465, "\u0120Norway": 20341, "\u0120\u0120\u0120\u0120\u0120\u0120\u0120\u0120\u0120\u0120\u0120\u0120\u0120": 3203, "Rptr": 35386, "\u0120wonderfully": 43713, "\u0120politely": 45646, "\u00d8\u00a7\u00d8\u00b3": 46978, "govern": 48881, "cover": 16484, "nodes": 26451, "uty": 12223, "\u0120partnerships": 31734, "\u0120Monte": 16448, "\u0120exile": 33927, "\u0120Percent": 31396, "\u0120poorly": 15225, "\u0120poor": 4105, "\u0120Huff": 35318, "Going": 39204, "ipro": 39552, "\u0120inertial": 48450, "\u0120atheist": 48621, "\u0120![": 13976, "\u0120Eth": 10570, "\u0120mucosa": 27847, "\u00c3\u00a1m": 30836, "ovan": 22053, "\u0120Brown": 7233, "Tri": 24490, "\u00ec\u00a7": 27750, "\u0120assays": 12277, "/#": 21225, "\u0120invitation": 21558, "anton": 27813, "~~": 2650, "\u0120briefly": 13366, "\u0120doping": 34233, "\u0120^{": 15892, "\u0120combinatorial": 38183, "\u00e7\u00ab\u012d": 41478, "\u0120scarce": 29967, "Description": 11185, "Prof": 44800, "\u0120pornography": 37314, "\u0120Interaction": 48281, "\u0120installer": 33776, "\u0120s\u00c3\u0143": 36185, "\u0120ses": 16517, "\u0120Additional": 14117, "\u0120hat": 7856, "\u0120stops": 14545, "\u0120%}": 23791, "\u0120376": 38516, "\u0120hetero": 50116, "\u0120dz": 33425, "\u0120bolt": 22491, "\u0120verb": 17257, "\u0120traumatic": 27784, "\u0120grass": 10583, "\u0120daunting": 47216, "riad": 32892, "ours": 2108, "\u0120directs": 38554, "\u0120ki": 25130, "eon": 33453, "\u0120259": 30805, "geries": 34527, "\u0120Corps": 17729, "710": 41680, "\u0120ctx": 20921, "AO": 48713, "oplastic": 21945, "FFIR": 25862, "download": 21596, "\u0120deliberate": 24807, "\u0120Movie": 27615, "\u0120slam": 48041, "first": 7053, "\u0120meteor": 31710, "\u0120cash": 7942, "\u0120lin": 19169, "\u0120Goodman": 45770, "\u0120imp": 1607, "ifornia": 4729, "aient": 35493, "\u0120specifications": 23944, "wey": 41285, "\u0120largest": 6253, "minute": 15505, "TYPE": 10560, "\u0120Foods": 36215, "                  ": 50260, "horn": 27721, "\u0120Clean": 24373, "\u0120deprived": 25979, "\u0120burial": 33672, "\u0120triplicate": 34862, "GR": 6217, "\u0120Integr": 17712, "\u0120pulp": 32061, "V": 55, "\u0120transcend": 36237, "^+\\": 37578, "\u0120tubes": 17080, "\u0120tob": 15485, "\u00cf\u012e": 7136, "\u0120carbox": 22236, "\u0120he": 344, "ffffffff": 22518, "wp": 16471, "\u0120Deut": 23441, "\u00e5\u012e": 15899, "?)": 14677, "\u0120constant": 3638, "-)": 16945, "Focus": 26078, "Loc": 16395, "24": 1348, "accharide": 28151, "\u0120starch": 31001, "\u0120\u0120\u0120\u0120\u0120\u0120\u0120\u0120\u0120\u0120\u0120\u0120\u0120\u0120\u0120\u0120\u0120\u0120\u0120\u0120\u0120\u0120\u0120\u0120\u0120\u0120\u0120\u0120\u0120\u0120\u0120\u0120\u0120\u0120\u0120\u0120\u0120\u0120\u0120\u0120\u0120\u0120\u0120\u0120": 15533, "ologies": 5970, "aa": 5781, "\u00e2\u0122\u013f)": 15440, "\u00ce\u0136": 12507, "=\"\"": 20679, "posite": 26343, "\u0120em": 802, "\u0120Vladimir": 31563, "\u0120sensors": 13479, "ocamp": 16313, "\u0120stimulated": 18606, "\u0120dignity": 24027, "\u0120swit": 11857, "}})": 12104, "OU": 2185, "Proto": 36627, "\u00e3\u0124\u012d": 5832, "\u0120Cross": 10547, "\u0120Mer": 7612, "\u0120mankind": 28473, "\u00d9\u0126\u00d9\u012b": 38033, "\u00eb\u00a6\u00ac": 38248, "iano": 10356, "MODULE": 27660, "check": 5903, "\u0120independently": 10939, "\u0120pel": 10065, "\u0120dice": 25807, "Early": 19159, "...\\...\\": 35088, "\u0120acup": 36441, "'\\": 11671, "Gray": 46708, "\u0120reluctant": 27821, "OSE": 34548, "680": 40100, "crystalline": 48256, "\u0120fm": 49555, "\u0120acne": 49656, "\u0120Judiciary": 42591, "Inside": 32277, "\u0120shrine": 45342, "league": 41363, "\u0120electrophys": 44553, "\u0120Cran": 45374, "mem": 6441, "\u0120Eating": 46285, "iser": 9141, "\u0120613": 48726, "\u0120tails": 32936, "\u0120Ming": 46095, "\u0120anyone": 3780, "\u0120apert": 19587, "\u0120phospholip": 31939, "\u0120=>": 3001, "induced": 6367, "\u0120camb": 31801, "the": 783, "met": 3899, "\u0120|\\": 14766, "\u00c3\u00a8": 3539, "BF": 16380, "\u0120perturbations": 26309, "\u0120polished": 29422, "\u0120questionable": 30455, "\u0120Soccer": 35970, "\u0120plea": 12678, "\u0120relying": 22128, "------------------": 22928, "\u0120intrinsic": 15276, "\u0120Laser": 40544, "-$\\": 42929, "\u0120Anglic": 44736, "\u0120furn": 9192, "\u0120\u0120\u0120\u0120\u0120\u0120\u0120\u0120\u0120\u0120\u0120\u0120\u010a\u0120": 44782, "\u0120Fighter": 45398, "\u0120interstellar": 47751, "\u0120pudding": 48409, "iners": 32930, "\u0120Esq": 49286, "vering": 49332, "ractor": 30524, "\u0120Zag": 49524, "FIELD": 32704, "asing": 2355, "sharp": 26440, "\u0120wilder": 29788, "\u0120substit": 10829, "\u0120restore": 15042, "GPL": 44335, "aptop": 48013, "\u0120possess": 7081, "(:": 20805, "!\\": 18083, "\u0120contains": 4428, "phrase": 40712, "\u0120IS": 4110, "\u0120Frank": 6893, "\u0120CYP": 27987, "chunk": 33461, "\u010a\u010a\u0120\u0120\u0120\u0120\u0120\u0120\u0120\u0120\u0120\u0120\u0120\u0120\u0120": 31072, "\u0120compare": 7277, "\u0120having": 1907, "\u0120dialect": 28282, "\u0120contrad": 10435, "\u0120foreground": 35936, "\u0120cylinders": 37025, "\u0120bree": 20831, "ivity": 2351, "Rows": 27500, "\u00d0\u00b8\u00d1\u0123": 17307, "\u0120NH": 18020, "\u0120Mood": 36189, "\u0120narratives": 39062, "satellite": 46079, "\u0120Har": 3972, "\u0120ApJ": 23719, "esides": 11587, "onucle": 18135, "\u00d0\u00bd\u00d1\u012d\u00d0\u00bc": 36922, "\u0120overhaul": 46626, "\u0120doubtless": 49654, "\u0120Cambridge": 11988, "\u0120notification": 19313, "\u0120childhood": 11948, "\u0120car": 1113, "\u0120tablespoons": 18850, "598": 37687, "\u0120separation": 9712, "review": 15337, "\u013e": 239, "ificate": 10735, "faster": 27032, "otor": 17894, "emphasis": 18532, "\u0120rode": 22461, "\u0120creation": 8869, "\u0120she": 703, "\u0120absolute": 7880, "\u0120skill": 10861, "**.": 12530, "\u0120driving": 6276, "margin": 15456, "\u0120Change": 15836, "ICATION": 24352, "\u0120msg": 14441, "\u0120towers": 27731, "cord": 29711, "\u0120memorandum": 29745, "\u0120Haus": 30483, "\u0120Controller": 31555, "908": 33648, "\u0120\u00c2\u00bc": 36444, "confidence": 39943, "863": 39948, "\u0120aerosol": 41580, "\u0120workspace": 43350, "owl": 29973, "\u00d0\u00b5\u00d0\u00ba": 14742, "\u0120pumpkin": 43818, "\u0120unsaturated": 45833, "\u0120Fortune": 43063, "\u0120Desktop": 45946, "idepress": 32013, "\u0120amenable": 42133, "WAYS": 46651, "transcript": 49223, "\u0120pending": 13910, "\u0120ALS": 38410, "\u0120hell": 7085, "\u0120Mario": 27264, "\u0120Maxim": 47635, "geons": 49485, "ASH": 14194, "\u0120atrophy": 34512, "\u0120miscar": 43725, "vec": 4642, "BG": 21279, "th": 394, "\u0120shortages": 46163, "\u0120Ethical": 46665, "package": 10708, "\u0120contends": 12148, "/((": 29651, "\u0120Coffee": 33753, "\u0120volunteers": 15986, "\u0120dummy": 28726, "\u0120VE": 16197, "\u0120cout": 31374, "perse": 43292, "\u0120Breast": 41046, "\u0120blinding": 49167, "completely": 43665, "\u0120catal": 6310, "\u0120Syria": 12728, "\u00c5\u00a1": 7326, "\u0120Fab": 17287, "\u0120GFP": 17578, "\u0120droplet": 36131, "\u0120salaries": 32510, "\u0120FAM": 45638, "\u00c3\u0125\u00c3\u0124\u00c3\u0125\u00c3\u0124\u00c3\u0125\u00c3\u0124\u00c3\u0125\u00c3\u0124": 26868, "\u0120Debt": 16494, "ask": 1945, "\u0120hal": 7905, "\u0120depleted": 33661, "\u0120propensity": 33882, "\u0120bs": 48996, "\u0120lacking": 14999, "iero": 29568, "\u0120nearest": 5275, "duced": 23747, "//!": 39481, "\u0120coupling": 8789, "\u00d0\u00be\u00d0\u00b3\u00d0\u00be": 15147, "\u0120capric": 43636, "Br": 8478, "\u0120folded": 20618, "\u0120Fac": 16035, "\u00e7\u00a5": 37769, "\u0120tut": 17846, "resholds": 25316, "Hook": 40568, "\u0120SYSTEM": 47095, "}(": 1603, "\u0120flo": 9071, "\u0120nombre": 31168, "RN": 39290, "onium": 37583, "Everything": 22242, "\u0120bed": 3722, "\u00e2\u0122\u013f,": 7521, "\u0120134": 13900, "\u0133": 228, "\u0120advocacy": 28572, "\u0120distinguishes": 44587, "toxins": 28838, "\u0120therap": 12489, "\u0120joining": 14167, "\u0120noises": 33737, "\u010d\u010a\u0120\u0120\u0120\u0120\u0120\u0120\u0120\u0120": 33235, "\u00da\u00af": 40134, "ATING": 42284, "\u0120elegans": 44984, "\u0120appears": 4620, "qq": 19084, "                    ": 50258, "\u0120Revised": 50240, "\u0120conflic": 11603, "uming": 14583, ">>>": 17636, "ibular": 27186, "kappa": 6165, "\u0120RNAs": 31719, "\\'": 4479, "\u00c2\u0124": 8381, "\u0120Tables": 30136, "\u0120fus": 35652, "\u0120}(": 37199, "oyer": 37674, "\u0120legislature": 18818, "%(": 46217, "\u0120ser\u00c3\u00a1": 46240, "\u0120antiqu": 47160, "\u0120sleek": 47115, "\u0120gen": 730, "\u0120stern": 24701, "\u01201984": 12459, "\u0120remind": 9287, "011": 13925, "MA": 3788, "fa": 6855, "\u0120\u00e0\u00a4\u00b8": 33465, "\u0120framing": 39926, "ider": 1334, "\u0120rearr": 23690, "approximately": 36344, "MV": 31060, "\u00d0\u00b5\u00d1\u0122": 7029, "\u00e4\u00b8\u0130": 40564, "\u0120Jamaica": 41198, "\u0120Proposition": 11506, "\u0120masc": 43796, "\u0120autumn": 25986, "\u0120properly": 6283, "\u0120dreamed": 33305, "\u0120piles": 41019, "\u0120tf": 28793, "either": 26597, "\u00d1\u0123\u00d1\u0131": 12587, "\u00e7\u00ae": 25541, "uest": 34401, "license": 21997, "\u0120Miles": 29761, "\u0120listings": 32985, "Decode": 46057, "\u0120cred": 3552, "fd": 9194, "\u0120Hon": 10916, "erie": 24763, "rich": 5969, "\u0120union": 8083, "\u0120hospit": 11469, "\u0120Event": 11846, "Among": 19799, "\u0120Riemann": 25571, "\u0120prolifer": 26767, "\u0120Southern": 10586, "\u0120Import": 16912, "Byte": 19117, "1982": 17103, "rv": 23667, "\u0120distinctly": 33048, "transaction": 35238, "emption": 22615, "\u0120Marines": 34913, "\u0120Pay": 12286, "Cert": 23940, "Numer": 36442, "\u0120zeal": 42939, "\u0120Panama": 37783, "\u0120Fragment": 43901, "\u0120stain": 17996, "\u0120adapter": 23675, "CSI": 45068, "\u0120empire": 20986, "\u0120constitutive": 39934, "\u0120indis": 47531, "AND": 5543, "res": 373, "reading": 24042, "\u00e3\u0124\u0126": 21918, "ierno": 40820, "}^{+": 25135, "\u0120lig": 8405, "\u0120assembling": 44015, "\u010a\u00c2\u0142\u00c2\u0142": 39318, "\u0120GPU": 24720, "Org": 43129, "\u0120Dell": 36938, "\u00e3\u0123\u0135": 10446, "\u0120worm": 28384, "\u0120Hannah": 28518, "ARG": 24584, "--\"": 26836, "\u0120undo": 42137, "\u010a\u010a\u0120\u0120\u0120\u0120\u0120\u0120\u0120\u0120\u0120\u0120\u0120\u0120\u0120\u0120\u0120\u0120\u0120": 50133, "\u0120hath": 29272, "-------------------": 23796, "Bug": 45857, "\u00d1\u012d\u00d1\u0127": 46070, "\u0120artwork": 28227, "lasses": 38330, "\u0120lav": 22874, "delim": 21694, "\u0120audi": 41174, "\u0120protagon": 30224, "\u0120ordering": 15824, "\u0120Saudi": 16158, "\u0120pool": 6363, "\u0120jQuery": 19386, "\u0120winter": 8986, "\u00e5\u0131\u012c": 40658, "\u0120plunge": 46894, "\u0120pub": 13384, "\u0120pregn": 6632, "Block": 11144, "\u0120Experiments": 38166, "documents": 47878, "\u0120deve": 34344, "\u0120Stevens": 22801, "\u0120generosity": 42548, "\u0120Salt": 23790, "OutputStream": 35722, "\u0120Eden": 36220, "\u0120Millenn": 42808, "universal": 40601, "\u0120troublesome": 45991, "\u0120cripp": 35956, "very": 635, "Footnote": 41370, "rir": 42061, "\u0120association": 5864, "\u00d1\u0125\u00d1\u0130": 26199, "\u0120return": 1091, "\u0120MTV": 49244, "agmatic": 36773, "rency": 7549, "\u0120Golf": 32154, "fon": 35626, "jobs": 44144, "\u0120inductive": 42115, "\u0120composers": 43039, "\u0120prosper": 20464, "\u0120100": 2233, "\u0120constituted": 19419, "******": 27591, "\u0120sentiments": 39236, "etto": 42136, "drop": 12233, "\u0120701": 45333, "487": 30910, "Dict": 38592, "539": 32941, "Import": 19206, "rz": 38852, "\u0120List": 5552, "CAR": 25595, "\u0120Technologies": 20174, "\u0120living": 3811, "unes": 14124, "\u0120deemed": 14320, "ERR": 8015, "\u0120horizon": 16892, "benz": 24865, "Angle": 42245, "\u0120Copenhagen": 40892, "\u0120neuropathy": 44268, "Derived": 48300, "\u0120crystall": 14666, "\u0120cooked": 18621, "\u0120Web": 7066, "\u0120concaten": 32147, "enant": 23134, "\u0120Bil": 34445, "\u0120dissoci": 38433, "\u0120Approximately": 36242, "owned": 15280, "\u00e3\u0125\u00bc\u00e3\u0125": 12448, "\u0120forb": 17163, "\u0120admiration": 35746, "\u0120Honorable": 37067, "\u0120marry": 17129, "\u0120decree": 21356, "\u0120governed": 17886, "\u0120located": 4441, "ema": 8895, "programming": 38170, "istes": 50197, "\u0120anticip": 10437, "\u0120271": 32855, "\u0120Knock": 47480, "\u0120Paulo": 31138, "\u0120impress": 21097, "\u0120sarcoma": 45928, "elsen": 46323, "\u0120developed": 3715, "izes": 4219, "\u0120Table": 5270, "\u0120Poisson": 24513, "\u0120Mak": 26792, "\u0120draw": 3812, "oons": 16954, "\u0120Lal": 48877, "\u0120ambassador": 27178, "\u0120sister": 7586, "isf": 3042, "\u0120divorced": 32806, "\u0120joint": 6036, "Joint": 47212, "===============": 19557, "seg": 26931, "\u0120Jiang": 37818, "\u0120Hope": 15541, "psy": 19060, "\u0120nominated": 25546, "aths": 48193, "346": 26140, "icht": 11014, "ously": 4087, "\u0120Medium": 31123, "\u0120devotion": 34537, "\u0120evaporation": 35921, "\u0120breathed": 39085, ">{{": 49884, "Get": 3633, "\u0120Din": 34511, "\u0120Yugoslav": 40787, "\u0120displays": 12646, "represented": 33174, "bellum": 38569, "Choose": 37923, "ove": 710, "Legal": 49883, "\u0120apologize": 26012, "\u0120herself": 5972, "860": 48294, "\u0120bloss": 33620, "\u0120overt": 19486, "Seq": 22643, "\u0120fprintf": 43164, "itors": 5109, "Er": 21419, "\u0120Raymond": 29936, "\u0120135": 13620, "html": 2974, "\u0120Dev": 8397, "\u0120statistic": 26312, "\u0120repay": 29216, "erca": 39987, "\u0120Bradford": 36890, "recip": 19977, "\u0120preacher": 50146, "\u0120Loc": 18771, "\u0120ambulance": 32686, "\u0120emphas": 10251, "\u0120modal": 30771, "aim": 1468, "shi": 41386, "\u0120BG": 40126, "owing": 23581, "black": 11958, "\u0120BytePtrFromString": 42010, "\u012013": 2145, "\u0120assess": 2939, "\u0120alleged": 5575, "otide": 12281, "\u0120divergence": 23279, "\u00e4\u00b8\u0122": 9850, "\u0120125": 11140, "\u0120acres": 20046, "\u0120permitting": 27382, "\u0120maybe": 5046, "\u0120estimate": 6642, "mil": 22009, "\u0120Og": 29256, "istine": 36886, "\u0120Galactic": 28848, "\u0120individuals": 4292, "\u00e7\u0136\u00a8": 12335, "ribute": 3337, "\u0120Kennedy": 16598, "\u0120eyes": 2927, "\u0120positives": 37865, "\u0120esp": 17985, "inse": 38424, "ohan": 42874, "abbath": 44872, "crit": 24913, "\u0120decomposed": 45765, "649": 26937, "\u0120business": 2136, "\u0120excurs": 37390, "\u0120surreal": 46172, "nament": 10749, "orsche": 47030, "\u0120newer": 21629, "\u0120subclass": 35851, "\u0120acquittal": 49207, "\u0120sitting": 7063, "\u0120Positive": 29071, "\u0120faced": 11372, "\u0120stuffed": 30040, "\u0120temporal": 11935, "\u0120Soci": 33962, "\u00e2\u0122\u00a6": 2866, "oblastoma": 36867, "\u00e5\u00bf\u0125": 36644, "\u0120Adri": 47829, "\u0120lodged": 45678, "\u00e3\u0122\u0122": 19409, "sol": 18989, "strand": 35559, "\u0120Looks": 44357, "\u0120Appellee": 22706, "Build": 10987, "\u0120outward": 22684, "\u0120Jer": 5633, "Appellee": 28107, "ishing": 3647, "\u0120comun": 31365, "ap": 522, "\u0120modalities": 33433, "fatal": 48901, "\u0120doubt": 5545, "auge": 9789, "\u0120worthy": 18338, "Framework": 26819, "Govern": 47795, "\u0120dtype": 47985, "enderer": 31676, "\u0120Dismiss": 40703, "\u0120grocery": 25633, "ordered": 16586, "metics": 46682, "\u0120scrap": 18572, "\u0120per": 591, "entered": 49601, "select": 7135, "eral": 1560, "area": 12879, "\u0120trap": 15464, "\u01201966": 19213, "221": 20735, "\u0120narrative": 14511, "\u0120mile": 13915, "\u0120USC": 41268, "\u0120internationally": 29549, "\u0120Order": 9700, "icions": 43436, "\u0120ECG": 36958, "526": 46514, "572": 42763, "Sand": 31515, "attered": 12376, "\u0120entrepreneurs": 30440, "\u0120sme": 47993, "Generated": 33527, "\u0120breaks": 13471, "\u012e": 223, "Manager": 8224, "\u0120Chap": 17235, "abolic": 20038, "Screen": 22249, "\u0120degener": 25273, "codec": 29786, "\u0120psychologist": 35085, "\u0120unintended": 46504, "MBOL": 43830, "\u0120capacitors": 45036, "\u0120\"./": 49173, "\u0120NW": 26622, "7554": 49565, "\u0120situation": 4112, "breaking": 22071, "\u0120rival": 16136, "afa": 37124, "\u0120governmental": 24715, "ceedings": 22868, "istas": 25448, "\u0120satellite": 15109, "ordin": 29664, "ella": 5021, "\u0120dresses": 32724, "\u0120believer": 44715, "\u0120csv": 43153, "\u0120Scheme": 38339, "\u0120bacterium": 42207, "lbrace": 44537, "...]": 23781, "someone": 48472, "\u0120Player": 20929, "\u0120dealing": 10620, "\u0120Kyle": 25856, "ivariable": 39366, "Apparently": 40942, "\u0120states": 3054, "atrix": 28491, "\u0120NB": 34521, "\u0120palms": 38101, "\u0120Certificate": 39711, "athione": 30493, "\u0120hangs": 37778, "\u0120\u00d8": 4954, "\u0120Buzz": 39959, "\u0120bags": 15284, "\u0120Nil": 45828, "\u0120wafers": 49759, "Service": 7456, "\u0120darkness": 13862, "\u0120BOOST": 10807, "\u0120Bu": 11262, "\u0120'$": 34912, "\u0120molecule": 12570, "\u0120tame": 49612, "oplus": 11613, "\u0120destinations": 31684, "Hold": 26521, "ividual": 1958, "orect": 20149, "Origin": 34478, "\u0120grilled": 46342, "\u0120filtered": 18748, "\u0120nice": 5322, "\u0120GENER": 17666, "TL": 14135, "Kal": 40917, "psis": 26633, "MOV": 40498, "\u0120closing": 11196, "\u0120AML": 34653, "Fried": 48259, "\u0120sparse": 23507, "ign": 525, "\u0120eq": 16186, "\u0120spelling": 33797, "\u0120experien": 4298, "\u0120equival": 5217, "\u0120Advanced": 21798, "\u0120newborn": 23066, "\u0120Chuck": 26419, "\u0120skeleton": 29564, "\u00e3\u0125\u00bc\u00e3\u0125\u012a": 42364, "Meet": 46785, "\u0120partnership": 11696, "\u0120supplemented": 19079, "intendent": 28030, "\u0120wird": 23905, "odor": 36155, "\u0120HY": 47150, "ue": 489, "\u00e9\u013b\u0132": 48889, "ahan": 23509, "yon": 22267, "\u0120Connect": 29562, "\u0120unlocked": 37572, "\u00c3\u00aame": 17476, "\u0120ker": 20017, "\u0120Collins": 20146, "\u0120Association": 7115, ";\"><": 30863, "\u0120princip": 6980, "ime": 553, "\u0120Ned": 34213, "endif": 7287, "lines": 8737, "\u0120controversial": 15620, "san": 26125, "443": 28871, "footer": 28497, "TO": 7058, "\u0120xe": 12762, "?\u00e2\u0122\u013f": 7721, "bye": 17034, "\u0120wedge": 33906, "\u0120sandwiches": 37105, "\u0120insistence": 45095, "assen": 38740, "<|padding|>": 1, "\u0120Okay": 19619, "elta": 1862, "\u0120interrupted": 21018, "\u0120Allen": 14272, "renn": 32634, "872": 41493, "vx": 43563, "Eric": 37376, "\u0120explanations": 22909, "\u0120gonad": 50138, "\u00e3\u0123\u00a6\u00e3\u0123\u0126\u00e3\u0123\u00be\u00e3\u0123\u013b": 47169, "Mel": 23021, "\u0120labels": 13301, "twitter": 16705, "\u0120manners": 34323, "\u0120mounts": 47001, "410": 30889, "ibraries": 11569, "\u0120abelian": 31106, "\u0120brilliant": 15925, "\u0120hopes": 13079, "parameter": 19484, "\u0120ware": 20784, "\u0120Special": 10396, "\u0120Jac": 9808, "\u0120progen": 18076, "\u0120prog": 23995, "\u0120consc": 7354, "ostream": 33203, "\u0120hen": 23394, "\u0120whilst": 16682, "\u0120\"@": 34683, "\u0120coagulation": 35881, "commerce": 32248, "Cons": 9323, "\u0120tensor": 13148, "\u0120singularity": 30179, "\u0120WIN": 36410, "\u0120PAT": 36224, "KC": 39089, "\u00d0\u0137": 41086, "\u0120comeback": 41759, "\u0120combine": 13398, "\u0120Islamic": 13281, "ennis": 13659, "tool": 19210, "inta": 39078, "\u0120associative": 42162, "gni": 45524, "\u0120overlaps": 47685, "Names": 14090, "Exchange": 49241, "\u0120attracts": 45465, "\u0120common": 1846, "\u0120Each": 5815, "\u0120Secret": 7743, "1965": 28403, "tasks": 40480, "\u0120has": 556, "\u0120const": 1030, "110": 7749, "\u0120h\u00c3\u00a4n": 39939, "\u0120Gamb": 41425, "KES": 46009, "NOTES": 24963, "ici": 12706, "\u0120bon": 10163, "]_{": 35830, "\u0120obstacle": 26982, "\u0120final": 2457, "}}\\,": 28503, "\u0120Pag": 40670, "\u0120balloons": 50210, "\u0120Process": 12639, "velope": 15209, "\u0120)\\": 32860, "\u0120savage": 40810, "ometimes": 9057, "\u0120Golden": 15790, "\u0120settlements": 27885, "\u0120scandal": 20565, "\u0120loot": 41045, "\u0120trucks": 21510, "\u0120ribosomal": 40867, "\u0120complication": 23950, "SHA": 23855, "\u0120Lecture": 49090, "parison": 13530, "\u0120DAT": 41424, "\u0120loyal": 14211, "\u0120Saskatchewan": 49500, "yg": 11550, "Pr": 6140, "\u0120Leban": 22514, "\u0120\u00ec\u0140\u012a": 44799, "\u0120Wis": 12051, "instr": 32548, "Roy": 35906, "\u0120eyed": 46993, "Release": 18992, "\u00d0\u00b8\u00d0\u00b4": 24368, "\u0120matter": 2647, "\u0120accusations": 29672, "}}_{\\": 14024, "257": 21553, "atches": 32358, "\u0120Tigers": 33572, "\u0120BN": 35602, "\u0120cheerful": 39567, "\u0120seals": 35164, "\u0120devise": 45018, "hedron": 45938, "']['": 34368, "\u0120Tat": 28887, "finite": 35161, "alert": 26544, "ustomed": 28048, "\u0120TCP": 28371, "\u0120Astronomy": 45979, "\u0120general": 2087, "\u0120projections": 20553, "\u0120equation": 5150, "952": 39621, "\u0120AUC": 30728, "\u0120Iv": 34784, "posted": 50096, "Un": 2447, "bsd": 45005, "\u0120described": 2529, "\u0120traged": 20063, "\u0120superficial": 28019, "lining": 30927, "\u0120hemisphere": 32660, "\u0120Electrical": 42065, "BK": 46235, "\u0120covariant": 43359, "\u0120People": 6491, "\u0120bones": 14910, "\u00cf\u0123\u00ce\u00b7": 44206, "\u0120Alto": 46317, "\u00e7\u013c": 5138, "\u0120investment": 8149, "Wa": 46725, "\u0120overlooked": 28849, "\u0120\u0120\u0120\u0120\u0120\u0120\u0120\u0120\u0120\u0120\u0120\u0120\u0120\u0120\u0120\u0120\u0120\u0120\u0120\u0120\u0120\u0120\u0120\u0120\u0120\u0120\u0120\u0120\u0120\u0120\u0120\u0120\u0120\u0120\u0120\u0120\u0120\u0120\u0120\u0120\u0120\u0120\u0120\u0120\u0120\u0120\u0120\u0120\u0120\u0120\u0120\u0120\u0120\u0120": 24356, "\u0120Whereas": 28681, "instance": 14966, "\u0120poised": 39654, "\u0120NCBI": 47222, "Gr": 3594, "\u0120Alice": 16922, "\u0120jaw": 21065, "\u0120waar": 39964, "Facebook": 25116, "\u0120attraction": 21779, "\u0120historical": 9493, "resolve": 31327, "\u0120patches": 20412, "\u0120baked": 30363, "\u0120252": 28485, "otherwise": 32240, "inity": 5953, "\u0120Vent": 23780, "\u0120confidence": 7162, ")*-": 14895, "\u0120Championships": 23004, "\u0120layered": 36910, "quart": 25315, "iff": 1648, "\u0120tresp": 40209, "nement": 34711, "\u0120fals": 21649, "\u0120criterion": 17705, "\u0120questioning": 20501, "\u0120controls": 5760, "\u0120Mach": 20310, "\u0120\u00c3\u0133": 22520, "ardon": 22628, "ging": 3390, "PER": 10810, "325": 25472, "\u0120proofs": 27947, "\u0120AZ": 30874, "\u0120suggestive": 32717, "\u0120Species": 36983, "\u0120sludge": 42759, "DESC": 42941, "\u00e5\u012f\u0137": 44006, "\u0120surviv": 14229, "\u0120Def": 3366, "different": 19623, "va": 6156, "\u0120ainda": 41629, "%)": 2673, "\u00e2\u0122\u00a6]": 20095, "igger": 16046, "\u0120vectors": 11390, "Shader": 38031, "\u0120brute": 45294, "toos": 48809, "Cli": 49452, "\u0120roadway": 50159, "ub": 538, "\u0120infant": 13131, "----": 315, "\u00be": 124, "adjoint": 44121, "arlier": 21551, "\u0120drain": 12657, "\u0120appropriately": 20420, "\u0120drafts": 42000, "bolt": 45296, "\u00e9\u013e\u0122\u00e8\u00a6\u0123": 47905, "\u0120CONCLUSION": 49950, "Soviet": 49623, "nod": 41933, "registered": 41846, "\u0120searched": 16113, "\u0120Differential": 38160, "\u0120personalities": 34514, "\u00e3\u0125\u00b3\u00e3\u0125": 25558, "\u0120monetary": 22669, "Mail": 29594, "\u0120blurred": 44042, "\u0120cage": 22133, "\u0120bureaucracy": 48356, "Rather": 42031, "\u0120480": 25888, "\u0120numerous": 7418, "\u0120277": 28043, "\u0120carboh": 21742, "\u0120stric": 34614, "testing": 19462, "\u0120attempted": 9919, "argument": 24058, "\u0120unlimited": 25470, "\u0120deter": 25615, "\u0120RAD": 38026, "bb": 4482, "flo": 40591, "isex": 39549, "uchar": 38130, "\u0120exponents": 41025, "zyme": 23682, "\u0120incidence": 9364, "momentum": 42647, "Military": 42531, "\u0120Guarant": 43646, "\u0120gcc": 42667, "nested": 47628, "\u0120afore": 17804, "\u0120fibroblast": 39044, "-'": 48530, "obacter": 13385, "\u0120****,": 25030, "\u0120preach": 49383, "\u0120organis": 49717, "ortic": 15230, "\u0120carn": 27771, "\u0120802": 32440, "\u0120Up": 5863, "rev": 15079, "Mod": 4120, "\u0120activ": 1396, "\u0120cut": 2624, "\u0120ci": 16399, "\u0120\u00ec\u013f": 35305, "\u0120mains": 39047, "included": 44247, "X": 57, "\u00c3\u00a8me": 22722, "pher": 20640, "\u0120110": 9199, "ran": 4011, "\u00e3\u0123\u0139\u00e3\u0123\u00be\u00e3\u0123\u013b": 42075, "dropdown": 29633, "\u0120hygiene": 32931, "\u0120spend": 6947, "\u0120accum": 7358, "arers": 44798, "inical": 9641, "\u0120actually": 2686, "\u0120sn": 3802, "box": 3364, "\u0120com": 389, "gypt": 9565, "\u0120decor": 11482, "\u0120antibiotics": 18042, "\u0120incentive": 25275, "1371": 26088, "\u0120touchdowns": 38029, "ultz": 38085, "Hay": 33972, "\u0120\u0120\u0120\u0120\u0120\u0120\u0120\u0120\u0120\u0120\u0120\u0120\u0120\u0120\u0120\u0120\u0120\u0120\u0120\u0120\u0120\u0120\u0120\u0120\u0120\u0120\u0120\u0120\u0120\u0120\u0120\u0120\u0120\u0120\u0120\u0120\u0120\u0120\u0120\u0120\u0120\u0120\u0120\u0120\u0120\u0120\u0120\u0120\u0120\u0120\u0120\u0120\u0120\u0120\u0120": 23913, "\u0120534": 40730, "\u0120touching": 19883, ";|": 45599, "abar": 47718, "\u0120G\u00c3\u00b6": 48337, "\u0120point": 1127, "JR": 30784, "\u0120Piet": 48961, "Think": 26068, "\u0120fabricated": 26493, "ead": 1455, "\u0120seeds": 12922, "}%": 26172, "\u0120Kosovo": 48863, "\u0120Ark": 14012, "\u0120overse": 18182, "\u0120ethyl": 30097, "erge": 15811, "\u0120eager": 15211, "percent": 25250, "\u0120hemoglobin": 30242, "\u0120classifier": 30410, "\u00e4\u00b8\u012c": 16740, "\u0120Reserved": 32997, "OFFSET": 33441, "\u0120Recent": 19863, "\u0120med": 1129, "includes": 30076, "\u0120Proceedings": 31298, "\u0120tier": 30625, "brities": 34174, "\u0120emulsion": 39093, "\u0120disciplines": 32870, "\u0120fort": 7574, "\u0120bureaucr": 28090, "\u010d\u010d\u0120\u0120\u0120\u0120\u0120\u0120\u0120\u0120\u0120": 41499, "\u0120Search": 14736, "\u0120highly": 4122, "FORM": 24358, "\u0120powders": 46697, "\u0120comp": 509, "\u0120nursing": 15929, "\u012a": 219, "\u0120CP": 13874, "\u0120Exp": 17702, "\u0120programs": 5659, "Kam": 41191, "\u0120abund": 7735, "\u0120i\u00c3\u00a7": 48553, "\u0120diving": 33058, "\u0120ambition": 30385, "tion": 19606, "awks": 44685, "\u0120205": 22750, "Inte": 12782, "ogenous": 11426, "\u0120Urban": 24517, "\u0120Charl": 22200, "intent": 30699, "\u0120theory": 3762, "\u0120subset": 8578, "enum": 14379, "\u0120Scar": 26709, "ului": 27472, "udad": 35813, "\u0120quarant": 41165, "\u0120Split": 43531, "\u00e6\u00ae": 33369, "Song": 41296, "\u0120moves": 9727, "\u0120untouched": 48976, "eterm": 13109, "\u0120Wrest": 37839, "Anna": 40805, "\u0120claims": 3916, "\u0120Ca": 6047, "shaped": 13824, "ousing": 19315, "\u0120metadata": 21464, "zu": 24069, "lew": 47989, "Harris": 46593, "\u0120YORK": 44138, "flash": 33390, "\u0120miniature": 36232, "^{(": 4932, "\u0120sediment": 26556, "\u0120opted": 33549, "peptide": 42387, "\u0120cups": 15107, "\u0120Patrick": 15435, "modes": 45949, "\u0120Lilly": 46612, "\u0120Ward": 18730, "\u0120547": 41055, "\u0120hacker": 48109, "\u0120tops": 27164, "\u010d\u010a\u0120\u0120\u0120\u0120\u0120\u0120\u0120\u0120\u0120\u0120\u0120\u0120\u0120": 38411, "merce": 13672, "pat": 4066, "inez": 24063, "dry": 36765, "\u0120Res": 2213, "From": 4509, "mol": 17071, "\u0120favourite": 18069, "\u00e3\u0124\u00a7": 47760, "\u0120Whe": 13274, "fig": 926, "\u0120Castro": 34192, "\u0120cationic": 45034, "\u0120un": 440, "\u0120debates": 27155, "poon": 21880, "\u0120Niger": 32345, "inode": 27592, "States": 27121, "Qaeda": 46918, "HU": 26809, "\u0120ass": 718, "\u0120color": 3295, "\u0120trafficking": 22003, "paths": 34605, "\u0120contrib": 43608, "integer": 18743, "c": 68, "\u0120profit": 11528, "\u0120esper": 35656, "My": 3220, "dev": 3620, "\u0120();": 36117, "*-*": 40291, "\u0120Vector": 17811, "Url": 13636, "\u0120\u0120\u0120\u0120\u0120\u0120\u0120\u0120\u0120\u0120\u0120\u0120\u0120\u0120\u0120\u0120\u0120\u0120\u0120\u0120\u0120\u0120\u0120\u0120\u0120\u0120\u0120\u0120": 9219, "\u0120forgive": 23697, "word": 3418, "rial": 3760, "\u0120hemisp": 25100, "\u0120census": 20740, "Case": 11247, "lag": 14293, "umor": 15502, "\u0120Cape": 20904, "\u0120torsion": 32266, "daughter": 33475, "\u0120Glu": 35850, "raiser": 40902, "\u00c5\u00bce": 46666, "\u0120COMPANY": 40441, "\u0120scrutin": 43668, "ibaba": 48748, "defense": 29337, "\u0120salon": 48574, "\u0120photograph": 10440, "\u0120Studios": 28359, "\u0120bounded": 11542, "\u0120swo": 35983, "intensive": 47986, "\u0120telling": 7746, "\u0120increases": 5459, "=\"_": 23604, "ni": 8311, "cous": 32633, "\u00e5\u00a4\u013c": 24899, "Remote": 32842, "imum": 2751, "\u0120legendary": 25893, "\u0120tunnels": 37285, "\u0120NI": 41177, "\u0120approaches": 7274, "umbled": 16630, "Icon": 19877, "\u0120clearer": 30909, "Ash": 35769, "\u0120Contents": 40604, "\u0120groove": 27444, "white": 11300, "aryl": 31271, "\u0120prerequ": 31341, "\u0120cement": 19165, "\u0120diaphragm": 34622, "jsp": 42717, "\u00d1\u0124\u00d0\u00b8": 43811, "ffen": 46756, "LEVEL": 36868, "\u0120Cleveland": 19802, "\u0120Lucky": 45023, "17": 1166, "idi": 13535, "\u0120River": 7121, "\u0120orbits": 24679, "attery": 27263, "\u0120BBB": 46862, "\u0120void": 2991, "\u0120loser": 48222, "\u0120actress": 20453, "\u0120hall": 7423, "urop": 8177, "\u0120dump": 13725, "\u00e7\u013d\u00ae": 28154, "\u0120appellees": 34443, "\u0120Child": 8347, "Roche": 40375, "leaf": 26342, "uffled": 31377, "059": 30479, "\u0120Exhibit": 33072, "\u0120Writer": 40671, "oxyl": 35868, "\u0120forbidden": 25415, "Bul": 36068, "kick": 44568, "\u0122": 211, "\u0120sermon": 46040, "\u0120treat": 1555, "\u0120foreseeable": 44671, "til": 1343, "\u0120suggestions": 13991, "']);": 34419, "\u0120apoptosis": 10596, "\u0120chang": 1683, "\u0120formatted": 39113, "Application": 12332, "\u0120infra": 16414, "\u0120Maj": 18410, "\u0120himself": 2994, "According": 7130, "\u0120\u00c4\u012f": 23263, "\u0120autism": 27734, "\u0120ammonium": 33322, "due": 21848, "****************": 3704, "\u0120hmm": 34746, "\u0120SCI": 36579, "\u0120Ernest": 40879, "\\(": 22229, "\u0120\u00f0\u0141\u013a": 49042, "ECT": 9649, "\u0120bitter": 17123, "\u0120cathode": 31672, "on": 251, "\u0120open": 1527, "smooth": 34006, "=\"../../": 12227, "\u0120unbelie": 31570, "\u0120clinic": 14235, "\u0120EL": 11642, "Interval": 27068, "orange": 35270, "\u0120vy": 46643, "\u0120contrary": 10214, "\u0120risen": 28987, "Country": 32351, "\u0120Pig": 40274, "\u0120Harris": 13680, "\u0120aviation": 34953, "cep": 41839, "\u01201971": 16609, "\u0120chem": 3554, "umps": 10628, "696": 30651, "\u0120cleanup": 34709, "\u0120jaws": 43567, "\u0120mistakes": 16503, "genstein": 47583, "\u0120Shall": 48405, "\u0120m\u00c3\u00a5": 20880, "405": 20680, "\u0120exotic": 26015, "\u0120occasional": 19322, "GCT": 29657, "\u0120such": 824, "\u0120segregated": 50049, "\u0120works": 2987, "}=": 4203, "\u0120outs": 20823, "ations": 569, "voltage": 36133, "\u0120univers": 6978, "\u0120stagger": 36668, "dwell": 41161, "\u0120K": 611, "\u0120definitely": 7964, "\u0120rolling": 14572, "cans": 40786, "blow": 37777, "\u0120Monica": 34781, "YE": 27413, "\u0120respectable": 39034, "FLAG": 12900, "\u0120<<": 5291, "stan": 18549, "\u0120passwords": 34060, "etin": 36995, "\u0120442": 42222, "\u0120encompasses": 37035, "\u0120revel": 17347, "\u0120burner": 50078, "EOF": 34812, "\u0120Ber": 6193, "\u0120Improve": 30343, "\u0120partir": 39955, "\u0120Different": 13773, "\u0120studied": 5421, "\u0120History": 9541, "token": 13763, "ocity": 23716, "___": 15362, "\u0120messages": 8169, "party": 14824, "vens": 14941, "\u0120trajectories": 24102, "\u0120guides": 22591, "\u0120Offic": 8853, "\u0120Camb": 26608, "ategories": 22288, "\u0120dirt": 17819, "\u0120MORE": 22778, "gall": 28117, "Young": 29140, "\u0120hook": 10584, "\u0120\"<": 16375, "\u0120chromosomal": 32795, "\u0120Speech": 38399, "textsc": 40914, "frag": 42494, "\u0120adolescence": 43570, "\u0120Myth": 43633, "roll": 1811, "ashion": 6823, "\u0120microorganisms": 30250, "\u0120HPLC": 32230, "\u0120Savings": 46384, "\u0120cin": 15573, "334": 24257, "\u0120fetch": 20279, "================": 1702, "\u0120considerable": 10665, "kie": 38703, "\u00e5\u0126": 48897, "\u0120selectively": 21656, "ichi": 22208, "\u010a\u0120\u0120\u0120\u0120\u0120\u0120\u0120\u0120\u0120\u0120\u0120\u0120\u0120\u0120\u0120\u0120\u0120": 8940, "\u0120interfere": 19323, "\u0120contradicts": 40878, "\u0120Byte": 24128, "\u0120touchdown": 22443, "NAP": 42032, "odom": 49576, "\u0120kicks": 32356, "\u0120Executive": 16155, "elesc": 16785, "\u0120incre": 1141, "\u0120dropping": 18752, "getName": 32426, "\u0120Du": 8502, "\u0120defective": 22327, "antiago": 34566, "\u00e8\u0122": 13180, "\u0120Fame": 27993, "ment": 420, "IRE": 29349, "Internet": 35031, "latest": 35261, "acha": 43065, "change": 4168, "548": 47070, "\u0120Cecil": 47896, "\u0120$$\\": 1764, "ENT": 3489, "\u0120mentally": 23198, "\u0120demo": 22020, "Dir": 13694, "794": 38184, "\u0120trypsin": 38756, "\u0120commod": 20315, "\u0120Uncle": 23894, "\u0120impedance": 27853, "\u0120Muhammad": 28453, "NAT": 35649, "\u0120substituting": 40944, "\u0120Desert": 36274, "\u0120grinding": 33046, "\u0120wears": 31394, "\u0120owner": 7302, "\u0120actors": 14142, "\u0120collections": 18406, "\u0120solutions": 5482, "\u0120Magic": 21577, "\u0120SAS": 33918, "######": 5146, "\u0120uint": 4770, "\u0120hosted": 17386, "\u0120fruits": 18098, "hus": 10034, "sequent": 32437, "\u0120multid": 23964, "gently": 40383, "\u0120rep": 1234, ")^[@": 42804, "aning": 18197, "\u0120Ever": 18901, "\u0120absorption": 11058, "cards": 35817, "\u0120healthy": 5875, "\u0120financ": 4083, "\u00d7\u0137\u00d7\u00aa": 36894, "\u0120cref": 38921, "\u0120reconcile": 42853, "\u0120*/": 1738, "\u0120thus": 3021, "\u0120surgeon": 20997, "\u0120hypoxia": 23618, "\u0120separate": 4858, "atement": 26333, "',": 1383, "rosis": 11503, "stmt": 39894, "\u0120Cycle": 42483, "\u01202009": 4748, "icity": 5755, "\u0120discret": 35132, "ceptions": 14233, "Disable": 46575, "\u0120nex": 47103, "\u0120To": 1916, "elfare": 12747, "\u0120futuro": 48929, "\u0120behalf": 11136, "\u0120Mn": 23348, "ructions": 6477, "\u0120idi": 22467, "\u0120ital": 36037, "\u010d\u010a\u0109\u0109": 11459, "/>": 4357, "\u0120Napole": 28955, "QS": 39610, "\u0120Uri": 45855, "\u0120graduates": 31329, "irector": 8152, "\u0120restrictive": 29190, "yst": 9207, "\u0120explo": 10220, "\u0120grease": 42341, "Por": 30641, "\u012088": 11003, "robe": 31552, "igraph": 32608, "acci": 42401, "\u0120sat": 2206, "Turn": 22529, "\u0120alongside": 12936, "Note": 8497, "\u0120crystals": 20642, "\u0120Zion": 29452, "notin": 31469, "_+": 13879, "RC": 19921, "adores": 29213, "Wol": 48252, "\u0120een": 10814, "uded": 21015, "\u0120Imaging": 33034, "\u0120Spark": 33308, "\u0120Angular": 33001, "\u0120Unlike": 16513, "\u0120congregation": 35997, "\u0120adorable": 42742, "\u0120editorial": 21977, "CIAL": 28408, "\u0120scra": 34890, "\u0120'</": 43600, "\u0120deploying": 45021, "\u0120monitors": 28028, "420": 25569, "Vertical": 44594, "\u0120Courts": 33417, "per": 468, "\u0120Knights": 36051, "\u00d0\u00b5\u00d1\u012a": 30499, "\u0120Lim": 12285, "\u0120ankles": 48500, "\u0120Range": 21277, "lVert": 27805, "\u0120attacks": 8104, "\u0120environments": 12620, "\u0120rut": 40422, "\u0120collaborate": 42124, "operated": 44735, "\u0120higher": 2169, "\u0120\u0120\u0120\u0120\u0120\u0120\u0120\u0120\u0120\u0120\u0120\u0120\u0120\u0120\u0120\u0120\u0120\u0120\u0120\u0120\u0120\u0120\u0120\u0120\u0120\u0120\u0120\u0120\u0120\u0120\u0120\u0120\u0120\u0120\u0120\u0120\u0120\u0120\u0120\u0120\u0120\u0120\u0120\u0120\u0120\u0120\u0120\u0120\u0120": 18411, "\u0120erred": 14416, "ever": 972, "+(": 18958, "longrightarrow": 18637, "\u00e5\u0132": 7719, "ress": 560, "\u0120buckets": 47289, "widet": 6767, "\u0120Squad": 26436, "\u0120approximated": 34930, "\u0120nuts": 20392, "\u0120passport": 31195, "\u0120Cath": 8842, "iten": 26217, "\u0120expansion": 7466, "Asc": 48819, "abbing": 22590, "arthy": 27914, "\\])": 3851, "\u0120Rock": 9384, "\u0120\u010a\u010a": 15267, "\u0120blend": 19310, "\u0120commanded": 26814, "\u0120Hmm": 49577, "\u0120emerging": 14149, "\u0120manip": 9452, "\u0120soft": 2602, ".</": 8239, "amba": 31834, "\u0120oc": 15715, "\u0120Thompson": 16647, "\u0120Bd": 40518, "\u0120reflective": 29210, "ocyan": 26632, "dx": 9665, "resource": 15024, "\u0120cirrhosis": 36716, "\u0120instrument": 7935, "\u0120Civil": 10109, "\u0120ventral": 29866, "\u0120occult": 42003, "Def": 4612, "\u0120IIS": 50122, "hyper": 27049, "\u0120outflow": 29335, "\u0120qualify": 19478, "\u0120attent": 33056, "BUG": 14223, "\u0120norms": 22429, "electron": 30083, "\u0120\u00eb\u00a7": 46927, "\u0120connect": 4684, "\u0120Bangl": 26315, "\u0120intox": 24205, "ernate": 25028, "\u0120debugging": 33146, "\u0120Transition": 48332, "\u0120Georg": 9309, "Join": 22196, "\u0120Czech": 21647, "trim": 24716, "\u0120cont": 523, "\u0120jewel": 22812, "folder": 26687, "\u0120handler": 16454, "\u0120Galois": 49468, "1200": 32158, "bj": 35744, "\u0120ho": 8511, "acht": 13261, "let": 1059, "\u0120USDA": 45921, "\u0120gam": 18814, "\u0120sistema": 35920, "\u0120Argument": 37026, "Beyond": 37188, "\u00c6\u00a1": 47170, "347": 23568, "\u0120dorsal": 22285, "\u0120mi": 3641, "Missing": 36840, "\u0120stew": 22855, "\u010a\u010a\u0120\u0120\u0120": 1496, "\u0120Hod": 28940, "\u0120alb": 31527, "\u0120Ol": 10876, "subseteq": 11861, "\u0120deform": 22403, "\u00e3\u0124\u012a": 15275, "\u0120Bill": 7641, "Uh": 18931, "\u0120toilet": 21487, "Due": 25420, "assis": 34119, "\u0120crawl": 37431, "\u0120oceans": 40277, "615": 43301, "\u0120SOME": 44933, "Sky": 45060, "observed": 45912, "\u0120SSL": 27243, "\u0120brutality": 48083, "Put": 12501, "iphatic": 48629, "\u0120provocative": 49317, "\u0120responsive": 20876, "\u0120Your": 5402, "abulary": 25718, "eax": 49409, "EQUAL": 49571, "\u0120Pil": 21263, "\u00d9\u012a\u00d8\u00b1": 39727, "\u0120heated": 16934, "\u0120prospective": 13893, "\u0120affordable": 18261, "xt": 633, "\u0120electronics": 23598, "\u0120spp": 26105, "node": 6219, "\u0120valid": 3588, "SOD": 44609, "\u0120556": 44443, "\u0120Leo": 24944, "ppen": 36115, "pard": 43832, "\u0120besides": 16280, "\u0120decentral": 31331, "isi\u00c3\u00b3n": 32320, "\u00e9\u0122\u012b": 49037, "\u0120congestion": 35367, "\u0120unanim": 24074, "\u0120Vera": 45931, "thinking": 37341, "\u012043": 7652, "\u0120Athletic": 39749, "\u0120branding": 42440, "\u00e5\u00bc": 12811, "\u0120bij": 28045, "\u0120Animals": 29301, "Donnell": 36647, "\u0120island": 8930, "\u0120drunk": 17507, "ddot": 40792, "\u0120podcast": 21110, "Double": 20007, "sembly": 5273, "\u0120sensor": 8468, "eda": 15055, "\u0120mp": 23542, "\u0120meanings": 30460, "\u0120praised": 26108, "anine": 21222, "\u0120reciproc": 33704, "\u0120Transcript": 38654, "\u0120gigg": 41542, "separated": 49741, "\u0120cris": 7550, "\u0120Duration": 42334, "taire": 49761, "\u00e2\u0128": 33089, "aily": 4170, "\u0120Input": 19832, "\u0120fluxes": 30988, "\u0120negotiation": 34326, "UID": 18244, "\u0120calcul": 2661, "Das": 35567, "\u0120Tet": 37822, "\u00e3\u0124\u012f": 34198, "}<": 27482, "\u0120Boh": 39878, "\u0120lobe": 27317, "ynman": 44166, "\u0120contracting": 34602, "\u0120Jedi": 44642, "ailing": 13454, "\u0120T": 308, "lict": 5404, "\u0120transcription": 9464, "\u0120Application": 11683, "\u0120destination": 12095, "heimer": 18015, "\u00e5\u00b0\u0133": 45508, "\u0120gland": 21147, "\u0120you": 368, "\u0120affirmative": 25712, "\u0120Optional": 38016, "Shop": 48698, "\u0120lesion": 15411, "\u0120Rose": 12447, "Om": 39007, "Je": 20723, "\u0120Sean": 22723, "vention": 4053, "Credit": 38482, "\u0120correct": 3451, "\u0120unaffected": 30195, "\u0120mitigating": 37460, "lie": 9114, "\u0120torrent": 38163, "\u0120\u00e2\u0122": 541, "uke": 17936, "\u0120Both": 6295, "\u0120parked": 24805, "\u0120NGC": 25212, "bottom": 10492, "\u0120golden": 14072, "\u0120Hag": 41848, "bing": 12188, "\u0120Crit": 22956, "\u0120modifier": 34301, "\u0120Hun": 12048, "\u0120CONDITION": 22231, "\u0120humanitarian": 30122, "UES": 16768, "455": 24614, "\u0120224": 22856, "\u0120phosphor": 43734, "OUR": 11862, "\u0120inc": 1485, "images": 13485, "\u0120trust": 4517, "CLUS": 25280, "\\][": 28118, "nec": 41286, "1938": 44611, "bies": 47272, "\u0120Neut": 44889, "\u00c2\u013e": 16605, "Berry": 41704, "xf": 14506, "\u0120594": 46475, "Joy": 47698, "\u0120flattened": 42394, "\u0120fuzzy": 31921, "\u0120temple": 16511, "\u0120Model": 10031, "\u0120frequent": 10879, "\u0120vulnerable": 14043, "\\>": 11899, "\u00e9\u013b": 17783, "\u01201964": 17926, "DOWN": 35248, "\u0120reader": 9414, "\u0120Cha": 22951, "\u0120faction": 38127, "385": 24677, "\u010a\u010a\u010a": 2756, "\u0120discover": 9413, "ITCH": 38283, "\u00e0\u00a5\u0123": 38619, "rack": 41565, "\u0120Pall": 42745, "Unable": 43794, "azzo": 46255, "idone": 46561, "\u0120Leon": 14765, "zol": 45831, "zez": 48385, "idenote": 49156, "\u0120Sear": 49901, "Living": 14316, "\u0120inequality": 11370, "\u0120Bor": 14027, "\u0120conditioning": 21839, "ensen": 19434, "\u0120freeze": 21090, "Mm": 32611, "\u0120line": 1386, "\u0120Creating": 42473, "\u0120slut": 48196, "\u0120deleted": 16737, "IVER": 35043, "\u0120IC": 9276, "bytes": 15845, "157": 15882, "suite": 42877, "Yesterday": 43688, "\u0120main": 2022, "\u0120==": 2295, "\u0120luxury": 18997, "cine": 26406, "\u0120banc": 30973, "\u0120\u0120\u0120\u0120\u0120\u0120\u0120\u0120\u010a\u0120": 49176, "ritis": 13825, "\u0120mattress": 34489, "\u0120Golgi": 49308, "uh": 6968, "ishment": 8922, "\u0120morality": 28009, "\u0120Sham": 41964, "\u0120Decre": 44398, "\u0120stripping": 42922, "\u0120Soup": 43332, "\u0120homepage": 47978, "\u0120prolonged": 16707, "\u0120si": 4927, "\u0120desir": 49018, "q": 82, "\u0120FS": 28109, "\u00e2\u0136\u0122": 11458, "epsilon": 4259, "\u0120heart": 2798, "insic": 12003, "\u0120letting": 13872, "eas": 19010, "\u00d8\u00a7\u00d8\u00aa": 24823, "Conflict": 30064, "\u0120Runtime": 39029, "GER": 19622, "\u0120Perkins": 41235, "\u0120Epidem": 48838, "iver": 2373, "FF": 3269, "\u0120diagnosis": 6120, "\u00e7\u0143\u012b": 38563, "\u0120penetrating": 42393, "bre": 3381, "\u0120chunks": 30151, "]]": 9502, "\u0120enforcement": 10473, "\u0120extr": 15534, "uid": 11455, "oute": 5380, "\u0120advant": 4545, "\u0120rising": 11002, "\u0120bytes": 11061, "\u0120sectors": 19465, "\u0120Ret": 6724, "\u0120Carp": 36468, "Horizontal": 42239, "ctions": 960, "\u0120solid": 4891, "\u0120mouth": 6208, "\u0120Period": 25792, "\u0120territories": 26949, "estly": 27459, "\u0120Amanda": 33811, "\u0120epithe": 23740, "\u0120Brazil": 10869, "\u0120dors": 18154, "\u0120Todd": 24010, "plac": 33854, "iting": 2996, "\u0120469": 40089, "\u0120accomplishments": 40243, "\u00e6\u012e": 18245, "\u0120Expert": 40900, "\u0120magnitude": 9777, "\u0120hosp": 45304, "passed": 47076, "\u0120title": 4060, "\u012054": 8255, "\u0120poetry": 16053, "\u0120unlock": 19444, "\u0120silly": 19456, "\u0120\u00d0\u00b1\u00d1\u012d": 23358, "\u0120295": 28195, "#": 4, ",\\,": 14101, "\u0120waving": 34475, "inian": 34923, "0060": 35173, "145": 11838, "ockey": 13464, "olves": 14503, "\u0120331": 36438, "jam": 25402, "\u0120gastro": 16971, "\u0120subsequent": 6774, "\u0120morning": 4131, "Port": 11688, "boldmath": 19747, "anu": 40160, "\u0120utf": 40502, "DTD": 41375, "throughput": 41416, "\u0120directing": 25091, "Op": 12535, "\u00e6\u0138\u00b9": 20005, "hesis": 25232, "\u01201937": 27598, "Whoa": 41995, "findViewById": 44688, "\u0120specialization": 48544, "ressing": 13537, "mM": 14685, "\u0120applicability": 30437, "\u0120\u00ce\u00ba\u00ce\u00b1": 18383, "\u0120nitro": 33415, "\u0120plat": 26588, "walls": 45930, "|}\\": 47715, "f": 71, "\u0120SERV": 21847, "\u0120ted": 28263, "fair": 25525, "ar\u00c3\u00a9": 35023, "\u0120ton": 7020, "\u0120constructed": 8818, "byte": 8833, "\u0120actu": 22664, "Init": 10828, "catalog": 42365, "\u0120sharing": 9628, "////": 2917, "\u0120S": 322, "\u0120arbitrarily": 29607, "\u0120wrongdoing": 45452, "\u0120inventors": 43502, "\u0120garlic": 17426, "\u0120sto": 4806, "\u0120||": 2785, "const": 3474, "click": 9738, "JK": 43262, "\u0120mindfulness": 49922, "\u0120cover": 3835, "\u0120hem": 7492, "\u0120Cowboys": 40863, "\u0120meanwhile": 26614, "agger": 7215, "odka": 42713, "ordo": 46332, "autom": 37771, "rencies": 24034, "omonas": 31911, "arters": 10193, "otics": 20290, "\u00e0\u00b5\u012f": 33695, "\u0120propri": 14045, "enty": 4108, "\u0120dise": 2215, "\u0120Nations": 14726, "ographs": 25446, "/?": 22549, "\u0120Armen": 37801, "\u0120said": 753, "\u0120wi": 38435, "\u0120hyste": 38732, "Relations": 39466, "Study": 24053, "Brazil": 41946, "\u0120turnout": 46430, "''(": 50101, "\u0120state": 1375, "\u0120cohorts": 27361, "jor": 15188, "(@\"": 38217, "\u0120Lloyd": 24395, "_-": 18914, "\u0120interstate": 30899, "NH": 17659, "attack": 35946, "N": 47, "aturated": 24668, "\u0120thats": 28763, "\u0120bucket": 22205, "\u0120airst": 50239, "\u0120Nexus": 43165, "\u0120Europe": 3060, "\u01201906": 38701, "\u0120ec": 10038, "\u0120polling": 30587, "when": 9453, "\u0120Hans": 16137, "\u0120sulfate": 25649, "ty": 555, "\u0120dress": 7619, "\u0120democracy": 14483, "\u0120Moody": 49318, "}}^{": 9496, "\u0120Schwe": 49552, "\u0120lengths": 16095, "GE": 7538, "\u0120Movement": 25678, "\u0120introduced": 5611, "\u0120concise": 44003, "Ver": 10754, "\u0120pur": 1460, "Reader": 15283, "\u0120reflect": 4887, "Gener": 10203, "\u0120afraid": 9202, "valid": 7210, "\u0120surveys": 17276, "\u0120PAL": 47175, "\u0120stones": 17380, "WL": 23272, "]).": 2498, "\u0120tissues": 7944, "\u0120Arabs": 39004, "Samples": 49644, "ceeding": 46943, "\u0120tokens": 21761, "\u0120hallmark": 47947, "\u0120Usually": 25683, "\u0120thank": 5717, "api": 6682, "brace": 19276, "\u0120Lud": 26064, "\u0120exaggerated": 36074, "_:": 21712, "comm": 2823, "\u0120physical": 3520, "\u0120Hills": 21706, "tyle": 9714, "\u0120silic": 28664, "\u0120snapped": 24145, "\u0120.\\": 30412, "\u0120KB": 37998, "ISTS": 44237, "aggreg": 46601, "\u0120provider": 11716, "utton": 28738, "\u0120517": 41495, "\u0120noct": 44970, "\u0120\u0120\u0120\u0120\u0120\u0120\u0120\u0120\u0120\u0120\u0120\u0120\u0120\u0120\u0120\u0120\u0120\u0120\u0120\u0120\u0120\u0120\u0120\u0120\u0120\u0120\u0120\u0120\u0120\u0120\u0120\u0120\u0120\u0120\u0120\u0120\u0120\u0120\u0120\u0120\u0120\u0120\u0120\u0120\u0120\u0120\u0120\u0120\u0120\u0120\u0120\u0120\u0120\u0120\u0120\u0120\u0120\u0120\u0120\u0120\u0120\u0120\u0120\u0120\u0120\u0120\u0120\u0120\u0120\u0120\u0120\u0120\u0120\u0120\u0120\u0120\u0120\u0120\u0120": 48303, "\u0120Joh": 18063, "hydration": 37249, "agers": 16014, "}\",": 32722, "\u0120enlarge": 46112, "Five": 25438, "rible": 8448, ">'": 28120, "\u0120Morm": 28280, "\u0120reproduction": 21068, "\u0120attitude": 12046, "coding": 22257, "\u00c3\u0143v": 49099, "\u0120Sounds": 41900, "\u0120CDK": 44288, "\u0120Navy": 13669, "ophagy": 20728, "\u00e1\u00bf\u0138": 43077, "\u0120coating": 14037, "iginally": 20306, "\u0120JE": 48597, "\u0120playing": 4882, "\u0120communicate": 13791, "\u0120MT": 15964, "\u0120discontin": 16196, "\u00c3\u0143n": 18463, "\u0120Bach": 31540, "ELE": 35417, "bal": 7187, "\u0120Resources": 19242, "\u0120unsupported": 36542, "HAVE": 41821, "\u0120Services": 9491, "\u00e9\u0123": 14378, "isha": 25059, "\u0120a\u00c3\u00b1os": 31928, "\u00c3\u00a4ll": 36383, "#{$": 44391, "RCC": 45070, "ings": 723, "-\\": 2249, "allow": 8912, "\u0120awaited": 48717, "functions": 20619, "glom": 50108, "QQ": 25138, "\u0120strands": 30450, "\u0120RAF": 35069, "needs": 50234, "136": 15220, "arts": 12863, "\u0120Jean": 13089, "\u0120graphene": 23076, "208": 17391, "\u0120Kot": 36702, "inf": 2050, "\u0120iteration": 19502, "\u0120join": 6604, "\u00e1\u00bb\u0123": 46663, "\u0120weeks": 3618, "\u0120unemployment": 20549, "\u0120emb": 4443, "\u0120reside": 28932, "bben": 31803, "\u0120serialized": 32145, "RAM": 37231, "xmm": 27963, "\u0120designed": 4158, "DOM": 27395, "\u0120Joint": 23106, "aphylococcus": 38428, "iella": 50019, "\u0120Chronic": 28289, "\u0120Kun": 31292, "identifier": 31668, "\u0120encephal": 35516, "iman": 25884, "\u0120notes": 7211, "\u0120Consequently": 13162, "\u0120Denmark": 22783, "\u00c5\u0124a": 35457, "382": 31110, "\u0120debris": 21593, "parameters": 22041, "Mag": 29033, "\u0120Cox": 19043, "\u00e3\u0125": 1769, "\u00d1\u0122\u00d0\u00b0\u00d0\u00b2": 44532, "\u0120Saints": 29122, "\u0120sticky": 31714, "\u0120Meh": 48005, "Guide": 48103, "\u0120Com": 1176, "you": 5658, "\u0120there": 627, "arter": 5179, "push": 11340, "354": 25039, "zitter": 45609, "\u0120coins": 21078, "\u0120beaten": 20698, "con": 585, "template": 8547, "\u0120observed": 2540, "\u0120strateg": 3483, "Char": 8662, "\u0120mu": 12910, "\u0120vil": 20442, "zek": 27640, "\u0120vigil": 28027, "\u0120Malaysia": 23799, "\u0120grown": 8228, "\u01201880": 32626, "574": 38503, "skirts": 44747, "\u0120shutter": 37316, "\u0120spirits": 19851, "\u0120enjoys": 29566, "\u0120\"+": 31028, "Fields": 24306, "rol": 1102, "\u0120deficient": 24030, "\u0120reasoning": 14720, "\u0120tolerate": 31259, "prises": 21264, "StackTrace": 39646, "neck": 34936, "\u0120peng": 42151, "ties": 2890, "Chat": 33731, "ambda": 1836, "\u0120Bone": 34257, "\u0120Monitor": 41769, "atomic": 16807, "Jud": 27302, "\u00e7\u013f": 37531, "\u0120powdered": 43462, "icul": 10152, "\u0120honestly": 20509, "\u0120advancing": 26441, "\u0120Chel": 21665, "\u0120anest": 16028, "\u0120certificates": 28460, "DATE": 33762, "\u0120illustration": 23356, "\u0120cav": 9605, "\u0120roughness": 44273, "ika": 11825, "watch": 13060, "\u0120finite": 6486, "isure": 23479, "---------------------------": 28388, "pin": 9852, "\u0120seniors": 36710, "\u0120inconvenience": 40471, "\u0120Wendy": 42167, "\u0120attracted": 17755, "\u0120indicated": 4860, "\u00e5\u0127\u0125": 44114, "Reply": 37226, "opolys": 44289, "erl": 45043, "amps": 11441, "\u0120constants": 14637, "\u0120skiing": 46237, "\u0120Airport": 18328, "\u0120ascertained": 46494, "\u0120favorably": 49148, "\u0120discloses": 14110, "\u00d0": 140, "\u0120radiative": 35873, "magnetic": 41947, "\u0120resembles": 29217, "orns": 35546, "\u0120steady": 11792, "458": 29435, "\u00d0\u00be\u00d0\u00b3\u00d0\u00b4\u00d0\u00b0": 44951, "\u0120surround": 5665, "\u0120RV": 23049, "\u0120bile": 26413, "Events": 24121, "Charles": 27515, "\u0120Butter": 30683, "\u0120stay": 3297, "\u0120Finally": 6610, "\u0120pela": 35553, "\u0120recurrence": 15969, "annah": 18477, "All": 3074, "iological": 8673, "\u0120Ko": 21009, "\u00e2\u0122\u013f).": 21372, "Angel": 39167, "toggle": 23112, "\u0120refusing": 21455, "\u0120encounters": 25767, "ymbols": 31356, "\u0120relaxing": 32196, "\u0120Solutions": 29248, "\u0120extrinsic": 38988, "\u00e5\u0131\u0133": 29918, "\u0120Away": 37811, "wagen": 40990, "Anchor": 39252, "\u0120ORF": 43765, "\u0120phenol": 45705, "great": 17124, "\u0120Beh": 49071, ".\\[[@": 15775, "387": 25745, "\u0120nightmare": 28026, "'": 8, "\u0120entails": 36782, "\u0120reporting": 9610, "\u0120grate": 12525, "living": 22763, "\u0120refuses": 29939, "msg": 4856, "\u0120antagon": 13878, "iterranean": 20478, "\u0120Usage": 43825, "\u0120Chemical": 22204, "\u0120enacted": 23552, "definition": 28692, "exp": 4347, "round": 4650, "perfect": 32060, "enzie": 32560, "\u0120accession": 30307, "}}}$.": 33471, "\u0120politics": 8672, "\u0120Pad": 20254, "hover": 22424, "aterials": 10373, "\u0120struggled": 19460, "\u0120branching": 27213, "documented": 34023, "\u0120Adding": 35794, "\u0120Chester": 37228, "Sprintf": 42757, "bound": 9458, "\u0120Row": 15784, "\u0120avenues": 44201, "STIT": 38858, "467": 44598, "\u0120Cyprus": 44637, "\u0120research": 2561, "\u0120gj": 48753, "\u0120Diseases": 35852, "icolor": 49122, "food": 19480, "pora": 47915, "\u0120Miller": 11418, "\u0120LIN": 38268, "way": 1106, "\u0120Alger": 36364, "\u0120British": 4782, "=[": 20879, "mission": 2230, "scaling": 49708, "\u0120Billboard": 41073, "PB": 27440, "avanaugh": 41700, "\u0120stromal": 35006, "/.": 14206, "\u0120county": 9635, "ano": 4692, "907": 29249, "\u0120restoring": 33269, "\u0120Immigration": 28866, "\u0120Wick": 47172, "spr": 27375, "\u0120Income": 33224, "\u0120starvation": 35351, "elt": 2585, "gu": 4297, "\u0120boys": 8290, "\u0120ins": 1210, "\u010a\u0120\u0120\u0120\u0120\u0120\u0120\u0120\u0120\u0120\u0120\u0120\u0120\u0120\u0120\u0120\u0120\u0120\u0120\u0120\u0120\u0120\u0120\u0120": 4119, "\u0120Bad": 15350, "chair": 21689, "\u0120metallicity": 33201, "ermanent": 47605, "\u0120repent": 39531, "itars": 45712, "\u0120Church": 6412, "\u0120\u00e1\u00bc": 14239, "\u0120orthogonal": 19627, "\u0120Commercial": 27811, "\u0120protein": 2601, "\u0120advertised": 37636, "astern": 8963, "live": 22621, "soon": 38753, "\u0120condensate": 39620, "\u0120holidays": 23193, "alian": 6770, "\u0120quarterly": 42886, "\u0120hect": 46173, "wh": 2484, "awn": 17074, "\u0120hepatocellular": 43727, "\u0120dermal": 48381, "\u0120eliminating": 23703, "////////////////": 9032, "Made": 41793, "\u0120vibration": 22634, "\u0120amplic": 48537, "WK": 27767, "uje": 36295, "\u0120blockchain": 20022, "rowave": 20601, "\u0120Central": 8170, "selection": 27423, "479": 28757, "\u0120power": 1612, "dL": 21087, "membrane": 27313, "yz": 30608, "uscular": 35109, "993": 35410, "\u0120invention": 3688, "\u0120knowledgeable": 37289, "\u0120Qatar": 38372, "^*(\\": 47942, "\u0120divisor": 11812, "\u0120geared": 48526, "DIST": 49991, "rating": 38203, "opy": 1938, "\u0120ST": 3915, "project": 10408, "\u0120dom": 2328, "\u0120Pe": 3586, "\u0120NFL": 13946, "\u0120much": 1199, "City": 21093, "\u0120realities": 34759, "\u0120Philos": 19237, "\u0120residuals": 42435, "\u0120Empire": 13958, "Drop": 24475, "doing": 25163, "\u0120Lys": 31300, "mente": 12704, "})\\": 8395, "ensing": 13843, "usr": 11919, "\u0120comrades": 40032, "\u0120password": 9868, "omer": 8056, "\u0120forfe": 24184, "yaml": 33522, "Timestamp": 41516, "\u0120incremental": 32809, "\u0120eru": 36850, "\u0120Garrett": 43367, "\u0120Lucia": 47040, "sep": 33032, "late": 12579, "),\\": 10853, "\u0120treason": 44331, "\u0120cooperate": 29406, "\u01202000": 5307, "\u0120Sanct": 49787, "Period": 35159, "Kelly": 49062, "alk": 1278, "Price": 21333, "0050": 35967, "792": 39282, "\u0120)\"": 46713, "urane": 49219, "$\\": 1202, "reement": 10742, "\u0120belonging": 15823, "\u0120visit": 4143, "\u0120bol": 16049, "Posted": 25698, "Victor": 35419, "\u0120raison": 48089, "\u0120plac": 21927, "\u00ce\u00b5": 3393, "\u0120impulses": 48009, "\u0120symmetry": 10377, "\u0120newspapers": 18930, "ci": 5297, "ionine": 41568, "\u0120elucid": 19125, "ola": 6836, "vare": 4334, "\u0120arrows": 18159, "enhanced": 35465, "\u0120unique": 4451, "bone": 15801, "\u0120combinator": 32662, "itter": 4069, "\u0120pumped": 36493, "ximate": 13954, "427": 38686, "592": 42140, "\u0120Methodist": 43327, "phantom": 21921, "En": 3546, "\u0120ix": 46110, "\u0120FLAG": 46923, "\u0120initiated": 15247, "\u0120GDP": 24820, "LOW": 47123, "\u0120lifestyle": 14898, "\u0120picking": 8871, "aux": 10422, ".%": 49810, "Yes": 4374, "\u0120prey": 21794, "+)": 15020, "293": 19630, "IS": 1830, "\u0120supern": 13708, "\u0120reacted": 29771, "fal": 39226, "Argued": 46019, "\u0120capacitor": 23596, "/\u00e2\u0122\u012d": 43266, "ycler": 42447, "\u0120Double": 18603, "domain": 13517, "\u0120Ride": 44860, "\u0120resize": 39332, "overn": 4574, "7": 24, "iest": 10558, "beit": 15932, "Can": 5804, "NG": 12770, "\u0120auditor": 41740, "force": 4774, "EEP": 35447, "\u0120light": 1708, "\u0120Tissue": 39218, "oultry": 30711, "\u0120generates": 15693, "Others": 41255, "Lin": 26433, "\u00c3\u00b1or": 30765, "Immun": 30458, "market": 16532, "\u0120impeachment": 31105, "\u0120jump": 6923, "\u0120accounting": 15890, "\u0120miRNA": 20518, "46": 2950, "Need": 32783, "nip": 40298, "\u0120writers": 11597, "770": 43670, "\u0120spotted": 20673, "\u0120monot": 26734, "\u0120Haven": 28093, "\u0120clouds": 16173, "\u00e4\u00bd\u00bf\u00e7\u0136\u00a8": 29463, "(?": 47928, "Folder": 27903, "iew": 827, "\u010d\u010a\u0120\u0120\u0120\u0120\u0120\u0120\u0120\u0120\u0120\u0120\u0120\u0120\u0120\u0120\u0120\u0120\u0120\u0120\u0120\u0120\u0120\u0120\u0120": 33528, "\u0120tangible": 33631, "\u0120objectively": 38304, "\u0120comment": 4385, "\u0121": 210, "\u0120hospital": 4675, "\u0120truck": 9988, "\u0120VAL": 15527, "\u0120precedent": 19440, "Listen": 19577, "idas": 21400, "\u0120whit": 30661, "adh": 33233, "830": 35400, "rifug": 15294, "apt": 1739, "\u0120therefrom": 39065, "\u0120chr": 41934, "\u0120NF": 14100, "\u0120Catalog": 48286, "\u0120FC": 16004, "ren": 445, "\u0120Wn": 48909, "\u0120Dean": 19172, "\u0120angle": 6907, "\u0120growth": 3116, "\u00c3\u00b3": 1954, "\u0120node": 4666, "Vector": 15219, "owski": 15767, "\u0120DEF": 34428, "\u0120Husband": 49226, "cknowled": 20179, "RD": 19000, "\u0120IRA": 36496, "68": 2358, "\u0120greens": 35599, "{};": 41619, "\u0120eyebrow": 47342, "\u0120isomorphic": 25783, "\u012048": 5693, "\u0120assistance": 8385, "\u0120angi": 14547, "\u0120accordingly": 15672, "\u0120Related": 15073, "org": 2061, "APDH": 32465, "damn": 34681, "\u00e6\u0137": 10962, "ing": 272, "rends": 34844, "isco": 23538, "\u0120Mas": 12962, "\u00e5\u0127\u00a5": 23373, "\u0120&=": 7196, "\u0120ele": 2232, "dict": 8102, "\u0120bail": 19590, "\u0120Teacher": 47080, "\u0120Living": 19383, "Fail": 44416, "\u0120\\*\\*": 22004, "\u0120260": 22146, "\u0120Operations": 27037, "iary": 7855, "Header": 12618, "Camera": 31962, "\u0120Wel": 17871, "\u0120amalg": 47780, "\u0120Motors": 31449, "irling": 35042, "\u0120Jon": 10354, "western": 18288, "\u0120hereby": 20585, "\u0120bodily": 23989, "\u0120activate": 17561, "qui": 41496, "\u0120washed": 11974, "alities": 12908, "!),": 42678, "**": 424, "\u0120effects": 2538, "\u0120serious": 4092, "\u0120structures": 5289, "\u0120citizens": 7815, "\u010a\u0109\u0109\u0109\u0109": 2664, "\u0120fleet": 18500, "}|\\": 23597, "wb": 34338, "\u0120alkal": 42008, "\u0120disruptive": 43081, "asis": 4914, "\u0120-=": 24869, "Tuple": 43554, "arias": 46445, "Qiagen": 47738, "\u0120lobby": 16612, "\u0120securing": 24682, "icated": 6857, "\u0120calculator": 43906, "\u0120infections": 10332, "\u0120stadium": 21711, "\u0120gay": 11730, "\u0120unsuccessful": 28008, "Hex": 35348, "\u0120jug": 26450, "Several": 18431, "\u0120aument": 46850, "\u0120bitcoin": 24190, "\u0120Gunn": 46511, "\u0120comet": 47470, "\u0120\\#": 13181, "PEG": 21459, "\u0120Individuals": 40788, "\u0120ARM": 32394, "\u0120kv": 44739, "\u0120neurode": 32647, "cold": 32538, "\u0120chosen": 6777, "\u0120obligation": 14904, "cash": 48926, "ensional": 5422, "\u0120encourage": 11907, "orse": 10245, "\u0120outline": 19270, "%.": 7739, "\u00e8\u00a8\u013a": 44330, "Count": 6878, "\u0120refresh": 22906, "\u0120nam": 9557, "artifactId": 24203, "Thank": 8398, "\u0120ordinary": 9826, "\u01201898": 42122, "\u00e6\u0138\u00b0": 24308, "\u0120organize": 23968, "\u0120completely": 4336, "\u0120cured": 29025, "heter": 33709, "\u0120imagin": 30087, "\u00e1\u00ba": 9702, "aul": 40186, "\u0120continuance": 43758, "[": 60, "\u0120Marc": 22662, "\u00d0\u00b8\u00d0\u00b5": 13080, "[[": 14598, "esan": 41080, "\u0120stop": 3523, "osyl": 39847, "\u0120scaling": 13642, "Sur": 14102, "long": 5056, "\u0120expectations": 12656, "\u0120stalled": 48283, "\u0120clear": 2590, "osp": 2161, "\u0120checks": 12255, "ogg": 19613, "English": 14376, "\u0120conclusions": 11815, "wang": 33317, "\u0120farms": 21976, "\u0120Template": 37987, "\u0143": 244, "\u0120Anton": 12705, "\u0120connective": 41292, "\u00e0\u00af": 15176, "itro": 4905, "\u0120chemotherapy": 13215, "ided": 1356, "\u0120copolymers": 49054, "gel": 11500, "iq": 29370, "\u0120vida": 31426, "\u0120immediate": 8993, "\u0120deserted": 36986, "Ethics": 39671, "customer": 34590, "\u0120Ori": 28322, "\u0120Ambassador": 34358, "\u0120Tian": 44442, "\u0120Vers": 25403, "\u0120edge": 5024, "cies": 11818, "Disabled": 47703, "iced": 5491, "\u0120pencil": 29514, "\u0120Package": 30454, "\u0120kicked": 19301, "Variables": 48439, "ool": 1062, "\u0120din": 13223, "\u0120mutated": 31758, "535": 42980, "\u0120insulting": 50124, "\u0120Layout": 38870, "rots": 30353, "\u0120deductions": 45131, "ential": 1624, "\u0120Psych": 13219, "\u0120runway": 39486, "**~": 45332, "Att": 6601, "\u0120rhet": 21145, "\u0120degraded": 30853, "679": 26233, "\u010a\u0109": 996, "\u0120persuasive": 34593, "\u0120broke": 9377, "reich": 38938, "\u0120fibrous": 39751, "\u0120workaround": 42182, "\\];": 28653, "emptyset": 20760, "1972": 23482, "\u0120interpretations": 27838, "\u0120dissociation": 31375, "\u00e2\u0122\u0124": 35990, "uents": 44385, "rib": 725, "ographically": 32414, "\u0120correl": 3411, "rg": 15164, "NL": 19214, "\u0120delicate": 21140, "medical": 38079, "History": 12697, "\u0120Gear": 39676, "\u0120inhabited": 41477, "\u0120instant": 8164, "144": 14231, "uct": 10475, "assy": 20479, "\u0120im": 516, "thon": 6033, "binant": 15876, "\u0120impe": 19812, "enson": 24480, "\u0120framed": 29318, "\u0120rheumatoid": 38890, "\u0120sheath": 30334, "Sched": 37110, "\u0120plot": 7484, "\u0120speedy": 39103, "ATURE": 40668, "Regex": 41445, "\u0120slightest": 33456, "trip": 39816, "\u0120543": 43732, "VV": 31983, "idyl": 26790, "\u0120permits": 16000, "monella": 34640, "\u0120fert": 12983, "\u00c4\u0129": 9948, "\u0120Hol": 4716, "}^{(\\": 40608, "\u0120recon": 8756, "cv": 17312, "\u0120dash": 20134, "\u0120Seah": 46424, "\u0120rearrang": 33289, "\u0120nationwide": 23931, "\u00e5\u00a7\u012d": 39295, "\u0120522": 39603, "\u0120_\"": 36949, "\u0120Baxter": 46867, "\u0120tam": 21526, "checked": 21542, "\u0120elections": 12337, "\u0120bang": 29246, "\u0120back": 896, "isions": 3836, "plements": 16603, "\u0120Road": 8669, "\u0120ERK": 29494, "\u0120516": 40520, "\u0120\".\"": 40923, "\u0120Champions": 27557, "ALK": 31545, "476": 31699, "rito": 36902, "\u0120listen": 8028, "\u0120hurts": 31835, "Visit": 37698, "\u0120uncommon": 24666, "\u0120worry": 7664, "\u0120provincial": 25432, "\u0120campus": 13790, "Professor": 41390, "Tra": 14463, "unge": 20787, "\u0120claws": 43390, "\u0120TOP": 16087, "\u0120Borough": 45663, "cam": 12583, "\u0120kilograms": 44068, "\u00d0\u00bb\u00d1\u0131": 17544, "717": 46043, "\u0120Mass": 7532, "aste": 4740, "\u0120literal": 22436, "Visitor": 49757, "\u0120peas": 28297, "gress": 3161, "\u0120maneu": 24974, "keep": 19773, "\u0120panels": 12471, "\u0120overdose": 46539, "car": 5546, "Handler": 9294, "\u00e0\u00b8\u0129": 25051, "opts": 28330, "\u00e9\u0129\u0131": 37079, "onen": 47591, "\u0120Async": 49281, "\u0120Leone": 49771, "\u0120Cave": 41407, "\u0120treacher": 43286, "\u0120strips": 22486, "Other": 8665, "\u0120gels": 31669, "amacare": 36801, "\u0120GPIO": 37362, "\u0120bra": 6513, "iken": 33027, "\u0120Trophy": 42900, "\u0120although": 3738, "\u0120scint": 35187, "\u0120europ\u00c3\u00a9": 31020, "AIL": 22823, "icrobial": 20751, "\u0120simplicity": 17647, "zet": 39753, "domains": 45047, "supplementary": 6962, "\u0120Children": 12757, "\u0120Punjab": 48642, "uggling": 37706, "\u0120particular": 1798, "oc": 406, "\u0120dra": 6536, "\u0120ranch": 34034, "oque": 44954, "constant": 22174, "Jy": 44257, ",+": 48480, "Absolute": 49805, "nav": 8002, "\u0120automated": 16644, "\u0120DD": 28143, "\u00ce\u00bf\u00ce\u00bb": 33211, "\u0120minimal": 8723, "\u0120sketches": 46159, "reck": 17456, "ERE": 8147, "mar": 4175, "-(": 8422, "\u0120neur": 5723, "CF": 7386, "\u0120routine": 10934, "inent": 14622, "\u0120450": 20156, "\u0120cs": 29180, "ingly": 5356, "eric": 6555, "uten": 10284, "iche": 16128, "Card": 18497, "\u0120canvas": 18857, "\u0120dedu": 31363, "\u0120europe": 19454, "\u0120retros": 14582, "\u0120condens": 25904, "\u00c2\u00b4": 11679, "\u0120Elder": 34806, "regation": 37480, "\u0120Ez": 39054, "enter": 9553, "\u0120proinflammatory": 43009, "*>(": 46802, "usta": 38334, "Pe": 6432, "\u0120nanop": 14450, "\u0120splend": 29428, "\u0120Moz": 24872, "\u0120reminded": 17328, "eling": 8855, "\u0120imperial": 21474, "ertility": 35442, "wrap": 13585, "ulate": 4187, "\u0120axe": 44910, "\u0120clearance": 17998, "\u0120technicians": 40560, "\u0120Broad": 13796, "\u0120'%": 25137, "\u0120distrust": 48655, "plt": 46150, "\u0120Object": 9206, "\u0120extent": 6070, "lock": 4348, "\u0120Size": 19662, "IPT": 20350, "\u0120assignments": 23768, "\u0120FP": 25127, "\u0120DEM": 50118, "\u0120prec": 3509, "\u0120cc": 25215, "xor": 28374, "\u0120uterine": 33613, "CRT": 44059, "\u0120GT": 22733, "\u0120bury": 33163, "mkdir": 50202, "\u0120fr\u00c3\u00a5": 26266, "Bo": 11478, "\u0120tested": 5762, "bo": 2399, "\u0120dod": 33413, "''$": 42308, "rees": 6151, "olutions": 17009, "\u0120manage": 8722, "}\\\\": 11054, "\u0120smokers": 26934, "sid": 32314, "Ham": 22176, "\u0120rand": 40819, "\u0120unicode": 50058, "\u0120res": 501, "\u0120Angl": 25939, "\u0120leader": 6657, "\u0120disgusting": 40449, "fant": 47459, "obia": 26870, "\u0120equity": 17382, "\u0120competitors": 21607, "\u0120Philipp": 16312, "\u0120infrared": 20542, "\u0120LV": 19713, "eren": 22061, "\u0120modulating": 36390, "\u0120rich": 6793, "\u0120mates": 41730, "\u0120226": 27648, "glyph": 43428, "\u0120harmful": 19632, "\u0120cu": 8514, "inia": 41214, "Gall": 31266, "\u0120document": 3389, "growth": 25869, "\u0120gp": 31025, "\u00e1\u00bd\u00b2": 43766, "\u0120Mae": 40793, "jah": 22577, "\u0120quite": 3240, "\u0120Wend": 29443, "\u0120achieve": 5115, "abstract": 15834, "\u0120phospho": 38968, "\u0120Landau": 42005, "790": 48172, "\u0120532": 40062, "       ": 50271, "European": 27748, "Size": 5496, "\u0120cush": 26938, "\u0120frown": 48445, "\u0120576": 46313, "\u0120promptly": 25122, "\u010a\u010a\u010a\u010a": 5429, "\u0120qubits": 42414, "apk": 37104, "\u0120UAE": 45162, "\u0120allowance": 32301, "\u0120resistivity": 43520, "\u0120660": 44493, "\u0120plainly": 30236, "\u0120adenosine": 37121, "aceuticals": 33367, "\u0120Pie": 27695, "XI": 44051, "\u0120(\\[": 3891, "\u0120Ak": 14181, "driven": 17477, "yla": 46877, "\u0120epis": 6314, "\u0120ca": 7318, "Signal": 32136, "Chan": 48207, "\u0120professionals": 12440, "\u0120Tax": 13662, "\u0120shelves": 30058, "\u0120goodbye": 33969, "\u0120Kan": 20626, "\u0120macroscopic": 35915, "\u0120tearing": 35765, "\u0120sovereign": 16629, "\u0120DATE": 46611, "\u0120segundo": 48118, "\u0120rupture": 31430, "295": 22270, "ened": 2348, "\u0120elite": 17832, "ictures": 24249, "VIS": 24375, "\u0120emph": 7013, "\u0120dilemma": 34390, "\u0120Ky": 18009, "\u0120electronic": 7051, "\u0120Len": 21536, "ITT": 27823, "\u0120mesenchymal": 35984, "\u0120harb": 37050, "nice": 40199, "\u0120invade": 42879, "\u0120DSL": 49166, "\u0120violations": 15927, "547": 48793, "\u00e7\u00a9": 28215, ")_\\": 48542, "ecause": 3274, "porary": 10368, "uet": 19264, "\u0120goodness": 23190, "\u0120Vel": 22484, "cardia": 41434, "\u0120\u00d1\u0123\u00d1\u012c": 40158, "\u0120142": 21669, ":)": 37731, "\u0120foods": 12134, "starting": 45033, "\u00c7": 131, "opot": 43191, "UTC": 42773, "ancing": 6816, "\u00c3\u00a9n": 9390, "\u0120ward": 18588, "\u00ea\u00b3": 26437, "\u0120glomerular": 41418, "touch": 30713, "\u0120\u00d9\u0128": 31159, "Recall": 38418, "\u0120CONSEQUENTIAL": 48128, "\u0120sway": 26740, "\u0120opportunities": 9091, "FU": 30531, "\u0120penn": 33945, "pinion": 22104, "\u0120originated": 23923, "\u0120inadmissible": 48388, "\u0120Models": 31581, "\u0120meeting": 4804, "681": 33304, "\u0120Naval": 29066, "chos": 40173, "\u0120articles": 7774, "\u0120chair": 6951, "edo": 29091, "\u0120Istanbul": 41460, "\u0120frog": 40096, "268": 22913, "MENT": 10634, "\u00e7\u00a8": 22580, "\u0120law": 1569, "\u012049": 7584, "interpret": 22416, "\u0120legitim": 29933, "oung": 8235, "\u0120functioning": 15415, "baum": 30735, "\u0120Free": 7648, "ermost": 32848, "~-": 17977, "mobile": 27806, "uned": 37437, "\u0120\u0120\u0120\u0120\u0120\u0120\u0120\u0120\u0120\u0120\u0120\u0120\u0120\u0120\u0120\u0120\u0120\u0120\u0120\u0120\u0120\u0120\u0120\u0120\u0120\u0120\u0120\u0120\u0120\u0120\u0120\u0120\u0120\u0120\u0120\u0120\u0120\u0120\u0120\u0120\u0120\u0120": 14686, "\u0120Philippe": 46425, ".\"\"": 15653, "\u0120accommodations": 45579, "\u0120voxel": 46092, "\u0120metall": 11937, "\u0120Syd": 16739, "\u0120porous": 26665, "\u0120subway": 37049, "\u0120233": 28020, "ractable": 44374, "\u0120mount": 4205, "ill": 408, "\u0120hiking": 33061, "leigh": 34460, "ounger": 42398, "\u0120ache": 49652, "\u0120syndrome": 9237, "\u0120#\"": 34449, "\u0120semi": 10020, "\u0120\u00c2\u00b7": 25271, "\u0120Plants": 48525, "\u0120PBS": 13626, "Inner": 38090, "\u0120Tub": 39942, "0075": 46010, "\u0120libertarian": 48845, "magn": 30362, "Uri": 31490, "\u0120Government": 7295, "Fatal": 47837, "aylor": 9614, "\u0120Point": 11149, "\u0120reservoir": 18699, "esi": 27544, "redients": 46580, "ulus": 19901, "\u0120suicide": 13184, "itosan": 42007, "\u0120attachments": 37969, "\u0120Rec": 4568, "\u0120Brent": 34819, "\u0120shore": 16838, "nom": 25009, "Henry": 29473, "\u0120Biomed": 48465, "\u0120ensued": 49984, "\u00e6\u00b1": 24545, "cephal": 25088, "jpeg": 42787, "UX": 21466, "Universal": 49194, "ui": 4113, "~),": 28004, "')\\": 34311, "\u0120reports": 5012, "\u0120Ul": 18039, "\u0120Pump": 49011, "\u0120interloc": 45460, "\u0120informal": 25040, "ured": 1520, "\u0120breaches": 49748, "},$$": 14640, "enue": 23979, "bug": 7700, "*\u00e2\u0122\u0132": 49411, "\u0120preview": 25044, "\u0120tan": 23136, "\u0120tourists": 24359, "uning": 25004, "\u0120Fifty": 38625, "\u0120PRES": 44468, "\u0120Cobb": 43342, "\u0120specifying": 31238, "bigoplus": 36985, "of": 1171, "\u0120waved": 27194, "\u0120SPECIAL": 38152, "\u0120hone": 39741, "782": 44037, "\u0120excess": 6714, "Performance": 35975, "\u0120prox": 16843, "\u0120physi": 25258, "\u0120hostage": 43180, "\u0120Sin": 16495, "\u0120pounds": 12511, "\u0120circumstance": 26741, "cus": 11675, "\":[": 29925, "\u0120GAPDH": 41610, "\u0120ageing": 43900, "ffic": 1330, ":**": 6098, "\u0120router": 23093, "\\,{\\": 37192, "solid": 23706, "\u0120hydroph": 17957, "\u0120photore": 38099, "anny": 10059, "\u00e6\u012a\u00b7": 46136, "\u01209": 898, "\u01201991": 10226, "\u0120texts": 17438, "\u0120dancers": 39576, "\u00d0\u00bd\u00d1\u012d\u00d0\u00b5": 29220, "\u0120theme": 10014, "\u00e8\u00b1\u00a1": 44795, "\u0120Madison": 21661, "\u0120Labour": 15702, "supp": 4032, "\u0120California": 5002, "704": 26942, "\u0120Significant": 29986, "rices": 5395, "\u0120dictator": 48177, "onds": 39320, "\u0120escap": 12870, "mun": 1815, "\u0120Land": 8565, "OTE": 30948, "utors": 21176, "\u0120offer": 3959, "\u0120complexities": 48663, "nat": 25781, "ouin": 44818, "1990": 13435, "several": 43249, "\u0120Franklin": 17179, "\u0120approximation": 11193, "\u0120confirm": 6583, "\u0120considerably": 15455, "\u0120harvest": 12308, "\u0120MHz": 21865, "\u0120polymeric": 33973, "SEL": 27300, "zy": 3847, "UINT": 41092, "atro": 35078, "\u0120initWith": 44668, "\u0120firewall": 43505, "eredith": 46929, "\u0120lowered": 17892, "\u01201951": 25124, "insulin": 49585, "\u0120rh": 13882, "FAULT": 16250, "\u0120dusty": 38907, "}}^{-": 34273, "disambiguation": 42412, "\u0120estar": 39434, "\u0120LAW": 47782, "\u0120bacterial": 10741, "\u0120Ches": 36638, "\u0120abras": 45105, "\u0120prosecutors": 27355, "\u0120ubuntu": 13520, "\u0120bleeding": 14771, "\u0120Few": 29578, "Hz": 8161, "\u0120calling": 6789, "\u0120Pref": 25585, "\u0120Person": 15694, "artment": 2688, ")/((-": 16986, "\u0120pretext": 39543, "ably": 1598, "\u0120Giovanni": 48505, "%%": 7847, "\u0120Bruce": 18673, "\u0120unconstitutional": 27093, "things": 28579, "\u0120Cabinet": 32098, "\u0120silicone": 35651, "\u0120sod": 9359, "\u0120undefined": 17011, "i\u00c3\u00a9n": 21878, "279": 23163, "%=": 27763, "\u0120down": 1066, "CTYPE": 30915, "\u0120incidental": 40514, "Length": 10830, "OTT": 31219, "\u0120BLOCK": 44425, "\u0120aspart": 44928, "\u0120achie": 3143, "\u0120entire": 2862, "\u0120radiological": 46513, "week": 11151, "Target": 12168, "\u00e2\u0137\u0132": 20245, "\u0120proceeding": 12162, "\u0120Horizontal": 46724, "\u0120Ec": 24253, "tok": 25348, "v\u00c3\u00a9": 43147, "got": 19559, "\u0120salv": 29717, "\u00c4\u00b1r": 43159, "\u0120ate": 18739, "\u0120dup": 24708, "\u0120case": 1083, "\u0120hierarch": 20258, "Everyone": 23631, "mmol": 32065, "targeted": 44490, "561": 41081, "\u0120Wald": 48690, "Defendant": 25187, "burst": 28754, "\u0120instr": 5923, "\"].": 37594, "\u0120Apart": 23449, "\u0120wholesale": 35222, "\u0120defines": 13067, "\u0120sciences": 23496, "\u0120ns": 19769, "provide": 42260, "\u0120init": 2012, "\u0120skewed": 46746, "\u0120flying": 12060, "\u0120Palestine": 29313, "\u0120suspend": 32407, "\u0120travellers": 43817, "\u0120resemb": 22066, "faced": 28619, "ferentially": 32432, "\u0120economical": 37265, "hai": 16926, "airs": 3514, "oshi": 25453, "EXCEPT": 44788, "\u0120pagan": 47372, "\u0120Donovan": 49028, "representation": 37626, "\u0120Round": 12778, "\u0120Sal": 6470, "\u0120advoc": 9695, "286": 23360, "\u0120While": 3900, "\u0120undergoes": 39508, "]{}": 1181, "\u0120Mitchell": 19980, "\u0120Easter": 27477, "\u0120quatern": 40163, "524": 43171, "\u0120Trans": 4480, "\u0120delet": 8812, "ocation": 4341, "roz": 44706, "0034": 41674, "FFER": 27254, "\u0120accountable": 28461, "\u0120manipulating": 40238, "/": 16, "\u0120Ernst": 41888, "\u0120interfering": 30809, "\u0120loans": 15407, "\u0120abol": 17654, "\u0120processor": 13732, "\u0120Analy": 25113, "Time": 4769, "\u0120Jefferson": 19759, "pancy": 25401, "deck": 43677, "tat": 41506, "Populated": 38257, "\u0120Wes": 26226, "\u0120extremes": 41798, "rates": 27619, "UK": 19642, "\u0120bounce": 31888, "Female": 33090, "\u0120Wiki": 37059, "\u0120Minn": 12498, "\u0120Revenue": 27464, "\u0120cro": 9187, "zed": 4337, "\u0120Erd": 37602, "ended": 1834, "\u0120displayed": 8653, "sync": 24335, "\u0120Jong": 38065, "lems": 44778, "\u0120bird": 12621, "\u0120melan": 15063, "\u0120manifolds": 28236, "boundary": 45794, "\u0120implants": 27067, "})^{-": 44359, "\u0120symptoms": 5917, "\u0120domin": 7630, "38": 1839, "\u0120City": 3228, "While": 6175, "arks": 7969, "\u0120indicator": 15301, "\u012072": 8187, "\u0120causal": 19349, "\u0120under": 762, "386": 20373, "\u0120aj": 29168, "uated": 11634, "\u0120Cic": 45812, "BUT": 30741, "\u0120553": 45923, "\u0120\u00c3\u00ba": 16438, "ux": 2310, "\u00d7\u013e": 20770, "\u0120treated": 4127, "\u0120ways": 4088, "\u0120Editor": 17234, "\u0120Vaugh": 38923, "\u00e0\u00a4\u00a4": 23936, "dAtA": 45581, "today": 39799, "while": 6050, "\u0120amendment": 15129, "\u0120jew": 15589, "step": 10539, "ulas": 37961, "pired": 24875, "\u0120ky": 44996, "\u0120lineback": 38521, "\u0120rent": 8845, "\u0120flood": 10802, "\u0120anthrop": 21698, "\u0120Snyder": 41835, "\u0120Tobacco": 47786, "\u0120Somehow": 45138, "\u0120High": 4855, "\u0120harmless": 25365, "nas": 27109, "\u0120demise": 40580, "\u0120rationale": 24775, "\u0120hydrophobic": 26684, "\u0120Rex": 36533, "Cro": 40053, "\u0120fossil": 22852, "\u00c3\u00b1a": 23748, "onsieur": 49287, "\u0120?>": 23983, "\u0120father": 3392, "93": 4590, "\u0120Cup": 9167, "\u0120Chemistry": 36873, "\u0120IHC": 44538, "epithelial": 47910, "Lj": 49387, "\u0120rod": 12591, "\u0120126": 17574, "\u0120belonged": 20651, "\u0120argues": 8219, "entieth": 24644, "Whatever": 25713, "Af": 19405, "arde": 26499, "\u0120together": 2366, "ita": 5741, "OCK": 9466, "itance": 15314, "psin": 25591, "\u0120Background": 17720, "\u0120demonstrated": 5183, "ynamics": 22517, "\u0120127": 15610, "MON": 22362, "lay": 15328, "\u0120Shah": 24919, "choose": 27271, "\u0120Info": 28730, "\u0120corro": 23149, "\u0120psori": 38573, "Queue": 19878, "\u0120sleep": 4600, "\u0120421": 38609, "eness": 8098, "hmad": 35249, "\u0120assigns": 39360, "\u00ec\u0138\u00b4": 39907, "\u0120Pompe": 40868, "!--": 8145, "\u0120ov": 14246, "\u0120spots": 13977, "erent": 41377, "\u0120\u00d8\u00ac": 44076, "Fe": 7510, "\u0120tip": 9092, "\u0120overwhel": 12357, "page": 6377, "\u0120TG": 24602, "\u0120Hamm": 25478, "!_": 26200, "Pic": 37132, "\u0120Friedman": 38734, "ANY": 22026, "\u0120instituted": 38417, "\u0120header": 10478, "\u0120natives": 38646, "1008": 39687, "GAN": 39845, "\u0120Denote": 44092, "\u0120Sar": 9997, "\u0120Os": 14183, "\u0120democratic": 18545, "diamond": 41369, "\u0120popping": 42084, "quartile": 42899, "ittest": 44713, "\u0120immensely": 45224, "\u0120pessim": 45234, "\u0120respons": 2539, "\u0120Witch": 45165, "walks": 45547, ">,": 9983, "\u0120School": 4726, "\u0120taxation": 34871, "\u0120framework": 7792, "\u0120Sche": 13675, "254": 15161, "\u0120regim": 17350, "\u0120May": 2552, "Boot": 36173, "\u0120retreated": 46047, ")&": 29372, "company": 25610, "0070": 42834, "\u0120NIR": 47067, "\u0120patron": 24081, "\u0120who": 665, "\u0120Charge": 42770, "Perfect": 47638, "thi": 48146, "OST": 13792, "icks": 5519, "terness": 42673, "RS": 6453, "Path": 5455, "\u0120isomorphism": 20169, "\u0120Cin": 26861, "\u0120locking": 22081, "Bibliography": 41353, "a\u00c3\u00b1a": 47341, "\u0120until": 1919, "gamma": 2733, "rogenic": 41508, "\u0120herds": 47862, "\u0120\u00cf\u0125\u00cf\u0126\u00ce\u00b7\u00ce\u00bd": 47607, "\u0120haem": 23754, "icrosoft": 6599, "\u0120pr": 819, "sexual": 32813, "ZO": 48876, "\u0120ben": 2240, "\u0120ech": 21509, "1177": 45085, "xiety": 9487, "\u01201868": 48318, "\u0120THEY": 35460, "\u00c2\u00b5g": 41829, "Train": 49904, "\u0120renal": 10919, "\u0120Boeh": 50061, "763": 23250, "\u0120cruiser": 50148, "\u0120adequacy": 50172, "der": 491, "\u0120hemp": 45967, "omycin": 22867, "\u0120dealer": 23827, "uso": 39014, "|>": 49651, "values": 8858, "recogn": 21888, "inted": 26082, "\u0120Test": 6004, "\u00d3": 143, "\u0120tangent": 28196, "\u0120SERVICES": 38986, "\u0120KIND": 19329, "\u0120Mad": 6984, "integral": 49112, "ADDRESS": 49559, "Ok": 20127, "negot": 43543, "MI": 6402, "\u0120deduced": 36183, "\u0120animals": 5074, "\u0120Fourier": 18368, "\u0120disabilities": 26545, "lete": 2527, "Gy": 30725, "\u0120Antib": 34567, "\u0120obed": 30017, "Sen": 18681, "\u0120Ancient": 32198, "\u0120Lex": 24766, "than": 14644, "underbrace": 45657, "\u00d8\u00a7\u00d8\u00af": 40802, "ruly": 46072, "\u0120juxt": 47806, "\u0120shade": 21290, "\u0120Bal": 11960, "aq": 32785, "ern": 1808, "\u0120transform": 4979, "ottom": 8175, "\u0120FIFA": 38075, "\u012084": 11130, "bean": 14844, "aching": 5250, "\u0120referred": 6289, "\u0120Unit": 16062, "\u0120resides": 31951, "\u0120believers": 35922, "ilot": 33236, "\u0120strand": 23186, "576": 33333, "Activ": 44066, "\u0120Plug": 48823, "\u0120se\u00c3\u00b1": 49833, "\u012061": 9901, "\u0120Zam": 50017, "\u0120sed": 9043, "\u0120Alaska": 20829, "\u0120lied": 27786, "\u0120ditch": 39081, "aic": 39533, "\u0120{(": 48469, "\u0120Nan": 20877, "whel": 11622, "atra": 29628, "\u0120chemok": 32038, "\u0120damned": 31833, "\u0120PE": 11031, "\u0120manufacture": 6833, "fred": 17408, "\u0120labelled": 27214, "\u0120Finnish": 36090, "\u0120SUV": 36175, "Eng": 8934, "\u0120uranium": 41031, "\u0120Lund": 38899, "\u0120Damascus": 47419, "\u0120bias": 8492, "Norm": 27315, "\u0120directives": 46904, "ictionaries": 49580, "these": 20513, "\u0120(+": 21757, "\u0120coast": 8852, "\u0120influences": 16178, "uro": 1822, "Empty": 16801, "\u0120pleading": 26412, "\u0120elements": 3603, "271": 28209, "actively": 39237, "Aw": 27031, "\u0120promote": 8591, "hbar": 13861, "\u0120posters": 32482, "termination": 49022, "\u0120ECM": 30309, "\u0120OUT": 16341, "\u0120found": 1119, "Plaintiff": 19056, "\u0120Hammer": 44591, "run": 6321, "Altern": 26149, "\u0120around": 1475, "\u0120Brasil": 46253, "\u0120Singapore": 16861, "\u0120Yang": 19028, "\u0120adj": 3067, "\u0120TODO": 24202, "\u0120volunteered": 43659, "\u0120DISCLAIM": 44174, "\u0120southeast": 32253, "\u0120enumeration": 46223, "\u0120phosphate": 17016, "\u0120dishes": 17114, "\u0120TW": 30694, "\u010a\u0109\u0109\u0120": 40973, "olding": 17593, "LIN": 29193, "PRINT": 44032, "\u0120illumin": 34080, "\u0120cmd": 20390, "\":": 1381, "\u0120projecting": 35104, "acillus": 27755, "\u0120bras": 41797, "algia": 32836, "predict": 22714, "cosystem": 16654, "\u0120Consider": 11680, "orthy": 23137, "please": 32897, "Gh": 37528, "\u0120luxurious": 42570, "arty": 43545, "affinity": 47854, "\u0120relegated": 50217, "vp": 29035, "\u0120prod": 30508, "\u0120Lear": 13039, "ouss": 46025, "\u0120refine": 39494, "aper": 6653, "ority": 24649, "\u0120bare": 8050, "looking": 13565, "AS": 1719, "\u0120entropy": 15579, "\u0120File": 8490, "techn": 23693, "\u0120fairly": 9648, "\u0120tbl": 47838, "\u0120synaptic": 21066, "sembled": 14948, "conserv": 36157, "\u0120Cellular": 49272, "\u0120Congo": 37642, "\u0120MON": 33995, "ak": 518, "\u0120Stand": 8419, "\u0120$^{": 19219, "WF": 27979, "\u0120mailing": 30959, "ipper": 32456, "\u0120minorities": 31691, "rh": 9492, "\u0120activist": 22531, "\u0120Kenya": 27946, "\u0120Bri": 41431, "\u00c5\u0124y": 47016, "QU": 8846, "Tell": 17570, "\u0120slit": 31688, "998": 27043, "vdots": 28439, "\u0120refin": 46783, "ego": 32844, "\u0120complexity": 10454, "\u0120designing": 20462, "\u0120Boat": 44522, "\u0120Ai": 49673, "\u0120findViewById": 48687, "Du": 24900, "\u0120optic": 26961, "\u0120rocking": 43219, "\u013a": 235, "\u0120deprec": 39638, "\u0120carbohydrate": 30825, "\u0120leads": 5644, "\u010a\u0120\u0120\u0120\u0120\u0120\u0120\u0120\u0120\u0120\u0120\u0120\u0120\u0120\u0120\u0120\u0120\u0120\u0120\u0120\u0120\u0120\u0120\u0120\u0120\u0120\u0120\u0120\u0120\u0120\u0120\u0120\u0120\u0120\u0120\u0120\u0120\u0120\u0120\u0120": 17240, "\u00d0\u00be\u00d0\u00b7": 19245, "Bank": 16822, "\u0120Bern": 10246, "996": 28053, "\u0120mutagen": 35239, "\u0120Nano": 42026, "\u0120dealership": 46564, "\u0120HPV": 23312, "\u0120defend": 2342, ";</": 13143, "\u0120USE": 19226, "\u0120wk": 47178, "iewicz": 48446, "isesti": 48931, "\u00e6\u0136\u00b9": 43316, "And": 1898, "\u0120paragraphs": 33295, "\u0120behold": 38189, "\u0120Monsieur": 38321, "\u0120kommer": 33045, "\u0120Gets": 34895, "\u00c5\u00a3i": 33541, "\u0120Clinical": 15022, "\u0120Danish": 26304, "\u0120myeloid": 34763, "Cit": 42670, "\u0120forefront": 43213, "086": 44675, "Appro": 30305, "\u0120Grass": 33905, "reduced": 43408, "\u0120managing": 14419, "\u0120IR": 9812, "\u0120White": 5219, "\u0120Shel": 19787, "\u0120determinations": 29240, "INGTON": 33082, "\u0120COPD": 27079, "SEM": 23015, "trace": 20668, "\u0120trium": 19725, "ials": 8075, "\u0120furniture": 17076, "Zero": 26561, "\u0120cared": 24782, "\u0120117": 12387, "\u0120result": 906, "\u0120reliably": 27340, "\u0120Bent": 35134, "navigation": 37336, "\u0120building": 3652, "Hi": 12764, "Exper": 18139, "riving": 19674, "kee": 19719, "\u0120codec": 47618, "\u0120Peters": 15370, "\u00e9": 165, "\u0120uphold": 39954, "\u0120leukocyte": 42573, "\u0120Afghan": 13376, "ums": 7640, "\u0120exclude": 16670, "blem": 12404, "147": 14555, "eed": 13158, "Cl": 2019, "aco": 15861, "repeat": 24712, "\u0120usability": 47813, "\u0120Philosoph": 43380, "imar": 49414, "MOD": 26980, "Rick": 46204, "withstanding": 22046, "\u0120OW": 46192, "atsu": 34055, "Part": 7834, "\u0120selecting": 17221, "\u0120evid": 20456, "Va": 31775, "\u0120involves": 8687, "\u0120committing": 26841, "\u0120staged": 35035, "\u0120unfavorable": 43257, "hend": 45182, "\u0120Huntington": 49098, "\u0120sho": 6738, "\u0120GBM": 41494, "Alright": 47292, "\u0120constituents": 26290, "along": 28694, "\u0120Building": 16790, "\u0120ure": 16811, "anking": 41988, "\u0120retal": 24998, "\u0120cognition": 31937, "apse": 8023, "\u0120exceed": 8268, "\u0120commercial": 6264, "photo": 24442, "&&\\": 25984, "\u0120discovering": 30375, "oki": 31240, "thread": 11972, "Util": 12804, "Utils": 19611, ")\",": 22719, "\u0120neon": 16772, "\u0120superv": 35220, "\u0120stro": 16953, "Test": 5089, "\u0120{};": 25425, "iece": 36450, "\u0120Didn": 40713, "\u0120479": 41372, "722": 48923, "\u0120l\u00c3\u00a4": 27029, "\u0120sehr": 46620, "\u0120vo": 3273, "\u0120fisher": 27633, "\u0120bloggers": 41982, "\u0120observers": 25226, "\u0120ost": 27723, "\u0120phases": 12475, "\u0120jer": 23313, "scription": 13705, "iliated": 31689, "903": 36814, "\u0120ABA": 38725, "\u0120Crawford": 33330, "[]": 5456, "Ju": 40700, "\u0120fiction": 14459, "\u0120teach": 9798, "steine": 24929, "\u0120contaminated": 25493, "\u0120Proof": 37510, "\u0120workpiece": 43983, "}}^": 7294, "\u0120decis": 20939, "disciplinary": 36078, "graph": 10580, "\u0120Photos": 30921, "carrier": 48789, "\u0120SPD": 35588, "CLC": 23839, "\u0120\u00e2\u0128\u0133": 44723, "\u0120warnings": 20942, "\u0120Roll": 21508, "thirds": 29988, "hop": 12242, "\u0120commence": 25301, "\u0120finer": 40259, "\u0120vibr": 13601, "thems": 45739, "\u0120movies": 11321, "u": 86, "intel": 34291, "pixel": 29206, "240": 14028, "\u0120Davis": 11328, "\u0120compares": 26662, "\u0120filings": 48174, "\u0120GST": 31077, "inguishable": 37148, "\u0120SV": 17370, "\u0120seeded": 27677, "\u0120evolves": 43279, "\u0120Eat": 43852, "\u0120dependence": 10096, "\u0120assessed": 7515, "Param": 11030, "CA": 4280, "\u0120Bible": 13534, "\u0120chi": 21477, "307": 21645, "rem": 2013, "\u0120honored": 28173, "\u0120shareholders": 28284, "\u0120Major": 11432, "70": 1967, "xd": 17176, "\u0120MED": 32036, "\u0120orally": 32939, "\u0120getting": 2970, "\u0120cities": 8238, "\u0120NAT": 19689, "'$,": 33189, "\u0120accord": 7158, "\u0120absol": 4847, "ajo": 23246, "\\]]{}": 29013, "\u0120sop": 34715, "THE": 9707, "\u0120Ready": 38743, "istent": 6688, "/>.": 40000, "Sin": 40194, "\u0120maximize": 22950, "have": 9802, "\u0120choir": 40656, "Miller": 42038, "\u0120astrophys": 43673, "Magic": 47205, "}),\\": 46257, "\u0120hers": 22502, "\u0120512": 23414, "Learning": 43453, "}+": 6643, "ringes": 45324, "              ": 50264, "\u0120pile": 19176, "views": 17920, "429": 34637, "\u0120perce": 50135, "angled": 33195, "\u0120initialize": 26641, "\u0120Hamas": 32885, "\u01201910": 31707, "\u0120mentioning": 29570, "grave": 45283, "666": 24185, "\u0120ow": 18454, "\u0120fib": 5713, "iente": 25341, "\u0120Surgical": 42819, "andidates": 44975, "\u0120communal": 40378, "\u0120fish": 6773, "\u0120Bol": 16001, "\u0120reality": 6612, "\u0120Irish": 11596, "\u0120Johns": 34676, "\u0120wished": 16632, "idelines": 7686, "appy": 11599, "\u0120\u0120\u0120\u0120\u0120\u0120\u0120\u0120\u0120\u0120\u0120\u0120\u0120\u0120\u0120\u0120\u0120\u0120\u0120\u0120\u0120\u0120\u0120\u0120\u0120\u0120\u0120\u0120\u0120\u0120\u0120\u0120\u0120\u0120\u0120\u0120\u0120\u0120\u0120\u0120\u0120\u0120\u0120\u0120\u0120\u0120\u0120\u0120\u0120\u0120\u0120\u0120\u0120\u0120\u0120\u0120\u0120\u0120\u0120\u0120\u0120\u0120\u0120\u0120\u0120\u0120\u0120\u0120\u0120\u0120\u0120": 37242, "Ar": 2906, "pressing": 39385, "\u0120immers": 24956, "elf": 813, "hr": 6285, "\u0120gambling": 25572, "124": 13397, "--------------------------------------------------------------------------------------------------------------------------------": 7078, "anol": 9201, "\u0120eu": 21187, "\u0120mindful": 44049, "\u01201887": 48026, "\u0120behave": 21319, "\u0120discussing": 16585, "irable": 8953, "\u0120endocrine": 35527, "askell": 34524, "\u0120weary": 35725, "being": 11952, "\u0120!==": 20767, "\u0120hurry": 24284, "akes": 1582, "orph": 4048, "\u0120tub": 6985, "something": 17873, "\u0120Determ": 29739, "\u0120inaccessible": 49187, "bear": 48211, "\u0120Kingston": 47706, "\u00e6\u0139\u00a5\u00e6\u013e\u00ac": 49868, "getElementById": 22339, "\u0120harboring": 48263, "\u0120securities": 23175, "c\u00c3\u00a9": 32612, "\u0120ERR": 22535, "\u0120resource": 7741, "<?": 14277, "\u0120Experiment": 28111, "\u0120temps": 29324, "rainian": 24647, "dd": 1678, "\u0120immunohistochemistry": 35311, "\u0120CSS": 16710, "\u0120assemblies": 25502, "essment": 18114, "\u0120warranty": 17529, "atal": 3165, "\u0120sections": 7118, "\u0120maker": 24320, "convert": 28985, "\u0120Barn": 15359, "inguish": 29641, "\u0120TeV": 39784, "\u0120fict": 46398, "\u00e8\u0129": 16787, "\u0120fox": 30013, "\u0120Cardinals": 37911, "\u0120endothelium": 43427, "\u0120foliage": 46441, "\u0120libc": 33365, "\u0120extern": 23489, "\u0120genetics": 30222, "\u0120borough": 46861, "\u0120problem": 1895, "\u0120Watkins": 48077, "Json": 17219, "atorial": 25922, "TON": 18587, "\u0120Amazon": 10550, "\u0120swear": 24156, "agram": 12068, "======": 4738, "\u0120peaked": 33404, "sender": 36294, "\u0120anything": 2712, "whole": 40338, "uf": 2375, "friends": 29261, "\u0120myst": 13693, "ond": 857, "brush": 36511, "utt": 13077, "\u0120infarction": 24043, "\u0120Investig": 32668, "\u0120BGCOLOR": 49249, "\u0120railway": 18217, "\u0120tips": 12192, "\u0120correcting": 35827, "\u0120Quad": 43553, "-------------------------------------------------------": 48151, "gc": 23654, "\u0120Sm": 3774, "Camp": 25046, "\u0120forums": 25278, "\u0120Randall": 43522, "shop": 29203, "\u0120electrolyte": 31191, "ientes": 42523, "cats": 38718, "\u0120concludes": 20097, "261": 26560, "\u0120interacts": 29290, "AZ": 32604, "amping": 42956, "\u0120Chick": 46797, "\u00cf\u0122\u00ce\u00bf": 16287, "elve": 11071, "\u0120restraint": 28891, "116": 13210, "\u0120solvent": 15465, "\u0120exclus": 46853, "}>": 20499, "YPT": 32857, "vine": 29735, "interest": 14014, "pr": 1087, "valence": 33630, "Known": 33931, "\u0120GP": 15871, "icket": 21315, "\u0120deny": 13292, "rien": 19430, "\u0120Cub": 13447, "\u01201963": 19949, "Place": 23495, "Duration": 24921, "\u0120slope": 14679, "\u0120Beauty": 36974, "\u0120calves": 43173, "\u0120priorities": 23971, "\u0120brightest": 43719, "ox": 1004, "\u0120Preston": 44124, "Ker": 45948, "\u00e3\u0125\u0139": 22655, "\u0120analyzed": 5867, "\u0120ruin": 23737, "\u0120discarded": 25665, "\u0120billion": 6494, "mob": 42096, "\u0120IN": 2949, "equiv": 8275, "\u00c3\u00a7o": 31277, "\u0120bands": 10604, "\u0120Monthly": 43562, "Lord": 27537, "\u0120Gender": 33849, "\u0120lax": 46948, "\u0120Nik": 17250, "nil": 18789, "\u0120zu": 10736, "\u0120Planning": 26722, "\u0120ship": 6215, "\u0120Raman": 29421, "SUB": 32769, "\u00eb\u0135": 34431, "\u0120modulate": 28498, "\u0120mans": 30433, "\u0120Venezuela": 27608, "secondary": 36277, "\u0120tolerant": 41842, "\u0120vastly": 37078, "Chars": 45132, "ori": 8885, "<|endoftext|>": 50279, "\u0120gol": 39245, "ife": 1074, "\u0120393": 39474, "pel": 44187, "Pseud": 35875, "lim": 2815, "\u0120arter": 7463, "\u0120eighth": 23738, "iron": 2002, "habilitation": 16626, "Ever": 35313, "\u0120Raz": 39194, "\u00cf\u0122\u00ce\u00b5": 44687, "\u0120analyst": 23960, "bt": 2612, "LAST": 28406, "\u00d0\u00b9": 10411, "\u0120asymptomatic": 30192, "\u0120convolution": 27311, "ml": 1686, "url": 6434, "\u0120Schools": 27498, "HQ": 31034, "ederal": 3224, "memory": 20704, "imme": 46848, "\u0120cockpit": 47652, "\u0120sinking": 34352, "\u01201959": 22824, "\u0120bru": 19933, "\u0120animate": 49129, "\u0120ovarian": 18984, "ICH": 23959, "able": 494, "CONTROL": 37423, "\u0120haplotypes": 42510, "\u0120[\\": 24430, "\u0120radiographic": 42561, "five": 12071, "\u0120\u00e2\u0122\u0140": 16724, "\u0120Freder": 22218, "716": 48379, "\u0120introduces": 23970, "\u0120imposs": 37593, "ments": 942, "\u0120PD": 6442, "Pers": 16330, "\u0120rating": 13716, "\u0120capacities": 29142, "\u0120additionally": 23000, "\u0120Greek": 11308, "\u0120tong": 12386, "\u0120Phil": 6778, "\u0120sorts": 16308, "\u0120exempl": 17449, "\u0120verte": 17073, "sil": 17525, "\u0120electrodes": 14722, "supported": 19391, "\u0120ak": 29507, "\u0120chord": 32894, "\u0120y": 340, "CD": 3717, "children": 13863, "\u0120carries": 15814, "\u0120THAT": 16093, "configuration": 24693, "itatively": 21404, "\u0120knight": 30605, "doors": 26695, "\u0120Pages": 30629, "\u0120collectors": 38454, "\u0120Activities": 40499, "etts": 12513, "\u0120merc": 14480, "\u0120Guinea": 34410, "ir": 343, "content": 6071, "\u0120MG": 24879, "overflow": 27745, "crets": 39796, "\u0120ign": 4900, "071": 41432, "drm": 40361, "\u0120dann": 40696, "\u0120Settlement": 41573, "\u0120Inventory": 43515, "Riddell": 46428, "\u0120controller": 9763, "\u0120existed": 13164, "\u0120hinted": 47466, "\u0120che": 1161, "anche": 10024, "Former": 28292, "\u0120Theoretical": 48322, "\u0120bil": 10370, "dm": 17670, "\u0120deceptive": 50015, "enge": 4703, "\u0120Fifth": 17538, "agnetic": 9967, "\u0120dropped": 8231, "\u0120globe": 20902, "datepicker": 43991, "CEPT": 27843, "\u0120Kremlin": 46885, "\u0120corros": 26110, "\u0120surroundings": 27762, "\u0120retaliation": 29995, "GMP": 40340, "HF": 21996, "\u0120buffer": 6391, "\u0120moral": 9447, "\u0120duplication": 35793, "\u0120flats": 47350, "('<": 45635, "\u0120fungal": 25158, "\u0120failed": 4242, "\u0120depicted": 17253, "\u0120disgust": 24808, "discovery": 49330, "dots": 6768, "\u0120Nic": 12951, "\u0120cur": 1095, "\u0120guarant": 7264, "\u0120truly": 7777, "\u00c5\u00a1\u00c3\u0143": 47022, "Suggest": 49969, "\u0120640": 37174, "\u0120Pruss": 37138, "\u0120coworkers": 47450, "ov": 729, "\u0120answered": 9577, "\u0120\u00d1\u0123\u00d0\u00bf": 35671, "\u0120familial": 36490, "\u00e8\u012d": 38672, "\u0120enabled": 11410, "\u0120txt": 40377, "\u0120demographics": 35949, "\u0120acupuncture": 42543, "230": 17569, "VAL": 10403, "\u00e3\u0122\u0123": 4746, "\u0120Working": 21919, "nolimits": 32558, "\u0120GRANT": 44646, "att": 1595, "\u0120Coulomb": 34008, "\u0120test": 1071, "\u0120teaches": 22332, "\u0120gotta": 17500, "\u0120millilitres": 40198, "emitter": 49728, "Northern": 49107, "\u0120Defender": 42943, "\u0120wal": 10250, "\u0120Moreover": 5076, "Layout": 9683, "ophag": 14479, "\u0120quar": 25721, "\u0120songs": 9575, "\u0120focusing": 13654, "forming": 14692, "minist": 2680, "\u0120French": 5112, "{$": 16661, "\u0120electric": 5637, "\u0120creator": 24799, "mma": 13632, "\u0120Log": 8192, "\u01201939": 22745, "\u0120Bobby": 24707, "Ohio": 30779, "\u0120gru": 26970, "hole": 13928, "\u0120ultrasonic": 34582, "\u0120bourgeois": 39201, "\u0120corroborated": 47790, "\u0120slows": 49133, "apon": 23821, "\u0120probl": 37386, "\u0120offence": 34306, "\u0120Fry": 38553, "ocene": 41738, "\u0120shRNA": 45237, "reon": 31997, "yt": 1767, "\u0120ever": 2455, "\u0120motif": 14443, "\u0120nor": 4543, "\u0120upward": 19123, "\u0120moderately": 28249, "arios": 12416, "\u00e9\u013d": 20031, "arious": 37993, "\u0120Brig": 20202, "\u0120saying": 3981, "\u0120grad": 3805, "\u0120transplantation": 18061, "\u0120NPR": 37957, "\u0120Nokia": 41720, "\u0120motor": 5694, "\u0120advising": 44083, "\u0120Higher": 23230, "\u0120but": 533, "ony": 2421, "hene": 17866, "805": 27632, ")\\": 1572, "\u0120brackets": 26609, "\u0120outputs": 18012, "\u0120believed": 6566, "\u0120unsafe": 20372, "\u0120judging": 32721, "LH": 45538, "\u0120affected": 5876, "\u0120decom": 11101, "illus": 21306, "[$": 16369, "\u0120217": 26517, "may": 11159, "}^*": 19135, "\u0120HS": 21502, "\u0120retrieval": 25064, "iu": 14353, "\u0120reasonable": 5272, "\u00e6\u00a7": 43033, "\u0120Weinstein": 49224, "_**": 17906, "898": 33868, "\u0120adjustments": 23927, "\u0120formulations": 26850, "tons": 24787, "\u0120289": 30717, "\u0120activists": 18158, "maybe": 28489, "RELEASE": 35010, "Profile": 23912, "\u0120formulated": 26115, "\u0120313": 31389, "\u0120simulations": 9938, "everse": 28717, "TV": 12101, "\u0120(\"[": 48664, "Sir": 20405, "ogenetic": 15716, "pole": 36479, ")}(\\": 29591, "\"};": 13334, "\u0120pristine": 43559, "1004": 44197, "\u0120Ay": 22587, "\u0120Technology": 10784, "\u0120\u0120\u0120\u0120\u0120\u0120\u0120\u010a\u0120": 47245, "\u0120shallow": 20126, "\u0120Kill": 26464, "\u0120mitt": 50075, "\u0120plasmids": 29530, "\u0120Mail": 21261, "\u0120commute": 36437, "\u0120Has": 14026, "\u0120\u00c3\u00ac": 31016, "\u00e6\u0136\u00be": 45882, "\u0120305": 26402, "\u0120pact": 47448, "\u0120partners": 10471, "Heart": 39430, "mathchoice": 47827, "\u0120reckon": 44352, "ankton": 41484, "Studies": 38954, "\u0120Shock": 46085, "\u0120meets": 16382, "VS": 28259, "\u0120prosecuted": 39459, "ppat": 18510, "\u0120baseline": 8245, "\u0120580": 42178, "\u0120ascertain": 24228, "\u0120our": 776, "composition": 42190, "\u0120Reply": 38984, "\u0120statutory": 11315, "\u0120produced": 4197, "operations": 42316, "requently": 34416, "\u00e7\u013d\u00b8": 32313, "611": 45759, "\u0120guidelines": 9600, "\u0120Muslim": 8797, "\u0120$(\\": 9722, "847": 49830, "cted": 2356, "\u0120surrounding": 8704, "Clock": 39497, "\u0120aneurys": 27627, "peror": 14652, "\u0120poem": 19361, "\u0120Compare": 29036, "assador": 18692, "r\u00c3\u00a4": 44093, "asket": 20253, "\u0120triglyceride": 49020, "\u0120inefficient": 31334, "isa": 8901, "\u0120wherein": 10646, "apters": 49872, "\u0120pursuant": 10376, "\"[": 39258, "Encode": 43434, "\u0120PTSD": 33649, "\u0120nucleotide": 18379, "Stage": 30635, "\u0120somewhat": 8489, "\u00e3\u0123\u0124": 14010, "\u0120Fil": 9074, "\u0120territory": 12785, "menu": 11746, "compliance": 46451, "\u0120Mortgage": 45103, "Throw": 36556, "Film": 37160, "\u0120interplay": 36039, "bibr": 14457, "^\u00e2\u012a\u0134^": 24994, "vb": 30890, "\u0120pol\u00c3\u0143tica": 33154, "restricted": 44255, "\u0120Given": 10300, "());": 6020, "gen": 1541, "\u00e3\u0123\u012a": 19857, "\u0120_(": 31670, "Unmarshal": 50143, "\u0120spinning": 24428, "Sort": 15462, "amo": 13431, "sz": 20932, "Spr": 39023, "\u0120temperatures": 9208, "\u0120rub": 7692, "\u0120engineered": 28136, "\u0120Develop": 20148, "\u0120pud": 35587, "caption": 34480, "\u0120Ces": 44533, "agan": 12043, "\u010a\u0109\u0120\u0120\u0120\u0120\u0120": 39472, "\u0120defer": 36574, "\u00e5\u00b7": 16385, "\u0120Dob": 35218, "LOG": 21273, "udeau": 41595, "origin": 27422, "\u0120acknowledging": 40088, "chol": 34786, "\u0120announcements": 43400, "\u00c3\u00a4\u00c3\u00a4": 15175, "\u00d0\u00be\u00d0\u00b2\u00d0\u00be\u00d1\u0122": 41505, "\u0120gnome": 29207, "--------------------": 15879, "cern": 20631, "\u0120stupid": 11339, "opez": 27217, "\u0120abnorm": 32459, "\u0120microwave": 23225, "Demo": 41074, "\u0120brew": 25410, "\u01202007": 5215, "\u0120filled": 6898, "\u0120Drugs": 45124, "\u0120randomly": 12421, "\u0120Catal": 17684, "\u0120limited": 3710, "\":[\"": 46576, "\u0120representation": 6779, "\u0120long": 1048, "akh": 18980, "\u0120NSCLC": 33512, "\u0120charitable": 34251, "\u0120flight": 8630, "\u00c2\u0138": 25371, "\u0120quantify": 22048, "\u0120maintain": 6558, "\u0120chronic": 6722, "\u0120MAY": 37591, "aturally": 28147, "\u0120702": 42444, "\u0120[`": 44308, "quark": 46310, "\u0120shot": 5103, "\u0120\u0120\u0120\u0120\u0120\u0120\u0120\u0120\u0120\u0120\u0120\u0120\u0120\u0120\u0120\u0120\u0120\u0120\u0120\u0120\u0120\u0120\u0120\u0120\u0120\u0120\u0120\u0120\u0120\u0120\u0120\u0120\u0120\u0120\u0120\u0120\u0120\u0120\u0120\u0120\u0120\u0120\u0120\u0120\u0120\u0120": 17067, "\u0120\u00c3\u00a4": 9951, "\u0120GOP": 18485, "T": 53, "\u0120Ne": 3532, "dyn": 42927, "\u012030": 1884, "asm": 4542, "\u0120&\\": 9443, "\u0120polit": 2314, "\u0120<=": 11049, "Pear": 43361, "\u0120\u00e0\u00b2": 47568, "\u0120ld": 42651, "assay": 33263, "\u0120rubbed": 32089, "irled": 47097, "APH": 42363, "index": 4663, "\u0120vice": 12008, "\u0120mim": 13892, "\u0120Rules": 16228, "\u0120dic": 37266, "brev": 22966, "\u0120FILE": 15691, "\u0120ethylene": 32877, "\u0120festival": 16365, "\u0120655": 39005, "ida": 4355, "\u0120public": 1345, "\u0120rules": 4803, "\u0120capt": 3403, "\u0120maturation": 24988, "\u00e8\u00bf": 9078, "\u0120ave": 41096, "\u0120flew": 18811, "\u0120butter": 10379, "ifold": 49228, "\u0120elev": 6478, "\u0120{\u00c2\u00b6": 26362, "\u0120menstru": 36513, "ivat": 43236, "\u0120witch": 25204, "\u0120spider": 32850, "\u0120PLAY": 45516, "lambda": 2260, "\u0120supernat": 20637, "isten": 26307, "ounter": 13914, "john": 34276, "992": 34363, "\u0120Facility": 36503, "\u0120fertilization": 46960, "\u0120apples": 28580, "\u0120314": 33198, "\u0120wie": 21650, "\u0120\u00e2\u0128": 26473, "\u00e8\u00af": 11894, "\u01201970": 10333, "\u00d0\u00be\u00d0\u00bc\u00d1\u0125": 33576, "(?:": 36512, "pretty": 38256, "\u0120portraits": 38317, "\u0120aqueous": 17515, "RP": 22307, "elia": 29173, "\u0120phag": 29073, "\u0120decreases": 12075, "\u0120establishments": 22696, "\u0120Seth": 32393, "\u0111\u0103": 33059, "ushi": 34485, "commercial": 37763, "\u0120\\*\\**": 38710, "McC": 41378, "\u0120Flores": 46644, "vill": 40579, "\u00d0\u00bb\u00d1\u0130\u00d1\u0129": 46686, "osaurs": 43329, "\u0120557": 47919, "\u00d0\u00bb\u00d0\u00b8": 11378, "microsoft": 22730, "\u0120thankful": 31115, "\u0120Dynamics": 37868, "\u0120RIP": 41218, "\u0120LIFE": 49367, "\u0120prefer": 4510, "GHz": 33529, "\u0120sue": 25457, "360": 16587, "\u0120worse": 7197, "\u0120\"/": 13357, "\u0120Insurance": 16541, "args": 8854, "\u0120wanted": 3078, "strom": 27621, "\u0120href": 3860, "rivate": 6775, "\u0120Thomas": 7195, "achus": 12903, "hma": 14894, "ars": 1032, "ellants": 19011, "\u0120accessing": 24497, "\u0120wafer": 20832, "\u0120condemned": 26212, "\u0120ALJ": 27872, "selector": 28192, "\u0120opportunity": 5107, "\u0120\u00d0\u013f": 25077, "\u0120fractions": 17711, "di": 5168, "\u0120buses": 23444, "\u0120Production": 28363, "\u0120upgraded": 29101, "\u0120facilitated": 30199, "ISION": 34316, "\u0120generals": 39091, "\u0120RSS": 35452, "Olympic": 40611, "\u0120Derek": 36312, "\u0120Chef": 41100, "\u0120enthusiasts": 41498, "\u0120Kyoto": 41951, "\u0120mitigation": 36455, "\u0120Tou": 44025, "\u0120compromising": 48637, "emp": 21568, "annotations": 47926, "\u0120Yankees": 33891, "TextField": 47379, "\u00e6\u013e\u012f": 49616, "\u0120Real": 10417, "\u0120alumni": 20759, "\u0120383": 38162, "\u0120shroud": 49943, "\u0120RF": 15371, "\u0120intens": 12934, "091": 44238, "ensive": 3134, "\u0120Cob": 27911, ")": 10, "MIC": 34611, "\u0120substituted": 18528, "\u0120thicker": 36651, "Cycl": 48314, "\u0120regulatory": 10545, "\"/": 36561, "\u0120coinc": 10891, "\u0120Need": 20389, "107": 12224, "\u0120Strong": 24747, "istors": 25003, "\u0120arc": 12423, "\u0120Wine": 34207, "@{": 26778, "create": 6953, "\u0120Pedro": 33414, "ellation": 36413, "\u0120tractor": 39463, "\u0120gladly": 46107, "\u0120jul": 49137, "asp": 4938, "\u0120Naz": 13025, "intf": 44313, "\u0120pess": 25768, "\u0120four": 1740, "ailable": 10407, "iner": 7068, "folk": 27257, "crime": 44460, "establish": 39961, "GTH": 29818, "\u0120cres": 36098, "()`": 42702, "\u0120Princess": 23091, "\u0120please": 4496, "belie": 21002, "ASS": 7810, "\u0120necess": 2436, "\u00e3\u0123\u0128": 9935, "\u0120Vice": 17979, "\u0120Bayesian": 26812, "\u0120-----------------------": 28527, "NM": 18971, "\u0120Dee": 47433, "\u00e3\u0124\u0143": 33548, "oblastic": 49769, "\u0120usefulness": 31471, "\u0120Club": 9585, "uclidean": 26365, "\u0120hemorrh": 21699, "lar": 9388, "\u0120;;": 28513, "DT": 15580, "\u0120Pas": 17231, "\u00bb": 121, "\u0120slated": 47395, "\u0120methylated": 49179, "\u0120residence": 12913, "\u0120Way": 10834, "assadors": 49706, "\u0120kann": 27772, "imbab": 35206, "\u0120Rot": 22343, "incoln": 14695, "xff": 21671, "\u0120insensitive": 39188, "\u0120dimensions": 10103, "\u0120regards": 17730, "\u0120declarations": 35298, "\u00e9\u013e\u0122": 41085, "aven": 7603, "\u0120inflammation": 10696, "1960": 28476, "\u0120crept": 43801, "557": 38032, "\u0120incarn": 40553, "\u0120ende": 19072, "receptor": 44501, "\u0120SELECT": 23235, "\u0120beaches": 29780, "\u0120warming": 18384, "\u0120boyfriend": 22273, "\u0120graduation": 31313, ").\\": 17585, "\u0120Writ": 16679, "scr": 8658, "usc": 19387, "optional": 21676, "\u0120\u00cf\u0126\u00ce\u00b7\u00ce\u00bd": 25628, "530": 38862, "\u0120395": 33900, ".*]{},": 27720, "\u0120osteoporosis": 39292, "\u0120complic": 5177, "\u0120shaded": 37042, "\u0120ICD": 40398, "\u0120econom": 2895, "}},$$": 42465, "\u0120paw": 44802, "curve": 33356, "\u0120Distance": 45601, "TextView": 30288, "\u0120Motor": 18521, "\u0120Summit": 31692, "\u0120\u00e2\u013b\u00aa": 14658, "\u0120Hawkins": 43230, "\u0120whispered": 18017, "\u0120nous": 13953, "\u0120gratitude": 27579, "culture": 29831, "\u0120Div": 6852, "\u0120rev": 3585, "\u0120imaging": 6979, "\u0120bell": 17487, "\u0120boom": 25014, "\u0120prud": 26726, "\u0120drunken": 37863, "\u0120cof": 7691, "\u0120torso": 46532, "\u0120strlen": 47287, "\u0120kom": 10911, "\u0120versch": 48080, "\u0120arrest": 5263, "unque": 35963, "\u00e3\u0123\u00a6": 6261, "\u0120Thornton": 50087, "since": 17480, "pleasant": 26273, "\u0120socialist": 30177, "\u0120intraoperative": 43872, "pert": 8292, "\u0120estos": 48421, "\u01201993": 9725, "\u0120warned": 14315, "\u0120disruption": 20638, "finder": 31732, "\u0120Canyon": 33843, "\u0120Cubs": 44272, "\u0120Cy": 12552, "\u0120interruption": 38205, "\u0120608": 48874, "\u0120Array": 11782, "\u01208000": 48296, "urable": 11722, "\u0120scattered": 17485, "\u0120negotiations": 16685, "\u0120requesting": 24433, "\u0120Authors": 26940, "reviewed": 33349, "bers": 1653, "arton": 43626, "\u0120Constit": 45866, "\u0120nav": 6563, "Notification": 27193, "PY": 35389, "rust": 18037, "thereum": 36376, "vre": 39798, "\u0120deleter": 40272, "\u0120devastated": 43287, "\u0120Porter": 27636, "ooo": 50036, "\u0120Ultr": 49995, "ust": 461, "\u0120regulations": 10132, "\u0120commitments": 32316, "lish": 3742, "ubin": 34610, "\u0120\u00d5": 35257, "documentation": 37442, "\u00e1\u00b9": 15868, "ANCE": 19320, "\u0120Assumption": 43536, "ario": 5629, "\u0120Bow": 10427, "\u0120wander": 34702, "\u0120Venice": 28792, "\u0120hearsay": 35513, "Bound": 27869, "\u0120filed": 4724, "\u0120resources": 5300, "\u0120Euclidean": 29850, "\u00e5\u013e\u00a8": 13610, "\u0120publish": 15452, "\u0120yearly": 35126, "\u0120Interactive": 47875, "functional": 28445, "locking": 49662, "ients": 1104, "\u00e9\u0125\u00a8": 26795, "\u0120scam": 35391, "\u0120hugely": 40704, "ward": 1034, "itis": 5895, "\u0120ese": 38044, "\u0120conviction": 9611, "\u0120arteries": 24908, "\u0120454": 37788, "\u0120li": 632, "\u0120architect": 6805, "building": 22157, "\u0120De": 1605, "rounded": 48198, "\u0120sim": 948, "\u0120widely": 7561, "5555": 45240, "\u0120wired": 36427, "\u0120fans": 7458, "\u0120assessment": 6803, "outer": 11872, "\u0120combat": 11757, "\u0120bub": 12411, "\u0120counts": 9372, "\u0120Trail": 21832, "\u0120constru": 16276, "\u0120Muse": 10176, "\u0120OA": 29258, "uchy": 29420, "icted": 7025, "\u0120num": 930, "Vert": 7994, "\u0120\u00cf\u0126\u00cf\u012b\u00ce\u00bd": 32681, "\u0120sis": 49144, "\u0120endometrial": 39202, "\u0120529": 40355, "\u0120\u010a\u0120\u0120\u0120\u0120\u0120\u0120\u0120\u0120\u0120\u0120\u0120": 21024, "\u0120YOUR": 22031, "\u0120Trip": 34896, "\u01201975": 14752, "Variable": 23807, "ko": 7381, "IFIC": 45442, "\u0120INFO": 37561, "\u0120slap": 37551, "\u0120Alternatively": 20564, "\u0120\u00d7\u013e": 32017, "\u0120legitimacy": 37978, "ermann": 39968, "\"})": 7547, "\u0120kap": 42844, "\u0120singleton": 47736, "\u0120acids": 9532, "\u0120Distributed": 43950, "Conn": 31201, "\u0120bitterness": 44875, "\u0120emergent": 47006, "06": 3071, "far": 14103, "\u0120RB": 26783, "^*_": 32156, "\u0120ATM": 32527, "Experimental": 32954, "erta": 35327, "\u0120Kaiser": 41867, "weak": 20881, "\u0120Venus": 36210, "duly": 49701, "\u0120Heritage": 26254, "\u0120dum": 47171, "\u0120Sons": 28431, "r\u00c3\u00a8s": 31030, "\u0120King": 4377, "\u00e0\u00b0": 10681, "\u0120(<": 16616, "hline": 39891, "Employee": 45929, "rente": 48338, "artic": 45894, "\u0120Zoo": 41117, "isu": 37364, "WE": 10663, "*~(": 46608, "\u0120283": 34360, "\u0120appet": 22115, "XR": 31576, "Fun": 22096, "\u00ce\u00b5\u00ce\u00b9": 11910, "\u0120safety": 5252, "\u0120recycl": 18490, "MAR": 35938, "\u0120click": 5532, "\u0120application": 2898, "\u0120prolong": 13455, "fileID": 20548, "enary": 35634, "\u0120activity": 2425, "\u0120Epstein": 42431, "\u00e5\u0129\u00ba": 18678, "\u0120breakdown": 19501, "\u0120dramatic": 14138, "\u0120>::": 37014, "\u0120bl": 787, "\u0120superoxide": 41180, "issa": 14302, "\u0120daily": 5312, "\u0120juices": 44253, "\u0120Inhib": 49512, "\u00e0\u00ac": 26601, "Msg": 21611, "\u0120irrad": 14770, "\u0120bootstrap": 28551, "\u0120condition": 1617, "\u0120Design": 11405, "\u0120collective": 12786, "\u0120shoulders": 13574, "\u0120She": 1500, "\u0120Tests": 32503, "occupied": 32980, "enough": 40252, "\u0120PNG": 42288, "\u0120inhibiting": 24468, "\u0120Laplace": 49603, "ancer": 21955, "\u0120Reports": 27241, "Lip": 42902, "\u0120Ver": 7188, "cence": 6466, "atom": 14054, "ilies": 5348, "\u0120286": 32526, "\u0120marriages": 36659, "\u0120Carpenter": 43855, "\u0120Carolina": 9756, "\u0120analytic": 20059, "mighty": 40884, "ammation": 9862, "\u0120compens": 7037, "\u0120Mess": 15551, "}=(": 34465, "eous": 22953, "\u0120liked": 10490, "\u0120MMP": 22646, "\u0120uk": 42487, "\u0120DHS": 45728, "\u0120determined": 3413, "TD": 10989, "\u0120arise": 12893, "\u00eb\u00a7": 41986, "omencl": 47468, "\u0120virgin": 34570, "\u0120Declaration": 27113, "\u0120sincere": 33842, "\u0120priv": 2294, "iness": 1632, "\u0120supporter": 31409, "\u0120conscious": 9680, "\u0120exper": 1172, "\u0120FE": 20015, "\u00e3\u0123\u0131": 14016, "\u0120age": 2363, "\u0120capacitance": 30026, "can": 5092, "izar": 15864, "ambig": 19062, "\u0120guerra": 46765, ".,": 904, "\u0120Now": 3954, "PES": 42143, "\u0120campaigns": 18120, "mates": 13239, "\u00e4\u00ba\u00ba": 13484, "ismatic": 43307, "ict": 882, "\u0120cultivars": 41919, "\u0120Temperature": 43669, "\u0120straw": 17844, "\u0120penicillin": 36218, "\u0120wishing": 30685, "\u0120hardcore": 45960, "rak": 21720, "\u0120hunters": 35041, "26": 1731, "\u0120Simon": 14698, "RON": 27182, "Attr": 27547, "ISO": 28783, "\u0120aus": 16506, "\u0120brut": 16325, "\u0120weekend": 8849, "123": 10683, "\u0120opponents": 18062, "Basically": 37565, "asts": 9346, "\u0120Oxford": 12719, "dar": 27083, "\u0120GUI": 29856, "\u0120suites": 49130, "\u0120November": 4596, "\u0120migrating": 46447, "\u00d0\u00b4\u00d0\u00b5": 39804, "THAT": 39983, "Lind": 45029, "bugs": 25941, "\u0120oblig": 7206, "\u0120gloom": 43580, "STA": 37789, "fork": 43491, "ath": 506, "obbsee": 46924, "born": 6448, "\u0120plasma": 6532, "\u0120Curtis": 32324, "\u0109\u0109\u0109\u0109\u0109": 32062, "\u0120Handle": 34107, "682": 35488, "\u0120Krish": 41918, "\u0120frying": 47830, "\u0120Sutton": 49536, "radius": 19731, "\u0120collection": 4849, "\u0120Columb": 10255, "aj\u00c4\u0127": 47742, "bos": 37298, "izione": 47504, "othes": 4521, "\u0120wanting": 14707, "La": 7647, "\u0120infectious": 18023, "\u0120like": 751, "\u0120die": 3150, "Most": 10342, "\u0120inputs": 14800, "\u0120organisms": 16711, "\u0120Shadow": 28258, "\u0120Social": 8404, "\u0120driv": 3880, "Added": 33988, "unicip": 9760, "\u0120Eld": 22921, "\u0120Iranian": 20533, "\u0120purchaser": 37896, "\u0120antic": 37935, "\u0120Payment": 42659, "\u0120Consortium": 42849, "\u0120rotational": 22090, "\u0120multiplied": 31458, ",": 13, "gether": 2365, "\u0120pleas": 26757, "\u0120Lily": 32817, "\u0120anec": 34009, "Right": 8455, "309": 22000, "\u0120withholding": 40271, "Chi": 47314, "\u0120Rap": 17314, "pile": 49499, "\u0120owns": 21186, "}}^\\": 28073, "profit": 15608, "\u0120ul": 12130, "\u0120hiding": 17197, "\u00e9\u013f": 19127, "\u00e1\u0140": 18081, "\u0120practitioners": 24432, "\u0120tidal": 32238, "\u0120Irving": 38071, "\u0120puzzles": 43884, "\u0120widget": 26706, "panic": 19239, "\u0120catches": 32010, "\u0120questa": 44807, "SD": 3871, "Kevin": 40773, "ower": 1017, "SIZE": 12771, "\u0120Audio": 26319, "\u0120Klein": 28186, "\u0120muito": 36146, "rom": 409, "\u0120happ": 1654, "midt": 23533, "aign": 4126, "\u0120\u00d9\u0123\u00d9\u012c": 37710, "\u0120intermediates": 43163, "based": 3169, "GROUP": 30220, "AMA": 38022, "\u0120oath": 25019, "\u0120Riv": 40558, "\u0120embracing": 41859, "\u00c3\u00a7as": 49802, "Jen": 48813, "\u0120climbing": 21266, "\u0120economies": 27931, "olution": 2241, "\u0120409": 27744, "othal": 30205, "elcome": 13509, "\u00e5\u00af\u00b9": 25949, "teral": 45473, "\u0120Let": 1281, "greg": 6130, "\u0120piezoelectric": 36564, "\u0120skull": 19567, "\u00ef\u00bc": 3193, "CG": 10206, "={": 11787, "\u0120END": 19691, "\u0120FUN": 37607, "ada": 2960, "\u0120Gu": 3262, "Population": 48705, "\u0120recal": 42545, "\u0120histograms": 47846, "dependency": 25573, "\u0120hinder": 35007, "Yang": 41160, "Bar": 7912, "gged": 13984, "\u0120MO": 14789, "\u0120Gonzalez": 36800, "\u0120hour": 4964, "\u0120Finance": 23411, "\u0120conventions": 29793, "\u0120Unter": 41940, "Location": 11930, "\u0120Lew": 11146, "))/(": 12193, "\u0120configurations": 16012, "cu": 14573, "\u0120\u00ce\u00bcg": 14986, "\u0120legally": 17734, "\u0120interferon": 35229, "\u0120neatly": 36166, "setlength": 8731, "\u0120tentative": 43095, "082": 45159, "\u0120fundament": 6662, "ilated": 31718, "\u0120lyn": 50117, "deficient": 25652, "\u00e6\u013e\u0141": 34175, "\u0120\u010a\u0120\u0120\u0120\u0120\u0120": 22937, "\u0120slipping": 37032, "\u0120pastry": 43877, "------------------------------------------": 39421, "\u0120flashes": 41483, "\u0120recalls": 31562, "\u0120452": 43952, "Oper": 10996, "Fif": 32702, "olta": 41385, "\u0120hereinafter": 41611, "\u0120athletes": 17812, "\u0120\u00c3\u0142": 4057, "\u0120explor": 31880, "\u0120Art": 3975, "ridge": 16068, "Sah": 40606, "\u0120Labs": 40840, "\u0120nim": 44130, "\u0120PFS": 47286, "\u0120muscular": 27602, "\u0120\u00c2\u00bb.": 42052, ")$.": 3822, "icing": 11733, "prototype": 18834, "\u0120NS": 6640, "112": 11124, "IAL": 13859, "\u0120Fischer": 37454, "883": 39273, "\u0120resistant": 14264, "\u0120dose": 6178, "rbrack": 29179, "Ws": 30748, "\u0120APIs": 33261, "\u0120Ind": 2102, "\u0120Gos": 48042, "\u0120Vis": 9773, "skin": 36861, "\u0120ticks": 39064, "\u0120Associate": 34692, "Jordan": 44100, "\u0120SPR": 46624, "Mike": 26946, "DR": 4976, "sever": 26219, "lessness": 23786, "\u0120sickness": 31009, "frak": 5278, "\u0120sib": 18729, "\u0120Legislature": 22891, "\u0120generic": 12314, "\u0120microbiota": 30158, "aset": 23456, "Role": 23536, "irit": 4621, "Dr": 9034, "\u0120taking": 3192, "\u0120wonderful": 9386, "\u00e3": 159, "\u0120lineages": 34835, "\u0120clk": 49362, "\u0120manually": 13542, "\u0120susceptibility": 16329, "\u0120regex": 21165, "\u0120dealers": 31346, "\u0120Domestic": 48796, "\u010a\u0120\u0120\u0120\u0120\u0120\u0120\u0120\u0120\u0120\u0120\u0120\u0120\u0120\u0120\u0120\u0120\u0120\u0120\u0120\u0120\u0120\u0120\u0120\u0120\u0120\u0120\u0120\u0120\u0120\u0120\u0120\u0120\u0120\u0120\u0120": 14222, "epit": 40978, "\u0120\u00d8\u00af": 28745, "illo": 16078, "PUT": 16143, "\u0120weaker": 21076, "\u0120dal": 26932, "\u0120recipient": 18344, "\u0120categorized": 27948, "oste": 35279, "Current": 10605, "gal": 9896, "\u0120scattering": 11715, "\u0120symbols": 14217, "\u0120smash": 45905, "\u0120Wikipedia": 26654, "\u0120Kor": 26096, "\u0120predominant": 29039, "\u0120Appendix": 17138, "ginx": 48431, "STAT": 11708, "\u0120Franco": 39035, "\\*\\*": 8730, "\u0120array": 3781, "\u0120replacing": 15706, "vance": 11828, "\u0120defensive": 14397, "\u0120impover": 48682, "\u0120\u00d1\u0124\u00d1\u0122": 43084, "\u0120Museum": 11032, "tex": 7109, "\u0120withdrawn": 26924, "\u0120Dunn": 36552, "\u0120victories": 34158, "\u0120Monitoring": 43373, "\u0120flash": 10299, "\u0120deployed": 18329, "placing": 47972, "\u0120overlook": 20621, "\u0120gripping": 44413, "%\"": 28764, "\u0120mice": 3754, "anal": 14983, "\u0120CG": 16944, "\u0120Cheese": 43714, "tum": 48556, "\u0120dv": 43857, "Getting": 27347, "iper": 24277, "bum": 4603, "writing": 17695, "\u0120mental": 6255, "\u0120Defense": 14971, "\u0120frustrating": 29125, "\u0120tucked": 32420, "493": 35337, "\u0120assessments": 20215, "\u0120orderly": 42062, "\u0120pesticide": 49525, "rodu": 2466, "\u0120holes": 11385, "\u0120adventure": 15865, "alia": 25431, "\u0120pits": 40351, "amino": 19741, "\u0120Mus": 4878, "\u00d0\u00be\u00d0\u00b5": 39026, "nger": 9105, "colour": 45883, "ferenced": 50252, "\u0120homework": 32110, "\u0120crossings": 45553, "\u0120submitted": 9262, "peritoneal": 36881, "\u0120subsystem": 42146, "\u0120craving": 45671, "oles": 3841, "\u0120}^{": 47260, "icker": 13749, "PDATE": 19250, "\u0120optics": 35353, "\u0120fibre": 27065, "FileName": 29529, "entes": 36836, "xym": 37543, "\u0120Anglican": 49971, "421": 42383, "\u0120weigh": 14357, "\u0120pyramid": 39694, "\u0120crop": 17177, "\u0120Cloud": 18189, "\u0120freel": 31847, "\u0120beneficiary": 33452, "station": 20502, "ovation": 21373, "\u0120detachment": 36832, "Organ": 25727, "\u0120views": 6849, "\u0120cause": 2847, "\u0120bet": 701, "edes": 39820, "\u0120restaur": 7453, "db": 5470, "bold": 12509, "usp": 14147, "mina": 49147, "\u0120Kem": 44570, "ula": 3627, "\u00e3\u0123\u00be": 8509, "\u0120Bab": 13209, "\u0120voice": 4318, "\u0120distinction": 13812, "\u0120Moh": 15493, "Films": 32159, "\u0120analytically": 41398, "\u00ce\u0143": 9203, "\u0120hors": 43347, "\u0120ignition": 38770, "\u0120categ": 6509, "langle": 4841, "\u0120Detroit": 17372, "\u0120mutagenesis": 45889, "igion": 24734, "}$.": 3363, "ubottu": 32334, "ulls": 48059, "plots": 42045, "zt": 15701, "Eval": 13364, "\u0120arises": 15877, "\u0120originating": 29660, "]]>": 31422, "\u0120Hook": 30276, "\u0120semic": 40296, "\u0120624": 50059, "\u0120clever": 19080, "\u0120reorganization": 40386, "ampions": 6543, "\u0120ESP": 21905, "ortal": 26328, "\u0120dispens": 32895, "segment": 29429, "\u0120J": 500, "\u0120mel": 6673, "\u0120decks": 37414, "\u0120tra": 1140, "rael": 4690, "theorem": 33921, "\u00c3\u00b6dinger": 38052, "\u0120apr\u00c3\u00a8s": 40797, "\u0120Hercules": 48816, "\u0120workout": 30755, "\u0120Lindsey": 50178, "\u0120steroid": 28972, "\u0120amateur": 27736, "WD": 18576, "\u0120virulence": 31402, "\u0120427": 37955, "\u0120%": 2462, "pected": 5344, "\u00c3\u00a4r": 9608, "\u0120Speaking": 41547, "\u0120Systems": 13869, "encies": 4601, "\u0120u": 1484, "decided": 31572, "phal": 13203, "Road": 45615, "\u0120sink": 16338, "\u0120optionally": 33323, "\u0120fall": 2965, "\u0120Cardinal": 36190, "3": 20, "bool": 10975, "anner": 9582, "\u0120insured": 19420, "\u0120',": 26848, "WHO": 34315, "\u0120ceased": 25368, "\u00e5\u0122\u012d": 45256, "\u0120Bir": 28098, "\u0120milliseconds": 38178, "\u0120prohibits": 33093, "\u0120DAPI": 40987, "inject": 44155, "icultural": 40319, "\u0120wipe": 31179, "empty": 11004, "\u0120Auf": 40098, "\u0120exhib": 4813, "\u0120Bold": 45596, "POL": 34948, "\u0120Writers": 45762, "\u0120Sug": 46815, "orn": 1575, "92": 4529, "#:": 10326, "\u0120Edinburgh": 25990, "ismus": 47004, "\u0120Henri": 33294, "}$\\": 23743, "hour": 11964, "Bob": 26845, "909": 28766, "vere": 3764, "CTOR": 39321, "\u0120\u00d8\u0143": 40913, "exchange": 35757, "\u0120grasping": 48635, "\u0120biopsy": 18323, "orie": 23297, "\u0120Joe": 9915, "oll": 2555, "\u0120conquer": 35590, "iento": 17925, "ibles": 23229, "ayson": 45487, "\u0120dental": 16138, "perp": 14715, ".\").": 32755, "\u0120novel": 4460, "\u0120Mayo": 42870, "\u0120extension": 6880, "\u0120hi": 14260, "\u0120Anal": 14703, "\u0120host": 3167, "\u0120Balt": 15924, "\u0120pren": 25861, "\u0120shown": 2011, "olded": 28102, "\u0120})": 13985, "\u0120(\u00c2\u00a7": 34867, "\u0120centr": 26297, "\u0120strengthening": 31845, "\u012000000000": 43652, "\u0120Essex": 44057, "\u0120delegation": 31896, "\u0120passionate": 22500, "match": 8992, "\u0120yeast": 15727, "raised": 42750, "533": 45153, "\u0120mundane": 48657, "\u0120extraordin": 44876, "\u0120Binary": 43085, "bly": 44444, "\u0120get": 755, "\u0120Ger": 17626, "\u0120$|\\": 17334, "\u0120Medical": 8710, "\u0120evangel": 28813, "\u0120maritime": 37223, "ativo": 41241, "scriptsize": 42612, "coupled": 40952, "\u0120appearance": 7286, "ledge": 3009, ")</": 17266, "mutex": 22687, "\u0120mont": 24325, "\u00d7\u00a7": 41855, "\u0120unden": 43296, "\u0120databases": 16634, "\u0120fil": 1193, "\u0120fees": 8128, "\u0120purs": 8796, "ithmic": 29229, "\u0120evacuation": 39774, "\u0110": 193, "\u0120compartment": 18862, "eyed": 26731, "\u00d0\u00bb\u00d0\u00b5\u00d0\u00bd": 36723, "\u0120exploit": 22059, "\u0120rapp": 18737, "\u0120Oh": 5531, "ctrine": 36149, "\u0120promise": 9023, "adian": 7577, "\u0120\u00ce\u00ba": 9028, "imation": 14508, "\u0120\\-": 10667, "\u0120able": 2104, "\u0120importantly": 15538, "Men": 18812, "\u0120PP": 20250, "\u0120yourself": 4834, "\u0120Municip": 26117, "\u0120judgment": 3883, "++++": 21321, "~:": 44577, "\u0120separately": 11794, "\u00e2\u012b\u00a4": 24832, "Ab": 5039, "\u0120Iraq": 9256, "\u0120Sheffield": 42894, "\u0120abrupt": 21213, "\u0120humor": 20393, "\u0120consolidated": 33114, "796": 35323, "\u0120microbiome": 44027, "\u0120Stores": 49024, "Fix": 27281, "consistent": 32474, "KT": 38930, "\u0120neglig": 9768, "nie": 10633, "\u0120google": 17899, ":]": 34417, "069": 40490, "\u01201895": 42549, "unched": 43157, "Nick": 31853, "\u0120ge": 3471, "\u0120bat": 10464, "\u0120Graphics": 39071, "\u0120John": 2516, "Soon": 39382, "$.[]{": 49021, "\u0120funny": 11755, "\u0120topp": 37210, "Figures": 18877, "itti": 21498, "\u0120pitches": 41095, "\u0120leaning": 25661, "\u0120nonex": 44382, "unov": 43772, "cket": 45337, "warf": 49041, "Apply": 42102, "\u0120Orders": 45380, "ring": 804, "\u0120constraint": 7658, "\u0120puzz": 21843, "offic": 19102, "\u0120pioneer": 37775, "674": 29327, "automatic": 50154, "\u0120GPS": 21303, "\u0120convoy": 47005, "\u01202030": 42715, "idian": 31517, "onel": 14405, "\u0120wise": 15822, "TA": 7656, "ableness": 31772, "\u0120grant": 4098, "\u0120Ow": 30533, "mania": 32009, "\u0120preventive": 31382, "\u0120strides": 47582, "ideal": 45222, "Radius": 39547, "\u0120ambitious": 24683, "\u0120Mate": 40758, "bod": 39455, ")}$": 10392, "\u0120dass": 18117, "\u0120opposing": 18327, "ax": 991, "gray": 27250, "\u0120Menschen": 45172, "Makes": 48468, "\u0120thresholds": 26682, "ction": 421, "\u0120URLs": 40489, "\u0120tags": 14610, "\u0120metabolites": 19789, "\u00e6\u00a1": 35072, "\u0120hardness": 38576, "\u0120robots": 25497, "rea": 15593, "\u0120PAR": 20738, "\u00e6\u0143\u00a3": 32594, "\u0120DAC": 47522, "itive": 1483, "Shut": 32832, "\u0120Media": 11263, "\u01201980": 9178, "*\\": 28033, "\u0120Cream": 36305, "\u0120Tory": 36819, "aton": 13078, "\u0120\u00d1\u0125": 11770, "\u00d9\u012c\u00d9\u0128": 37927, "regnancy": 42502, "\u00e2\u0122\u00a6..": 49168, "\u00f1": 173, "\u0120knots": 33462, "\u0120mell": 21648, "\u0120key": 2234, "\u0120Dem": 4281, "\u00cc": 136, "Figure": 2841, "\u0120TT": 26909, "\u0120corp": 15098, "\u0120Lords": 40434, "\u0120Utility": 43533, "CLOCK": 49785, "\u0120judicial": 12379, "\u0120Prison": 31083, "Consider": 16628, "compact": 36648, "\u00e7\u0142\u0123": 42697, "\u0120lodge": 40486, "inator": 12915, "\u0120Mong": 31121, "\u0120WILL": 22268, "\u0120suspended": 14116, "LINE": 15348, "idel": 5735, ":'": 22426, "\u0120voltages": 32730, "\u0120immense": 24878, "EventArgs": 40029, "components": 22127, "Factory": 11749, "\u0120thrust": 19031, "\u0120Dark": 14182, "reli": 22987, "Fl": 6623, "those": 21808, "payload": 35704, "ambo": 47311, "\u0120cho": 2093, "eva": 19020, "\u00d0\u00bb\u00d0\u00be": 36428, "\u0120\u00d0\u00be\u00d0\u00bf": 46032, "\u0120All": 1876, "Invoke": 44048, "\u0120conservative": 11518, "\u0120prop": 4198, "*^*": 21237, "\u0120RCC": 37061, "\u00d1\u0127\u00d0\u00be\u00d0\u00b4": 31818, "\u00e3\u0123\u0136": 46843, "Nu": 41208, "\u0120wife": 4475, "invest": 24889, "\u0120antid": 46053, "................................": 21770, "\u0120institution": 8848, "\u0120evolving": 25537, "Call": 7865, "pcm": 35521, "uncture": 27206, "\u0120mucosal": 30617, "at": 255, "hbox": 18452, "\u0120sle": 3574, "\u0120Junior": 25418, "\u0120(%": 26607, "veolar": 27971, "\u0120api": 23370, "UL": 4641, "\u0120postulated": 46483, "\u0120purpos": 46060, "\u0120ID": 5417, "\u0120acknow": 6997, "\u0120promises": 16966, "340": 23695, "020": 9992, "\u0120Easy": 28127, "\u0120Recommend": 42683, "fect": 738, "\u0120acute": 7928, "foreach": 26966, "\u00e7\u012c\u00b6": 43397, "&-": 34377, "\u0120hacia": 49774, "AE": 12648, "\u0120Jay": 16246, "\u0120Dave": 16908, "\u0120rx": 44962, "doesn": 48724, "\u0120tbsp": 47917, "Win": 18220, "orms": 19793, "FIN": 29003, "\u0120syringe": 40674, "\u0120oneself": 33895, "\u0120Prem": 13343, "wire": 22302, "\u0120complement": 13503, "expand": 28834, "gie": 18709, "620": 38447, "datetime": 36377, "?>": 28391, "Cand": 43348, "\u0120rifles": 36064, "\u0120monstrous": 49358, "\u0120Andrews": 34855, "\u0120\u00c3\u00a9t\u00c3\u00a9": 23162, "\u00e8\u012b\u00b2": 46461, "istance": 3119, "\u0120Defendants": 12254, "ensions": 5354, "\u0120sins": 27932, "\u0120carotid": 30757, "geometry": 38965, "\u0120recruitment": 16510, "\u0120468": 41029, "\u0120ging": 35424, "\u0120bombers": 42504, "ISM": 41252, "\u0120federal": 4400, "idx": 16159, "\u0120equivalent": 6425, "NPs": 30502, "\u0120^{\\": 26637, "\u0120Right": 10154, "\u0120Calvin": 36858, "\u0120mandatory": 17396, "\u0120sine": 37353, "\u0120Binding": 36233, "\u0120Refuge": 44438, "Simon": 36945, "prompt": 43274, "\u0120Freddie": 48882, "\u0120TR": 7500, "\u0120sued": 23460, "\u0120197": 25336, "\u0120prophets": 45888, "ailability": 20771, "\u0120births": 10782, "\u0120columns": 9930, "\u0120Basin": 41467, "\u0120Packet": 45603, "\u00e3\u0124": 1357, "test": 2566, "]$": 8795, "\u0120associates": 26624, "Fuck": 30368, "\u00d0\u00b8\u00d0\u00bb\u00d0\u00b8": 32882, "reported": 20527, "filled": 14653, ".^[@": 10174, "neum": 11312, "Ele": 30377, "\u0120maple": 43946, "\u0120theatrical": 38882, "\u0120SUR": 45022, "Schema": 20838, "\u0120splits": 36509, "\u0120traitor": 50136, "\u0120logo": 18479, "\u0120\u00cf\u0125\u00ce\u00b5": 40647, "\u0120290": 26711, "384": 19948, "\u0120ecl": 42267, "ient": 850, "\u0120leagues": 32132, "\u0120mild": 11134, "\u0120indoor": 24340, "\u01200": 470, "\u0120229": 26780, "\u0120opinions": 11626, "ura": 5650, "DW": 14279, "\u0120Americas": 37708, "\u0120Administ": 10051, "\u0120fin": 1442, "\u0120resonance": 12549, "\u0120Kenny": 39370, "\u0120Lafayette": 43889, "\u0120pyr": 31023, "\u0120TEM": 29021, "be": 1257, "\u0120Type": 8078, "\u0120soph": 13731, "windows": 27095, "\u0120stead": 8933, "\u0120rib": 9412, "\u0120conspic": 35886, "\u0120RC": 20461, "\u00e2\u0122\u0136": 1128, "Compl": 46004, "\u0120flange": 47713, "izer": 6081, "\u0120reviewing": 16725, "************************": 49691, "vironment": 2671, "TIM": 25490, "\u0120indifference": 36163, "\u0120LDL": 24219, "\u0120terrorist": 17150, "\u0120Timer": 49703, "688": 49800, "igroup": 37259, "\u0120Give": 7918, "nesty": 38971, "\u0120forced": 6726, "Patent": 40504, "\u0120prior": 2720, "\u0120->": 5204, "erce": 17822, "\u0120Technical": 23557, "\u0120file": 1873, "\u00c3\u00ac": 12931, "\u0120Beyond": 23626, "Friend": 44427, "\u0120Shepherd": 44452, "aki": 11938, "\u0120\u00cf\u0125": 9529, "\u0120dates": 12282, "910": 45827, "\u0120Drive": 19672, "\u0120regardless": 10159, "\u0120graduated": 20981, "}}+\\": 35729, "extract": 41316, "(_": 10107, "Charl": 30419, "\u0120Rodriguez": 27051, "\u0120abnormalities": 19147, "\u0120300": 7469, "\u0120streng": 4056, "\u0120[$\\": 20629, "Travel": 42576, "\u0120cap": 1729, "\u0120remark": 7579, "inkles": 43572, "\u0120trough": 39445, "\u0120quicker": 31124, "\u0120Athlet": 26327, "uvre": 38527, "875": 39840, "\u0120250": 10257, "\u0120redund": 19886, "aterally": 37313, "\u0120\u00c3\u00ban": 49574, "\u0120236": 28131, "\u0120killer": 17830, "\u0120Mar": 2398, "\u0120prom": 1964, "background": 11814, "middle": 16389, "NEW": 24650, "\u0120Defence": 32831, "effectiveness": 38439, "URES": 43087, "grily": 44634, "\u0120VARCHAR": 50066, "\u0120stroke": 9980, "PROTO": 32573, "Ath": 48487, "ibly": 4360, "activ": 19452, "\u0120tiem": 33560, "\u0120widening": 50050, "reen": 1820, "drew": 27089, "\u0120FALSE": 26194, "\u0120AdS": 48324, "\u0120factions": 41850, "yy": 12502, "ussi": 20191, "Hope": 24004, "\u0120Horn": 23972, "\u0120Sh": 1608, "\u0120office": 3906, "chemic": 23413, "\u0120dere": 29928, "553": 42633, "\u0120classics": 42975, "987": 46379, "ICT": 30152, "writ": 8510, "\u0120plead": 19494, "come": 3188, "^{{\\": 19022, "\u0120CAT": 29782, "361": 29917, "\u0120Lab": 10118, "ype": 1692, "\u0120oocytes": 36805, "\u0120multimedia": 38195, "\u0120oxid": 7495, "\u0120M\u00c3\u00a9": 36912, "americ": 40463, "\u0120Professional": 23932, "\u0120Branch": 25474, "\u0120Nebraska": 20176, "cjwatson": 38747, "\u0120\u00e2\u0138": 25516, "Assuming": 39313, "\u0120Hom": 15388, "\u0120hard": 1892, "\u0120prisoner": 18897, "\u0120aneurysm": 38813, "\u0120Penn": 24263, "\u0120rendered": 13697, "\u0120Briefly": 25487, "\u0120aden": 12067, "Helper": 19570, "print": 3845, "ller": 22999, "\u0120check": 2451, "\u0120Frame": 17780, "\u0120impacted": 27857, "\u0120302": 29044, "gger": 34362, "957": 34920, "Dead": 36205, "Remove": 21605, "\u0120alia": 40342, "\u0120Function": 12917, "\u0120choices": 10165, "\u0120declined": 13072, "points": 10801, "\u0120prepare": 10347, "\u00e5\u00b8": 15446, "\u0120caregiver": 44148, "WS": 10930, "allenge": 19656, "occup": 20774, "\u0120Dou": 33115, "\u0120pian": 35951, "px": 3498, ">::": 14157, "\u0120gaming": 16791, "\u0120Tuc": 43047, "\u0120escorted": 46452, "\u0120Db": 46688, "\u0120gond": 48202, "\u0120disguised": 49932, "\u0120Bless": 38658, "\u0120leverage": 25057, "\u0120leg": 1791, "amped": 17263, "\u0120cystic": 37194, "rpm": 39871, "\u0120%>": 20322, "Module": 13570, "\u0120defense": 5684, "\u0120accompanied": 11704, "\u0120unwilling": 27086, "\u0120explored": 14859, "\u0120exited": 43788, "\u0120Squ": 25399, "bu": 9111, "message": 8559, "\u0120fire": 3289, "\u0120written": 3542, "\u00e3\u0123\u0137\u00e3\u0124\u0135": 42627, "\u0120attacking": 20362, "\u0120prestige": 46466, "ymoon": 49595, "\u0120fri": 2054, "\u0120mixer": 33947, "\u0120geography": 37756, "blance": 29993, "pyrid": 42609, "asti": 41376, "\u0120contral": 39388, "\u0120gro": 7753, "ocomplete": 48116, "\u0120Rising": 43540, "\u0120\u00d0\u00b4\u00d1\u0122\u00d1\u0125\u00d0\u00b3": 47601, "\u01201957": 23305, "\u0120showing": 4645, "\u0120sel": 11329, "chs": 42585, ")...": 41605, "\u0120Act": 3162, "conn": 22670, "\u0120sideways": 39876, "\u0120infl": 2157, "\u0120Young": 10231, "seq": 14571, "\u0120heck": 36603, "\u0120Doll": 39914, "holder": 11375, "\u0120Banks": 28896, "\u0120El": 3599, "sell": 39217, "\u0120merch": 12736, "CONNE": 40232, "\u0120Symbol": 42653, "tel": 43193, "Env": 32883, "\u0120synthesized": 17791, "angered": 27008, "\u0120confocal": 29478, "\u0120mediator": 37190, "\u0120pot": 1721, "\u0120contralateral": 41782, "\u0120Geoffrey": 47569, "\u0120jewels": 49436, "\u00f3": 175, "emetery": 22120, "\u0120remarked": 25995, "\u0120calc": 9039, "\u0120saving": 13868, "\u0120sequel": 24590, "objects": 25964, "\u0120rides": 28742, "\u0120prz": 38790, "DEL": 31492, "xton": 28807, "\u0120inquire": 40279, "\u0120494": 44336, "\u0120$,": 20795, "\u0120Islands": 18708, "\u0120athlete": 27799, "\u0120stirred": 29087, "\u00c3\u00a1": 1757, "\u0120het": 8649, "*}": 33029, "\u0120Cont": 3267, "stock": 17764, "\u0120demons": 33262, "\u0120fingerprints": 44901, "\u0120anesthetized": 49238, "\u0120flexible": 12112, "\u0120Jennings": 48408, "\u0120tended": 20845, "\u0120*);": 46083, "\u0120doped": 39986, "\u0120potassium": 23160, "cription": 3459, "\u0120relocated": 43919, "\u0120416": 35272, "SOC": 34429, "\u012f": 224, "body": 2915, "\u0120revised": 17265, "\u00e3\u0123\u012c": 21322, "\u0120doom": 45471, "\u01201863": 43450, "\u0120request": 2748, "\u0120Glass": 23219, "\u0120cartilage": 25548, "\u0120rushing": 26575, "Controller": 8929, "\u0120notch": 38983, "asons": 3743, "\u0120participant": 14687, "\u0120Logic": 41224, "\u0120equally": 9696, "\u0120habl": 50209, "\u0120transforms": 29698, "positive": 10247, "\u0120earthquake": 27108, "\u0120separator": 35823, "\u0120Inner": 38598, "\u0120choked": 48722, "\u0120gifted": 36621, "\u0120614": 48932, "\u0120electricity": 13978, "cemic": 33863, "\u01201973": 15621, "\u0120description": 5740, "rowing": 18639, "\u0120winning": 9880, "focused": 34821, "\u0120\"#": 13938, "exposure": 48917, "igh": 798, "ives": 1644, "\u0120relevant": 4623, "\u0120Gir": 35480, "isi": 13401, "ADC": 38348, "\u0120pav": 47299, "\u0120allergic": 26884, "tty": 46678, "aturday": 7023, "mega": 3937, "\u0120distinguished": 15622, "\u0120During": 6408, "\u0120subscribers": 29184, "\u0120Detective": 27983, "asic": 45539, "ayers": 8883, "\u0120ovary": 43735, "FD": 10914, "\u0120presum": 9475, "ivi": 37936, "Neg": 26700, "ursed": 43376, "\u0120transporter": 29362, "\u0120prudent": 40662, "im": 303, "\u0120RA": 12875, "\u0120hade": 38442, "CRC": 35939, "\u0120monoton": 41907, "\u0120characterize": 17710, "1932": 48184, "\u0120Witt": 34534, "mel": 18683, "aline": 16373, "ENTRY": 31626, "show": 9029, "\u0120engineering": 11369, "\u0120c\u00c4\u0125": 22295, "dimethyl": 34342, "Navigation": 38748, "\u0120supervision": 20446, "\u0120skipping": 42654, "\u0120Det": 4597, "Kat": 47027, "\u0120SOL": 43148, "\u0120culture": 4466, "utation": 19066, "\u0120objections": 21915, "romycin": 37030, "OUTPUT": 38333, "\u0120Colonial": 44435, "\u0120advise": 22276, "\u0120Nim": 49608, "TOD": 49926, "packed": 33318, "\u0120receiving": 6883, "\u0120restricting": 34617, "prints": 21937, "\u0120passes": 11999, "\u0120concerned": 7514, "\u0120Reaction": 47484, "izing": 3006, "285": 23025, "osecond": 41157, "\u0120Vik": 26189, "\u0120thanks": 6701, "---|": 15623, "\u0120SPI": 37590, "\u0120poison": 14537, "vie": 25858, "President": 20349, "\u0120Prevention": 27526, "reporting": 46418, "ickers": 40593, "protection": 39013, "\u0120sist": 25560, "\u0120encodes": 31360, "\u0120Pok": 24323, "\u0120cardi": 5900, "ishops": 29194, "TW": 36584, "\u0120Clement": 39159, "\u0120kids": 5753, "\u0120meta": 11419, "$_{": 14982, "othermal": 36857, "agua": 45877, "\u0120goal": 4736, "980": 35366, "\u0120NM": 19193, "imm": 12784, "\u0120slog": 44216, "complet": 40450, "\u0120repeats": 24510, "\u0120625": 45451, "aret": 9668, "\u0120salvation": 30411, "({": 7506, "\u0120tout": 14078, "Pad": 14550, "\u0120assist": 10073, "\u0120CLASS": 28085, "\u0120sche": 4436, "sql": 11296, "\u0120indirectly": 21719, "\u0120daylight": 31335, "-------------": 10428, "uki": 19385, "heng": 24176, "\u0120x": 1269, "\u0120aber": 30562, "\u0120politically": 23075, "balls": 33889, "INDEX": 34558, "wyn": 36422, "\u0120profoundly": 38245, "prus": 41423, "namese": 27499, "\u0120methamphetamine": 42588, "\u0120speed": 3885, "\u0120microgl": 26832, "\u0120Lad": 29663, "hler": 49854, "P": 49, "\u0120cyclo": 30881, "\u0120^*": 41247, "\u01203000": 27295, "\u0120Baghdad": 39759, "\u0120comprised": 17224, "\u0120fascinated": 39974, "\u0120rejects": 41471, "MATCH": 45293, "mered": 38086, "\u0120dispositions": 46491, "\u0120Kend": 32064, "rives": 39477, "\u0120d": 277, "\u0120impose": 16209, "\u0120Guard": 12174, "yml": 46415, "\u0120lifting": 20284, "\u0120Brew": 20037, "everything": 35773, "\u00e4\u00ba\u00a4": 50037, "\u0120functional": 5164, "\u0120doubling": 35373, "\u0120stable": 6474, "\u0120coron": 9987, "floor": 13848, "\u0120up": 598, "\u0120UIT": 38894, "\u0120difficulties": 12748, "\u0120Modern": 16349, "\u0120deputies": 41108, "\u0120spectators": 44173, "\u0120palate": 45238, "\u0120academic": 11073, "ONE": 11147, "\u0120sevent": 11195, "\u0120structured": 18872, "\u0120BW": 41036, "\u0120mine": 7477, "\u0120nutrient": 23281, "Objects": 28747, "\u0120Hung": 16835, "\u0120NN": 34387, "\u0120Prague": 41577, "Bed": 49188, "\u0120journals": 24331, "134": 15468, "andum": 19230, "Selector": 22215, "\u0120excav": 27960, "\\,$": 46986, "ofs": 46627, "\u0120pellets": 38326, "\u0120notified": 23274, "\u00e3\u0124\u00a6": 35643, "                 ": 50261, "\u0120abnormality": 43108, "\u0120lbs": 38818, "\u0120rumor": 44412, "\u00ef\u00bc\u0123": 26680, "\u0120bad": 3076, "anks": 3107, "\u0120Gar": 10867, "ifi": 18279, "\u0120Forrest": 46734, "\u0120transmitted": 12573, "\u0120249": 29503, "\u0120$\\|": 31357, "icy": 2576, "ene": 1751, "\u0120abstract": 12002, "\u0120catching": 23862, "\u0120deer": 24563, "\u00d8\u00b4": 22814, "\u0120unter": 32925, "\u0120prisons": 37704, "\u0120unfor": 42439, "\u0120robotic": 35121, "Up": 5683, "\u00c2\u013a": 20006, "\u0120may": 778, "WIDTH": 40097, "\u0120dysplasia": 48723, "\u0120Dress": 49077, "Mann": 49859, "\u00e7\u00bd": 19957, "1966": 28355, "ocarcin": 22406, "reat": 675, "\u0120easy": 3477, "\u0120STEM": 42610, "rones": 22334, "\u0120brane": 43168, "\u0120merchandise": 28499, "\u0120Marin": 41942, "\u0120Off": 5566, "\u0120nib": 44768, "acer": 9661, "ags": 3544, "\u0120ster": 10335, "\u0120vital": 12232, "ija": 26092, "\u0120quadrant": 48045, "\u0120estud": 47101, "\u0120auxiliary": 24026, "OTHER": 39835, "\u00d0\u00b8\u00d0\u00b9": 18664, "\u0120492": 45223, "Reading": 38905, "\u0120physics": 12057, "much": 25914, "de": 615, "\u0120CH": 5642, "uls": 7228, "\u0120MOS": 30001, "\u0120unusually": 33940, "again": 16245, "\u0120.$$": 18822, "\u0120Features": 29621, "\u0120sie": 14266, "\u0120lonely": 25106, "\u0120Unless": 15999, "\u0120named": 4907, "\u0120Color": 9472, "\u0120recently": 4102, "\u0120COU": 10074, "ilight": 30673, "\u0120Sty": 31297, "\u0120antico": 35719, "\u0120therefore": 3103, "foo": 12110, "\u0120Nar": 26417, "\u0120deduct": 31985, "\u0120monotonic": 45973, "Fo": 48179, "itches": 27539, "style": 4826, "\u0120deceit": 48548, "Iter": 15628, "coming": 4202, "FIRST": 46962, "\u0120provisional": 50010, "Tom": 15883, "\u0120-------------------------------": 45835, "\u0120implementations": 27558, "\u0120ionic": 30283, "\u0120tomb": 26908, "\u0120h\u00c3\u00a5": 47898, "\u0120sz": 18558, "urdy": 36849, "\u0120Alternative": 37757, "\u0120Canada": 6144, "athered": 8189, "Above": 45743, "\u0120215": 23917, "FFFFFFFF": 47455, "tz": 21239, "shell": 17901, "\u0120ugly": 19513, "\u0120replica": 36804, "\u0120orient": 7442, "\u0120loop": 6287, "\u0120inherited": 20265, "\u0120Crick": 36432, "\u0120held": 2918, "Route": 24158, "anean": 18313, "ova": 8947, "\u0120park": 5603, "Points": 30183, "\u0120former": 3438, "argo": 20406, "\u00ce\u00bcg": 21516, "\u0120ry": 43938, "]{}[": 42274, "export": 15035, "gan": 1247, "\u00d0\u00bd\u00d1\u012d\u00d0\u00b9": 29729, "inda": 17662, "varpi": 33996, "tp": 17394, "fib": 36240, "wor": 42108, "logic": 46786, "\u0120BV": 43264, "\u0120charity": 19489, "olid": 9528, "\u0120snake": 24980, "ocompat": 39693, "\u0120Revel": 43294, "\u0120evaluation": 7103, "\u01201892": 43589, "~}{~": 39945, "\u0120Greene": 35038, "REG": 11991, "\u0120summon": 23439, "ishers": 17988, "Sp": 6104, "0028": 14833, "\u0120resurrection": 44515, "ource": 1505, "\u0120stack": 8031, "\u0120interfer": 16165, "\u0120introductory": 47649, "\u0120Amsterdam": 26653, "Der": 19932, "repo": 38589, "TAG": 22227, "zent": 49738, "\u0120treaties": 48795, "\u0120doctors": 11576, "\u0120searches": 17891, "\u0120defenses": 25774, "\u0120Aid": 38649, "\u0120toug": 28800, "\u0120Underground": 46814, "rock": 16249, "\u0120company": 2567, "actic": 9994, "\u0120auf": 12606, "\u0120KEY": 25111, "Saint": 41676, "\u0120Commit": 41402, "\u0120governments": 13001, "\u0120anime": 29326, "\u01201890": 32789, "\u0120farewell": 42076, "\u0120Western": 6359, "\u010f": 192, "\u0120Are": 6272, "asting": 14669, "\u00d0\u00b5": 1207, "\u0120lag": 16653, "\u0120offended": 35872, "\u0120andra": 50226, "\u0120Mexican": 16234, "\u0120Organization": 17273, "\u0120discretionary": 34220, "WAIT": 46176, "\u0120friend": 3331, "chter": 45344, "\u0120kissed": 23651, "\u0120start": 1265, "262": 24724, "\u0120XML": 14784, "\u0120asymmetric": 26640, "lsen": 49990, "\u0120braking": 38953, ".',": 40219, "\u00e3\u0123\u013f\u00e3\u0123\u0128": 48711, "films": 46758, "\u0120ini": 44506, "\u0120Cres": 48493, "odes": 3180, "\u0120En": 3035, "\u0120effect": 1055, "\u00e2\u0122\u0136\"": 12012, "\u0120112": 11633, "\u0120highlighted": 16318, "shire": 19299, "\u0120endpoints": 29959, "ixel": 16145, "\u0120pole": 15903, "\u0120rejected": 10945, "\u0120accom": 3648, "ureau": 13252, "\u0120velocities": 24409, "\u0120Clinic": 30442, "\u0120chairs": 21583, "1900": 37044, "\u0120On": 1623, "ibration": 11457, "\u0120The": 380, "\u0120absorbance": 32593, "plete": 13350, "bersome": 40494, "\u0120knob": 47133, "root": 9723, "\u0120consumer": 10630, "\u0120telephone": 11265, "omega": 3151, "\u0120Industrial": 24148, "uder": 32656, "...": 1051, "\u0120crisis": 8891, "\u0120literally": 12832, "scal": 24606, "Ratio": 44700, "\u0120exists": 4961, "\u0120beaut": 4191, "\u0120Hence": 7757, "book": 3305, "\u0120kernel": 10295, "Mill": 21173, "\u00d0\u00bf\u00d1\u0122": 22682, "\u0120Alpha": 26615, "Vis": 10395, "\u0120Mart": 5794, "cf": 7836, "\u0120\u00d0\u0141": 21146, "\u00e4\u00bd\u00bf": 22160, "\u00d0\u00b0\u00d1\u0124": 7065, "elastic": 25563, "\u0120medical": 3739, "Anyone": 31568, "structor": 26161, "YS": 6328, "Promise": 42555, "\u0120closet": 26348, "\u0120IoT": 37377, "?:": 18346, "006": 7174, "\u0120useless": 19437, "Fran": 44630, "\u0120Empty": 45598, "\u0120glycine": 45944, "\u0120text": 2505, "\u00c3\u00a9ment": 38889, "\u0120tumorigenesis": 46245, "\u0120shredded": 46314, "\u0120laps": 44421, "\u0120histologic": 46409, "\u0120FK": 46789, "\u0120others": 2571, "\u0120aware": 6600, "\u0120faz": 42361, "ostatic": 48051, "cpu": 19411, "oubtedly": 22839, "ges": 2510, "rier": 4586, "phabet": 24656, "\u0120500": 6783, "Plan": 23092, "-\u00e2\u0124\u00ac": 49793, "curs": 16461, "HTML": 15597, "\u0120spikes": 34635, "xFF": 30962, "\u0120extracts": 16756, "\u0120phage": 35966, "relax": 39471, "\u0120plotted": 17944, "\u0120complimentary": 48301, "\u0120pace": 13870, "\u0120stair": 22298, "\u0120introdu": 3092, "uuid": 36268, "ODULE": 25517, "ennial": 38987, "\u0120artic": 18575, "\u0120JavaScript": 16872, "\u0120Carib": 23920, "\u0120elif": 29004, "\u0120app": 622, "ialog": 6690, "itely": 6988, "}}_\\": 26136, "\u0120Shell": 28707, "\u0120Fighting": 45349, "\u0120Lymph": 49684, "\u0120closely": 8244, "\u0120television": 7315, "\u0120robe": 40234, "\u0120\u0120\u0120\u0120\u0120\u0120\u0120\u0120\u0120\u0120\u0120\u0120\u0120\u0120\u0120\u0120\u0120\u0120\u0120\u0120\u0120": 5144, "\u0120KO": 25934, "\u0120withdrew": 29504, "SM": 6955, "\u0120anger": 12700, "\u0120Over": 6061, "\u0120capture": 9232, "idespread": 13933, "operator": 4402, "Fort": 28830, "ellig": 5327, "omit": 33719, "plicated": 37787, "itty": 38491, ",~": 44322, "matrix": 6674, "\u0120\u0120\u0120\u0120\u0120\u0120\u0120\u0120\u0120\u0120\u0120\u0120\u0120\u0120\u0120\u0120\u0120\u0120\u0120\u0120\u0120\u0120\u0120\u0120\u0120\u0120\u0120\u0120\u0120\u0120\u0120\u0120\u0120\u0120\u0120\u0120\u0120\u0120\u0120\u0120\u0120\u0120\u0120\u0120\u0120\u0120\u0120\u0120\u0120\u0120\u0120\u0120\u0120\u0120\u0120\u0120\u0120\u0120\u0120\u0120\u0120\u0120\u0120\u0120\u0120\u0120\u0120\u0120\u0120\u0120\u0120\u0120\u0120\u0120\u0120": 43833, "java": 5594, "\u0120crossed": 13405, "\u0120pathological": 18977, "\u0120gown": 31079, "\u0120Tucker": 34070, "612": 39649, "\u0120\u00c3\u00a9galement": 45119, "\u0120browse": 34740, "596": 36679, "2012": 6755, "\u013f": 240, "\u00c2\u00a8": 20335, "\u0120surviving": 21548, "\u0120looked": 3261, "\u0120qualifying": 28661, "\u0120Holiday": 37768, "\u0120autoimmune": 25787, "an": 266, "ulation": 1427, "\u0120Because": 4923, "Res": 2632, "\u0120cable": 10856, "raged": 34785, "ressions": 37761, "(+": 39525, "\u0120Research": 5489, "Dog": 47074, "\u0120looming": 47191, "\u00c3\u0127": 18221, "\u0120chemokine": 47351, "repos": 28486, "      ": 50272, "aware": 13823, "\u0120Marvin": 47246, "{$\\": 24943, "\u0120distraction": 34169, "Skip": 38241, "\u0120schol": 35749, "470": 37155, "\u0120alloys": 38010, "Space": 16929, "\u0120BMD": 38082, "polarized": 49814, "\u0120wur": 31546, "\u0120119": 12035, "\u0120avatar": 49530, "\u00c2\u00a6": 26218, "number": 9133, "\u0120ultras": 17741, "\u00e3\u0125\u00a1": 28405, "interested": 39619, "\u0120Russians": 24794, "every": 15160, "\u0120Minneapolis": 32635, "\u0120insecure": 46519, "\u0120DB": 16025, "\u0120EPA": 19809, "\u0120Euler": 31752, "\u00e3\u0125\u0123": 39009, "\u0120questionna": 12253, "boy": 14889, "\u0120lover": 21514, "\u0120Burg": 25303, "\u0120consulted": 33444, "\u0120past": 2469, "\u0120millilit": 36670, "\u0120Gall": 11414, ")\\].": 37077, "quee": 39757, "\u0120planes": 16340, "=\\\"": 21655, "system": 10394, "\u010a\u0120\u0120": 1772, "CAST": 37744, "places": 30345, "\u0120wig": 43610, "\u0120trimester": 44299, "\u0120evacuated": 44543, "\u00d0\u00b0\u00d0\u00bc\u00d0\u00b8": 35411, "zes": 13505, "paced": 47417, "acity": 10757, "\u01201988": 11513, "\u0120Albert": 18252, "adj": 33553, "\u0120superiority": 34385, "\u0120602": 46968, ")*": 2888, "\u00e4\u00bd": 7111, "ew": 999, "247": 18392, "\u0120reflection": 12906, "\u0120sequencing": 12184, "roph": 3838, "ortunate": 21717, "(|": 32959, "\u0120resistor": 35385, "\u0120tenure": 28135, "isc": 2865, "\u0120unt": 18093, "\u0120inhib": 3084, "\u0120Canon": 39123, "\u0120halted": 37350, "canic": 39489, "ala": 7080, "\u0120judiciary": 46619, "\u0120Leigh": 49150, "ADE": 24259, "\u0120County": 3928, "day": 1201, "zi": 9877, "\u0120overex": 14525, "zing": 8537, "Files": 19284, "\u0120Ninth": 32533, "\u0120inertia": 41299, "\u0120cereb": 42635, "\u0120generations": 14649, "\u00e6\u00af\u0136": 44075, "\u0120fr": 1315, "\u0120drag": 9310, "\u0120Doing": 38733, "\u0120Band": 16804, "++;": 14788, "\u0120Somalia": 46699, "LIB": 18169, "\u0120blending": 41209, "rin": 11078, "hew": 45623, "\u0120Sussex": 47066, "\u0120removing": 11922, "\u0120usual": 7312, "\u0120offspring": 22167, "\u0120organization": 6003, "Elements": 25170, "\u0120crystalline": 28138, "ilt": 2878, "\u0120Set": 6618, "\u0120improvement": 7756, "\u0120Antonio": 18089, "\u0120converges": 26414, "idable": 31074, "everal": 9120, "\u0120SF": 15112, "\u0120treatments": 9694, "ango": 13903, "\u0120shy": 23478, "\u0120\u0120\u0120\u0120\u0120\u0120\u0120\u0120\u0120\u0120\u0120\u0120\u0120\u0120\u0120\u0120\u0120\u0120\u0120\u0120\u0120\u0120\u0120\u0120\u0120\u0120\u0120\u0120\u0120\u0120\u0120\u0120\u0120\u0120\u0120\u0120\u0120\u0120\u0120\u0120\u0120\u0120\u0120\u0120\u0120\u0120\u0120\u0120\u0120\u0120\u0120\u0120\u0120\u0120\u0120\u0120\u0120": 24546, "ibi": 29294, "057": 30768, "\u0120caught": 7270, "\u0120delightful": 34668, "\u0120Hour": 36581, "eful": 4085, "\u0120PURPOSE": 20103, "arnings": 40578, "\u0120riots": 43384, "783": 46076, "aminated": 22315, "\u0120focal": 18560, "\u0120purity": 24410, "\u0120ethics": 18035, "\u0120cinnamon": 33871, "\u0120Mo": 6956, "Night": 39090, "\u0120tyranny": 48320, "\u0120bent": 16535, "say": 19506, "ims": 14381, "ques": 10999, "uler": 14398, "152": 17472, "\u0120cousin": 19338, "\u0120exploited": 28734, "\u0120MeV": 28970, "GD": 17444, "\u0120multi": 4471, "\u0120formations": 34256, "\u0120paperwork": 35940, "\u0120START": 36694, "\u0120downregulation": 38726, "Newton": 44557, "\u0120Steelers": 47732, ".).": 13351, "Raw": 24436, "ancement": 49808, "\u00d1\u0128\u00d0\u00b8": 16779, "\u0120gardening": 48110, "ull": 962, "tees": 22425, "\u0120genetic": 6380, "\u0120weighting": 42428, "\u00ce\u00af\u00ce\u00b1": 18184, "\u0120unint": 25962, "\u0120compound": 8508, "Rock": 31059, "piring": 46496, "\u0120construct": 3989, "\u0120CO": 6392, "\u00eb\u012c": 22983, "\u0120Reporting": 40283, "\u0120correctly": 9113, "\u0120===": 11013, "\u0120opposed": 10066, "\u0120fog": 23010, "\u0120fate": 13742, "Boston": 39392, "\u0120maar": 33893, "pen": 3878, "\u0120ecology": 40977, "=====": 43024, "\u0120lunar": 41929, "\u0120fraudulent": 25447, "\u0120synchronous": 34265, "rein": 39910, "\u0120colleg": 18841, "\u00e5\u00ba\u00a6": 29485, "\u00d0\u00ba\u00d0\u00b0": 21475, "\u0120exiting": 44528, "irections": 40357, "\u0120parking": 12102, "ates": 684, "711": 47608, "\u0120ans": 7897, "avo": 41231, "nest": 48050, "\u0120Eight": 16244, "\u0120phenomenon": 11562, "\u0120Willis": 42650, "ertained": 27448, "\u0120speeches": 31537, "keywords": 47558, "est": 383, "\u0120miles": 6574, "\u0120raid": 25682, "pmed": 46552, "\u0120queue": 15154, "Supported": 40015, "\u0120copper": 14295, "data": 2203, "\u0120orbit": 12801, ")$;": 46433, "\u0120predominantly": 18705, "\u0120tau": 29201, "\u0120wiped": 27150, "stract": 6316, "\u0120ice": 6749, "\u0120pollution": 17432, "Statement": 25343, "\u0120inducible": 49217, "\u0120sad": 8872, "detail": 20119, "\u0120princess": 28806, "\u0120infertility": 44371, "giving": 19647, "\u0120Bry": 15341, "arean": 45072, "arate": 33573, "ystems": 24926, "\u0120acid": 3527, "\u00d0\u00b0\u00d0\u00ba": 9640, "\u0120curve": 6970, "\u0120delicious": 17319, "atable": 17980, "\u00c3\u00bdch": 25242, "cause": 18923, "\u0120secrecy": 37595, "upo": 33562, "\u0120sensation": 22135, "\u0108": 185, "\u0120Integer": 22008, "gnome": 36957, "\u0120inhibits": 21425, "wl": 24966, "\u0120Econom": 17535, "\u0120einer": 24910, "\u0120vengeance": 44625, "\u0120objectives": 16566, "ivable": 26430, "\u0120Walsh": 36360, "\u0120Several": 12090, "\u0120concession": 44619, "\u0137": 232, "\u0120Scots": 45690, "\u0120----------------------------------------------------------------": 12383, "ubern": 23351, "\u0120lenders": 41522, "rede": 42634, "ushima": 46102, "\u0120nested": 20494, "cd": 2428, "\u0120oste": 10160, "shifts": 37758, "bian": 13564, "pointer": 25078, "\u0120commonly": 7744, "\u0120needle": 15460, "\u0120histology": 40102, "\u0120space": 2317, "\u0120plur": 10191, "\u0120rag": 23603, "\u0120ASS": 21893, "\u0120CCD": 33169, "\u0120Automatic": 47367, "Children": 22246, "Endpoint": 36997, "OVA": 14220, "\u0120awa": 33326, "\u0120flowed": 41115, "event": 8045, "\u0120ads": 16557, "\u0120NET": 33130, "\u0120freezer": 38993, "\u0120Mother": 12273, "ret": 1221, "\u0120resting": 18180, "eft": 30698, "484": 29579, "\u0120acquainted": 41061, "\u0120plantation": 45051, "\u0120LINEAR": 48980, "\u0120Sun": 4146, "gle": 10582, "possibly": 38896, "\u0120persecution": 31222, "\u0120fiscal": 17940, "\u0120sclerosis": 33565, "\u0120troll": 37053, "\u0120Wife": 40223, "Mother": 29859, "\u0120roster": 22970, "\u0120Schwartz": 39119, "\u0120exhibiting": 30259, "j\u00c3\u0142": 39461, "ograf": 42871, "\u0120terminus": 43259, "\u0120awakened": 48752, "\u0120geographic": 23365, "\u0120fully": 4751, "\u00d1\u0124\u00d0\u00be\u00d1\u0122": 18706, "\u0120alliance": 23158, "\u0120Storm": 25005, "AF": 9006, "employ": 10221, "k": 76, "\u0120amid": 17421, "\u0120wherever": 20312, "\u00ec\u013f\u00b4": 20959, "Federal": 35535, "swing": 34259, "Las": 45032, "tails": 37465, "48": 2385, "\u0120cal": 1724, "\u0120Bell": 11590, "\u0120Speaker": 26587, "spect": 18181, "rief": 3624, "witness": 47906, "Myc": 37538, "\u0120rank": 5958, "qquad": 9315, "\u0120eighteen": 25259, "osse": 37554, "ORK": 17047,
[...]
