{"\u2581perform": 2225, "\u2581Germany": 7293, "<0xBC>": 191, "Query": 3294, "arity": 11910, "AW": 17901, "\u2581Land": 5062, "\u2581Arc": 19733, "GM": 16977, "\u3060": 29883, "\u2581Jr": 12698, "\u00d6": 28940, "metry": 16641, "ifr": 23568, "\u2581Similar": 24232, "achten": 28579, "CTX": 26564, "\u82b1": 30064, "\u2581Boston": 9143, "io": 691, "put": 759, "\u2581batch": 11386, "hex": 17524, "hemal": 22678, "\u2581Fur": 8179, "\u2581Felix": 26463, "\u2581threatened": 17351, "\u2581hadn": 6003, "\u2581Acc": 4035, "\u2666": 29706, "camera": 19779, "relation": 21380, "wards": 2686, "________________": 17226, "HI": 19394, "Interface": 6450, "\u2581orb": 19935, "\u2581Tow": 21906, "\u2581Maurice": 25350, "await": 13513, "\u542b": 29872, "should": 6716, "\u2581astronom": 27486, "orie": 12067, "\u2581piss": 17945, "\ubaa9": 30222, "\u2581enero": 26291, "\u2581mean": 2072, "usement": 24862, "rial": 6144, "\u2581cancell": 12136, "\u2581DMA": 23173, "\u2581Below": 20811, "obi": 16204, "tags": 12586, "\u0434\u043d\u0430": 13373, "\u0570": 31378, "\u045a": 28917, "\u2581estaba": 18281, "\u2581Polit": 8953, "Than": 23721, "ogue": 25245, "\u2581Length": 22856, "\u2581weap": 6477, "ultural": 12279, "::~": 27893, "Toolbar": 24118, "\u2581die": 1202, "\u2581notion": 14086, "\u2581dip": 14217, "~~": 4836, "ision": 1522, "\u2581portal": 21474, "\u2581area": 2698, "\"><": 10123, "thon": 7418, "Fetch": 18527, "\u2581peculiar": 25876, "\u5217": 29150, "\u2581involves": 14657, "thers": 2199, "enso": 14452, "\u2581induced": 21327, "parameters": 11438, "Err": 1534, "\u0643": 29171, "avel": 3177, "\u0159ed": 27962, "\u2581path": 2439, "\u4e9a": 31103, "\u2581describing": 18063, "ifica": 20750, "\u2581Modern": 13950, "\u2581variety": 6677, "atura": 14753, "\u2581Sale": 19338, "\u2581line": 1407, "mos": 7186, "Result": 2716, "split": 6220, "\u2581critical": 7276, "\u2581Parad": 24493, "bone": 15600, "apor": 19845, "\u2581Net": 5269, "\u2581likelihood": 24277, "\u2581NL": 19561, "Scroll": 9889, "\u2581attributed": 26133, "subsubsection": 21763, "scious": 6757, "\u2581competed": 27406, "angle": 2988, "){": 3311, "IDENT": 20734, "\u2581floors": 21264, "\u2581hacer": 21581, "Never": 22855, "\u2581petit": 27450, "eenth": 23124, "all": 455, "\u016f": 28913, "xspace": 15372, "site": 10041, "\u2581lighting": 15912, "\u2581Grow": 18456, "REF": 14329, "castle": 25305, "\u1ea5": 29916, "ains": 1606, "just": 4022, "clock": 10487, "\u2581marriage": 7811, "\u2581Buch": 17680, "successful": 28452, "Local": 6154, "\u2581gan": 15061, "\u2581processor": 20846, "\u2581Charl": 7439, "byte": 5301, "xic": 14443, "nie": 4255, "\u2581Iraq": 12627, "\u2581needing": 25559, "\u2581Mr": 2964, "azzo": 24611, "ns": 2925, "\u2581}\r": 3426, "\u043d\u044b\u0435": 5193, "\u2581Commun": 5795, "\u2581decre": 8512, "\u2581concrete": 12230, "\u2581donne": 28207, "\u2581Leg": 5993, "\u2581decis": 23286, "ese": 3368, "\u2581Grand": 6607, "\u2581Sometimes": 9738, "verage": 4064, "cher": 6113, "\u2581compiled": 23652, "EOF": 23745, "\u2581deren": 25283, "worthy": 25336, "bid": 9679, "\u2581Eli": 17177, "PARAM": 13786, "Qt": 20193, "Commands": 27458, "\u010e": 31461, "\u2581lic": 6588, "\u2581CON": 4192, "\u2581rep": 1558, "ctic": 11798, "\u2581Additionally": 16569, "\u2581Fish": 22784, "\u2581fiscal": 24937, "Lu": 26136, "ublice": 17185, "\u2581attributes": 9623, "\u2581\u0411\u0435": 11543, "\u2581Cultural": 24974, "\u2581Coll": 9215, "\u2581Cha": 23330, "notes": 18787, "ennessee": 18895, "\u7ed8": 30684, "import": 7841, "\u2581'./": 7283, "\u5f84": 29729, "\u2581Since": 4577, "\u96e2": 31846, "\u2581anos": 21307, "\u2581s\u0105": 23435, "information": 20590, "\u2581loudly": 28003, "\u2581WARRANTY": 14437, "\ub85c": 29143, "\u622a": 30572, "idades": 11520, "ACT": 7637, "five": 12340, "sys": 6609, "\u001e": 31150, "\u2581thunder": 25752, "upp": 13213, "oration": 9990, "\u2581habit": 6189, "\u2581minimum": 7968, "\u0447\u0435\u043d\u0438\u0435": 18326, "\u2581Science": 9323, "\u2581masks": 22724, "\u2581copy": 3082, "\u2581consistency": 23074, "machine": 19569, "\u2581l\u00e0": 26941, "\u2581dram": 9473, "\u2581exists": 6608, "\u2581domains": 25998, "\u5eb7": 30720, "aff": 2146, "Loading": 16031, "\u9ebb": 31701, "\u2581ersten": 15449, "\u2581\u0446\u0435\u0440": 21276, "cing": 4669, "\u2581ending": 12826, "plane": 13209, "\u2581Innov": 24013, "ROP": 24026, "\u2581\u043e\u043d\u0438": 26150, "\u2581improve": 4916, "\u0441\u0438": 2206, "\u0440\u0430\u043b\u044c": 13906, "\u2581nor": 4678, "Trace": 9937, "\u2581Medicine": 18293, "\u2581conclude": 18429, "ir": 361, "\u2581stays": 22361, "\u2581achievements": 27864, "\u2581laying": 27587, "\u2581Pow": 14326, "\u2581Bapt": 22654, "Actions": 15826, "\u2581snake": 24342, "\u2581indoor": 24990, "\u2581Architect": 19608, "\u2581pp": 8348, "\u2581universities": 21356, "\u2581Communist": 21743, "\u2581tight": 6975, "ches": 1927, "\u2581Kyle": 25363, "\u2581w": 275, "irlines": 22201, "\u2581honom": 28657, "Cancel": 15204, "\u2581hitting": 17692, "\u2581markets": 11574, "\u2581ranges": 19441, "\u2581\u0433\u043b\u0430\u0432": 21269, "\u4e94": 30108, "iembre": 15522, "\u0422": 28875, "\u2581Aaron": 20486, "\u2581\\(": 18823, "VR": 18240, "sung": 23361, "Data": 1333, "ischer": 6283, "\u2581switching": 25439, "su": 2913, "\u2581./": 17449, "\u2581neglect": 26902, "\u2581\u0440\u0430": 2101, "\u2581maintenance": 12364, "\u2581Wrest": 28444, "gart": 26948, "\u2581separ": 3939, "MOD": 8068, "aine": 4262, "\u2581refused": 11390, "\u1eef": 30586, "azione": 5349, "\u2581Edward": 10785, "\u2581tears": 11025, "\u2581passive": 24246, "\u043c\u0438\u043d\u0438": 17804, "\u2581altogether": 21324, "nam": 6701, "ative": 1197, "\u2581Fern": 10830, "KEY": 6478, "one": 538, "\u2581Dub": 11037, "OUTPUT": 23923, "\u021bii": 24006, "Servlet": 13588, "\u2581mystery": 17492, "\u2581Jak": 18779, "\u2581climate": 11259, "\u2581Forest": 15777, "\u2581Royal": 8413, "\u2581bajo": 22418, "\u2581tamb\u00e9": 27144, "\u2581manif": 19924, "pliers": 18403, "ink": 655, "ized": 1332, "\u2581mas": 6769, "<0xE6>": 233, "\u2581Item": 12795, "\u2581bronze": 20067, "\u2581com": 432, "neo": 17462, "issions": 5091, "Plan": 14944, "Y": 28802, "\u2581gear": 13133, "\u2581exc": 2823, "\u2581calculate": 13911, "\u96ea": 30876, "\u2581Northern": 12781, "alo": 8344, "\u2581consisting": 20922, "\u2581instinct": 16823, "\u2581var": 963, "\u2581Really": 19393, "Los": 26102, "\u6b63": 29302, "\u2581const": 779, "ms": 1033, "pgfset": 19107, "\u2581screaming": 19455, "\u2581whites": 19719, "Temp": 14536, "abama": 19006, "\u2581Get": 2483, "\u2581worker": 12933, "\u2581FREE": 22995, "\u2581grad": 4317, "\u00f3w": 3872, "\u2581debug": 10183, "\u2581charm": 22533, "oose": 12470, "ibile": 24109, "\u06ba": 30695, "\u2581world": 1526, "protocol": 12787, "BU": 3470, "ync": 2122, "(\",": 23431, "pha": 2019, "\u2581mut": 4548, "ighter": 8918, "Emb": 25841, "\u2581fisher": 27253, "ental": 7540, "\u2581vic": 13051, "Gre": 25656, "\u2581sole": 11150, "\u2581blew": 21798, "\u2581cry": 7843, "\u00f4": 28906, "\u2581temporarily": 25359, "\u2581recover": 9443, "Test": 1963, "width": 2617, "\u2581language": 3842, "\u2581Lear": 9496, "ishment": 12243, "\u2581self": 1008, "\u2581Pri": 12170, "SOURCE": 17426, "\u2581autre": 20638, "\u2581zwe": 8047, "\u2581ourselves": 8915, "\u2581artificial": 18278, "\u2581\u0431\u0440\u0438": 23145, "\u2581ze": 6797, "\u2581playing": 4543, "\u2581answered": 10239, "\u2581Cook": 13092, "\u2581volta": 20877, "\u2581tastes": 26918, "\u2581enable": 8234, "ashed": 8156, "\u2581drunk": 12731, "atos": 17360, "\u2581crops": 27152, "\u2581Whenever": 27235, "\u2581Method": 10011, "door": 9405, "\u2581COP": 16572, "Er": 17900, "Root": 7983, "estamp": 7039, "\u2581offense": 19952, "\u2581fileName": 25865, "\u2581fib": 16182, ".$": 5910, "\u2581Trace": 28626, "\u043a\u043e": 702, "amil": 8551, "\u2581Fest": 22236, "\u3002": 28944, "amd": 27874, "unge": 21614, "\ud53c": 31306, "mul": 18176, "\u2581\u0421": 1406, "\u2581Trad": 17581, "rhs": 25435, "\u961f": 30031, "\u2581LGBT": 28400, "ception": 1277, "\u2581fire": 3339, "vest": 6281, "Pop": 10022, "Help": 17302, "\u2581\u0427\u0435": 23543, "\u2581tilt": 24758, "ated": 601, "\u2581aug": 11146, "\u2581swimming": 16862, "youtube": 20502, "\u2581Pictures": 26887, "\u2581hung": 7342, "\u2581Elizabeth": 11289, "\u0a30": 31880, "\u2581durable": 26200, "English": 27871, "\u524d": 29087, "\u2581towns": 17579, "\u2581Dez": 17410, "legt": 28661, "\u2581m\u00fasica": 23522, "\u2581dick": 23108, "mit": 2162, "augh": 3740, "SYNC": 23871, "\u2581Living": 16303, "\u2581Create": 5670, "tex": 4690, "\u0909": 31691, "plant": 18071, "IMIT": 12315, "\u2581Norweg": 25067, "\u95a2": 30783, "\u2581appe": 2104, "MMMM": 27509, "\u2581static": 1062, "\u043d\u044c": 7934, "\u2581tune": 21337, "\u2581\u0444\u0443\u043d\u043a": 28668, "\u2581assist": 6031, "details": 13856, "\",\"": 5988, "levant": 7122, "\u2581Config": 10566, "\u2581Lemma": 13584, "\u0431\u0443\u0440": 15388, "\u2581bean": 24853, "ilians": 24959, "entities": 26644, "\u2581Alberto": 27185, "\u3052": 31967, "\u2581spiritual": 11054, "secret": 16727, "\u2581proxim": 23678, "\u2581\u0446\u0435\u043d\u0442": 12968, "\u2581eighteen": 24196, "HEADER": 23685, "cido": 20234, "\u5979": 30715, "<0x6B>": 110, "\u2581suck": 12375, "\u2581certificate": 15743, "phony": 22326, "')\r": 22186, "girl": 25404, "\u2581clk": 28607, "\u2581kann": 15557, "isches": 23458, "lock": 1607, "\u2581quarters": 22142, "\u2581gebru": 23257, "\u5c3a": 31076, "ines": 1303, "\u2581few": 1664, "\u2581uncomfort": 16285, "\u2581Pain": 20063, "\u0437\u0435\u0440": 20450, "arks": 7696, "xxx": 22607, "\u2581wall": 3500, "\u2581partition": 13916, "\u2581\u041a\u043e": 5779, "etection": 22820, "icons": 14356, "\u2581command": 3445, "intent": 28559, "W": 28780, "\u2581elder": 15966, "\u2581idle": 25282, "\u2581Fin": 3727, "'):": 18591, "\u2581quant": 4664, "SPE": 13607, "\u2581going": 1404, "straint": 12024, "\u2581indicates": 12825, "\u0e30": 29877, "\u2581approved": 12879, "publish": 27296, "\u2581backpack": 28217, "appendChild": 22897, "uz": 3533, "\u2581Proposition": 19697, "\u2581BU": 20260, "\u2581Chile": 17406, "\u2581rivers": 24582, "\u0637": 29330, "wo": 809, "\u2581British": 4409, "\u2581meantime": 26762, "AM": 2854, "\u0443\u0442": 13730, "Special": 20763, "\u2581Mons": 28212, "ERROR": 4732, "\u2581whisk": 26898, "\u2581agosto": 14681, "opcode": 25304, "\ubc29": 30240, "{{": 6652, "normal": 8027, "\u2581Els": 20619, "fort": 2878, "\u2581wrong": 3544, "scr": 10426, "\u05df": 29618, "\u2581elseif": 25026, "dbg": 14962, "dec": 6669, "eds": 5947, "SA": 5530, "\u2581provincia": 24180, "ley": 2047, "\u2581generates": 26396, "Serial": 9124, "\u2581M\u00fcnchen": 24362, "PR": 4402, "><?": 24787, "\u2581Have": 8290, "ction": 445, "\u2581permit": 12748, "\u52a0": 29058, "owany": 19035, "\u0432\u043e\u0457": 24620, "\u0bc8": 30576, "toBe": 12521, "\u2581carpet": 18612, "{$\\": 20112, "\u8282": 29312, "avia": 16281, "\u2581evening": 6856, "\u0e2a": 29524, "<0x2A>": 45, "\u2581secondary": 13461, "\u5e7f": 30017, "\u0441\u043a": 8283, "\u2581diverse": 12836, "atically": 6789, "\u2581Albert": 12560, "\u0437\u0443\u043b\u044c\u0442\u0430": 17674, "\u2581Pict": 22262, "\u2581t": 261, "Expression": 8055, "TIME": 8197, "arroll": 20599, "\u2581prey": 27911, "\u7236": 30276, "\u2581batter": 7994, "pref": 16697, "\u964d": 30852, "\u2581\u043c\u0430": 3845, "\u2581Melbourne": 19611, "\u2581Usually": 23617, "\u2581\u0434\u0435\u0440\u0435": 15902, "\u2581store": 4143, "Appearance": 17977, "oint": 804, "Fig": 10638, "\u2581upward": 25246, "\u2581Bew": 27459, "\u0435\u0432\u0438\u0447": 24792, "except": 19603, "\u2581need": 927, "start": 2521, "possible": 7285, "\u2581News": 7615, "ffic": 21533, "manuel": 27551, "\u0e37": 30008, "\u2581her": 559, "\u2581ceremony": 16172, "Render": 7139, "\u0442\u0435\u043b\u044c\u043d\u043e": 21195, "\u2581Eff": 24584, "URE": 5873, "\u2581innovation": 16863, "\u2581inputs": 14391, "gling": 18700, "\u2581condition": 4644, "\u2581fu": 6649, "<0x20>": 35, "\u2581exempl": 18688, "\u2581Open": 5629, "\u2581board": 5113, "\u0442\u044f": 10377, "\u2581sl\u00e4": 11158, "bourne": 16187, "}}^{": 22783, "\u5e38": 29408, "\u2581bigger": 9942, "ither": 1940, "\u2581amplit": 18505, "\u2581bed": 2855, "placeholder": 24553, "\u2581keys": 8148, "\u2581Valid": 12777, "\u2581Dakota": 27266, "styles": 11072, "nor": 18651, "\u2581agreements": 17320, "\u2581url": 6855, "\u2581secret": 5169, "\u7f16": 29402, "\u2581rode": 17265, "tz": 19540, "ograph": 2473, "\u5b57": 29031, "\u2581tan": 12222, "</": 700, "\u2581somehow": 9864, "\u2581sap": 23061, "\u2581grounds": 15970, "\u09ae": 30319, "\ub78c": 31390, "\u2581Sport": 11093, "SW": 9854, ".(": 21057, "\u2581occasional": 20636, "\u2581Fol": 12543, "region": 8164, "\u9014": 31787, "\u79d1": 30226, "\u2581Queensland": 28536, "\u2581Craft": 27310, "\u2581Hor": 8221, "\u2581will": 622, "\u2581dashed": 26108, "\u2581registr": 24113, "Focus": 12819, "\u2581sch": 1543, "\u2581nap": 12235, "ihood": 17531, "atori": 13191, "\u043e\u0433\u0440\u0430\u0444\u0438": 14784, "\u2581furn": 8556, "getCurrent": 28040, "\u0442\u0430\u0440": 18613, "Turn": 23429, "\u2581loving": 16276, "MA": 1892, "\u2581Luke": 15425, "\u2581mondiale": 23917, "standard": 20587, "\u0441\u043a\u0430\u0442\u0430": 19537, "\u7d00": 31614, "\u2011": 29694, "\u822c": 30812, "SEL": 17992, "\u8a66": 31744, "\u2581lib": 6538, "\u3093": 29585, "\u2581Protection": 21154, "\u2581longitud": 28629, "Results": 12220, "\u2581Veter": 25790, "\u968a": 31534, "\u2581parc": 26790, "\u2581places": 5563, "\u2581gas": 5135, "<\\": 16910, "\u5ea7": 30635, "logging": 18732, "aby": 4541, "<0x6C>": 111, "\u2581Custom": 7973, "\u2581\u0441\u043e\u0441\u0442\u0430\u0432": 12281, "Master": 16060, "\u2581Overall": 21013, "\u2581decade": 12250, "onial": 23621, "rett": 12677, "\u2581behave": 26193, "\u2581p\u00e5": 5159, "\u2581epid": 23624, "\u2581Friedrich": 17277, "\u2581password": 7908, "\u2581continue": 3688, "\u2581promot": 18022, "index": 2033, "\u2581Nov": 8515, "\u2581Article": 20108, "Ser": 3067, "ungs": 6571, "\u57df": 29829, "impse": 26612, "\u2581Foundation": 6476, "riers": 14189, "\u2581dimin": 17724, "\u2581Rather": 19919, "slave": 26277, "malloc": 24320, "Pro": 933, "\u2581cui": 12118, "\u9053": 29432, "apture": 13568, "\u2581europ": 22028, "\u2581hanging": 12445, "\u2581outside": 3536, "Leg": 14537, "ista": 3581, "\u2581determining": 23689, "Hub": 19498, "olutely": 25244, "\u2581v": 363, "exist": 22871, "Idx": 12157, "Helpers": 15506, "\u8bb8": 30048, "\u2581France": 4843, "EventListener": 14101, "\u2581Jo": 6081, "\u2581exhib": 8244, "\u2581benefits": 7196, "\u2581\u044d\u0442\u043e\u0433\u043e": 26347, "\u2581phases": 23105, "RE": 896, "Separator": 28143, "\u2581WC": 27825, "wal": 18404, "\u2581prevent": 5297, "\u2581>=": 3966, "\u2581added": 3886, "icans": 6835, "\u2581Make": 6746, "\u2581plain": 10835, "Columns": 15468, "\u2581front": 2778, "\u00c2": 29053, "\u0635": 29308, "\u9501": 30448, "\u2581import": 726, "\uc77d": 31815, "submit": 13816, "\u2581republic": 19988, "TEXT": 9219, "\u2581Afghan": 16320, "\u2581chips": 21968, "aphor": 27041, "\u2581varieties": 27610, "\u2581keywords": 28049, "\u2581\u0437\u043d\u0430": 9812, "ken": 2314, "\u2581gle": 13123, "\u2581\u043a\u043e\u0440\u043e": 16673, "\u2581skulle": 23093, "\u2581fig": 2994, "\u2581approximation": 17836, "\u2581Kurt": 24348, "uly": 3089, "zero": 8981, "\u2581Hudson": 25037, "\u2581t\u00eate": 27687, "jud": 14042, "\u2581depressed": 27696, "\u2581totally": 8913, "\u2581Update": 8980, "\u2581drawer": 27673, "\u2581$\\": 878, "\u2581cannot": 3573, "itung": 24422, "\u2581pronounced": 28232, "\u043d\u0438\u0446\u0430": 17970, "\u00a3": 28922, "\u2581Wol": 12840, "\u2581\u00e1lbum": 21231, "\u0391": 29411, "\u95ee": 29562, "\u2581Circ": 20861, "\u2581rum": 10203, "peated": 27367, "\u2581Julia": 19526, "\u2581Wh": 943, "orio": 26794, "rugu": 27300, "team": 15075, "\u00e5g": 17843, "Exit": 18385, "hed": 887, "\u2581\u0440\u0435\u043a\u0438": 27935, "\u2581teens": 27995, "zip": 13249, "\u2581Glasgow": 27402, "base": 2893, "\u8f7d": 29435, "\u2581pued": 11127, "uzz": 9046, "\u2581vul": 10320, "\u2581jel": 21776, "\u00a2": 29656, "Sw": 8117, "aron": 5214, "\u062b": 29968, "\u2581embarrassed": 26100, "\u0940": 29735, "XY": 18884, "\u00e4ch": 12319, "\u2581tell": 1912, "\u043d\u043e\u0441\u0442\u044c": 9468, "\u96e8": 31115, "Strings": 24567, "\u2581Network": 9488, "\u2581sac": 6923, "\u4eba": 29086, "\u5ddd": 30133, "\u2581repeat": 13750, "\u2581yoga": 21615, "\u2581det": 1276, "\u2581gri": 15854, "\u2581operated": 16985, "\u2581galax": 11407, "\u897f": 29633, "\u2581Grant": 14301, "\u788e": 31898, "Secret": 17657, "centering": 11511, "buch": 22699, "\u044e\u0447\u0438": 23975, "\\\\": 2214, "\u2581Navy": 12796, "\u0997": 31254, "ication": 3696, "\u2581equality": 17605, "\u2581iOS": 23487, "\u2581hub": 14546, "slug": 23983, "\u2581goods": 11282, "\u53f2": 30214, "\ud83d\ude1b": 31754, "\u2581Nort": 22584, "\u00e1ny": 11596, "\u00e9ration": 17908, "social": 22698, "cn": 9832, "\u2581Wales": 14831, "\u00f6lker": 26087, "\u2581col": 990, "ened": 2106, "\u2581capabilities": 16585, "\u2581discre": 23420, "\u2581\u0441\u0442\u0440\u0443": 27471, "\u2581crew": 9505, "\u0cb0": 31048, "chedul": 6256, "\"))": 4948, "la": 2220, "rollment": 27518, "\u2581Sp": 1670, "\u2581Christopher": 17561, "\u2581observations": 13875, "sd": 5848, "\u2581occupation": 22179, "\u2581trials": 19993, "\u2581Mexican": 17092, "\u2581given": 2078, "\u2581mouse": 12733, "\u2581journalists": 26197, "\u2581crate": 14834, "segment": 19447, "\u2581Output": 15985, ")\\": 2681, "\u2581Apache": 8958, "\u2581\u0440\u0430\u0431\u043e": 10054, "\u2581\"#": 11441, "\u2581sov": 28102, "\u2581\u043b\u0443": 24641, "\u028f": 31575, "\u2581Palmar": 26385, "\u2581Filter": 19207, "\u2581delighted": 23038, "hy": 5942, "\u2581Political": 21684, "\u2581laser": 19605, "\u2581stones": 17388, "\u043f\u0430": 2789, "\u2581photographs": 17806, "\u2581fill": 5211, "Period": 18749, "olate": 19807, "\u2581Diff": 28450, "\u7fbd": 31475, "=\"\"": 19164, "obs": 8081, "\u2d59": 31733, "\u2581Italia": 16995, "\u2581sull": 14974, "\u2581\u0432\u043e": 2890, "HC": 16573, "\u043b\u0435\u043a": 22122, "\u2581nomin": 22645, "\u2581dru": 4415, "\u2581needle": 25710, "\u2581VAL": 18780, "\u5238": 30835, "\u2581Ster": 26103, "\uff1a": 28994, "adjust": 22562, "itr": 26282, "\u2581surg": 24130, "\u2581\u0442\u0440\u0435": 12405, "\u2581New": 1450, "\u2581crash": 14456, "\u2581febru": 22632, "\u2581drums": 25697, "\u2581afraid": 8526, "\u2581ruin": 21878, "\u2581nou": 9276, "ISING": 26265, "Pad": 17117, "\u2581fault": 9683, "wp": 9359, "ious": 925, "\u2581flower": 14994, "\u2581Identity": 28399, "\u045f": 28989, "erne": 28665, "\u542c": 30005, "ntax": 9656, "\u2581Vec": 17513, "\u2581horn": 16624, "viv": 26430, "\u2581Cloud": 13832, "commands": 22738, "\u2581pid": 21654, "\u2581{})": 25226, "\u2581pobl": 12226, "\u0463": 30350, "suit": 21232, "\u2581Govern": 6696, "ounce": 10818, "Thread": 6237, "play": 1674, "\uacb0": 30075, "owa\u0142": 11406, "\u2581disappointment": 26820, "\u0ac7": 31837, "\u043a\u0442\u0430": 16702, "\u2581au": 2505, "\u2581ON": 9688, "Flag": 10787, "\uc120": 29900, "\u10d6": 30862, "\u2581Making": 19387, "\u2581Course": 19688, "se": 331, "\u00f6ffent": 19596, "estival": 6805, "\u2581donde": 12943, "\u2581speaker": 17153, "disk": 17460, "wij": 24231, "op": 410, "Host": 7287, "Organ": 21830, "\u2581Brother": 22513, "\u2581Egyptian": 23900, "\u2581\u041a": 1688, "\u0431\u0440\u043e": 20385, "ricane": 25253, "\u2581\u0432\u0435\u043a\u0430": 25960, "\ud83d\udc40": 31232, "\u2581ligne": 21043, "shaped": 21501, "\u2581essence": 21213, "ield": 874, "\u2581additionally": 26457, "ributes": 4302, "weise": 14647, "\u52d5": 29842, "\u0440\u044e": 23434, "atus": 1589, "iable": 6109, "\u2581Ab": 2484, "aro": 10281, "lit": 18600, "\u2581autumn": 24818, "\u2581Werk": 26444, "\u2581reviewed": 23282, "Sample": 15717, "\u2581Kirche": 19978, "\u2581artillery": 27262, "\u2581ds": 18099, "\u2581\u0412\u0441\u0435": 25615, "tol": 20181, "\u2581\u0441\u0442\u0430\u0440": 22235, "\u0433\u043e\u0440": 26321, "\u2581blood": 4242, "\u0caf": 31826, "\u2581Commit": 9003, "\u2581shows": 4370, "\u2581Dun": 11578, "find": 3326, "\u2581hardware": 13218, "\u9002": 30640, "\u2581our": 813, "\u2581stellar": 21523, "\u0449\u0438": 4522, "aks": 9140, "\u2581Gre": 9261, "\u2581refuse": 17720, "\u2581Criteria": 26496, "\u9593": 29996, "NP": 24257, "PE": 1767, "\u2581design": 2621, "\u2581sout": 17465, "partition": 18225, "\u09aa": 30381, "\u2581Democrats": 17016, "\u2581exped": 15575, "cen": 15698, "network": 9482, "\u2581meat": 10228, "Dialog": 7082, "anked": 27527, "supported": 11771, "\u2581almost": 2779, "pres": 11861, "\u2581(\"": 4734, "\u2581temp": 7222, "\u2581Tam": 17821, "'+": 18660, "LEAN": 26925, "\u2581Om": 17852, "\u2581evolution": 10195, "\u00f6k": 21201, "Checked": 19154, "\u2581outstanding": 17329, "iores": 22530, "\u2581Unfortunately": 13445, "uper": 19375, "\u2581Centre": 11304, "IES": 17770, "\u2581crim": 8404, "\u2581Due": 16043, "eld": 4333, "\u2581Kind": 13848, "\u2581neural": 25726, "\u2581Gal": 6639, "\u2581angular": 19382, "stadt": 15999, "\u2581offset": 4470, "TREE": 26522, "perties": 2931, "\u5411": 29478, "\u2581opportun": 4047, "\u2581extrem": 6215, "\u2581recurs": 19681, "Missing": 22647, "\u2581sep": 26007, "\u2581Led": 28048, "zeich": 10738, "\u2581pand": 12140, "rets": 18716, "\u2581team": 1918, "\u2581\u0438\u0445": 18028, "\u2581fru": 15925, "\u2581diversity": 18644, "Insert": 13851, "\u2581Giovanni": 21114, "template": 7488, "\u2581Costa": 19311, "client": 3305, "osity": 24879, "rings": 26661, "FN": 17047, "\u2581bast": 15776, "\u5b88": 30992, "Blo": 28107, "ENS": 18183, "^\\": 4217, "\u2581Bon": 8500, "headers": 9899, "ente": 3639, "\u0445\u043e\u0432": 19360, "\u96be": 31407, "\u2581latach": 20102, "\u30d1": 29888, "arded": 14916, "\u2581Matthew": 15305, "\u00e9qu": 14177, "\u2581owe": 27047, "\u2581opinions": 15028, "ash": 1029, "\u2581boy": 4531, "\u2581sentiment": 21790, "menu": 6729, "\u2581\"\");": 22053, "\u2581anth": 20019, "\u2581Delete": 15263, "\u2581Coach": 24847, "\u2581include": 3024, "Selected": 9062, "Sequence": 13248, "keley": 24482, "vee": 27579, "\u00bc": 29472, "RW": 28592, "Loop": 14960, "\u2581Carm": 18231, "\u2581Use": 5938, "odge": 13167, "\u2581fuel": 10624, "\u2581fran\u00e7aise": 21801, "\u2581$(": 4451, "\u043b\u0456\u0432": 23279, "oons": 26618, "\u2581managers": 17490, "\u62a4": 30641, "\u2581peoples": 22529, "iska": 13475, "duc": 6014, "\u2581plac": 20227, "progress": 13763, "Behavior": 22872, "\u2581restaurants": 14666, "\u2581attorney": 15085, "::{": 21353, "\u2581i": 613, "\u2581Part": 2914, "once": 11069, "FROM": 21335, "ICT": 22521, "\u2581assured": 17903, "\u2581ed": 1382, "\u0441\u043b\u0430\u0432": 18989, "\u2581tecn": 24850, "hel": 2805, "faced": 28678, "bage": 14054, "chan": 4298, "ori": 6519, "\u2581experiencing": 20998, "ansas": 12288, "Serializer": 20422, "ino": 2164, "\u2581champion": 12264, "ris": 3665, "rn": 27094, "\u2581beh": 1833, "\u00edcul": 12639, "escape": 19027, "\u2581\u0430\u043b": 28351, "\u02bc": 29846, "learning": 27936, "\u2581Mes": 21758, "\u1ed7": 30926, "\u0698": 31114, "staff": 27943, "<0x37>": 58, "\u2581toward": 4112, "\u5916": 29638, "\uae40": 30869, "Part": 4917, "hin": 15176, "tocol": 4851, "=\"/": 20081, "ultan": 24263, "\u25ac": 30543, "\u2581'')": 20237, "\u7ea7": 29486, "\u2581&(": 27029, "\u2581difference": 5133, "\u2581Einstein": 25721, "\u2581reasons": 6494, "\u2581nem": 10766, "\u2581Country": 13008, "\u2581Dam": 8474, "ctor": 1810, "\u2581Contract": 21644, "sym": 11001, "iblic": 25624, "\u70ed": 30898, "\u2581\u0418\u0441\u0442\u043e": 19702, "\u1eaf": 30429, "\u2581viewed": 16861, "nement": 14482, "\u2581deposit": 17435, "\u0254": 29410, "tau": 4288, "\u2581Status": 10965, "\u2581Dave": 13613, "\u2581Moon": 14629, "EE": 6367, "ulp": 20784, "\u0c3f": 31227, ")}_{": 26585, "ARGET": 17985, "icional": 27391, "\u2581authentic": 18250, "\u2581script": 6767, "\u2581Apr": 3513, "\u2581\u0440\u043e\u043a\u0456\u0432": 19057, "urn": 453, "\u2581\u043d\u0430\u0441\u0435\u0459\u0435": 22350, "Rendering": 25523, "iden": 6667, "\u2581Feel": 27540, "capacity": 26353, "\u2581developer": 21782, "\u2581Out": 4655, "\ud83d\ude0e": 30817, "atti": 16708, "\u0159i": 28180, "\u2581Ly": 10319, "\u2581respons": 3559, "ax": 897, "\u2581nodded": 7313, "there": 15325, "rupal": 15030, "Millis": 26106, "\u2581anch": 24723, "aceut": 24834, "\u2581dent": 12156, "\u2581Common": 10757, "\u0441\u0442\u0432\u0430": 6238, "\u2581President": 5120, "Bar": 5293, "\u5bf6": 31683, "\u2581outs": 19717, "unting": 20128, "repeat": 25997, "Bo": 6681, "\u2581Revolution": 13850, "\u2581frances": 17923, "\u2581inf": 4319, "\u2581Pedro": 18444, "\u2581Ben": 4121, "\u2581fant": 7399, "geben": 19166, "\u2581disadv": 27207, "talk": 25995, "\u2581CBD": 21108, "\u8350": 30944, "\u89aa": 31661, "\u2581crushing": 21456, "\u2581hosts": 19666, "iele": 16607, "\u5b9a": 29018, "until": 27221, "\u99ac": 30831, "\u102c": 30853, "\u2018": 28894, "<0xAD>": 176, "\u2581encouraging": 21885, "\u2581absolut": 5101, "hof": 14193, "apest": 20804, "\u2581\u0448\u043a\u043e": 19671, "\u2581{": 371, "CONF": 25629, "itches": 15868, ".',": 13007, "\u043d\u0438\u043a\u043e\u043c": 20957, "\u1e5b": 30407, "\u0444\u043e": 21103, "\u2581Kom": 9227, "\u2581classified": 22260, "inis": 24479, "r\u00e9": 9946, "\u2581integral": 15558, "ng": 817, "\u2581talks": 15066, "\u2581width": 4850, "\u2581Spirit": 13516, "fony": 22480, "Array": 2712, "\u2581apr": 8601, "uros": 22751, "\u00e1n\u00ed": 16345, "Sources": 27105, "\u7eed": 30199, "\u2581\u0431\u043b\u0438": 22228, "\u2581Austria": 19219, "III": 8661, "\u2581Material": 15210, "ulos": 23235, "\u2581\u0442\u0440\u0430\u043d": 24407, "r": 28712, "Loader": 11420, "uti": 18123, "\u2581was": 403, "\u2581Her": 2584, "\u2581o": 289, "six": 20410, "\u0437\u043d\u0438": 22037, "uest": 24437, "\u0161t": 14131, "\u2581tasks": 9796, "\u2581survive": 13145, "\u2581written": 4241, "\u2581ers": 15920, "\u0447\u0451": 26397, "Pane": 17883, "\u2581Hospital": 12754, "\u8d1f": 30685, "jours": 22200, "\u7d42": 30899, "\u2581\u043e\u0440\u0433\u0430\u043d\u0438": 18876, "\u0161t\u011b": 27832, "\u2581prev": 8177, "deleg": 19941, "\u2581spotted": 20958, "\u30ae": 31307, "\u2581direction": 5007, "Too": 25679, "\u2581average": 5151, "less": 1503, "\u2581\u041e\u0431": 22744, "\u2581redd": 15512, "\u2581nit": 22292, "rik": 8129, "\u2581\u0412\u043e": 9665, "\u2581loan": 9976, "\u2581pile": 17972, "\u2581Id": 6318, "\u2581Hillary": 27584, "pen": 2748, "\u2581Canada": 6082, "bp": 12005, "isting": 10137, "\u2581settlement": 13694, "\u2581combining": 27698, "apt": 1459, "(\"": 618, "\u2581Illegal": 17352, "\u2581onto": 5380, "rt": 2576, "\u2581Safety": 19412, "\u30bd": 30383, "\u51b3": 30668, "\u2502": 29032, "\u2581accessed": 24807, "UL": 1248, "\u2581convers": 5315, ":\\": 9941, "\u2581curve": 11903, "\u2581\u0437\u0430\u043d\u0438\u043c\u0430": 28335, "VD": 10293, "~~~~": 11902, "Theta": 16643, "\u2581\u0433\u043e\u0434": 16994, "\u2581conversation": 7114, "issant": 28438, "\u2581listed": 9206, "Hy": 21676, "\u2581threads": 17807, "]));": 20568, "orna": 25190, "\u2581\u0448\u0442\u0430": 21584, "aps": 1882, "\u2581\u043c\u0443": 6597, "\u2581vanished": 26475, "Equals": 5634, "aty": 20721, "\u00cb": 31108, "\u2581dozen": 13627, "ames": 1145, "\u025b": 29328, "\u2581dod": 22216, "\u2581have": 506, "\u2581margin": 9829, "ung": 969, "hui": 24281, "Migration": 25901, "hell": 13436, "\u2581forgive": 24014, "\u03b3": 29101, "\\\",": 22334, "\u6295": 30189, "\u2581Psy": 13020, "\u2581Ta": 14247, "\u2581October": 4527, "\ud83d\udc96": 31912, "\u2581Eve": 19421, "\u2581suggestions": 17278, "Lite": 24701, "\u2581Horse": 25463, "\u2581racial": 18450, "\u2581SR": 20815, "\u2581ports": 21148, "\u2581\u0443\u0447\u0430\u0441\u0442\u0438": 25337, "\u2581outcomes": 18014, "benfalls": 25780, "\u9884": 30098, "\u2581hilar": 27413, "\u2581goal": 5541, "\u00fablica": 18305, "\u2581threat": 5483, "\u2581navigate": 22689, "\u2581financing": 27438, "\u2581territory": 14293, "ador": 4487, "\ub0b4": 29911, "\u2581accident": 8318, "\u2581fixture": 20284, "\u2581Mid": 11083, "attribute": 9122, "\u2581trou": 7414, "\u2581Register": 10397, "\u2581refer": 3295, "\u2581global": 3526, "mouth": 20123, "\u2581glad": 8200, "/**\r": 14756, "ems": 7940, "n\u0105": 21077, "Horizontal": 22841, ".}": 8089, "istas": 13501, "\u91cc": 29400, "\uc591": 31067, "\u8d1d": 31124, "\u2581birds": 12780, "raj": 15694, "ny": 1780, "\u2581\u041d": 2197, "ict": 848, "\u2581lines": 4715, "sign": 6301, "\u2581respective": 17376, "\u2581illegal": 12701, "ulpt": 14237, "\u2581notify": 20849, "<0x16>": 25, "rom": 436, "plies": 7631, "frastructure": 11932, "\u2581Operation": 16536, "\u2581District": 8207, "\u2581tennis": 19552, "\u2581confidential": 28451, "\u2581ann\u00e9es": 16010, "\u2581look": 913, "\u2581tegen": 26602, "spec": 4101, "\u2581divers": 8125, "\u2581\u0424\u0435": 18329, "\u2581pe": 757, "Components": 16966, "a\u00f1a": 15568, "Reb": 26934, "istrz": 20061, "ut": 329, "Ali": 14514, "RP": 28543, "\u2581teas": 24789, "\u2581Brasil": 18341, "<0x42>": 69, "\u2581Freder": 15411, "\u2581membres": 28356, "\u2581dei": 6511, "ite": 570, "\u2581vulnerable": 17508, "\u2581Sylv": 25987, "learn": 27082, "stan": 13511, "pop": 5951, "Grid": 8625, "\u2581repeatedly": 20253, "<0x9F>": 162, "\u2581Serial": 22696, "scroll": 10334, "pending": 12718, "Ill": 15497, "\u2581Spot": 24666, "ome": 525, "\u2581;": 2753, "\u0db1": 31487, "mas": 4876, "\u2581tant": 16110, "\uc784": 30520, "\u0921": 30792, "\u2b1b": 31264, "\u2581wasn": 2723, "icl": 26127, "iso": 12419, "<0xE7>": 234, "prod": 13135, "\u2581Marina": 27926, "\u2581sett": 4641, "\u2581Rus": 16501, "\u2581rhet": 25905, "\u2581visits": 17217, "\u2581Florence": 24929, "skip": 7671, "\u2581tens": 19391, "\u2581aria": 19787, "\u2581empower": 21757, "\u043e": 28761, "\u2299": 30669, "\u2581babies": 18652, "\u2581Cand": 26614, "\u2581angry": 10545, "angles": 21744, "\u2581tucked": 26391, "gro": 25344, "ogle": 2721, "\u2581Ban": 14859, "\u65e2": 31643, "\u043d\u0443": 2954, "Rel": 7523, "\u2581apparent": 7566, "Have": 12341, "\u2581Allow": 26012, "\u2581complaints": 23430, "fill": 5806, "\u2581JavaScript": 26281, "maker": 19963, "\u2581Abstract": 14372, "rott": 20332, "\u2581Middle": 11373, "OD": 2896, "\u2581vida": 14364, "\u5224": 29485, "\u2581aff": 2211, "\u2581interactions": 14983, "bourg": 20461, "\u2581fert": 16559, "pshire": 25543, "\ud2b9": 31684, "rera": 20729, "\u2581prep": 5015, "\u9644": 30560, "\u2581firing": 20076, ")$,": 7927, "\u85cf": 29895, "\u2581rare": 9964, "\u2581Abs": 12709, "\u2581klikken": 15708, "\u753a": 30988, "'\",": 27354, "fab": 17547, "car": 6602, "++++": 17501, "\u2581rm": 24614, "Bot": 25288, "\u2581ist": 3103, "\u2581hour": 5115, "jen": 6956, "\u2581Sund": 6721, "frak": 7917, "\u2581Nu": 17712, "\u2581Jung": 28551, "\u30c6": 29610, "inals": 15658, "<0x93>": 150, "\u2581exploring": 21354, "\u2581jar": 22578, "commerce": 24008, "\u2581bras": 20493, "RIGHT": 14166, "\u2581MERCHANTABILITY": 14105, "mod": 1398, "\u2581lov": 5718, "Constraint": 18017, "MED": 25428, "Slice": 21202, "\u2581Police": 12338, "\u2581mandatory": 26732, "idents": 6640, "sburgh": 23679, "inc": 1814, "gew": 16539, "sto": 12716, "\u2581freeze": 26927, "\u2581circ": 4713, "\u2581als": 2835, "\u2581Round": 15042, "\u2581investigation": 11597, "remove": 4653, "\u2581complic": 9768, "ist": 392, "\u2581num": 2075, "\u2581acceler": 13057, "\u2581sixth": 20865, "cm": 4200, "\u2581flesh": 14063, "USA": 22254, "ainte": 24243, "\u043f\u0435\u0439": 28216, "\u6c38": 30507, "\u6230": 31680, "\u2581project": 2488, "\u0447\u0435\u0441\u043a\u0438\u0435": 24458, "\u2581engaged": 13173, "\u2581Shakespeare": 19155, "\u9806": 31717, "\u2581damages": 25547, "HA": 13307, "off": 1769, "fly": 16210, "Nullable": 16112, "\u2581ferm": 17310, "\u2581d\u00e9velopp": 26601, "\u2581myst": 11947, "\u2581ha": 3631, "\u2581Tem": 9166, "\u2581||": 1636, "zt": 3903, "\u2581arrang": 11887, "Vo": 22619, "\u2581enables": 18156, "<0x84>": 135, "HANDLE": 24292, "\u00e4st": 28068, "\u2580": 30374, "\u2581mond": 12471, "INCLUDING": 27446, "\u2581n\u00e9": 8688, "verts": 24873, "\u2581ch": 484, "):\r": 20358, "inen": 9284, "<0x69>": 108, "\u2581belongs": 17827, "Json": 6773, "\u2581Primary": 25938, "\u09be": 29496, "\u2581incre": 2379, ".\r": 5488, "\u2581ende": 22834, "Tags": 14283, "\u2581instead": 3519, "Sender": 25125, "ober": 2510, "\u2581medicine": 12502, "real": 6487, "cons": 6524, "\u2581juni": 26489, "\u2581wider": 17525, "aming": 6133, "\u2581slept": 18283, "\u2581arrow": 18623, "\u2581tro": 4056, "brand": 20111, "inden": 20440, "\u2581dependency": 26473, "\u20a6": 31809, "\u062f": 28968, "\u2581Defense": 20774, "\u2581likes": 12672, "\u2581Certain": 20828, "\u2581carb": 24167, "\u2581n\u00e4r": 23122, "\u2581portions": 23694, "ICES": 22285, "$": 28776, "\u2581But": 1092, "\u2581resulted": 16960, "\u2581accessories": 25667, "![": 25531, "sql": 5929, "DELETE": 22070, "apolis": 20389, "\u2581d": 281, "\u2550": 29090, "\u2581owner": 7162, "\u5806": 31732, "\u2581Stone": 11775, "\u2581cav": 25553, "\u2581when": 739, "\u2581trains": 19770, "\u2581Gregory": 27113, "og": 476, "\u2581stressed": 27415, "\u2581legislation": 16837, "Mo": 24603, "crete": 7916, "\u2581forcing": 20504, "\u00e9s": 1442, "\u2581\u043f\u043e\u0434": 6008, "raw": 1507, "\u9650": 29436, "\u2581sele": 25019, "\u2581Unit": 13332, "\u2581Experience": 19428, "oston": 8410, "\u2581Append": 20206, "\u2581blocked": 18770, "\ucd9c": 29858, "amily": 5730, "aci\u00f3n": 2895, "\u043a\u0438\u043c": 15616, "ZERO": 28303, "arge": 2010, "\u0437\u044f": 15876, "\uacc4": 30106, "\u2581togg": 21171, "\u0440\u0430\u043c\u0438": 27142, "Month": 15605, "Fore": 13275, "ATT": 18501, "\u2581\u041d\u0438\u043a\u043e\u043b\u0430": 23979, "Completion": 26977, "\u2581stove": 28479, "lex": 1913, "\u2581Der": 4823, "Utils": 5896, "ereg": 27740, "umph": 14170, "icator": 17573, "\u2581[[": 8070, "\u2581extension": 8223, "awn": 11646, "\u2581killing": 10935, "\u2581soll": 15746, "dv": 16546, "\u00f5es": 7849, "\u2581War": 3273, "\u2581medication": 20859, "den": 1620, "\u2581\u043b\u0456": 15299, "stv\u00ed": 24574, "\u2581landing": 14378, "}\\,\\": 26758, "\u2581challeng": 6327, "pid": 9507, "<0x08>": 11, "\u2581greatest": 9932, "\u2581these": 1167, "bled": 9704, "matched": 28206, "Tasks": 15839, "Oh": 6155, "Core": 5908, "osed": 2352, "esi": 17897, "Filename": 24773, "GN": 28630, "\u2581Glad": 28692, "\u2581Kent": 13043, "rh": 28352, "/:": 26387, "\u2581Woods": 28628, "\u2581dop": 9275, "\u043a\u0438": 1107, "No": 2501, "skich": 26079, "\u7d93": 31139, "\u2581estar": 27497, "\u0442\u0440\u0435": 19317, "\u672c": 29119, "\u2581bekan": 21989, "mor": 21621, "\u2581excitement": 17163, "rea": 10458, "\u2581ok": 3614, "member": 9978, "\u2581HIV": 25401, "tto": 27099, "Here": 15423, "parallel": 23068, "\u2581insist": 26648, "\u2581existe": 26766, "\u2581wounded": 17084, "Hal": 26924, "\u2581\u0434\u043e\u043b\u0436": 27952, "analysis": 23206, "\u4e34": 30793, "\u2581stayed": 10452, "@@": 15168, "\u2581labour": 18995, "uations": 22190, "\u2534": 31268, "\u2581protecting": 20533, "pn": 13777, "ceed": 3988, "pose": 3896, "\u2581small": 1741, "\u2581minute": 7117, "SION": 8439, "\u2581challenged": 24730, "\u2581Vice": 17224, "\u00c0": 28964, "\u2581proxy": 15723, "\u1ea9": 30677, "ooth": 6771, "\u2581\u0432\u044b": 4627, "oe": 3679, "\u2581dispute": 22299, "\u00e2nd": 16801, "\u2581invoke": 23071, "Del": 9489, "\u2581\u0422\u0443": 24519, "\u092a": 29794, "REL": 27089, "ablish": 27753, "\u122d": 31522, "\u2581Activity": 24066, "CURRENT": 26381, "\u2581career": 4835, "\u2581drawn": 10421, "\u2581sensible": 26581, "\u2581rug": 13644, ".*;": 17362, "\u2581They": 1306, "\u2581\u0441\u043e\u0432\u0435\u0442": 21130, "\u2581consideration": 15301, "\u0430\u043b": 14993, "\u2581kole": 21840, "\u2581comprom": 21882, "\u2581triple": 22212, "tabs": 24856, "\u039c": 29812, "\u2581publisher": 21568, "ya": 5157, "eken": 23715, "\u2581deputy": 25176, "\u2581th": 306, "\u2581'-": 16763, "\u2581rhythm": 19834, "\u039d": 29966, "\u2581\u0446": 6033, "Items": 7816, "\u2581Taylor": 11285, "\u2581wur": 2826, "\u2581September": 4074, "\u2581Bulgar": 22390, "\ud328": 30680, "Parameters": 7405, "izations": 13809, "\u5965": 31761, "arten": 12125, "eward": 23899, "phone": 6690, "\u00edr": 19236, "\u2581seiz": 25368, "\u2581siendo": 27012, "\u2581saison": 20543, "ovan": 13704, "\u2581Wes": 19860, "\u2581\u0432\u0441\u0435": 10780, "\u2581spl": 8154, "Register": 7832, "ission": 1937, "hre": 27056, "\u2581*)&": 27349, "Dot": 25520, "}+\\": 13582, "ofs": 24103, "\u00e1rio": 17763, "lte": 27939, "date": 1408, "\u2581essentially": 13315, "\u2581Aber": 25601, "\u2581asc": 13294, "itated": 13523, "\u2581Lis": 20531, "ll": 584, "wise": 3578, "\u2581toilet": 19580, "\u2581Neg": 12165, "\u2581agrees": 28175, "\u2581assumption": 14776, "\u2581animation": 15733, "\u2581dropping": 19183, "\u00d2": 30565, "\u0447": 28826, "\u2581s\u00e3o": 19947, "\u985e": 30837, "\u2581waved": 20617, "metric": 13997, "\u2581unus": 12449, "\u2581Again": 9706, "\u2581background": 5414, "\u2581Roy": 12809, "\u2581Rodr": 20368, "\u9019": 30367, "\u2581PS": 12993, "\u2581Craw": 27580, "\u2581charts": 23332, "Initial": 14230, "\u0110": 29260, "\u2581earned": 12839, "\u2581stagger": 25132, "\u2581propriet": 20796, "XT": 25078, "\u2581woods": 16748, "\u2581compris": 25093, "\u2198": 29091, "\u2581Sus": 9167, "\u2581vehicles": 11999, "\u2581Finally": 8126, "\u2581mountains": 13691, "*}": 4237, "\u2581dig": 3968, "\u0490": 29559, "\u2581Pl": 1641, "\u63a7": 29712, "\u2581checked": 9681, "\u2581asleep": 15231, "\u2581Coff": 22967, "ministr": 4000, "\u2581agric": 11885, "<0x81>": 132, "A": 28741, "\u2581novembre": 13183, "\u2581worlds": 20742, "Range": 6289, "\u2581Within": 15621, "\u2581essere": 15865, "\u2581Ian": 17311, "\u2581Feb": 18198, "roups": 3515, "attributes": 11855, "Total": 10240, "Don": 6017, "\u2581Sea": 11759, "dep": 8823, "aim": 2371, "\u2581Latin": 13729, "\u2581journal": 7024, "\u2581intervention": 20288, "care": 8001, "\u0bcd": 29431, "\u2581rounds": 18638, "\u2581paid": 5907, "\u0448\u0435\u043d\u0438\u044f": 25912, "\u2581Wi": 16494, "\u2581hem": 14492, "\u2581grat": 15177, "isce": 26322, "icians": 8019, "skiego": 17983, "bo": 1798, "yst": 827, "\u2581id": 1910, "cciones": 24598, "th": 362, "imes": 1198, "\u2581dann": 18093, "^-": 18092, "\u2581Loss": 26619, "Function": 4901, "\u0441\u0441\u0438": 6993, "\u2581utilized": 28061, "BYTE": 18290, "\u2581Ellen": 22799, "}),": 6994, "\u2581bond": 9410, "cht": 5862, "\u2581\u043c\u0435\u0436\u0434\u0443": 16360, "\u2581agreed": 5825, "\u2581durante": 9794, "SHA": 18577, "\u2581tmp": 6510, "\u2581labels": 12499, "Sym": 17065, "\u2581\u0445\u0443\u0434\u043e": 21196, "paces": 26298, "\ub9ad": 31318, "\u2581corrected": 27840, "pay": 6762, "\u2581extends": 4976, "\u2581Las": 9134, "\u2581vict": 4801, "\u2581Girl": 10850, "\u2581rear": 12110, "half": 18582, "\u2581sheep": 19583, "\u2581sugar": 9984, "\u2581administration": 10298, "\u2581\u041b\u044e": 24667, "browser": 13612, "\u043d\u0438\u043a\u043e\u0432": 18154, "ould": 474, "erson": 1084, "\u2581dirig": 16263, "\u2581afford": 8205, ".,": 2063, "\u2581appetite": 28081, "we": 769, "Assign": 23572, "jar": 13036, "keiten": 23351, "\u2581generation": 8342, "\u2581favourite": 16020, "[<": 19533, "\u2581accordance": 20147, "colo": 17382, "\u2581jealous": 21176, "\u2581Fig": 4826, "ellig": 6095, "liter": 24477, "\u2581China": 5077, "\u2581vez": 10053, "\u2581\u043f\u0440\u043e\u0433\u0440\u0430": 23462, "nica": 14882, "\u0434\u043e": 2054, "\u2581hug": 13620, "\u2581\u00c4": 18912, "\u2581trump": 22945, "\u2581illusion": 27812, "ort": 419, "\u2581Source": 8193, "YY": 16655, "iken": 21417, "ATURE": 16051, "\u2581remembering": 26036, "0": 28734, "\u2260": 30932, "\u2581knew": 2580, "\u0449\u043e": 6986, "\u021a": 29749, "\uc870": 29841, "<0x49>": 76, "\u2581suff": 3510, "\u2581shook": 7989, "ts": 1074, "\u2581emerged": 16188, "\u2581Debug": 18536, "mbox": 7602, "nonumber": 8747, "\u2581GC": 22278, "\u2581WP": 26764, "People": 21794, "\ud074": 30203, "\u2581instr": 7465, "\u536b": 31872, "\u2581pays": 12429, "\u2581Coupe": 28650, "\u2581majority": 7757, "\u2581plastic": 10409, "CP": 4100, "\u2581less": 2108, "och": 4042, "izza": 13983, "\u2581sang": 15166, "soap": 19516, "\u2581Observ": 15951, "\u2581ways": 4342, "\u2581drugs": 10747, "avorite": 28463, "\u2581.": 842, "\u2581appeared": 6178, "amic": 21039, "\u6d6e": 31171, "Enum": 9758, "Love": 23220, "\u2581\u0442\u043e\u0433\u043e": 18150, "}_\\": 12225, "nail": 21418, "\u2581BE": 10368, "\u2581utterly": 24354, "\u2581\u0422\u0430\u043a": 26897, "\u2581relationships": 9391, "\uc600": 31958, "agger": 7109, "js": 2777, "\u2581binding": 15662, "antes": 6682, "PF": 12390, "udes": 5887, "\u2581items": 4907, "\u2581verified": 25301, "Dest": 9277, "\u59cb": 29197, "zer": 3506, "\u2581aid": 11092, "(),": 1648, "\u2581shiny": 27348, "\u3079": 31148, "stop": 6898, "\u2581Pam": 22238, "\u2581Produ": 8730, "ifications": 7467, "Rad": 9771, "\u2581Roche": 26330, "DIP": 24090, "\u2581confirmed": 11367, "\u2581mission": 7023, "\u2581Training": 15394, "\u2581sounded": 13219, "\u2581aggreg": 14554, "\u2581eventually": 6959, "Combo": 25141, "\u2581Marian": 27117, "\u94ae": 30085, "ponse": 1405, "\u2581Json": 17750, "\u2581\u0427\u0430": 24695, "zig": 16318, "\u2581Hern": 28521, "\u2581\u0442\u043e\u043b\u044c\u043a\u043e": 24125, "\u2581MVT": 26525, "\u2581sick": 7946, "gi": 5330, "\u2581inequality": 17522, "resent": 2044, "________": 8320, "l\u00e9": 19838, "MP": 2059, "\u2581Dist": 12443, "\u2581Gl": 3651, ";</": 16211, "\u2581\u043a\u043d\u0438": 21247, "\u2581\u043e\u0434\u043d\u0430": 24310, "\u2581eigen": 11060, "\u2581Diana": 24728, "\u2581everything": 2905, "/)": 19840, "INS": 12522, "\u0083": 30477, "\u9aa8": 31081, "\u673a": 29363, "\u2581explosion": 22258, "\u2581\u043f\u0440\u0435\u0434\u0441\u0442\u0430\u0432": 18006, "\u2581eligible": 18711, "\u2581ne": 435, "iors": 13771, "\u2581offic": 2771, "\u2581indicated": 14075, "tha": 15716, "\u2581austral": 27162, "vet": 10056, "ben": 3173, "\u2581animals": 8222, "parameter": 14490, "\u2581popularity": 20646, "\u2581reun": 22528, "tes": 2097, "\u2581encounter": 10301, "\u2581exclusively": 21437, "\u2581ge": 2970, "dar": 22421, "\u2581S\u00fcd": 21449, "\u2581writer": 6953, "alone": 25179, "\u2581descriptions": 25308, "\u2581interact": 14113, "\u2581laws": 8427, "EO": 7438, "pton": 11648, "\u2581snapped": 18190, "Env": 8967, "\u2581acquire": 18896, "ulent": 21834, "\u2581\u00e9galement": 13417, "owym": 24547, "\u2581verd": 18070, "\u2581conflict": 10318, "Mount": 20969, "nod": 26177, ")'": 24996, "zh": 13881, "ateful": 13263, "SELECT": 10696, "\u2581pulled": 5822, "\u2581Transport": 15096, "\u2581\u0423\u043a\u0440\u0430\u0457\u043d\u0438": 22224, "\u2581wides": 22964, "\u2581activation": 25159, "\u2581phrase": 14804, "\u2581shr": 12249, "\u2581*/": 986, "\u2581\u0430\u043d": 23706, "business": 25443, "c": 28717, "\u2581travel": 4530, "amo": 14156, "\u2581distinction": 20677, "Phil": 23886, "\u2581comprend": 23913, "\u2581\u0434\u0435\u043a\u0430\u0431\u0440\u044f": 26317, "AN": 1251, "\u2581bloody": 17880, "\u2581}),": 15391, "\u2581Kansas": 17778, "rb": 9312, "\u2581landscape": 13894, "\u0432\u0438\u0447": 7701, "\u043b\u0438\u044f": 13124, "ises": 3900, "Col": 1577, "nb": 8611, "iggers": 21102, "\u4ed6": 29440, "\u2581superior": 11352, "\u2581}));": 25968, "\u3082": 29778, "\u2581Colin": 25380, "onna": 7136, "Internal": 8893, "icion": 26357, "\u2581murder": 6832, "\u2581Jos\u00e9": 12369, "\u0430\u043d\u0434": 13435, "\u2581narr": 9819, "imiento": 13121, "\u67d0": 30301, "Multiple": 26905, "\u2581physically": 16094, "NORMAL": 27499, "\u2581Iter": 20436, "iku": 23550, "angen": 26047, "\u2581diagnostic": 23360, "rog": 9617, "\u2581sit": 1943, "\u2581hill": 12254, "servlet": 22029, "\u0440\u043e\u043c\u0430": 25867, "ry": 643, "\u2581Ex": 1529, "\u2581spat": 13166, "\u103c": 31887, "jal": 21939, "\u067e": 29483, "\u2581give": 2111, "\u2581friendly": 10131, "());\r": 15056, "\u0908": 31988, "\u2581nel": 4751, "\u2581\u043f\u043e\u0432": 19097, "Tab": 7560, "\u2581p\u0159ed": 22774, "\u2581\u0441\u0442\u0432\u043e": 28490, "\u2581Gra": 19095, "\u2581'$": 22373, "INIT": 11613, "\u2581\u043e\u0442": 2433, "\u00fcd": 12484, "\u2581<!--": 12828, "Bal": 13450, "\u2581nome": 14163, "\u2581Frankfurt": 26858, "\u7ec7": 31500, "uten": 8142, "\u2581screw": 14693, "\u2581walked": 5610, "\u2581roku": 6739, "\u2581newspapers": 19466, "\u64cd": 29371, "Endpoint": 12994, "try": 1553, "\u30a2": 29322, "domain": 8692, "\u2581photo": 8428, "conditions": 24952, "\u2581\u00c9tats": 17902, "\u2581diagn": 12008, "\u2581zn": 13288, "EB": 14608, "]$": 14674, "\u5ba2": 29763, "OutputStream": 20667, "\u2581lever": 22599, "\u2581BS": 28691, "lat": 7387, "\u2581valid": 3716, "<0xE9>": 236, "values": 5667, "usr": 16785, "\u2581Vancouver": 23250, "jekt": 18282, "\u2581een": 2817, "\u2581Provinc": 27600, "\u2581resort": 18969, "\u9f20": 31106, "\u2581field": 1834, "\u2581Begin": 15152, "Dark": 25732, "\u2581kon": 5765, "\u5462": 31351, "uli": 11815, "\u2581prosper": 20814, "haps": 3662, "izioni": 24011, "\u2581bolt": 24610, "\u043f\u0430\u043d": 23839, "\u2581Wolf": 17227, "\u2193": 30036, "\u6233": 31448, "\u00ad": 28927, "\u2581M\u00fcn": 17308, "INE": 5472, "\u2581drain": 18946, "existing": 24049, "\u5403": 31182, "\u2581organizations": 9909, "defaults": 22086, "\u2581garage": 16699, "\u2581Lic": 8851, "\u2581souvent": 28120, "\u2581documents": 10181, "\u043d\u043d\u044f": 14704, "\u2581Using": 9616, "\u2581rewards": 22989, "Catalog": 27937, "stroke": 14844, "on": 266, "\u2581Uncle": 20189, "\u2581opportunities": 8812, "\u2581reveals": 21579, "atched": 25925, "\u2581sich": 3866, "\u2581deven": 24999, "']))": 16433, "Selector": 8185, "Print": 8781, "\u2581shield": 15422, "\u00fcber": 20173, "niej": 20386, "\u2581\u043c\u0435\u0441\u0442": 25839, "\u5584": 31580, "\u2581very": 1215, "aints": 6520, "\ud0dd": 30442, "<0xE8>": 235, "\u2581hol": 5636, "adesh": 20830, "\u2581Shaw": 24489, "amer": 6962, "\u6559": 30166, "Bits": 14721, "rock": 16013, "\u2581Memory": 19153, "1": 28740, "\u0448": 28841, "\u2581\u0432\u043e\u0435\u043d": 20641, "\u2581spe": 1886, "\u2581pu": 5153, "\u2581returned": 4253, "=\"${": 28144, "\u2581creat": 2911, "ically": 1944, "\u2581hunger": 24358, "}}(\\": 20960, "\ud55c": 29282, "<0x82>": 133, "\u2581high": 1486, "\u2581played": 4226, "\u2581plants": 9923, "\u30e3": 30026, "\u2581hast": 25017, "\u2581humans": 10589, "\u2581cloth": 17673, "\u2581backs": 24007, "\u2581Partido": 26595, "Success": 11034, "\u2581gep": 14152, "iber": 3858, "\u2581commonly": 14473, "mathscr": 15445, "iances": 20904, "\u2581surveillance": 26146, "props": 7329, "V": 28790, "\u2581clouds": 16393, "\u2581pulling": 13672, "\u504f": 30719, "\u2581Organization": 21919, "Extension": 10430, "\u2581Ur": 11149, "local": 3959, "CA": 5194, "pod": 16339, "\u5305": 29333, "\u2581Mind": 14683, "\u0eb2": 31616, "\u2581sed": 9178, "\u2581incl": 1171, "\u4e71": 31380, "\u2581ki": 12883, "Dat": 6121, "\u2581praise": 20707, "\u2581\u043a\u043e\u043c\u043f\u0430": 20776, "\u5357": 29680, "\u0409": 30215, "\u2581pandemic": 15749, "Texture": 10761, "<0xAE>": 177, "ail": 614, "\u0441\u043b\u0443": 16467, "\u2581Metal": 24144, "\u2581\u00b7": 1766, "\u2581uitgen": 15641, "\u2581traged": 21389, "ISD": 24375, "ensuremath": 9104, "signature": 22938, "cheduled": 23382, "circ": 9565, "\u691c": 30948, "\u2581IF": 14184, "\u2581successful": 6053, "\u5fb7": 30371, "\u2581SET": 17638, "\ud588": 30676, "\u2581during": 1938, "\u2581arena": 24059, "\u2581divided": 13570, "\u2581limiting": 27931, "\u2581Mu": 10495, "season": 17956, "\u2581Boys": 20344, "\u2581inclined": 27115, "DR": 4232, "\u2581socket": 13889, "ince": 1261, "\u2581dual": 13350, "rop": 1506, "\u2581pen": 4969, "ipp": 15953, "\u043d\u043e\u0432\u0435": 23791, "LINK": 19566, "ById": 7760, "i\u00e8re": 8110, "\u2581alive": 8630, "Rate": 12218, "\u2581ingred": 10887, "\u2581website": 4400, "TERN": 26503, "\u2581recipient": 23841, "\u2581extend": 11696, "\u0baf": 30687, "\u2581stab": 21670, "\u2581proposals": 26054, "\u8857": 30405, "\u2581Ah": 10103, "\u2581Miguel": 20963, "elseif": 27636, "\u2581argv": 21863, "prote": 8716, "\u516c": 29443, "\u5fa9": 31711, "ard": 488, "jpg": 11692, "updated": 18169, "gu": 2851, "peg": 16600, "\u2581is": 349, "\u9875": 29238, "\u9ed8": 29392, "\u2581distract": 18565, "\u2581teaches": 28488, "aked": 6343, "\u2581Oh": 5434, "aza": 10261, "\u2581infer": 13701, "Commit": 20629, "\u5200": 31516, "recv": 22344, "\u5fd8": 31763, "constraint": 27122, "\u2581\u0445\u0438": 27220, "\u2581inte": 3113, "\u662f": 28971, "\u2581caused": 7334, "\u2581cous": 13146, "ello": 4508, "\u2581Coord": 23184, "Thanks": 22893, "\u2581false": 1341, "Clean": 22139, "\u2581Richmond": 26182, "\u0440\u0435\u0437": 15369, "\u2581nat": 3044, "\u2581Earth": 8599, "\u2581examine": 17801, "versation": 25422, "\u2581rav": 25782, "\u2581intern": 3875, "\u2581Dublin": 22263, "\u101e": 31832, "\u2581impat": 24766, "temp": 7123, "uela": 13482, "\u0404": 29035, "\u2581selon": 23851, "\u300d": 29577, "\u2581citt": 17540, "\u2581witness": 9149, "\u6d25": 31225, "\u2581Schema": 24051, "\uc22b": 31330, "irl": 2156, "atted": 11985, "\u2581Microsoft": 7902, "\u2581randomly": 24678, "TIMEOUT": 21911, "\u043d\u0438\u043a\u0438": 16608, "sheet": 19623, "ancel": 8046, "<0x4A>": 77, "\u2581techn": 2412, "terday": 10479, "CON": 3185, "\u2581winner": 13842, "\u2581done": 2203, "\u2581Left": 18365, "iten": 6329, "\u2581Museum": 8770, "MO": 4095, "\u2581provided": 3857, "\u2581Services": 8074, "\u2581SQL": 13208, "\u2581pretend": 19192, "\u2581depends": 9618, "asticsearch": 19616, "<0xA5>": 168, "\u0441\u043a\u043e\u0432": 20060, "\u2581dre": 21808, "ITER": 25784, "\u7535": 29742, "\u9500": 30286, "\u0441\u043a\u0438\u0435": 15795, "Admin": 11744, "no": 1510, "\u2581moins": 17775, "\u2581bis": 4505, "\u2581queen": 18204, "$(\"#": 26690, "\u2581efficiency": 12832, "\u043b\u0438\u0447": 22184, "\u7530": 29944, "eze": 19961, "\u2581models": 4994, "\u2581nouve": 16421, "ics": 1063, "\u2581expectation": 21859, "\u2581adults": 12111, "ential": 2256, "\u2581Peace": 18864, "dale": 21352, "\u2581Rich": 4656, "\u2581dio": 22168, "\ubc1b": 30605, "\u2581Fou": 22577, "\u2581desires": 23545, "elo": 11979, "\u00e1nd": 12849, "iero": 23419, "enza": 11409, "Tur": 28348, "\u2581EN": 11929, "\u017ce": 10564, "etch": 4455, "\u043d\u0435\u043d\u0438\u044f": 23993, "\u2581cit": 5963, "Fast": 23252, "<0x34>": 55, "\u2581prefer": 5273, "\u2581Assembly": 12033, "achel": 14047, "Ut": 20448, ",,,,": 20863, "licenses": 9146, "\u2581article": 5447, "channel": 7430, "\u2581\u0414\u0436": 16046, "\u2581Arist": 24259, "\u2581rid": 7194, "\u2581stato": 11995, "Byte": 8150, "\u2581confess": 26920, "\u044c\u044f": 23224, "\u2581Harper": 23649, "\u2581Im": 2236, "\u2581nav": 5697, "west": 7471, "\u0441\u043b\u0435\u0434\u043e\u0432\u0430": 23050, "cpp": 5222, "\u2581bab": 13225, "eries": 12865, "\u2581Grande": 18446, "Bottom": 15482, "\u0435\u0440": 1226, "erst": 25742, "\u521b": 29349, ".*": 3752, "\u2581judgment": 16548, "\u2581inv": 1304, "\u2581n\u00famero": 20472, "\u2581UEFA": 26837, "\u0433\u0456": 10217, "anya": 19791, "edy": 7264, "\u2581notice": 5640, "\u2581revenue": 14008, "\u2581although": 5432, "\u0449\u0435": 4087, "\u2581prop": 3313, "\u2581Berg": 14813, ">": 28767, "\u2581\u043f\u0430\u0440\u0430": 28370, "Left": 7549, "\u0651": 29754, "\u2581lawn": 20200, "Please": 12069, "graphics": 6648, "\u2581legitimate": 20954, "\u2581kissed": 18792, "kv": 23546, "\u2581fus": 26400, "initialized": 28624, "\u2581locale": 17050, "\uccab": 31745, "\u2581conver": 9105, "\u0cc6": 31421, "\u00e1v": 13470, "CAM": 21480, "Rom": 28018, "\u2581usually": 4312, "PEND": 25902, "ever": 1548, "\u2581Cameron": 23028, "\u2581eff": 1397, "ilt": 2605, "\u2581\u0431\u0435\u0437": 15907, "\u0458\u0443": 11066, "\u2581cant": 8752, "\u2581ideas": 5766, "\u2581isset": 20050, "\u2581Television": 22730, "\u2581lin": 12893, "\u2581exit": 7790, "fortunate": 26042, "\u2581ju": 5666, "\u2581champ": 22942, "rir": 28441, "\u0119": 28864, "\u2581cooperation": 21732, "\u2581Intelligence": 23091, "\u2581ValueError": 26378, "\u0e2b": 29601, "<0x66>": 105, "\u2581lazy": 17898, "contact": 16570, "\u2581Charles": 6427, "\u2581anger": 11217, "\u0435\u043d\u044c": 13597, "nde": 18773, "\u2581Vern": 26801, "*:": 16550, "uns": 13716, "Widget": 7728, "\u2581qu\u00e9": 25648, "\u7b80": 30470, "ctl": 9057, "\u2581software": 3930, "\u0435\u0439": 5649, "\u2581Santa": 9231, "\u2581law": 2309, "screen": 8555, "\u2581representatives": 20559, "rier": 5118, "\u2581Jah": 4096, "\u2581aux": 5672, "WARNING": 18721, "-)": 27346, "\u6cf0": 31361, "\u00fa": 28863, "\u2581traces": 26354, "\u2581February": 5353, "\u2581analog": 16468, "ialog": 3723, "\u00f6ffentlicht": 28106, "\u2581\u0430": 1622, "IsNull": 25230, "%;": 26403, "\u2581TODO": 9420, "\u6bd4": 29605, "\u52d9": 31503, "\u2581Reserve": 22249, "onte": 14266, "liv": 20362, "\u043e\u043b\u043e": 7208, "RB": 24042, "\uacfc": 29844, "\u30ec": 29491, "exec": 12479, "elli": 8763, "\u0431\u044b": 10092, "ig": 326, "mber": 2343, "oka": 18377, "\u6d4f": 30796, "\u660c": 31265, "\u2581Selection": 26909, "\u2581\u00c9t": 14011, "\u2581upgrade": 16518, "\u2581Regiment": 23042, "working": 20867, "\u2581\"(": 21816, "REC": 23514, "\u2581strategy": 7213, "per": 487, "\u2581fois": 15396, "\u2581attra": 22346, "\u2581Fac": 13924, "\u2581holidays": 20973, "\u2581Bowl": 21484, "\u2581diab": 17571, "olved": 7060, "\u0436\u0434\u0435\u043d\u0438\u044f": 28253, "\ud83e\udd14": 30255, "\u2581century": 5445, "\u2581sexual": 6965, "\u2581Tim": 7240, "park": 21387, "\u2581App": 3122, "\u2581Had": 11238, ",-": 7667, "izen": 20084, "\u2581ak": 13067, "\u2581sign": 1492, "ATH": 7145, "actions": 5286, "van": 7675, "\u2581declare": 13242, "\u2581&#": 16719, "itut": 3288, "\u2581reduction": 13388, "\u2581infl": 3661, "zk": 14109, "Authentication": 19504, "WS": 7965, "Paul": 22241, "\u2581hy": 6521, "-->": 26345, "IVER": 27169, "configuration": 13925, "\u1d0f": 31153, "\u2581AV": 13190, "\u00e5n": 7743, "<0x87>": 138, "\u2581scatter": 11190, "izz": 5769, "\u2581**(": 27399, "\u2581Brigade": 27861, "\u2581Butter": 28182, "inks": 20523, "\u2581stata": 20879, "cycl": 21369, "\u05db": 29463, "\u2581Harvard": 17553, "\u2581fence": 17210, "\u2581Reich": 16091, "\u2581promises": 20626, "Tw": 21173, "\u2581Most": 4822, "Framework": 15456, "\u2581concerning": 15942, "\u0582": 30291, "\");\r": 6913, "\u00e8ge": 24399, "\u2581\u0432\u043c\u0435": 27293, "\u2581wor": 1045, "\uae38": 31270, "VL": 23537, "\u2581seen": 2598, "\u2581your": 574, "\u8d5e": 31829, "htt": 1920, "\u2581Rom": 3945, "DEC": 23763, "\u2581toujours": 23800, "\u2581Papa": 27091, "\u1e6d": 29835, "\u2581clean": 3587, "directory": 17509, "\u2581notation": 22499, "\u2581intu": 21141, "\u2581Bull": 16998, "figure": 4608, "\u2581dir": 5262, "\u2581participate": 14092, "\u2581ion": 19464, "route": 11833, "<0x57>": 90, "\u2581instance": 3335, "\u5176": 29450, "\u2581BASIS": 12259, "<0x80>": 131, "\uac70": 30013, "sf": 5784, "uable": 10500, "\u2581jog": 18903, "\u2581Vil": 23415, "\u2581thesis": 23412, "\u2581dem": 1493, "\u2581poker": 25346, "\u2581P": 367, "util": 1858, "\u2581permanently": 26815, "\u2581SUB": 24803, "Heap": 22107, "\u2581gruppo": 28163, "\u540d": 29046, "._": 1573, "=\"-": 23013, "oles": 4721, "\u2581composition": 15460, "\u10d2": 30218, "\u2581prof": 1957, "\u2581\u043c\u043e": 4025, "ward": 1050, "riven": 21694, "\u2581gonna": 9575, "ptions": 1720, "Value": 1462, "istr": 2174, "\u2581\u0440\u0430\u0431\u043e\u0442\u0430": 26726, "oga": 10491, "\u2581horizontal": 18116, "\u2581Commander": 22690, "\u2581sug": 28670, "\u2581swap": 20166, "\u2581Mat": 5702, "]);": 3759, "patch": 5559, "eti": 26834, "mania": 25771, "\u4f4d": 29147, "\u03a5": 30549, "'$": 15023, "\u2581kt\u00f3ry": 18415, "\u2581Corporation": 12377, "sw": 1616, "\u2581bere": 14325, "azor": 18426, "AST": 12440, "\u2581nightmare": 27390, "akers": 8774, "Registration": 25569, "\u2581init": 2339, "GD": 25730, "\u2581mix": 6750, "Visitor": 24796, "\u2581runs": 7825, "\u2581faded": 23716, "created": 13574, "n\u00edm": 21038, "ter": 360, "\u2581brave": 22257, "\u2581Andy": 16514, "\u2581\u0431\u0440\u0430": 17515, "\u0441\u0435\u0440": 22269, "\u2581\u043a\u0430\u0442\u043e": 14126, "Music": 24778, "\u2581questioned": 26812, "\u2581Marshal": 27602, "athan": 9871, "frames": 19304, "\u2581\u0433": 1911, "\u2581r\u00e9s": 11310, "\u2581complexity": 17599, "\u2581[{": 21156, "\u2581Hat": 23792, "\u2581drap": 26093, "\u2581Tol": 15893, "\u2581gew": 9514, "\u9020": 29925, "far": 15057, "\u0448\u043a\u0430": 19544, "\u30a3": 29707, "\u8d8a": 30619, "\ub2ec": 31082, "CESS": 7077, "\u2581writing": 3653, "\u2581Gu": 2480, "\u2581Marine": 16155, "mers": 14448, "\u2581importantly": 21485, "\u2581Args": 24997, "\u2581Bill": 6502, "\u2581rated": 25101, "\u5207": 29961, "\u308f": 30495, "\u2581phase": 6896, "\u2581axis": 11022, "\u2581Album": 13449, "\u2581Cape": 18817, "\u2581converted": 15514, "ilers": 27693, "\u0437\u043e": 3965, "Ref": 3680, "\u2581Legal": 22010, "\u0440\u043e\u0434": 6063, "loading": 16792, "\u521d": 29409, "vertex": 19251, "atem": 24359, "\u2581Gian": 27090, "\u2581popula": 20745, "\u2581protection": 8147, "\u2581Glen": 17529, "\u2581concentrated": 25088, "\u2581European": 6392, "\u2581borders": 22902, "\u2581zosta\u0142": 11686, "}\\,": 12480, "\u2581cort": 16779, "\u2581rout": 6356, "t\u00e9": 11414, "\u0440\u0430": 665, "\u2581trat": 17726, "/>": 2370, "\u2581ner": 24687, "\u9280": 31890, "roupe": 14236, "\u2581\u2019": 24978, "\u2581layer": 7487, "\u2581polynomial": 22879, "\u0088": 30463, "\u2581VIII": 24475, "\u2581Chen": 17038, "licht": 15761, "\u2581\u0431\u0443\u043b\u0438": 24596, "\u2581atmosphere": 13789, "\u2581Z": 1054, "\\,": 5568, "ising": 2979, "\u2581obtain": 5375, "\u2581interference": 26994, "\u2581race": 5941, "td": 2447, "\u2581\u043d\u0430\u0437\u0432\u0430": 17370, "\u05b4": 30225, "\u0bb0": 30368, "\u064d": 31993, "\u0161e": 25306, "\u2581reserv": 6047, "\u2581ligger": 18230, "Create": 3998, "\u2581tun": 15013, "\u2581Gro": 8697, "\u2581\u0441\u0442\u0443": 20558, "\u2581drag": 8211, "Vector": 6162, "gel": 9281, "*-": 13725, "\u2581banks": 13283, "\u2581Must": 14242, "\u2581diffusion": 25236, "werp": 25978, "\u2581\u043f\u043e": 1051, "Sa": 14524, "ju": 8948, "\u2581elim": 8663, "\u2581etc": 4345, "\u2581\u0425\u043e": 18797, "\u2581dry": 6964, "Ha": 26135, "\u2581weakness": 18288, "lim": 2788, "ascular": 28140, "\u9636": 31177, "link": 2403, "\u2581Alan": 15444, "\u00e4ll": 14357, "\u2581Talk": 15849, "\u2581skirt": 24784, "\u2581Pay": 9260, "\u2581FUN": 28318, "\u2581fur": 2982, "\u2581trade": 6226, "\u2581Fran": 26578, "\u522b": 29705, "\u041e": 28874, "\u02da": 31058, "omas": 23856, "\u2581at\u00e9": 24961, "\u2581included": 4658, "que": 1011, ")).": 8698, "\u2581DO": 9317, "\u2581accused": 16380, "irit": 4442, "z\u0151": 13765, "\u2581laund": 21796, "API": 6688, "NC": 9419, "\u0935": 29862, "\u2581For": 1263, "short": 10046, "hire": 20685, "\uacf5": 30010, "\u2581got": 1433, "DI": 3284, "pite": 4995, "\u2581Mitchell": 21072, "elle": 3222, "\u2581rounded": 19372, "\u2581Fue": 21407, "Dim": 12334, "\u2581lat": 4039, "\u62f3": 31588, "LC": 9162, "\u2581Language": 15589, "grade": 7844, "flags": 4406, "\u8349": 30995, "ultur": 18604, "ector": 3776, "\u0437\u0435": 8700, "\u2581intr": 7677, "Life": 21329, "\u2581hybrid": 22091, "\uce58": 30159, "\u672b": 31325, "img": 5422, "\u2581An": 1094, "Lif": 28461, "\u2581battles": 20469, "simeq": 21961, "\u0493": 31023, "\u2581htt": 2336, "ptr": 2619, "poll": 15598, "\u00e1": 28820, "\u518c": 30001, "\u0441\u0442": 608, "\u2581helping": 8538, "\u2581Code": 7596, "TextBox": 27828, "\u2581Ukraine": 16654, "\u2581write": 3324, "\u2581connected": 7391, "este": 7939, "\u2581bags": 14616, "SIG": 26956, "\u2581networks": 12167, "ided": 1932, "\u2581accordingly": 25485, "\u2581Bever": 28526, "\u2581correct": 4714, "\u0440\u0430\u0432": 23081, "\u0440\u0443\u0434": 22308, "\u5175": 30918, "\u2581confused": 13803, "Dao": 20660, "});": 3498, "\u2581interest": 2145, "\u2581acted": 20384, "\u2581Gro\u00df": 20146, "\u2581practices": 10879, "Schema": 7435, "Environment": 15827, "ipedia": 13189, "\u2581initiated": 28086, "\u2581scal": 10431, "\u2581questions": 4224, "gged": 10901, "\u2581opposed": 13970, "\u2581m\u00e5": 25113, "\u2581Generic": 26348, "Buff": 15989, "\u2581iPhone": 17391, "\u2581necess": 3527, "Global": 8985, "\u903b": 30928, "\u2581Stevens": 23699, "\u9664": 29153, "\u2581Flight": 27910, "\u2581shake": 17138, "\u5269": 31120, "\u2581infection": 18197, "\u2581constitu": 14769, "\u2581posting": 18448, "k\u00f3w": 26701, "\u2581comes": 3435, "cticut": 23188, "\u2581neighbor": 7422, "\uac1d": 30411, "\uccad": 30594, "tober": 12955, "\u2581angle": 10417, "\u2581spoke": 7310, "\u2581Pu": 23078, "\u2581sentences": 23748, "\u2581hass": 27017, "\u2581Louise": 23928, "swer": 16981, "\u2581typeof": 10498, "\u2581Try": 11442, "\u0443\u0440": 8339, "\u2581Steam": 27543, "\uc9c0": 29161, "aska": 14431, "ashi": 19915, "\u2581\u0410": 2182, "\u2581races": 16509, "whe": 15831, "\u2581Helen": 18504, "d": 28715, "\u2581marks": 14191, "ivals": 24363, "atten": 11110, "anje": 27858, "Package": 11079, "Price": 12304, "Methods": 20591, "+-": 22805, "\u2581integr": 4507, "AU": 18228, "\u2581Sciences": 19364, "\u0ba9": 30804, "\u2581Johnny": 18354, "\u2581Token": 16625, "\u2581Techn": 6772, "\u2581Michel": 12622, "Accept": 17589, "ocur": 28457, "\u2581shadows": 17207, "olare": 19389, "\u2581Vel": 14812, "\u2581tobacco": 26865, "course": 11987, "\u4e0e": 29551, "\u56db": 29882, "ictions": 19351, "\u043a\u0443\u043b\u044c": 26759, "ties": 22833, "\u2581enhance": 11976, "dispatch": 16202, "rey": 6439, "hen": 540, "\u2581\\[": 8761, "\u2581grinned": 21489, "Sch": 9979, "equiv": 13220, "\u2122": 29014, "dialog": 10565, "\u2581seventh": 25650, "\u2581unh": 20581, "<0xE4>": 231, "Vis": 5198, "onso": 24291, "\u015b": 28884, "\u00e8te": 21056, "primary": 12525, "ennis": 7480, "\\-": 27682, "\u2581Art": 3951, "attro": 27779, "kon": 14483, "structure": 18048, "\u2581stating": 23630, "Head": 3761, "lan": 7411, "lli": 25137, "\u2581Collect": 26272, "\u2581suffering": 11812, "\u0434\u043e\u043d": 25612, "\u2581s\u0103": 14377, "rangle": 6820, "oli": 7320, "\u2581ale": 12121, "\u2581\u0420\u0443": 14116, "\u2581\u0438\u0441\u043f\u043e\u043b\u044c": 18496, "\u534a": 30458, "\u044f": 28811, "\u2581\u041f\u043e": 3787, "atan": 23905, "\u2581roll": 4595, "heid": 16731, "page": 3005, "\u0f51": 31505, "\u2581and": 304, "\u2581sight": 7739, "\u2581bow": 6447, "\u2581LA": 15784, "\u2581perfect": 3659, "\u013e": 29826, "\u2581Load": 11924, "xd": 10044, "<0x4E>": 81, "\u2581AUT": 18453, "asury": 26440, "\u2581kid": 6371, "GER": 11832, "\u2581themselves": 3892, "\u2581club": 4489, "\u2581accurate": 11229, "\u2581lets": 16143, "\u2581sty": 10176, "output": 4050, "\u2581fishing": 15189, "Det": 5155, "Place": 18962, "\u2581Agent": 23393, "\u2581Perfect": 24443, "Property": 3093, "\u2581Street": 5383, "\u2581Town": 8897, "+": 28806, "eval": 16039, "\u306d": 31197, "\u2581denote": 14543, "\u2581minority": 21118, "\u7687": 30645, "\u2581anyway": 7799, "\u2581notes": 8321, "\u2581hav": 9993, "\u2581Sing": 7572, "\u2581Sandy": 27925, "vir": 28114, "ifest": 7541, "\u2581tack": 13616, "\u2581encour": 6191, "\u2581Bed": 12266, "\u064e": 29104, "\u26a1": 31420, "City": 22013, "\u2581Newton": 20281, "\u2581Peak": 27416, "\u2581prefix": 11398, "\u2581wants": 5659, "\u2581Queens": 19689, "\u4f24": 31546, "reddit": 14254, "\u2581raising": 15851, "\ud83c\udf89": 31862, "\u5bcc": 31017, "nika": 19996, "ANK": 26393, "\u044f\u0432\u0438": 20241, "STEM": 22526, "SPI": 23483, "\u2581displ": 13420, "\u0531": 30953, "INPUT": 20309, "Consum": 16277, "\u2581donc": 19477, "ove": 751, "gg": 1576, "\u2581arriving": 24212, "\u2581Ng": 27652, "\u2581hun": 8275, "\u6301": 29569, "\u541b": 31097, "\u2581Heat": 24191, "\u0440\u0456\u0432": 18941, "appro": 9035, "\u2581late": 3909, "ign": 603, "\u0442\u0438\u043d": 14981, "yar": 17073, "\u2581colonial": 20150, "Illuminate": 20231, "\u2581adventure": 15982, "\u2581Enjoy": 22823, "Path": 2529, "\u2581evt": 25042, "\u2581Physical": 27134, "ves": 1855, "\u2581positioned": 28184, "\u2581signing": 18525, "\u2581comb": 3006, "UN": 2168, "ylv": 10685, "\u2581creatures": 18349, "\u2581controlling": 24148, "\u00f6rd": 12462, "\u2581tipo": 19054, "\u2581FC": 9138, "\u2581prepar": 7892, "\u51fd": 29297, "Name": 952, "serial": 12355, "Class": 2472, "Tag": 4450, "VALID": 18511, "arp": 5882, "\u2581hence": 12211, "resolved": 22634, "\u2581Nel": 10985, "unci": 14281, "\u0434\u043e\u0432": 10410, "cloud": 8180, "stairs": 13477, "\u2581Black": 4777, "expect": 10508, "\u2581\u0442\u043e\u0432\u0430": 22550, "\u2581viene": 17145, "\u2581corruption": 21363, "jos": 21978, "\u043b\u043b\u0430": 26593, "isterschaft": 17651, "wm": 18897, "\u2581\\,": 6545, "Shift": 23328, "etto": 19715, "reen": 1915, "\u2026": 28878, "\u5be6": 31972, "\u2581gorge": 18963, "\u53cb": 30060, "\u2581duck": 27103, "\u2581energ": 14192, "iji": 17062, "ttes": 21067, "bere": 24178, "\u2581lot": 2055, "\u2581trop": 12090, "\u2581liegt": 18610, "FAILURE": 21024, "operator": 8655, "\u2581Soc": 4234, "cor": 4754, "Definition": 7753, "iration": 8679, "\u2581membr": 25983, "ec": 760, "MAX": 5578, "\u2581Cle": 12132, "\u2581perman": 8706, "DATE": 13495, "\u2581V": 550, "<0xA0>": 163, "pointer": 12978, "hat": 3617, "lot": 22682, "connect": 7182, "\u2581bat": 9753, "\u2581\u0410\u0432": 18031, "<0x74>": 119, "\u2581spectral": 19535, "\u2581\u043c\u0430\u044f": 25034, "reat": 836, "\u2581$_": 8976, "Grad": 20910, "\u2581gown": 26736, "\u63a2": 31498, "\u2581oppos": 5793, "IG": 2153, "ika": 6012, "\u2581\u044f": 3806, "vid": 14410, "\u2581tr\u00e8s": 15053, "\u2581tradition": 9097, "\u8a0a": 30844, "ham": 3520, "\u2581v\u00e9": 20249, "\u2581socks": 27987, "comm": 1805, "Impl": 6404, "\u2581Me": 2597, "\u2581council": 14725, "\u2581Inf": 18399, "ikk": 28169, "\u2581advent": 9987, "HH": 23834, "post": 3192, "\u2581token": 6029, "CLIENT": 23155, "\uc2e0": 30126, "checked": 12413, "\u2581sharply": 26002, "Camera": 16521, "platform": 10470, "\u2581bour": 25715, "Updated": 21833, "\u2581erh": 15455, "\u2581Bei": 17457, "Anal": 11784, "nullptr": 25610, "initions": 22909, "omega": 4848, "\u2581equal": 6530, "Failure": 16274, "\u2581driv": 4980, "\u2581introduction": 14300, "\u2581substant": 10883, "amment": 16602, "\u2581{\\": 2532, "\u0432\u044b\u0439": 16265, "\u2581informed": 12903, "ehicle": 21282, "\uc904": 31060, "El": 5773, "\u00e9vrier": 20158, "\u2581stare": 19696, "\u2581Arkansas": 27360, "\u2581Publishing": 26999, "asure": 3275, "fake": 16325, "\u2581vote": 7893, "Overflow": 24181, "dog": 17693, "\u2581nil": 2346, "\u2581Isa": 17578, "aman": 14886, "\u2581matrices": 21512, "\u2581hatred": 25944, "\u2581advertising": 12896, "best": 13521, "\u2581tables": 9882, "Pod": 13740, "Anchor": 21792, "ware": 1706, "aus": 1899, "\u0bb1": 31002, "\u2581anche": 9372, "\u1eed": 30389, "\u2581Ep": 14710, "}": 28752, "\u2581decode": 21503, "prises": 19797, "def": 1270, "<0x83>": 134, "\u00fablic": 11850, "Pan": 22922, "\u2581turned": 2897, "\u2581sex": 3142, "\u2581motiv": 8972, ")}\\": 11688, "\u5218": 30595, "Editor": 8859, "ML": 3827, "\u2581stair": 20519, "very": 646, "\u2581unpre": 26641, "identifier": 20044, "UPDATE": 18769, "vert": 2035, "yard": 10892, "\u2581churches": 20764, "\u2581documentary": 22054, "\u2581Build": 8245, "\u2581chief": 9209, "\u2581discuss": 3342, "\u2581beings": 16905, "\u0441\u044c\u043a\u0456": 18708, "\u2581peque": 25104, "\u0e06": 31383, "\u5927": 29050, "\u2581Louisiana": 24269, "rus": 17355, "))": 743, "\u2581termin": 13552, "LAN": 9559, "attrs": 15215, "ories": 2420, "\u2581Fall": 12168, "\u2581yours": 13010, "\u2581training": 4154, "\u2581exciting": 12536, "uchar": 21298, "\u2581Hein": 19162, "\u2581__(": 25185, "indexOf": 14414, "CIAL": 22150, "\u2581pueden": 27791, "\u2581penalty": 19140, "\u2581control": 2602, "\u00b8": 30433, "\u2581retriev": 17913, "\u2581iPad": 28696, "\u2581observed": 7975, "\u2581Ess": 11299, "\u2581emotion": 13197, "CREF": 25627, "\u2581haber": 28349, "\u2581address": 2962, "\u2581elf": 22270, "\u2581burst": 11700, "EX": 2335, "\u2581revolution": 11029, "\u2581Kelly": 15282, "\u2581persu": 14861, "l\u00e4": 15135, "agg": 7058, "\u2581pupp": 18631, "\u2581parked": 23643, "\u2705": 30129, "oses": 14779, "\u2581purchased": 13471, "never": 8174, "parent": 3682, "\u2581BB": 19942, "h\u00f6": 21017, "\u53c2": 29172, "lich": 3744, "\u2581PD": 28054, "\u2581conten": 26513, "\u585e": 31411, "\u2581Griff": 19285, "yp": 1416, "\u7a76": 31011, "\u2581traditions": 21703, "\u2581Deutsch": 14157, "quel": 21894, "\u0171": 28931, "};": 2604, "\u2581una": 1849, "Eng": 5871, "\u2581Cub": 12537, "\u2581\u043a\u0440\u0438": 18819, "\u5931": 29268, "NEXT": 14026, "\u2581awareness": 13619, "substr": 23341, "hum": 18500, "\u706f": 31961, "\u2581\u0444\u0435": 23130, "\u2581Ivan": 18559, "Les": 15685, "stood": 8231, "\u2581diesem": 21756, "\u1e47": 29774, "\u2581Mai": 14313, "\u2581exper": 1469, "\u5c71": 29480, "\u2581preparing": 16486, "inject": 25410, "\u2581outlined": 28637, ")&": 22743, "\u2581Nevertheless": 18828, "!!!": 13915, "\u2581possibility": 10065, "\u043d\u0430\u043b\u044c": 28029, "\u4e91": 30121, "\u17b8": 31015, "ych": 7702, "aughter": 4762, "Navigation": 17896, "Draw": 5656, "getMessage": 18219, "\u2581placement": 21783, "\u2581obt": 3182, "Som": 22767, "\u2581emphas": 10574, "\u2581!(": 23059, "\u2581Distribution": 25139, "\u2581attitude": 12910, "\u05e7": 29347, "\u2581making": 2492, "\u045a\u0430": 15857, "ete": 3811, "ACK": 4614, "iful": 3982, "\u2581negoti": 12060, "\u2581Detect": 25158, "cent": 1476, "about": 14146, "\u2581consid": 23604, "\u2581retry": 21370, "Dimension": 23620, "\u2581door": 2251, "\u2581imagine": 7705, "ixels": 11122, "\u4e2d": 28991, "\u2581bo": 1359, "stal": 10891, "MUL": 25586, "SEC": 18172, "\u2581\u043a\u043e": 1619, "\u2581breast": 13886, "aters": 17244, "convert": 13241, "\u2581rede": 27503, "quate": 16780, "Memory": 9820, "\u2581hopes": 15721, "\u2581solar": 13024, "ip": 508, "Attribute": 3643, "\u2581Daddy": 27389, "\u0434\u0435\u0440": 11078, "\u2581\u00e4": 14239, "boldsymbol": 8033, "\u2581Group": 5926, "\u2581sway": 26249, "pis": 9455, "bor": 3622, "asta": 7788, "\u2581Jacob": 12615, "enne": 9078, "\u2581recording": 12740, "\u2581cook": 4600, "\u2581fantastic": 13762, "\u2581kingdom": 17782, "\u2581Februar": 21341, "rgb": 14226, "blem": 11706, "\u6fc0": 30840, "\u2581pubblic": 17303, "\u2581timing": 18597, "pson": 12353, "ountry": 12612, "encoder": 20787, "\u2581thinking": 4195, "\u0432\u044f": 8281, "\u78bc": 30946, "\u864e": 31578, "\u2581victory": 11115, "\u0ba8": 31393, "\u2581du": 1415, "\u2581park": 4890, "\u2581Hash": 11300, "proxy": 13764, "ocus": 2497, "duration": 15458, "n\u00edho": 23720, "ufact": 5258, "aya": 9851, "\u2581ensuring": 20083, "multip": 20317, "\u2581subject": 3817, "\u2581fem": 4141, "\u0437\u043e\u043c": 19359, "prop": 5607, "\u2581universal": 14598, "\u2581sprintf": 22804, "\u2581assistant": 13892, "\u2581nested": 23793, "\u2581causes": 10110, "\u2581net": 2512, "\u2581fundament": 9676, "\u2581Miami": 16932, "SP": 3701, "\u02b9": 31788, ")))": 5429, "\u2581fa": 3586, "\u2581Files": 27435, "\u2581Marg": 10149, "\u2581all": 544, "\u2581counsel": 14625, "olin": 27545, "\u2581slic": 17341, "\u2581\u0418\u0437": 17838, "hes": 2053, "CLASS": 13692, "\u2581sto": 21651, "oting": 7695, "\u2581partners": 11796, "\u010den": 28616, "\u2581Ukr": 11712, "\u2581presents": 15890, "\u2581goto": 10510, "pic": 7678, "\u2581License": 2319, "\u2581Su": 2674, "VERY": 25928, "aring": 2302, "\u2581spokes": 23287, "texttt": 19206, "\u2581birth": 5950, "\u1e43": 30454, "<0x4F>": 82, "\u4e4e": 31981, "\u2581burn": 5698, "\u2581Coun": 4830, "eros": 10667, "\u2581eyebrows": 27469, "ory": 695, "\u2581equations": 12501, "\u2581sucked": 28436, "acre": 20383, "\u2581Campeonato": 24965, "autre": 25538, "Gener": 3602, "\u2581\u043b\u0435": 7622, "\u300c": 29579, "wart": 11328, "\u0e49": 29318, "elles": 8668, "verse": 4177, "iest": 11281, "\u2581hiding": 16622, "a\u0142a": 23234, "\u2581dimensional": 25369, "Mus": 16159, "\u2581Hook": 26154, "\u032f": 30541, "South": 26813, "hol": 5236, "\u2581schon": 26980, "\u2581Gol": 27085, "\u2581peer": 13669, "\u2581also": 835, "\u2581cooling": 22565, "\u2581participant": 28503, "\u2581Num": 15755, "sel": 2325, "\u0433\u0430\u0440": 17260, "\u2581hex": 19703, "----------------": 1177, "\u2581everywhere": 11321, "eben": 8960, "LEASE": 25634, "our": 423, "\u00c1": 28939, "associ": 19704, "Flow": 13444, "textrm": 18118, "halb": 19273, "\u2581\u043a\u043e\u0440": 21146, "Where": 9607, "\u2581satisfaction": 16456, "\u0441\u043a\u0430\u044f": 8224, "xF": 7355, "--": 376, "\u2581releases": 21446, "EM": 8940, "ierung": 11911, "\u266f": 30905, "\u2581profound": 19327, "\u2581newer": 26259, "\u25c4": 29643, "\u0432\u0435\u043d": 16227, "<0xF1>": 244, "#": 28771, "\u8457": 30878, "\u2581holiday": 12010, "olent": 26346, "\uc0b0": 30336, "col": 1396, "\u2581wy": 8501, "\u2581Money": 17786, "\u2581Screen": 24432, "Members": 23020, "\u2581toxic": 18882, "oti": 9469, "TH": 3151, "master": 9548, "ishes": 8137, "sal": 15459, "\u2581email": 4927, "tan": 20999, "<?>": 25955, "\u2581oc": 17918, "console": 14124, "\"):": 21021, "ieux": 22320, "\u2581archae": 28426, "Fl": 3188, "ouw": 27298, "tax": 16019, "\u2581tested": 13143, "\u2581Among": 13927, "\u2581comed": 26677, "bris": 24220, "science": 17819, "\u2581Youth": 20711, "\u63db": 30970, "\u2581sp\u00e4ter": 15646, "\u0e10": 31348, "\u2581conf": 1885, "stud": 13082, "\u2581fre": 8077, "\u2581precious": 17967, "<0xEF>": 242, "\u2581cre": 1317, "\u2581machines": 12155, "\u0432\u0443": 6725, "\u2581personally": 10897, "\u2581\u00d7": 15770, "\u043d\u0432\u0430": 22220, "ermo": 27252, "\u2581covering": 13974, "Virtual": 14884, "\u2581Font": 15464, "\"?": 27257, "\u2581overcome": 17132, "(@": 10680, "lav": 12453, "\u0441\u0438\u0442\u0435": 15327, "\u2581chuck": 21390, "\u2581seventy": 26632, "\uc88c": 31455, "Ed": 3565, "erg": 8640, "springframework": 9484, "rees": 7803, "FIX": 13286, "illon": 16849, "\u2581coalition": 28131, "\u2581Palest": 13897, "while": 5413, "\u2581unc": 9967, "\u2581Priv": 15650, "\u2581thought": 1654, "\u00e4n": 5300, "\u2581gel": 12694, "\u2581Shadow": 24874, "\u5012": 31146, "\u2581NOT": 5457, "\u0432\u0430\u043d\u0435": 15064, "bel": 7244, "\u2581addressing": 24643, "Platform": 11842, "\u1e93": 31905, "\u4f59": 30248, "isan": 18164, "yers": 15624, "Lat": 17119, "\u2581\u0441\u0443": 5652, "\u2581Wel": 10699, "\u2581Bre": 8285, "decess": 24915, "\u2581commit": 5453, "<0xEB>": 238, "ength": 1340, "\u2581masses": 17536, "horn": 26966, "ued": 2465, "\u045a\u0435": 11970, "\u2581destruction": 15788, "\u2581inhabit": 19946, "tk": 9808, "\".": 2586, "\u0923": 31001, "\u10d4": 29286, "\u0323": 30906, "\u2581gradually": 17885, "\u745e": 31893, "\u2581See": 3868, "\u2581Castle": 17085, "\u2581sheets": 18763, "\u2581Symbol": 19775, "\u0432\u0430\u0442\u0430": 28478, "\u2581corrid": 17518, "\u2581Api": 23240, "\u0440\u0430\u0437": 24440, ".</": 4698, "\u2581frank": 23580, "ocket": 3955, "\u2581sacrific": 22074, "\u2581Arizona": 17289, "\u2581lifting": 22853, "anal": 11267, "\u2581Attendance": 17741, "\u2581manage": 8594, "<0xD3>": 214, "\u2581supports": 11562, "\u2581defence": 22763, "dsi": 26416, "aily": 5186, "\u2581grace": 13754, "\u2581those": 1395, "\u8207": 31138, "food": 18972, "\u2581copied": 23773, "\u041c": 28856, "Decl": 7557, "UNT": 11111, "\u2581Choose": 21815, "\u2581gray": 11870, "Map": 2446, "\u2514": 30122, "\u2581shaped": 21028, "\u00e8se": 26289, "\u2581operational": 21197, "<0x23>": 38, "ARM": 18105, "King": 28262, "\u2581Settings": 18923, "\u2581screens": 18794, "\u2581\u015bwi": 21200, "\u2581Survey": 24004, "\u0435\u043d": 939, "ifting": 13120, "ta": 1100, "\u00f4t": 14924, "\u2581f\u00f6rst": 23722, "<0xDC>": 223, "\u2581Chel": 21996, "\u2581clip": 13061, "MSM": 21430, "\u6ca1": 29444, "\u2581Mix": 19630, "istes": 15099, "Three": 24851, "\u2581AP": 10502, "\u2581mayor": 11471, "\u2581Dallas": 19041, "\u2581Chap": 14381, "\u6e05": 29649, "\u2581Smith": 6717, "\u2581Kr": 7787, "\u2581Krist": 16661, "\u2581tempt": 16372, "Parser": 8323, "ic": 294, "sbur": 20891, "dest": 5356, "\u2581needs": 3208, ">>": 4060, "\u2581science": 6691, "\u2581William": 4246, "\u2581brown": 9060, "\u2581reset": 9627, "\u2581movements": 15071, "\u2581deserved": 27725, "\u2581entries": 11507, "\u2581quien": 20207, "\u30e4": 31234, "\u2581nov": 4147, "itionally": 14586, "\u2581reinforce": 25234, "Describe": 22836, "\u2581nahm": 28196, "\u2581follows": 6104, "\u2581Philosoph": 22156, "\u2581xml": 14502, "\u2581Kont": 28631, "\u2581pushed": 9012, "oche": 11222, "\u2581naked": 15913, "\u2581bet": 924, "\u2581en": 481, "\u2581tall": 9369, "\u2581only": 865, "Transform": 10143, "\u2581serial": 10627, "\u2581bread": 10714, "reflect": 24904, "fried": 25670, "\u30c9": 29335, "\uc2ec": 31987, "\u0671": 30732, "\u2581correction": 22561, "\u8bef": 29515, "\u2581denotes": 21481, "\u2581dates": 12791, "ami": 6449, "\u2581useState": 17150, "pret": 5520, "ahren": 18657, "\u0445\u043e\u0434\u0438\u0442": 21870, "\u2581silence": 9296, "\u2581Script": 15548, "anska": 26936, "\u2581Stalin": 24068, "\u2581pleasure": 10736, "\u2581bomb": 9914, "ols": 13310, "\u2581Cort": 22949, "kn": 13223, "APTER": 13531, "\u2581dedic": 21810, "\u0111": 28977, "\u2581Sou": 9171, "xFE": 19601, "catalog": 24945, "\u2581deadly": 23950, "\u1ee3": 29908, "\u10e6": 31278, "\u2581augment": 20836, "\u2581agreement": 8704, "ires": 3053, "\u2581wine": 8188, "\u2581deer": 27002, "\u2581wing": 13788, "Merge": 21793, "eah": 4629, "\u2581View": 7022, "Parent": 7401, "\u2581mood": 12247, "xpected": 9456, "\u2581insights": 20715, "ements": 4485, "\u2581peg": 21979, "\u2581cold": 5256, "under": 5664, "\u2581appreci": 7415, "\u2581Scient": 20645, "\ubabb": 31408, "\u2581damn": 9741, "\u2581un": 521, "\u2581Mult": 9713, "\u2581Lem": 10556, "\u2581waited": 10547, "\u2581Nor": 4953, "\u2581Kh": 11729, "\u89e6": 29937, "Search": 7009, "\u5f20": 30162, "bet": 10200, "\u2581{},": 12682, "Resources": 13257, "\u2581\u043f\u0440\u0435\u0437": 15855, "\u2581Ces": 17097, "ource": 780, "Product": 7840, "\u2581Disney": 14665, "^{\\": 3394, "izer": 4024, "\u2581shorter": 19367, "\u2581biological": 21549, "\u00e8ncia": 19620, "\u2581twenty": 5969, "\u2581cult": 3056, "KE": 4457, "\u610f": 29462, "Sizes": 25735, "\u0e04": 29546, "\u2581moist": 17261, "ving": 3844, "\u2581Fre": 5694, "\u2581MODULE": 27023, "\u2581Grid": 23255, "})$,": 25744, "\u2581respectively": 8628, "\u2581bekannt": 24239, "eral": 9785, "\u2581ba": 15771, "\u2581\u0441\u043b\u0443": 12276, "orient": 13853, "VIEW": 22203, "<0xDA>": 221, "\u2581placing": 20632, "\u2581something": 1545, "\u2581extremely": 7625, "nis": 11765, "umeric": 23504, "<0x60>": 99, "\u2581notebook": 24587, "\u2581edition": 12065, "\u2581skills": 6266, "\u5802": 30938, "\u76df": 31778, ">\")": 26461, "\u2581diff\u00e9": 18406, "\u2581adoles": 23988, "\u7ec6": 30044, "diff": 11836, "\u2581stretch": 14742, "gos": 20359, "\u2581islands": 21029, "\u2581Kat": 14294, "\u2581spine": 24496, "Short": 13026, "fed": 27880, "pectives": 26859, "adget": 18142, "\u2581Muslims": 21731, "\u2581ta": 14223, "\u2581\\|": 14688, "\u2581staring": 13144, "pgf": 5076, "\u03cd": 29459, "\u2581curves": 18469, "\u2581\u043f\u043e\u043c\u043e": 21589, "\u2581convenience": 20185, "public": 2001, "\u53d7": 30154, "\u2581individ": 3004, "}>": 8699, "\u5747": 30637, "\u2581Peters": 17658, "\u2581Pf": 17458, "\u2581hace": 28329, "\u2581value": 1192, "\u2581increase": 5247, "\u2581Cup": 7440, "\u2581functioning": 26945, "\u519c": 31538, "\u590f": 30910, "\u2581Ken": 8885, "\u2581primo": 18472, "\u2581examples": 9254, "\u2581canon": 28585, "\u0440\u0438": 892, "uis": 14867, "tip": 8451, "\u2581collected": 12469, "\u2581unit": 5028, "material": 10595, "ificaci\u00f3n": 28369, "\u2581liver": 24824, "\u2581last": 1432, "ALL": 4945, "\u2581typical": 10842, "\u2581contrad": 15235, "senal": 22792, "umble": 19083, "\u2581yo": 23934, "urm": 24563, "\u95f2": 31929, "\u2581\u0442\u043e\u0440": 27964, "\u2581foolish": 25475, "\u2581recruit": 20396, "\u2581ont": 7957, "\u2581seguito": 21613, "gres": 20697, "\u2581env": 2881, "\u2581scary": 23957, "\u2581kt\u00f3": 10348, "\u2581dynam": 10207, "osoph": 7008, "\u2581amount": 3558, "\u2581c\u0103": 17586, "test": 1613, "\u2581BL": 19987, "?\"": 1110, "SEE": 27670, "\uc4f0": 31706, "\u2581Justice": 13142, "\uc810": 30589, "\u2581threw": 11915, "\u2581\u043c\u0456": 7864, "\u2581Syria": 23216, "sem": 5367, "GR": 8369, "\u2581Bath": 18512, "GroupLayout": 21984, "\u2581-----": 20041, "\u2581Maryland": 20261, "\u2581HashMap": 20013, "\u2581wealth": 9120, "ater": 795, "\u2581vas": 26452, "Basic": 15580, "\u2581areas": 5020, "osa": 5689, "\u2581bottle": 10859, "\u2581Filip": 19991, "Vers": 25423, "\u9646": 30941, "\u2581blow": 9716, "\u2581NET": 27940, "\u4efb": 29454, "\u2581artists": 10611, "heads": 25372, "Counter": 15805, "ONE": 6349, "\u5408": 29234, "\u88c5": 29722, "\u2581recomm": 4626, "Algorithm": 25302, "iels": 23029, "\u2581\u0430\u043b\u0435": 28497, "isArray": 28000, "Feature": 11636, "Union": 20981, "\u016d": 30295, "\u0105z": 24426, "nl": 14476, "ero": 2036, "\u8111": 31753, "\u2581frustr": 10856, "marker": 19169, "arden": 5699, "Position": 6111, ">.": 13902, "Final": 17500, "supp": 18722, "CONFIG": 9835, "elde": 27675, "\u2581place": 1633, "Fact": 19558, "\u0432": 28791, "\u2581Click": 10213, "ams": 5322, "RETURN": 16754, "Std": 21975, "\u2581advanced": 10023, "\u043d\u043e\u0439": 3596, "ulative": 20851, "Type": 1005, "\u2581Rico": 26791, "\u2581comparable": 21973, "night": 6988, "\u3092": 29078, "\u2581CV": 20639, "\u2581shelf": 22895, "\u2581\u0441\u0435\u043d\u0442\u044f\u0431\u0440\u044f": 25803, "\u2581Rec": 3523, "IC": 1604, "letter": 15867, "\u043a\u0430\u0440": 22688, "\u043d\u0438\u0435\u043c": 14144, "\u2581populations": 19439, "FP": 9564, "bian": 18632, "cke": 18727, "Pal": 14394, "\u2581afterward": 28587, "\u2581suiv": 15434, "\u66b4": 31492, "\u2581Hof": 24557, "\u2581book": 1820, "\u0104": 31640, "\u2581Channel": 14250, "iesa": 22133, "\u5f39": 30409, "...</": 23032, "\u2581derive": 24058, "\u2581Biographie": 24289, "\u2581projected": 25638, "peer": 14720, "\u2581elif": 16422, "\u2581fork": 24143, "i\u0107": 10029, "\u2581Netflix": 25606, "\u4f18": 30077, "\u2581LLC": 19401, "\u2581features": 4190, "SI": 3055, "\u2581enemies": 15139, "\u2581nu": 6561, "contains": 10307, "\u2581fitting": 20068, "\u2581target": 2718, "\u2581\"${": 12833, "\u00e4ude": 24576, "?_": 13900, "\u2581contest": 13968, "\u0435\u043c": 5210, "\u0442\u043e\u0440\u0430": 22009, "imento": 9901, "\u2581designing": 26989, "<0x36>": 57, "\u2581WR": 21486, "opic": 22773, "\u2581quantities": 21709, "Delta": 4773, "\u2581Napoleon": 27819, "textbf": 7343, "\u2581consider": 1917, "gebra": 10343, "aju": 24072, "\u9304": 31554, "\u2581strangers": 24305, "\u2581Bach": 24158, "\u2581v\u00e9g": 28486, "\u2581Assume": 28024, "\u2581\u0447\u0435\u0440": 21592, "\u2581assembled": 26309, "cule": 27969, "resse": 25848, "etary": 23101, "\u2581opacity": 26355, "\u2581systematic": 26224, "\u5c55": 29947, "Shape": 11124, "acle": 7338, "\u2581traject": 21699, "\u2581_(": 22753, "\u2581Racing": 22024, "\u2581mat": 1610, "igan": 9264, "<0x6A>": 109, "\u2581Early": 12138, "\u2581promoted": 19075, "nil": 9454, "\u2581inde": 3511, "(-": 6422, "person": 9701, "\u2581resist": 14905, "\u2581focuses": 21165, "\u2581play": 1156, "overn": 5794, "ABILITY": 9287, "\u0442\u0435\u0442": 22811, "\u2581italien": 27709, "\u2581sounds": 7258, "\u2581Jessica": 24062, "Ad": 3261, "undial": 18507, "\u2581anterior": 24449, "\u2581opts": 13069, "\u2581Gon": 15929, "isc": 8286, "\u5e2b": 31231, "\u2581Franc": 4696, "Tax": 27537, "\u2581experiences": 9021, "apy": 8264, "\u2581{@": 4958, "\ud83e\udd70": 31510, "\u2581biggest": 8964, "\u2581Spanish": 10177, "\u2581difer": 14986, "vendor": 17635, "\u2581Iss": 16448, "Keep": 24205, "\u2581immense": 26491, "\u2581Darwin": 27213, "\u2581picks": 23380, "\u2581Posted": 17317, "\u2581bacteria": 24038, "\u2581shifting": 24334, "\u0442\u043e\u0440": 6826, "\">\r": 14980, "\u2581manner": 8717, "\u2581rb": 27101, "idential": 27357, "\u2581Diese": 21988, "\ud83d\udc4d": 30195, "May": 8149, "u\u00df": 23016, "\u2581genes": 24203, "extra": 13539, "\u2581times": 2421, "\u2581reve": 5900, "\u2581tr": 467, "\u83ef": 31365, "]);\r": 28171, "\u2581estud": 17943, "\u9970": 31915, "ieur": 22534, "lista": 26965, "a\u0142o": 27189, "\u2581dragon": 18984, "\u2581slave": 13890, "inition": 3775, "\u2581Stanford": 28116, "\u043d\u0456\u0457": 24506, "\u2581Si": 8693, "\u2581cough": 26245, "\u2581para": 2646, "z\u0105": 10412, "FIN": 23178, "\u2581FROM": 10657, "\u2581lik": 2583, "\u0442\u0435\u043b\u0438": 17526, "TO": 3957, "won": 17959, "\u2581Independent": 20379, "\u2581\u0434\u0438\u0432\u0438\u0437\u0438": 27728, "wing": 9988, "\u2581iteration": 23113, "\u00e7\u00e3o": 3709, "\u4f3c": 30694, "chie": 3960, "opts": 11320, "ifs": 12843, "\u2581dancing": 17319, "\u2581bothered": 25277, "lem": 2933, "rase": 10838, "\u2581Rio": 15707, "\u00e9t": 2959, "GBT": 26647, "<0x76>": 121, "aping": 13887, "\u2581wild": 6107, "\\[": 16927, "\u2581wealthy": 20724, "amerikan": 21788, "ality": 2045, "TextField": 25781, "\u03a4": 29777, "\ucc3e": 31161, "Dem": 16989, "\u2581states": 4605, "\u2581|": 342, "choice": 23817, "\u043b\u043b\u0438": 22623, "\u2581traditional": 7062, "tem": 20515, "ready": 1968, "\u2581Partial": 24590, "\u2581Mull": 27647, "\u683c": 29293, "\u2581todo": 12585, "\u2581Cart": 13870, "Alpha": 19510, "ele": 1643, "Margin": 21938, "\u2581wallet": 12837, "\u2581\u00e9c": 24688, "\u2581initialize": 15267, "an": 276, "\u7ed3": 29218, "\u10d1": 29704, "\u2581mode": 4388, "\u2581famille": 18481, "\u2581policy": 4920, "oured": 12991, "margin": 14656, "\u2581manufact": 6298, "\u2581Jug": 18243, "\u2581branches": 15407, "\u2581appear": 4305, "arent": 1422, "\u2581NV": 27470, "\u2581employers": 22271, "\u540c": 29338, "\u2581leaned": 12663, ">%": 24801, "\u7518": 31687, "\u2581directly": 5090, "\u2581species": 7018, "Scene": 17781, "\u2581wid": 7744, "\u2581cam": 3730, "neurs": 24283, "\u2581Tat": 28087, "\u2581children": 2436, "\u2581Inv": 16992, "Come": 14724, "NL": 16717, "\u2581homosexual": 28035, "\u2581Any": 4922, "\ud2bc": 31285, "\u2581src": 5069, "ajor": 2577, "\u2581Fle": 15666, "\u2581Municip": 18728, "\u2581January": 4624, "\u2581display": 4249, "cers": 15148, "RESS": 15645, "Checker": 27229, "\u2581d\u00e9j\u00e0": 28320, "\u2581ultimately": 12665, "\u2581media": 4077, "\u2581regener": 26319, "\u2581Bren": 28194, "xa": 8705, "cast": 2867, "\u2581juin": 17784, "\u2581iss": 2257, "\u2217": 31088, "\u2581ten": 3095, "\u2581valued": 25309, "\u2581impress": 7895, "\u2581asks": 12373, "\u2581ski": 21916, "\u2581recognized": 10099, "Generator": 11453, "\u2581Pearl": 25895, "ANG": 19182, "background": 11563, "\u2581instant": 10990, "\u00e1ban": 17180, "\u2581Doc": 18402, "\u2581Micro": 20171, "\u2581seek": 5695, "\u2581Ach": 26067, "\u0448\u0442\u0430": 26960, ":-": 18684, "\u00ea": 28876, "\u2581ES": 28151, "\u2581WAR": 6180, "CE": 2554, "\u2581accounts": 9855, "\u2581weekly": 16496, "spell": 26060, "key": 1499, "vt": 14029, "\u2581Prior": 20844, "\u2581thr": 6955, "ACTION": 17615, "\u2581implicit": 21628, "\u2581pipe": 13661, "\u2581aligned": 23581, "\u2581\u2581\u2581": 2287, "\u2581Ax": 24749, "\u2581Reference": 22386, "\u2581lightly": 22140, "//": 421, "\u2581\u0421\u0442\u0430\u043d\u043e\u0432": 20896, "\u2581tactics": 23532, "\u2581Missouri": 20611, "moz": 24601, "Params": 5385, "\u2581intim": 17269, "unque": 14733, "\u2581embedded": 20007, "\u2581Want": 19218, "icago": 7707, "github": 6222, "urers": 13505, "\u2581rust": 14912, "Indices": 28191, "\u2581menu": 8514, "\u2581resume": 17863, "\u2581Brazil": 13250, "Extra": 18982, "\u263c": 31560, "\u2581ej": 13068, "gain": 23634, "\u2581Bened": 23391, "esser": 25711, "ital": 1803, "oly": 20055, "\u2581rescue": 16011, "\u2581mine": 6683, "\u2581excuse": 16803, "\u2581prisoners": 17562, "\u2581evaluated": 23001, "\u201c": 28835, "\u2581Votes": 23405, "kes": 10774, "/${": 23820, "\u2581death": 3168, "============": 22568, "aqu": 19424, "\u2581gewann": 26778, "getElement": 13122, "\u6c0f": 31320, "!\\!\\": 18378, "\u2581shared": 6431, "\u2581Room": 14463, "poch": 17698, "\u0408": 29033, "Remove": 10013, "\u043c\u0438": 1563, "ennial": 28339, "\u2581Portuguese": 27202, "\u2581holy": 19214, "\u0dba": 31857, "\u6c11": 30136, "\u2581divis": 21707, "++){": 23385, "\u2581IL": 10428, "\u2581_,": 11006, "\u2581Carr": 27639, "D": 28757, "\u2581older": 6402, "\u2581Mission": 18573, "<0x0F>": 18, "\u2581Caribbean": 27093, "\uc99d": 30713, "\u2581embedding": 28643, "amento": 6566, "\u8d44": 29542, "\u2581Param": 10938, "Batch": 14713, "\u2581fist": 21952, "\uc54c": 30976, "\u2581Its": 7267, "\u2581fusion": 22104, "\u0415": 28907, "\u2581All": 1682, "\u2581band": 4028, "\u2581sending": 10313, "\u2581allow": 1914, "CF": 7065, "dt": 7051, "\u2581google": 15682, "\"`": 8312, "\u0e21": 29373, "\u2581Kil": 16098, "ALIGN": 26380, "Loaded": 24368, "zs": 27896, "\u2581iterator": 24119, "\u0440\u0443\u043f": 20864, "\u2581m\u00e9t": 21065, "UC": 23271, "\u0441\u0442\u0438": 2266, "uded": 7961, "\u2581again": 1076, "Win": 13029, "memcpy": 19290, "Ar": 1364, "_-": 26428, "node": 2315, "\u2581machinery": 26514, "ef": 797, "nten": 20340, "\u2581wage": 21062, "\u2581combat": 11417, "')": 1481, "\u2581interested": 6348, "\u2581streaming": 18000, "ow": 336, "wik": 18509, "State": 2028, "\u2581twist": 20746, "umbs": 21681, "elin": 26310, "\u043c\u0431": 25254, "\u2581assure": 25510, "\u2581chr": 27515, "ulo": 10010, "\u2581Vill": 10494, "\u2581\u0436\u0438\u0432\u043e": 25455, "\u2581dedicated": 10383, "\u2581Clar": 20225, "\u2581fever": 22041, "\u2581cut": 3119, "\u2581hoped": 12431, "\u2581aj": 23371, "\u2581Floor": 23395, "\u2581surge": 24048, "\u2581cob": 24258, "\u7389": 30927, "crim": 25489, "\u2581prem": 5146, "\u044a\u043d": 26561, "ede": 6497, "it\u00e4": 25038, "YP": 26058, "utenant": 12610, "\u7ef4": 30185, "pm": 3419, "\u653f": 30378, "\u2581functional": 14573, "\u2581itself": 3837, ":'": 14243, "eso": 28485, "chez": 25062, "\u2581prz": 7713, "\u2581han": 6700, "\u2581util": 4479, "\u2581detector": 25979, "\u0398": 30394, "haust": 10288, "Background": 11278, "\u2581Train": 27035, "\u2581Barbara": 17332, "ICK": 14595, "widget": 8167, "nik": 8491, "Full": 10395, "\u2581periodo": 26959, "\u10ee": 30306, "\u2581Pen": 9756, "\u2581secre": 15038, "\u2581James": 4797, "\u2581spatial": 18397, "\u2581testim": 16620, "\u2581test": 1369, "\u2581sovere": 24819, "\u2581discret": 22683, "ILE": 9316, "animation": 21251, "\u057e": 30907, "\u2581lesson": 15330, "\u2581counts": 17938, "\u042d": 28921, "\u2581Sor": 21476, "\u2581Cra": 17129, "\u2581Cer": 16411, "\u2581slots": 19708, "\u05e6": 29639, "av": 494, "\u2581suo": 11297, "Project": 8216, "\u2581concer": 14055, "\u2581popul": 21751, "<0xED>": 240, "\u2581better": 1873, "\u2581feet": 4051, "\u7ec4": 29205, "\u0f66": 30996, ">();": 7100, "UID": 8446, "\u00f3g": 14376, "\u7070": 31951, "\u012f": 30722, "\u2581Master": 9361, "eni": 17914, "\u1eb1": 31642, "GT": 14979, "area": 7458, "asp": 10124, "from": 3211, "\u2581creativity": 22317, "\u2606": 29839, "\u2581primary": 6258, "\u2581SW": 13322, "\u2581bear": 9135, "\u2581employer": 18646, "ische": 3751, "\u2581\u044f\u043a\u0456": 23008, "\u2581ins": 1488, "ased": 1293, "\u043a": 28795, "gle": 6277, "\u043b\u044b": 9674, "\u2581Tower": 19895, "\u2581escrit": 21362, "\uff0c": 28924, "uart": 15499, "\u2581figures": 10389, "\u2581Food": 11435, "\u2581wo": 14277, "\u2581gives": 5212, "\u2581acting": 10601, "Until": 25072, "\u2581cups": 19646, "Sum": 9881, "opy": 1600, "\u2581farther": 20936, "\u0096": 29636, "\u2581hold": 2400, "\u2581mast": 27529, "\u2581R\u00fcck": 25539, "\u2581seconds": 7231, "\u2581quotes": 20759, "ney": 2705, "usage": 16052, "\u2581LIMIT": 17871, "atter": 2466, "\u0440\u043e\u0434\u0438": 21145, "....": 3406, "\u2581separated": 14700, "llvm": 17978, "\u2581nam": 10673, "]))": 11922, "Quick": 24463, "prime": 9302, "\u2581Madrid": 14334, "Ids": 11307, "\u666f": 29960, "National": 24939, "\u2581awards": 17141, "\u2581si": 2144, "\u2581Gew": 21188, "ego": 6221, "\u2581stat": 765, "cfg": 6245, "\u2581icon": 9460, "heim": 9733, "\u2581PAGE": 23509, "\u2581squeezed": 26131, "\u0440\u0438\u0438": 10033, "\u2581besides": 18532, "\u2581random": 5509, ".<": 26364, "-": 28733, "\u2581rec": 937, "\u513f": 30915, "\u00fan": 10167, "\u2581occas": 11383, "\u2581George": 5163, "\uc5f4": 30243, "\u2581Writ": 13670, "\u2581for": 354, "\u2581Espa\u00f1a": 20482, "POST": 8401, "pisode": 15635, "\u0080": 29133, "\u2581eines": 12531, "\u5dde": 29719, "aving": 1652, "Init": 4516, "\u2581wise": 16446, "\u2581Brow": 19332, "\u2581happily": 24693, "und": 915, "\u6bcf": 29513, "Sql": 11803, "component": 7451, "ze": 1374, "Prefix": 11330, "Factor": 20169, "Ident": 8876, "\u2581nest": 17875, "writing": 19061, "Normal": 13303, "\u2581thus": 5884, "caps": 23438, "INSERT": 26587, "\u2581spoon": 28662, "\u2581Security": 9769, "\u2581cd": 19958, "\u2581#!/": 23597, "Safe": 22147, "ina": 1380, "Item": 2042, "richt": 16598, "\u2581encoded": 23174, "opp": 25643, "\u2581generated": 7138, "\u2581refriger": 23641, "\u2581knocked": 18625, "LE": 1180, "urop": 6917, "widet": 10000, "\u2581Lib": 11561, "sec": 3249, "\u0361": 29804, "\u62a5": 29845, "\u2581profile": 7741, "\u2581Tot": 17471, "\u2581allerg": 27451, "skim": 21444, "\u706b": 30479, "\u2581migration": 18579, "ixa": 27375, "\u2581influenced": 19927, "gl": 1727, "PI": 3110, "\u00c7": 29215, "translation": 1694, "\u2581Guard": 12391, "Opcode": 23835, "channels": 16335, "\u2581pag": 10913, "\u2581baseball": 14672, "\u2581apps": 13421, "\u2581supplied": 16584, "\u2581gras": 26517, "\u2581Function": 11347, "Axis": 16272, "\u2581Cit": 16334, "\u0644": 28933, "\u2581\u044f\u043a\u0438\u0439": 25140, "er": 263, "\u2581sche": 4803, "\u2581Des": 2535, "ulous": 9504, "lle": 20703, "\u2581Sec": 4554, "\u2581fold": 10068, "\u2581strugg": 6040, "ogen": 8371, "\u2581alors": 13086, "\u2581coffee": 7045, "ADC": 27787, "\u2581Greek": 11715, "\u542f": 29625, "\u7f57": 30767, "ells": 8855, "\u2581Mediterr": 23611, "\u2581\u043d": 24595, "\u2581Though": 10080, "\u5225": 30798, "\u0441\u0442\u0456": 8709, "\u2581deeply": 11869, "alia": 15450, "ucc": 20550, "\u2581coupling": 18047, "::": 564, "opath": 23461, "\u2581kitchen": 6132, "\u2581Anthony": 15089, "\u2581Saison": 19031, "\u2581cyl": 20218, "athol": 23593, "ants": 1549, "\u2581vertex": 14183, "\u2581Admiral": 23895, "\u2581\u0432\u0440\u0435\u043c\u0435": 25396, "\u2581programming": 16292, "\u2581quer": 24031, "\u2581redirect": 16219, "\u793e": 30115, "lint": 18916, "Signature": 19299, "\u2581\u0440\u0443\u043a\u043e": 25604, "BY": 9732, "k": 28729, "oenix": 21075, "\u2581engines": 17048, "\u2581Game": 8279, "\u2581food": 2887, "\u2581Yang": 23845, "plex": 8899, "\\%": 10857, "\u2581bra": 12015, "ribe": 5748, "\u2581critic": 8394, "ishing": 5596, "\ub450": 30609, "\ud5a5": 31460, "\u2581rights": 4495, "\u2581Township": 25889, "\u2581Cec": 22022, "**": 348, "\u00aa": 28956, "\u2581Rob": 5776, "ici\u00f3n": 10910, "\u0451\u043d": 8576, "\u2581React": 8171, "RG": 17814, "iate": 13713, "\u2581surv": 5231, "\u2581corrections": 27956, "\u2581shell": 10043, "FC": 5417, "\u2581driven": 12215, "Uniform": 23472, "...\"": 7508, "\u2581fantasy": 17393, "\u2581Copyright": 5259, "\u1ebd": 31078, "\u0e48": 29296, "Deleted": 28558, "\u2581curr": 19494, "Application": 7951, "\u2581besk": 11899, "Assignment": 28013, "\u2581Ent": 6662, "aal": 23639, "\u2581vast": 9555, "\u2581enormous": 15322, "medium": 25095, "config": 2241, "\u2581Bru": 8944, "RAN": 4943, "\u2581Mau": 27804, "\u05e2": 29295, "vertical": 24313, "fb": 10967, "virt": 27590, "\u2581circa": 23607, "Mail": 19643, "\u2581Point": 8571, "\u2581twee": 25802, "getKey": 28434, "\u2581meeting": 5283, "\u2581conducting": 28698, "ospher": 27552, "iel": 755, "sum": 1801, "VENDOR": 24762, "\u0942": 30957, "\u51b0": 31835, "}'": 11339, "\u2581When": 1684, "\u2581&=&": 17481, "\u2581odd": 6939, "\u2581Throw": 20277, "\u2581buddy": 26123, "\u2581Hus": 22351, "System": 3099, "\u2581credits": 21762, "fem": 26857, "itet": 8606, "upper": 17687, "\u2581Phillips": 27703, "\u2581doctrine": 26846, "\u2581scrub": 25429, "\u5b78": 30923, "\u2581preserv": 16176, "AUTH": 18038, "ane": 1564, "\u2581pian": 21624, "\u2581fact": 1639, "\u2581Root": 23585, "chart": 16617, "download": 17359, "\u2581Probably": 19969, "iblical": 26896, "zo": 4167, "setValue": 26532, "\u2581Bir": 21562, "\u69cb": 31833, "\u2581ou": 3466, "work": 1328, "\u2581pet": 5408, "\u1f74": 31675, "\u2581Someone": 16124, "ND": 6916, "ch\u00e9": 17825, "icus": 20792, "erman": 9358, "rivial": 14805, "\u2581(!$": 23942, "tile": 18196, "\ud83d\ude02": 29196, "\u2581tiempo": 17925, "\u4e4c": 31854, "\u2581Four": 9611, ",": 28725, "Our": 15265, "\u2581peu": 12631, "AP": 2074, "fields": 7434, "\u2581boundary": 10914, "ument": 1320, "FACE": 24956, "\u2581accomplish": 17700, "\u0987": 31342, "\u2581General": 3592, "\u7a0b": 29265, "\u2581Union": 7085, "\u2581Conserv": 12200, "React": 18096, "\u2581sits": 19050, "wor": 22493, "\u2581connection": 5132, "\u2581Remote": 27260, "/": 28748, "\ub9bd": 31751, "\u2581Team": 6867, "\u2581thorough": 13155, "xygen": 19303, "\u2581directors": 22650, "\u2581bal": 4549, "execut": 15873, "OG": 21112, "filter": 4650, "icial": 5867, "ulture": 7985, "kan": 9763, "\u2581Nic": 11921, "RA": 5244, "\u2581phen": 11315, "\u2581determines": 25374, "\u2581Saw": 25594, "\u2581stuffed": 27412, "DN": 28385, "vc": 8904, "porter": 17175, "\u2581kl": 7466, "Files": 10628, "\u51fa": 29065, "\u2581hint": 12427, "?;": 25215, "no\u015bci": 20951, "\u2581backward": 19592, "!!": 3946, "\u2581c\u00f3": 21977, "czas": 22582, "\u2581controversial": 24720, "min": 1240, "\u0441\u0442\u0435": 6825, "ator": 1028, "\u200a": 29149, "\u7dda": 30501, "infl": 21255, "\u2581\u0406": 9341, "\u2581proto": 10209, "\u2581brands": 15638, "\u2581synchronized": 25339, "oss": 2158, "\u0218": 29344, "\u2581Hamb": 18540, "\u2581camera": 7555, "\u2581Answer": 26307, "Cache": 5622, "<0x5C>": 95, "\u2581consequ": 7872, "\u2581Almost": 20676, "\u001f": 31217, "\u2581Nom": 13055, "\u2581Property": 13059, "iges": 21598, "\u2581Bishop": 19683, "\u79c0": 31450, "\u2581round": 3713, "\u666e": 30571, "FA": 3120, "\u2581reproduce": 24585, "atoes": 14888, "Open": 6493, "\u2581dic": 19184, "pa": 4083, "Stat": 6181, "\u2581nuc": 8523, "oser": 20738, "\u2581Second": 7052, "\u2581Ka": 16121, ")):": 24770, "\u2581cr\u00e9": 14791, "\u2581Cross": 10464, "\u1ee5": 30268, "\u2581\u043e\u0441": 6171, "elte": 25278, "\u2581Russian": 8098, "fund": 23158, "\u3081": 30110, "tech": 13429, "grp": 25890, "\u0446\u044f": 16407, "\u2581mechan": 6330, "\u2581pom": 13296, "minus": 15530, "imeter": 16659, "\u2581shifted": 16618, "\u2581interior": 11154, "\u2581Leb": 13304, "\u81ea": 29159, "\u6982": 31137, "\u2581vr": 22954, "c\u00f3w": 24325, "\u2581continu": 5012, "ie": 412, "\u2581entre": 3913, "%%%%%%%%": 18849, "\u2581Raf": 21926, "\u5340": 30741, "\u2581another": 1698, "ji": 3632, "\u274c": 31200, "\u2581checking": 12779, "\u2581trail": 8005, "San": 17904, "idx": 5251, "\u2581renov": 19103, "property": 6558, "pository": 12530, "\u2581Color": 7831, ">&": 8591, "\u2581dash": 25967, "\u2581parl": 18435, "\u2581government": 3058, "\u2581jedoch": 16154, "card": 5538, "\u2581limitation": 26775, "\u2581En": 1618, "\u2581habitat": 20878, "\u2581Former": 27776, "\u2581fleet": 17675, "\u2581merch": 18724, "CPP": 18954, "\u2581BT": 23126, "\u099a": 31531, "\u2581zam": 23884, "\u2581associ": 3509, "\u2581Moz": 20915, "\u2581cidade": 26560, "endment": 18920, "\u2581hacia": 21675, "\u2581Pad": 17390, "\u2581warm": 6100, "\u0440\u043e\u0433\u043e": 21826, "\u2581effectively": 11466, "\u2593": 31024, "\u2581Christian": 5899, "\u2581NGC": 24486, "li": 1144, "\u00e9ral": 12036, "oon": 4973, "enario": 22786, "\u2581tempor": 6613, "\u2581goog": 25671, "_,": 6930, "\u2581};\r": 23139, "illas": 21917, "\u51b7": 31888, "\u2581stern": 26890, "\u2581Sout": 25773, "\u2581parse": 6846, "\u2581True": 6110, "\u2581campus": 14366, "\u2581Francisco": 9686, "Second": 10385, "\u2581quantity": 15069, "\u2581followed": 4961, "::<": 23015, "\u2581gentle": 10434, "achelor": 18753, "NI": 16457, "sq": 4791, "avirus": 22397, "ID": 1138, "formed": 12914, "\u2581wurde": 3350, "\u2581OB": 23883, "\u2581\u0440\u043e": 2527, "bidden": 20350, "\u02dc": 30742, "Proto": 13534, "\u2609": 31670, "\u2581tunn": 28275, "\u2581AS": 8128, "ublic": 651, "\u2581XXX": 21027, "\u6570\u636e": 21642, "\u2581Natur": 21749, "\u2581lifestyle": 16218, "oning": 20392, "\u2581adjust": 7392, "\u0e4c": 29923, "WIDTH": 24278, "tbody": 28383, "]*": 16069, "\u2581unter": 7014, "irtschaft": 17020, "\u2581Ke": 4702, "\u2581\u2581": 259, "\u2581months": 3370, "\u2581admit": 11617, ">\r": 3685, "\u2581aws": 20933, "\u2581footage": 26536, "\u00f6st": 21587, "sensor": 15017, "\u2581merely": 10783, "<0x4C>": 79, "arding": 20003, "shake": 25524, "\u2581Ci": 16896, "\u2581Bush": 13668, "\u2581j\u00e1": 24774, "\u2581\u0434\u0435\u043a\u0430": 21871, "\u6bbf": 31742, "\u2581g\u00e9n\u00e9ral": 16166, "atalog": 5847, "\u2581operand": 27455, "\u2581release": 5614, "\u2581####": 2476, "\u2581pursuit": 24809, "\b": 31129, "ima": 4250, "\u0e20": 31034, "\u2581lab": 7867, "->_": 9631, "\u2581digest": 18922, "Pos": 3529, "andy": 10087, "itories": 27799, "collapse": 25936, "}_": 2427, "\u2581Oregon": 19301, "\u2581Stockholm": 25529, "\u2581squ": 4524, "\u2581resulting": 10503, "\u2581Sergeant": 28204, "\u2581Kab": 27130, "\u2581storage": 7073, "\u2581god": 5525, "\u5206": 29062, "tx": 3253, "Big": 6173, "quier": 22253, "bg": 11689, "\u043d\u0430\u0440": 28019, "\u2581UTC": 21811, "sock": 13820, "\u0432\u0430\u043d\u043e": 26170, "\u2581Legisl": 26216, "Mem": 5768, "<0xF2>": 245, "Colors": 25651, "\u2581secrets": 19376, "\u2581\u041b\u0430": 13813, "\u00b3": 29203, "\u30d4": 30545, "\u25a1": 30618, "\u2581\u00ee": 4591, "eper": 7928, "\u2581hypothesis": 23592, "\u2581Euro": 14869, "strlen": 26192, "\u2581\u0447\u0435\u0440\u0435\u0437": 20085, "\u1f30": 31144, "processing": 26188, "=${": 22765, "\u2581SO": 6646, "Pin": 20024, "\u2581cognitive": 25746, "\u2581representing": 14030, "varphi": 7389, "\u2581circum": 7863, "Confirm": 22205, "okal": 23356, "\u0434\u0456\u0432": 25498, "\u2581herman": 27311, "\u5c45": 31055, "\u2581Size": 13909, "\u2581grande": 11807, "\u672a": 29509, "\u2581ordered": 8346, "\u2581affiliate": 24933, "gest": 5111, "boxes": 26498, "<0xD1>": 212, "params": 3831, "ots": 1649, "\u2581\u043e\u0431\u0435": 26949, "\u2581reputation": 12947, "Imp": 19484, "\u0433\u0443": 5378, "\u2581\u0447\u0430": 5787, "urst": 24168, "\u0436\u0435\u043d": 6565, "\u2581fastest": 25754, "\u0641": 29057, "love": 26232, "\u2581wat": 4940, "AF": 8116, "HAS": 27889, "iek": 18627, "\u2581scored": 13969, "WW": 22240, "isValid": 28390, "pag": 19383, "aude": 18188, "\u2581back": 852, "\u2581nic": 15750, "\u2581Lond": 17681, "\u771f": 29974, "\u2581drivers": 13696, "\u2581\u041f\u0435": 18335, "\u2581looked": 2382, "\u2581soldiers": 8996, "\u2581Ralph": 23373, "\u03b1": 28948, "icken": 9373, "\u2581painful": 17340, "\ud83d\udfe2": 30832, ")": 28731, "\u043e\u0440": 3135, "gent": 6188, "ym": 1082, "axis": 8405, "\u2581turb": 18549, "\u2581firmly": 19321, "\u2581several": 2856, "\u2581parties": 8209, "\u5bbd": 30236, "\u8bcd": 30352, "\u2581Returns": 6699, "\u2581bike": 13045, "\ubc88": 29756, "\u2581Tambi\u00e9n": 26363, "\u2581corporations": 24171, "\u2581RO": 13807, "\u2581comm": 901, "\u2581rectangle": 26900, "\u2581Kum": 25694, "\u2581\u00e1rea": 26707, "\u2581audience": 7938, "\u2581bills": 16843, "\u2581flav": 15637, "Mer": 12509, "vector": 6296, "pw": 26672, "sha": 15564, "\u9047": 31716, "\u2581Beck": 16596, "\u2581intention": 12782, "ifa": 25622, "noc": 15979, "\u2581across": 2673, "Instance": 4005, "\u2581\u041e\u0442": 18998, "Every": 13852, "\u0432\u0430\u043d\u0430": 28358, "/**": 1922, "\u2581aspect": 6563, "\u2581Your": 3604, "Time": 2098, "\u2581settled": 11591, "\u2581pistol": 24184, "\u2581additional": 4870, "ray": 919, "\u2581kennis": 15389, "\u2581fare": 19111, "\u2581Virtual": 19032, "\u0447\u043d\u043e\u0433\u043e": 19957, "\u8881": 31979, "\u2581disg": 18026, "\u2581waters": 15507, "\u2581decided": 4496, "\u2581Double": 15233, "\u2581Lily": 25492, "\uac00": 29135, "pu\u00e9s": 12873, "iante": 26681, "oped": 11416, "\u2581antib": 21679, "\u2581face": 2105, "orse": 14202, "MSG": 11699, "\u2581\"*": 12406, "\u2581\u041c\u043e": 8968, "\u2581affected": 11180, "\u2581assuming": 16347, "Collection": 7587, "\u2581Nacional": 14659, "\u2581injection": 28291, "\u2581\u043d\u0430\u0443": 13585, "END": 5000, "\u2581ly": 18467, "\u2581sem": 3546, "leted": 5627, "PC": 4199, "display": 5320, "n\u00e9es": 25012, "rief": 4667, "FB": 14041, "\u2581symptoms": 12380, "\u2581Norman": 22545, "\u2581princess": 28313, "\u4ec1": 31257, "Binding": 14792, "argin": 6009, "\u2581resolution": 10948, "simple": 15730, "PROPERTY": 28575, "\u2581BA": 27971, "line": 1081, "\u2581zwischen": 13217, "\u0c82": 31966, "\u2581Iron": 15531, "ATOR": 16657, "\u043d\u044b\u043c": 7490, "\u2581lig": 18985, "\u554f": 31142, "ocratic": 26184, "\u2581poison": 15842, "\u2581weight": 4336, "void": 2828, "=\"#": 15532, "CACHE": 22060, "\u1790": 31933, ",(": 20786, "pressed": 12041, "\u2581Direct": 6055, "DO": 5170, "\u2581ill": 3784, "avax": 6598, "\u0cb5": 31802, "cember": 4354, "aly": 8910, "dropdown": 21898, "\u306e": 28993, "\u2581sia": 23602, "pi": 1857, "\u2581taste": 9230, "<0xF4>": 247, "\u3068": 29316, "\u2581fighting": 8552, "\u2581RES": 20308, "\u2581Ob": 2645, "quir": 10851, "ivil": 4617, "\u2581veh": 5639, "Interval": 14484, "\u2581maintained": 15861, "\u2581Connect": 21873, "\u0e19": 29178, "ru": 551, "\u2581laughing": 14827, "my": 1916, "\u2581Jahr": 6621, "item": 1751, "\u2581Universal": 21874, "\u2581blocks": 9478, "\u00b4": 29204, "\u4ece": 29505, "\u2581constr": 8130, "action": 1774, "\u2581prze": 10448, "\u2581wishes": 18907, "pos": 1065, "single": 14108, "\u2581economy": 8725, "\u2581geometry": 17639, "RPC": 22115, "HAL": 19287, "\u2581\u0441\u0435\u043b\u0430": 28667, "\u2581yesterday": 12091, "\u2581lado": 25418, "\u2581d\u00e9s": 16018, "\u9b54": 30410, "\u0432\u043e\u043c": 18653, "yll": 19530, "makers": 22016, "\u2581git": 19163, "\u2581Council": 7457, "\u0433\u043e": 803, "groups": 12420, "\u043d\u0438\u044f": 2491, "arante": 7203, "lia": 7261, "is": 278, "regex": 19782, "plement": 3793, "fection": 11264, "\u2581blanket": 21434, "Accessor": 24123, "\u1ec3": 29910, "bug": 3718, "port": 483, "ynamics": 25705, "\u2581trend": 9156, "\u2581Wild": 10668, "\u2581Cab": 11357, "toString": 7127, "arono": 20321, "itt": 785, "\u2581anal": 2880, "ification": 2500, "\u2581Andrew": 10390, "\u2581Ko": 14020, "\u2581Companies": 27839, "\u6703": 30332, "\u2581\u0420\u043e\u0441\u0441\u0438\u0438": 19180, "\u03a1": 30528, "Container": 5738, "LIN": 27247, "itals": 14427, "oji": 27813, "\u2581lon": 16341, "refix": 5770, "gar": 4749, "percent": 18799, "ecute": 5570, "<0x3C>": 63, "diction": 24737, "\u2581arr": 4476, "\u2581fragments": 26866, "\u2581kept": 4558, "\u2581fac": 3252, "\u2581holds": 8288, "\u2581chem": 7462, "\u592b": 30936, "\u2581nost": 19098, "\u5883": 30396, "\u2581forma": 10997, "\u2581phone": 4126, "\u2581surprise": 8982, "Groups": 14958, "\u559c": 30754, "\u2039": 29922, "schen": 12417, "\u2581clim": 6423, "orneys": 27808, "\u2581\u00e1l": 19461, "\u53bf": 29406, "\u2581\u043e\u0431": 2802, "\u2581chart": 10968, "\u2581Shel": 18601, "nen": 4588, "\u2581divisions": 23868, "joy": 3258, "\u2581REG": 13923, "\ud83d\udd34": 31928, "nder": 2520, "\u2581Aff": 9691, "\u00ean": 26841, "\u2581Image": 9833, "shirt": 21122, "\u2581determined": 7798, "\u2581cancellation": 27918, "\u6a2a": 31249, "\u2581own": 1216, "\u2581Hell": 15244, "conc": 26145, "\u2581discussion": 8387, "\u2581destro": 22089, "\u2581http": 3550, "especially": 26160, "\u5faa": 30484, "\u2581especially": 4012, "\u2581stor": 20945, "\u2581dramatically": 25797, "\u2581Andr\u00e9": 24046, "\u2581Univers": 2396, "\u2581Cool": 21359, "\u2581caution": 26769, "\u2581Holland": 23555, "L": 28758, "\u2581Carl": 6675, "icients": 18315, "\u2581L\u00e9": 25084, "\u2581take": 1388, "\u2581Gall": 14225, "BLOCK": 15768, "vy": 12246, "v": 28728, "ox": 1142, "\u2581maker": 27065, "Mass": 26650, "achi": 23827, "\u2581\u0422\u0438": 19160, "\u2581estate": 9490, "PASS": 20899, "\u2581principale": 25147, "\u2581\u0440\u0430\u0439\u043e\u043d": 20656, "\u2581Although": 5800, "\u2581p\u00fablic": 23912, "\u2581quickly": 4377, "\u2581Sant": 5095, "Use": 8543, "Mc": 28641, "<0xBD>": 192, "Example": 20275, "/'": 25415, "Constants": 11668, "\u2581mum": 27870, "borough": 23056, "\u2581crap": 21849, "\u2581Bez": 22627, "Metadata": 7348, "\u043d\u043e": 703, "agner": 23862, "\u2581entropy": 25753, "posing": 22935, "veh": 25973, "\u2581keep": 1840, "\u2581kw": 11038, "\u2581offers": 5751, "\u2581phenomen": 15651, "held": 20354, "\u2581dialogue": 19198, "\u2581erre": 19473, "\ub300": 29634, "\u2581remem": 26450, "ock": 629, "\u2581relation": 9378, "\u2581accompany": 17039, "\u2581Creat": 9160, "\u2581sometimes": 4662, "\u2581logging": 15703, "\u2581SM": 14212, "\u0004": 30724, "Play": 10045, "adrat": 28118, "asci": 25436, "\u2581pas": 3557, "switch": 7252, "\u0084": 30611, "langle": 8214, "\u2581hand": 1021, "\u2581gro": 5977, "\u043d\u043e\u0432\u0438": 12129, "\u2581commander": 15719, "\u4f7f": 29154, "\u6162": 31480, "\u2581\u010d": 6612, "\u2581quadr": 24053, "\u2581use": 938, "most": 2284, "ahoma": 19972, "\u2581mentally": 24335, "\u043a\u043e\u0440": 25014, "\u2581finite": 10789, "valueOf": 19822, "enn": 2180, "\u2581seemingly": 20143, "Running": 23802, "\u2581mass": 3042, "\u2581Imperial": 22032, "isen": 10555, "Codec": 23186, "\u2581rocks": 15599, "\u2581sib": 18866, "Char": 5481, "\u10e1": 29407, "\u2581report": 2264, "\u2581singles": 16975, "\u2581jeho": 25769, "\u2581dinner": 7854, "\u2581\"+": 16553, "\u0151s": 28153, "\u2581investigate": 17214, "\u2581absence": 13841, "holds": 19820, "\u963f": 30564, "inners": 12190, "\u2581flick": 15850, "ustral": 16472, "\u5f15": 29544, "\u2581Come": 12578, "\u6536": 29507, "\u2581ai": 11216, "\u2581Service": 5836, "h": 28716, "ITEM": 19977, "western": 22274, "\u2581toString": 26297, "\u2581*\"": 20694, "\u2581Haus": 21209, "fel": 20553, "\u2581compression": 25242, "\u5712": 31299, "\uc628": 31386, "\u7b49": 29414, "\u2581lately": 22628, "large": 16962, "\u2581goodness": 27624, "\u00e8rent": 24087, "<0x8B>": 142, "Du": 17379, "finished": 6159, "\u2581facil": 13031, "\u2581jug": 11786, "PTR": 17551, "\u2581tamb\u00e9m": 17591, "\u2581vacation": 16829, "POS": 16953, "\u2581poem": 16067, "\u2581Crusher": 21879, "\u3069": 30496, "sylvania": 14790, "\u5fe0": 31615, "\u2581fool": 10776, "\u2581gepublice": 17779, "\u00e6r": 26384, "\u0441\u0456\u0439": 24020, "\u2581Suppose": 21212, "\u2581State": 3885, "onda": 13946, "\u2581lucky": 11977, "\u30d9": 30277, "\u2581answ": 2965, "\u2581READ": 24805, "erv": 784, "\u2581Instagram": 18351, "\u2581dressing": 21993, "iefs": 25495, "\uc5b4": 29433, "its": 1046, "\u02bf": 29343, "\u2581podcast": 21736, "\u2581technologies": 14880, "\u2581landsc": 27308, "))))": 22318, "\u27e8": 30260, "\ubcf4": 29477, "\u2581nast": 18904, "\u2581According": 6586, "\u2581norm": 6552, "\u2581Franco": 28289, "\u2581available": 2632, "Omega": 6326, "\u2581chair": 6225, "\u2581grab": 7290, "creat": 16346, "\u2581understand": 2380, "\u00e9": 28797, "runner": 22065, "Sensor": 26233, "\u2581correctly": 12742, "\u2581dying": 13074, "\u2581Location": 14716, "\u2581Nin": 24845, "\u2581Arm": 9700, "\u2581lug": 9506, "LP": 11661, "\u2581ik": 22885, "\u2581capitalism": 26540, "Operand": 14074, "ush": 1426, "Pub": 17878, "?:": 4394, "\u2581patients": 6883, "ipeline": 8384, "\u2581sb": 11415, "loader": 12831, "\u2581Iv": 25910, "ips": 2430, "\u0441\u0442\u0432\u0443": 14198, "www": 2849, "\u2581appealing": 27168, "\uc7a5": 29747, "\u2581argument": 5270, "\u2581protected": 4443, "Amount": 13276, "FLOAT": 22695, "listen": 20246, "\u2581Unidos": 16579, "\u0014": 30721, "CHANNEL": 23299, ":%.*]]": 27456, "right": 1246, "\u2581myster": 16092, "\u2581Sounds": 27067, "\u042c": 30683, "\u2581Foster": 28517, "\u59d3": 30747, "\u2581earth": 6340, "\u2581Holl": 14767, "arts": 8060, "ACHE": 15597, "omet": 3424, "\u2581beard": 25293, "\u6cc9": 31271, "\u2581households": 23755, "\u2581recommendations": 18892, "ader": 4928, "Spe": 24812, "<0x1C>": 31, "idas": 12563, "\u2581Got": 14399, "imgur": 26822, "\u2581zw": 9098, "\u2581Grund": 17583, "\u2581Portal": 22314, "\u2581San": 3652, "\u2581sides": 8480, "\u0917": 30167, "\u2581player": 4385, "\u2581originally": 10806, "Lin": 14112, "obre": 14782, "\u2581LIMITED": 20881, "\u2581Norway": 23063, "arde": 27655, "\u2581wom": 1615, "\u2581lad": 9776, "\u2581relig": 4422, "\u2581args": 4707, "\u2581pour": 2669, "scar": 14723, "\u2581Nelson": 18685, "Tensor": 15705, "\u2581Kal": 12117, "\u0638": 30086, "\u2581bottom": 5859, "\u009b": 30921, "\u2581jed": 6294, "hist": 6575, "\u2581destroying": 28613, "ills": 2767, "rate": 6036, "Azure": 17019, "PRIV": 26341, "\u2581ib": 12964, "Release": 17327, "oding": 5195, "\u2581Website": 17697, "Extract": 24958, "\u2581DC": 12606, "\u2581art": 1524, "\u2581considering": 9868, "\u2581flags": 6809, "Popup": 18643, "t\u00f3": 9709, "\u2581ud": 18493, "$_": 11914, "\u2581implied": 7668, "\u2581familiar": 8228, "***": 16623, "REEN": 25755, "ido": 2750, "\u2581oven": 19126, "\u043f\u043d\u044f": 27946, "\u308d": 31149, "\u2581magnetic": 12485, "\u2581&=": 6501, "angu": 2374, "\u2581Nat": 9736, "ums": 7610, "\u2581dealt": 21759, "\u2581Nam": 16908, "Resize": 27714, "\u2581publicly": 19200, "\u2581mejor": 23209, "\u2581United": 2969, "\u30e0": 29808, "ruit": 6424, "\u2581Karl": 10648, "\u2581mb": 20137, "TDM": 25950, "\u2581assignment": 15657, "\u2581org": 2247, "\u2581wird": 7534, "\u2581\u0441\u043a\u043b\u0430": 14094, "esian": 17754, "ocr": 3804, "ius": 3170, "\u2581sistema": 16410, "\u2581break": 1721, "\u2581troubles": 21477, "illa": 4534, "ATION": 4866, "\u2581obs": 14848, "\u2581satellite": 22046, "utton": 26028, "soft": 4179, "zon": 15331, "Custom": 7219, "\u2581\u043e\u0444\u0438": 28266, "\u2581\u043f\u0440\u043e\u0442\u0438": 25373, ".\u201d": 2435, "je": 2099, "\ub7c9": 31314, "unn": 5494, "\u2581lyrics": 22583, "\u2581customers": 5688, "\u2581smiled": 7970, "$:": 27561, "\ud50c": 31286, "\u0433\u043e\u0432\u043e": 27726, "\u8449": 31513, "\u8a72": 31688, "\u2581us": 592, "ety": 4703, "SOC": 13472, "ill": 425, "elem": 12034, "\u2581arqu": 28368, "\u30bf": 29341, "\u0ba3": 31748, "\u2581excell": 7154, "kers": 21003, "Typ": 14169, "\u2581\"./": 11171, "\u0447\u043d\u0438\u0445": 24409, "\u0e4f": 30546, "using": 8521, "wealth": 23319, "\u2581oktober": 27660, "\u2581Ph": 1972, "\u2581kle": 14602, "\u0440\u043e\u0432\u0430\u043d": 21306, "\u2581ensuite": 26368, "\u2581fmt": 9755, "\u0142\u0105": 22660, "\u2581sobre": 7469, "\u2581\u043f\u0440\u0438\u043d\u044f": 27741, "\u2581dut": 7756, "afi": 27312, "\u2581sensor": 16082, "\u2581Sugar": 27333, "\u9673": 31908, "\u2581buck": 9918, "!\");": 22896, "ve": 333, "\u043c\u044f": 8104, "sta": 6514, "\u2581stain": 21023, "<0x63>": 102, "\u2581wa": 7078, "\u2581dest": 2620, "\u2581laundry": 25907, "odigd": 15630, "\u2581Toronto": 14984, "\u2581Tut": 25048, "\u2581customs": 27853, "\u2581life": 1411, "\u2581flow": 4699, "ACCESS": 24417, "\u2581Current": 10929, "\u2581econom": 3620, "\u2581types": 4514, "\u2581,": 1200, "igi": 15495, "\u2581specify": 15759, "\u2581practice": 5245, "\u0430": 28763, "\u043d\u044b": 1463, "\u2581Beaut": 16686, "pgfpathlineto": 12683, "\u63d2": 29959, "nf": 23644, "aban": 12640, "\u90ae": 30182, "aiser": 22098, "emplate": 3949, "\u53eb": 31219, "order": 2274, "\u2581Chief": 11762, "\u1ef9": 31458, "Rule": 7693, "\u2581idea": 3028, "\u2581holder": 21496, "meta": 8301, "\u2581laug": 9663, "\u2581shooting": 11743, "\u2581La": 1700, "\u2581tid": 12158, "destination": 20333, "\u05b5": 30794, "nown": 3676, "orous": 15138, "\u01ce": 29788, "\u2581patrol": 22294, "\u2581silver": 9746, "\u2581Connecticut": 23998, "\u30a4": 29157, "ampion": 8042, "\u2581Entre": 19361, "\u2581couch": 18602, "\u2581liv": 9678, "\u2581android": 5791, "\u2581Agency": 18498, "ev": 828, "ience": 1640, "\u2581significance": 18309, "\u2581strength": 6342, "aines": 17251, "\u2581searched": 22671, "\u2581survey": 10911, "TS": 7996, "ilor": 20323, "\u2581uniqu": 20988, ".\"_": 26408, "BP": 9399, "\u2581reminder": 25563, "\u2581Carlo": 21167, "\u2581Whe": 6738, "wood": 4871, "\u2581dow": 11722, "\u2581Wikipedia": 21740, "Sets": 25144, "\u2581unless": 6417, "\u2581heavily": 12759, "All": 2595, "ump": 1804, "\u2581dece": 23009, "\u043f\u0438": 2749, "\u2581parad": 15904, "azed": 28063, "\u2581Pete": 21388, "\u620f": 30727, "\u2581young": 2518, "core": 2291, "]=": 11868, "wear": 20233, "\u2581far": 2082, "iot": 8720, "\u2581kg": 11455, "\u2581NOTE": 21125, "\u2581Protocol": 28564, "qs": 25065, "ual": 840, "ngth": 24575, "SESSION": 15373, "cond": 1213, "\u2581different": 1581, "\u2581combination": 9470, "\u2581drm": 23200, "\u2581publish": 10094, "\u0451\u0440": 14507, "engu": 19062, "\u2581specified": 6140, "\u2581Object": 4625, "\u2581Wer": 12153, "angular": 8685, "good": 12684, "kap": 26738, "\u2581settings": 6472, "\u2581grain": 18663, "\u2581joint": 9353, "ables": 2561, "\u2581expected": 3349, "\u2581muscles": 15922, "OFF": 9770, "vised": 23313, "ITION": 8262, "naire": 25008, "\u2581efter": 15606, "beit": 10943, "]\",": 23772, "lica": 24534, "\u2581bullshit": 20210, "\u00edl": 25448, "adapter": 11581, "\u2581Tro": 10682, "oooo": 24438, "\u2581destination": 10316, "\u2581citizen": 20642, "ceil": 28379, "\u0927": 31080, "\u2581Dol": 15052, "ferences": 8831, "\u2581Testament": 26870, "^^": 13958, "\u2581(&": 17535, "Div": 12739, "\u2581Tamb": 17432, "\u2581directory": 9118, "\u2581Julie": 22706, "\u043c\u0438\u043d\u0438\u0441\u0442\u0440\u0430\u0442\u0438\u0432": 26332, "\u2581sou": 5271, "\ub9e4": 30556, "\u2581Nem": 26480, "\u2581phenomenon": 20757, "policy": 10970, "\u2581Delta": 25220, "\u2581removing": 17126, "IS": 1851, "\u2581selector": 14607, "\u2581bid": 16129, "ner": 1079, "\u69d8": 31874, "\u0446\u0435\u0440": 26654, "\u2581USA": 7035, "\u2581if": 513, "\u2581magazine": 11059, "\u2581msm": 15673, "\u2581Bras": 13481, "\u2581as\u00ed": 18237, "grund": 19878, "\ufe19": 30813, "anced": 3692, "uls": 7550, "\u2581strikes": 24128, "chestra": 18357, "subfigure": 22854, "operatorname": 12614, "\u2581UK": 6194, "\u2581sixt": 17930, "America": 25696, "\u017f": 30515, "epoch": 26729, "\u2581scientists": 15067, "Top": 6228, "^^^^": 27657, "ORM": 14851, "\u2581heart": 3031, "\u0441\u043d\u043e": 13161, "fetch": 11362, "\u2581SPI": 28500, "\u2581pract": 2844, "\u2581relatively": 10102, "Found": 8127, "\u2581actor": 10964, "\u2581ns": 9250, "Variables": 27192, "java": 7628, "\u2581libro": 28066, "\u2581blue": 5045, "EventHandler": 23273, "\u77f3": 29942, "\u5317": 29799, "ibli": 10798, "\u2581never": 1484, "\u2581concerned": 9059, "destroy": 11349, "GetString": 26331, "\u2581seriously": 10160, "\u2581acres": 20647, "<0x6E>": 113, "\u5bc6": 29385, "<0x2F>": 50, "\u02d9": 29776, "\u2581\u0441\u0440\u0435\u0434": 18203, "\u010c": 28965, "validate": 12056, "-,": 24244, "\u2581excited": 9534, "\u2581harmon": 26739, "\u2581calc": 26930, "\u2581Sohn": 25364, "\u2581\"-": 11645, "\u2581Cont": 2999, "\u0442\u043e\u0432": 7660, "kw": 8486, "\u2581electro": 22154, "\u2581gaze": 12438, "\u2581Amer": 1660, "\u0445\u0443": 18668, "\u2581Friends": 22371, "\u05d7": 29358, "\u2581tree": 4718, "\u6263": 31444, "\u2581meas": 5849, "\u2581Juan": 12029, "properties": 10723, "\u2581\u0433\u043e\u043b\u043e": 26958, "izing": 3864, "\u2581wurden": 9031, "\u0436\u0435\u043d\u0438\u0435": 16525, "\u2581barrier": 19644, "\u2581Singles": 24922, "ala": 4575, "\u2581launched": 11087, "<0xF7>": 250, "ano": 2503, "bau": 16855, "\u2581rendered": 21795, "\u2581Denver": 24060, "\u2581Be": 1739, "ered": 2092, "endant": 8090, "\u2581palm": 17919, "\u2581\u0412\u0430\u0441\u0438": 26099, "\u6d4b": 29584, "\u2581--": 1939, "\u2581Dec": 6712, "<0x53>": 86, "owner": 10349, "\u00e4nd": 5901, "\u2581territor": 12550, "Literal": 13306, "ieval": 19168, "ourt": 17007, "direction": 15782, "\u0434\u0438\u044f": 20303, "\u2581Medal": 21097, "\u0454\u044e": 23667, "\u2581Eight": 24182, "\u042a": 31045, "\u2581Lesser": 19570, "\u2581consecutive": 22162, "^*": 7304, "\ub864": 31953, "crement": 16554, "DEX": 13413, "Date": 3465, "\u17c2": 31692, "\u2581implement": 4808, "\u2581CHAPTER": 16399, "ORS": 13520, "\u2581Census": 27938, "\u2581foram": 23084, "\u2581chairs": 17538, "\u2581obten": 26685, "\u2581highway": 20127, "Z": 28828, "Double": 10260, "Il": 11356, "\u2581residential": 18350, "\u1f10": 30414, "request": 3134, "xD": 18915, "\u2581foam": 26493, "\u2581bamb": 27048, "\u2581ten\u00eda": 23396, "YN": 26687, "\u2581beaut": 3605, "\u3053": 29543, "Category": 9633, "\u2581des": 634, "\u2581devoted": 19312, "\u2581producers": 22862, "cord": 19056, "\u9928": 31595, "HasColumn": 17011, "\u2581aveva": 22405, "ainers": 23606, "Ind": 1961, "\u2581collecting": 22852, "\u2581nous": 13662, "\u2581honest": 6858, "\u2581expectations": 13879, "hm": 16913, "\u2581voltage": 24661, "\u2581consultant": 28459, "\u2581disappear": 22691, "xim": 5152, "FRA": 17012, "\u2581sul": 10577, "BUG": 5506, "\u2581Management": 9466, "UInt": 20103, "\u2581Nixon": 24169, "\u2581\u0444\u0456": 26204, "arning": 3570, "\u2581ett": 9947, "\u2581Tell": 15259, "arsi": 21478, "\u2581aliment": 27863, "\u2581moisture": 28224, "\u6771": 30366, "\uefc0": 31738, "\u2581alg": 16814, "priv": 6214, "\u5e16": 30972, "\u2581One": 2387, "\u017ee": 18765, "\u2581\u043f\u043b\u043e": 17223, "\u2581must": 1580, "\u2581\u0441\u043b\u0435\u0434": 25091, "tere": 20291, "\u2581Bloom": 23451, "\u2581taxi": 24550, "\u2581via": 4213, "\u25fc": 30806, "\").": 4145, "\u043d\u0435\u043c": 23474, "\u2581\u044d\u0442\u043e\u043c": 26512, "\u2581shorts": 27365, "tti": 21099, "\u2581Server": 13929, "\u6765": 29263, "<0xF6>": 249, "\u0437\u043d\u043e": 18380, "\u2581fos": 22876, "\u2581inner": 7450, "\u2581inclu": 25712, "Void": 17732, "\u2581Lake": 8703, "ition": 685, "\u2581elementary": 24267, "\u0441\u0441": 13847, "\u2581Close": 18537, "\u2581li": 635, "\u2581railway": 18051, "\u2581claimed": 10335, "'*": 21244, "LIB": 26604, "\u88dd": 31937, "\u0434\u0435": 1903, "\u0446\u0456\u0439": 16680, "ancies": 28481, "\u2581proport": 12687, "\u2581establishment": 18413, "ollen": 21867, "folio": 14132, ")}(": 20089, "\u2581permitted": 15463, "\u2581vest": 16568, "<0x09>": 12, "\u2190": 29787, "\u2581warmth": 21606, "\r\r": 21259, "\u2581el\u0151": 23367, "\u2581invention": 21823, "backup": 27078, "\u5c5e": 29438, "\u6d1e": 31242, "\u2581Kap": 14457, "irical": 25537, "iro": 4812, "GET": 5296, "\u2581AI": 16107, "\u2581touched": 12527, "\uc124": 30058, "\u0441\u043e\u043c": 21323, "\u0562": 31293, "]}": 9205, "\u5e95": 30537, "bre": 2152, "\u2581broadcast": 11837, "\u2581ID": 4519, "zone": 7795, "\u2581weekend": 9071, "\u2581hire": 15270, "\u2581Kaiser": 27039, "dhd": 27957, "american": 22071, "type": 1123, "\u2581kil": 8302, "Output": 4792, "\u2581quelques": 22789, "\u04a3": 31000, "\u2581rejected": 15585, "\u5e72": 30901, "cription": 2342, "\u2581answer": 4372, "\u2581Gil": 12416, "\u2581And": 1015, "\u2581queue": 10159, "\u2581apolog": 15884, "\u2581log": 2085, "\u2581housing": 11821, "\u2581protect": 5321, "\u2581lengths": 25458, "\u2581`": 1552, "\u2581tribes": 26296, "\u2581altri": 22861, "fm": 21019, "\u2581ink": 20195, "\u2581dread": 17790, "\u2581Deutschland": 19030, "Tim": 9834, "\u2581instantly": 16203, "\u2581ph": 1108, "\u0432\u0430\u0442\u0438": 16234, "\u8017": 31188, "\ubca8": 31997, "\u2581insurance": 6919, "ondo": 23743, "\u02cc": 30636, "\u2581Bou": 14574, "\u2581Inside": 20726, ">;": 10225, "\u2581Message": 11350, "ifer": 7627, "\u2581e": 317, "\u2581Th": 542, "\u2581smiles": 24733, "ived": 1975, "\u2581Ave": 27170, "\u2581\u0430\u043f\u0440\u0435\u043b\u044f": 26582, "rent": 1114, "v\u00e1": 15504, "\ud83e\udd23": 29650, "\u2581Tw": 5852, "cursor": 12601, "iforn": 5507, "\u2581Studio": 17312, "\u2581Volk": 25377, "Resolver": 16695, "\u2581fans": 8504, "\u2581ran": 5591, "Store": 6229, "\u2581innovative": 16827, "\u2581episodes": 17142, "\u2581ranks": 19334, "Workspace": 27474, "\u2581calendar": 15639, "mund": 18060, "Q": 28824, "idge": 4307, "ility": 1232, "\u2581Progress": 19310, "\u2581univers": 5137, "vern": 28045, "\uc838": 30942, "\u2581\u0427\u0438": 26603, "\u2581elev": 9896, "\u2581model": 2229, "CPU": 16102, "usion": 3623, "\u2581Murray": 19973, "aru": 24344, "\u0424": 28897, "\u2581dot": 12253, "Contact": 18003, "\u2581reliable": 13227, "\u2581masters": 26981, "\u2581off": 805, "\u2581Mond": 7672, "ktion": 16591, "cli": 18008, "\u2581\u0447\u0435\u043c\u043f\u0438": 18961, "\u2581drives": 19085, "\ub82c": 31843, "\u2581fair": 4968, "shall": 12126, "\u2581matched": 16933, "ulas": 21541, "\u2581suppress": 22555, "\u2581Skip": 24419, "\u2581hoof": 28376, "\u2581datetime": 23916, "cedure": 27032, "\u2581Series": 10264, "\u2581absolute": 10287, "\u041d": 28859, "\u2581Sql": 20950, "EEE": 20381, "follow": 23951, "<0x55>": 88, "\u95ed": 29890, "\u2581ren": 6419, "\u043b\u043e\u0433\u0438": 13428, "\u2581Lucas": 19531, "\u2581horse": 7947, "includegraphics": 7621, "\u2581systems": 4918, "ening": 3250, "\u2581Rep\u00fablica": 26621, "Null": 4238, "ading": 7836, "\uaddc": 31982, "\u2581Cuba": 21935, "\u0441\u044b": 20074, "\u2581\u0421\u043e": 7447, "SON": 4780, "\u2581managed": 6900, "pcm": 20610, "frame": 3413, "Call": 3001, "does": 23727, "\u2581configurations": 24991, "placement": 17140, "INDEX": 16358, "\u2581mon": 1326, "igt": 8335, "\u30c7": 29644, "itation": 5174, "SUP": 11599, "\u2581grand": 3487, "\u5b98": 30639, "ificial": 14773, "GU": 25459, "tra": 1947, "\u2581Supp": 11325, "iejsc": 18840, "\u2581\u041e\u0434\u043d\u0430": 28491, "\u2581/**\r": 20418, "intern": 14705, "\u2019": 28809, "blue": 12349, "\u2581insane": 21295, "\u2581gram": 18756, "\u2581refund": 20106, "\u4fa7": 30994, "\u2581Enterprise": 27018, "\u0142y": 11085, "\u00da": 29070, "THE": 25898, "Alignment": 18307, "\u2581\u0444\u0443\u0442\u0431\u043e": 20513, "\u2581rack": 24942, "('/": 10815, "Reply": 23805, "\u00f3wnie": 25414, "TextView": 26554, "rap": 1242, "\u56fe": 29183, "\u2581\u0432\u0430": 13524, "UM": 4171, "\u2581IT": 8862, "iu": 7509, "\u2581\u043f\u0443": 12382, "aw": 1067, "before": 12098, "\u2581p": 284, "\u2581AG": 14778, "Modified": 19288, "\u041a": 28852, "\u2581df": 13808, "\u2581coord": 6618, "ned": 12097, "\u2581filling": 15990, "\u0647": 29004, "BO": 5759, "\u2581YO": 10834, "\u2581p\u00e9ri": 22522, "\u2581Barr": 24423, "\u2581investment": 8542, "\u2581swallowed": 23946, "********": 812, "gener": 4506, "blog": 14275, "\u96f2": 31986, "arians": 26335, "\u2581Yeah": 8352, "\u2581PG": 27793, "\u5b8b": 31403, "\u2581blind": 10337, "\u028c": 31313, "\u2581tong": 12166, "Refresh": 21203, "\u2581Season": 16887, "Av": 9269, "\u0268": 30200, "\u0e1a": 29447, "\u2581Are": 4867, "\u0434\u044f": 10926, "\u0441\u0442\u0432\u0438": 12505, "\u2581alleg": 10150, "Some": 11600, "\u2581Rol": 15524, "\u9a8c": 29502, "ref": 1013, "\u53cc": 30524, "extract": 21685, "\u2581decomposition": 28079, "Rules": 17315, "Nd": 16951, "\u2581verification": 26878, "Depth": 17603, "\u8089": 31736, "ERO": 20574, "\u2581had": 553, "\u2581beiden": 21930, "\u2581governed": 22175, "eau": 23524, "\u2581groom": 28583, "\u4ea4": 29471, "ekt": 10906, "\u2581Ten": 11819, "\u2581destac": 27900, "\u2581utilizing": 28464, "\u0003": 30662, "ilty": 13021, "uzione": 20219, "\u0441\u044c": 1974, "arth": 3616, "orts": 15587, "\u2581tab": 7683, "\u0421": 28844, "\u2581\u043a\u043c": 12400, "context": 2714, "'.": 4135, "ocolate": 11959, "\u2581speakers": 20872, "\u2581interviewed": 28178, "\u2581located": 5651, "dr": 2922, "\u2581increasing": 6488, "quare": 9415, "Multi": 10889, "ised": 2458, "\u2581hiring": 21349, "\u2581Strateg": 25193, "\u2581carriage": 26669, "ile": 546, "\u2581efficiently": 23463, "plot": 11096, "\u0458": 28855, "copy": 6541, "\u2581violent": 14643, "erial": 16299, "dess": 15821, "\u0089": 31198, "\u2581plate": 9703, "Best": 19112, "\u2581assume": 7146, "@": 28818, "\u2581emerging": 20053, "\u2581party": 4150, "\u2581nau": 26049, "\u2581belly": 19146, "\u5f90": 31921, "\u2581advoc": 11881, "\u0452": 28973, "\u2581engl": 24670, "\u9580": 31031, "\u2581codes": 14760, "\u2581Software": 6583, "<0x5D>": 96, "\u2581knife": 12579, "ection": 10101, "ged": 2560, "\u6797": 30158, "ockets": 18473, "\u2581separate": 7681, "GUID": 24591, "\u2581autres": 17729, "EXT": 4036, "\u2581prints": 25831, "adays": 25182, "Country": 28073, "dit": 8924, "anson": 21140, "\u0005": 30550, "\u2581shouted": 14726, "\u2581structure": 4693, "ugs": 19882, "\u044a\u0440": 6430, "topic": 17833, "\u2581journalist": 19226, "\u2581periodic": 23404, "\u01e7": 31682, "\u2581\u041f\u0440\u0438": 11824, "\u2581motor": 8609, "\u2581cas": 3274, "\u2581nice": 5171, "\u2581clock": 9917, "\u2581pod": 3531, "\u2581Moore": 16616, "\u2581immigrants": 22475, "Emp": 25225, "\u2581wsp": 26114, "\u2581Individual": 27739, "\u2026.": 20541, "\u0446\u0435": 3876, "\u2581\u041f\u0430": 8588, "dap": 24260, "\u0179": 30109, "\uc6d0": 29816, "\u30a1": 30000, "\u6743": 29520, "\u2581Cong": 6201, "unique": 10561, "\ub9c1": 31689, "\u2581jump": 6483, "__)": 15614, "\u2581er": 1234, "retry": 23608, "].": 1592, "NON": 20232, "\u2581galaxies": 18072, "\u2581Face": 7197, "session": 5594, "\u2581explanation": 13268, "}=": 6429, "\u9805": 30829, "\u2581Cons": 5504, "fore": 994, "ibilities": 10796, "\u0436\u0443": 14477, "iler": 5809, "\u2581Don": 3189, "\u2581Pacific": 12515, "FAILED": 19413, "\u3057": 29111, "pto": 25892, "\u2581Geme": 11250, "\u2581mouth": 5108, "\u0105": 28866, "\u2581Jun": 6641, "\u2581Systems": 17259, "rotation": 26688, "Symbol": 9996, "\u2581\u043a\u0430\u043a": 8600, "\u2581lap": 14348, "\u2581\u0428\u0430": 25541, "Unit": 6831, "'=>'": 24262, "\u2581tide": 27860, "\u2581beta": 21559, "\u2581implies": 12150, "\u2581fav": 7556, "\u05b8": 29997, "\u2581trouble": 7598, "\u044e\u0442\u044c": 14611, "rund": 9265, "\u2581beating": 18801, "\u2581Describe": 27984, "\u008a": 31009, "intr": 20608, "\u2581suited": 24003, "\u2581ignorant": 27972, "ved": 1800, "\u2581preval": 25371, "iliar": 7036, "\u2581Others": 19038, "\u2581Vall": 26997, "\u2581spoken": 14382, "\u2581riding": 14557, "\u0640": 29791, "\u2581interrupt": 10256, "\u2581saf": 4972, "\u2581condu": 8667, "Hex": 21934, "\u2581Questions": 24953, "filename": 9639, "\u2581workout": 26039, "\u0447\u0438\u043d": 23156, "\u552e": 30917, "\u2581Fu\u00dfball": 24836, "\u2581nove": 9076, "[_": 24655, "\u2581suite": 10978, "\u2581cried": 13714, "Water": 27133, "ans": 509, "\u2581gol": 20918, "\u2581imposed": 24739, "portal": 19395, "\u2581McK": 18346, "(_": 4831, "rs": 4586, "kappa": 8754, "\u2581away": 1753, "\u2581end": 948, "kt": 2254, "\u0436\u0430": 4483, "-.": 15376, "\u2581pipeline": 16892, "beck": 23698, "emos": 24852, "\u5df1": 29957, "limp": 22305, "`)": 25920, "\u2581whispered": 12916, "ativo": 20937, "book": 3521, "\u0441\u043b\u0435": 5333, "oco": 9228, ":%.*": 16772, "nals": 25813, "\u7522": 31657, "\u2581list": 1274, "sg": 3322, "\u2581seed": 11057, "falls": 16768, "\u2581controller": 11792, "\u2581geldig": 19088, "\u2581Body": 16250, "ifik": 19758, "\u2581\u0442\u0430\u043a\u043e\u0436": 20768, "\uc74c": 29881, "isms": 10821, "\u2581delle": 8419, "\u2581enemy": 8454, "enden": 8331, "\u2581Dictionary": 22828, "\u2581Par": 2316, "Set": 1436, "\uff09": 29185, "\u2581pun": 5704, "\u2581innov": 8403, "rig": 15293, "\u2581Format": 18748, "\u2581volunteers": 20826, "\u2581\u0441\u0438\u0441\u0442\u0435": 21609, "\u1ead": 29667, "\u2581creature": 15287, "seen": 18226, "\u270c": 31906, "\u00f6n": 5438, "\u2581perhaps": 5230, "atrice": 23097, "\u26d4": 30184, "Reset": 13709, "ui": 1724, "\u5904": 29326, "odio": 26301, "\ubbfc": 31463, "\u2581blev": 12861, "\u2581r": 408, "\u2581bad": 2607, "\u2581negotiations": 24146, "strcmp": 17789, "\u2581Democr": 7005, "\u2581Finland": 19186, "\u2581consume": 23327, "\u2581Buff": 15163, "\u0633": 29008, "andon": 7256, "script": 4459, "Information": 16257, "\u2581kilomet": 22118, "\u2581peint": 27520, "recogn": 28007, "aland": 11243, "\u2581klass": 27898, "\u2581Clear": 16676, "arry": 12255, "\u2581prote": 2096, "\u2581medic": 7861, "ancing": 7161, "({\\": 11592, "ak": 491, "\u2581manifest": 11052, "layers": 22944, "\u4e07": 30568, "\u2581problem": 2700, "\u2581beloved": 21708, "ens": 596, "\u2581Basket": 25258, "son": 1265, "onomy": 15631, "\u2581Reg": 2678, "___": 8485, "\u2581used": 1307, "\u2581chron": 20657, "\u2581neuro": 20342, "ANY": 20601, "\u68c0": 29580, "top": 3746, "\u2581Elect": 10394, "\u2581pare": 13103, "\u2581equipo": 23742, "\u2581leur": 10441, "rieve": 12891, "\u2581Vas": 19286, "tal": 16000, "\u5024": 30261, "hang": 15140, "\u2581sous": 9886, "\u00e9ta": 25545, "\u2581Commerce": 27535, "\u0325": 30808, "ailable": 2226, "Bul": 18775, "\u2581Gren": 18347, "\u2581reach": 4563, "desc": 5916, "WN": 7866, "\u2581seems": 3969, "r\u00f3": 15218, "\u0432\u0438\u043d": 17840, "\u2581twentieth": 26203, "\u5c4b": 31229, "ambda": 2566, "\u2581dining": 14129, "\u2581outline": 22327, "\u2581clusters": 20501, "\u2581THE": 3799, "NUM": 9818, "\u2581forms": 6967, "\u2581receive": 5556, "\u7ec3": 30947, "views": 13064, "\u2581Handle": 16736, "odot": 24075, "\ucee8": 31885, "}}$,": 25133, "ick\u00e9": 26169, "\u1d07": 30774, "\u2581chin": 17418, "\u2581variation": 18423, "\u2581SHALL": 27287, "\u2581useful": 5857, "ahan": 27058, "argo": 8473, "odes": 2804, "ampa": 20797, "rem": 1569, "men": 2129, "\u2581bird": 7727, "\u2581reached": 5048, "\u2581slid": 18457, "\u2581moderate": 22651, "ibles": 15300, "\u2581leads": 8681, "\u2581Arnold": 24396, "\u7d22": 29630, "\u2581central": 5971, "\u2581various": 4118, "\u2581feature": 4480, "ocon": 24859, "NS": 7016, "\u0e1e": 29786, "\u2581spent": 5223, "\u65d7": 31612, "\u2581thats": 26748, "\u2581Apply": 23160, "\u2581hij": 7174, "\u2581suc": 9094, "nego": 12766, "\u2581soort": 14571, "ipe": 3985, "Alloc": 14072, "\u2581sensitivity": 22486, "alg": 12394, "\u2581swo": 20153, "anne": 13002, "\u2581rule": 5918, "\u2581teen": 10799, "\u2581Jesse": 26689, "ighbor": 21858, "CKET": 26474, "\u2581figured": 14775, "\u2581preparation": 16744, "\u2581algebra": 13397, "IBUT": 23148, "\u2581brings": 11164, "\u0440\u0430\u043a": 15936, "\u057d": 30506, "acked": 18580, "\u1ea7": 30049, "\u2581Ar": 1010, "\u2581desk": 9431, "\u01eb": 31782, "\u043a\u043e\u0439": 13108, "Own": 8824, "\u2581jer": 22752, "\u2581supportive": 27729, "dev": 1363, "\u7576": 31332, "wen": 10654, "iev": 16198, "\u2581investing": 22445, "\u2581tot": 2209, "\u6309": 29518, "\u2581wir": 25609, "\u2581chapter": 10661, "\u2581Far": 8549, "\u2581even": 1019, "ringe": 22659, "\u0434\u0438\u0438": 24844, "\u6599": 29733, "\u2581re": 312, "\u5e02": 29244, "ado": 1452, "rightarrow": 6951, "\u2581mel": 8970, "\u2581Sver": 28238, "\u2581coaching": 21464, "pio": 14662, "ioni": 6579, "\u2581Bernard": 16784, "cdot": 5468, "\u2581recher": 26590, "RC": 6860, "\u2581flux": 15410, "ocked": 7214, "#{": 16775, "\u2581Ma": 6068, "EqualTo": 24680, "\u2581integrated": 15647, "\u2581Character": 23471, "\u2581\u0440\u0456": 15629, "CASE": 24152, "<0xF3>": 246, "toolbar": 23465, "%%": 6069, "awt": 17402, "aceae": 19789, "otos": 26064, "\u654f": 31703, "Hol": 28584, "\u2581Description": 10220, "uy": 4533, "\u2581CA": 9461, "\u0432\u0438\u0439": 18135, "Initialized": 24923, "\u2581abundance": 25468, "\u1796": 31196, "liament": 10669, "\u2581\u0440\u043e\u043a\u0443": 7339, "LECT": 8785, "anna": 8091, "izar": 12874, "\u2581conventional": 17215, "\u2581Could": 13955, "Level": 6268, "SERVER": 18299, "\u2581explode": 27930, "govern": 26447, "\r": 28801, "\u2581Rou": 17257, "WISE": 26251, "\u2581Excell": 22369, "\u2581kol": 21772, "essment": 23386, "ASE": 11257, "\u2581intro": 24671, "\u2581se": 427, "\u898f": 31333, "\u2581definition": 7526, "\u2581volatile": 23632, "identity": 20371, "\u2581hidden": 7918, "\u2581\u043f\u0438": 10484, "\u2581rt": 22435, "}</": 10050, "\u2581Side": 15256, "azioni": 13919, "\u0576": 29688, "Geometry": 20052, "encil": 16935, "\u2581rv": 23021, "\u2581prv": 24949, "\u2581Data": 5284, "TT": 16235, "ierz": 25076, "\u2581Equipment": 26025, "ctrine": 18371, "oun": 1068, "ctxt": 27567, "\u2581Tools": 26258, "\u2581activity": 6355, "\u2581apart": 7413, "apa": 10405, "pective": 8524, "aque": 13768, "ILED": 17094, "\u2581miejsce": 22307, "\u2581XVIII": 23984, "\u2581assh": 19922, "\u2581otto": 24127, "\u2581denomin": 27876, "\u6377": 31823, "Mu": 24887, "\u2660": 30736, "mc": 12961, "foreach": 15160, "life": 10387, "Sv": 26046, "\u2581\u0430\u0432\u0433\u0443": 18784, "isti": 20589, "zb": 15843, "\u65b0": 29056, "eed": 11196, "icies": 22966, "\u2581County": 5068, "boys": 27589, "\u2581advantage": 7859, "\u2581Democratic": 12821, "\u2581racist": 19139, "\u0448\u0435\u0439": 22728, "\u2581konnte": 19059, "emark": 21819, "\u2581screamed": 22878, "likely": 10245, "ends": 2827, "\u2581rab": 16479, "\u2581Install": 22609, "\u2581Mississ": 19294, "iveau": 22566, "\u2581Kirk": 21746, "\u2581chef": 16749, "seek": 18694, "PACK": 20683, "rho": 4132, "awk": 22527, "qt": 23423, "\u2581raw": 8435, "\u2581Verify": 24544, "loor": 9527, "\u2581listened": 15112, "keeper": 18740, "law": 10656, "\u2581decisions": 9549, "schedule": 20913, "ussy": 23215, "\u2581Det": 5158, "\u2581\u043d\u0430\u0447\u0430": 11084, "));": 1090, "\u2581Exper": 11135, "\u2581\u0438\u044e": 14137, "Capture": 22663, "endet": 27522, "\u2581sound": 2622, "\u2581nuclear": 12025, "\u2581font": 6205, "\u09b6": 31275, "\u2581template": 6897, "ieder": 7102, "venue": 8008, "NdEx": 19248, "Ke": 7238, "\u2581assert": 2177, "\u2581lawyer": 12668, "adora": 20916, "\u2581n": 307, "\u2581sur": 1147, "\u4e1a": 29703, "\u2581\u0442\u0440\u0430": 13854, "\u2581staat": 24617, "iago": 21555, "hole": 20265, "ropolitan": 22159, "keyword": 22345, "modal": 13742, "\u82d7": 31927, "\u2581Washington": 5924, "\u2581normally": 12336, "olf": 5209, "aats": 11342, "ii": 2773, "\u00b1": 29023, "nih": 19836, "ajo": 10125, "nung": 15065, "enc": 831, "\u2581theoret": 15007, "\u2581Future": 18242, "\u2581announce": 12411, "Standard": 17899, "\u2581\u0443\u043d\u0438\u0432\u0435\u0440\u0441\u0438\u0442\u0435": 24884, "nership": 11845, "\u2581:": 714, "\u2581cour": 1547, "\u2581He": 650, "div": 1538, "mathbf": 3505, "\u2581ward": 17874, "\u2581preserve": 18018, "\u00d1": 29840, "sky": 10919, "\u2581believes": 15302, "\u2581boards": 19434, "cccc": 22827, "acent": 15352, "\u2581contract": 5001, "\u2581runtime": 16183, "\u2581Pand": 24802, "\u2581enum": 10873, "Marshal": 24374, "\u0441\u044c\u043a\u0438\u0439": 10379, "\u2581Edwards": 27336, "\u2581numero": 25899, "\u2581Phys": 12051, "\u2581~~": 18881, "Gap": 26954, "\u2581boring": 19757, "\u25aa": 30701, "\u2581Span": 8299, "\u2581schedul": 10119, "Inline": 19034, "\u2581sticking": 27322, "\u2581crown": 22718, "Design": 18479, "\u2581evil": 10875, "Indicator": 27284, "\u2581realization": 27565, "aption": 3777, "osing": 8461, "\u2581reflects": 24345, "GI": 22576, "\u2581stats": 14269, "Hit": 17165, "iere": 16302, "\u626b": 30997, "\u2581classical": 13378, "AA": 3598, "\u2581system": 1587, "\u2581\".": 11955, "rr": 1244, "OUT": 7217, "\u2581Sur": 6021, "\u0459\u0435": 11945, "\u2581vol": 2208, "cussion": 18637, "\u2581inherit": 22492, "FUNCTION": 16368, "\u2581Margaret": 17197, "habil": 23005, "\u2581Years": 16886, "\u4e61": 29971, "\u21b3": 31416, "\u2581height": 5110, "\u2581Historia": 23051, "Med": 15774, "\u2581gall": 15724, "\u2581\u043e\u0431\u044a": 18661, "\u2581dx": 18733, "\u89a7": 31722, "\u0438\u0442": 28562, "\u2581capt": 4286, "\u043d\u043e\u043c": 4967, "\u2581wake": 11088, "\u2581gover": 2116, "\u2581iter": 6854, "\u2581div": 2901, "SL": 6255, "\u2581XI": 27948, "Command": 4740, "\u00e9ge": 24981, "ului": 11956, "\u2581debt": 10953, "tiny": 25149, "\u2581votes": 12768, "\u2581driving": 7810, "\u179f": 30326, "\u2581\u041c\u0443": 17445, "gd": 26211, "\u2581ease": 12801, "\uae30": 29164, "EC": 8619, "km": 8251, "ighed": 24776, "\u2581R": 399, "pyx": 9004, "\u2581legend": 12851, "\u0435\u0440\u0435\u0434": 23876, "ays": 748, "\u2581vin": 18146, "\u2581French": 4949, "intage": 21153, "phi": 3163, "\u7a3f": 31547, "\u2581brother": 5510, "Cert": 12584, "\u2581R\u00e9": 15417, "UTC": 18117, "\u2506": 31172, "\u2581corpor": 7807, "\u008c": 30536, "\u2581Fran\u00e7": 13514, "PREFIX": 21321, "\u2581widely": 12575, "\u2581amer": 10269, "Sprite": 22473, "sol": 22501, "\u2581mare": 25420, "ional": 1479, "\u2581Finance": 22814, "\u00ae": 28974, "\u2581aware": 5635, "\u2581nan": 23693, "mine": 16350, "\u0441\u0443": 4878, "\u2581realizing": 27494, "ationship": 18798, "\u4ed8": 29628, "\u2581disc": 2312, "icult": 3366, "\u2581\u0437\u0456": 26883, "\u2581raz": 10717, "\u2581stack": 7232, "\u2581transition": 8265, "\u2581Kitchen": 21376, "\u043a\u0430\u043d": 9368, "Exp": 8003, "ice": 535, "bias": 25737, "\u2581requ": 1085, "\u2581dicembre": 25919, "\u6f14": 31010, "Gr": 7406, "criptor": 5456, "scrib": 23418, "Figure": 25665, "intel": 26876, "\ubcc4": 31044, "\u2581equipped": 17042, "'])": 8757, "environment": 21680, "\u2581FA": 13353, "(/": 16552, "\u2581guys": 6246, "aign": 4955, "window": 5147, "\u2581Taking": 20648, "oded": 6546, "jj": 23659, "\u2581hf": 27573, "?\u201d": 10584, "Sal": 18461, "\u2581view": 2204, "\u696d": 31204, "\u2581Berkeley": 28042, "\u5b9e": 29247, "\u2581hyper": 11503, "\u2581column": 4419, "\u2581%": 1239, "\u2581Luis": 16945, "Based": 24207, "\u2581Angel": 15878, "special": 14908, "\u2581bob": 28142, "\u2581rect": 9717, "atta": 16374, "bur": 7945, "\u2581museum": 13041, "dd": 1036, "Mvc": 18261, "\u2581Tennessee": 19793, "\u2581acknowledge": 20199, "\u2581lip": 11144, "\u6392": 29720, "\u2581occasionally": 16045, "\u2581SE": 5820, "\u2665": 29664, "of": 1009, "\u2581\u0443\u043b\u0438": 27633, "\u2032": 28938, "mutex": 7686, "\u2713": 29952, "WEBPACK": 16524, "\u2581sensitive": 13509, "\u2581catal": 21348, "detail": 16017, "\u2581H\u00f6": 18137, "\u2581heute": 21602, "blk": 17461, "ew": 889, "\u2581trainer": 28333, "aware": 15950, "inherit": 19778, "\u2581User": 1247, "\u2581starts": 8383, "\u2581blink": 16759, "ended": 2508, "LT": 24913, "\u2581derived": 11236, "\u2581chall": 4233, "\u2581Cass": 13367, ",\\,": 21946, "\u4eca": 30316, "\u2581gate": 9862, "\u2581capable": 10637, "Is": 2301, "\u2581Dans": 14527, "\u2581scalar": 15820, "\u2581'''": 23713, "\u2581septiembre": 25403, "\u0447\u0443": 15098, "\u2581recovered": 19471, "\u2581Phase": 26306, "\u03bb": 29027, "\u0302": 30633, "\u2581Integr": 18208, "\u2581funeral": 18979, "apos": 17936, "\u2581killed": 5582, "\u2581syntax": 25227, "allowed": 12949, "\u2581discour": 27314, "\u2581invited": 12313, "\u2581sour": 18193, "\u519b": 30730, "\u049a": 31419, "\u2581Emp": 10156, "\u2581Kot": 27209, "Scal": 12350, "\u043d\u0433": 7521, "\u2581che": 997, "\u2581Pra": 16997, "We": 2324, "\u2581angel": 23190, "\u2581Fight": 25143, "$('#": 24546, "\u2581treats": 27378, "\u0142o": 9309, "\u2581obvious": 5444, "lag": 9403, "\u03b7": 29049, "\u2581took": 2056, "\u2581HE": 14904, "\u2581d\u00e9partement": 22625, "\u2581Last": 7690, "\u30e2": 30177, "\u2581\u0441\u0442\u0430\u043d\u043e\u0432\u0438": 21206, "inter": 1646, "opt": 1642, "\u2581month": 2102, "\u2581Squad": 16756, "\u2581Sak": 24586, "\u2581Points": 24304, "mux": 27884, "Cal": 7618, "\u2581frustration": 22802, "\u2581Parte": 24162, "\u80fd": 29084, "\u2581admin": 11173, "\u2581remarked": 28357, "\u2581slope": 20912, "BACK": 12437, "grand": 24433, "verso": 27484, "etr": 12182, "\ub529": 31836, "\u987b": 30037, "\u2581concentration": 15987, "pection": 16455, "\u00e1st": 14637, "\u2581Urban": 22007, "\u2581Rad": 6444, "\u2581DateTime": 20917, "always": 22108, "\u2581broker": 22670, "ieck": 27578, "\u2581disrupt": 28679, "\u2581slides": 27331, "icro": 3130, "Gate": 16485, "\u2581moments": 9235, "inations": 9435, "\u2603": 31666, "\u2581Follow": 9822, "\u63a5": 29076, "\u2581Facebook": 8488, "\u2581hi": 12014, "\u2581Perry": 24150, "\u2581sympathy": 26453, "\u0448\u0438\u043c": 27066, "\u2581imprison": 23711, "\u2581HAL": 16879, "\u2581believing": 23935, "enz": 7322, "\u2581guid": 12412, "\u2581clever": 19345, "Gold": 25675, "\u1789": 31901, "\u2581possibly": 8189, "\u0432\u044b\u043c": 24114, "\u2581July": 4398, "\u043d\u0430\u044f": 6075, "\u2581promised": 13272, "ikt": 14579, "\u2581Dob": 26737, "Errorf": 12460, "write": 3035, "\u0f42": 31035, "\u2581wheels": 19876, "\u2581regia": 19009, "WARE": 12508, "\u2581harass": 22280, "\u2581remove": 5281, "\u2581\u0440\u0435\u0437\u0443\u043b\u044c\u0442\u0430": 20959, "\u05f4": 31603, "\u2202": 31698, "\u2581\u0447\u0435": 4640, "<0x3A>": 61, ">()": 21384, "\u2581historical": 10578, "\u2581league": 10674, "uu": 24173, "\u2581prac": 26521, "\u2581oxygen": 21058, "\u044c\u0435": 18628, "\u56fa": 30657, "\u2581volunt": 21522, "\u2581SU": 13319, "ENCE": 15683, "\u2581Dod": 22790, "\u2581perfection": 27363, "ifiers": 11980, "\u2581manufacturers": 19245, "\u2581Landes": 22924, "\uff1b": 29743, "rol": 1438, "\u2581Scottish": 17717, "\u2581horses": 11938, "){\r": 18055, "GPIO": 18563, "\u2581Graph": 15146, "dated": 5218, "emic": 10771, "\u2581\u0432\u0440\u0435": 8614, "\u2581Generate": 26075, "\u2581elabor": 16252, "Each": 9179, "\u2581m\u011b": 18076, "\u2581\u043c\u0456\u0441": 21770, "\u2581petition": 25045, "amas": 22425, "\ube44": 29859, "\u2581ext": 1568, "irm": 2780, "ingen": 10814, "Run": 3877, "\u2581Level": 16543, "\u2581nederb\u00f6rd": 28373, "\u2581Mend": 28683, "ANCE": 11823, "\u2581Choice": 27710, "overlay": 27163, "Choice": 28456, "\u1f76": 30492, "\u2581restored": 21617, "ge": 490, "elij": 6796, "\u2581preview": 25203, "\u30d8": 31760, "assertEquals": 12135, "BIT": 8170, "\u2581favour": 10392, "idle": 20240, "\u2581\u2581\u2581\u2581\u2581\u2581\u2581\u2581\u2581\u2581\u2581\u2581\u2581": 569, "center": 5316, "\u2581document": 3248, "panic": 19771, "Lower": 12592, "\u2581ripped": 27755, "oyle": 28251, "(\"\");": 28361, "\u2581finest": 21561, "\u2581keyword": 23247, "\u2581diabetes": 22794, "\u2581Province": 23004, "Iterator": 12057, "TRAN": 15100, "domin": 22624, "\u2581Biography": 27167, "\ub97c": 29200, "\u2581Arch": 6573, "engine": 11358, "\u2581pregnancy": 18974, "\u2581trad": 2784, "ources": 2685, "\u2581consolid": 22968, "\u2581favorite": 6656, "eps": 2671, "storage": 11105, "\u2581warned": 16808, "\u2581improvements": 19664, "front": 6072, "\u043d\u0435\u043d\u0438\u0435": 23480, "audio": 11203, "\u2581Villa": 21192, "ovi\u0107": 22006, "Tell": 22467, "insula": 27155, "Cloud": 13113, "\u2581High": 4556, "\u2581Byte": 20376, "\u2581{$": 20833, "sk\u00fd": 25811, "\u2581folded": 20631, "Exper": 26011, "\u60e0": 30919, "\u2581ast": 9597, "\u2581grid": 10541, "ager": 1742, "addClass": 18133, "\u2581offices": 15217, "so": 667, "NG": 17167, "\u2581Abb": 15859, "\u2581celle": 21401, "chter": 11769, "icking": 16402, "\u2581Fr": 1361, "\u2581Assistant": 21631, "\u099f": 30579, "\u2581/**": 2067, "idal": 17594, "\u2581obst": 13364, "([": 5187, "\u00fd": 28889, "\u2581solution": 5165, "\u2581claims": 9278, "\u00f6d": 14697, "\u044e\u0449\u0438\u0439": 25036, "\u2581Pr": 1921, "\u2581Mary": 5480, "\u2581idx": 12372, "\u2581downtown": 18530, "\u2581dies": 5148, "\u2581Note": 6096, "\u2581Ris": 25054, "\u2581legis": 14864, "struct": 1356, "atever": 4651, "\u2581bien": 9628, "riv": 814, "\u2581issue": 4291, "an\u00e7": 5154, "opher": 12379, "\u54c1": 29346, "\u2581ratio": 10554, "\u2581rank": 6593, "\u2581Scal": 21292, "=\"{{": 21686, "icer": 10408, "=$(": 26111, "\u2581halt": 19293, "\u5e45": 31861, "\u2581Ber": 3405, "\u2581lo": 1448, "\u2581foreach": 11927, "\u2581#": 422, "\u2581bot": 12435, "\u2581athlet": 14587, "\u2581swung": 21701, "\u2581wax": 26627, "plicit": 6026, "\u2581liberal": 14987, "\u5434": 31812, "\u2581just": 776, "\u2581lane": 19398, "\u2581glory": 20756, "ings": 742, "ATTRIB": 27502, "\u00be": 29867, "\u2581supported": 6615, "\u2581evident": 14885, "\u2581wen": 21672, "AY": 3836, "\u2581convention": 18698, "\ub0a8": 31183, "com": 675, "\u2581south": 6287, "\u2581=": 327, "\u5143": 29352, "\u2581thick": 6931, "peed": 6714, "\u2581Ne": 3147, "agna": 22408, "\u2581depress": 28285, "\u2581cerca": 24615, "\u2581Morgan": 15165, "\u2581mou": 22182, "\u026f": 31678, "\uc2dd": 30355, "Hey": 15766, "\u682a": 31724, "\u2581collision": 23322, "\u0447\u0435\u043d\u0438\u044f": 19476, "\u2581mi": 5192, "\u76d8": 30358, "\u2581grip": 16593, "\u2581Schaus": 26693, "EINVAL": 10902, "\u2581Phill": 17083, "\u2581Bh": 18811, "\u2581Negro": 23725, "\u2581popular": 4387, "mode": 4046, "\u2581status": 3425, "resh": 2874, "\u2581Republican": 12294, "\u2581Grad": 17252, "seau": 24554, "\u2581msg": 7070, "ents": 788, "\u2581forming": 20345, "\u2581lawyers": 19731, "ians": 3693, "olt": 8947, "database": 14430, "\u677f": 29561, "\u2581context": 2758, "ailability": 13011, "\u2581compt": 27821, "sb": 4513, "Introduction": 27230, "\u2581bytes": 7597, "upport": 3650, "\u2581programa": 25698, "returns": 7617, "efe": 25922, "\u68ee": 31296, "\u2581gross": 17725, "ulation": 2677, "h\u00f6r": 11730, "\u2581rival": 16564, "xtures": 23049, "\u2581Aug": 3219, "\u2581Sally": 27034, "\u2581destroy": 6665, "orth": 2217, "\u043d\u0435\u043d": 13226, "mina": 28085, "esto": 10631, "iff": 2728, "\u2581long": 1043, "\u2581dv": 21272, "\u2581\u0425": 4724, "\u00c9": 28901, "\u2581detail": 8291, "ichael": 26090, "\u2581Simon": 10590, "\u2581upper": 7280, "rows": 3541, "\u2581guidance": 15988, "CodeAttribute": 23583, "kem": 28281, "Prim": 18888, "\u2581prospects": 26140, "\u2581relevant": 8598, "\u2581send": 4080, "boards": 18256, "inois": 13240, "\u0444\u0438": 4981, "\u03b4": 29158, "\u2581calcul": 4900, "\u2581paying": 9960, "\u2581oldest": 17690, "\u2581Charlie": 13195, "\u0446\u044c": 10105, "\u0c4d": 30865, "\u0436\u0435\u043d\u0438\u044f": 17373, "gs": 2626, "\u2581Crim": 24849, "\u2581temporada": 20030, "\u2581missed": 10012, "\u2581arguments": 6614, "\u2581Following": 13407, "\u0103": 28867, "\u0442\u0443\u0440\u0430": 15337, "\u2581digit": 21656, "\u2581measuring": 24580, "iaz": 25939, "\u2581chaos": 21007, "\u2581Municipal": 25915, "uals": 13073, "\u2581old": 1571, "states": 17631, "\u2581\u041f\u043e\u0441\u043b\u0435": 17759, "ktr": 20412, "\u2581unfortunately": 22014, "Disable": 22497, "codec": 10989, "\u2581cosm": 22482, "\u2581\u0421\u0442\u0430\u043d\u043e\u0432\u043d\u0438\u0448\u0442\u0432\u043e": 21160, "apping": 3925, "\u2581Ang": 3663, "Ne": 6947, "\u6c92": 30931, "\u2581Finn": 19357, "\u2581ign": 4303, "\u2581Relig": 18877, "\u2581gy": 14229, "Dlg": 28097, "worker": 18205, "\u7956": 31499, "\u2581MAC": 23584, "olog\u00eda": 23811, "<0xDB>": 222, "\u2581commission": 10418, "\u2581Personen": 25480, "\u2581introducing": 25618, "journal": 22908, "$}": 15489, "\u2581ate": 15732, "\u2581datasets": 26882, "\u2581member": 4292, "\u2581sequence": 7768, "\u2581Tai": 16118, "ryption": 14071, "\ubbf8": 29967, "ili": 2689, "ypes": 4453, "oker": 11665, "\u2581Julian": 23566, "kamp": 26747, "\u0434\u043d\u043e": 14368, "\u2581crimes": 17440, "ti": 5758, "\u2581Dise": 26782, "pieler": 24854, "\u2581super": 2195, "lij": 13236, "\u064b": 30743, "\u2581gorgeous": 21692, "\u2581plant": 5100, "iral": 10097, "\u2581pr\u00e8s": 26708, "\"": 28739, "\u00f3wn": 16213, "\u2581compelling": 26295, "\u2581THIS": 13624, "\u534f": 30781, "\uc608": 30542, "roduction": 13632, "ielen": 19127, "comput": 21862, "\u2581tie": 14628, "Autowired": 26088, "\u2581*\u00ab": 26811, "\u2581habitants": 19414, "section": 3007, "agon": 4959, "\u2581lead": 1736, "\u2581electrical": 17828, "\u2581\u00e5r": 19430, "\u2581comment": 4517, "ubern": 16940, "ancia": 17322, "\u2581noten": 13358, "ications": 10399, "\u2581\u0432\u0440\u0435\u043c\u044f": 13493, "\u2581pelo": 16432, "\u0434\u0430\u043d": 19872, "\u2581Ot": 12133, "==": 585, "\u2581co": 1001, "ify": 1575, "DT": 13203, "\u8abf": 31404, "\u2581actual": 4695, "descriptor": 17325, "OFFSET": 16562, "\u2581invisible": 20187, "\u2581Francia": 19852, "\u043c\u0435\u043d": 4029, "getText": 20821, "\u2581restriction": 21724, "MAC": 13037, "ism": 1443, "lights": 12918, "asion": 5797, "resume": 24166, "Dictionary": 17798, "\u2581fier": 16307, "parser": 11465, "jQuery": 15442, "nak": 14854, "\u2581celui": 20948, "\u0006": 30314, "AMP": 17558, "\u2581larg": 3201, "\u2581\u017e": 9884, "SUCCESS": 10497, "\u2581picked": 7715, "\u2581land": 2533, "\u2581Secret": 9233, "\u2581volumes": 20535, "bil": 26702, "\u043d\u0438\u043a\u0430": 6990, "\uf0b7": 30659, "\u00ee": 28895, "\u6c99": 30960, "atre": 7195, "\u2581franc": 13004, "coll": 10921, "\u00e6": 28916, "der": 826, "\u0432\u0435\u0434\u0435": 14398, "\u043f\u0430\u0434\u0430": 18489, "\u2581Stage": 22532, "chem": 23164, "AspNetCore": 14141, "\uc57d": 31160, "ellschaft": 20250, "\u2581Oracle": 24698, "\u2581Initialized": 25728, "\u2082": 30202, "gence": 11986, "\u2581Example": 16693, "\uc9f8": 31003, "\u8eab": 29894, "\u2581Alt": 16589, "ifacts": 24639, "\u2581Products": 21061, "\u2581irq": 23747, "\u2581Independ": 23971, "\u2581independent": 7126, "\u2581Fu\u00df": 21309, "\u2581melt": 19542, "uning": 25522, "\u2581Oktober": 17721, "what": 6802, "n\u00e9e": 17969, "Pref": 18108, "\u2581roz": 9335, "uni": 10810, "\u2581um": 3205, "!--": 8567, "inde": 8355, "lections": 4488, "\u2581quote": 13658, "\u2581fiber": 18867, "\u7701": 29670, "+'": 23922, "vr": 11277, "\u043f\u043b\u043e": 23563, "news": 14290, "\u2581(+": 28367, "\u2581Kevin": 13589, "serialize": 18704, "\u904e": 30699, "/%": 22237, ".\"": 611, "\u2581approximate": 27132, "Bank": 25022, "capture": 26609, "\u2581\u0443": 1351, "MENT": 7178, "\u2581Unter": 10952, "\u2581s\u00f3": 25119, "\u2581aut": 1206, "\u2581aspir": 26985, "alph": 18089, "\u2581time": 727, "\u2581assass": 16645, "\u2581Spain": 12567, "hover": 20635, "\u2581forth": 9853, "\u043d\u043e\u0442\u043e": 28337, "\u2584": 30213, "drop": 8347, "Library": 17183, "rown": 3329, "aggi": 24069, "\u2581Campaign": 27003, "callback": 7609, "\u2581si\u0119": 6379, "\u2581Mathemat": 26698, "\u2581sequ": 5331, "\u2581label": 3870, "\u2581Used": 17477, "olic": 7437, "igg": 24706, "\u2581waren": 10744, "draw": 4863, "\u2581discovery": 15043, "\u2581Antonio": 13172, "\u2581beds": 21137, "atinum": 28250, "\u00fcl": 8889, "\u5ef6": 30648, "\u2581Business": 7711, "\u2581material": 3388, "\u5d4c": 31977, "\u2554": 30863, "ellers": 21877, "\u2581walking": 7312, "\u2581Running": 28588, "sc": 824, "\u043b\u044f": 1941, "\u2581Otherwise": 15510, "xit": 28619, "\u53d6": 29012, "\u2581apartment": 9585, ">';": 17021, "notification": 20476, "yles": 5396, "\u2581eran": 20781, "\u00e1ll": 25163, "Dependency": 25816, "\u2581UI": 16324, "\u2581courses": 12318, "\u2581Gran": 12797, "\u2581primera": 14422, "\u2581internation": 17861, "\u2581episode": 9560, "\u2581Au": 9779, "\u2581Release": 19864, "\u2581legacy": 17424, "\u2581\u00e9gal": 12951, "\u2581guard": 6980, "xico": 22138, "imm": 8645, "\u2581\u00eatre": 11983, "ct": 310, "curr": 14032, "OPEN": 20778, "\u0437\u043e\u0432\u0430": 10603, "\u2581Map": 7662, "=\\\"": 9047, "\u2581Ill": 7942, "itched": 14209, "\u2581interview": 5927, "mon": 2640, "\u2581Turkish": 23612, "\u00dd": 31113, "\u2581national": 4282, "lemagne": 27477, "\u6613": 29945, "\u2581Fun": 6785, "OM": 4341, "\u2581Contact": 12603, "\u2581[\\": 26239, "Marker": 19854, "\u2581Airlines": 28415, "\u2581ratings": 21381, "super": 8554, "\u2581Jason": 14877, "\u2581Amaz": 7730, "\u2581objects": 6697, "<|pad_0|>": 32001, "\u2581Comp": 3880, "\u2581meta": 11678, "FULL": 26318, "\u2581celebrated": 20177, "ears": 5940, "\u1eb7": 30681, "\uc6b0": 29687, "\u2581Term": 10764, "antine": 24120, "\u2581Nothing": 11081, "ang": 602, "\u2581contempl": 23010, "\u2581achievement": 22196, "avier": 18695, "cup": 6663, "\u2581manufacturer": 17746, ")_{": 20431, "\u5348": 30296, "\u2581\u0438\u0437\u0432\u0435\u0441\u0442": 21082, "enson": 26205, "}{\\": 3803, "\u2581relate": 21506, "atel": 19256, "\u2581clothing": 13278, "\u0432\u0435\u0442\u0430": 17835, "sigma": 3630, "\u2581sections": 12458, "itaire": 19682, "osta\u0142": 10406, "\u2581percentage": 13822, "ENT": 2431, "\u2581Edit": 12838, "\u2581caract": 21825, "\u00e8tres": 21412, "Share": 24520, "\u7fa4": 30204, "\u5c97": 31983, "?(": 21185, "\u2581stra": 4512, "Keyboard": 27418, "\u3048": 30145, "\u0432\u0438": 1451, "acles": 14395, "saved": 21428, "ribut": 1030, "Dele": 5314, "astro": 19240, "\u2581whole": 2894, "\u2581\u044f\u0432\u043b\u044f\u0435\u0442\u0441\u044f": 23036, "\u2581Devel": 7777, "\u2581chase": 26129, "clean": 11484, "\u2581Honestly": 25530, "\u5e94": 29298, "\u2581bull": 10386, "\u2581bath": 7044, "\u2581permission": 9599, "========": 1647, "\u0441\u043f\u0430": 28531, "unst": 12134, "cookie": 19087, "\u2581arrived": 6792, "<0xB3>": 182, "\u2581theorem": 16980, "\u2581overlap": 26808, "Bytes": 7976, "\u2581Confeder": 22474, "star": 7890, "\u2581About": 7634, "hem": 6981, "Mont": 27654, "\u2581deput": 17928, "\u2581Right": 9554, "\u0431\u0443\u0440\u0433": 21439, "model": 3549, "focus": 12208, "!)": 14280, "\u2581toes": 27504, "\u2581utility": 18936, "\u5141": 30253, "\u795e": 29836, "\u2581Welcome": 19417, "flow": 4356, "win": 5162, "ORK": 13351, "consum": 17125, "emet": 18726, "ionato": 24238, "\u2581Galaxy": 28228, "\u8b66": 30348, "\u2581behaviour": 14006, "override": 23754, "ably": 1907, "\u2581leading": 5374, "ago": 4567, "Verify": 20847, "paren": 18544, "\u2581Austin": 17870, "\u0f44": 31558, "zz": 6748, "\u2581rob": 7006, "Called": 22614, "\u2581Central": 7993, "\u2581listen": 7105, "appen": 25150, "\u2581nonsense": 27077, "ied": 823, "\u2060": 29716, "\u9879": 29541, "\u2581Score": 18528, "instr": 25725, "\u2581Very": 13649, "\u2581newly": 12486, "\u2581wait": 2444, "\u2581living": 3687, "\u2581\u0415": 5612, "\u2581strict": 8113, "\u2581leather": 13508, "\u2581False": 8250, "\u2581expos": 10594, "\u25cb": 31269, "CLK": 14711, "AIN": 18059, "expl": 17788, "\u2581Capt": 9218, "Track": 8493, "BOOL": 27781, "Border": 14943, "\u2581Christ": 2393, "\u2581office": 4007, "\u2581Stad": 4988, "\u2581distances": 24224, "\u2581byte": 7500, "mill": 13134, "\u2581supers": 25666, "\u2581regime": 13357, "\u2581Poss": 19796, "nate": 25134, "\u2581My": 1984, "fur": 26711, "\u00e9rie": 10326, "Repo": 26280, "ere": 397, "l": 28714, "\u2581machine": 5599, "PATH": 9759, "\u2581definitely": 6304, "\u2581Es": 6177, "ANT": 12738, "ipes": 9103, "\u2581strings": 11272, "Tra": 14839, "c\u00e9": 22034, "\u2581Going": 25659, "auge": 25793, "elasticsearch": 28350, "\u529e": 31298, "yal": 11500, "\u0e1c": 30416, "eten": 14478, "\u2581continually": 27388, "\u03b2": 29152, "\u2581noticed": 8295, "tring": 850, "\u2581\u043f\u0435\u0440": 7726, "\u2581Brian": 12569, "\u2581closer": 7887, "\u2581suppliers": 24295, "\u2581ago": 3584, "footer": 18743, "virtual": 16604, "\u2581Storm": 21281, "RENT": 22286, "\u2581Jackie": 28057, "\u2581procedure": 10722, "\u2581rebell": 24980, "<0x25>": 40, "era": 2126, "\u2581veter": 13000, "voir": 18592, "UV": 21326, "ersion": 3240, "\u2581degree": 6153, "\u200e": 29207, "\u2581PK": 28519, "\u2581uncertain": 12518, "<0x1F>": 34, "\u2581enf": 15336, "\u2581Along": 20211, "\u4f60": 29383, "unda": 12664, "\u2581nasty": 26092, "services": 12451, "\u2581depth": 8478, "REQ": 8728, "\u2581d\u00e9but": 19693, "\u2581ESP": 23369, "\u2581Franz": 17672, "\u043b\u044c\u0442\u0430": 16389, "\u2581\u043f\u0435\u0440\u0435": 4978, "ical": 745, "\u2581find": 1300, "unal": 24764, "\u2581Refer": 25958, "\u2581d\u00e9": 2306, "\u96c4": 30875, "annte": 25542, "\u2581Bro": 4168, "peror": 13910, "\u2581nails": 26539, "\u2581summit": 28304, "\u0426": 28928, "\u4e4b": 29332, "\u2581bom": 12793, "\u2581cookie": 17661, "\u2581license": 6801, "irst": 777, "\u2581ArrayList": 11534, ":%": 8210, "FER": 19627, "Document": 7364, "CHANGE": 27005, "\u2581Hist": 4044, "\u2581grandfather": 19300, "\u904b": 31704, "\u2581voy": 15545, "Descriptor": 8482, "ysz": 27713, "ULAR": 12103, "\u2581contributors": 26091, "\ufe0f": 29096, "\u2581terrorist": 25891, "\u2581Parliament": 15490, "sv": 6437, "\u2581thoroughly": 19877, "\u2581steht": 26441, "\u2581Decl": 19066, "\u2581explaining": 20400, "<0x1A>": 29, "\u2581yards": 11107, "\u2581Island": 7633, "\u2581colours": 22137, "\u8f49": 31623, "\u0443\u043d\u043a": 21051, "vi": 5219, "esch": 5289, "\u2581judge": 10737, "\u2581equally": 13387, "\u2581dub": 16050, "ae": 4643, "<0x6D>": 112, "workers": 28256, "imet": 21526, "\u2581sz": 4301, "\u2581repo": 27716, "\u2581create": 2231, "\u5374": 31621, "Metrics": 16755, "\u00f3d": 9666, "\u2581v\u00fd": 15173, "\u2581LED": 19937, "\u00b2": 28941, "space": 3603, "\u2581importance": 9545, "Unable": 24085, "\u03c0": 29030, "\u2581SH": 8604, "Timeout": 8936, "Anim": 14224, "\u2581Like": 5410, "\u05e1": 29469, "\uc554": 31436, "jection": 7183, "\u2581nations": 14913, "\u2581pollution": 27702, "\u4e00\u4e2a": 28518, "po": 2345, "\u2581visiting": 13726, "had": 16449, "\uc5ec": 29827, "\u2581\u043e\u0440": 8973, "Air": 22764, "Arguments": 19024, "\u2581Argentina": 16540, "sun": 19875, "\u2581Schools": 24446, "\u2581applied": 7589, "\u2581rund": 24187, "\u2581poll": 8175, "\u2581Para": 19562, "icide": 12414, "\u03a6": 30349, "\u2581-": 387, "\u2581proposed": 8278, "\u2581Hy": 10540, "owski": 16987, "Creat": 14001, "\u2581realiz": 16403, "FAULT": 6864, "\u2581schema": 12493, "\u2581Marco": 21069, "\u2581Ext": 10145, "ACH": 16522, "\u2581intervals": 24405, "\u2581fract": 24632, "\u2581mines": 25989, "\u2581Candidate": 23459, "\u2581Bat": 13003, "\u2581EXPRESS": 27711, "Drop": 12475, "\u2581honour": 23104, "\u2581crowds": 26674, "\u2581Impact": 27803, "\ub3c4": 29599, "\u2581niet": 14654, "\u2581Poland": 17812, "\u2581appearances": 21190, "\u2581Frederick": 21880, "\u2581father": 3140, "rowser": 5736, "\u2581implemented": 13492, "\u2581\u0441\u043b\u0443\u0436": 26683, "TD": 21339, "\u2581cloud": 6945, "\u2581h\u00e1": 22176, "\u2581wonder": 3383, "\u2581tow": 11201, "\u2581interrupted": 21640, "\u62d2": 31792, "\u2581definit": 4952, "\u2581click": 6046, "\u2581casting": 24668, "\u2581Jew": 5808, "\u8f91": 29815, "\u00e1t": 4566, "gie": 10955, "texture": 20196, "\u2581trailer": 21498, "\u2581dich": 19132, "\u2581teams": 6941, "\u0158": 29420, "\ud45c": 30191, "\u2581determin": 16710, "inode": 9924, "erved": 8065, "_{-": 22729, "\u2581czas": 23906, "\u0440\u0438\u0441\u0442\u043e": 21462, "\u2581Response": 12107, "\u2581confidence": 9843, "\u2581familjen": 11847, "\u04d9": 30141, "<0x9A>": 157, "\u2581success": 2288, "\u2581Jean": 6719, "iments": 8447, "empty": 4977, "\u2581vom": 9322, "\u2581Balt": 17111, "\u2581symmetric": 21030, "\u03bf": 28958, "\u2581wisdom": 16679, "tainment": 19019, "\u2581\u042e": 11396, "\u0442\u0443": 2509, "abled": 2755, "Cart": 17057, "\u526a": 30040, "kal": 16192, "nx": 19736, "\u2581indicate": 11634, "|": 28766, "alie": 26877, "\u2581'": 464, "\u10d7": 29953, "\u2581Leonard": 25298, "phabet": 26311, "\u2581cmd": 8651, "Work": 6058, "\u2581inst": 1140, "icious": 10573, "\u2581breathe": 20445, "\u2581XVI": 23528, "px": 4125, "\u0448\u0435\u043d": 15436, "way": 1128, "\u2581Deb": 10562, "\u2581nurses": 26579, "\u2581lapt": 16925, "\u2581soldier": 15232, "\u2581pam": 26362, "n\u00ed": 3771, "\u9080": 31825, "\u2581fid": 28492, "aho": 24715, "\u2581tops": 27259, "cover": 3649, "\u2581craw": 16217, "\u09c7": 29914, ".....": 24694, "WAR": 9272, "\u7136": 29713, "\u0441\u043f\u0443\u0431\u043b\u0438": 26352, "<0x39>": 60, "\u2581une": 2219, "een": 9995, "\u0441\u043a\u0438\u043c": 17810, "\u8d28": 30625, "uit": 4405, "necessary": 19710, "\u2581sniff": 27098, "\u2581_{": 9518, "\u2642": 29979, "\u8001": 30209, "$^{-": 23596, "\u2581wheat": 28135, "\u2581passing": 9720, "\u2581scientific": 10469, "\u2581organized": 12425, "\ud3b8": 31630, "\u2581identifying": 21653, "man": 1294, "\u2581comprehens": 12957, "pause": 26431, "\u2581Cover": 16881, "pon": 766, "\u2581Sach": 23447, "\u2581GEN": 25778, "\u2581corporation": 27750, "\u2581alpha": 15927, "\u84dd": 31084, "\u66fe": 31676, "Pers": 13603, "itime": 26843, "\u2581groups": 4938, "),": 557, "\u2581leadership": 9802, "Currency": 27768, "THER": 11948, "\u2581~=": 28515, "\ub123": 31550, "orial": 8525, "\u2581PDF": 18520, "CHECK": 8856, "\u2581perm": 4069, "\u2581figure": 5248, "help": 11538, "riages": 28347, "\u9078": 30045, "\u2581\u0448": 5486, "\u9488": 30373, "\u2581\u00a7": 25585, "\u2581recall": 8596, "show": 4888, "\u2581PM": 9632, "\u2581placed": 6838, "Save": 11343, "\u2581Aw": 21960, "\u2581extracted": 25081, "\u2581agents": 11767, "cedes": 23111, "umpy": 14196, "\u2581pulls": 25484, "\u2581Gemeinde": 15496, "\u2581gouvernement": 27125, "pond": 19571, "\u2581By": 2463, "\u2581Think": 15403, "\u2581Vict": 6968, "\u2581Johannes": 22355, "\u2581missing": 6925, "Override": 3398, "\u2581convey": 18887, "\u2581\u043a\u043e\u043d": 6361, "hos": 22848, "\u8054": 29821, "cca": 14698, "<=": 25796, "\u2581effective": 5645, "\u79f0": 29377, "por": 2006, "\u2581mant": 14201, "onen": 25893, "<0xAC>": 175, "\u015a": 29009, "\u2581Australia": 6664, "Long": 7468, "\u2581ASS": 8602, "\u2581\u041f\u0440\u043e": 12119, "lower": 13441, "Threshold": 26436, "\u2581mx": 26800, "\u2581serie": 11577, "\u30de": 29685, "rior": 6654, "Suppress": 22229, "\u0f53": 31847, "\u2581channel": 5866, "Az": 13230, "\u2581Mail": 19227, "iana": 5127, "\u2581fragment": 13693, "\u2581Titel": 23358, "border": 11941, "\u5220": 29327, "\u2581\u0444\u0438": 8456, "\u2581suspic": 13510, "\u2581aside": 10276, "\u0441\u0442\u044b": 20495, "\u2581Date": 5491, "\u2581\u0440\u0430\u0434\u0438": 23352, "\u2581hearing": 9788, "\u2581wyst": 23196, "\u2581backend": 24327, "\u2581mount": 4766, "\u2581lub": 20157, "\u2581Lam": 17018, "quest": 6911, "\u2581gu": 1111, "\u2581rage": 19490, "\u2581Wilson": 11421, "=>": 4929, "\u2581Until": 17703, "rices": 17783, "\u2581stomach": 11752, "\u2581nevertheless": 25457, "\u2581rain": 7296, "emit": 12265, "\u4e49": 29476, "\u2581pilots": 27109, "}/": 5865, "\u2581tiles": 24903, "\u836f": 31793, "\u2581Tag": 12996, "\u8bad": 31154, "codegen": 20686, "\u967d": 31354, "called": 11565, "\u2581Requ": 7251, "\u2581\u0430\u043c\u0435\u0440\u0438\u043a\u0430\u043d": 21791, "MF": 24721, "Listeners": 28523, "\u2581accord": 13246, "eph": 27140, "\u2581raises": 26721, "\u2581Didn": 27326, "\u2581sk": 1321, "\u5e03": 29802, "\u0440\u044b": 4092, "emperaturen": 26292, "oir": 7236, "\u2581generous": 20161, "\u2581terr": 4462, "\u3067": 29230, "iciency": 9375, "\u865a": 31415, "POINT": 21085, "acter": 2441, "Te": 8946, "\u2581resid": 12899, "\u2581employ": 3263, "\u2581costs": 6966, "\u0b9f": 30251, "\u2581\u043f\u0440\u043e\u0446\u0435": 23146, "\u2581hous": 5995, "\u60a8": 29689, "\u2581\u0441\u0432\u043e": 6278, "\u2581andra": 26622, "\u2581\u043e\u043d": 10640, "\u2581refres": 24343, "\u2581chapters": 25310, "\u2581forum": 21516, "\u2581vintage": 28465, "\u2581[": 733, "atting": 14758, "\u2581inhib": 22358, "\u09c1": 30408, "\u2581franch": 16838, "\u2581responsible": 7332, "\u2581guilty": 14227, "\u2581gathering": 17243, "dentry": 28513, "\u7167": 30131, "\u043b\u0438\u043d\u0430": 23067, "Mar": 7308, "\u2581notamment": 20192, "\u2581which": 690, "gebiet": 20794, "sn": 6713, "green": 13234, "\u2581\u0441\u0435\u0437\u043e": 21394, "\u2581march": 11853, "\u2581autonom": 25009, "\u2581released": 5242, "\ubc00": 31192, "packed": 26713, "\u57ce": 29727, "\u2581Pier": 9101, "\u2581satell": 17345, "\u2581Olymp": 8562, "\u2581sulla": 20987, "Fr": 2642, "\u2581wis": 14729, "href": 16558, "Os": 23547, "\u2581comparing": 21400, "\u2581buried": 14228, "\u2581born": 5381, "ark": 719, "\u2581attach": 16366, "\u2581Cleveland": 21920, "Autow": 25789, "\u2581Son": 7179, "\u2581invoked": 26377, "-%": 23962, "umn": 1786, "\u0563": 31305, "Primary": 17766, "Cop": 28044, "\u2581crossing": 17076, "\u2581major": 3014, "to": 532, "\u2581institutions": 12638, "connector": 23995, "\u00e4chst": 22342, "ye": 7187, "itemize": 14287, "\u6e29": 30971, "\u2581threats": 19843, "\u2581great": 1598, "\u2581Video": 12273, "\uc5b8": 30856, "score": 11831, "\u2581preference": 21448, "\u2581recib": 25472, "\u2581banking": 22265, "\u2581'<": 9648, "erves": 20433, "\u2581Crit": 16773, "As": 2198, "\u2581economic": 6638, "state": 2027, "\u2581GPS": 27571, "this": 894, "field": 2222, "Am": 7118, "\u2581transit": 25593, "\u6c42": 29243, "),\r": 23486, "\u2581bench": 11984, "\u2581della": 3503, "aglia": 25413, "POL": 21411, "\u043a\u0430\u043c\u0438": 21237, "\u2581pleased": 12846, "Iter": 8135, "UE": 3027, "\u2581institution": 16854, "\u0442\u043e\u0433\u043e": 20725, "\u2581removal": 17078, "\u7403": 30211, "stdout": 25080, "\u2581jour": 3835, "unted": 15227, "\u2581Hend": 18588, "ivot": 18807, "\u2581toutes": 25386, "\u2581companies": 4799, "iday": 5036, "Serialization": 21046, "\u2581immediately": 5347, "\u0686": 30066, "\u043a\u0430\u0434\u0435": 21159, "LOW": 9630, "oud": 2456, "\"));": 5341, "\u2581an": 396, "\u2581drift": 18101, "\u2581XII": 27811, "\u2581stell": 14062, "\u2581damage": 6544, "\u2581AU": 27963, "\u5bc4": 31777, "ilis": 26543, "cular": 12723, "\u00fb": 28951, "make": 6539, "\u4e5d": 30807, "\u2581Ol": 7012, "acher": 10333, "-\\": 3137, "pattern": 12392, "\u043c\u0430\u0442": 23918, "resource": 5676, "\u2581jours": 25662, "\u53c9": 31304, "\u2581Ir": 4747, "anged": 4185, "neath": 20316, "Sprintf": 20625, "\u2581Pont": 19745, "SRC": 27145, "\u2581published": 4775, "\u6838": 30080, "\u2581ties": 20748, "\u2581think": 1073, "invoke": 21658, "\u2581cage": 25807, "\u0e1d": 31620, "\ud83c\uddf8": 31818, "\u2581God": 2499, "\u2581fueron": 18482, "\u0119\u017c": 28453, "Fi": 12705, "eq": 1673, "erve": 5803, "UTF": 14106, "\u2581Robin": 18486, "\u2581puls": 26691, "\u09a1": 31388, "\u2581Private": 14363, "\u2581contains": 5876, "aws": 6195, "mile": 23881, "\u2581Charlotte": 16461, "constant": 16974, "\u2581\u017ee": 23374, "ytics": 18717, "\u2581rail": 8314, "\u2581proportion": 19938, "trfs": 26969, "ByName": 23177, "\u2581onChange": 27530, "\u2581crypto": 21066, "Toggle": 20464, "\u2581SSL": 20669, "Slot": 15457, "\u2581author": 3227, "\u2581webs": 3738, "\u2581pride": 14384, "\u826f": 30868, "ieri": 20048, "bean": 16504, "\u201a": 29290, "\u0281": 30024, "}\\": 1137, "intendo": 25467, "asma": 21299, "\u102d": 31321, "\u2581occurring": 28265, "templates": 28179, "\u043b\u0435\u043c": 16669, "\u2581fancy": 19602, "\u2581blob": 25828, "return": 807, "\u2581Lew": 10860, "smithy": 23512, "\u2116": 28986, "nel": 8062, "\u0432\u0430\u043b\u0438": 9919, "\u73e0": 31845, "\u2581ple": 4031, "\u2581Nord": 8402, "nu": 3556, "\u2581interpret": 7190, "\u2581painting": 11514, "east": 24294, "oz": 3711, "NEW": 19917, "uniform": 26786, "\u539f": 29493, "ject": 664, "UTE": 13401, "\u1000": 31158, "\u2581More": 3764, "\u09a6": 30870, "\u2581Liga": 19547, "\u2581\u0438\u044e\u043b\u044f": 26076, "\u2581student": 5716, "lyn": 12998, "\u670d": 29430, "<0xD6>": 217, "\u2581data": 1178, "\u2581CC": 16900, "\u2581Arab": 9111, "\u2581python": 21966, "\ud0dc": 30533, "\u4e89": 31727, "\u2581runner": 22125, "\u2044": 29484, "\u2581processing": 9457, "facebook": 23744, "\u6389": 30527, "\u0441\u043a\u0438\u0439": 4704, "asto": 26041, "\u2581Ty": 10084, "\u2581Entry": 23256, "\u2581trick": 10777, "\u045b\u0435": 25464, "\u2581\u0434\u0440\u0443\u0433\u0438": 14365, "\u2581\u0413\u0435\u0440": 21460, "\u2581containing": 8707, "stra\u00dfe": 20134, "\u2581fascinating": 23069, "\u2581fixed": 6321, "Reflection": 24633, "\u0441": 28788, "Quest": 14929, "\u2581Braz": 11863, "]": 28793, "\u2581medical": 5714, "\u2581without": 1671, "\u2581Kre": 13326, "\u2581scream": 8933, "\u5c31": 29379, "WE": 6631, "\u2581cats": 18097, "RT": 7042, "\uac12": 29755, "\u2581problems": 4418, "liver": 16342, "\ubb34": 30449, "\u2581Call": 5529, "Round": 22483, "\u2581Ry": 15971, "Owner": 15431, "day": 1466, "\u2581Io": 25445, "\u2581suggestion": 19368, "Lang": 22323, "\u2581proper": 4979, "yo": 12141, "\u2581Vector": 11650, "poly": 20788, "\u2581conservative": 16038, "\u2581\"--": 19052, "Entries": 21222, "\u2581takes": 4347, "\u2581dr": 1605, "PB": 27982, "\u043f": 28807, "earch": 3625, "oustic": 27621, "claimer": 20032, "chestr": 26844, "\u500b": 30070, "\u2581pip": 25416, "ention": 2148, "\u2581apartments": 28123, "attice": 16003, "\u2581TO": 6991, "\u2581BBC": 16309, "\u2581defeat": 15286, "mat": 3076, "effect": 9846, "ugg": 23065, "ici\u00f3": 23840, "\u2581tiene": 16262, "set": 673, "\u2581Raw": 20165, "\u2581encourage": 12829, "\uc2b5": 29570, "\u2581southern": 12227, "<0x51>": 84, "\u2581\u0441\u0435": 2310, "<0x2E>": 49, "\u00e9ny": 19600, "\u2581kont": 21674, "\u2581vacc": 10980, "\u2581responsibility": 9680, "\u2581restaur": 6438, "\u2581discussing": 20633, "ass": 489, "\u2581however": 3545, "\u17bc": 31441, "\u2581fell": 5970, "\u00e2teau": 22487, "\u2581DI": 12751, "\u010f": 29365, "\u0442\u0435\u0440\u0438": 14187, "\u0109": 31962, "mil": 22626, "\u2581cash": 7877, "\u2581patches": 26961, "\u2581];": 11890, "\u2581Flag": 25156, "\u2581approaches": 13945, "getInt": 27976, "execute": 11095, "App": 3114, "\u2581Assert": 7360, "\u2581Catholic": 11377, "\u2581\u0446\u0438": 18950, "=[": 12303, "\u9633": 30230, "\u2581PARTICULAR": 13094, "\u2581commun": 1960, "apol": 14095, "m\u00eame": 26333, "ply": 3043, "\u2581Port": 4194, "\u2581clearly": 6315, "\u2581survivors": 25741, "+\\": 3767, "\u6e21": 31512, "\u2581Hel": 5424, "Associ": 21515, "\u2581Samsung": 26845, "Mod": 1701, "\u2581reaching": 13323, "\u2581College": 6136, "STRU": 19199, "amine": 21928, "\u2581\u041a\u0440\u0430": 17451, "\u2581Jord": 12116, "essions": 8642, "\u82f1": 30193, "\u2581autom": 4607, "\u2581fruit": 10607, "\u2581unconscious": 21580, "\u2581pure": 7972, "\u2030": 30412, "endo": 4722, "Controller": 5733, "ched": 1572, "\u2581MC": 16416, "\u0440\u044a": 17056, "\u00fcng": 22572, "\u2581\u043f\u0440\u043e\u0435": 23249, "\u2581Ek": 27659, "\u2581abortion": 22907, "\u043c\u043e\u043d": 21866, "\u2581terror": 9107, "\u2581stability": 16137, "\u2581\u043f\u043e\u043b\u0438": 16426, "\u2581Nr": 25108, "unk": 2060, "\u2581WITHOUT": 8292, "\u2581Slov": 27347, "\u2581Generation": 26802, "yd": 3389, "\u2581compatible": 17696, "<0x88>": 139, "\u2581nine": 9542, "\u2581bc": 27547, "ows": 3611, "onders": 18758, "\u2581Arr": 20037, "\u9898": 29264, "ching": 11097, "\u2581denied": 16703, "\u2581\u00bf": 18297, "\u2581passenger": 18990, "\u2581talented": 21712, "\u2581cars": 8300, "\u2581producer": 13876, "\u2581mul": 18013, "newcommand": 20570, "\u2581Virgin": 8471, "skill": 26676, "\u2581Vert": 21970, "\u2581hors": 10691, "\u2581Google": 6182, "crypto": 23614, "uint": 3577, "\u0441\u0441\u0435": 21986, "\u2581cycl": 14211, "\u2581since": 1854, "\u2581traveling": 16071, "\u2581rc": 8921, "\u2581foi": 7644, "rdev": 23338, "\u10e0": 29449, "\u2581matrix": 7111, "pared": 21997, "\u2581miracle": 27569, "\u2581Jonathan": 16656, "\u2581categ": 8510, "\u00e8ce": 20456, "\u2581pant": 19404, "models": 8676, "\u2581unique": 4842, "\u2581automatic": 16337, "\u4e2a": 28995, "\u2581disappeared": 14746, "amarin": 25174, "\u2581embarrass": 13648, "\u2581Liver": 18432, "\u00f8": 28911, "crit": 12724, "\uad70": 31672, "\u2581barriers": 27222, "\u2581Bern": 7562, "\u2581discussions": 18382, "egy": 25375, "^{-": 3918, "gn": 4206, "\u2581lose": 6788, "\u2581instruct": 12317, "SING": 22835, "\u2581tires": 25966, "\u4e0a": 29054, "setminus": 19847, "<0xB8>": 187, "\u2581perfectly": 9943, "\u2581DEBUG": 15383, "\u0441\u0442\u0432\u0435\u043d\u043d\u043e\u0439": 25166, "\u2581Jud": 7404, "\ucc38": 31459, "pet": 6193, "pping": 7319, "\u2581Storage": 18857, "\u2581liability": 22581, "terra": 26138, "Line": 4010, "\u043d\u0435\u0435": 21083, "acia": 12990, "\u6beb": 31331, "\u2581assets": 12858, "\u2581Maria": 8866, "\u2581compact": 12424, "eta": 1632, "isch": 3143, "\u2581aan": 6456, "\u2581ceremon": 24840, "\u2581\u043c\u0435": 4055, "\u2581idiot": 22870, "\u4efd": 30090, "lc": 24228, "\u2581Park": 4120, "bell": 10027, "inson": 11827, "\u2581Myst": 22737, "\u2581profess": 3778, "\u2581tact": 12529, ",$": 13948, "\u2581Broadway": 24331, "\u907f": 31059, "ounge": 24346, "\u00e4hrend": 14934, "icing": 9065, "ity": 472, "anguage": 2797, "Iss": 21525, "paper": 19521, "\u2581Okay": 19811, "fprintf": 23833, "Paint": 22795, "\u2581gef": 17241, "\u2581sf": 22552, "\u00dc": 28961, "\u2581dort": 19187, "ammed": 13555, "\u2581Mini": 24785, "},\r": 17695, "\u51cf": 30608, "\u2581stunning": 20497, "\u2581Anton": 8999, "\u2581credentials": 21429, "\u2581OR": 3994, "isle": 24468, "\u2581Flash": 25164, "\u0441\u044c\u043a\u043e\u0433\u043e": 10120, "\u2581shop": 5126, "\u2581arom": 26835, "\u2581reprodu": 12487, "\u0433": 28810, "\u955c": 31555, "\u2581Base": 7564, "fulness": 19965, "\u2581temple": 14842, "\u028b": 31633, "\u2581sect": 23863, "\u2581Herz": 22026, "\u2581je": 2218, "Equal": 4283, "\u2581makes": 2870, "bast": 15174, "ph": 721, "\u2581Bel": 4583, "Version": 4841, "\u2581Karen": 20220, "\u2581permanent": 13089, "\u2581Were": 25020, "\u2581titre": 20360, "\u2581minor": 7626, "\u2581mask": 5934, "\u2581jur": 12310, "DateTime": 11632, "ocks": 7712, "Debug": 7156, "\u0f72": 31375, "\u2581clin": 8837, "umps": 10575, "train": 13641, "\u2581propaganda": 24010, "\u2581Eventually": 20825, "\u2581r\u00e9": 3264, "\u2581sustain": 11755, "\u2581Mis": 21297, "\u2581suit": 8040, "\u2581logs": 22898, "\u7fa9": 30673, "ovo": 10356, "SSL": 14330, "\u2581SF": 21890, "\u2581ihr": 11893, "},\\": 7472, "pts": 10730, "\u2581conven": 8818, "lette": 18061, "\u043c\u0438\u0440\u0430": 23797, "\u2581c\u00e9l": 28596, "\u2581beer": 11102, "ethe": 13334, "\u2581per": 660, "\u2581modifications": 26470, "\u2581awful": 15340, "\u2581worth": 4407, "\u2581muttered": 22600, "vare": 5869, "VP": 18246, "Priv": 22548, "\u0432\u044b": 5089, "\u2581+\\": 16473, "share": 16864, "\u2581pd": 17479, "Self": 13547, "apeut": 25334, "\u2581Tal": 10677, "Will": 12695, "\u2581\u0411\u0438\u043e\u0433\u0440\u0430\u0444\u0438\u044f": 25097, "\u811a": 30646, "\u2581complaint": 22105, "La": 5798, "\u2581siglo": 22017, "\uc2dc": 29236, "irmed": 8945, "\u0437\u0432\u0430": 10246, "warz": 25718, "CCESS": 9476, "\u2581decides": 24928, "\u2581caps": 17294, "\u2581bg": 20239, "\u2581Russia": 8433, "\u2581ainsi": 13255, "trag": 18820, "abile": 28573, "cel": 4070, "\u0ccd": 30406, "\u2581prototype": 25192, "\u2581sustained": 25859, "\u2581Spec": 5583, "\u2581();": 16349, "ract": 1836, "\u2581watch": 3054, "OPT": 17954, "\u2581references": 14145, "\u2581USB": 11588, "\u2581decom": 18626, "\u2581Theod": 22704, "\u2581patent": 23445, "\u2581Tall": 24901, "\u2581tribe": 25315, "\u2581tout": 8466, "cp": 4743, "\u2581deliver": 5663, "rag": 14806, "ona": 3748, "\u043b\u043b\u0435": 16832, "\u2581incorporated": 23799, "\u9ad8": 29366, "\u2503": 30663, "\u7acb": 29831, "\u043a\u0430\u0445": 15274, "\u2581correspon": 4408, "abstract": 15474, "\u2581Family": 10712, "\u2581Having": 11682, "\u2581\u043e\u0431\u0449\u0435": 18556, "ol\u00f3g": 23552, "phan": 19058, "\u2581grandmother": 19023, "Typed": 22646, "jer": 18900, "etic": 10362, "\u2581run": 1482, "\u2581Court": 6924, "\u2581daily": 6790, "\u2581}{": 26528, "\u2581aapt": 13130, "FEATURE": 23578, "\u2581charge": 5685, "\u2581'@": 8319, "\u2581falling": 10931, "\u2581seeking": 11246, "\u2581Buy": 14824, "Asset": 16328, "sko": 21821, "\u2581capital": 5565, "\u2581\u0404": 22514, "\u2581Anim": 27295, "EMPTY": 28138, "<0x91>": 148, "python": 17667, "\u2581pushing": 13884, "\u043d\u044b\u0439": 4086, "ployed": 28246, "Empty": 6027, "\u53f7": 29170, "\u5167": 31157, ")^{-": 22816, "Mult": 7180, "\u2581inferior": 24797, "\u2581Energy": 14270, "lam": 5989, "]\\": 11695, "\u2581Games": 12339, "\u042b": 30584, "\u2581Comb": 19422, "mutable": 13882, "SUPPORT": 17343, "\u2581von": 1808, "\u4ef7": 29970, "\u2581facility": 12671, "\u2581optical": 19028, "\u2581signific": 3753, "issement": 18333, "Protocol": 11726, "\u2581PORT": 23974, "\u2581\u0438": 839, "\u09a4": 30393, "\u2581arriv": 4266, "non": 4581, "Con": 856, "\u2581trav": 6834, "SYS": 18741, "\u2581Fortunately": 26642, "\u2581Tip": 22420, "$;": 24912, "emp": 3938, "\u2581polynom": 17077, "club": 25169, "istic": 3320, "Pay": 9602, "\u2581beside": 9439, "\u2581\u043a\u043e\u043c\u0438": 28317, "\u0cbe": 31026, "\u2581Angela": 26991, "\u2592": 30161, "redu": 12059, "ine": 473, "\u2581Liz": 24044, "\u043c\u0435": 2084, "Sink": 25512, "contents": 15931, "\u2581violence": 9165, "\u2581scratch": 15147, "\u2581disability": 25822, "\u2581federal": 8432, "encoding": 17958, "ABLE": 4327, "\u2581res": 605, "\u2581reducing": 17032, "\u2581union": 10784, "\u2581titolo": 21266, "\u2581finale": 13163, "\u2581operates": 24015, "Title": 7522, "hood": 5079, "scripts": 23931, "\u30ef": 30455, "\u2581Franklin": 15181, "}_{": 3145, "tu": 17512, "\u2581abort": 13515, "\u2581extraord": 14577, "\u2581pool": 6313, "WID": 19335, "\u2581mamm": 27454, "\u2581half": 2795, "\u2581Bas": 6827, "\u2581load": 3442, "\u2581Claude": 26836, "Cond": 8822, ":_": 19746, "hour": 13785, "toire": 24502, "heng": 28550, "\u2581ethnic": 18433, "\u2581Ca": 11013, "\u2581Safe": 24092, "log": 1582, "\u2581until": 1996, "imos": 23695, "nych": 10317, "\u2581experi": 4578, "etti": 15275, "rote": 4239, "\u0432\u0430\u043d\u043d\u044f": 12267, "imit": 8381, "variables": 24227, "\u2581emperor": 25948, "icate": 5749, "\u2581prot": 18696, "\u043e\u043d\u0430\u043b\u044c": 11954, "xp": 28315, "\u2581dentro": 24219, "\u2581products": 4076, "\u4f0a": 30873, "inkle": 26630, "media": 9660, "\u4e50": 30488, "airs": 3379, "\u2581Wells": 26290, "jav": 13314, "\u2581luck": 6576, "inging": 24831, "psilon": 6000, "\u2581Duke": 15619, "Red": 7516, "\u021ba": 25814, "\u2581Sebast": 18935, "\u2581\u043c\u0430\u0440": 13427, "\u518d": 29740, "HTTP": 12528, "\u043a\u043b\u044e": 12702, "\u2581mod": 968, "ueva": 22400, "\u2581Kay": 17399, "\ub610": 31292, "\u2581Adams": 17079, "\u2581pre": 710, "\u2581Imm": 25555, "\u2581J": 475, "drive": 26725, "\u2208": 30751, "\u2581Char": 4348, "\u043d\u0430\u0434": 20982, "\u2581marijuana": 28192, "\u2581frustrated": 25511, "\u2581vier": 14304, "hyper": 23348, "operations": 25488, "perty": 1612, "disable": 9613, "opl": 13317, "\u2581Ja": 15789, "\u2581\u0431\u0456": 23112, "fast": 6985, "pull": 23066, "\u2581won": 1747, "ulu": 20366, "edly": 12395, "<0x0D>": 16, "\u2581motivation": 21594, "\ub974": 31091, "\u2581fought": 12589, "\u2581trained": 10898, "\u2581squeez": 19559, "ZZ": 26212, "\u767e": 30421, "ls": 4911, "stock": 16471, "Code": 2540, "(\"/": 9933, "\u2581darkness": 11691, "\u0144sk": 12447, "\u2581cele": 5207, "\u2581Render": 23752, "\u2581Observable": 27572, "\u5e26": 30197, "\ub3cc": 31597, "\u2581\u0440\u043e\u0437": 9355, "br": 1473, "\u2581DVD": 15830, "\u2581ore": 14712, "Surface": 18436, "atory": 5377, "\u2581glanced": 11770, "\u2581optim": 6997, "\u2581gig": 13790, "\u2206": 31037, "\u2581detailed": 10537, "\u2581WIN": 25688, "\u2581kicking": 28642, "MB": 5953, "\u8a08": 30629, "\u2581Love": 7481, "\u2581stages": 15360, "\u2581Appro": 20047, "ah": 912, "\u2581Process": 10705, "comments": 16238, "Statistics": 27478, "\u2581equivalent": 9844, "\u2581incident": 10824, "\u2581grap": 27532, "Attributes": 9956, "\u0e28": 30859, "inf": 8879, "\u2581Easter": 26402, "\u2581commut": 24659, "acious": 17292, "orsch": 18952, "*{": 21599, "\u2581einen": 7897, "\u2581Dow": 20271, "then": 5863, "\u2581mechanisms": 23400, "\u2581presentation": 14909, "drv": 15555, "\\{": 11873, "\u2581Guide": 14555, "\u2581unlock": 15430, "\u2581Sol": 6849, "\u6837": 29675, "ibr": 2792, "\u2581engineering": 13320, "\u2581concern": 4368, "\u2581operating": 10513, "anche": 14455, "irts": 9338, "kte": 17028, "empl": 2713, "Copyright": 20505, "\u101b": 31808, "Download": 20454, "\u2581whatever": 5681, "\u2581mist": 5710, "fortunately": 9592, "Id": 1018, "Structure": 20897, "\u2581cow": 12072, "\u6c49": 30688, "\u2581bits": 9356, "\u2581thro": 8379, "\u2581Hard": 9708, "Required": 10135, "\u2581weak": 6334, "\u2581\u0438\u043d": 8257, "\u2581remains": 7520, "\u83dc": 30038, "rant": 6804, "\u2581flush": 19329, "\u2581quatre": 19419, "\u2581Develop": 8587, "\u2581Estados": 16737, "\u2581witch": 23816, "ASS": 4816, "CG": 19354, "\u2581\u0441\u043c\u0435\u0440": 28271, "neut": 23806, "\u2581Hav": 23780, "\u2581Shell": 28612, "\u2581journey": 8123, "\u2581\u043a\u0440\u0430": 10075, "steps": 16005, "\u2581Natal": 23675, "\uc694": 29517, "\u2581td": 28272, "ifferent": 15791, "\u2581democratic": 22303, "\u2581provides": 5312, "appy": 9813, "\ubca4": 31852, "\"\r": 11525, "\u2581YouTube": 14910, "Matrix": 10701, "\u53cd": 30004, "\u2581Hur": 15697, "omr\u00e5": 24287, "\u2581\u0438\u044e\u043d\u044f": 26825, "\u2581certainly": 5785, "\u062d": 29100, "\u2581Document": 14873, ").": 609, "\u2581chopped": 28393, "\u2581O": 451, "\u2581pier": 10833, "\u2581installation": 14843, "\u2581carried": 7158, "\u2581island": 8919, "\u2581adj": 11433, "hdd": 21330, "aci": 13114, "\u0159\u00ed": 9528, "bat": 8682, "PER": 6512, "itute": 5817, "\u2581executive": 12212, "reference": 14772, "\u2581\u041b\u0438": 11946, "\u2581Brown": 8364, "\u0430\u043b\u0438": 17816, "\u2581camps": 18497, "\u2581tube": 17735, "\u2581limit": 3607, "\u2581night": 2125, "\u2581circuit": 15306, "ribute": 1983, "<0xD4>": 215, "\u2581Gilbert": 26774, "\u4f55": 29984, "\uff0d": 31140, "hest": 6426, "\u2581Lyn": 15975, "dx": 12576, "\u2581borrow": 14219, "?'": 3725, "\u2581pixel": 18012, "\u2581membership": 14796, "herent": 21891, "\u2581trunc": 23832, "MAIL": 28297, "\u2581network": 3681, "\u2581beat": 8239, "\u2581bowl": 13494, "\u2581keen": 20005, "------": 18697, "NEL": 19014, "\u2581gaining": 25221, "\u2551": 30019, "\u2581sectors": 23014, "snap": 26597, "Disabled": 21258, "\u2581Artist": 27055, "\u2581ann": 2232, "pci": 18929, "\u2581Ter": 7163, "edges": 26783, "third": 16507, ".\\": 5923, "\u2581importante": 19538, "\u2581defens": 26479, "\u2581Unlike": 17383, "\u2581ve": 1773, "\u2581metadata": 11214, "mar": 3479, "zeichnet": 18153, "\u2581forest": 8613, "Equ": 2702, "\u2581Cz": 23172, "\u2581Lan": 21992, "iy": 11672, "Backup": 27449, "\u8d5b": 31281, "faces": 9288, "\u0581": 31440, "\u2581Songs": 28647, "inski": 27387, "azy": 13478, "\u0621": 30052, "\u2581ras": 28104, "\u73af": 29887, "\u7121": 30113, "\u00e9t\u00e9": 12329, "\ud83d\ude09": 29814, "WORD": 10993, "\u2581through": 1059, "...,": 25272, "Android": 15225, "\u2581sen": 5351, "\u2581voices": 14549, "iene": 6863, "Inf": 20417, "\u2581\u0444\u0438\u043b\u044c": 21454, "\u2581esc": 3431, "\u2581Ontario": 18572, "Rob": 22268, "ez": 5620, "<0x7C>": 127, "omena": 26504, "\ud83d\udfe1": 30770, "mysql": 20235, "Require": 22975, "\u2581spell": 13050, ":\"": 4825, "chron": 8416, "\u2581boss": 10949, "iffs": 17820, "\u00e4t": 5291, "\u2581vit": 11781, "\u2581\u043d\u0435\u0433\u043e": 22510, "\u601d": 30450, "\u2581definitions": 20343, "rad": 4306, "tele": 18720, "mys": 14576, "breaking": 25924, "\u7d44": 31043, "solete": 28273, "ors": 734, "\u2581Review": 8349, "XR": 23576, "\u179b": 30964, "\u2581veterans": 28041, "\u2581Cop": 9321, "bot": 10093, "OL": 3064, "\u0440\u0435\u043c\u0435\u043d": 20546, "\u2581\u0433\u043e\u0440\u043e\u0434\u0430": 22316, "\u30a8": 29795, "\u2581communication": 8520, "orsz": 21585, "\u2581master": 5968, "tern": 974, "eb": 1169, "\u2581specific": 2948, "\u2581\"</": 23616, "3": 28770, "ed": 286, "\u2581skull": 21181, "bye": 17664, "\u2581involving": 14971, "\u0431\u043e\u0440\u0430": 27788, "\u2581multi": 6079, "\u0636": 29623, "\u2581Ple": 23436, "\u25c6": 31237, "rypto": 10690, "\u2581Films": 28243, "Need": 22829, "Assembly": 25617, "<0x94>": 151, "\u2581share": 4098, "Sk": 9150, "enger": 9243, "(\"[": 16848, "\u2581enc": 2524, "\u2581red": 2760, "\u2581remaining": 8409, "\u2581Meter": 26673, "\u093f": 29554, "\u793c": 31195, "Okay": 16488, "\u2581List": 3231, "fish": 16483, "\u2581\u201d": 23264, "\u0442\u0435\u043b\u044c": 4446, "\u2581constant": 5957, "\u0431\u043e": 2290, "ste": 2453, "\u0623": 29388, "\u2581opponents": 23293, "\u5149": 29762, "\u2581emergency": 11843, "routes": 26016, "\u2581uid": 26975, "\uc2ed": 31202, "\u00e4ger": 26252, "\u2581East": 5691, "vma": 22383, "\u2581tomorrow": 10759, "\u2581werd": 7680, "\u2581satisfy": 15836, "\u2581Rub": 12178, "\u043b\u044e": 4438, "yl": 2951, "Report": 10493, "Suite": 25138, "'].": 14303, "\u2581justified": 27366, "anch": 3583, "akter": 24282, "\u2581speed": 4975, "abi": 16075, "che": 631, "Less": 28360, "\u2581farm": 6354, "\u2581regularly": 12274, "\u2581Isabel": 21274, "\u2581typing": 24692, "\u2581da": 1866, "ourses": 26401, "\u2581Columbia": 14402, "attach": 16689, "Dispatch": 15844, "\u2581truth": 5307, "\uacbd": 29653, "Bound": 13100, "\u2581expense": 19475, "\u2581tried": 3851, "\\\"": 4883, "\u2581quasi": 19339, "\u2581aston": 21011, "ania": 4877, "\u2581stupid": 8710, "allen": 24878, "\u2581stake": 15790, "\u2581Sets": 16757, "\u2581def": 801, "\u2581Hoch": 19202, "\u5b5d": 31907, "oute": 3241, "sz": 5027, "ering": 2131, "\u521a": 31319, "\u2581cope": 27626, "_);": 13400, "\u2581Captain": 11410, "\u0446\u0456\u044f": 17263, "\u2581discovered": 8324, "\u2581\u00e9taient": 24572, "\u0e31": 29378, "\u2581presid": 23790, "\u2581Switzerland": 22491, "\u2581*": 398, "\u600e": 31401, "\u4e3d": 31625, "ire": 536, "anta": 9092, "Ac": 9475, "\u2581moder": 11323, "\u0437": 28812, "\u8fed": 31820, "\u2581photographer": 24159, "\u2581Community": 11027, "prise": 9266, "\u2581Alabama": 20339, "\u514d": 30596, "Compiler": 17771, "\u2581Universe": 27131, "zi": 4295, "\u2581identical": 15792, "\u2581Alban": 26037, "onio": 23571, "\u2581wieder": 13125, "\u2581correlation": 17301, "mother": 13710, "\u2581Linked": 22675, "acci": 28127, "\u4e24": 29745, "\u2581wore": 12003, "xf": 7542, "\u00e8ne": 13139, "\u2581odds": 18585, "\u10dc": 29701, "\u5c3d": 31430, "\u2581tail": 8675, "ient": 722, "\u2581against": 1835, "\u2581removed": 6747, "<0x58>": 91, "\u2581do": 511, ":{": 26856, "\u2581null": 1241, "plication": 2459, "\u2581Famil": 14288, "\u03c1": 28997, "nosti": 21805, "\u2581neutral": 14214, "ief": 3417, "\u2581Malays": 21050, "\u2581cast": 4815, "outing": 8892, "__(": 6743, "\u0442\u0438\u0439": 18971, "\u8bf7": 29067, "data": 1056, "CN": 15126, "\u2581loading": 14617, "\u2581evaluate": 15627, "\u2581parts": 5099, "\u523b": 30861, "\u96f6": 30922, "\u1787": 31543, "aram": 762, "\u2581sports": 8657, "\u2581entert": 19133, "\u2581vaccine": 21250, "urbed": 22306, "\u2581Pred": 19122, "\u2581Window": 7539, "\u2581workshops": 26329, "\u2581happens": 6881, "<0x7D>": 128, "ruct": 866, "\ud83d\udfe0": 30867, "\u2581Key": 7388, "\u2581garbage": 20170, "\u2581logger": 11813, "\u2581conversion": 13833, "\u2581happen": 4804, "\u2581conducted": 12816, "\u2581Slow": 22272, "\u2581nutrition": 25986, "nings": 24200, "\u2581reason": 2611, "\u2581stolen": 18318, "gov": 13933, "\u2581sod": 19769, "\u2581psychology": 23782, "\u2581season": 3302, "bear": 25114, "\">&": 25260, "\u2581deleg": 11202, "\u2581join": 5175, "\u0433\u043e\u043c": 26466, "uated": 25473, "\u2581glasses": 16014, "\u2581Access": 11559, "uc": 1485, "\u2581Gi": 6622, "\u2581disclaimer": 25499, "\ud658": 30391, "\u2581clear": 3081, "\u2581stole": 27613, "\uae4c": 30578, "ational": 1249, "\u5e93": 29581, "Jack": 26803, "####": 2000, "\u0f7c": 31162, "\u2581Each": 7066, "\u2581Hunt": 25438, "\u2581witnesses": 26065, "\u529f": 29206, "\u2581Law": 5802, "\u2581topic": 9067, "\u00f8r": 14750, "ilarly": 12367, "eg": 641, "mgr": 20070, "iliary": 27967, "LOCAL": 24528, "\u2581\u041c\u0435\u043a\u0441\u0438": 27720, "\u2581zap": 19060, "inas": 14321, "JSON": 8438, "edu": 17765, "\u2581kit": 5282, "ichte": 9382, "\u7ebf": 29437, "\u2581Nar": 16392, "\u2581Theme": 22888, "\u2581Institut": 20929, "\u2581wouldn": 4048, "middle": 25692, "\uc7ac": 30014, "Offset": 5130, "\u515a": 31562, "Messages": 16556, "\u2581severe": 13645, "editor": 10692, "\u62ec": 30574, "\u2581bou": 16720, "\u2581NASA": 26164, "itive": 2468, "\u2581recently": 5915, "\u2581r\u00f4le": 26651, "icating": 27623, "counter": 12520, "arta": 18311, "\u2581turn": 1527, "\u2581certified": 20654, "\u04e9": 30340, "bad": 11436, "\u2581Conne": 8771, "Drawing": 10280, "i\u00e3o": 23978, "\u2581Transfer": 24969, "\u0431": 28817, "nost": 10108, "\u2581tags": 12944, "}-": 8767, "\u02bb": 29595, "\u2581exam": 4174, "\u2581LI": 12149, "urg": 2821, "<0xC8>": 203, "xi": 4997, "done": 10381, "\u2581adjacent": 20480, "Api": 7119, "rake": 21868, "Forward": 21971, "\u0142a": 6905, "\u2581Rome": 10827, "\u043b\u0441\u044f": 7659, "\u2581dign": 18485, "\u2581Reddit": 22233, "\u2581\u0442\u0435": 3882, "\u2581\u00bb.": 13423, "Window": 3899, "eting": 7323, "etics": 24142, "\u2581according": 4771, "\u2581bank": 5206, "election": 9082, "ully": 21471, "\u0386": 31392, "alous": 14990, "tings": 2549, "\u2581graph": 5246, "\u2581throwing": 15832, "subscribe": 19128, "\u2581\u0433\u0435\u043d\u0435": 20831, "\u2581ugly": 19279, "velt": 16920, "\u2581Luck": 22781, "\u2581stick": 6906, "\u2581\u00da": 28046, "\u2581trails": 28280, "\u2581hopefully": 20627, "\u53ca": 29965, "ade": 770, "\u2581Power": 8442, "\u2581depicted": 28264, "\u2581Getting": 19896, "_{(": 17839, "hba": 20544, "olar": 8330, "\ud83d\ude33": 31208, "una": 5892, "acks": 6507, "\u2581plasma": 28141, "(\"\\": 10592, "\u2581pode": 26165, "nav": 7141, "}\"": 7935, "\u2581strong": 2967, "\u2581department": 9784, "bing": 7551, "\u307e": 29241, "ities": 1218, "\u1015": 31452, "lib": 4472, "\u2581frequency": 11010, "\u2581ang": 3720, "\u2581Gary": 18162, "ARB": 24907, "\u2581healthcare": 15240, "\u2581Hong": 12966, "rical": 11524, "\u2581Prov": 7133, "\u2581Draw": 16412, "\u2581Albums": 28476, "\u0411": 28861, "__(/*!": 25351, "\u2581dignity": 27182, "Row": 5590, "<0xE0>": 227, "Hz": 12659, "anti": 7764, "defer": 17112, "nc": 14770, "icos": 8368, "\u2581therapy": 12238, "\u2581Random": 20575, "\u2581coff": 6350, "AH": 21053, "\u2581RET": 28620, "N": 28759, "Storage": 7734, "\u2581Indones": 16653, "\u043e\u043d\u0435": 23703, "nergy": 11918, "\u2581Boolean": 17110, "minecraft": 22875, "GroupName": 16477, "\u0142ug": 19194, "Operations": 23709, "\u2581internacional": 27025, "\u2581\u0442\u0438": 11002, "asted": 13072, "\u2581ritual": 21078, "Effects": 27175, "Bet": 17044, "New": 2972, "Optional": 15115, "\u2581soul": 7237, "<0x9D>": 160, "Peer": 22163, "\u2581secur": 22214, "\u2581le": 462, "\u2581diff": 2800, "uilder": 2866, "\u2581tokens": 16246, "\u2581\u041c\u0456": 26267, "\u0459": 28918, "\u2581she": 630, "\u2581between": 1444, "\u2581Garden": 15875, "\u2581disease": 8030, "\u2581grud": 24332, "\u043d\u0438\u0447\u0435": 17856, "\u2581wenn": 24718, "\u2581caf\u00e9": 28345, "\u2581Hen": 4930, "\u2581weit": 17642, "\u2581Dark": 12361, "\u2581associate": 18560, "\u2581assumed": 11012, "Initialize": 22719, "\u4ee4": 29752, "\u2581total": 3102, "row": 671, "\u2581Jan": 2997, "mq": 26553, "\u2581Prest": 24478, "ponential": 25723, "\u2581apost": 26643, "\u8a18": 30288, "\u2581pot": 2513, "lict": 7410, "\u263d": 30660, "\u2581(!(": 14606, "reverse": 24389, "\u9ad4": 31155, "\u7d04": 31382, "\u2581ship": 4309, "tokens": 20228, "\u2581Authority": 20653, "\u2581mig": 16089, "\u2581everybody": 12798, "utils": 7284, "\u2581sufficient": 9406, "\u2581Fif": 16296, "__,": 8934, "\u2581FIX": 21467, "\u2581outfit": 24842, "\u674e": 30548, "lang": 4730, "\u2581\u2581\u2581\u2581\u2581\u2581\u2581\u2581\u2581\u2581\u2581\u2581\u2581\u2581\u2581\u2581": 359, "\u2581mother": 3057, "bez": 21610, "\u2581Ist": 25370, "RS": 11306, "Media": 9426, "param": 1148, "ensor": 4037, "\u2581photograph": 9180, "ITH": 16919, "\u063a": 29621, "\u2581frozen": 15199, "<0xD8>": 219, "cted": 2147, "people": 21721, "\u2581soccer": 22642, "\u2581November": 4349, "itary": 11969, "IO": 4426, "\u2581disp": 15285, "\u5df2": 29235, "\u2581Temp": 27279, "rtc": 17485, "bw": 22304, "adu": 28082, "cre": 961, "previous": 19740, "\u2581ehemal": 24156, "\u2581annoy": 13016, "\u2581Press": 6127, "owie": 7493, "\u2581Congress": 8463, "\u2581warn": 8695, "\u2581pint": 20453, "\u091c": 30196, "rin": 19916, "\u043d\u0438\u0446\u0438": 16370, "\u2581\u041f\u0443": 25636, "\u2581midnight": 22494, "\u05b0": 30061, "perp": 21280, "\u2581Hero": 20827, "HasColumnType": 18239, "\u043b\u043e\u0436\u0435\u043d": 27137, "\u2581):": 19174, "\u2581Neb": 21365, "translate": 18094, "\u2581Compet": 17830, "forced": 18783, "\u3064": 30072, "termin": 14615, "\u2581saves": 28507, "\u2581clients": 6819, "DB": 3726, "\u2581IBM": 25709, "keep": 16409, "check": 2888, "ologia": 16241, "\u2581Chair": 15487, "\u2581waist": 17532, "\u2581\u0448\u0430": 24604, "look": 5819, "\u2581speaking": 8711, "\u2581terrified": 26874, "\u2581\u043f\u0440\u0430\u0432\u0438": 18534, "\u2581themes": 18978, "\u2581stagione": 24248, "\u043c\u0430\u043d": 5829, "ature": 1373, "\u015bci": 7216, "Lib": 15640, "\u2581behav": 4569, "\u2581pixels": 16626, "\u0448\u0443": 16672, "These": 18171, "colon": 19502, "Default": 4158, "\u043a\u043e\u043c": 7830, "\u2581Fab": 12055, "uki": 17299, "\u2581GM": 27299, "Channel": 7766, "\u2581cooked": 22067, "\u2581loans": 15556, "\u9876": 30118, "requency": 17400, "\u2581focused": 9045, "ATCH": 12915, "\u014f": 29869, "\u2581Soft": 6001, "^{(": 6680, "Term": 11579, "Mart": 21787, "\u00e9n": 2864, "\u2581Count": 4165, "\u2581Ok": 6504, "ainted": 21169, "\u2581styled": 23138, "tee": 6267, "poss": 6338, "<0xDE>": 225, "\u2581grinding": 23847, "\u2581fs": 14731, "`": 28832, "\u2581pret": 9525, "Bounds": 15833, "With": 2946, "']);": 13932, "air": 992, "\u2581Dead": 14292, "\ud83d\ude24": 31955, "\u2581Which": 9595, "acl": 21899, "fp": 8808, "\u2581client": 3698, "Js": 23595, "\u2581organisations": 24202, "SERVICE": 27087, "forEach": 14182, "\u0e43": 30096, "\u0561": 29372, "\u2581sido": 15933, "\u2581\u0441\u0430\u0432\u0435": 28563, "American": 12188, "\u2581notable": 19225, "\u2581lan": 26573, "\u2581magnitude": 18658, "\u9084": 31497, "tagon": 17346, ")\",": 10647, "\u2581Beyond": 21483, "ridge": 9163, "\u2581wherever": 20517, "\u21b5": 31215, "\u0448\u0435\u0433\u043e": 26459, "\u986f": 30851, "\u2581Canadian": 10435, "bool": 5416, "\u2581rais": 4471, "\u2581Italy": 10828, "atives": 5087, "\u4e09": 29492, "\u2581conspir": 19728, "\u2581movement": 6249, "lease": 1919, "\u2581descriptor": 17387, "xis": 12658, "ktur": 25947, "\u2581bridge": 9850, "\u2581persons": 12920, "uffle": 17752, "Res": 1146, "\ud83d\udc9c": 31762, "\u2581completion": 15151, "\u2581whether": 3161, "\u0442\u0430\u043b\u044c": 16301, "\ud83c\udffb": 30084,
[...]
