{"network": 9482, "\u2581\u043a\u043b\u0430": 14835, "\u2581protests": 24740, "inted": 27700, "\u518d": 29740, "Folder": 14550, "\u2581Has": 10981, "\u2581blo": 3449, "\u2581tap": 12857, "\u2581light": 2061, "\u2581Intel": 20276, "registry": 22464, "failed": 13593, "\u2581fourth": 10036, "Address": 5049, "],": 1181, "i\u00e3o": 23978, "Sum": 9881, "ogy": 8677, "\u2581r\u00f4le": 26651, "\u2581\u0442\u0435\u0440\u0440\u0438\u0442\u043e": 24891, "SET": 4270, "\u5c0d": 30838, "\u0624": 31456, "yp": 1416, "\u2581framework": 10782, "\u2581clin": 8837, "emplate": 3949, "airy": 23421, "\u2581assign": 11757, "rice": 17566, "chell": 16729, "\u2581off": 805, "\u2581bottles": 20353, "STOP": 26599, "\u8d70": 30585, "\u2581gy": 14229, "\u2581rele": 4444, "exist": 22871, "\u2581tir": 24532, "\u2581r\u00e9g": 10551, ";\"": 24626, "hew": 10345, "\u2581backs": 24007, "orie": 12067, "\u2581}).": 24371, "\u2581Jos\u00e9": 12369, "\"?": 27257, "\u03a1": 30528, "\u672b": 31325, "\u2581enero": 26291, "\u2581cooling": 22565, "ower": 1072, "itional": 2582, "AV": 9024, "\u2581cannot": 3573, "rend": 5082, "DAP": 25857, "\u2581instruments": 17937, "\u043d\u0430\u0447\u0430": 27690, "\u2197": 29299, "ault": 1118, "\u2581spray": 19084, "ba": 3175, "\u2581bez": 18037, "\u2581persistent": 24777, "\u2581media": 4077, "conde": 26506, "]])": 28424, "URE": 5873, "member": 9978, "\u6230": 31680, "\u2581shooting": 11743, "\u2581voce": 27802, "\u2581sum": 2648, "\u77e5": 29661, "Sprite": 22473, "\u00e2nd": 16801, "\u2581differ": 1299, "icans": 6835, "\u0442\u043e\u043a": 20264, "\u0925": 31783, "\u2581transm": 27179, "\u2581persona": 22962, "uerto": 15964, "riet": 13769, "<0x79>": 124, "\u00e1m": 10422, "\u2581Had": 11238, "\u2113": 31442, "\u2581secret": 5169, "conn": 8407, "CUR": 13336, "\u2581drives": 19085, "\u2581role": 3905, "\u2581editing": 19617, "\u2581carbon": 13654, "\u2581\u044f\u0432\u043b\u044f\u0435\u0442\u0441\u044f": 23036, "(\"-": 24751, "allel": 7802, "\u2581Kum": 25694, "\u2581slightly": 7191, "prise": 9266, "\u2581Pear": 16397, "\u2581boxes": 13446, "\u2581\u043f\u0440\u043e\u0433\u0440\u0430": 23462, "\u2581Lu": 4960, "ULT": 4874, "\u001a": 30759, "Transfer": 20708, "urt": 3525, "\u2581grew": 8108, "\u2581removal": 17078, "\\": 28756, "\u2581Report": 7431, "\u2581Mexican": 17092, "\u0431\u0443\u0440\u0433": 21439, "\u2581tri": 2629, "\u2581mold": 20880, "Entities": 25050, "lp": 12312, "\u2581highway": 20127, "\u2581AI": 16107, "ascade": 28134, "\u5e45": 31861, "\u2581notebook": 24587, "\u6790": 30007, ")))": 5429, "sembl": 14763, "=\"{{": 21686, "\u2581highlight": 12144, "\u5716": 30984, "aurus": 24308, "<0xA6>": 169, "\u2581consecutive": 22162, "Second": 10385, "\u2581lying": 10580, "mee": 26665, "\u2581enable": 8234, "\u2581her": 559, "\u0444\u043e\u0440\u043c\u0430": 22131, "ables": 2561, "ifact": 17634, "\u2581\u041d\u0430\u0441\u0435\u043b\u0435\u043d\u043d\u044f": 25975, "ARY": 10713, "\u2581assumption": 14776, "\u2581\u041c\u043e\u0441\u043a": 22288, "\u2581wished": 15534, "\u043a\u0456\u0432": 10180, "\u2581household": 13634, "reddit": 14254, "\u2581^{": 10292, "Present": 19618, "\u2581transparent": 20175, "\").": 4145, "\u2581bases": 20201, "\u2581Bernard": 16784, "\u201d.": 7445, "Tag": 4450, "\u2581sales": 6292, "hem": 6981, "\u2581\u043c\u0430\u0440\u0442\u0430": 24898, "\u0442\u043e\u0440": 6826, "\u2581tens": 19391, "\u2581},\r": 20692, "\u2581batt": 8396, "ibraries": 17164, "Py": 6218, "}(\\": 4824, "oport": 27917, "\u2581costs": 6966, "\u2581plant": 5100, "\u2581wird": 7534, "\u2581edific": 23680, "\u2581initialization": 27620, "\u2581Mah": 10947, "\u2581waters": 15507, "\u2581whe": 2277, "pass": 4119, "\u2581damaged": 16619, "\u2581tracking": 15271, "\u2581structured": 28429, "CTOR": 20434, "\u2581Afghan": 16320, "igo": 9567, "\u2581ohne": 24986, "\u2581throwing": 15832, "\u2581\u0441\u0442\u0430\u043b": 21355, "\u2581armor": 21729, "*\\": 19008, "\u5939": 30900, "\u00e9ral": 12036, "screen": 8555, "\u2581Water": 8632, "\uc544": 29536, "\u2581disappointment": 26820, "\u2581expand": 6710, "Move": 10263, "stats": 8751, "<0x30>": 51, "\u2581interviews": 18209, "\u2581Luther": 22370, ")^{\\": 23022, "\u0432\u044b\u0439": 16265, "\u2581SND": 27126, "\u2581Association": 7738, "\u2581sidewalk": 27430, "\u2581XML": 16537, "stret": 27757, "\u2581witness": 9149, "\u2581Hub": 15969, "<0x9F>": 162, "\u2581color": 3181, "\u2581pod": 3531, "\u2581toe": 11329, "\u2581redirect": 16219, "\u0445\u0440\u0430": 23163, "asto": 26041, "\u2581tense": 28445, "\u06af": 29461, "itors": 9058, "ient": 722, "\u2581charge": 5685, "\u8ff0": 29769, "\u984d": 31086, "\u4e58": 31389, "omen": 4361, "\u2581closer": 7887, "\u2581parking": 12128, "\u2581hel": 1172, "\u2581northern": 12727, "Rel": 7523, "Pod": 13740, "\u0f72": 31375, "stant": 4774, "yg": 9690, "iano": 4728, "\u2581panels": 18771, "\u2581prince": 20180, "\u2581hed": 23737, "\u0bb3": 31069, "\u2581Devel": 7777, "\u2581difficult": 3796, "\u2581efficiency": 12832, "\u2581Japan": 4720, "\u2581Ho": 10488, "\u2581deeply": 11869, "anos": 19813, "ahan": 27058, "\u2581afterwards": 19272, "\u2581parish": 23539, "\u2581Edd": 15765, "\u2581Six": 13934, "\u2581professor": 12192, "ependant": 26574, "\u00edv": 21022, "\u0441\u0442\u0438": 2266, "pot": 14676, "($": 1501, "\u2581\u0440\u0438": 18937, "\u2581soon": 3403, "court": 28129, "$)": 11996, "n\u00e9": 8269, "r\u00e1": 12210, "iblical": 26896, "\u2581prominent": 15574, "kehr": 19177, "bear": 25114, "\u2581Brist": 27628, "\u2581Claude": 26836, "\u2581industrial": 10663, "\u2581giant": 12351, "\u6218": 30272, "\u2581config": 2703, "cept": 1358, "\u2581action": 2992, "Vari": 6840, "\u2581interval": 12571, "\u2581titre": 20360, "\u2581historia": 23394, "\u2581useState": 17150, "\u2581indication": 24183, "\u2581runner": 22125, "Attachment": 27079, "\u0459\u0435": 11945, "\u2581opinions": 15028, "\u9762": 29181, "\u2581Organization": 21919, "\u2581troubles": 21477, "\u2581Gaussian": 24247, "Bal": 13450, "\u2581nested": 23793, "[[": 15537, "\u2581Lanc": 23141, "\u2581Going": 25659, "Own": 8824, "\u0ca4": 31849, "\u958b": 30068, "\u9970": 31915, "\u2581dun": 27421, "\u2581\u0414\u0436\u0435": 24690, "identifier": 20044, "Entity": 5075, "\u6253": 29576, "\u2581considering": 9868, "\ub3c5": 31930, "engono": 26964, "\uc21c": 30891, "\u2581lugar": 16132, "\u2581saw": 2672, "confirm": 19928, "ced": 1354, "Length": 4645, "\u2581Account": 11919, "\u2581bless": 14389, "\u2581reminded": 14795, "\u2581dy": 15513, "\u2581Tele": 9207, "itize": 23175, "\u2581Edit": 12838, "\u2581f\u00f6rst": 23722, "\u2581least": 2429, "\u2581throne": 24459, "\u2581Pom": 19015, "\ubaa8": 29820, "\u2581contacted": 28330, "led": 1006, "\u2581sounds": 7258, "aped": 7279, "\u2581Dir": 19926, "\u2581\u0433\u0438": 25316, "MBER": 26172, "\u2581S\u00fc": 24365, ")+\\": 25886, "orable": 26274, "\u2581rows": 11926, "Content": 3929, "ulle": 17040, "\u2581rate": 4338, "\u2581expr": 19609, "Rotation": 22450, "\u2581lifting": 22853, "\u2581eliminate": 20545, "\u2581dav": 21696, "\u2581investigate": 17214, "agger": 7109, "\u5854": 31166, "deleted": 8020, "\u2581Bel": 4583, "\u2581Global": 9970, "\u2581draft": 10449, "\u2581brit": 11825, "Span": 13116, "\u2581marine": 22983, "DBG": 14701, "\u2581lesser": 26767, "\u2581restaurants": 14666, "disable": 9613, "\u2581wealth": 9120, "\u2581six": 3522, "\u2581lan\u00e7": 27394, "\u4e24": 29745, "\u2581raison": 26765, "\u2581Dak": 21490, "\u2581experiences": 9021, "\u2581Imp": 15182, "ifi": 10273, "PCI": 24271, "endpoint": 15153, "overlay": 27163, "\u2581zur": 6156, "\u2581occup": 6958, "pection": 16455, "\u2581facilitate": 25729, "Le": 3514, "eper": 7928, "\u2581Barr": 24423, "raid": 7370, "header": 4983, "\u2581guest": 11683, "\u2581{}": 4729, "\u2581creation": 9313, "Criteria": 20719, "\u2581realise": 27457, "Es": 19281, "+": 28806, "oire": 10710, "AME": 10026, "\u2581\u041e\u0431": 22744, "}}$.": 25362, "<0x55>": 88, "\u0441\u043a\u043e\u0439": 4683, "\u2581guests": 11089, "\u2581domains": 25998, "pf": 10018, "bss": 26727, "mill": 13134, "herent": 21891, "\u2581effectiveness": 23798, "ke": 405, "\u2581fired": 12196, "English": 27871, "\u2581America": 4352, "oto": 2587, "Listener": 5031, "achel": 14047, "\u2581RES": 20308, "\u0151s": 28153, "adu": 28082, "links": 17052, "\u54e5": 31571, "\u2581\u043f\u0440\u043e\u0438\u0437": 15393, "sheet": 19623, "\u2581lay": 4897, "iolet": 20346, "test": 1613, "\u2581Kenn": 10960, "eted": 14610, "\u2581\u043a\u043e\u0442\u043e\u0440\u044b\u0435": 24065, "essions": 8642, "\u2581cone": 22880, "\u2581byte": 7500, "\u045a\u0438": 24860, "\u2581needing": 25559, "\u2581Gian": 27090, "bars": 28008, "\u2581started": 2774, "<0x5A>": 93, "\u2581trick": 10777, "uis": 14867, "\u2581begin": 2839, "Wr": 17055, "\u2581League": 6165, "izado": 25018, "\uc785": 29429, "\u2581htt": 2336, "spin": 9090, "\u2581who": 693, "\u2581cycle": 10061, "\u2581Thom": 4954, "FLAGS": 16751, "component": 7451, "creen": 9106, "<0x13>": 22, "\u2581\u043e\u043d\u0430": 24312, "LET": 25870, "\u0633": 29008, "\u2581d\u00e4r": 18603, "\u2581rude": 26705, "\u5bf9": 29051, "\u2581court": 5484, "ipedia": 13189, "stock": 16471, "Low": 21397, "<0xE5>": 232, "\u2581Next": 8580, "(": 28732, "ructions": 8373, "\u2581incon": 17910, "\u2581+\\": 16473, "Google": 16922, "Indicator": 27284, "ifies": 8961, "att": 1061, "\u2581deserved": 27725, "\u2581shout": 11428, "\u043b\u0435\u043d\u0438\u0435": 9042, "othing": 5182, "\u2581Bund": 12583, "old": 738, "Mesh": 14952, "\u2581\u0447\u0435\u043c\u043f\u0438\u043e\u043d\u0430": 24230, "\u2581mainly": 11464, "\u2581entertaining": 25161, "]=": 11868, "\u2581soll": 15746, "\u2581mill": 2545, "unts": 25985, "\u2581bay": 17106, "classes": 13347, "\u2581musician": 26458, "<0x6B>": 110, "\u00e4hlt": 25409, "\u2581Edinburgh": 25970, "\u2581Center": 6064, "\u0630": 29609, "\u2581compassion": 20151, "\u8c37": 30894, "\u2581fon": 15775, "\u2581vocals": 20789, "\u27a4": 31695, "\u2581\u0431\u043e\u043b\u0435\u0435": 21314, "ablo": 22866, "ailable": 2226, "\u0435\u0440\u0436\u0430": 23507, "\u2581penis": 23735, "\u0440\u0435\u0432": 23375, "Sound": 18340, "ired": 1360, "\u2581Us": 4547, "xff": 5600, "eks": 23810, "\u570b": 30499, "pid": 9507, "\u2581time": 727, "loc": 1614, "BR": 11145, "\u2581UK": 6194, "\u2581{@": 4958, "\u2581sn": 2502, "edit": 7128, "\u2581outer": 12859, "\u2581dopo": 14752, "AC": 1645, "<?": 5357, "\u2581tears": 11025, "odi": 16267, "\u2581tips": 10636, "[_": 24655, "\u2581environ": 14453, "\u2581volunteers": 20826, "\u2581sov": 28102, "hemat": 11953, "\u2581distract": 18565, "\u2581cz\u0119": 22375, "\u2581\u0412\u043b\u0430": 21714, "\u2581trabaj": 23017, "omes": 28548, "\u2581Compan": 21096, "\u2581till": 4861, "mr": 17886, "heng": 28550, "toggle": 13615, "\u2581hero": 10725, "\u2581imaginary": 28374, "\u0440\u0430": 665, "\u2581Available": 18260, "')).": 27662, "a\u0142o": 27189, "\u2581besch": 15049, "\u2581last": 1432, "\u2581heritage": 22597, "\u043f\u0430": 2789, "\u2581workshop": 20156, "\u2581sketch": 21789, "\u2581Work": 5066, "LOT": 24198, "\u2581complained": 25057, "\u2581\u043e\u043d\u0438": 26150, "aret": 8644, "ielt": 14022, "aughter": 4762, "\u2581Lock": 17582, "achusetts": 15591, "cohol": 9725, "\u6fc0": 30840, "rob": 18443, "\u2581\u0443\u043b\u0438": 27633, "ri\u00e8re": 14825, "loaded": 16070, "\u2581Neder": 14845, "RR": 8274, "efficient": 28627, "\u2581)\r": 14619, "annte": 25542, "\u2581regards": 22573, "\u2581projects": 7028, "\u2581Ca": 11013, "\u2581LLC": 19401, "izza": 13983, "\u2581wreck": 22293, "etry": 27533, "\u2581Machine": 13253, "\u2581cy": 4685, "\u2581rust": 14912, "\u2581down": 1060, "\u2581assertThat": 16139, "orna": 25190, "xa": 8705, "\u2581toilet": 19580, "\u0d3e": 31784, "bridge": 15401, "aglia": 25413, "\u2581meille": 24515, "qquad": 12088, "ypes": 4453, "\u2581$,": 28542, "\u2581stre": 2811, "\u2581Rang": 24237, "\u2581Holmes": 20860, "tom": 28154, "vier": 14895, "olence": 26063, "\u2581transaction": 8966, "\u2581nav": 5697, "\u2581fright": 14331, "\u2581delivering": 22119, "attering": 23205, "VED": 27198, "\u2581XIV": 28132, "\u2581inspiration": 16463, "\u8207": 31138, "\u6d32": 31564, "\u2581\u044d\u0442\u0438": 27335, "\u05d6": 29913, "\u2581ultimately": 12665, "\u2581faint": 16603, "\u03a3": 29571, "\u00f3w": 3872, "\u2581penetr": 23828, "Add": 1991, "\u2581riding": 14557, "\u2581Bet": 6382, "\u2581anime": 25708, "\ub529": 31836, "TION": 10940, "Btn": 18502, "\u2581ost": 19862, "imary": 7754, "\u2581visits": 17217, "\u2581similarly": 21922, "\u2581before": 1159, "\u2581temporarily": 25359, "\u2581techniques": 9804, "\u2581because": 1096, "\u2581continent": 22713, "\u2581beim": 17454, "\u2581board": 5113, "\u2581Trump": 6932, "bud": 16445, "\u2581reality": 6940, "\u2581notes": 8321, "activ": 10375, "erk": 6751, "sf": 5784, "idelines": 15019, "\u202d": 31130, "\u2581oak": 27407, "\u2581Silva": 28655, "\u2581Nob": 11189, "sole": 3971, "\u0442\u0435\u0440\u0438": 14187, "Version": 4841, "\u2581becomes": 6755, "Js": 23595, "\u2581als": 2835, "\u2581grupo": 18550, "zin": 26404, "ya": 5157, "\u0f0b": 29801, "\u2581shown": 4894, "\u2581europe": 20337, "Operand": 14074, "getKey": 28434, "\u2581football": 6569, "\u2581guilty": 14227, "\u2581??": 19563, "\u2581Nort": 22584, "Been": 27927, "ype": 571, "\u2581observations": 13875, "Must": 15033, "Tip": 19149, "icult": 3366, "\u1e2b": 31101, "\u8f66": 30062, "\u2581favourite": 16020, "psz": 28701, "\u001c": 31134, "\u2581\\{": 12541, "Sup": 22284, "\u2581actual": 4695, "\u592e": 31769, "\u2581risks": 14679, "\u2581appears": 8045, "\u2581tanks": 20274, ">=": 23343, "()\r": 9962, "Request": 2212, "\u2581cover": 2796, "\u2581Ru": 12562, "\u7b14": 31417, "\u2581pool": 6313, "ien": 1375, "mathrm": 3943, "\u2581teams": 6941, "\u043d\u043d\u044f": 14704, "Mask": 10982, "NL": 16717, "Suite": 25138, "\u00edt": 4071, "\u2581Jes": 5215, "pped": 3641, "\u2581assum": 4936, "\u2581conflicts": 24129, "PARAMETER": 26242, "\u2581\u00c9": 4926, "\u2581diss": 9792, "\u2581sim": 1290, "\u2581anywhere": 9530, "\u2581thorough": 13155, "\u2581argue": 13391, "\u2581poblaci\u00f3n": 20004, "\u2581AUTH": 25270, "\u2581O": 451, "mutex": 7686, "part": 1732, "utt": 7538, "\u2581tasks": 9796, "uss": 1349, "\u2581red": 2760, "poss": 6338, "\u2581\u0440\u043e\u0446\u0456": 13554, "zens": 18218, "Accessor": 24123, "\u2581mentre": 18280, "Hom": 25792, "\ud568": 29938, "\u2581central": 5971, "\u2581increasingly": 13107, "\u2581how": 910, "\u00c0": 28964, "\u2581lies": 10427, "Clone": 18991, "\u6027": 29261, "date": 1408, "IVER": 27169, "\u0446\u0438\u043e\u043d\u0430": 28412, "son": 1265, "\u2581blow": 9716, "\u2581Planning": 23542, "nant": 19352, "\u2581Bever": 28526, "\u2581perform": 2225, "optim": 18425, "never": 8174, "\u2581shouldn": 8869, "\u0447\u043a\u0438": 16333, "leaf": 22542, "\u0562": 31293, "attle": 3819, "(&": 1735, "\u2581hr": 15384, "\u2581inspection": 22466, "\u2581Scient": 20645, "bands": 25299, "Submit": 19832, "owie": 7493, "\u2581Didn": 27326, "\u2581Crown": 24154, "ITE": 6142, "\u2581appe": 2104, "\u5f3a": 30283, "\u2581BUT": 16482, "\u2581comes": 3435, "\u2581become": 2727, "/:": 26387, "\u2581Pict": 22262, "\u2581refer": 3295, "\u2581sees": 12477, "\u043b\u043e\u0436\u0435\u043d": 27137, "\u2581derni": 23551, "\u2581screaming": 19455, "flags": 4406, "uri": 6395, "\u2581Vent": 22524, "\u2581tx": 11046, "astro": 19240, "\u00e9rie": 10326, "up": 715, "igos": 26328, "<0x8E>": 145, "\u2581detective": 25646, "\u2581gun": 4582, "\u2581vil": 16767, "\u2581Governor": 16658, "mathsf": 12009, "\u2581fell": 5970, "\u2581experience": 2659, "ored": 2455, "\u2581Sv": 20810, "Drop": 12475, "\u0159": 28883, "\u2581injured": 15714, "Functions": 23072, "\u2581gegen": 12039, "\u2581Cort": 22949, "\ud5a5": 31460, "\u2581responding": 26167, ",*": 17205, "\u2581Mississ": 19294, "\u0115": 31371, "\u2581appet": 22145, "legt": 28661, "club": 25169, "\u2581Form": 4849, "\u2581ensuite": 26368, "\u4fdd": 29321, "\u2581found": 1419, "Trigger": 16140, "update": 3818, "quot": 12792, "\u2581sp\u00e4ter": 15646, "\u043d\u0438\u0448": 17264, "pires": 20470, "\u015a": 29009, "\u2581availability": 18858, "Events": 11208, "sk": 1252, "entr": 21683, "\u2581Kore": 8680, "\u57df": 29829, "entries": 14849, "\u2581brave": 22257, "\u00af": 29948, "\u2581chaque": 27424, "WL": 22385, "\u0436\u0435": 2353, "\u2581Bez": 22627, "\u30c4": 30267, "\ud83d\udc49": 31811, "reach": 18932, "\u2581eleven": 19806, "\u2581Decl": 19066, "Previous": 28284, "\u2581sheets": 18763, "\u2581Hit": 11288, "\u2581announcement": 20990, "\u2581charging": 22402, "\u2581custom": 2460, "\u2581Parliament": 15490, "\u2581recon": 9220, "\u2581visibility": 23446, "\u2581However": 2993, "\u2581connected": 7391, "ensch": 9920, "HC": 16573, "\u2581wax": 26627, "\u0434\u0456": 5777, "\u2581kr": 11175, "\u2581refr": 17154, "\u2581pair": 5964, "onom": 6196, "\u2581Rank": 15938, "\u00e8ge": 24399, "'.$": 19613, "\u2581bot": 12435, "ache": 1344, "jor": 9577, "\u2581MY": 18757, "\u7fa9": 30673, "<0x74>": 119, "^\\": 4217, "imet": 21526, "SEL": 17992, "\u2581paused": 14623, "mer": 794, "half": 18582, "k": 28729, "\u2581accompany": 17039, "cial": 4528, "}\\": 1137, "Alert": 18852, "\u2581invisible": 20187, "Cut": 27724, "\u2581McC": 10040, "etr": 12182, "\u2581unusual": 14614, "\u2581LP": 18905, "\u0baa": 30074, "\u05e5": 31030, "\u2581ang": 3720, "\u2581onClick": 17201, "\u179f": 30326, "Comment": 13617, "inburgh": 24464, "\u2581writer": 6953, "(\"#": 11082, "kil": 23726, "ocon": 24859, "\u2581Merc": 27934, "ful": 1007, "Equals": 5634, "rief": 4667, "ku": 3907, "\u2581ele": 5939, "\u2581mole": 12160, "\u2581fall": 2949, "timeout": 9761, "jk": 24397, "ram": 3212, "\u2581curl": 28306, "\u2581demon": 5762, "\u2581landsc": 27308, "\u2581VI": 15476, "elfare": 18029, "Austral": 28108, "ighth": 16190, "\u008f": 29658, "\u2581ker": 22399, "imer": 4156, "\u2581program": 2007, "heimer": 24556, "\u1ed7": 30926, ")>": 27364, "oria": 4684, "\u2581narr": 9819, "hattan": 20425, "works": 17107, "sson": 14542, "\u2581surrounded": 14161, "horn": 26966, "ARD": 11101, "Tr": 1470, "\u2581direct": 1863, "anguage": 2797, "\u7ecd": 31457, "amaz": 13676, "From": 3400, "\u2581gra": 18216, "icher": 16151, "\u2581looked": 2382, "<0x16>": 25, "\u2581Mississippi": 20455, "\u2581focuses": 21165, "\u2581tops": 27259, "\u4f8b": 29362, "profit": 17940, "assertTrue": 18455, "\u8bd5": 29592, "\u2581ej": 13068, "lauf": 27997, "emi": 17957, "cdot": 5468, "\u2581cd": 19958, "\u2581muttered": 22600, "\u2581slaves": 17614, "tered": 8308, "\u2581exercise": 9095, "Hel": 3733, "\u8d5b": 31281, "arm": 1785, "?": 28804, "an": 276, "\u2581addition": 4518, "\u2581[...]": 26710, "\u2581mistakes": 17179, "\u2581directed": 10666, "dispatch": 16202, "::$": 24498, "Coll": 13075, "\u2581vent": 8061, "ER": 725, "osti": 22160, "\u2581soort": 14571, "preter": 21345, "git": 12854, "\u2581exped": 15575, "\u2581$\\{": 17543, "pression": 2670, "\u2581spel": 28501, "\u5efa": 29193, "\u2581algorithms": 18539, "\u2581Pred": 19122, "\u2581majority": 7757, "\u2581archae": 28426, "WORK": 17427, "bit": 2581, "\u2581Further": 9444, "\u2581Kurt": 24348, "\u2581delivery": 9562, "\u2581prior": 4681, "\u2581gently": 14259, "brid": 14519, "\u2581glo": 19720, "\u6d88": 29311, "\u0441\u0430": 3281, "\u2581continu": 5012, "ENV": 22985, "yl": 2951, "\u2581Card": 8564, "lex": 1913, "ias": 2995, "\u2581desper": 10975, "\u2581Samsung": 26845, "\u03a6": 30349, "<0x8F>": 146, "ialize": 4448, "\u2581basket": 11359, "\u2581overse": 20319, "\u2581warmth": 21606, "ADDRESS": 25100, "\u2581safer": 25844, "og": 476, "\u2581candle": 26000, "\u0386": 31392, "ses": 6065, "ugh": 4795, "dagger": 17648, "Argument": 8949, "\u2581GT": 19713, "ser": 457, "\u2581dram": 9473, "\u2581\u0447\u0435\u0440": 21592, "\u2581bothered": 25277, "ottom": 3757, "ById": 7760, "\u2581filled": 6774, "idth": 1634, "Ext": 5338, "\u2581balls": 16852, "\u2581decimal": 25888, "\u2581partido": 26993, "\u2581Canadian": 10435, "\u043f\u0438\u0441": 13014, "tables": 22002, "<0xE1>": 228, "\u2581shop": 5126, "\u2581faculty": 18938, "\u2581ikke": 28639, "\u2581\u041f\u0440\u0435": 10164, "\u2581EDIT": 24645, "\u2581sophisticated": 23213, "bel": 7244, "\u30e1": 29668, "ng": 817, "\u2581wire": 9112, "successful": 28452, "\u1e25": 29624, "CG": 19354, "ruppe": 17719, "\u2581commanded": 27288, "\u2581var": 963, "ET": 2094, "Tool": 6778, "\u2581Build": 8245, "\u2581comport": 27492, "\u2581Soc": 4234, "VS": 23999, "\u2581aesthetic": 27974, "\u2581Follow": 9822, "\u2581politicians": 18594, "ich": 539, "\u2581Tax": 14093, "Skip": 24322, "\u2581requests": 9828, "\u2581sigh": 19553, "\u2581imagination": 16842, "\u2581ship": 4309, "\u2581introduce": 13097, "\u2581strang": 26427, "holm": 18830, "Det": 5155, "niej": 20386, "cheduled": 23382, "\u2581friendly": 10131, "\u2581wid": 7744, "urity": 5608, "\u0436\u0435\u043d\u043d\u044f": 19195, "NP": 24257, "\u2581unsigned": 5479, "\u2581keeps": 11478, "\u043b\u0438": 922, "\u2581problem": 2700, "TextView": 26554, "\u2581vo": 1776, "abc": 16612, "<0x7D>": 128, "\u2581voices": 14549, "\u2581margin": 9829, "\u2581veter": 13000, "python": 17667, "vl": 12275, "\u2581callback": 6425, "\u2581so": 579, "\u2581appointment": 14351, "extr": 24679, "}[": 5842, "\u2581objet": 24339, "\u7d04": 31382, "umph": 14170, "\u2581\u043b\u044e": 12566, "\u667a": 30882, "\u2581wrapper": 18491, "roupe": 14236, "<0x81>": 132, "\u2581\u0627\u0644": 19078, "bad": 11436, "\u2581Hend": 18588, "DECL": 24826, "allow": 5618, "versation": 25422, "\u2581rob": 7006, "\u2581performs": 25597, "One": 6167, "acon": 10364, "pos": 1065, "conf": 5552, "\u2581ADD": 26827, "\u2581\u043e\u0441\u043d\u043e\u0432\u0430": 25621, "\u2581\u0454": 15020, "\u00fcss": 18394, "LO": 1763, "lu": 9072, "\u821e": 31622, "\u0433\u0440\u0430\u0444\u0456": 23006, "\u79d2": 30009, "Top": 6228, "nten": 20340, "\u2581Login": 25722, "ken": 2314, "\u2581scient": 6269, "\u2581marker": 18844, "_": 28730, "\u2506": 31172, "tests": 16735, "\u2581fing": 6634, "\u2581forgotten": 13652, "\u2581ai": 11216, "\u2581zone": 8860, "\u043a\u043e\u043d\u043e\u043c\u0438": 28189, "do": 2432, "<0x76>": 121, "opt": 1642, "\u2581extreme": 12290, "\u2581fils": 24071, "\u5024": 30261, "\u2581shipped": 27634, "\u2581Adam": 10534, "ischer": 6283, "\u2581codes": 14760, "\u2581gewann": 26778, "**.": 11740, "ank": 978, "Dan": 25314, "\u756a": 30815, "\u021bii": 24006, "Until": 25072, "\u8ba4": 29262, "pol": 3722, "\u043a\u0430\u0445": 15274, "Function": 4901, "\u2581Mend": 28683, "\u2581President": 5120, "boards": 18256, "\u1d07": 30774, "\u2581lors": 11989, "Ph": 3330, "\u2581destruct": 25274, "\u2581*)": 4491, "upt": 20413, "\u25a0": 29094, "\u028a": 30257, "\u2581ru": 6869, "Toolbar": 24118, "\u2581assh": 19922, "liter": 24477, "B": 28760, "\u2581spending": 9981, "\u2581rolled": 12183, "\u0144": 28908, "rowning": 28496, "lesh": 12953, "pling": 8182, "\u5f39": 30409, "\u054d": 31903, "ered": 2092, "\u2581Universidad": 22500, "\u2581collision": 23322, "\ud3c9": 31523, "\u2581Pract": 15961, "igr": 3421, "iggers": 21102, "\u8a2d": 29768, "(|": 18214, "ah": 912, "\u2581javax": 7385, "\u2581artikel": 8483, "\u2581\u043e\u0441\u0442\u0430": 18889, "aben": 19309, "MG": 26860, "\u2581terra": 25836, "tbody": 28383, "nam": 6701, "\u2581Gel": 23704, "Ignore": 16291, "\u2581still": 1309, "rez": 11223, "\u2581Someone": 16124, "TRUE": 9331, "\u021bie": 19217, "\u0441\u0456": 7758, "users": 10247, "\u2581mobility": 27218, "ches": 1927, "\u2581Sec": 4554, "CodeAttribute": 23583, "\u2581cette": 8821, "\u2581worries": 28420, "a\u0142": 3862, "ve": 333, "\u2581\u041b\u0438": 11946, "\u2581fierce": 27118, "Do": 4957, "\u2581makeup": 19781, "\u2581$$\\": 20116, "\u2581tradition": 9097, "\u2581Karen": 20220, "\u00a1": 29028, "\u2581\u043f\u043e\u043b\u044c": 27904, "ended": 2508, "\u2581garden": 8759, "grow": 20621, "\u2581medi": 17286, "\u2581matched": 16933, ")*": 4869, "\u2581incredibly": 14638, "\u2581Santiago": 24421, "\u8986": 31079, "\u2581applicable": 8807, "\u2581addressed": 16715, "\u2581tv\u00e5": 22364, "eight": 23893, "ez": 5620, ",_": 5796, "adem": 4247, "mun": 9487, "\u2581Act": 3782, "Art": 10363, "\u2581allow": 1914, "\u2581adventure": 15982, "\u2581Rest": 9576, "\u2581announced": 7004, "h\u00f6": 21017, "Topic": 25462, "App": 3114, "\u043d\u0430\u0445": 26027, "\u2581paper": 3830, "\u2581testing": 8260, "angular": 8685, "position": 3640, "\u0441\u043a\u043e\u0435": 12988, "\u2581Net": 5269, "\u2581Judge": 20979, "\u2581ground": 3414, "chedul": 6256, "(\"\\": 10592, "want": 25265, "ounce": 10818, "Sender": 25125, "\u2581wrong": 3544, "cock": 25588, "arance": 13705, "oenix": 21075, "\u2581monument": 17772, "\u2581Mitchell": 21072, "\u2581Van": 7647, "\u2581vess": 13174, "atra": 21909, "\u2581onChange": 27530, "\u2581facil": 13031, "eli": 20949, "efe": 25922, "riv": 814, "\u2581konnte": 19059, "FE": 5790, "\u2581firing": 20076, "asma": 21299, "rency": 7492, "\u2581\u041f\u0440\u0430": 25074, "\u2581arena": 24059, "\u028f": 31575, "\u2581wel": 5661, "\u5f8b": 31424, "\u2020": 28932, "\u2581be": 347, "resources": 15448, "\u2581Pir": 19346, "\u2581proble": 1934, "\u2581defining": 22629, "\u2581dict": 8826, "frastructure": 11932, "\u043d\u0438\u044e": 12301, "assy": 21957, "ees": 6436, "max": 2416, "\u5b9f": 30513, "elte": 25278, "\u2581\u0431\u0456\u043b\u044c": 28502, "\u5df2": 29235, "\u2581upper": 7280, "\u2581lum": 17709, "\u2581scatter": 11190, "\u00e4nde": 18919, "current": 3022, "\u2581upcoming": 17962, "\u2581/*": 1385, "\u2581examined": 21132, "\u21d2": 30757, "AUT": 11489, "\u2581\u0440\u0430\u0439\u043e\u043d\u0435": 23838, "changing": 26181, "\u91c7": 30398, "\u2581Haw": 9402, "\u2581Iz": 21552, "\u76ae": 31279, "\u2581tous": 16065, "\u2581considerable": 16062, "\u2581dual": 13350, "\u2581accuracy": 13252, "usage": 16052, "ulse": 17494, "\u2581match": 2918, "\u014f": 29869, "\u2581wars": 19270, "Exception": 1861, "\u2581twenty": 5969, "\u0434\u0430\u0442": 22063, "\u2581fat": 6370, "\u0651": 29754, "\u2581sovere": 24819, "\ud83d\udcb0": 31697, "\u679a": 31590, "-----": 13918, "\u2581crying": 15671, "zia\u0142": 27320, "/": 28748, "pdf": 8984, "<0x3D>": 64, "\u2581Err": 5830, "atem": 24359, "\u2581plot": 9242, "\u2581us": 592, "\u2581alive": 8630, "Site": 17606, "<0x20>": 35, "\u2581listened": 15112, "\u2581unf": 10077, "\u2581homem": 28431, "\u6233": 31448, "\u0438\u0437": 9912, "\u043f\u0430\u0440": 18265, "\u2581Problem": 24857, "\u2581development": 4099, "\u2581insane": 21295, "\u2581return": 604, "\u013c": 30487, "\u2581transl": 7254, "\u2581dieser": 13815, "cols": 23692, "\u7f29": 30250, "\u2581determining": 23689, "\u2581subst": 11381, "\u2581canvas": 14499, "\u2581estimate": 11679, "\u2581Peg": 26806, "Read": 3390, "unted": 15227, "\u2581encoding": 16087, "especially": 26160, "Compiler": 17771, "rer": 17749, "jours": 22200, "\u2581Familie": 25549, "rew": 2516, "Timestamp": 15948, "\u2581Mix": 19630, "locale": 19237, "icky": 19722, "\u2581Consult": 20395, "\u2581strong": 2967, "\u0688": 31489, "\u2581intensity": 16800, "ardi": 22999, "\u2581italiano": 18348, "\u2581dress": 5188, "entes": 11829, "\u2581corrections": 27956, "\u6613": 29945, "Editor": 8859, "colon": 19502, "\u3084": 30696, "\u2581Currently": 21520, "\u2581befind": 19856, "\u2581rain": 7296, "\u2581pri": 3061, "\u2581workshops": 26329, "\u6c0f": 31320, "\u2581Cro": 10472, "Dictionary": 17798, "\ud074": 30203, "\u2581Vegas": 18233, "\u2581Environment": 14802, "cn": 9832, "\u8865": 31029, "useppe": 28697, "ex": 720, "Inject": 22079, "Null": 4238, "\u2581Ton": 17104, "tainment": 19019, "\u2581farm": 6354, "Pair": 14064, "\u2581refers": 15654, "\u2581sauce": 16042, "\u3000": 29351, "\u2581buf": 7632, "\u2581surrender": 25884, "unte": 8719, "\u2581Learning": 17504, "\u06cc": 28975, "\u2581identified": 10248, "IV": 6042, "\u2581Adult": 24765, "\u043a\u0443": 2201, "EDIT": 27495, "\u2581bild": 22052, "\u2581father": 3140, "\u2581serve": 7031, "\u2581employment": 14087, "\u2581politique": 19885, "blog": 14275, "\u2581solving": 22100, "\u2581Para": 19562, "mercial": 19828, "\u2581scientists": 15067, "\u2581Staats": 28560, "\u2581\u0443\u0447\u0435": 28472, "\u2581repet": 21435, "\u2581Eug": 18234, "izz": 5769, "\u2581Sup": 8931, "irlines": 22201, "\u2581sucks": 25033, "\u201f": 31925, "\u2581\u043e\u043a\u043e\u043d": 27383, "XML": 13047, "co": 1115, "ovie": 12347, "\u2581GM": 27299, "rov": 11620, "\u2581corrupt": 24106, "ABILITY": 9287, "\u2581\u043a\u043e\u043c\u043f\u0430": 20776, "\u2581moist": 17261, "bm": 6659, "\u2581Army": 8094, "**:": 9189, "\u2581negative": 7087, "\u2581cloth": 17673, "\u2581\u0425\u043e": 18797, "swer": 16981, "\u4ea7": 29818, "_.": 2769, "yt": 4475, "\u2581\u0440\u0430\u0441": 11859, "r\u00eda": 23048, "\u2581luglio": 27059, "support": 6658, "\u2581attacked": 15198, "\u2581\u0434\u0435\u044f": 20720, "ou": 280, "\u2581effectively": 11466, "\u2581stim": 12556, "\u2581Bloom": 23451, "anden": 17081, "Filters": 24261, "User": 730, "\u2581noch": 11039, "\u2581dr": 1605, "pet": 6193, "[-": 11440, "\u2581acquire": 18896, "EP": 11253, "\u2581discuss": 3342, "\u6703": 30332, "\u2581Fast": 17539, "\u041f": 28847, "\u03c6": 29307, "\u2581freedom": 8467, "\u2581dim": 3987, "\u2581fn": 4611, "\u2581exceed": 12436, "subscription": 20054, "\u2581Bul": 10440, "\u73b0": 29419, "\u2581hooks": 26901, "\u2581pubblic": 17303, "holds": 19820, "Product": 7840, "\u2581marble": 26617, "pg": 3386, "variables": 24227, "\u060c": 30124, "\u2581verification": 26878, "rical": 11524, "Msg": 7519, "undial": 18507, "psi": 5920, "\u2581subsequently": 18410, "\u2581Gem": 18131, "\u2581slept": 18283, "\u2581remaining": 8409, "sum": 1801, "\u2581trip": 6596, "';\r": 18759, "gos": 20359, "\u2581Partido": 26595, "publish": 27296, "\u2581\u0412\u0435": 10854, "\u2581Pin": 17929, "MenuItem": 16675, "\u2581dello": 23864, "itung": 24422, "Clock": 24041, "\u2581Joan": 20616, "independ": 26982, "\u2581penal": 15572, "\u2581Fire": 8643, "\u2581USB": 11588, "\u2581rou": 17148, "\u2581meaningful": 19258, "\u2581transferred": 16266, ")+": 10528, "\u2581\u044f\u043a": 15143, "\u7981": 30415, "\u2581Father": 11432, "vscale": 24713, "<0xD9>": 220, "\u2581aircraft": 11475, "\u51b7": 31888, "working": 20867, "\u2581vote": 7893, "\u0100": 29940, "avis": 19677, "\u2581persu": 14861, "\u2581patches": 26961, "\u2581rush": 16002, "\u300d": 29577, "\u5747": 30637, "\u17be": 31394, "comes": 5254, "oir": 7236, "Dit": 15324, "aho": 24715, "\u2581screens": 18794, "\u2581rescue": 16011, "Abstract": 16384, "othe": 15203, "\u2581Ball": 11828, "staw": 24225, "\u2581sand": 6830, "\u2581please": 4665, "\u2581\u0438\u043b\u0438": 10476, "ENOMEM": 20259, "\u2581sobre": 7469, "\u2581\u0420\u0435": 9392, "\u2581(!$": 23942, "\u2581(__": 27534, "\u2581fost": 14096, "\u2581Heinrich": 22846, "urance": 4935, "\u2581horror": 15032, "azor": 18426, "\u2581smelled": 27594, "\u2581integrity": 20489, "eting": 7323, "btn": 8226, "\u2581Gabriel": 18804, "VC": 17832, "\u2581Deal": 27734, "\u0b9a": 30934, "\u2581Pour": 15540, "\u2581Kor": 17872, "\u2581existence": 9025, "\u2581nails": 26539, "agment": 6627, "une": 1802, "remarks": 21178, "\u04bd": 31932, "\u2581avril": 19330, "(!": 6469, "><?": 24787, "\u2581explored": 26761, "idy": 26576, "\u2581engineer": 18112, "\u2581navigate": 22689, "\u2581imports": 28365, "\u2581AR": 6108, "only": 5041, "QL": 5653, "\u2581bomb": 9914, "\u2581sliding": 25152, "\u2581laser": 19605, "ousel": 25400, "\u2581ancest": 14014, "owa\u0142": 11406, "\u2581oven": 19126, "\u2581F\u00f6r": 26638, "\u2581Hud": 20247, "()))": 9859, "lass": 12532, "chk": 28566, "\u2581fest": 12649, "\u2581kernel": 13653, "ited": 1345, "\u51e6": 30789, "icion": 26357, "Router": 16907, "\u2581conclusions": 24242, "heim": 9733, "\u2581bold": 15860, "\u2581climb": 17176, "\u2581selfish": 26206, "epsilon": 5956, "\u2581tiempo": 17925, "\u043c\u0438\u044f": 24684, "\u2581round": 3713, "\u2581foundation": 13865, "ising": 2979, "\u2581drivers": 13696, "\u2581Partial": 24590, "azioni": 13919, "Pars": 26412, "ray": 919, "\u4f4d": 29147, "\u2581General": 3592, "\u2581Z": 1054, "\u4e70": 30704, "\u2581guns": 11460, "umed": 22477, "\u3042": 29674, "\u2581Prest": 24478, "\u2581Flight": 27910, "direction": 15782, "being": 15823, "\u043d\u043e\u0432\u0438": 12129, "\u008b": 30474, "\u2581caract": 21825, "\\\\": 2214, "\u2581uk": 20028, "SSL": 14330, "ilde": 7894, "Pet": 24234, "\u2581Arbitro": 26607, "\ud2bc": 31285, "\u67d0": 30301, "\u2581Grow": 18456, "pus": 20272, "getString": 14077, "pts": 10730, "\u2581Niger": 15501, "even": 8790, "REAM": 18607, "\u2581analog": 16468, "shire": 10359, "ktion": 16591, "iers": 3378, "slice": 11485, "\ud83d\ude21": 31690, "idi": 10064, "guid": 26793, "\u2581Oklahoma": 23565, "ains": 1606, "\u2581test": 1369, "\u2581Connect": 21873, "textrm": 18118, "\u2581Rating": 25181, "ioni": 6579, "itet": 8606, "\u2581lect": 11774, "drive": 26725, "\uc560": 31957, "oji": 27813, "\uac04": 30112, "bread": 28090, "\u2581\u0421": 1406, "UUID": 21033, "\u2581Mun": 15818, "\u2581cel": 9645, "\u2581bored": 19739, "\u62df": 31005, "Repo": 26280, "Organ": 21830, "\u2581designing": 26989, "\u2581Import": 15747, "\u2581travel": 4530, "\u2581Present": 21073, "\u2581canal": 21586, "obe": 8898, "ros": 2737, "Aggreg": 21648, "Len": 9408, "wide": 5734, "\u2581Gun": 20655, "Ar": 1364, "\u2581phases": 23105, "]:": 9582, "New": 2972, "\u2581offensive": 17381, "\u2581Result": 6760, "\u2581bour": 25715, "\u2581publish": 10094, "\u2581consultant": 28459, "ark": 719, "\u2581Integr": 18208, "}\\\\": 13085, "\u2581would": 682, "\u2581DS": 25840, "\u2581scale": 5657, "\u2581security": 4908, "\u2581famille": 18481, "\u2581Chain": 28454, "\u2581apart": 7413, "\u2581pants": 16721, "ells": 8855, "Hist": 8690, "IME": 14462, "\u02b0": 30194, "\u4f73": 31255, "Gr": 7406, "Ge": 5909, "\u2581'',": 9815, "\u2581Saison": 19031, "\u2581height": 5110, "wait": 6901, "ino": 2164, "\u2581Hass": 27340, "\u2581quantity": 15069, "\u30fc": 28990, "\u30d2": 31311, "SC": 3315, "\u2581compl": 3852, "\u2581vit": 11781, "\u2581van": 1697, "\u2581Karl": 10648, "\u2581affili": 11795, "\u2581/******/": 19250, "\u0c02": 31548, "ittest": 27632, "sample": 11493, "\u2581hilar": 27413, "\u2581Dum": 28512, "n\u00fd": 24160, "\u2581Sequ": 22716, "Appe": 16929, "\u00c2": 29053, "\u0254": 29410, "ipeline": 8384, "\u2581Mus": 3779, "igt": 8335, "Failure": 16274, "\u2581succeed": 9481, "\u2581shapes": 17187, "mes": 4137, "\u2581tamb\u00e9m": 17591, "\u9694": 30451, "ilo": 10630, "\u2581{'": 12012, "\u2581situations": 11846, "\u50a8": 30180, "ASC": 27323, "dule": 5898, "\u2581haar": 23753, "\u2581\u0441\u0442\u0440\u0430": 13488, "\u2581\u0432": 649, "\u2581Des": 2535, "\u2581doctor": 6676, "aupt": 12099, "cou": 20172, "\u724c": 30324, "<<<<": 17192, "\u2581explode": 27930, "\u2581changes": 4435, "\u008e": 29637, "\u2581Sam": 4157, "@@": 15168, "\u2581View": 7022, "\u2581Emma": 17636, "\u2581associate": 18560, "ismo": 7027, "\u2581gesture": 19313, "\u4e4e": 31981, "zk": 14109, "\u2581Members": 17131, "machine": 19569, "\u2581pit": 11265, "\u4f55": 29984, "\u2581lovely": 12393, "\u2581sto": 21651, "();": 692, "\u2581included": 4658, "\u2581Papers": 24697, "\u2581ent": 936, "cken": 18422, "\u2581relax": 8096, "\u4e48": 29797, "angs": 23766, "\u2581sinc": 19025, "city": 18373, "\u2581Andrea": 24009, "hn": 10721, "\u2581\u0430\u043b\u0435": 28497, "\u56e2": 30756, "\u2581Brand": 14135, "\u2581bi": 4240, "updated": 18169, "\u0442\u0435\u043c": 18988, "\u2581gradually": 17885, "\u2581verk": 21164, "Mad": 22762, "\u2581Cra": 17129, "\u2581criminal": 11392, "aises": 25515, "\u2581accomp": 14231, "zer": 3506, "\u0447\u0435\u043d\u0438\u044f": 19476, "bal": 6323, "\u2581bite": 18082, "uter": 20073, "mans": 20661, "\u0440\u043e\u0432\u0430\u043d": 21306, "\u2581&(": 27029, "\u2581accident": 8318, "var": 1122, "\u2581climbed": 17070, "selves": 3083, "\u5408": 29234, "\u2581appeared": 6178, "))\r": 14668, "um": 383, "encode": 12079, "\u015e": 29528, "liferay": 18802, "\u2581Lev": 10249, "}</": 10050, "ierno": 20122, "\u2581\u0441\u043e\u0441\u0442\u043e\u044f": 22202, "\u2581given": 2078, "\u2581admission": 23488, "\u2581Rail": 13056, "\u0437\u0432\u0430": 10246, "Very": 26119, "elin": 26310, "Bro": 21404, "\u2581Wend": 23025, "\u30d7": 29522, "\u2581nullptr": 7648, "\u2581stem": 17854, "\u2581server": 5116, "\u2581\u043c\u0435\u0434\u0430": 28165, "\u2581standards": 9890, "bat": 8682, "azz": 7130, "\u2581particip": 4105, "\u2581att": 998, "\u2581$(\"#": 27549, "\u2015": 29370, "panic": 19771, "\u2581fen": 27442, "Hex": 21934, "issa": 13723, "\u2581Ros": 8550, "\u2581Labour": 16873, "Rx": 27557, "reak": 1196, "MetaData": 26620, "\u7ec7": 31500, "\u2581eu": 19932, "\u2581Lan": 21992, "\u2581altre": 28027, "\u2606": 29839, "forming": 23738, "\u0440\u043e\u0434\u0438": 21145, "\u00d3": 29125, "<0xC3>": 198, "Form": 2407, "\u2581invol": 3303, "ridge": 9163, "ges": 2711, "\u2581|=": 6764, "\u0129": 30400, "version": 1790, "\u2581initiated": 28086, "\u2581Theory": 27211, "\u226e": 31656, "\u2581premi": 9869, "\u2581Unidos": 16579, "est": 374, "win": 5162, "\u2581ras": 28104, "\u2581Total": 10711, "GEN": 12835, "\u0447\u0435\u0441\u043a\u043e\u0433\u043e": 21697, "aching": 10028, "Debugger": 23650, "\u0927": 31080, "Conf": 10193, "Wrapper": 10843, "\u2581mer": 3051, "\u2581Revolution": 13850, "IB": 6147, "\u2581praise": 20707, "\u2581suspended": 21342, "vest": 6281, "cfg": 6245, "Who": 11447, "Feed": 20967, "\u2581autonom": 25009, "\u2581Glad": 28692, "\u2581parts": 5099, "\u2581Ralph": 23373, "margin": 14656, "sig": 13743, "loop": 9374, "\u2581dc": 28528, "\u2581somewhat": 10963, "Sm": 10259, "czy": 11486, "partition": 18225, "\u2581Hillary": 27584, "\u2581anys": 23949, "Rec": 3755, "\u2581speaking": 8711, "\u6bcd": 30518, "\u2581\u0441\u043e\u0441\u0442\u0430\u0432": 12281, "\u2581Trib": 18911, "wp": 9359, "DIO": 18036, "avorite": 28463, "\u2581extend": 11696, "\u2581Cooper": 17247, "\u0160": 28966, "\u2581courts": 18025, "\u2581addr": 12194, "Socket": 12500, "\u2581computer": 6074, "chn": 1818, "}\")": 24984, "\u53bf": 29406, "\u2581Franklin": 15181, "\u8ddf": 30848, "ces": 1377, "\u2581\u043c\u043e\u0436\u0435": 16903, "INTE": 28421, "schedule": 20913, "\u8001": 30209, "\u2581allocate": 21637, "\u2581}\r": 3426, "\u0015": 30675, "Mark": 8157, "\u2581dialog": 10436, "\u2581stove": 28479, "\u2581nom": 3334, "straints": 17005, "pre": 1779, "fully": 3071, "MAIL": 28297, "\u2581th": 306, "\u2581liberal": 14987, "compare": 15715, "egen": 5772, "\u2581branches": 15407, "blk": 17461, "\u2581D": 384, "\u0930": 29319, "\u5bcc": 31017, "aise": 5395, "rij": 8017, "\u2581selected": 5937, "pod": 16339, "\u2581gradu": 7461, "\u2581mog": 19841, "\u2581recommendation": 26077, ".'\"": 26773, "urchase": 20569, "dim": 5449, "terior": 11476, "\u2581reaches": 18710, "Leg": 14537, "\u2581Juan": 12029, "\u9759": 30709, "Follow": 28093, "\u103a": 30247, "\u0325": 30808, "\u2581Kingdom": 11508, "alias": 16469, "\u2581traditional": 7062, "\u2581iron": 8075, "atin": 12844, "\u2581\u043f\u043e\u043b\u043e": 17996, "\u2581estaba": 18281, "Views": 24252, "\u2581manage": 8594, "\u2581sen": 5351, "\u2581streak": 23210, "ocate": 22337, "}}}": 14111, "||": 9173, "becca": 24696, "request": 3134, "making": 14727, "\u0e0a": 29851, "\u2581\u0445\u0440\u0430": 25453, "\u2581tempo": 16386, "\u2581forehead": 18522, "\u2581centered": 25904, "emy": 6200, "high": 9301, "\u2581\u0437": 1119, "\u2581Coast": 13340, "\u2581gathered": 13398, "\u2581cet": 25068, "DITION": 11160, "\u5c42": 29990, "\u2581winter": 8539, "\u2581dessen": 23092, "Worker": 18155, "\u043d\u0430\u043b\u0438": 24229, "azu": 22960, "\u2581st": 341, "\uc9f8": 31003, "Label": 4565, "quick": 27263, "\u2581suiv": 15434, "\u2581torture": 26026, "Timer": 12596, "\u2581java": 3070, "change": 4078, "\u2581Episode": 24772, "\u043a\u043e\u0457": 26962, "ublice": 17185, "\u178e": 31803, "\u2581Candidate": 23459, "\u30b4": 30797, "\u0e2b": 29601, "\u2581prin": 7823, "\u2581Party": 6636, "\u2581si\u0119": 6379, "eff": 6610, "\u044f\u0431\u0440\u044f": 12251, "\u2581grey": 15543, "\u2581suspicion": 27865, "Zone": 13962, "\u2581Nation": 14317, "\u2581setTimeout": 28168, "\u2581resid": 12899, "\u5373": 29898, "\u0f44": 31558, "\u7b7e": 29619, "\u2581reform": 9861, "\u2581Organ": 8702, "\u30e2": 30177, "Bar": 5293, "\u2581wieder": 13125, "\u2581chill": 21332, "Api": 7119, "\u2581Airport": 16795, "\u306d": 31197, "\u2581tons": 15995, "atrice": 23097, "\u2581proportion": 19938, "COUNT": 14167, "\u2581leurs": 17951, "\u0449\u0430": 6770, "\u2510": 31175, "serve": 7688, "\u2581Kel": 21564, "sterreich": 17844, "\u65af": 30320, "<0x5E>": 97, "voj": 27172, "\u041d\u0430": 24192, "\u2581cock": 12408, "\u2581comment": 4517, "READ": 8172, "\u2581beautiful": 4672, "fff": 25654, "\u2581guided": 23701, "ang": 602, "\u2581go": 576, "vious": 2123, "controller": 11517, "Partition": 20435, "unlock": 8161, "\u2581\u043b\u0430": 16064, "}}^": 21308, "\u2581dw": 10743, "\u2581hers": 4257, "\u0ba8": 31393, "\u2581Campbell": 20760, "\u043d\u0430": 612, "')\r": 22186, "\u2581jul": 17521, "options": 3538, "consum": 17125, "\u2581bonus": 14023, "On": 2486, "\u2581environments": 20031, "fin": 3013, "ids": 2298, "enz": 7322, "\u2581CEO": 13117, "returns": 7617, "\u0440\u0438\u0442\u043e": 13545, "\u2581Chi": 17792, "idges": 20499, "\u2581Duke": 15619, "APTER": 13531, "\u2581argued": 14939, "\u2581Hitler": 14856, "mapping": 15889, "\u2581competitors": 24619, "\u2581bem": 28111, "\u2581encouraged": 15863, "\u2581dan": 11555, "esc": 8714, "\u0e99": 31904, "\u2581\u0441\u0430": 4468, "esse": 9892, "\u2581assass": 16645, "isen": 10555, "\u2581Ident": 15220, "\u2581eller": 17994, "Station": 23558, "\u2581ander": 21488, "\ub7c9": 31314, "\u03a8": 31374, "\u2581bigger": 9942, "\u2581Liberal": 18736, "stv\u00ed": 24574, "\u2581environment": 4466, "\u2581Ad": 1964, "\u2581robot": 18401, "Attrib": 28133, "\u2581Alber": 16531, "\u0441\u0442\u0443\u043f": 15796, "Lif": 28461, "PRI": 22785, "shall": 12126, "\u2581atmos": 12644, "\u2581Bol": 10823, "\u10dd": 29627, "\u2581pon": 17984, "\u2581\u041e\u0441": 20203, "\u2581words": 3085, "DAY": 24841, "\u021b\u0103": 25055, "\u2581assembled": 26309, "\u2581alcohol": 11070, "\u2581specify": 15759, "\u2581Chile": 17406, "\u2581slip": 13070, "\u2581execut": 4546, "\u2581earning": 25290, "\u2581\u0413": 2592, "\u2581handler": 9694, "\u2581successfully": 10130, "urbed": 22306, "\u0907": 31391, "\u2581nau": 26049, "created": 13574, "Tools": 22423, "\u2581Gray": 19420, "<0x7B>": 126, "xis": 12658, "\u2581\u041c\u043e": 8968, "FILTER": 24139, "ografie": 16976, "\u2581**_": 23269, "\u0433\u0435\u043d": 18814, "\u2581keyboard": 19073, "\u2581keep": 1840, "\u2581degree": 6153, "rus": 17355, "\u2581y": 337, "Cmd": 10490, "Before": 11273, "\u2581cig": 11595, "skin": 24208, "\u2581booth": 26868, "\u2581g\u0142": 24245, "AAAAAAAA": 21844, "getData": 25842, "Cast": 13502, "\u2581soph": 16500, "Extra": 18982, "\u6c60": 30647, "\u6784": 29612, "urn": 453, "MC": 7814, "/_": 23762, "\u2581expansion": 11120, "nov": 20920, "\u2581description": 5436, "\u2581Th": 542, "\u2581dive": 25198, "\u2581elevator": 26445, "leading": 22066, "ai": 1585, "rial": 6144, "\u2581Coupe": 28650, "ifiers": 11980, "AND": 5208, "BAD": 23787, "\u6cd5": 29095, "\u0169": 30562, "\u043e\u0432": 14592, "\u2581Kentucky": 21509, "Called": 22614, "edia": 5184, "\u5f71": 30083, "\u2581Private": 14363, "ORY": 10602, "\u0440\u0438\u043d": 20578, "\u2581\u00c9t": 14011, "\u2581stuck": 10231, "Ob": 1445, "\u2581facing": 11981, "langle": 8214, "hm": 16913, "\u2581publications": 23311, "\u2581\u0432\u043e\u0439\u043d\u044b": 24651, "\u2581arms": 5574, "\u2581wives": 24868, "\u0433\u0430": 2618, "\u2581Controller": 25677, "\u2581variation": 18423, "\u2581illustr": 8740, "\u2581tourist": 23254, "\u2581intent": 8284, "\u2581mim": 26302, "\u00b1": 29023, "\u06ba": 30695, "\u2581Pot": 10650, "\u2581hous": 5995, "\u045b\u0438": 25213, "\u0939": 29972, "\u2581License": 2319, "\u2581\u0438\u043c\u0430": 19120, "\\\",": 22334, "\u2581reflects": 24345, "omorph": 11179, "enter": 7262, "DOWN": 17601, "random": 9121, "frames": 19304, "_;": 11446, "\u2581[`": 27875, "quad": 3613, "\u2581design": 2621, "\u043c\u043f\u0438": 12737, "utz": 13533, "\u2581\u0421\u0435": 10329, "present": 12497, "\u2581\u0444\u0440\u0430\u043d": 26186, "\u2581bg": 20239, "gle": 6277, "\u200f": 30128, "\u2581ist": 3103, "\u1e93": 31905, "\u2581mondiale": 23917, "\u1fd6": 30886, "\u2581\"../": 15835, "course": 11987, "Level": 6268, "\u2581hans": 24401, "rem": 1569, "\u0451\u043d": 8576, "google": 4736, "\u2581Gott": 24543, "\u2581url": 6855, "\u2581differences": 11090, "erts": 9916, "\u2581nations": 14913, "\u2581traged": 21389, "\u00fclt": 19141, "\u2581Ky": 15595, "\u2581series": 3518, "\u2581Horn": 19514, "Three": 24851, "\u2581wrap": 12551, "\u2581rip": 21832, "\u2581contributing": 25885, "Radius": 19284, "cies": 20023, "\u591c": 30755, "\u6761": 29391, "comb": 17305, "\u2581\u2581\u2581\u2581\u2581\u2581\u2581\u2581\u2581\u2581": 756, "\u2581Final": 10222, "\u2581przez": 12534, "Fix": 23201, "\u2581varieties": 27610, "\u0441\u0442\u0440\u0438": 27342, "Anim": 14224, "\u2581global": 3526, "olute": 13703, "\u2581February": 5353, "\u2581\u0420\u043e": 5850, "\u2581Seth": 28407, "\u2581tires": 25966, "\u2581\u0447\u0438": 9069, "\u957f": 29495, "\u2581belongs": 17827, "\u2581s\u00f3": 25119, "\u2581Washington": 5924, "\u2581k\u00f6r": 28059, "\u2581conform": 16565, "Word": 15170, "\u7b56": 30777, "\u2581Lau": 28128, "')->": 18364, "\u2581nahm": 28196, "\u2581secondo": 23958, "ENT": 2431, "ussen": 18682, "\u2581ranking": 21620, "curr": 14032, "Groups": 14958, "Del": 9489, "\u2581encryption": 27591, "\uc124": 30058, "ERROR": 4732, "\u2581studied": 9604, "\u2581incorporated": 23799, "__(/*!": 25351, "iny": 4279, "maybe": 22817, "\u2581rb": 27101, "\u2581drawn": 10421, "\u2581offense": 19952, "\u2581generating": 20365, "\u2581explain": 7282, "\u2581\u00falt": 15201, "\u2581User": 1247, "pars": 16490, "owa": 8253, "Management": 17997, "logo": 17506, "\u2581restoration": 27243, "isation": 5463, "\u2581collective": 17236, "\u2581Brigade": 27861, "\uc7ac": 30014, "Components": 16966, "details": 13856, "ief": 3417, "\u0433\u0456": 10217, "aches": 5131, "\u2581sides": 8480, "currency": 16714, "\u2581schol": 17733, "posts": 19853, "\u2581mob": 10886, "\u2581diabetes": 22794, "\u2581Sue": 22516, "\u2581shaft": 25534, "atomic": 14435, "\u2581emerged": 16188, "atto": 12676, "\u2581\u0430\u043a\u0430\u0434\u0435": 27820, "comfort": 12248, "\u2581Polish": 20329, "\u2581cloud": 6945, "\u2581Captain": 11410, "\u2581Doc": 18402, "\u2581fran\u00e7aise": 21801, "\u2581FI": 16148, "ounced": 14271, "leans": 20803, "\u2581Ign": 15923, "\u2581Like": 5410, "\u2581island": 8919, "\u2581declare": 13242, "setAttribute": 20675, "single": 14108, "py": 2834, "\u2581Isabel": 21274, "LAY": 14963, "TOM": 27507, "\u2581Clean": 14510, "ysz": 27713, "\u2581chicken": 13088, "\u2581cut": 3119, "\u2581Download": 16220, "::{": 21353, "},\r": 17695, "\u2581ebenfalls": 27836, "\u2581trainer": 28333, "info": 1817, "\u2581detail": 8291, "\u2581juni": 26489, "\u2581Nova": 20534, "\u2581cited": 22881, "\u0909": 31691, "\u2581medications": 28050, "OB": 8034, "\u2581aston": 21011, "\u2581orth": 17396, "\u2581modest": 23676, "\u2581Against": 27506, "\u2581sec": 5267, "Byte": 8150, "\u2581bike": 13045, "\u2581Poland": 17812, "\u2581utilize": 22535, "ratio": 22287, "Green": 22991, "\u2581saint": 27361, "\u94f6": 30661, "\u2581MAX": 11651, "Univers": 14953, "Ah": 17114, "\u06c1": 30235, "agra": 16208, "\u2581breast": 13886, "Sk": 9150, "\u2581\"%": 7919, "\u2581awkward": 17450, "\u2581febr": 24179, "\u2581pe": 757, "\u2581afford": 8205, "light": 3646, "\u2581Oz": 28321, "atalogue": 10626, "\u2581regulations": 15885, "Direction": 14757, "apter": 2902, "ArrayList": 17027, "routing": 17975, "\u2581toda": 26323, "\u00ea": 28876, "nm": 14946, "ling": 1905, "service": 5134, "\u2581nast": 18904, "asse": 4550, "\u2581GA": 24083, "Lock": 9192, "\u2581roku": 6739, "\u2581Unter": 10952, "\u2581Mouse": 27873, "train": 13641, "\u2581Club": 5933, "configuration": 13925, "\u2581ignored": 11389, "\u2581desired": 11785, "\u2581dest": 2620, "\u2581DJ": 18767, "\u5247": 31919, "\u2581ourselves": 8915, "\u2581brew": 18098, "csv": 19197, "emph": 7883, "\u2581[": 733, "help": 11538, "Hard": 23226, "///": 3312, "approx": 14561, "\u2581thermal": 18966, "\u2581Afr": 4700, "\u578b": 29173, "iev": 16198, "\u2581quella": 26818, "z\u0105": 10412, "\u2581Sym": 12356, "\u2581Amb": 12086, "\u2581socket": 13889, "crypto": 23614, "\u2581plane": 8573, "\u043d\u044b\u043c": 7490, "\u2581Econom": 11003, "\u2581Toy": 20944, "GPU": 25804, "DIS": 9385, "ensus": 9898, "\u786e": 29529, "\u2581columns": 11252, "\u2581Ring": 18705, "ous": 607, "\u2581Democr": 7005, "\u2581message": 2928, "\u2581cancell": 12136, "STER": 23194, "\u2581II": 3717, "*:": 16550, "\u2581Jam": 11776, "midt": 26366, "UBLE": 22873, "\u2581CHAPTER": 16399, "illo": 11151, "uru": 19099, "Field": 2297, "FIELD": 13452, "road": 8584, "ics": 1063, "\u2581Communications": 26141, "\u2581Production": 18860, "\u2581gri": 15854, "\u2581agency": 11344, "\u2581\u0427\u0435\u0440": 24552, "aat": 7748, "\u519c": 31538, "\u2581stand": 1876, "awn": 11646, "\u03b6": 30123, "\u6c38": 30507, "([": 5187, "rif": 10786, "oped": 11416, "!=": 14379, "imit": 8381, "\u2581parl": 18435, "\u2581Perry": 24150, "rypted": 16632, "\u2581Male": 23304, "let": 895, "continue": 10243, "\u2581goog": 25671, "ush": 1426, "Uniform": 23472, ")\\\\": 23527, "\u2581),": 6223, "Pool": 9022, "\u2581Mat": 5702, "\u2581programming": 16292, "\u2581bought": 7620, "g": 28721, "domain": 8692, "harm": 24418, "\u2581Rich": 4656, "\u2581\u041a\u043e": 5779, "\u2581insist": 26648, "\u2581Fol": 12543, "\u2581fame": 24665, "\u2581Dopo": 28170, "\u2581File": 6184, "FUN": 9793, "!\\": 8263, "\u2581trying": 2942, "\u2581artist": 7325, "\u0447\u0430\u0442": 22556, "\u2581anal": 2880, "\u2581org": 2247, "attery": 18286, "pal": 11920, "achi": 23827, "\u2581way": 1069, "Settings": 5546, "bage": 14054, "\u2581HAL": 16879, "stell": 11647, "\u2581ate": 15732, "NEW": 19917, "\u2581jest": 10572, "Admin": 11744, "\u9632": 30338, "Desc": 8332, "ceed": 3988, "Spring": 24314, "\u2581Pattern": 26572, "Br": 7038, "\u904d": 30436, "\u5355": 29113, "\u2581used": 1307, "::_": 21312, "\u2581renew": 13293, "\u2581Zen": 25153, "\u2581bra": 12015, "aker": 4776, "\u2581nin": 11184, "\u2581dawn": 16678, "\u6625": 30643, "teil": 14084, "\u2581',": 15246, "\u2581productivity": 24504, "\u2581crimes": 17440, "\u2581Night": 10357, "\u2581Secret": 9233, "\u79d1": 30226, "ceive": 11642, "ber": 537, "\u2581Gru": 15296, "\u2581gene": 17198, "\u2581La": 1700, "addr": 3645, "\u697d": 31973, "\u2581float": 4932, "\u2581chair": 6225, ")$.": 7239, "four": 14171, "\u2581connecting": 19135, "\u2581": 28705, "\u2581most": 1080, "\u2581Route": 15593, "\u2581J": 475, "ORDER": 20938, "\u0446\u0435\u0440": 26654, "long": 4353, "\u2581view": 2204, "Gateway": 22479, "\u2581viewed": 16861, "apped": 3854, "stack": 6637, "\u2581episodes": 17142, "acy": 2426, "\u2581Figure": 9240, "gio": 11138, "uen": 8256, "feed": 16454, "Sync": 10567, "\u2581sequences": 22456, "\u2581Haz": 23990, "aris": 17971, "BUS": 18680, "\u2581locate": 22920, "ieck": 27578, "lem": 2933, "\u017f": 30515, "\u102f": 30987, "\u2581patron": 20367, "\u0e0d": 31064, "\u2581urged": 24560, "\u2581appl": 14933, "\u2581ay": 15250, "\u2581see": 1032, "\u2581\u0434\u043e\u043b": 17483, "\u2581sugar": 9984, "\ud560": 29723, "\u2581qualified": 14786, "\u3058": 30692, "\u2581ident": 2562, "sn": 6713, "\u2581pressure": 6403, "\u2581\u0441\u043b\u0443": 12276, "\u2581liv": 9678, "\u1798": 30264, "\u0447\u0435\u0441\u043a\u0438\u0435": 24458, "\u00e9qu": 14177, "\u10e8": 30300, "ours": 2020, "agner": 23862, "\u2581gard": 13837, "\u043b\u0443": 2932, "\u2581Advanced": 22742, "\u2581Hugo": 24875, "disp": 28223, "\u0576": 29688, "\u2581Writer": 28167, "\u2581Sm": 3539, "\u30d5": 29412, "\u2581Doug": 27256, "Cell": 7740, "cticut": 23188, "\u2581prv": 24949, "\u6a21": 29266, "\u51b2": 30745, "\u2581delet": 21750, "\u2581vehicle": 8114, "\u2581heeft": 21006, "\u2581Visit": 16660, "emark": 21819, "=\\\"": 9047, "akte": 22496, "glass": 23846, "!\"": 2781, "\u2581multi": 6079, "Integr": 23636, "Supp": 15653, "omena": 26504, "\u2581pill": 10837, "\u2581Fellow": 23783, "indow": 1511, "\u2581Wallace": 26533, "\u2581mie": 15216, "\u2581overwhelming": 18894, "\u0456\u0431": 16821, "tring": 850, "\u2581minimum": 7968, "ients": 2785, "WD": 23460, "\u60e0": 30919, "|^": 16404, "\u2581bef": 23399, "\u2581\u0437\u043d\u0430": 9812, "pel": 14605, "headed": 25767, "Re": 1925, "\u50b3": 31036, "\u2581civil": 6259, "AIN": 18059, "\u2581pode": 26165, "\u2581duty": 11193, "but": 2391, "\u027e": 30242, "\u2581Poll": 19116, "Based": 24207, "\u2581Fred": 11317, "\u2581deputy": 25176, "\u2581McK": 18346, "Pers": 13603, "\u266a": 31020, "\u2581date": 3608, "prev": 10083, "phan": 19058, "\u2581republic": 19988, "\u2581Catherine": 20126, "\ufffc": 31491, "rho": 4132, "\u2581sar": 24393, "\u2581None": 3635, "\u2581making": 2492, "\u2581Stalin": 24068, "\u2581gains": 21722, "trans": 1281, "\u2581Hall": 6756, "umper": 26089, "warn": 13039, "\u2581structures": 11294, "\u0173": 30102, "\u2581absolute": 10287, "Index": 2359, "xA": 18178, "=%": 9017, "\u2581fund": 3360, "\u2581FA": 13353, "een": 9995, "\u2581Down": 8560, "inda": 16224, "CI": 5726, "ill": 425, "MAC": 13037, "iveau": 22566, "there": 15325, "ante": 2237, "\u2581syndrome": 27481, "nail": 21418, "blue": 12349, "amount": 12922, "\u2581:)": 15108, "ytics": 18717, "\u2581TD": 26516, "inet": 7752, "\u2581Paper": 20038, "\u505c": 30152, "piece": 17152, "enze": 28060, "\u2581territo": 26372, "tik": 21573, "\u2581SD": 8629, "ice": 535, "esian": 17754, "running": 17316, "ory": 695, "Parallel": 26549, "white": 10635, "azure": 17932, "\u2581Vlad": 20551, "\u2581Conservative": 21753, "*).": 12619, "rgb": 14226, "\u2581harsh": 18138, "\u2581cro": 7950, "oor": 11019, "\u2581peer": 13669, "WC": 23046, "\u2581leak": 24798, "target": 3731, "\u2581Marc": 9142, "gon": 28684, "\u0086": 31038, "\u2581OF": 4033, "Mod": 1701, "\u0bc6": 31576, "Pen": 26950, "\u0441\u043c\u043e": 27231, "\u2581Commander": 22690, "create": 2578, "\u2581heart": 3031, "afi": 27312, "\u2581space": 2764, "\u2581Furthermore": 13695, "\u2581cities": 9245, "\u2581approximately": 10870, "]],": 11789, "\u2581\u00ab": 1509, "\u2581Klein": 26526, "\u2581overl": 27086, "\u2581Fl": 2494, "\u2581alleged": 22362, "\u2581larg": 3201, "\u2581kne": 7770, "\u2581goes": 4859, "\u2581Course": 19688, "\u2581correct": 4714, "\u2581consolid": 22968, "ffen": 27022, "OP": 2759, "\u2581Nah": 28603, "\u2581inflation": 20613, "SY": 6358, "\u2581brings": 11164, "\u2581Dallas": 19041, "\u2581missing": 6925, "EA": 18772, "\u2581Schul": 21494, "\u2581Union": 7085, "tain": 12092, "\u2581conventional": 17215, "\u2581shorter": 19367, ")_{": 20431, "\u2581worked": 4198, "\u2581Chapter": 7513, "\ucc3d": 31476, "\\}$": 17006, "\u2581voters": 17947, "\u2581cycles": 23221, "rot": 5490, "\u2581regulation": 22470, "\u2581\u043b\u0443": 24641, "\u2581##": 531, "\u0432\u0441\u044f": 17425, "Hal": 26924, "\u3068": 29316, "\u2581Mull": 27647, "\u2581feature": 4480, "\u2581Personal": 12860, "\u2581reading": 4865, "\u2581Zur": 25571, "\u0281": 30024, "Host": 7287, "\u2581separate": 7681, "\u0441\u0442\u0430\u0432\u0438": 16316, "memory": 11336, "isson": 20947, "Er": 17900, "\u2581Earth": 8599, "ik": 849, "uniform": 26786, "PACK": 20683, "\u904b": 31704, "\u2581Ask": 19500, "\u2581compt": 27821, "\uc2a4": 29304, "ford": 4401, "\u2581instinct": 16823, "llvm": 17978, "\u2581faz": 25406, "\u2581bei": 5617, "uuid": 16474, "\u2581channels": 11671, "\u00e5n": 7743, "\u2581clouds": 16393, "ixa": 27375, "\u2581defence": 22763, "\u2581coins": 18683, "\u2581toString": 26297, "\u2581consecut": 19213, "\u2581divid": 17436, "\u00bf": 28970, "\ud83d\udfe0": 30867, "\u091c": 30196, "ovo": 10356, "echo": 10030, "Clear": 13012, "construction": 18519, "\u2581Glas": 22462, "label": 1559, "\u8be6": 29852, "Warning": 16185, ":_": 19746, "ila": 5945, "\u2581Develop": 8587, "\u2581Arm": 9700, "\u2581assistance": 11611, "\u66f2": 30580, "ployed": 28246, "\u2581++": 6537, "aran": 22754, "\u2581respon": 2603, "\u6267": 29556, "ici": 2650, "\u2581Remote": 27260, "\u2581listade": 13129, "\u2581messages": 8570, "RS": 11306, "CPU": 16102, "question": 17496, "\ub9e4": 30556, "\u2581phenomenon": 20757, "\u2581Stephen": 12332, "\ub294": 29175, "inis": 24479, "\u2581adult": 6555, "anca": 19205, "()}": 25800, "\u2581\u043c\u0456\u0441\u0446\u0435": 26972, "\u00be": 29867, "\u2581pap": 12930, "\u2581receives": 21415, "\u2581audio": 10466, "apest": 20804, "elcome": 23079, "\u2581PART": 11355, "\u2581handle": 4269, "\u2581fallen": 12962, "very": 646, "PHY": 21852, "\u2581MODULE": 27023, "\u2581propaganda": 24010, "\u2581written": 4241, "ordon": 13499, "\u2581Vit": 20874, "len": 2004, "GD": 25730, "idos": 7037, "Je": 19485, "\u2581announce": 12411, "\u2581Iss": 16448, "liament": 10669, "apolis": 20389, "\ub9d0": 31253, "\u2581BL": 19987, "\u2581personas": 22796, "\";\r": 11880, "\u2581determin": 16710, "\u2581attr": 7527, "\u2581artic": 22187, "\u2581colors": 9304, "\u2581cheer": 17096, "\u2581IF": 14184, "book": 3521, "\u2581):": 19174, "ubl": 12337, "\u2500\u2500": 16526, "\u2581Thomas": 6083, "\u0441\u044c\u043a\u0438\u0439": 10379, "ental": 7540, "osten": 17074, "\u2581loads": 22560, "\u2581evolution": 10195, "v\u00e4": 15751, "():": 5888, "System": 3099, "\u2581nog": 19340, "\u2581arrangements": 20229, "\u2581\u043d\u0430\u0441\u0435\u043b\u0435\u043d\u0438\u044f": 23031, "ativa": 15618, "assador": 19536, "\u2581lookup": 21275, "\u2581rub": 7294, "iven": 5067, "\u2581Kle": 14306, "\u0399": 29864, "<0xCE>": 209, "\u2581forget": 7120, "Camera": 16521, "\u2581attorney": 15085, "\u2581list": 1274, "\u2581received": 3874, "\u2581\u043c\u0435\u0436\u0434\u0443": 16360, "\u7b2c": 29353, "\u7ed9": 29709, "\u2581Galaxy": 28228, "Media": 9426, "\u2581functions": 5572, "\u2581Caption": 6534, "tim": 7452, "\u2581Lucas": 19531, "\u2581tur": 8586, "?)": 15009, "kes": 10774, "\u2581];": 11890, "usk": 14948, "branch": 19175, "\u2581altern": 5720, "\u2581dre": 21808, "\u2581leaf": 15080, "iddle": 3287, "\u2581patri": 17668, "\u2581turno": 27200, "\u6b66": 30183, "\u2581bug": 10079, "ain": 426, "parser": 11465, "\u043b\u0438\u044f": 13124, "\u2581mild": 16583, "\u2581Expression": 25031, "\ud45c": 30191, "\u2581aer": 21717, "\u2581boring": 19757, "\u7d1a": 31373, "\u064e": 29104, "Locked": 28554, "\u2581\u043c\u0430": 3845, "\u2581Este": 20586, ">%": 24801, "clear": 6206, "\u2581enterprise": 18355, "\u00f6r": 2024, "\u2581work": 771, "kg": 8087, "\u2581hun": 8275, "\u2581data": 1178, "shift": 9114, "\u2581formation": 11515, "unnel": 11925, "Release": 17327, "\u2581Neither": 19100, "otti": 22703, "POWER": 23453, "nah": 14354, "ustom": 1635, "\u2581`${": 22468, "\u8350": 30944, "\u2581\"'": 13006, "\u2581strength": 6342, "Graph": 8380, "Wait": 10309, "\u2581ni": 9030, "\u2581scenario": 13406, "\u2198": 29091, "\u2581eligible": 18711, "fab": 17547, "iso": 12419, "\u0e01": 29256, "\u2581som": 1113, "\u2581bounds": 14594, "\u2581irrit": 16418, "\u2581concentr": 8902, "Tw": 21173, "\u5fc5": 29593, "\u2581ruling": 21955, "archive": 23682, "\u2581Olympics": 21351, "comm": 1805, "\u0432\u0456": 4093, "\u2581retval": 25232, "\u2581mom": 1948, "enne": 9078, "itch": 1986, "\u2581specifically": 10107, "\u057f": 30521, "\u2581Equip": 18141, "colm": 28425, "<0xAF>": 178, "\u2581mg": 18144, "Inline": 19034, "\u2581brig": 20723, "shape": 7015, "oust": 18361, "\u2581dip": 14217, "getText": 20821, "\u2581sel": 7530, "<0x28>": 43, "\u2581septembre": 18599, "\uc18d": 30573, "\u2581],": 12052, "\u2581sharing": 10681, "\u2581EXPRESS": 27711, "<0x38>": 59, "LowerCase": 19855, "\u2581Lex": 20991, "And": 2467, "\u9673": 31908, "\u2581March": 4117, "\u2581\u0431\u043e\u043b\u044c": 15735, "\u2581integration": 14678, "\u6570": 28945, "\u0146": 30076, "whel": 12291, "\u7535": 29742, "\u2581Pa": 8144, "Co": 7170, "sz": 5027, "\u00e9ment": 22952, "\u2581uri": 22613, "\u2581\u0441\u043e\u0441\u0442\u0430\u0432\u043b\u044f": 19990, "\u2581developers": 17892, "ena": 3594, "inode": 9924, "\u2581ie": 21179, "\u2581damit": 23929, "\u2581Thursday": 10983, "\u2581profiles": 19727, "onden": 27353, "\u2581shame": 14717, "%)": 11526, "\u2581Jahrhundert": 19297, "\u2581Bau": 16095, "istrzost": 25000, "\u6d6e": 31171, "ledge": 3829, "\u2581occurring": 28265, "olent": 26346, "\u2581consultation": 24880, "tons": 8901, "\u2581Sin": 11794, "\u2581Oil": 16181, "cancel": 14883, "\u2581instructor": 27679, "\u2581deven": 24999, "uce": 12783, "\u2581measurements": 16080, "\u2581maid": 23408, "\u2581Tyler": 23307, "\u2581tempor": 6613, "\u2581split": 7925, "\u2581embedded": 20007, "Size": 2269, "\u2581looking": 2526, "=\"<?": 16294, "\u2581prolong": 24163, "stra\u00dfe": 20134, "\u2581recher": 26590, "\u2581retour": 26776, "\u2581nodded": 7313, "\u2581Nav": 9363, "(()": 10289, "geon": 14535, "\u2581baseline": 26605, "essages": 9251, "ydro": 11033, "\u2581tw": 2323, "\u2581lou": 20280, "getName": 10694, "\u53cb": 30060, "\u2581tile": 16741, "\u2581knees": 13431, "\u2581Bernie": 26009, "\u2581What": 1824, "tt": 781, "alt": 2304, "\u2581Carolina": 11434, "\u548c": 29131, "access": 6920, "amps": 10991, "\u2581sect": 23863, "\u2581pace": 13681, "\u2581anterior": 24449, "\u2581Sel": 11361, "\u2581Sql": 20950, "\u6e29": 30971, "\u2581reduces": 21123, "edo": 24436, "zy": 2140, "rund": 9265, "\u2581bij": 10826, "ocom": 18080, "\u2581folded": 20631, "ania": 4877, "Paint": 22795, "\u2581Baron": 23152, "Listeners": 28523, "licht": 15761, "Notification": 13756, "TARGET": 23187, "wood": 4871, "\u2581pity": 27381, "\u2581eng": 2536, "ris": 3665, "\u2581powerful": 6787, "II": 2559, "\u2581basic": 6471, "dma": 11492, "\u2581realizing": 27494, "\u2581THIS": 13624, "\u2581institutional": 28211, "\u2581Kunst": 19280, "\u2581Relig": 18877, "\u2581documents": 10181, "scribed": 27676, "\u2581\u0430\u043f\u0440\u0435": 23242, "\u2581born": 5381, "Unis": 18524, "\u2581\u0438\u0433\u0440\u0430": 20644, "\uae09": 31563, "oc": 402, "\u9f99": 30404, "hens": 7533, "psy": 23687, "\u2581disk": 11295, "owego": 22030, "ales": 2230, "\u964d": 30852, "\u2581ave": 14257, "\u2581cerca": 24615, "istration": 8585, "dec": 6669, "bits": 7669, "\u2581hook": 8825, "\u2581Welcome": 19417, "\u2581Sure": 12875, "\u2581dance": 9773, "iw": 11889, "\u7834": 31163, "DI": 3284, "\u0431\u043e\u0440": 12660, "uj\u0105": 20606, "option": 4694, "zen": 3039, "\u2581capacity": 8444, ")->": 6952, "expression": 15848, "\u2581z\u00e1": 19269, "\u2581Wol": 12840, "\u2581DCHECK": 22643, "CTX": 26564, "\u2581my": 586, "suspend": 21836, "\u0259": 29108, "\u2581\u0434\u043e": 2149, "\u2581Rose": 10655, "LANG": 21482, "\u2581rout": 6356, "OFF": 9770, "NotNull": 12559, "\u2581vulner": 12985, "\u2581Rain": 17774, "\u01d2": 30896, "\u6839": 29521, "rase": 10838, "\u2581blues": 27845, "sq": 4791, "ria": 3931, "Map": 2446, "\u2581competed": 27406, "\u2581voted": 17420, "uros": 22751, "\u2581responded": 15249, "\u10e3": 29951, "\u2581classroom": 19729, "Sir": 25994, "\u2581Chase": 26668, "\u2581drawing": 10916, "\u64c7": 31509, "xe": 8141, "\u2581Bru": 8944, "Writ": 25287, "othy": 18478, "ampions": 5624, "\u2581Film": 7425, "\u2581Euro": 14869, "\u2581v\u00ed": 22906, "\u2581meter": 14386, "\u2581\u043c\u0430\u044f": 25034, "amin": 8255, "\u94fe": 29615, "\u2581await": 4293, "\u2581primitive": 22739, "\u2581\",": 7717, "set": 673, "\u2581twist": 20746, "\u2581engl": 24670, "\u0448\u0430\u044f": 25356, "ho": 2124, "controls": 23664, "\u03ba": 29045, "\uad70": 31672, "('<": 23880, "\u2581caracter": 23574, "\u2581second": 1676, "ali": 4827, "wald": 26246, "\u2581participate": 14092, "Initialized": 24923, "\u62c5": 31950, "pons": 13532, "\u7f72": 31340, "\u2581juris": 21716, "ateurs": 19371, "\u2581c\u00f4": 22434, "aments": 22987, "ions": 594, "\u0440\u043e\u043a": 26531, "\u2581generator": 17128, "\u2581encountered": 19148, "\u2581single": 2692, "comment": 9318, "essa": 11826, "Cont": 1525, "\u95e8": 29870, "));\r": 10941, "\u043b\u0435\u043c": 16669, "\u2581Initialize": 18737, "\u2581Oak": 18005, "usion": 3623, "\u2581John": 2215, "*(": 13411, "Try": 17666, "\ub450": 30609, "ac": 323, "\u2581guarante": 7953, "\u043b\u0435\u0442": 20043, "uve": 22322, "\u2581\u0442": 3265, "\u2581tum": 14284, "isterschaft": 17651, "\ud83c\udffe": 31541, "\u2581ob": 818, "isons": 16149, "arette": 18409, "\u2581flush": 19329, "\u2581sust": 8131, "necess": 17172, "packed": 26713, "@": 28818, "\u2581Images": 25082, "ErrorCode": 26998, "\u2581damages": 25547, "\u6807": 29144, "\u661f": 29950, "\u2581Tommy": 20893, "\u2581dont": 7286, "onces": 22947, "che": 631, "agon": 4959, "\u043d\u043e\u043b\u043e\u0433\u0438": 25544, "storm": 22239, "oving": 8259, "\u2581WITHOUT": 8292, "\u2581opened": 4923, "\u2581klass": 27898, "RB": 24042, "\u2581erhielt": 23203, "\u2581es": 1037, "']))": 16433, "FA": 3120, "cluded": 27596, "\u2581American": 2556, "enburg": 22381, "\u2581reset": 9627, "Patch": 24936, "keeper": 18740, "\u0436\u0434\u0435\u043d\u0438\u044f": 28253, "\u2581zap": 19060, "alties": 23771, "\u2581kinds": 10698, "rep": 9157, "\u2581extends": 4976, "\u2581Hey": 17162, "background": 11563, "\u2581populations": 19439, "\u00e8tres": 21412, "Never": 22855, "\u2581Book": 5737, "\u897f": 29633, "\u2581Pent": 21619, "\u2581ones": 4413, "\u2581waren": 10744, "\u5a01": 31349, "<0x75>": 120, "\u2581threatened": 17351, "\u2581table": 2401, "\u2581NAS": 18064, "\u2581miejsc": 21719, "\u2581USD": 22858, "\u2581opponents": 23293, "plaatst": 14801, "\u2581classe": 20351, "ison": 2350, "Servlet": 13588, "ual": 840, "\u2581pure": 7972, "\u2581Mittel": 27026, "\u2581FITNESS": 13200, "\u2581para": 2646, "\u2581barriers": 27222, "team": 15075, "\u2581maximum": 7228, "\u2581thumb": 15762, "ek": 950, "\u2581habitat": 20878, "\u274c": 31200, "\u5ba4": 30763, "\u2581fluct": 19363, "arks": 7696, "Tracker": 21682, "\u2581Dis": 3433, "\u2581Method": 10011, "\u0440\u0443\u0434": 22308, "\u2581Arbe": 24355, "cers": 15148, "\u00e1ly": 16628, "\u2581Main": 8105, "oubtedly": 27136, "definition": 15196, "\u2581the": 272, "\u2581l\u00ed": 16101, "\u8d85": 29800, "lap": 15578, "\u2581Zwe": 16667, "XFF": 19881, "\u2581gir": 27585, "skim": 21444, "\u2581Garc": 26541, "\u2581Sir": 8351, "\u2581slower": 25642, "\u2581calls": 6470, "\u2581telling": 7124, "deprecated": 27083, "<0xC4>": 199, "bres": 13243, "\u2581thous": 5003, "\u0445\u043e\u0434\u0438": 7374, "\u2581roads": 15014, "\u2581Stad": 4988, "\u2581chef": 16749, "erry": 13327, "\u2581loyalty": 22295, "\u2581fixed": 6321, "\u2581runtime": 16183, "\u2581haz": 17617, "colors": 21249, "HAL": 19287, "rome": 7421, "\u2581PD": 28054, "\u2581Byte": 20376, "ission": 1937, "\u2581Juli": 17570, "outine": 22458, "\u2581\u0413\u0430": 12972, "\u2581bro": 1865, "cheduler": 17474, "\u4f3c": 30694, "\u043b\u043a\u043e": 23054, "\u0005": 30550, "\u2581Kath": 14940, "zt": 3903, "\u2581cer": 6942, "\u2581Philosoph": 22156, "\u0577": 31801, "\u043c\u0438": 1563, "\u2581arr": 4476, "hetic": 8696, "\u2581distinct": 9494, "\u2581puls": 26691, "typ": 23306, "\u2581Append": 20206, "\u2581\u00e9l": 10760, "\u2581>=": 3966, "\u2581Pope": 21633, "<0x2D>": 48, "\u2581audiences": 24460, "\u2581consistency": 23074, "\u2581OFF": 22615, "spring": 7558, "ish": 789, "\u2581soci": 14128, "\u2581\u043e\u0441\u043e\u0431\u0438": 27953, "\u2581?": 1550, "\u2581Focus": 24408, "UL": 1248, "\u2581signs": 10090, "\u2581k\u00f6z": 13271, "\u2581configured": 21529, "\u043a\u043e\u044e": 27908, "oses": 14779, "\u2581buck": 9918, "\u2581Others": 19038, "holder": 8229, "\u2581PORT": 23974, "\u2581mandatory": 26732, "\u2581nineteenth": 24078, "Fl": 3188, "\u2014\"": 6816, "By": 1930, "\u2581responsibility": 9680, "td": 2447, "\u2581uma": 5912, "\u2581colour": 11474, "alert": 14762, "\u2581Glen": 17529, "\u2581ignore": 9303, "\u8bb0": 29442, "\u2581stan": 17920, "WRITE": 12746, "\u2581encore": 16921, "\u2581Aaron": 20486, "ores": 3626, "HA": 13307, "\u2581darkness": 11691, "Den": 18039, "\u0109": 31962, "\u2581Bl": 2025, "\u2581bits": 9356, "\u2581satisf": 4864, "hir": 22590, "\uc744": 29189, "\u2581Einwohner": 21991, "\u2581plt": 17768, "Inter": 3355, "\u2581provincia": 24180, "KEN": 21802, "\u2581Ti": 24881, "riages": 28347, "\u2581exclusively": 21437, "Root": 7983, "detail": 16017, "\u2581ski": 21916, "\u2581Premier": 16103, "pix": 24799, "\u2581Ronald": 28173, "\u2581Products": 21061, "owy": 13344, "<0x4F>": 82, "iece": 21422, "\u2581lear": 27205, "\u2581tracing": 28469, "includegraphics": 7621, "\u2581dynamic": 10616, "\u2581\u2581\u2581\u2581\u2581\u2581\u2581\u2581\u2581\u2581\u2581": 17422, "JS": 11121, "\u2581features": 4190, "\u2581Nevada": 27671, "\u2581moisture": 28224, "\u2581\u0433\u0440\u0443": 9891, "\u0ca6": 31775, "===": 14203, "\ucabd": 31117, "Dao": 20660, "urable": 17499, "raction": 18296, "\u2581Tambi\u00e9n": 26363, "\u0408": 29033, "restore": 15949, "ests": 5946, "\u2581Ministry": 17036, "\u00fcr": 2355, "\u2581Steve": 10581, "\u2581text": 2245, "\u0093": 29331, "\u5404": 30344, "\u2581Hand": 6322, "Keyboard": 27418, "\ub791": 31495, "\u2581obs": 14848, "\u2581\u200b": 15758, "\u0448\u043a\u0430": 19544, "\u2581abundance": 25468, "\u2581Dire": 19370, "Encoder": 22352, "\u2581Dylan": 24288, "\u2581lon": 16341, "\u2581toutes": 25386, "\u2581rich": 6708, "\u2581rental": 18808, "\u0449": 28853, "VF": 27219, "\u2581Verm": 19191, "\u2581Nic": 11921, "\u2581Always": 17484, "\u09c1": 30408, "\u2581Studios": 24545, "\u2581owns": 25061, "\uc5d0": 29148, "roud": 8568, "\u2581Leb": 13304, "\u2581nerve": 23284, "shaller": 21771, "\u2581kole": 21840, "\u2581Aust": 3297, "\u65e9": 31121, "\u2581uniform": 8687, "issent": 27400, "zas": 26613, "\u00e8de": 24272, "\u2581incluy": 28527, "\u2581sustainable": 19318, "lot": 22682, "\u2581think": 1073, "ted": 17850, "uje": 12214, "about": 14146, "\u2581The": 415, "Blo": 28107, "bor": 3622, "\u2581grateful": 15131, "\u2581kol": 21772, "\u2581refuge": 14815, "\u2581Therefore": 8469, "\u2581rejo": 26351, "\u2581blue": 5045, "threads": 26202, "azed": 28063, "\u043e\u0440": 3135, "\u2581special": 2841, "\u2581marked": 10727, "\u304a": 30089, "children": 9342, "\u2581client": 3698, "BC": 4738, "frak": 7917, "\u2581Certain": 20828, "\u2581s\u0105": 23435, "\u4ece": 29505, "\u585e": 31411, "\u0441\u0442\u0440\u0430": 8088, "\u2581bell": 15676, "AD": 1841, "\u2581programme": 14441, "\u2012": 30998, "loat": 3496, "cole": 17973, "<0xDE>": 225, "\u2581Auto": 12191, "\u2581Reviews": 24429, "annot": 5886, "oubt": 22531, "faces": 9288, "\u2581\u0160": 13688, "Lite": 24701, "\u2581travels": 27651, "clam": 21453, "\u5e26": 30197, "\u2581compute": 12881, "HL": 11758, "export": 12707, "\u00fas": 11704, "\u2581s\u00e9": 7553, "rupal": 15030, "\u6b8b": 31649, "\u2581\u0442\u043e\u0440": 27964, "\u2581gibt": 21959, "kap": 26738, "\u2581Price": 11589, "uge": 3683, "hbar": 22559, "olo": 5053, "zed": 12616, "All": 2595, "\u2581boundaries": 16824, "\u2581Gir": 25560, "ND": 6916, "pend": 1693, "\u043e\u0433\u043e": 14197, "'];": 9153, "\u2581owner": 7162, "\u2581conscience": 26179, "Bay": 26663, "MM": 4962, "\u2581minute": 7117, "\u2581\u043a\u043e\u0442\u043e\u0440\u044b\u0439": 19676, "ungle": 22082, "\u7a2e": 31209, "\u09c0": 31406, "ictionary": 8078, "}$": 1211, "\u2581spo": 14444, "umm": 17068, "<0x51>": 84, "\u2581frances": 17923, "\u2581acceptable": 18636, "\u043d\u0430\u043c\u0438": 25039, "\u2581\u043e\u0441\u0442": 27635, "ma": 705, "\u2581nuts": 21204, "\u2581reduced": 9397, "bo": 1798, "\u2581pattern": 5340, "\u8a3c": 31592, "\u2581Ab": 2484, "ByComparator": 23270, "\u2581hf": 27573, "tag": 4011, "\u2581unters": 24760, "aken": 2589, "LOW": 9630, "\u2581disag": 12989, "\u2581Matthew": 15305, "\u2581leaving": 6285, "\u05b6": 30780, "\u1791": 30973, "\u2581afterward": 28587, "cia": 5011, "lab": 16847, "\u2581\u043d\u0430\u0445\u043e\u0434\u0438": 20772, "\u2581f": 285, "[];": 20895, "\u2581Rh": 10282, "\u2581FIX": 21467, "ualmente": 23335, "ords": 4318, "cal": 1391, "\u0434\u0435\u0440": 11078, "\u2581polite": 27057, "\u2581physically": 16094, "\u2581transportation": 17408, "\u2581foss": 21036, "\u9501": 30448, "\u5cf0": 31352, "Los": 26102, "VD": 10293, "unn": 5494, "regs": 12604, "Mutex": 25703, "\u2581limitation": 26775, "ben": 3173, "ptr": 2619, "\u2581CH": 6523, "iments": 8447, "\u2581fundament": 9676, "\u2581pays": 12429, "\ub098": 29695, "antine": 24120, "\u043f\u043b\u0430": 24392, "\u06d2": 30522, "\u2581plastic": 10409, "fty": 4805, "en\u00ed": 16640, "\u7e3d": 31936, "\u2581nej": 25699, "\u00e5": 28851, "\u2581meas": 5849, "\u2581nag": 25733, "\u2581Fill": 25518, "roz": 27641, "pd": 9885, "\u2581PCI": 18854, "FM": 18642, "pec": 841, "ultural": 12279, "\u2581salv": 18292, "\u2581clutch": 27883, "\u2581derivative": 25355, "\u2581depuis": 14661, "\u2581guerre": 20301, "\u056b": 29935, "moz": 24601, "ations": 697, "(/": 16552, "orest": 18115, "\u2581Speed": 19586, "\u2581All": 1682, "\u00f3": 28825, "istro": 24307, "Sigma": 9806, "\u2581fin": 854, "\u2581Tri": 9982, "PRESS": 21060, "\u2581team": 1918, "\u2581m\u00fasica": 23522, "Yes": 5613, "\u2581dou": 4259, "Callback": 6310, "quiry": 18831, "\u2581Archives": 28477, "Cap": 9953, "\u2581mare": 25420, "\u2581password": 7908, "\u2581wis": 14729, "\u2581towns": 17579, "\u2581jewelry": 25528, "\u2581sql": 12199, "\u2581neighbors": 17014, "habil": 23005, "ppo": 17652, "\u2581ten\u00eda": 23396, "<0x72>": 117, "\u4ea1": 31796, "ilst": 15078, "<0x9E>": 161, "\u2581Node": 10127, "IENT": 18009, "\u2581\u0437\u0430\u043d\u0438\u043c\u0430": 28335, "\u2581scandal": 28569, "\u514d": 30596, "\u2581independently": 22973, "\u2581Stre": 4589, "icro": 3130, "stances": 8732, "\u2581cours": 19780, "\u8d4b": 30823, "\u2581submar": 26680, "\u2581operating": 10513, "\u2581implements": 10538, "play": 1674, "agles": 26664, "\u2581Nom": 13055, "\u2581Rice": 26741, "\u2581grandes": 20892, "\u2581\u0422\u043e": 10378, "itty": 12032, "\u2581d\u00e5": 19774, "\u2581FR": 27790, "Wh": 1870, "})$.": 23012, "Slider": 26952, "\u2581Kot": 27209, "ob": 598, "\u032a": 30956, "bd": 8492, "Comb": 22865, "\u2581Lil": 24964, "\u02da": 31058, "\u2581Aug": 3219, "\u0432\u0440\u0430": 27767, "emu": 24067, "\u59d3": 30747, "\u2581recipe": 13405, "\u2581Ut": 13830, "\u2581\u041a\u0443": 11467, "igs": 11878, "Tests": 17136, "fang": 17907, "ATED": 14371, "winning": 24082, "\u2581neutral": 14214, "\u2581help": 1316, "Token": 3856, "alth": 1663, "insula": 27155, "\u2581Assume": 28024, "\u2581World": 3304, "\u2581hover": 18848, "\u2581Western": 8307, "\u2581remembered": 10216, "borough": 23056, "\u2581attraction": 24074, "ig": 326, "\u2581District": 8207, "Auth": 9083, "\u4e60": 30978, "\u0acd": 31486, "\u2581Jose": 6282, "eter": 1623, "\u2581\u043e\u0431\u043b\u0430": 8083, "oustic": 27621, "\u2581minor": 7626, "\u043d\u0438\u043c\u0430": 12629, "\u2581upp": 21343, "\u8f38": 31164, "Matrix": 10701, "odo": 11139, "\u2581generates": 26396, "\u2581exh": 26112, "\u2581d\u00e9f": 19907, "WISE": 26251, "\u2581card": 4148, "\u2581Nich": 15712, "\u2581electrical": 17828, "repo": 21150, "\u2581removed": 6747, "\u2581Maurice": 25350, "Hidden": 25460, "\u2581battery": 12609, "\u0010": 30388, "\u2581Ry": 15971, "\u2581cotton": 18633, "\u5c06": 29248, "\u2581\u0442\u043e\u0433\u043e": 18150, "\u5269": 31120, "\u2581Creative": 23626, "MOD": 8068, "\u1ead": 29667, "water": 9175, "\u028c": 31313, "cedure": 27032, "RW": 28592, "\u2581Sciences": 19364, "\u2581\u043d\u0430\u0437\u0432\u0430": 17370, "wright": 27528, "\u2581Jenny": 25785, "Rep": 4781, "\u2581BAS": 11502, "gener": 4506, "Cert": 12584, "\u2581veloc": 24376, "\u2581\u043a\u043e\u0442\u043e\u0440\u044b\u0445": 28202, "\u1e6c": 31658, "\u2581Philip": 7772, "\u2581sixt": 17930, "\u2581premi\u00e8re": 14102, "\u2581freely": 21964, "icates": 23860, "ador": 4487, "\u2581market": 2668, "\u2581complete": 4160, "\u2581Peters": 17658, "\u2581milit": 4116, "\u5fa9": 31711, "Bot": 25288, "ating": 1077, "\u2581rated": 25101, "eb": 1169, "\u2581standard": 4787, "grund": 19878, "\u5377": 31089, "\u2581suc": 9094, "zs": 27896, "\u2581is": 349, "\u2581ber": 10831, "ivil": 4617, "\u2581Front": 13794, "\u2581reb": 14547, "\u2581Animal": 26724, "\\|_{": 26978, "\u0936": 30432, "SION": 8439, "\u7d93": 31139, "bru": 13065, "uper": 19375, "\u2581Ide": 14017, "\u2581contains": 5876, "\u2581Observable": 27572, "iterr": 19647, "\u2581techn": 2412, "\u2581Details": 16329, "Because": 17098, "\u2581exhibit": 22620, "ea": 11062, "\u2581l\u00e0": 26941, "agi": 22657, "ci\u00f3n": 7909, "zza": 16802, "\u5ca9": 31581, "Team": 17887, "suite": 15677, "solid": 27344, "unt": 2794, "eben": 8960, "\u2581divine": 20428, "\u2581Argument": 19189, "sing": 11601, "\u2581sends": 20980, "\u043d\u043e\u044e": 19130, "\u2581keywords": 28049, "Vol": 9503, "ioctl": 26478, "CRE": 9014, "\u2581solid": 6861, "OLD": 12020, "\u2581Tag": 12996, "\u2581\u2013,": 20120, "\u2581strangers": 24305, "\u2581tp": 21070, "\u2581Oliver": 17979, "\u2581trunc": 23832, "bling": 6357, "\u2581peripher": 27707, "\u2581ten": 3095, "\u2581percent": 4153, "EQ": 5692, "At": 3167, "\u2581welfare": 21607, "\u20b1": 31535, "\u2581reass": 18126, "\u2581updates": 11756, "\u2581effective": 5645, "\u2581continuing": 15317, "\u2581Rosa": 25649, "\u2581press": 2944, "utch": 9244, "elijke": 11718, "\u2581Hong": 12966, "(__": 7697, "\u2581revel": 17120, "\u2581Property": 13059, "\u2581contributions": 14036, "\u2581-=": 10546, "ene": 1860, "grav": 25849, "\u2581undert": 16353, "\u2581Techn": 6772, "oro": 8811, "\u2581wider": 17525, "\u2581Wayne": 21433, "\u2581\u043f\u0440\u0438\u043d\u044f": 27741, "\u0081": 29766, "\u2581assertEquals": 10462, "\u2581gepubliceerd": 17811, "ter": 360, "\u2581rope": 19818, "\u2581Bi": 6345, "\uc608": 30542, "\u2581registration": 14409, "\u2581usually": 4312, "\u2581remain": 6344, "ieties": 13998, "bold": 12161, "SING": 22835, "\u2581stadium": 24096, "\u2581sue": 17423, "ardo": 9749, "halt": 18274, "\u0985": 31900, "\u030c": 31891, "ocation": 10001, "\u2581sig": 4819, "\u2581outside": 3536, "\u2581baseball": 14672, "\u2581\u0410\u0432": 18031, "\u00edo": 13826, "Foundation": 23295, "ically": 1944, "\u2581OR": 3994, "\u2581River": 6396, "\u2581Museum": 8770, "\ud83c\udf0d": 31057, "Phone": 11181, "conduct": 27835, "\u2581Holy": 12830, "Checker": 27229, "\u2581params": 6150, "\u2581integr": 4507, "\u2581suff": 3510, "\u2581Bruno": 24274, "avg": 23750, "\u2581\u0458\u0435": 4557, "\u2581resolution": 10948, "\u2581personnel": 15817, "AA": 3598, "\u2581\u0447\u0430\u0441": 21358, ")</": 10900, "aign": 4955, "haus": 11209, "\u2581).": 11505, "\u2581\u0434\u0440": 19448, "\u2581International": 5440, "\u2581Roth": 23134, "ignore": 14860, "\u2581Jesse": 26689, "tras": 12423, "<0xDF>": 226, "\u2581Leonard": 25298, "\u2581existed": 16947, "\u2581Ax": 24749, "slave": 26277, "\u2581aest": 20429, "Builder": 3686, "\u2581meaning": 5746, "\u2581treating": 22656, "\u2581proxim": 23678, "scripts": 23931, "ulas": 21541, "Ship": 24946, "\u2581Hy": 10540, "\u2581Gib": 16090, "\u2581Ret": 8337, "\u2581sender": 17560, "\u2581Gre": 9261, "%%%%%%%%": 18849, "\u2581indicator": 24492, "\u2581reign": 21539, "Unlock": 26175, "\u2581str": 1117, "\u2581elections": 15517, "Navigation": 17896, "\u2581tim": 5104, "\u2581quando": 15440, "\u2581qu\u00e9": 25648, "\u2581twisted": 18337, "iliary": 27967, "\u00a0": 29000, "\u2033": 28959, "\u02bb": 29595, "->_": 9631, "\u2581Star": 7383, "\u770c": 31432, "\u00e1v": 13470, "\u2581Try": 11442, "\u2581\u0424\u0435": 18329, "degree": 27027, "Emb": 25841, "\u2581Iraq": 12627, "\u2581replacing": 20313, "gra": 24045, "\u2581yet": 2783, "\u6d1b": 31591, "omas": 23856, "\u2581publisher": 21568, "\u2581\u0431\u0443\u043b\u0430": 26342, "\u2581Ther": 16481, "\u2581Corpor": 9764, "\u2581actors": 16760, "odigd": 15630, "owners": 24689, "\u2581Al": 976, "\u2581him": 713, "\ucc38": 31459, "\u2581Pearl": 25895, "compress": 26973, "ellen": 8943, "\u25fc": 30806, "\u2581Terr": 13151, "TES": 27625, "Bill": 18069, "\u0446\u044e": 23997, "\u2581leaders": 8038, "\u2581Support": 10731, "\u2581obligation": 24775, "\u05ea": 29064, "\u65e2": 31643, "\u0e19": 29178, "\u0434\u044c": 14599, "\u2581prisoners": 17562, "ieur": 22534, "\u2581we": 478, "head": 1811, "anse": 14788, "\u2581graduated": 19215, "sburg": 24394, "UMN": 24495, "\u2581hosts": 19666, "\u2581Market": 11643, "OwnProperty": 22760, "\u2581embar": 12261, "senal": 22792, "TREE": 26522, "\u2581inv\u00e5nare": 27158, "\u822c": 30812, "\u2581alla": 6625, "\u2581explanation": 13268, "anni": 15054, "chiat": 20307, "\u2581curt": 22372, "\u2581mm": 6020, "\u2581remote": 9308, "\u2581anderem": 28656, "\u2581Sic": 22664, "\u2581fra": 6388, "\u202c": 30587, "\u2581AA": 24724, "\u5011": 31247, "dep": 8823, "\u2581difficulty": 14426, "_\\": 2801, "ivot": 18807, "\u2581Rom": 3945, "cre": 961, "\u044e\u0442\u044c": 14611, "rypto": 10690, "\u2581logger": 11813, "pu\u00e9s": 12873, "\u2581pse": 14808, "\u00f6": 28834, "quier": 22253, "\u2581mathemat": 16872, "\u2581tolerance": 27317, "\u2581question": 2996, "\u2581too": 1368, "Native": 12557, "\u2581ends": 9675, "\u2581opens": 15706, "\u2581transformation": 12958, "orf": 7800, "\u2581noon": 26873, "\u2581\u043e\u0442\u043a\u0440\u044b": 27028, "\u0432\u043e\u0435": 19224, "\u2581Jin": 27794, "boldmath": 26080, "\u30e7": 29964, "erial": 16299, "\u2581\u00een": 5554, "otto": 15034, "UPDATE": 18769, "structor": 8621, "avel": 3177, "\u00d0": 30305, "\ub9c9": 31655, "Icon": 7269, "\u043f\u0440\u0435\u0434\u0435": 23569, "\u2581kingdom": 17782, "\u2581\u0432\u043b\u0430": 13324, "\u00f3g": 14376, "structure": 18048, "argo": 8473, "\u2581betting": 22567, "Program": 14352, "\u2581distinction": 20677, "\u0432\u0435\u0434": 20183, "\u2581arise": 21700, "hung": 25934, "\u03a0": 29575, "AG": 2377, "\u2581row": 5150, "NV": 16106, "\u2581binding": 15662, "Eval": 16627, "\u2581insights": 20715, "\u2581cruel": 18965, "ulously": 26344, "\u2581Brend": 26888, "\u5ba3": 31587, "\u2581scales": 19232, "\u2581compris": 25093, "\u2581pages": 6718, "uset": 13222, "\u2581compliance": 9044, "\u2581phenomen": 15651, "\u2581behave": 26193, "\u2581within": 2373, "\u2581enters": 27033, "ych": 7702, "\u043d\u043e\u0441\u0442": 12757, "\u6062": 30999, "\u0437\u043d\u0438": 22037, "\u0e15": 29567, "Share": 24520, "\u2581pause": 17026, "opher": 12379, "\u2581uitgenodigd": 15649, "akter": 24282, "Af": 24505, "\u2581inevitable": 21924, "\u2581u": 332, "PE": 1767, "\u2581OUT": 15895, "crit": 12724, "\u2581weitere": 24908, "Star": 14765, "opcode": 25304, "\u1ebf": 29622, "\u0456\u0432": 2813, "ver": 343, "\u2581realm": 18745, "\u2581deleted": 15185, "\u2581Strateg": 25193, "\u2581London": 4222, "\u2581texture": 14024, "\u2581widespread": 23723, "produ": 7309, "\u2581hyd": 24483, "\u2581pushing": 13884, "\u2581c\u00e9l": 28596, "\u2581Lub": 25115, "\u2581calculate": 13911, "\u2581returned": 4253, "\u2581contribute": 14951, "\u2d30": 30654, "\u2581Tor": 5727, "Set": 1436, "\u2581chart": 10968, "Non": 7525, "nico": 24280, "\u2581Vin": 12670, "SCAN": 27849, "ogan": 25575, "\u2581profes": 20078, "\u2581plain": 10835, "sleep": 16650, "\u2581prejud": 27425, "\u0446\u0456": 3299, "\u2581Wow": 24527, "\u2581lieutenant": 26219, "\u0456\u043d": 15326, "sym": 11001, "lights": 12918, "(),": 1648, "\u2581managers": 17490, "\u0440\u043e\u0435": 28544, "\u2581desc": 2283, "won": 17959, "\u0142aw": 17225, "iejsc": 18840, "~~~~": 11902, "\u2581garbage": 20170, "idd": 2558, "pgfscope": 28593, "\u2581ord": 4574, "<0x8C>": 143, "\u2581Foreign": 17196, "\u2581chains": 20496, "\u2581dal": 7517, "=$(": 26111, "components": 9048, "\u2581analyzed": 28649, "\u2581era": 4204, "\u2581Kr": 7787, "<0xD7>": 218, "idays": 16642, "Rule": 7693, "\u2581Vir": 6595, "\u2581cms": 14114, "Series": 20736, "\u2581\u043f\u0440\u043e\u0446\u0435": 23146, "\u2581consid": 23604, "\u2581prevent": 5297, "\u0441\u0442\u044c": 3954, "except": 19603, "\u2581VM": 18803, "\u2581Roberts": 18021, "\u2581improve": 4916, "\u2581GL": 8537, "\u2581out": 575, "Scalar": 18420, "\u3064": 30072, "hora": 18701, "\u53e6": 31127, "\u4f59": 30248, "\u2581Dictionary": 22828, "tot": 3183, "\u2581necessity": 24581, "\u2581televis": 25483, "pty": 2046, "\u2581Europa": 15133, "\u2581img": 16001, "agne": 8998, "\u2581Tib": 20839, "\u043f\u0435": 3703, "\u2581doctrine": 26846, "bet": 10200, "Rem": 5139, "\u2581hypothes": 19108, "\u5ddd": 30133, "\ubaa9": 30222, "empty": 4977, "\u2581Airlines": 28415, "\u2581ep": 3769, "\u2581core": 6421, "oz": 3711, "Device": 6489, "DM": 9286, "\u2581testim": 16620, "\u2581Api": 23240, "\u2581selection": 7495, "deserialize": 25689, "\u2581isn": 3157, "\u2581Bos": 13541, "\u2581lost": 3654, "agu": 12736, "bb": 1754, "arse": 8143, "\u2581una": 1849, "\u2581barrel": 18566, "BF": 15696, "\u5bb3": 31346, "pite": 4995, "\u2581junto": 21396, "nent": 21846, "rive": 6016, "mand": 20478, "\u2581transc": 24330, "\u2581Definition": 24382, "\u2581psychiat": 26210, "\u2581Float": 27914, "colo": 17382, "\u2581restrict": 8336, "\u0440\u0430\u043c\u0438": 27142, "\u2581paragraph": 18438, "\u2581vars": 27981, "\u2581treat": 3363, "\u2581tak": 10644, "Generate": 23342, "**************": 20798, "isti": 20589, "lege": 3528, "turn": 499, "irable": 19821, "Translation": 25825, "\u2581extract": 9131, "\u2581activated": 27024, "\u2581domestic": 12866, "\u2581Mich": 4094, "\u2581Walker": 17734, "ailed": 2384, "translate": 18094, "\u2581encuentra": 22877, "\u2581intervention": 20288, "\u2581nest": 17875, "aqu": 19424, "TEST": 9552, "\u2581affected": 11180, "\u2581wen": 21672, "\u2581operand": 27455, "contr": 11693, "UTE": 13401, "bidden": 20350, "\u2581candidate": 10169, "\u2581pitch": 10587, "\u2581m\u0171": 28122, "\u2581Setup": 27054, "b": 28726, "\u2581bel": 1273, "roup": 1099, "\u2581PO": 9856, "asets": 20363, "opacity": 24566, "\u2581Walt": 27558, "\u2581blur": 19690, "\u2581casino": 13638, "Cam": 11658, "Expected": 17015, "shader": 27049, "\u2581sotto": 28159, "resentation": 15918, "flow": 4356, "u\u00df": 23016, "\u00e8res": 9603, "lin": 2294, "aughters": 17350, "xs": 19381, "\u2581cheek": 10863, "\u2581Season": 16887, "\u2581vault": 26850, "\u2581ment": 4498, "icted": 10937, "\u66f4": 29250, "\uac8c": 29833, "unknown": 16047, "\u2581Kas": 22965, "\u2581ki": 12883, "\u2581Herz": 22026, "\u2581felt": 2770, "ices": 1214, "((": 1880, "icios": 27141, "\u2581ale": 12121, "\u2581dol": 13824, "\u2581ice": 7515, "yles": 5396, "plicated": 23080, "\u2581send": 4080, "\u0455": 30273, "nea": 19660, "UNK": 18571, "\u2581econom": 3620, "(){": 8881, "\u2581Han": 8225, "FR": 9790, "hard": 8896, "\u0456\u0441": 14793, "\u2581punto": 22791, "\u2581\u0447\u0435\u043b\u043e\u0432\u0435\u043a": 22653, "Sys": 22824, "\u2581mysterious": 21296, "\u2581buy": 3848, "DAI": 22715, "\u2019.": 18086, "\u2581genius": 22027, "Header": 5404, "\u2581madre": 26032, "\u043c\u0435\u0439": 20488, "CONFIG": 9835, "\u2581machinery": 26514, "hbox": 21472, "\u2581Hard": 9708, "GI": 22576, "\u2581Tow": 21906, "COND": 23795, "olan": 24126, "\u2581hips": 25760, "={{": 14039, "circle": 13392, "MMMM": 27509, "\u043b\u0435\u043a\u0441": 13019, "board": 3516, "\u013e": 29826, "Tile": 19379, "\u0ba4": 30100, "\u2581own": 1216, "float": 4910, "riven": 21694, "\u2581trailing": 27166, "ocus": 2497, "\u2581interactions": 14983, "\u2581attend": 8986, "\u2581limits": 11656, "\u2581grabbed": 13300, "\u0445\u0456\u0434": 16144, "\u2581stocks": 21781, "smart": 19914, "Dir": 6674, "wid": 8727, "hostname": 27278, "\u2581Ken": 8885, "eries": 12865, "west": 7471, "\u00f3wnie": 25414, "\u9580": 31031, "sources": 26155, "\u043f\u0435\u043d": 21954, "\u6025": 31653, "\u2581lib": 6538, "ribed": 13284, "Th": 1227, "\u2581whites": 19719, "<0x9D>": 160, "\u2581jed": 6294, "\u0441\u043f\u043e": 5761, "\u2581rather": 3210, "uld": 24782, "\u0161t\u011b": 27832, "\u2581equipment": 7108, "}}{\\": 12887, "r\u00e5": 16348, "basic": 18681, "\u2581Sar": 7663, "pin": 10002, "ith": 372, "\u2581holes": 15130, "emperature": 16561, "ensed": 6616, "\u2581Steph": 27316, "cker": 13160, "\u2581Dream": 14031, "quet": 14385, "()]": 21183, "RA": 5244, "\u2581std": 2829, "halb": 19273, "\u2581lob": 27806, "\u2581\u043e\u043a": 10525, "\u0433\u043e\u0432": 25873, "hausen": 24813, "\u2581Illuminate": 22652, "\u2581dispatch": 14323, "\u2581Bev": 23344, "\u2581Zeit": 10740, "\u2581orient": 9093, "\u2581rend": 6884, "\u2581Andr\u00e9": 24046, "\u2581lowest": 15341, "CAL": 22591, "*>": 27924, "\u2581attached": 11053, "\u2581s\u00e5": 12428, "\u2581density": 8353, "\u2581lap": 14348, "\u2581applying": 14893, "\u0448": 28841, "\u2581Kids": 21186, "\u2581Iron": 15531, "\u2726": 31709, "likely": 10245, "\u2581order": 1745, "\u2581cause": 4244, "Pyx": 20585, "\u2581wearing": 8192, "\u2581cops": 19407, "\u2581New": 1450, "\u2581quatre": 19419, "newcommand": 20570, "\u2581\u0444\u0438": 8456, "\ud83d\udc4d": 30195, "\u2581purs": 7900, "\u2581c\u0103": 17586, "Grad": 20910, "\u10d6": 30862, "\u2581engagement": 15613, "Fac": 20286, "\u5149": 29762, "\u223c": 30567, "\u2581Jug": 18243, "rais": 26305, "\u2581BASIS": 12259, "\u2581psychological": 18835, "mente": 4379, "\u2581Invalid": 17275, "at": 270, "\u2581habit": 6189, "\u043b\u0438\u0437\u0430": 26594, "ambda": 2566, "\u0431\u0456": 11430, "\u2581Live": 11635, "Converter": 18670, "Row": 5590, "\u2581accompanying": 23761, "=>": 4929, "RED": 12466, "\u2581EVENT": 18693, "\u2581\u0418": 3615, "schema": 10258, "\u2581Contact": 12603, "'].": 14303, "\u5584": 31580, "\u2581swimming": 16862, "\u2581Schema": 24051, "anc": 834, "pect": 822, "\u2581=>": 953, "\u2581bucket": 15552, "\u2581arrives": 26746, "\u679c": 29098, "\u2581Theorem": 11335, "acre": 20383, "\u03b5": 28981, "\u2581Gy": 18075, "\u2581estim": 6010, "app": 763, "wo": 809, "\u2581ge": 2970, "\u2581durch": 6331, "\u2581\u043a\u0440\u0430": 10075, "\u00f6rd": 12462, "\u901a": 29217, "interest": 20835, "imeq": 21876, "\u2581SPD": 24151, "endar": 7629, "\u3053": 29543, "\u0142o": 9309, "\u2581onclick": 28474, "twitter": 22747, "Contact": 18003, "\ub2ec": 31082, "\u2581Age": 14065, "\u2581invented": 25972, "ieden": 20664, "caption": 7150, "\u2581scattering": 21635, "\u0153": 28952, "\u2581array": 2293, "ont": 677, "\u2581terminal": 17598, "\u2581Woman": 20010, "eclipse": 14871, "\u2581welcomed": 26097, "\u0434\u0438\u043d\u0430": 16428, "nie": 4255, "\u2581installation": 14843, "\u2581daughters": 19244, "\u2581administr": 5466, "iverse": 8834, "\u2581weigh": 19929, "\u2581todo": 12585, "\u043d\u0438": 669, "\u2581Albert": 12560, "\u2581treatments": 19724, "\u2581Hof": 24557, "\u2581Widget": 27226, "tk": 9808, "\u2581extension": 8223, "\u00fchr": 7736, "\u011bl": 27447, "\u010f": 29365, "aban": 12640, "rapper": 6131, "\u2581crow": 6070, "\u2581\u017ce": 22165, "\u2581Into": 27121, "\u2581witch": 23816, "COMMAND": 26829, "\u2581Jones": 9383, "aute": 19830, "\u308f": 30495, "\u2581Vers": 12433, "\u2581rolling": 15483, "\u0627": 28915, "\u2581pel": 6704, "\u2581\u00e9galement": 13417, "\u2581Henri": 20374, "\u2581Human": 10649, "\u2581inde": 3511, "isher": 7827, "\u2581agric": 11885, "\u2581ir": 4139, "\u2581packed": 14703, "\u2581invest": 2631, "\u2581involves": 14657, "wohner": 18391, "\u2581\u0433\u043e\u0434\u0438\u043d\u0430": 18614, "\u2581secrets": 19376, "\u2581carb": 24167, "\u2581\u0442\u0440\u0443": 26235, "\u2581\u043e\u043a\u0442\u044f\u0431\u0440\u044f": 26490, "\u2581aument": 27479, "TF": 12352, "\u2581Dal": 12732, "\u2581duration": 11964, "\u2581must": 1580, ":-": 18684, "bounds": 22048, "ainers": 23606, "xF": 7355, "\u2581preserve": 18018, "mero": 18056, "trfs": 26969, "\u2581blond": 28506, "\u2581Fresh": 27376, "anie": 8768, "\u2581binary": 10136, "\u500d": 31070, "dhd": 27957, "rf": 12624, "\u0447\u0435\u0441\u043a\u0438\u0445": 20678, "azy": 13478, "\u2581hurt": 7350, "iasm": 21883, "\u2581instantly": 16203, "numeric": 23700, "\u2581Family": 10712, "\u2581bekan": 21989, "\ub354": 30519, "\u2581reasons": 6494, "\u2581change": 2268, "\u255a": 30706, "ly": 346, "[],": 19496, "h": 28716, "Dispatch": 15844, "\u2581furniture": 12389, "\u2581educational": 14165, "\u66f9": 30644, "atz": 6124, "jen": 6956, "\u2581guerra": 15328, "woh": 17254, "\u2581apolog": 15884, "inth": 18618, "kat": 22332, "election": 9082, "\u2581Natur": 21749, "UE": 3027, "ast": 529, "\u2581slot": 10544, "\u2581evidence": 5566, "\u2581pandemic": 15749, "\\!": 24835, "Mer": 12509, "\u2581Tall": 24901, "\u2581Occ": 15819, "\u2581simplicity": 25233, "\u9f20": 31106, "\u2581knew": 2580, "scr": 10426, "CK": 2889, "\u2581warehouse": 27954, "ycz": 17069, "serts": 27339, "lo": 731, "NR": 20409, "\u2581appreciated": 22359, "tabular": 10972, "rud": 16950, "\u2581interface": 4971, "\u2581'')": 20237, "\u0433\u0443": 5378, "\u10e6": 31278, "\u2581countryside": 28594, "\u2581\u043e\u0441\u0456\u0431": 19145, "\u4e25": 31871, "\u2581Treat": 15424, "asz": 17747, "\u2581plants": 9923, "ribut": 1030, "\u2581desperately": 24254, "open": 4124, "\u2581Windows": 8955, "\u6563": 31426, "\u2581Tel": 18358, "appings": 21044, "\u2581Must": 14242, "\u2581tale": 15642, "ences": 2119, "\u0432\u0430\u0440": 15669, "\u2581incor": 7376, "oud": 2456, "Values": 7025, "HasColumn": 17011, "\u2581fancy": 19602, "iliation": 22758, "chron": 8416, "\u2581describe": 6685, "\u2581hills": 18553, "fragment": 23499, "\u2581poem": 16067, "\u2581Natural": 16725, "\u2581Muhammad": 25605, "Inv": 10188, "\u2581Fle": 15666, "WS": 7965, "**": 348, "(@": 10680, "\u2581Provinc": 27600, "\u2581surprised": 8557, "\u2581management": 5411, "\u2581decomposition": 28079, "tera": 20328, "pb": 11497, "phi": 3163, "food": 18972, "\u2581cigarette": 19819, "\u2581tijd": 23898, "\u2581times": 2421, "Mat": 6873, "\u2581verw": 14125, "ERCHANTABILITY": 13078, "\u2581hardware": 13218, "Die": 14892, "\u2581surprisingly": 23107, "iaz": 25939, "\u041f\u043e": 19469, "atherine": 14468, "\u2581autre": 20638, "\u2581side": 2081, "\u2581js": 14034, "\u2581TEST": 9601, "\u0444\u0430": 13460, "<0x24>": 39, "\u5458": 29602, "nage": 27888, "\u098f": 31723, "\u2581controlling": 24148, "\u2581Stay": 20066, "\u0393": 30149, "\u2581pag": 10913, "umi": 12965, "bind": 5893, "Volume": 12936, "than": 23018, "\u2581Cor": 3198, "\u043b\u044c\u043d\u043e": 17921, "stone": 9966, "\u0436\u0435\u043d\u0438\u0435": 16525, "otte": 10803, "\u2581iPhone": 17391, "\u2581LE": 14181, "\u2581Tell": 15259, "\u2581Chron": 23967, "\u2581faster": 9556, "undo": 8569, "\u67d3": 30623, "\u2581/>": 4884, "\u2581begann": 25328, "\u2581customs": 27853, "\u043a\u0442\u0438": 11856, "\u2581Auch": 23337, "\u00f6m": 16707, "\u2581Story": 13689, "Prototype": 25196, "asi": 8608, "\u2581Alliance": 20966, "\u2581Bach": 24158, "Language": 13843, "normal": 8027, "\u6b63": 29302, "un": 370, "\u2581wishes": 18907, "break": 2876, "ground": 2812, "\u0279": 31931, "\u6843": 31750, "\u2581Garden": 15875, "\u2581Role": 21596, "\u2581Current": 10929, "\u2014": 28821, "\u1ea3": 29508, "\u044c\u044f": 23224, "ann": 830, "AY": 3836, "\u2581Posted": 17317, "mass": 18480, "pow": 15625, "\u2581Josef": 27622, "\u2581mistake": 11990, "gas": 20404, "\u2581Muslims": 21731, "\u5f53": 29162, "\u2581attempts": 13199, "igue": 12216, "\u2581males": 21071, "ask": 1152, "thern": 4399, "nat": 9569, "run": 3220, "Emitter": 26264, "ibile": 24109, "ings": 742, "\u2581Pres": 3981, "\u2581crossing": 17076, "\u2581pok": 16004, "criptions": 17135, "\u2581reve": 5900, "xffff": 28638, "conscious": 13787, "\uc218": 29151, "report": 10146, "richt": 16598, "compile": 18434, "WA": 12245, "\u2581dece": 23009, "onomy": 15631, "\u2581loud": 9614, "\u7701": 29670, "\u2581contest": 13968, "\u2581lets": 16143, "\u2581beast": 23688, "\u2581Todd": 24201, "\u4f9b": 29954, "ync": 2122, "\u2581wine": 8188, "li": 1144, "<0xFC>": 255, "<0xB5>": 184, "}^\\": 11808, "\u2581Near": 17602, "\u2581'[": 26583, "\u2581eerste": 21328, "weak": 25668, "\u2581Kaiser": 27039, "\u2581barrier": 19644, "\u2581interrog": 28197, "Good": 10604, "ength": 1340, "nick": 22554, "acc": 4373, "\u2581seeds": 17544, "\u2581agriculture": 24843, "cel": 4070, "\u2581shield": 15422, "STREAM": 22708, "\u2581Voice": 25815, "\u2581Christians": 17209, "\u2581Mul": 21691, "\u2581\u0440\u043e\u043a\u0443": 7339, "Tree": 7147, "\u2581epoch": 23784, "security": 10165, "\u5eb7": 30720, "idae": 7305, "\u2581Far": 8549, "abil": 6572, "\u7814": 30943, "\u519b": 30730, "\u2581atr": 21857, "\u2581galaxy": 20539, "\u00f3j": 25830, "\u2581presidente": 22882, "\u2581uit": 5478, "\u2581stato": 11995, "\u2581Frances": 15093, "\uac01": 30750, "\u2581Wahl": 26421, "<0x0B>": 14, "<0xDA>": 221, "IT": 1153, "\u2581told": 2240, "\u2581sustain": 11755, "\u2581mask": 5934, "\u2581Newton": 20281, "<0x2E>": 49, "\u2581Award": 8199, "\u30d8": 31760, "\u0627\u0644": 14312, "\u2581bread": 10714, "\u0451\u043c": 18452, "\u2581swept": 20643, "\u2581Capital": 17053, "erne": 28665, "\u0432\u0430\u043b": 16122, "eled": 19691, "chat": 12932, "\u2581bald": 26128, "\u1ef1": 30500, "\u2581Pay": 9260, "\u2581Jefferson": 18513, "urches": 18088, "\u2581Philipp": 15105, "\u02b7": 30847, "\u2581release": 5614, "categories": 24888, "\u00e4hr": 15072, "\u2581foolish": 25475, "\u2581\u0438\u0441\u043f\u043e\u043b\u044c": 18496, "acle": 7338, "\u2581kor": 18054, "FIN": 23178, "\u2581\u0436\u0438": 7157, "\u2581gear": 13133, "\u8d26": 29918, "ieren": 11958, "opens": 23534, "\u2581static": 1062, "Der": 15266, "'_": 16314, "\u2581growing": 6485, "\u00ef": 28920, "\u043b\u0438\u043d\u0430": 23067, "\u2581i": 613, "\u2581shit": 5492, "\u2581held": 3336, "\u2581werd": 7680, "\u2581exclude": 25482, "\u2581Indians": 18161, "\u2581\u0427": 5477, "\u2581PyObject": 18074, "enabled": 9474, "\u2581games": 3897, "Constraint": 18017, "\u2581lane": 19398, "\u2581captain": 13565, "\u2581mois": 27019, "ulation": 2677, "\u2581Louis": 6698, "TT": 16235, "Mus": 16159, "\u2581Altern": 16677, "************": 17328, "\u304f": 29666, "sc": 824, "\u2581individ": 3004, "\u2581fant": 7399, "\u00f6st": 21587, "\u2581Vic": 17862, "\u2581conserv": 6961, "article": 15461, "pkt": 17182, "forEach": 14182, "\u2581ball": 4374, "\u0447\u0435\u0441\u043a\u0438": 11583, "\u80b2": 31350, "\u0dd2": 31355, "otherapy": 27843, "\u2581fl": 972, "\u2581mot": 2808, "yar": 17073, "\u2581mothers": 21574, "\uace0": 29511, "\u2581guides": 25146, "CLE": 21521, "\u2581hosp": 17688, "\u2581tools": 7040, "the": 1237, "\u2581nights": 14440, "\u2581isolated": 18545, "\u2581TR": 6378, "displaystyle": 22111, "st": 303, "\u2581launched": 11087, "\u2581Fe": 4615, "\u2581concentrate": 24539, "ael": 4152, "\u0018": 30555, "\u05e7": 29347, "save": 6568, "\u2581lose": 6788, "\u2581oral": 21210, "\u2581\u043a\u043e": 1619, "\u2581mehr": 11152, "\u2581Invest": 11606, "\u2581Georgia": 13188, "\u2581accomplish": 17700, "\u2581assertTrue": 21923, "\u2581neur": 24170, "\u2581priests": 27677, "ungen": 4540, "\u2581Ross": 12124, "\u2581batter": 7994, "anche": 14455, "\u02c8": 29097, "omi": 16344, "\u2581\u0430\u043a\u0442\u0438\u0432": 24735, "\u90fd": 29460, "wan": 10074, "\u2581smiling": 15603, "\u2581tip": 7230, "\u043b\u043e\u043c": 14253, "hu": 9538, "provider": 14620, "^+": 12803, "anned": 5928, "offset": 3783, "erta": 21313, "nice": 22515, "\u0435\u043d\u0442": 6089, "Windows": 7984, "\u2581opp": 3562, "prob": 22083, "\u2581census": 21254, "$": 28776, "solete": 28273, "\u5144": 31944, "constants": 23610, "\u2581zomb": 28437, "\u301c": 31065, "\ud83d\ude44": 30323, "\u2581lean": 6115, "\u901f": 30029, "\ud68c": 29884, "iences": 12923, "\u2581END": 21288, "rake": 21868, "\u2581aside": 10276, "beans": 22672, "\u2581\u0435": 2385, "init": 1783, "\u6682": 30547, "den": 1620, "\u2581exotic": 27541, "sm": 2762, "Cat": 19962, "\u2581Help": 15576, "\u2581gram": 18756, "\u2581deep": 3534, "Primitive": 24549, "\u2581settled": 11591, "\u2581\u0432\u0438": 3542, "ita": 3156, "Cancel": 15204, "\u2581badly": 15494, "\u043f\u043b\u043e": 23563, "\u2581unter": 7014, "\u2581Util": 16157, "\u2581\u042d": 8411, "WP": 23937, "ological": 4423, "\u2581Alb": 18344, "\u2581others": 2663, "\u53c9": 31304, "\u2581came": 1988, "\u2581bands": 15608, "\u0440\u044c": 13168, "agy": 11644, "\u2581latest": 7345, "zech": 14627, "enda": 9279, "\u2581verd": 18070, "DO": 5170, "OPER": 24500, "\u2581dozens": 21546, "\u2581scope": 8593, "\u2581leur": 10441, "\u2581gebru": 23257, "ition": 685, "\u2581estar": 27497, "ASE": 11257, "})}": 27276, "\u2581entry": 4905, "\"`": 8312, "\u2581retail": 11603, "acts": 9664, "\ub3d9": 29714, "try": 1553, "\u2581fair": 4968, "\u2581sp": 668, "\u2581Protection": 21154, "^{+": 24206, "\u2581\u0441\u043e\u0441\u0442\u0430": 24285, "ought": 1322, "\u2581cogn": 17464, "i\u0105": 18424, "\u2581investment": 8542, "parameters": 11438, "ebook": 16376, "science": 17819, "need": 14464, "\u2581greater": 6517, "-------": 25702, "grpc": 26488, "\u2581syntax": 25227, "\u5bfe": 30881, "\u2581treated": 9852, "\u2581chemicals": 24920, "\u2581Ko": 14020, "\u2581Single": 16096, "\u0e16": 30491, "DAT": 23775, "PB": 27982, "\u2581mor": 2544, "\u2581Republic": 6090, "\u2581memories": 12607, "equation": 2160, "\u2581['": 5936, "\u6307": 29223, "\u2581Times": 8359, "IS": 1851, "\u2581len": 3919, "\u2581Gab": 10849, "wl": 13982, "/\\": 8673, "\u2581ann": 2232, "\u2581Rather": 19919, "\u2581Motor": 17933, ">@": 24406, "\u2581Gold": 5792, "\u2581\u0431\u0443\u0432": 17623, "eny": 20552, "\u2581tender": 20602, "inson": 11827, "\u0441\u043b\u0456": 23588, "\u2581liter": 3937, "CB": 10957, "\u2581Festival": 10113, "Qual": 15864, "\u2581Day": 5399, "\u0165": 29114, "\u03cd": 29459, "ause": 869, "geme": 18232, "\u2581mattress": 20186, "\u0410": 28858, "\u2581typ": 2514, "Of": 2862, "xB": 18674, "Ma": 20494, "\u2581prev": 8177, "alis": 11556, "\u2581faces": 10190, "\u2581anos": 21307, "\u0446\u0438\u044e": 20483, "\u2581gau": 10844, "icies": 22966, "why": 27014, "\u2581territory": 14293, "found": 9016, "\u2581eliminated": 27546, "\u2581calm": 10325, "\u2581Limited": 19637, "HOME": 28547, "staff": 27943, ",-": 7667, "\u2581\r": 1302, "eds": 5947, "DEF": 11550, "\u2620": 31840, "vin": 8830, "textit": 10162, "ASK": 16804, "berger": 23259, "\u2581missed": 10012, "\u2581yy": 17139, "uration": 2394, "\u2581exempl": 18688, "\u2581M": 351, "\u0432\u0435\u043d": 16227, "\u2581project": 2488, "\u2581\u0434\u0440\u0436\u0430": 25776, "\u263a": 30601, "\u2581packaging": 24501, "\u2581Leo": 19795, "\u2581theme": 7335, "ulo": 10010, "\u2581\u00e1l": 19461, "\u01eb": 31782, "\u0151": 28886, "\u5348": 30296, "\u2581PHP": 20194, "\u2581Pow": 14326, "Over": 2675, "an\u00e7": 5154, "\u2581marginal": 25286, "\u2581sib": 18866, "geq": 7834, "\u2581flying": 11470, "\u54ea": 30951, "bra": 10675, "\u2581evil": 10875, "\u2581philosoph": 8829, "ipage": 23506, "\u2581diagonal": 25202, "\u2581inspect": 16279, "\u2581alter": 13496, "\u2581\u0432\u044a": 17051, "auto": 6415, "\u0142": 28843, "\u00b2": 28941, "Card": 9139, "\u2581judgment": 16548, "\u8aad": 31109, "\u2581Cow": 19283, "gold": 27783, "\u2581derived": 11236, "line": 1081, "\u521b": 29349, "hou": 11331, "Tx": 12593, "\u2581Theod": 22704, "\u2581challeng": 6327, "\u0439\u043e": 7328, "\u2581\u0433\u0430": 13206, "\u2581###": 774, "\u83ef": 31365, "[@": 27978, "Transition": 21671, "\u2581Fra": 12699, "\ufe0f": 29096, "\u043b\u0438\u0441\u044c": 13279, "\u2581Channel": 14250, "\u7ea2": 30311, "\u2581assumptions": 19573, "dst": 8529, "encing": 10695, "\u2581\u043d\u0435\u0433\u043e": 22510, "\u2581lo": 1448, "\u2581brands": 15638, "\u2581prima": 12030, ")\r": 3174, "_{{\\": 17541, "\u0097": 29439, "\u2581scores": 14428, "\u2581switching": 25439, "\u6a4b": 31730, "heart": 14754, "\u2581wound": 10063, "\u2581Sax": 26974, "<0xC0>": 195, "olve": 5303, "\u2581unset": 22353, "\u4e91": 30121, "riev": 10212, "Append": 13028, "\u982d": 31041, "\u2581Bear": 21425, "\u2581struggled": 19274, "\u05e6": 29639, "Push": 19086, "\u2581reput": 10459, "<0x89>": 140, "\u2581periods": 15772, "\u2581Palest": 13897, "\u2581Francesco": 27758, "\u2581suffix": 26017, "dem": 8343, "\u2581nerves": 28686, "filters": 16867, "\u4ef7": 29970, "ago": 4567, "augh": 3740, "dynamic": 18691, "\u2581rel": 1016, "ICAL": 21497, "\u2581Credit": 18004, "Idx": 12157, "\u2581families": 6812, "\u2581(\u201c": 27156, "\u3054": 31193, "FIG": 6390, "\"),": 3548, "\u2581\".": 11955, "uti": 18123, "\u017ee": 18765, "american": 22071, "\u2193": 30036, "\u2581ISO": 23052, "unto": 16665, "\u2581achie": 4510, "acket": 9170, "\u2581spine": 24496, "\u2581Federation": 22520, "icians": 8019, "\u2581Players": 26500, "TD": 21339, "\u2581aunt": 23785, "\u2581ax": 6056, "\u2581Fair": 11587, "\u3073": 31050, "Reb": 26934, "\u10ec": 30937, "\u5fa1": 31453, "\u2581streaming": 18000, "\u2581:=": 2137, "\u00ebl": 25879, "\u8bad": 31154, "Get": 1458, "progress": 13763, "album": 16068, "\u2581acres": 20647, "\u2581tastes": 26918, "\u2581schema": 12493, "\u2581TIME": 25720, "\u0447": 28826, "\u2581protective": 25162, "\u2581jobs": 7794, "Global": 8985, "\u2581Suddenly": 21455, "\u6743": 29520, "\u2581mascul": 20442, "\u2581Famil": 14288, "\u2581Heritage": 26529, "\u2581technology": 5514, "\u2581Railway": 22687, "\u2581operators": 12765, "\u2581Bat": 13003, "\u2581halt": 19293, "Height": 5814, "izing": 3864, "\u266f": 30905, "acking": 21593, "reens": 15565, "<0xFE>": 257, "\u2581Gener": 2766, "\u25a1": 30618, "\u00e9v": 8507, "\u2581treasure": 25496, "ministr": 4000, "\u2581nun": 17043, "\u043e\u043b\u043e\u0432\u0456": 27496, "fony": 22480, "\u2581use": 938, "\u2581.=": 11930, "\u2581Bank": 7838, "cz": 3808, "\u2581sprintf": 22804, "\u2581weather": 8086, "vers": 740, "\u0baf": 30687, "Should": 15035, "\u2581imper": 10078, "\u2581-": 387, "\u2581top": 1830, "\u2581entropy": 25753, "4": 28781, "\u2581\u0441\u043b\u0435\u0434": 25091, "port": 483, "arent": 1422, "*": 28736, "phony": 22326, "device": 3915, "\u2581delete": 6500, "\u30a3": 29707, "\u2581ill": 3784, "\u0119p": 21655, "pshire": 25543, "hat": 3617, "\u9636": 31177, "\u9aa8": 31081, "\u2581journalist": 19226, "lector": 4183, "\u2581Engine": 9387, "curs": 14185, "on": 266, "\u2581pa\u00eds": 18976, "\u2581von": 1808, "\u2581dragged": 20212, "\u2581Finance": 22814, "\ufb01": 30160, "\u2581vag": 23195, "\u0437\u043e\u0432\u0430": 10603, "\u2581affiliate": 24933, "icide": 12414, "eng": 980, "Fail": 10733, "jem": 21608, "ctxt": 27567, "Future": 17147, "Graphics": 20634, "\u665a": 31671, "Execute": 17715, "\u2581Cert": 12089, "maker": 19963, "Buttons": 27178, "\u2518": 31652, "\u2581Europ": 10122, "oyal": 5703, "marks": 17181, "\u2581d\u00e9but": 19693, "SIG": 26956, "\u2581reporting": 14438, "volume": 15392, "\u2581compass": 16444, "\ud83d\ude4f": 30768, "]$": 14674, "\u2581VII": 20983, "\u2581gennaio": 25540, "\u2581cui": 12118, "icio": 14957, "rooms": 14520, "\u2581mir": 6076, "Trans": 3131, "\u122d": 31522, "\u2581Transaction": 26524, "\u2581kont": 21674, "redirect": 19123, "\u2581dear": 13095, "<0x27>": 42, "\u2581Um": 12514, "ision": 1522, "\u2581Nancy": 18908, "\u65d7": 31612, "\"\\": 16646, "\u2581establish": 7507, "arten": 12125, "stdout": 25080, "alloween": 25434, "\u2581intelligence": 10895, "mouse": 13778, "\u2581gouvernement": 27125, "\u2581Apr\u00e8s": 21630, "udio": 3704, "\u2581\u0432\u0435": 6048, "until": 27221, "\u2581Economic": 20451, "\u2581\u0440\u0430\u0431\u043e": 10054, "ome": 525, "\u2581person": 1338, "\"/>": 2720, "\u2581Together": 21583, "ITER": 25784, "\u2581inform": 5227, "i\u00e9": 26420, "\u2581depressed": 27696, "\u2581sudden": 5302, "lag": 9403, "EINVAL": 10902, "Cpp": 16400, "\u2581Gust": 18662, "CAM": 21480, "Tick": 22812, "bg": 11689, "parency": 23767, "\u2581B\u00fcr": 26122, "props": 7329, "\u2581\u0434": 942, "\u2581roz": 9335, "\u0083": 30477, "\u2581Como": 24428, "\u2581r\u00e9gion": 23227, "\u2581Today": 8784, "REQUI": 25127, "\u9002": 30640, "\u10e0": 29449, "Suppress": 22229, "Owner": 15431, "scar": 14723, "\u2581swung": 21701, "\u2581constraint": 17656, "ylan": 21605, "\u2581autres": 17729, "\u539f": 29493, "hd": 8385, "was": 9380, "Foreign": 23314, "\u2581hasn": 11638, "Paths": 23372, "lete": 2041, "\u2581secure": 8760, "React": 18096, "\u043a\u043b\u044e": 12702, "\u2581introduction": 14300, "\u2581polynom": 17077, "\u2581Budd": 13772, "\u2581dense": 19319, "\u2581Apple": 10244, "PARAM": 13786, "\u2581noble": 19343, "\u2581Ana": 23103, "Grid": 8625, "<0xEA>": 237, "\u2581Nor": 4953, "\u2581Serv": 15541, "\u2581legisl": 15405, "pause": 26431, "\u2581\"${": 12833, "\u2581Rand": 16253, "\u2581===": 2772, "\u2581hanging": 12445, "\u2581Fran\u00e7": 13514, "aut\u00e9": 27830, "itis": 17428, "rs": 4586, "inject": 25410, "Unexpected": 22348, "\u2581Spot": 24666, "\u2581due": 2940, "serv": 1472, "\u2581variations": 19718, "\u2581la": 543, "\u2581aimed": 17939, "PROP": 25887, "IMPORT": 15101, "keys": 6798, "rim": 6413, "\u2581seguito": 21613, "optional": 14496, "dirty": 23724, "\u0417\u0430": 20530, "\u2581cracked": 24734, "inceton": 26797, "\u2581Gilbert": 26774, "\u2581Johnson": 9370, "\u2581dropped": 7679, "FX": 17797, "\u2581Response": 12107, "\u2581Gall": 14225, "...'": 22984, "\u2581letter": 5498, "\u2581ano": 28125, "\u2581_.": 17309, "chap": 26467, "\u2581concerning": 15942, "yer": 8293, "\u2581Factory": 24264, "\u2581ending": 12826, "\u2581weit": 17642, "\u2581este": 7021, "\u2581legacy": 17424, "\u2581Bapt": 22654, "pton": 11648, "\u2581legit": 12700, "\u2581Mini": 24785, "Op": 5018, "standard": 20587, "\u2581arrange": 23503, "\u2581rac": 6567, "\u2581prevention": 27539, "\u2581elite": 20278, "rios": 18731, "\u2581tire": 22251, "\u2581economic": 6638, "\u907f": 31059, "\u2581Miami": 16932, "Lookup": 19508, "\u2581harmful": 26299, "\u2581registr": 24113, "\u00f3m": 26153, "\u2581accounts": 9855, "\u2581ib": 12964, "\u2581ran": 5591, "\u2581Grade": 27073, "patch": 5559, "\u2581Bro": 4168, "Access": 6169, "\u2581gig": 13790, "\u2581keeping": 7603, "remove": 4653, "err": 694, "\uac00": 29135, "Dimension": 23620, "\u2581switch": 4933, "\u5e16": 30972, "\u0448\u0430": 7176, "\u2581Prom": 12948, "\u2581\u00c4": 18912, "esar": 22221, "\u2581despu\u00e9s": 15757, "\u70ed": 30898, "el": 301, "\u10d4": 29286, "zm": 22432, "\u2581Sebast": 18935, "EQUAL": 23296, "\u8499": 31631, "\u2581bout": 21726, "\u2581Collins": 21191, "\u2581Nicole": 27688, "load": 1768, "\u2581bull": 10386, "\u2581situated": 22725, "\u2581spin": 7344, "/**\r": 14756, "\u2581inputs": 14391, "eree": 14447, "\u2581(**": 20714, "\u2581better": 1873, "Your": 11159, "\uae30": 29164, "\u2581Era": 23901, "\u2581Hom": 11537, "player": 7449, "\u2581\u0411\u0440\u0430": 25701, "aut": 1228, "uesday": 10684, "\u2581propri": 25681, "ategories": 14922, "\uff5e": 30328, "\u00f3l": 9185, "END": 5000, "eps": 2671, "MAX": 5578, "\u2581frustr": 10856, "estly": 19067, "\u2581wouldn": 4048, "adio": 24745, "\u2581ere": 15699, "yond": 5229, "Dto": 18356, "\u2581Note": 6096, "imated": 22994, "\u2581v\u00e1": 14558, "Style": 4436, "nde": 18773, "\u2581front": 2778, "late": 10020, "\u2581managing": 16097, "jet": 8358, "\u0392": 30431, "\u2581jug": 11786, "referto": 28557, "\u2581copies": 12221, "stal": 10891, "ify": 1575, "\u2581N": 418, "\u2581Marx": 19400, "\u2581artillery": 27262, "ign": 603, "\u2581scent": 21535, "\u062c": 29156, "\u600e": 31401, "\u2581Everyone": 11773, "\u0456\u0441\u043b\u044f": 20607, "\u5b98": 30639, "icle": 2660, "tw": 7307, "\u2581followed": 4961, "\u0446\u0438\u0458\u0430": 26895, "\u2581Stan": 9034, "Role": 10047, "\u2581Herr": 17127, "stderr": 17270, "\u03cc": 29212, "setText": 15206, "\u5c3a": 31076, "\u2581certification": 24781, "\u2581closet": 23622, "=[": 12303, "attered": 17109, "\u2581per\u00f2": 19005, "adget": 18142, "\u2581assuming": 16347, "\u0099": 29380, "\u2581Their": 6723, "\u2581initial": 3742, "Play": 10045, "username": 10671, "olia": 22925, "\u7eb3": 31536, "\u2581bird": 7727, "\u2581kter": 12904, "ibli": 10798, "\u043a\u0440\u0430\u0457": 11292, "\u2581trading": 11674, "\u039b": 30043, "\u2581experienced": 8304, "\u2581virt": 9306, "):\r": 20358, "\u045a\u0430": 15857, "\u2581k\u00f6nnen": 19766, "\u2581Cle": 12132, "embed": 18320, "\u2581correctly": 12742, "Column": 4115, "pcm": 20610, "\u00e8ve": 24893, "NORMAL": 27499, "\u2581decode": 21503, "mathop": 27188, "\u2581Hop": 15406, "\u0f66": 30996, "\u2581princip": 4061, "\u68a6": 31999, "\u2581ihn": 19467, "\u5909": 30274, "\u2581oraz": 13755, "\u2581finger": 9728, "NET": 11698, "\u2581\u0441\u0442\u0430\u043d\u043e\u0432\u043d\u0438\u043a\u0430": 18699, "\u2581[\\": 26239, "\u0394": 29475, "\u2581delicious": 15992, "\u2581Protocol": 28564, "\u7ec6": 30044, "roke": 7923, "pread": 22129, "DIP": 24090, "while": 5413, "\u2581compatible": 17696, "\u30b5": 29863, "ats": 1449, "\u2581virtue": 24885, "\u2581stories": 5979, "\u0448\u043b\u0438": 28480, "\u2581Warner": 25533, "\u2581Hind": 14526, "Warn": 17291, "\u045a": 28917, "\u2581Amsterdam": 20970, "\u2581cleaned": 23003, "\">\r": 14980, "going": 9100, "ynchron": 14938, "OD": 2896, "\u2581despite": 7577, "\u2581spotted": 20958, "://": 1508, "\u2581divers": 8125, "\u2581Finale": 27721, "PERTY": 24298, "ases": 2018, "\u2581Salv": 17857, "\u2581recommended": 11572, "uli": 11815, "\u2581Loren": 23658, "\u2581years": 1267, "\u2581duplicate": 27071, "eton": 21064, "\u2581obtained": 7365, "rai": 27097, "Cloud": 13113, "\u2581definitions": 20343, "Processing": 27619, "interface": 9326, "\u2581aus": 3642, "Identifier": 11068, "\u6885": 31223, "Layout": 4359, "naments": 27233, "\u2581ridic": 12882, "\u7ea6": 30702, "\u2581Storm": 21281, "\u21fd": 31853, "insic": 16119, "Tor": 22059, "\u2581rural": 13359, "){\r": 18055, "\u2581refuse": 17720, "\"+": 13578, "red": 893, "\u2581\u0413\u043e": 10142, "\uc9c1": 30892, "\u2581disappoint": 10734, "ono": 5875, "\u2581Licensed": 10515, "\u2581poured": 20508, "\u2581flex": 7584, "ad": 316, "Lin": 14112, "\u2581s\u00ed": 18002, "NT": 8124, "\u2581noise": 8498, "ETH": 21138, "An": 2820, "inate": 4296, "\u2581seller": 26824, "uta": 11473, "\u2581PURPOSE": 12878, "\u30a7": 30042, "\u2581caso": 18980, "\u26a0": 31433, "\u2581zwe": 8047, "\u0441\u0441\u0438": 6993, "\u2581wet": 7569, "zes": 12189, "i\u00e9n": 8603, "Abs": 15521, "\u062e": 29199, "\u8d56": 31537, "\u2581Wood": 8010, "\u8f91": 29815, "\u4f86": 30425, "\u2581Israeli": 19142, ":}": 26657, "dater": 28615, "\u2581visitors": 12085, "\u2581carefully": 9547, "rhs": 25435, "\u2581memo": 27667, "\u2581consume": 23327, "ilar": 3052, "\u2581Office": 8650, "nh": 25011, "\u6211": 29242, "_[": 19000, "ERT": 4538, "PUT": 9838, "\u2581Greg": 10920, "\u2581Drug": 27827, "ario": 3756, "icious": 10573, "lyn": 12998, "ged": 2560, "\u0abe": 31290, "\u2581certainly": 5785, "\u2581vul": 10320, "Hint": 18175, "match": 5644, "\u2581diffusion": 25236, "Gold": 25675, "clone": 10519, "\u2581chop": 16811, "\u2581Europe": 3401, "DESCRIP": 25205, "\u2581momentum": 14019, "iqu": 2741, "\u2581Development": 10340, "Bet": 17044, "\u2581bags": 14616, "through": 14968, "abor": 3226, "\u629e": 31072, "\u043c\u0456": 5482, "\u263c": 31560, "inea": 21406, "\u00eda": 2189, "irat": 23283, "\u2581drunk": 12731, "\u2581tex": 22309, "\u2581outrage": 27143, "\u0432\u0440\u043e": 13032, "fprintf": 23833, "\u2581arrival": 13758, "\u2581lord": 18263, "\u0434\u043e\u043d": 25612, "\u011bt": 16610, "\u2581nature": 4735, "\u2581bas": 2388, "(*": 4756, "atinum": 28250, "\u0447\u0438\u0442\u0430": 27749, "iph": 16030, "\u2581((": 2743, "\u9648": 31258, "\u2581trag": 20751, "dan": 22025, "\u2581insp": 5687, "\u6c7a": 31515, "\u2581zak": 24473, "\u0013": 30453, "inations": 9435, "\u2581\u0432\u0435\u0440": 12946, "\u2581petition": 25045, "Certificate": 19119, "sec": 3249, "\u2581graz": 27004, "cknow": 8979, "\u2581\u043f\u0440\u0438\u0437\u043d\u0430": 26287, "\ubc1c": 30482, "\u5200": 31516, "adora": 20916, "arz": 21896, "\u2581wie": 7220, "\u001d": 31236, "ope": 1845, "Container": 5738, "\u2581Tree": 14653, "\u2581feeding": 20525, "\u2581During": 6213, "uning": 25522, "ARE": 6394, "\u0441\u0442\u0432\u0443": 14198, "\u2581slots": 19708, "\u2581entrance": 12675, "\u2581Mercedes": 26501, "Place": 18962, "\u2581applications": 8429, "\u2581ignorant": 27972, "ail": 614, "rieben": 25077, "onal": 13921, "\u2581guess": 5102, "bere": 24178, "\u2581bes": 3432, "\u2581diff\u00e9": 18406, "\u2581besides": 18532, "\u2581\u0434\u0456": 15754, "),\\": 19908, "\u2581sorts": 16971, "\u2581able": 2358, "iter": 1685, "ready": 1968, "Target": 5332, "\u2581manufacturers": 19245, "\u1f50": 30760, "\u2581Pl": 1641, "ran": 8377, "\u2581ok": 3614, "\u2581Rod": 8815, "itive": 2468, "email": 6604, "\u2581Kit": 13402, "\u2581vom": 9322, "\u2581this": 456, "\u2581nervous": 13665, "\u2581Miguel": 20963, "\u2581zum": 6103, "\u2581senses": 23086, "itime": 26843, "\u2581murdered": 21304, "cember": 4354, "\u2581accordance": 20147, "\u2581traded": 27111, "ampton": 27397, "\u2581rebel": 28020, "\u2581utiliz": 20673, "Encode": 22806, "ic": 294, "Build": 9458, "\u2581gep": 14152, "Machine": 15183, "\u2581Rol": 15524, "vd": 17249, "could": 25327, "\u2581running": 3822, "\u2581\u0446\u0438": 18950, "RESS": 15645, "\u0218": 29344, "\u2581olive": 24403, "\u2581ec": 11353, "\u2581sost": 27498, "abb": 13277, "\u2581anc": 5930, "\u2581polic": 7498, "decode": 13761, "Contents": 18045, "zym": 17304, "\u2581declar": 18227, "\u2581toes": 27504, "\u2581b": 287, "\u2581Optional": 12786, "wd": 9747, "plica": 15354, "']);": 13932, "makers": 22016, "\u2581king": 6779, "iros": 26788, "\u2581Lady": 10314, "\u2581\u0431\u0440\u0438": 23145, "\u2581Chairman": 25294, "\u2581crop": 21948, "\u2581tamb": 6922, "\u2581Activ": 18359, "\u8f93": 29226, "ysk": 18825, "mem": 3271, "oul": 3619, "aws": 6195, "\u2581depends": 9618, "\u2581practices": 10879, "plaat": 14369, "\u2581situ": 2921, "ffff": 10756, "isions": 5662, "\u2b1b": 31264, "\u2581Mechan": 27164, "Pub": 17878, "\u0441\u0442\u0440\u043e": 9571, "\u2581mejor": 23209, "\u2581wore": 12003, "\u0432\u0438\u0447\u0430": 26785, "\u2581rack": 24942, "\u2581US": 2223, "\u2581familiar": 8228, "\u27e8": 30260, "\u0f58": 31606, "\u2581kil": 8302, "original": 11802, "border": 11941, "\u00f1o": 6987, "\u2581picture": 5754, "-": 28733, "Watch": 15602, "ITS": 20688, "mel": 12625, "\u2581\u0410": 2182, "\u2581gran": 8494, "Optional": 15115, "allowed": 12949, "sem": 5367, "\u2581async": 5755, "\u05df": 29618, "\u6a02": 31918, "\u2581members": 3338, "\u0440\u0438": 892, "\u2581creat": 2911, "switch": 7252, "\u2581Ren": 8734, "Stmt": 20471, "\u2581kann": 15557, "bl": 1231, "Def": 2469, "\u2581fre": 8077, "\u2581diversity": 18644, "OR": 1017, "\u2581funding": 12131, "Inf": 20417, "\u2581\u043a\u0430\u0440": 17438, "\u2581saddle": 27343, "imos": 23695, "arding": 20003, "\u2581predicted": 17931, "spi": 17456, "ascript": 15367, "umen": 20341, "\u2581nederb\u00f6rd": 28373, "\u2581vor": 6876, "\u2581princess": 28313, "\u2581Public": 4271, "wahl": 26944, "\u2581damn": 9741, "\u2581rifle": 19427, "amiliar": 27195, "Visible": 10082, "cut": 7886, "\u2581Please": 5919, "Screen": 11705, "\u2581Phone": 19520, "\u00dfe": 9526, "\u2581temple": 14842, "\u2581distinguish": 23035, "\u2581suite": 10978, "\u2581Mens": 20562, "emperaturen": 26292, "decor": 21042, "\u2261": 30940, "ending": 2570, "Hand": 2641, "\u2581trial": 9070, "\u2581quantum": 10915, "fortun": 7874, "!\u201d": 14569, "RF": 16743, "Fat": 24076, "\u7236": 30276, "ASH": 12322, "alloc": 4924, "iden": 6667, "\u2581sight": 7739, "\u2581\u043c\u043e\u0440": 23882, "\u2581generate": 8270, "\u2581volt": 9921, "\u2581okay": 8810, "hend": 12669, "\u2581behaviors": 23961, "ais": 1555, "zone": 7795, "lt": 2244, "\u2581elements": 5176, "\u2581lists": 13751, "PTR": 17551, "\u25bc": 30088, "\u2581\u0441": 698, "\u2581*/": 986, "\u2581Att": 5288, "Body": 6982, "\u2581Squadron": 27081, "atform": 3272, "Actions": 15826, "\u2581\u0408": 22892, "connection": 9719, "\u2581cater": 22250, "\u0ccd": 30406, "\u4e1d": 31991, "\u099a": 31531, "VID": 6800, "\u2581pref": 27718, "\u2581Based": 17158, "Chat": 18165, "\u2581Ber": 3405, "clk": 9061, "olph": 23814, "\u2581secretary": 16916, "\u043a\u0441": 7351, "IES": 17770, "\u0431\u0440\u044f": 9294, "\u2581pet": 5408, "\u2581\u0441\u0442\u0430": 3553, "\u518c": 30001, "AL": 1086, "stra": 6781, "ifs": 12843, "\u8fb9": 29860, "\u2581modifications": 26470, "\u2581considered": 4525, "\u2581\u00fc": 4675, "\u2581Num": 15755, "ued": 2465, "vr": 11277, "TRY": 13224, "\u2581hommes": 27678, "\ub428": 31399, "\u2581gap": 10467, "\u7403": 30211, "atched": 25925, "\u2581sempre": 22637, "const": 1978, "\u2581operates": 24015, "bben": 28322, "<0x8B>": 142, "\u2581wondered": 10662, "\u2581purposes": 10700, "ennessee": 18895, "\u7eed": 30199, "Data": 1333, "table": 2615, "\u2581sever": 2425, "\u9047": 31716, "OG": 21112, "ruption": 12992, "atives": 5087, "sts": 21514, "\u2581planted": 24571, "\u2581took": 2056, "\u5948": 31869, "\u2581Bureau": 18052, "rab": 27385, "p": 28720, "WID": 19335, "atr": 9959, "\u2581incident": 10824, "\u5e38": 29408, "reset": 7159, "\u2581kilom": 22230, "\u2581Phoenix": 23228, "\u2581wanna": 24057, "\u0119": 28864, "payload": 13643, "Testing": 20618, "dzie": 23813, "\u2581trust": 4893, "\u2581purch": 4744, "\u2581key": 1945, "\u2581only": 865, "\u2581videos": 10506, "\u2581\u0433\u043e\u0434": 16994, "\u2581Asc": 28294, "\u7533": 30360, "\u6c14": 30627, "\u2581them": 706, "\u2581vacuum": 18362, "essen": 21951, "\u2581setting": 5587, "\u2581creates": 12652, "\u2581emot": 6983, "\"\r": 11525, "annt": 13104, "\u2581Ellen": 22799, "\u00f4t": 14924, "\u2581Prize": 19751, "we": 769, "\u2581reg": 983, "\u2581Plus": 11230, "Compat": 7789, "\u2581bool": 2697, "isine": 26704, "\u2581cual": 13023, "\ud83d\ude22": 31659, "ixer": 11737, "\u2581nah": 20330, "\u2581sv": 5990, "Export": 14975, "owych": 17842, "ictions": 19351, "\u2581XII": 27811, "\u2581tack": 13616, "\u2581wool": 25943, "\u2581vendors": 27852, "({": 2882, "\u2581Buch": 17680, "onym": 8095, "\u2581batteries": 25267, "\u2581Diese": 21988, "\u2581angle": 10417, "Private": 12455, "\u2503": 30663, "\u09b6": 31275, "\u2581snd": 15433, "\u2581gonna": 9575, "\u2581Plant": 18044, "ribute": 1983, "\u2581implied": 7668, "\u2581unw": 12692, "';": 1775, "ctx": 3077, "common": 5348, "\u2581Ald": 17545, "\u2581tooth": 17961, "\u53f7": 29170, "\u2581route": 7103, "\u2581op": 931, "\u2581churches": 20764, "owym": 24547, "tol": 20181, "colored": 28508, "<0x53>": 86, "plain": 19457, "\u2581H": 382, "\u2581week": 1819, "\u2581relate": 21506, "\u96c6": 29451, "\u2581scary": 23957, "\u2581Kiss": 27658, "\ucde8": 31725, "iced": 5200, "\u2581prend": 16086, "\u2581adjusted": 21875, "\u2581instead": 3519, "UX": 12641, "uego": 14734, "BM": 12871, "^{(": 6680, "\u0446\u044c": 10105, "icc": 26867, "\u2581summar": 18062, "\u2581Gen": 6242, "Fall": 28072, "}_{\\": 6198, "thing": 1440, "\u2581Pam": 22238, "world": 9471, "duc": 6014, "Failed": 9523, "unal": 24764, "IDE": 15087, "\u2581t": 261, "Pack": 5932, "\u2581nella": 8360, "\u2581women": 2525, "\u2581delighted": 23038, "\u2581vacation": 16829, "\u2581fight": 3992, "\u2581joined": 7298, "\u2581stats": 14269, "ggi": 24816, "\u0446\u0456\u0432": 22151, "erek": 21499, "eau": 23524, "\u2581Marian": 27117, "\u2581twentieth": 26203, "\u2581Edition": 20356, "\u2581chunks": 28632, "tta": 19016, "<0xEC>": 239, "\u2581\u041f": 1531, "\u2581democratic": 22303, "\u300f": 31169, "ixon": 17572, "\u2581intentions": 25087, "\u2581moon": 11375, "\u2581Indep": 13487, "\u2581Linked": 22675, "(\"<": 21784, "\\/": 23674, "\u2581settle": 17493, "\u043f\u0443\u0431\u043b\u0438": 17188, "seconds": 23457, "resolved": 22634, "\u2581heap": 22340, "minded": 25117, "-.": 15376, "mysql": 20235, "Ops": 24172, "\u2581Eisen": 20924, "\u2581grad": 4317, "\u2581Green": 6248, "\u2581agreed": 5825, "\u2248": 29988, "\u8fd4": 29139, "\u2581XX": 12931, "WAY": 26548, "\u2581PAGE": 23509, "\u043b\u043e\u0436\u0435": 28489, "\u0434\u0435": 1903, "clos": 10413, "\u2581Marcatori": 27916, "\u8853": 31488, "vol": 3871, "scriber": 22941, "\u2581Dick": 13081, "oine": 21265, "\u2581tou": 7400, "AN": 1251, "\u2581('": 8272, "rition": 17791, "Count": 3072, "\u65c5": 31414, "\u2581thou": 28112, "\u8651": 31650, "ss": 819, "\u2581FROM": 10657, "\u2581Mand": 14572, "CO": 1998, "ously": 5019, "aaaaaaaa": 25332, "edi": 14548, "\u2581ed": 1382, "\u2581every": 1012, "\u2581ACT": 26535, "\u540c": 29338, "\u2581mood": 12247, "\u2581fran\u00e7": 10530, "Float": 9007, "\u2581Arthur": 12185, "imento": 9901, "\u2581Ah": 10103, "\u2581Dennis": 24047, "\u2581solely": 19550, "Assign": 23572, "command": 6123, "\u2581\u0425": 4724, "Step": 9977, "\u2660": 30736, "\u2581dro": 3483, "\u2581\u0441\u0442\u043e": 11212, "\u2581breakdown": 26987, "ght": 1026, "its": 1046, "\u2581pecul": 23908, "\u2581practice": 5245, "apshot": 8674, "Health": 18470, "\u2581individuals": 6992, "Priority": 21076, "\u2581jokes": 23872, "\u2581hat": 4613, "\u2581lid": 16006, "\u2581grim": 17837, "ilt": 2605, "\u2581emails": 19863, "estra": 19825, "\u0440\u043e\u043c": 7407, "\u2581\u00f6ver": 14509, "amine": 21928, "\u2581NULL": 1952, "century": 15900, "Username": 22281, "orders": 10486, "\u2581Mill": 6274, "\u043d\u0438\u0442\u0435": 11568, "endl": 15858, "\u2581item": 2515, "Lib": 15640, "Records": 27129, "\u2581clicked": 26399, "\u2581glad": 8200, "unlikely": 21956, "\u2581lamp": 21157, "mma": 19634, "\u2581stake": 15790, "\u2581\u0441\u044a": 9448, "fen": 16926, "\u2581dorm": 22598, "\uc774": 29015, "eless": 6199, "HED": 22035, "mina": 28085, "\u2581LIABILITY": 22208, "\u2581Often": 24640, "\u043c\u0435\u0440\u0438\u043a\u0430\u043d": 16503, "\u2581compare": 9584, "\u2581wounded": 17084, "\u2581OP": 8997, "\u00ba": 28936, "ested": 7848, "rost": 27848, "\u2581dec": 1285, "SYS": 18741, "utton": 26028, "How": 5660, "\u7d22": 29630, "\u05e0": 29246, "\u2581\u0442\u0440\u0430\u043d": 24407, "shake": 25524, "\u2581Se": 1091, "\u2581contribut": 4913, "ategy": 5167, "\u2581peers": 21907, "org": 1909, "\u2581Cav": 24577, "\u8bfb": 29678, "\u2581SER": 16123, "acja": 22218, "\u2581aber": 11554, "\u2581rein": 11523, "\u2581periodic": 23404, "\u0623": 29388, "\u2581\"#": 11441, "\u2581Antonio": 13172, "Us": 5495, "all": 455, "\u2581nurs": 13797, "\u2581\");": 14588, "\u2581fly": 8547, "\u2581TCP": 23007, "velop": 1809, "ekt": 10906, "\u2581magazines": 22916, "wise": 3578, "renderer": 20522, "\u2581han": 6700, "three": 16480, "ongs": 24487, "\u2581Imperial": 22032, "\u2581pob": 9492, "wm": 18897, "design": 16057, "ilation": 11213, "\u96ea": 30876, "\u2581honom": 28657, "*/": 1075, "\u2581Dim": 18752, "\u2581gr": 847, "\u03ae": 29280, "\u2581documentation": 12905, "Permission": 15935, "\u69d8": 31874, "\u2581emphasis": 19679, "utils": 7284, "ler": 1523, "\u2581helps": 7263, "\u2581reports": 7959, "\u2581c\u00f3": 21977, "\u2581reception": 16844, "\u2581imposed": 24739, "Db": 13171, "\u2581Image": 9833, "\u2581importantly": 21485, "UInt": 20103, "\u677e": 30617, "\u2581Ek": 27659, "\u2581Ms": 16870, "\u1ef3": 31540, "\u2581environmental": 12507, "\u1f21": 31990, "hren": 22126, "\u2581ze": 6797, "inated": 5499, "\u1ee3": 29908, ".\u201d": 2435, "\u2581cattle": 23137, "slash": 25779, "Drag": 18383, "redu": 12059, "\u2581acid": 14433, "\u2581credits": 21762, "\u2581stunning": 20497, "__": 860, "sect": 8261, "\u2581lin": 12893, "requ": 1681, "\u2581Heart": 14552, "\u0431": 28817, "\u2581look": 913, ")}": 3460, "\u2581vegetables": 19045, "\ud0dd": 30442, "\u2581Gl": 3651, "\u2581Stop": 13560, "\u2581Artist": 27055, "TabIndex": 28380, "\u2581avait": 13212, "\u0433\u0440\u0435": 21634, "\u2581p\u00e9riode": 28546, "Author": 11318, "\u2581move": 2318, "\u2581prayer": 15515, "tem": 20515, "\u2581Mrs": 7107, "\u0442\u0443": 2509, "\u2581fee": 10351, "reg": 1376, "illing": 8317, "TYPE": 3657, "unct": 18181, "\u2581raising": 15851, "arte": 16313, "\u2581Vern": 26801, "\u2581energet": 28236, "\u2581Journal": 9983, "MASK": 9945, "\u2581fundamental": 11854, "\u2581hi": 12014, "\u2581backup": 17503, "ivity": 2574, "\u2581exposure": 15368, "PROTO": 19584, "\u2581crew": 9505, "\u2581Sim": 3563, "\u2581Cong": 6201, "\u6a2a": 31249, "\u2581basement": 21466, "\u3080": 31449, "\u2581workspace": 28640, "\u2581momento": 19131, "Forward": 21971, "\u2581\u0434\u0435\u043a\u0430": 21871, "\u2581immedi": 4207, "\u2581downt": 15129, "\u2581\u0411\u0435": 11543, "ha": 2799, "\u2581wrote": 4677, "\u0442\u0435": 1078, "\u0432\u0438\u0437\u0438": 20943, "\u2581laundry": 25907, "\u2581somet": 4378, "\u0103r": 24703, "SINGLE": 26117, "\u2581\u043e\u0431\u043b\u0430\u0441\u0442\u0456": 28561, "\u2581plenty": 8969, "pred": 10477, "\u2581hely": 23484, "oth": 999, "\u2581befindet": 26454, "\u2581dispers": 27990, "\u5b97": 31071, "\u0432\u044a\u0440": 22797, "\u2581Gi": 6622, "<0xB1>": 180, "\u0c3f": 31227, "catch": 12256, "]).": 17927, ">:]<": 15880, "\u2581ecosystem": 27374, "\u2581worm": 25736, "\u2581heavy": 5917, "\u0432\u044f": 8281, "rup": 7064, "\u2581Pap": 16028, "oes": 6496, "\u2581\u00fa": 6149, "\u2581Fel": 11659, "\u2581standing": 6328, "\u2581Zu": 22231, "ese": 3368, "Pref": 18108, "\u7ec8": 30538, "\u0435\u043d\u044c": 13597, "\u2581paid": 5907, "\u2581Remember": 13399, "\u2581served": 6117, "\u2581developed": 6202, "jud": 14042, "\u2581capac": 17025, "\u2581flo": 2175, "\u2581ASS": 8602, "\u2581Charlotte": 16461, "groups": 12420, "\u2581\u0432\u0442\u043e": 19621, "ait": 1022, "umin": 9867, "\u2581good": 1179, "\u2581Bo": 3268, "\u2581Asian": 13464, "via": 15828, "\u2581ook": 15005, "\u2581compound": 18300, "\u0445\u0430": 5327, "\u2581minority": 21118, "Shift": 23328, "ancer": 9754, "\u2581Mau": 27804, "CY": 26940, "\u0430\u0440": 2362, "\u2581count": 2113, "Bel": 20548, "DN": 28385, "YPE": 12492, "\u2581evalu": 6548, "\u0926": 30046, "\u2581ante": 20706, "plement": 3793, "uvud": 17279, "mul": 18176, "lat": 7387, "\u2581combination": 9470, "\u043d\u0435\u043d\u0438\u044f": 23993, "\u2581travail": 28541, "\u2581Carter": 17326, "\u2581refugees": 25611, "\u975e": 29764, "dict": 4063, "\u4e66": 30117, "\u2581TX": 17679, "\u2581Mr": 2964, "seek": 18694, "IA": 7408, "\u2581leap": 26745, "\u2581obligations": 26405, "\u2581max": 2666, "\u2581sixteen": 24453, "itled": 13245, "asset": 17702, "ible": 1070, "\u2581Exper": 11135, "\u0404": 29035, "collection": 15432, "iques": 4030, "\u2581bed": 2855, "house": 6186, "CALL": 13741, "\u009b": 30921, "\u2581Technical": 25930, "\u2581Base": 7564, "\u5b8b": 31403, "\u2581Gro": 8697, "\u2581flood": 17268, "\uf0d8": 31261, "\u2581init": 2339, "()).": 9079, "\u57f7": 31996, "\u2581doctors": 13500, "polit": 20424, "\u2581Suppose": 21212, "akespe": 17274, "\u2581film": 2966, "ellt": 17633, "\u2581easiest": 28605, "\u2581puis": 12410, "glob": 23670, "\u2581Transfer": 24969, "\u2581Road": 7356, "ate": 380, "){\\": 11544, "\u2581Psych": 17221, "aggio": 14061, "\u2581employ": 3263, "angles": 21744, "\u0434\u0443": 2454, "\u2581exceptional": 20202, "inkle": 26630, "\u2581\u0444\u0435\u0432": 21851, "\u2581polar": 14955, "nak": 14854, "\u2581properly": 9222, "\u2581marketing": 7080, "\u53e3": 29269, "\u2581destroyed": 11575, ">',": 26161, "onne": 18304, "\u614b": 31094, "\u2581Che": 4537, "png": 7441, "\u2581Computer": 20466, "\u5b83": 29928, "\u2581signals": 15972, "\u2581shadows": 17207, "\u2581neutr": 25296, "\u2581\u2013": 764, "\u2581grip": 16593, "\u2581demol": 25598, "adesh": 20830, "atar": 9517, "\u2581[]": 3980, "\u2581mil": 2120, "\u2581changed": 4648, "inters": 23661, "\u2581user": 2188, "\u9332": 30872, "High": 12822, "\u2581multip": 17669, "\u0458": 28855, "lar": 15027, "olut": 1420, "\u2581paying": 9960, "use": 1730, ">(": 3323, "BN": 6848, "\u2581Years": 16886, "\u2581farming": 25209, "\u0441\u043a\u0438\u0445": 7878, "\u2581poss": 1672, "Images": 25322, "\u5f69": 30902, "\u2581brut": 16147, "\u2581regret": 18369, "\u7231": 30731, "\u2581amaz": 5818, "\u2581animals": 8222, "\u0432\u0430\u043d\u0435": 15064, "osexual": 20823, "\u2581\"\")": 20614, "\u2581\u043e\u043a\u0440\u0443": 15119, "\uac10": 31402, "\u2581ware": 21110, "qu": 364, "\u2581\u0413\u0443": 24672, "\u2581reproduce": 24585, "\u2581Roger": 14115, "\u2581worried": 10728, "\u2581\"$": 7685, "\u9986": 31418, "\u2581ended": 7054, "\u2581egg": 9119, "\u2581Third": 14671, "\u2581invasion": 18793, "\u2581enforce": 13707, "imental": 15402, "issue": 11681, "\u2581performing": 13801, "\uc6d0": 29816, "java": 7628, "\u2581Swiss": 22255, "and": 391, "\u2581Audio": 16957, "\u2581Anything": 27985, "Opts": 23888, "SERVICE": 27087, "\u2581schon": 26980, "ily": 1106, "\u2581Namen": 24333, "pending": 12718, "sen": 6448, "\u2581aster": 28693, "\u2581substance": 18677, "platz": 23591, "\uc131": 29465, "\u2581blocking": 22538, "vec": 2704, "will": 13185, "\u17d2": 29732, "\u2581bag": 6635, "\u2581\"\",": 7889, "bert": 4555, "ak": 491, "\u2581neut": 8950, "\u2581cond": 2076, "\u2581une": 2219, "\u043d\u0456\u0439": 13238, "\u2581Sun": 7057, "\u2581studying": 14328, "ccess": 1518, "fections": 23498, "P": 28753, "to": 532, "\u2581initiative": 19410, "non": 4581, "\u2581Now": 2961, "\u2581\u2581": 259, "Tooltip": 25389, "\u0441\u0441": 13847, "\u2581emit": 16670, "kow": 12637, "\u2581determination": 20051, "\u2581Portland": 23732, "\u2581\u043a\u043e\u043b\u043e": 28242, "\u2581bom": 12793, "mind": 15471, "\u2581recognized": 10099, "igne": 9908, "ifr": 23568, "fc": 6837, "\u7f16": 29402, "\u0436": 28836, "\u2581iPad": 28696, "\u2581supporting": 11787, "gorith": 5360, "\u2581sistema": 16410, "TagHelper": 20889, ".(": 21057, "\u2581\u0444\u043e\u0440": 13939, "\u200b": 28935, ")).": 8698, "\u043d\u043e\u0432\u0435": 23791, "\u0448\u0435\u043d\u0438\u044f": 25912, "\u2581fab": 7372, "\u2581PARTIC": 12942, "rotate": 26139, "\u015b": 28884, "\u2581Fisher": 22174, "\u2581fix": 6293, "\u2581dwell": 28034, "\u2581extremely": 7625, "\u2581\u2192": 15672, "\u2581Quarter": 24391, "\u0445\u043e\u0434": 16363, "\u5706": 30952, "\u2581ur": 4273, "<0x31>": 52, "\u2581Sand": 7512, "UP": 3571, "\u989c": 30327, "\u2581faithful": 26073, "WAIT": 23808, "TP": 4904, "\u2581Package": 25949, "\u001b": 30246, "\u2581relie": 14267, "IFT": 15688, "Measure": 25241, "\u70ae": 31756, "xygen": 19303, "strip": 18184, "'+": 18660, "ico": 2224, "\u2581fewer": 16130, "\u2581Chair": 15487, "Shape": 11124, "\u2581mut": 4548, "\u9801": 31693, "\u2581uitgen": 15641, "\u2581banned": 20420, "\");": 1041, "neo": 17462, "\u0255": 30621, "\u2581hunt": 20021, "\u2581diese": 16936, "}:": 11290, "LD": 12093, "\u2581India": 5558, "\u2581Return": 4571, "\"},": 7706, "yaml": 26121, "\u2581relaxing": 28411, "enden": 8331, "eres": 12343, "topic": 17833, "\u00e4hrend": 14934, "\u6548": 29532, "$_": 11914, "wy": 14589, "moment": 26471, "\u0432\u043e\u0440": 15769, "\u2581sole": 11150, "rowser": 5736, "\u00e1g": 8043, "ion": 296, "falls": 16768, "\u2581Winter": 13951, "min": 1240, "members": 20672, "Self": 13547, "\u2581fac": 3252, "\u30c0": 29977, "\u2581Prim": 16059, "ifferent": 15791, "\u4f46": 29926, "signal": 16530, "<0x82>": 133, "\u043a\u043e\u0433\u043e": 13961, "\u2581Blo": 9797, "\u2581dich": 19132, "\u2581China": 5077, "Bin": 19478, "heit": 12307, "\u2581Convention": 23717, "\u043d\u043e\u0433\u043e": 3111, "\u0622": 29748, "chs": 21100, "<0xD2>": 213, "\u1f74": 31675, "\u2581depression": 14992, "\u2581Schwe": 18295, "\u2581Natal": 23675, "\u2581survival": 16856, "anners": 24681, "ethe": 13334, "\u2581Equipment": 26025, "\u2581cable": 15822, "\u2581locations": 11293, "\u2581reach": 4563, "They": 6037, "<0xA1>": 164, "\u2581uid": 26975, "\u2581Reserved": 23182, "anje": 27858, "output": 4050, "\u2581learned": 5996, "\u2581chall": 4233, "\u2581Georges": 28161, "\u2581was": 403, "\u2581deux": 6935, "\u2581dick": 23108, "cin": 20243, "<0x70>": 115, "\u2581proc": 13053, "\u2581diameter": 22640, "\uc9dc": 31405, "\u2581inn": 4783, "\u2581Then": 2479, "\u2581sweat": 13898, "\u2581Lang": 13550, "\u2581bast": 15776, "\u2581ann\u00e9es": 16010, "\u0112": 31767, "\u2581Bob": 7409, "Arc": 26546, "men": 2129, "\u8bb2": 31952, "NE": 4390, "\u2581Mind": 14683, "\u2581\u041d": 2197, "\ub178": 30525, "\u9650": 29436, "Exp": 8003, "\u5e1d": 30607, "<|end_of_turn|>": 32000, "\u2581graphs": 23411, "\u2581Category": 18327, "\u2581wife": 4285, "\u2581Template": 23469, "Inst": 6060, "\u0432\u0435\u0441\u0442": 15339, "mov": 18057, "base": 2893, "\u2581explains": 15157, "\u2581photography": 19824, "\u2581tact": 12529, "lord": 22112, "\u2581Sy": 7281, ".<": 26364, "\u2581ranks": 19334, "\u2581lead": 1736, "\u2581\u043e\u0440\u0433\u0430\u043d\u0438\u0437\u0430": 26266, "\u2581procedure": 10722, "\u7ef4": 30185, "dag": 22997, "gers": 7850, "\u2581Empire": 13657, "\u2581Set": 3286, "tok": 11178, "\u2581meth": 24992, "\u2581Italia": 16995, "\u2581Associ": 6097, "Pointer": 8638, "\u2581iss": 2257, "\u043d\u0438\u0445": 5109, "\u2581business": 1955, "\u2581Pretty": 24111, "<0x3B>": 62, "astr": 7225, "plane": 13209, ".),": 14439, "rena": 14248, "price": 11020, "<0x47>": 74, "\ub4f1": 30390, "\u2581users": 5443, "socket": 14210, "\u2581tight": 6975, "ute": 1723, "Flags": 7651, "commit": 14118, "\u2581soul": 7237, "\u2581crush": 21987, "ogene": 17344, "\u2581bl": 843, "\u2581Michigan": 13642, "\u2581lu": 16899, "else": 2013, "<0xF9>": 252, "\u2581exploring": 21354, "\u2581antes": 17567, "\u2581continues": 10352, "\u2581BS": 28691, "\u2581entrepreneur": 23248, "<0x11>": 20, "\u2581named": 5160, "entieth": 22606, "\u2581orange": 14545, "dex": 1453, "URCE": 15375, "graded": 23189, "\u0435\u0442\u043e": 24525, "\u064b": 30743, "\u2581cargo": 16666, "AGE": 6130, "\u5bc6": 29385, "asket": 8173, "\u2581Having": 11682, "\u2581FO": 18417, "<0xB2>": 181, "\u2581overs": 13775, "\u2581hes": 10816, "\u2581inside": 3416, "\u0421\u0420": 12402, "\u2581nons": 21797, "\ufe19": 30813, "\u2581launch": 8817, "\u2581\u0441\u043b\u0443\u0436": 26683, "\u2581Among": 13927, "\u2581perceived": 21887, "\u2581success": 2288, "\u2581indices": 17853, "at\u0103": 20426, "\u2581api": 10429, "WM": 19356, "\u2581Solutions": 24806, "\u010c": 28965, "\u2581obst": 13364, "\u2581Nacional": 14659, "\u2581knee": 16229, "scal": 19040, "\u2581Represent": 17891, "\u2581n": 307, "ogr\u00e1": 21315, "\u201d)": 27521, "\u2581eating": 8652, "aligned": 15742, "\u2581instrumental": 28166, ">(\"": 10622, "\u2581highlights": 23089, "\u2581fork": 24143, "\u0437\u043e": 3965, "\u7c7b": 29066, "\u2581shiver": 25564, "FMT": 28571, "\u2581Electric": 20459, "\u2581Args": 24997, "Look": 9291, "think": 24036, "\u2581./": 17449, "icos": 8368, "\u1794": 30114, "\u2581miles": 6052, "\u2581\u043d\u0430\u0439": 15977, "\u2581jako": 10128, "Slot": 15457, "\u2581Nel": 10985, "andom": 3318, "\u2581Jane": 10805, "Yeah": 12204, "ise": 864, "\u2581Einstein": 25721, "\u52a9": 30278, "\u2581cope": 27626, "\u1789": 31901, "\u2581areas": 5020, "\u2581Jean": 6719, "\u2581pin": 9550, "Free": 10998, "\u534e": 30430, "\u2581xml": 14502, "\u2581\u043f\u043e\u0441\u0442\u0440\u043e": 28342, "\u3059": 29126, "\u2581blinked": 27800, "\u30df": 30285, "period": 14977, "\ud83d\ude42": 29340, "respond": 27092, "\u7d71": 31607, "\u2581search": 3472, "\u6469": 31978, "iple": 4191, "\u2581;": 2753, "ew": 889, "\u2581junio": 25942, "outing": 8892, "bec": 12328, "plic": 1256, "print": 2031, "arator": 22813, "\u0451\u0442": 14687, "\u2581embod": 21322, "\u2581location": 4723, "YN": 26687, "\u0441\u043a\u0435": 17486, "<0x0A>": 13, "<>();": 15840, "\u2581Picture": 27872, "AB": 2192, "\u2581Mit": 6684, "pr": 783, "\u2581den": 1457, "\u2581lovers": 24883, "<0x1C>": 31, "\u2581Feder": 12969, "\u2581incidents": 27102, "\u79fb": 29553, "Element": 2357, "\u2581immediately": 5347, "ako": 7050, "trace": 9213, "\u2581consisting": 20922, "Ord": 22788, "\u2581ease": 12801, "\u2581end": 948, "Su": 5173, "organ": 8974, "\u2581bamb": 27048, "ivi": 19231, "\u2581Express": 16722, "dai": 26862, "\u5f00": 29177, "\u0446\u0456\u043e\u043d\u0430\u043b\u044c": 27851, "ind": 507, "\u2581mit": 2367, "\u2581jealous": 21176, "\u2581consent": 15134, "\u2581nevertheless": 25457, "elif": 13963, "tbl": 15316, "\u6c5f": 29920, "ocratic": 26184, "usammen": 14533, "\u2581deemed": 24328, "\u2581lawyers": 19731, "\u2581nan": 23693, "elasticsearch": 28350, "\u2581Por": 12401, "\u2581Door": 26519, "\u2581electric": 7778, "ancy": 5403, "orer": 14465, "<0xC8>": 203, "\u2581albums": 19888, "\u2581train": 5835, "ota": 4752, "\u2581panel": 8357, "\u2581Johann": 12381, "\u2581lingu": 24017, "\u2581talents": 26719, "\u2581member": 4292, "\u2581proces": 22234, "\u2581Cultural": 24974, "\u2581drm": 23200, "\u2581Ec": 26195, "<0x5D>": 96, "gorithm": 6433, "\u2581formula": 11303, "rass": 12316, "\u2581AB": 18322, "\u2581organisations": 24202, "\u2581pursue": 18619, "HERE": 11724, "}\"": 7935, "\u2581pain": 3358, "\u2581sulla": 20987, "Pr": 3393, "\u2581sections": 12458, "*>(": 19011, "\u2581manufact": 6298, "\u2581weapon": 11380, "olog\u00eda": 23811, "<0x2B>": 46, "\u2581Culture": 17796, "\u2581helped": 6481, "prom": 14350, "\u2581papers": 10374, "\u2581macro": 19109, "\u2581cp": 14173, "\u2581\u0422\u0430\u043a": 26897, "\u6797": 30158, "dal": 20576, "\u2581conducting": 28698, "Here": 15423, "Contin": 22610, "wicklung": 25739, "<0x98>": 155, "::~": 27893, "\u2581sit": 1943, "\u2581explore": 11418, "ruit": 6424, "\u2581rc": 8921, "\u2581Kings": 19188, "GPL": 20405, "\u2581acknow": 10062, "\u2581trav": 6834, "\u2581simpl": 9878, "ither": 1940, "SYNC": 23871, "\u00e9ri": 8909, "ipt": 14345, "\u2581exhaust": 11444, "\u2581incredible": 13978, "\u0917": 30167, "\u0b9f": 30251, "];": 1668, "Come": 14724, "\u2581check": 1877, "\u0272": 30674, "\u2581ensures": 21091, "\u2581sealed": 21998, "gress": 2736, "\u10e5": 30630, "\ud83d\ude33": 31208, "iant": 3906, "arga": 26538, "\u8aaa": 31566, "\u2581confident": 10689, "anj": 18621, "oard": 20446, "\u2581intense": 14373, "\u2581School": 4228, "\u5e02": 29244, ",\\,": 21946, "\u2581Dav": 3476, "\u2581generally": 6741, "iday": 5036, "\u2581shed": 19851, "\u2581Jersey": 14007, "\u2581crystal": 20710, "iska": 13475, "ON": 832, "\u2581caring": 22153, "entially": 7346, "\u2581Sa": 7506, "\u2581LI": 12149, "\u2581misunder": 26670, "\u51b3": 30668, "odd": 26626, "patient": 27792, "\u2581Aut": 3745, "\u2581Wis": 14100, "\u00e4t": 5291, "eca": 19296, "bed": 3101, "\u2581anyone": 3637, "USA": 22254, "friend": 6542, "\u2581sle": 7767, "\u2581Behind": 23779, "\u2581saves": 28507, "________": 8320, "\u044e\u0442": 7311, "\u2581manager": 7056, "\u0433\u0440\u0430\u0444\u0438": 11075, "\u2581ratings": 21381, "\u2581authorized": 23243, "pag": 19383, "gency": 9588, "ano": 2503, "\u2581jou": 13087, "omitempty": 15509, "\u2581def": 801, "DEX": 13413, "\u2581Serial": 22696, "neut": 23806, "transport": 19645, "\u2581Conf": 10007, "prec": 9805, "\u2581Incl": 18384, "\u2581g": 319, "\u2581far": 2082, "-------------": 22843, "\u2581Kap": 14457, "Info": 1895, "\u2581sensors": 27810, "OUTPUT": 23923, "\u2581julio": 26018, "\u2581streng": 5261, "\u00f1os": 8476, "\u22c5": 30020, "\u2581Jud": 7404, "))": 743, "lease": 1919, "\u2581temperature": 7641, "\u2581urg": 13839, "\u2581p\u00fablic": 23912, "\u2581ONE": 26071, "\u2581stro": 14680, "\u042d": 28921, "\u2581?>": 6853, "\u2581K\u00f6": 19253, "jd": 28215, "\u2581sensation": 23413, "\u2581encoded": 23174, "\u9f8d": 30749, "\u7ffb": 31051, "\u2581eight": 5435, "mk": 16259, "ogs": 22990, "Supported": 19306, "\u3092": 29078, "\u2581moderate": 22651, "\u2581sheer": 23339, "hold": 5750, "\u2581sir": 10116, ")--": 20560, "></": 3176, ";\r": 1271, "Overlay": 22869, "\u2581payments": 14923, "\u2581workplace": 23324, "you": 7020, "\u2581edit": 10659, "THE": 25898, "\u1eef": 30586, "\u0423": 28890, "\u2581Face": 7197, "\u2581September": 4074, "\u2581complicated": 13140, "cord": 19056, "nim": 25106, "\u179c": 31412, "\u0252": 31099, "\u2581caution": 26769, "kan": 9763, "\u2581fatal": 20174, "Tasks": 15839, "\u6597": 31248, "\u2581predictions": 20596, "posing": 22935, "\u2581\u0434\u0432\u0438": 24410, "\u2581Some": 2909, "\uc57d": 31160, "\u2581bland": 23494, "eph": 27140, "prof": 18212, "\u2581fault": 9683, "\u2581inv\u00e5n": 26939, "ming": 4082, "<0x88>": 139, "\u2581neighborhood": 10501, "\u2581positioned": 28184, "\u2581Hugh": 22389, "With": 2946, "\u10e4": 30880, "lich": 3744, "\u8acb": 30539, "\u2581Portug": 11211, "\u2581belly": 19146, "\u00c3": 29364, "bf": 1884, "\u2581By": 2463, "\u2581func": 2745, "\u2581Little": 9999, "\u2581WIN": 25688, "\u2581Batt": 17546, "NI": 16457, "\u90ce": 30682, "\u2581const": 779, "usz": 18645, "\u2581\u043e\u0442\u043d\u043e": 18616, "\u2581\u0441\u0442\u043e\u0440\u043e": 28392, "\u2581Nederland": 20347, "theme": 12679, "\u2581\u0441\u0442\u0430\u043d": 21479, "\u0431\u0440\u0430": 8345, "\u1e62": 30871, "sqrt": 5840, "plete": 6141, "\u2581pd": 17479, "pert": 2482, "stat": 5975, "*\"": 27045, ".'": 1815, "\u0416": 28942, "enty": 3743, "\u2581constructor": 11429, "\u2581bek": 20691, "ini": 3494, "OL": 3064, "\u0441\u0442\u0430\u043d\u043e\u0432": 16362, "\u2581Many": 6025, "auf": 7397, "\u2581Air": 5085, "\u00e1sa": 21767, "\u2581hopefully": 20627, "\u2581redd": 15512, "ikel": 7104, "tegr": 8489, "\u2581ownership": 13965, "choice": 23817, "ynamics": 25705, "\u8a71": 31145, "\u2581ensemble": 22936, "\u0632": 29210, "\u9057": 31889, "\u2581together": 2553, "\u2581photos": 8886, "\u2581sons": 15103, "Document": 7364, "\u4e5f": 29537, "\u2581\u043f\u0440\u0435\u0434": 6978, "\u2581determined": 7798, "miss": 7924, "\u2581Mik": 16340, "To": 1551, "\u2581column": 4419, "Ready": 18818, "\u2581maggio": 24080, "lam": 5989, "\u2581As": 1136, "\u0447\u043d\u043e\u0433\u043e": 19957, "What": 3195, "\u2581denotes": 21481, "\u2581European": 6392, "\u6765": 29263, "\u0584": 31289, "\u0581": 31440, "\u2581surf": 20197, "\u2581citizens": 9893, "Selector": 8185, "xE": 9695, "zel": 10311, "\u5178": 30465, "<0x4C>": 79, "\u2581\u00b7": 1766, "\u2581ordered": 8346, "Bul": 18775, "\u2581endl": 20604, "\u2581fluid": 15144, "\u2581alongside": 13291, "\u2581appreciate": 11982, "ieux": 22320, "aling": 4726, "flex": 13971, "Detail": 14525, "\u2581parliament": 20848, "\u2581\u20ac": 17416, "reat": 836, "\u2581expend": 27040, "ey": 1437, "());": 1657, "\u2581Panel": 27968, "ivas": 25268, "\ub144": 31479, "\u2581waist": 17532, "\u2581\u0441\u0442": 4887, "ioc": 22038, "\u2581SA": 14188, "\u00f3wn": 16213, "\u0445\u043e\u0432": 19360, "bigg": 21117, "\u2581limitations": 9658, "\u2581civilian": 25120, "\u00da": 29070, "\u2581wooden": 12602, "\u2581night": 2125, "\u0531": 30953, "\u2581Em": 2929, "\u2581demand": 5637, "\u6587": 29019, "\u2581technological": 26515, "\u179b": 30964, "\u2581logs": 22898, "\u2581warranty": 12864, "\u2581lapt": 16925, "TypeInfo": 28567, "\u2581Flow": 21127, "\ub124": 30959, "charg": 14950, "share": 16864, "\u2581viable": 27826, "als": 973, "skiego": 17983, "Initialize": 22719, "\u7f51": 29533, "icas": 8316, "saved": 21428, "\u2581suited": 24003, "MAGES": 24441, "oa": 17542, "\u2581Med": 2998, "\u2581previously": 8361, "\u7ed1": 30384, "\u8f6f": 30769, "\u2581surprising": 12285, "\u0303": 30039, "\u2581commonly": 14473, "Und": 19707, "\u2581despair": 25477, "\u2581but": 562, "\u2581$_": 8976, "cdots": 11797, "\u2581since": 1854, "\u2581Aqu": 16979, "\u2581deployed": 26694, "\u2581Apparently": 24098, "document": 7200, "leg": 1946, "\u2581Islam": 10251, "nement": 14482, "\u2581magic": 9693, "\u2581Native": 16024, "east": 24294, ".\",": 9191, "\u2581Examples": 26268, "\u2581gest": 7165, "\u2581Na": 7084, "\u2581bear": 9135, "\u2581notion": 14086, "\u2581Columbia": 14402, "\u79c0": 31450, "\u2581dice": 22544, "Left": 7549, "\u2581Dor": 10707, "\u2581cage": 25807, "\u1ecb": 29765, "\u0432\u0435\u0442\u0430": 17835, "\u2581creator": 25365, "\ud654": 29731, "ince": 1261, "\u2581brill": 12000, "\u2581movies": 10615, "\u2581injuries": 15871, "\u5df1": 29957, "\u2581\u0443\u0447\u0430\u0441\u0442\u0438": 25337, "\u2581Collect": 26272, "\ud3b8": 31630, "\u2581Roland": 28552, "\uce58": 30159, "\u178a": 31238, "\u2581overwhelmed": 28186, "Summary": 17590, "\u2581Performance": 19859, "mathcal": 2155, "<0x17>": 26, "\u2581earlier": 5585, "\u2581offered": 6373, "These": 18171, "conom": 2868, "\u2581stands": 10969, "\u1d1c": 31892, "\u05db": 29463, "\u2581Context": 14268, "\u2581buyers": 21872, "\u2581GD": 24217, "\u2581audit": 24790, "\u2581stone": 7253, "\u2581implicit": 21628, "job": 9524, "\u0433\u043e\u043c": 26466, "oric": 16891, "INVAL": 7049, "\u2581lif": 5678, "\u2581Ian": 17311, "\u2581lim": 2132, "$:": 27561, "\u2581sty": 10176, "\u2581Orleans": 21604, "ades": 2550, "\u2581patience": 21869, "\u0448\u0456": 20159, "at\u00f3": 23095, "\u2581Perfect": 24443, "align": 3737, "\u2581vamp": 21505, "\u043c\u0430\u043d": 5829, "\u2581Labor": 14160, "ism": 1443, "\u2581\u043c\u0456\u0441": 21770, "\u1005": 31708, "\u8ba9": 30447, "\u2581\u00bb.": 13423, "\u2581parsed": 18151, "\u2581Privacy": 25184, "\u2581rib": 13147, "\u2581junk": 23690, "\u2581article": 5447, "infty": 5065, "\u2581Updated": 26807, "\u043a\u0430\u043d": 9368, "Pe": 9336, "\u2581\u043d\u0430\u0441\u0435": 7599, "\u2581plates": 19762, "\u2581adjacent": 20480, "\u1e24": 30231, "MSM": 21430, "material": 10595, "\ub123": 31550, "Hey": 15766, "\u63a8": 30063, "\u2581been": 750, "\ud83c\uddfa": 31637, "\u2581Bulgar": 22390, "\u2581visual": 8809, "rik": 8129, "\u2581bundle": 15484, "\u2581disease": 8030, "LOC": 9668, "\u2581Johnny": 18354, "\u2581Har": 3407, "Dest": 9277, "uz": 3533, "\u2581shel": 8816, "itemize": 14287, "\u2581hex": 19703, "\u2581heute": 21602, "verify": 14876, "volt": 26198, "\u2581woods": 16748, "trait": 27897, "\u00e8": 28840, "out": 406, "\u203a": 29525, "\u2581surely": 13836, "Part": 4917, "\u2581computing": 21263, "\u2581taking": 3344, "\u2581fail": 3747, "\u2581se": 427, "\u2581thigh": 21745, "\u2581exp": 2365, "\u865a": 31415, "\u2581\u0434\u0432\u0430": 17489, "\u5251": 31945, "ocket": 3955, "dap": 24260, "getInt": 27976, "\u2581decom": 18626, ".).": 15745, "\u2581Living": 16303, "\u0446\u044f": 16407, "\u2581rubber": 20452, "\u2581chips": 21968, "\u2581skb": 22076, "dbg": 14962, "\u2581closest": 16424, "\u2581Cup": 7440, "\u2581nice": 5171, "\u2581critics": 20557, "\u2581Days": 19503, "\u0448\u0435": 3647, "ERN": 7920, "Expect": 15447, "ospel": 19432, "\\_": 14048, "\u30c6": 29610, "dyn": 23076, "\u2581mt": 23261, "\u2581chose": 10008, "\u2581Griff": 19285, "\u2581disco": 20962, "\u0d9a": 31910, "known": 4717, "encer": 16233, "surface": 20942, "\u2581BM": 20179, "heck": 2543, "\u2581Ac": 4868, "__);": 13928, "Dot": 25520, "\u044f\u0445": 19242, "\u2581accur": 6464, "\u2581enemy": 8454, "File": 2171, "ENABLE": 12050, "\u2581fir": 12621, ".\")": 17169, "defer": 17112, "ie": 412, "\u2581Chelsea": 27106, "\u2581Ass": 3348, "\u2581mental": 8057, "\u8f7b": 31757, "placement": 17140, ")$": 2322, "\u2581entertainment": 15175, "-)": 27346, "\u0e31": 29378, "\u2581Febru": 4846, ">/": 23211, "\u2581Instagram": 18351, "\u2581layers": 13083, "\u0441\u043a\u043e\u0432": 20060, "\ubca8": 31997, "Fill": 16946, "\u2581Din": 20325, "scale": 5705, "('.": 10182, "\u2581lieu": 18569, "\u2581valor": 23666, "\u5957": 30846, "\u226f": 31645, "{'": 18437, "\u2581club": 4489, "\u2581easily": 5061, "\u79bb": 30254, "tl": 9563, "\u1e28": 31949, "\u2581downstairs": 26686, "sel": 2325, "\u2581colored": 22157, "Registry": 11494, "\u0432\u044b": 5089, "\u2581frequ": 5059, "\u2581asshole": 25676, "\u2581someone": 2493, "\u5973": 29933, "\u2581\u00e4r": 3554, "ierra": 14645, "\u2581cyber": 23449, "\u7063": 31521, "\u2581nurses": 26579, "\u62f7": 31850, "netic": 20527, "\u2581More": 3764, "\u2581feelings": 9388, "actor": 6875, "\u2581reson": 16379, "Edit": 8470, "\u2581?></": 20198, "\u2581GFP": 23577, "\u2581developer": 21782, "\u0446\u044b": 17851, "\u2581toys": 22170, "\u2581resolved": 15813, "\u2581online": 3270, "\u2581Turn": 8406, "\u2581pid": 21654, "\u2581presenting": 27445, "fn": 5642, "\u2581Tan": 17157, "\u00ca": 30116, "ARGET": 17985, "\u2581t\u00f6": 23272, "\u2581sm": 991, "\u2581boats": 19706, "\u2581parseInt": 26125, "\u76d1": 29999, "\u0151l": 15930, "}_": 2427, "\u2581Fut": 27280, "\u2581speaks": 19203, "units": 24653, "\u2581luxury": 17211, "\u2581complain": 19631, "\u767a": 30986, "\u2581DO": 9317, "\u2581relay": 24517, "*.": 2414, "\u2581\u041c": 1894, "\u2581Germ": 3279, "it\u00e9": 3974, "\u2b50": 30130, "})$": 9340, "\u2581panic": 15107, "\u5883": 30396, "\u2581Broadway": 24331, "\u2581passing": 9720, "Per": 4712, "portun": 3766, "\u2581materials": 7069, "Debug": 7156, "nut": 17964, "\u2581cement": 22701, "\u2581\u0444\u0430": 12775, "Methods": 20591, "sensor": 15017, "\u2581Military": 19844, "\u2581adults": 12111, "\u00eet": 21155, "\u2581lease": 23741, "\u2581Miller": 13674, "Zero": 14837, "\u0103": 28867, "\u2581PR": 10517, "\u0490": 29559, "\u6295": 30189, "oles": 4721, "\u5e0c": 30655, "\u5e84": 31372, "ASS": 4816, "Mix": 26388, "egy": 25375, "\u0442\u0456\u0432": 27062, "\u2581analytics": 28669, "a": 28708, "\u2581contents": 11337, "\u2581partners": 11796, "numer": 13372, "\u2581Either": 19551, "ived": 1975, "cache": 5319, "chel": 24934, "\u2581Conne": 8771, "xit": 28619, "\uc0c8": 30993, "\u2581Thought": 26142, "\u2581familia": 19266, "\u2581heads": 10478, "\u2581especial": 17686, "Running": 23802, "\u2581nous": 13662, "\u2581aan": 6456, "hre": 27056, "\u7b80": 30470, "vider": 4340, "ral": 1650, "\u0e27": 29519, "ock": 629, "\u2581\"<": 6647, "expl": 17788, "\u2581LIMITED": 20881, "\u2581Nar": 16392, "\u2581equival": 7907, "\u2581values": 3069, "\u2581\u00c0": 13193, "ERS": 10291, "\u2581vintage": 28465, "shine": 22121, "\u2581dort": 19187, "xfe": 23505, "\u2581diff\u00e9rent": 23749, "\u2581Auss": 27775, "\u2581Contribut": 26015, "achten": 28579, "\u2581\u0441\u043f": 27780, "<0xA0>": 163, "\u2581Dec": 6712, "\u2581dot": 12253, "idal": 17594, "\u043f\u043e\u0437\u0438": 24326, "formation": 1517, "\u2581evolved": 23615, "\u2581Sha": 24872, "\u2581networks": 12167, "\u2581mixed": 9430, "manuel": 27551, "Force": 19714, "\u2581stood": 4857, "\u2581fine": 4433, "smithy": 23512, "<0xD5>": 216, "\u0441\u0441\u0438\u0439": 24416, "ende": 4539, "\u0219i": 6284, "\u2581cooperation": 21732, "\u2581ward": 17874, "\u2581v": 363, "\u2581Krist": 16661, "\u51fd": 29297, "\u4e22": 31883, "\u2581nj": 28572, "\u2581geh\u00f6r": 17421, "\u2581hurry": 24387, "\u2581Mail": 19227, "ttp": 4460, "\u2581Creek": 15480, "\u5167": 31157, "\u2581comb": 3006, "ink": 655, "\u2581fem": 4141, "\u2581quant": 4664, "matic": 20095, "\u2581awake": 20875, "iens": 12306, "ensen": 19415, "\u00e4sident": 25353, "\u2581nob": 7169, "\u2581DOM": 21045, "agnostics": 14127, "\u2581presidential": 19268, "\u2581outline": 22327, "setState": 24624, "\u2581\u0420": 2399, "\u2581welcome": 10058, "alpha": 2307, "acks": 6507, "\u2581Smart": 17285, "nil": 9454, "\u2581\u0416": 11000, "\u2581privacy": 12917, "\u653b": 30666, "CONTEXT": 27181, "ela": 4403, "jal": 21939, "poque": 25576, "iga": 7233, "\u2581shoulder": 7793, "ough": 900, "\u2581congreg": 25324, "\u00fd": 28889, "ienst": 19239, "\u2581**": 619, "\u2581cream": 10558, "ancell": 13759, "Too": 25679, "aming": 6133, "\u2581nort": 27737, "\u2581privile": 13182, "\u2581receiver": 15720, "\u2581autom": 4607, "}$-": 22298, "aton": 14434, "\u2581state": 1665, "\u2581Sac": 17219, "rect": 3123, "\u0e50": 29225, "\u6a5f": 30672, "\u0434\u043e\u043b": 24019, "\u2581stated": 9256, "\u2581native": 8271, "\u2581sob": 21669, "\u5f52": 30588, "\u2581sym": 4297, "\u2581Nicholas": 22676, "\u2581pleasure": 10736, "\u2581On": 1418, "chet": 24388, "\u2581Wat": 12037, "ocol": 3873, "\u2581cele": 5207, "\u2581displ": 13420, "\u043b": 28794, "\u2581alias": 18960, "\u2581\u043f\u0435": 8153, "\u2581Ka": 16121, "\u2581\"\";": 11993, "\u2581affairs": 17313, "flag": 7914, "\u2581Talk": 15849, "frame": 3413, "Sort": 13451, "\u2581dst": 10778, "\u2581Header": 24286, "msg": 3932, "\u2581worst": 8748, "sign": 6301, "pis": 9455, "\u2581blast": 23096, "\u2581Vel": 14812, "\u2581Description": 10220, "K": 28796, "\u2581admin": 11173, "\u00ce": 28992, "\u2581hig": 3259, "kk": 20099, "\u2581compilation": 26383, "\u2581iz": 9345, "\u2581indoor": 24990, "\u2581intro": 24671, "\u2581neither": 9159, "\u2581\u0442\u0440\u0430": 13854, "avan": 18872, "\u2581door": 2251, "CONF": 25629, "\u2581utilizing": 28464, "Ass": 7226, ")^{-": 22816, "\u2581Format": 18748, "\ud2b9": 31684, "hesis": 21537, "\u2581reasonable": 11301, "\u4f53": 29337, "oci": 2139, "eze": 19961, "aste": 4635, "\u2581andere": 17258, "\u043c\u043e\u043d": 21866, "\u2581our": 813, "\u2581cinq": 28300, "\u2581Within": 15621, "\u2581licensed": 17045, "\u2581distance": 5328, "\u2581centre": 8802, "\u2581P\u00e9": 21972, "\u026f": 31678, "\u2581Hart": 13796, "ater": 795, "Am": 7118, "\u1fe6": 30622, "\u2581summer": 5561, "fw": 13655, "\u2581Pitt": 17491, "VENDOR": 24762, "\u2581\u0438\u044e\u043d\u044f": 26825, "espec": 23082, "NO": 4032, "STATUS": 8186, "\u2581Fr": 1361, "\u2581\u044e": 11531, "\u5170": 31199, "******/": 15212, "\u2581phr": 23660, "\u2581SE": 5820, "\u2581=\\": 17988, "\u10ee": 30306, "\u2581put": 1658, "\u2581Prior": 20844, "\u2581accompan": 13498, "\u5230": 29036, "<|pad_0|>": 32001, "\u2581dem": 1493, "\u30f4": 31428, "rael": 5815, "customer": 18523, "\u2581\u0441\u0435\u0440\u0435\u0434": 28200, "fixed": 15145, "\u2581threshold": 14053, "TestCase": 18268, "\u98df": 30716, "\u2581\u0441\u043e\u0437\u0434\u0430": 18845, "Action": 3795, "mu": 2390, "\u2581jumping": 23058, "Alpha": 19510, "ensis": 14320, "\u2581Anthony": 15089, "inct": 5654, "\u2581MIN": 21049, "Since": 24091, "kamp": 26747, "\u2581bail": 21010, "Li": 27566, "\u2581Cell": 20355, "amples": 9874, "\u2581landing": 14378, "\u2581aller": 23803, "PC": 4199, "rightarrow": 6951, "\u2581optim": 6997, "\u2581campo": 23346, "\u2581seed": 11057, "ki": 3430, "oper": 3015, "\u2581Domin": 14467, "\u2581Stanley": 19805, "\u2581Connection": 20117, "inter": 1646, "\u9805": 30829, "mao": 26995, "\u2581Australian": 9972, "\u2581Add": 3301, "\u2581result": 1204, "\u2581\u043f\u043e\u043b": 13577, "\u2581subset": 19804, "There": 5816, "\u2581ripped": 27755, "\u2581mul": 18013, "aid": 3439, "\u2581Hann": 14390, "\u2581\u043f\u043e\u043c\u043e": 21589, "\u2581levels": 6157, "\u000e": 30517, "\u2581washing": 20391, "\u2581clarity": 25312, "\u2581rede": 27503, "\u2581directly": 5090, "Could": 17024, "\u05f4": 31603, "\u2581Beach": 11404, "\u2581enorm": 12151, "\u2581excl": 5420, "TON": 17517, "\u2581disgust": 21536, "\u8aa4": 31323, "\u27e9": 30216, "anza": 14083, "lev": 2303, ",\u201d": 3372, "\u2581```": 8789, "\u2581diplom": 13527, "\u306f": 29277, "fold": 13943, "\u00e7": 28857, "iveness": 9992, "TING": 16567, "\u2581invention": 21823, "\u2581purely": 21690, "\u2581inclusion": 23454, "autom": 23033, "\u2581selecting": 25505, "\u2581Chall": 15239, "\u2021": 30053, "\u2581working": 2739, "frequency": 27902, "\u2581Children": 12708, "Marker": 19854, "ROP": 24026, "\u2581abilities": 17866, "\u6162": 31480, "DateTime": 11632, "uring": 1378, "\u2581lowered": 19307, "\u2581Apply": 23160, "\u2581schedule": 9442, "\u2581SI": 22777, "\u2581It": 661, "\u2581strengths": 28136, "angers": 10568, "\u2581\u0448\u0438": 20964, "Object": 1713, "\u2581recover": 9443, "\u2581n\u00fa": 16248, "\u2581prow": 23920, "ourse": 8306, "pw": 26672, "ologically": 23651, "\u2581Stefan": 27656, "\u043b\u043e\u0432": 8865, "\u2581programs": 7034, "\u2581\u044d\u0442\u043e": 10514, "Buff": 15989, "\u8996": 31077, "\u0440\u043e\u043d": 11197, "LEVEL": 18224, "\u2581Stockholm": 25529, "\u2581Nag": 17482, "\u2581gone": 4214, "\uba54": 29828, "\u62db": 31654, "virtual": 16604, "div": 1538, "\u2581za": 6670, "\u2581ensuring": 20083, "\u2581desktop": 24702, "diction": 24737, "project": 6231, "\u17c1": 31396, "ployee": 16199, "\u0432\u0430\u0442\u044c": 27998, "Parameter": 6038, "DIR": 8238, "umbs": 21681, "DU": 11788, "itt": 785, "nbsp": 14089, "COMM": 13454, "\u2581area": 2698, "\u2581store": 4143, "secut": 8765, "amily": 5730, "\u2581rect": 9717, "\u2581Wikipedia": 21740, "\u2581disput": 13362, "skill": 26676, "texttt": 19206, "\u2581Jonathan": 16656, "\u0294": 30317, "\u2705": 30129, "\uff1f": 29771, "iami": 14581, "\u04e9": 30340, "\u2581mirror": 12142, "Factory": 4990, "imgur": 26822, "\u043d\u044b": 1463, "ysis": 4088, "\u2581Friends": 22371, "permission": 24654, "\u0447\u043e": 17795, "\u2581configurations": 24991, "\u0432\u043b\u044f": 10646, ",'": 3029, "Pop": 10022, "\u2581Hein": 19162, "ized": 1332, "FLOAT": 22695, "\u2581romance": 21695, "\u2581Maggie": 25858, "\u2581sports": 8657, "\u2581Exception": 7011, "\u2581Span": 8299, "\u30d9": 30277, "\u0437\u0435\u0440": 20450, "\u2581mach": 8505, "\u2581Introduction": 23628, "side": 2205, "\uc640": 30275, "\u2581style": 3238, "\u2581req": 7275, "igten": 27598, "ormal": 2616, "\u2581winners": 22857, "\u2581souls": 23804, "\u2581alternative": 9285, "\u30dc": 30342, "\u2581Tex": 6886, "Pre": 4277, "atore": 11437, "\u2581Hook": 26154, "picture": 15847, "\u2581deciding": 24568, "\u2581rugby": 27437, "Enable": 13202, "\u2581Along": 20211, "\u2581Mar\u00eda": 20511, "\u2581\"(": 21816, "\u2581\u017b": 24895, "\u2581hearts": 17758, "transition": 19655, "ugins": 10324, "\u2581men": 1683, "\u2581X": 1500, "\u2581\u0414": 2375, "\u2581peu": 12631, "\u2581worker": 12933, "\u2581city": 2990, "reci": 6506, "\uc6cc": 31126, "\u2581prospects": 26140, "\u2581oct": 9541, "qpoint": 10762, "\u2581####": 2476, "\u2581\u0422\u0435": 15074, "',": 647, "\u2581EXPECT": 7270, "\u2581Et": 13542, "owo": 15097, "\u1edd": 30092, "day": 1466, "\u25e6": 31583, "\u5ead": 31926, "\u2581Nu": 17712, "amp": 1057, "\u2581Lib": 11561, "Consum": 16277, "\u2581espa\u00f1": 21965, "Sc": 3224, "\u6226": 30842, "\u2581directory": 9118, "\u2581}": 443, "rivate": 1266, "\u2581supporters": 18909, "\u2581Operation": 16536, "\u2581Senator": 22927, "padding": 13712, "ed": 286, "lov": 13038, "\u2581medal": 16338, "SPACE": 18893, "\u2581complaint": 22105, "\u2581dimin": 17724, "\u043c\u0435\u0442": 17480, "\u2581backed": 17753, "otype": 21475, "\u2581w\u00e4hrend": 20885, "\u2581dismiss": 12983, "\u0426": 28928, "\u2581ARISING": 28580, "Symbol": 9996, "\u2581hoped": 12431, "\u2581memcpy": 27398, "Kernel": 24988, "\u2581traders": 28226, "\u2581atm": 28446, "partial": 4364, "pletion": 14621, "\u04af": 30186, "\u76ee": 29222, "ar": 283, "processor": 24424, "PAGE": 17711, "\u2581countless": 23387, "reich": 10055, "\u2581Meta": 24967, "Comm": 3912, "ls": 4911, "aga": 8882, "\u2581recorded": 9364, "\u2581Gent": 22980, "ume": 2150, "\u2581buffer": 5496, "\u2581submit": 13914, "\u2581vibr": 13546, "enc": 831, "ogeneous": 23239, "operation": 9731, "\u2581massage": 20473, "\u2581Nin": 24845, "\u2581intern": 3875, "ventions": 27319, "SAMP": 28610, "aires": 10024, "\u2581Distribution": 25139, "\u2581fue": 5631, "\u2581constitu": 14769, "<0xD1>": 212, "tes": 2097, "\u2581absolut": 5101, "pc": 3280, "\u2581XIX": 17757, "\u2581s\u00fcd": 24625, "Text": 1874, "\u2581courage": 15276, "\u2581algebra": 13397, "\u2581compelling": 26295, "aja": 12209, "\u2581prepared": 7998, "\u2581fib": 16182, "\u2581gioc": 27491, "\u0e06": 31383, "\u2581pills": 19436, ">>>": 21705, "\u2581subsequ": 9499, "PS": 5412, "\u2581sisters": 17118, "\u0441\u0442\u0430\u0432": 6126, "\u2581citt": 17540, "amerikan": 21788, "\u8bae": 30361, "perm": 13781, "\u044a\u0442": 14015, "\u2581compliment": 23085, "\u8d23": 31377, "Day": 12422, "\u093f": 29554, "\u2581wand": 15533, "\u2581Two": 6005, "\u95f4": 29117, "\u2581Insp": 27401, "\u2581fact": 1639, "\u2581du": 1415, "\u2581dealer": 25863, "\u2581percentage": 13822, "\u2581Valent": 18103, "aption": 3777, "ider": 1184, "\u0e37": 30008, "\u2581goods": 11282, "\u2581Spr": 15946, "\u093c": 31609, "._": 1573, "\u2581..": 8072, "\u2581ans": 8804, "Domain": 12075, "elia": 21657, "\u17bb": 31061, "LC": 9162, ",&": 17610, "Nil": 24456, "\u2581\u043d\u043e\u0432": 23844, "PECT": 5519, "\u2581dollars": 9407, "\u4f17": 31092, "\u2581meeting": 5283, "Xamarin": 27206, "\u2581Rodr": 20368, "yster": 26879, "weg": 12730, "NOP": 26389, "\u2581readily": 22058, "\u2581shiny": 27348, "\u1ed1": 29741, "izioni": 24011, "\u8f6c": 29357, "\u0444\u0435": 8633, "Connection": 6406, "ises": 3900, "cks": 8503, "<0xF1>": 244, "\u2581Norm": 11098, "aggi": 24069, "\u2581against": 1835, "pay": 6762, "\u2581gold": 5014, "}/": 5865, "\u0432\u0438\u043d": 17840, "Seconds": 20852, "\u2581shots": 14487, "\u2581potatoes": 24753, "getCurrent": 28040, "){": 3311, "footnote": 19129, "\u2581Pul": 26134, "\u5723": 31572, "\u2581matching": 11623, "\ud0a4": 30649, "samples": 23977, "\u2581Cont": 2999, "ployment": 9129, "rike": 19765, "\u2581onto": 5380, "\u2581ster": 17049, "lc": 24228, "\u2581aren": 5405, "\u2581canonical": 24600, "\u2581backing": 21109, "\u2581\u00a7": 25585, "\u2581assignments": 28025, "\u2581Ukr": 11712, "separ": 17519, "\u2581coding": 22363, "\u0c41": 31335, "\u2581allowed": 4670, "eness": 14176, "\u2581uncle": 17380, "\u2581delicate": 21829, "uced": 22333, "erme": 26230, "\u8c46": 31368, "\u0441\u044b": 20074, "\u2581strongest": 27686, "izard": 14640, "\u2581Clinton": 15656, "\u2581\u0442\u0435\u043b\u0435": 21094, "\u2581violence": 9165, "reated": 10322, "Created": 18598, "\u2581ask": 1460, "\u2581Terry": 21373, "\u2581editorial": 26723, "venue": 8008, "\u2581whisk": 26898, "\u2581Construction": 22061, "Retry": 23298, "\u2581lion": 27801, "?\u201d": 10584, "\u2581Universal": 21874, "\u2581absurd": 22976, "\u0323": 30906, "\u2581mention": 4389, "inch": 14168, "\u2581wealthy": 20724, "geometry": 27738, "\uc2dd": 30355, "\u2581You": 995, "\u2581St": 662, "\u2581roles": 12426, "\u2581Cris": 23523, "cam": 9125, "\u2581Vill": 10494, "\u2581thousands": 8577, "\u2581Given": 12628, "<0x65>": 104, "pack": 2860, "\u2581Andrew": 10390, "\u2581Before": 7337, "\u2581und": 640, "DT": 13203, "\u2581Sky": 14852, "\u272d": 31776, "\u2581Au": 9779, "\u2581\u0434\u0435\u0440\u0435": 15902, "\u2581recru": 17372, "\u2581stain": 21023, "\u2581nicht": 6227, "\u2581entr": 7142, "review": 22733, "\u0443": 28805, "idas": 12563, "\u2581Jah": 4096, "multicol": 18223, "\u2581push": 5696, "atique": 24476, "k\u00f3w": 26701, "istically": 26588, "\u2581ML": 19003, "pared": 21997, "\u2581issued": 11793, "\u2581Sus": 9167, "anson": 21140, "SG": 18656, "\u2581fast": 4102, "RES": 9204, "\u2581constitution": 22120, "\u2581\u0441\u0435\u0437\u043e": 21394, "\u2581routine": 11935, "\u2581chain": 7650, "\u2581Madrid": 14334, "\u2581astr": 15311, "\u9690": 30356, "\u2581Host": 15511, "\u2581accused": 16380, "\ub108": 30933, "\u2581agricultural": 22815, "\u2581reflected": 17222, "\u2581cant": 8752, "opic": 22773, "\u2581continue": 3688, "\u2581${": 6051, "cted": 2147, "\u2581informed": 12903, "\u2581Corn": 12506, "\u2581Easter": 26402, "\u2581\u043a\u0430\u043e": 25501, "fs": 2547, "\u6863": 30532, "\u2581opposition": 14218, "\ud83d\ude14": 31303, "\u043d\u0438\u043a\u0430": 6990, "\u2581carries": 21277, "\u2581January": 4624, "\u2581asympt": 22621, "Destination": 23485, "\u2581Container": 25204, "\u2581'</": 20182, "fre": 19575, "\u2581sap": 23061, "Scal": 12350, "\u06d5": 29455, "\u6d3b": 29785, "\u2581Hay": 11411, "h\u00f6r": 11730, "shore": 27562, "\u00e1ndez": 28537, "\u2581along": 2267, "\u2581\u0431\u0443\u043b\u043e": 18395, "\u2581Options": 19641, "\u2581Hawai": 18839, "char": 3040, "\u53f8": 29989, "\u2581{": 371, "\u4f01": 31159, "aze": 7273, "\u2581noviembre": 26634, "\u045f": 28989, "\u2581draws": 25587, "iseconds": 24589, "\u2581Mono": 27464, "iliar": 7036, "\u2581inspire": 26649, "nor": 18651, "\u2581chance": 4676, "slider": 22919, "ogether": 11553, "LEAN": 26925, "\u5df4": 30824, "\u0445\u043e\u0434\u044f": 21647, "\u2581musical": 9158, "\u7edd": 30981, "\u2581meet": 2647, "images": 10341, "\u2581attacks": 10813, "Dlg": 28097, "\u30ca": 30081, "\u2581\u041c\u0443": 17445, "build": 4671, "\u043d\u0430\u043b\u044c": 28029, "\u2581deer": 27002, "\u2581\u0441\u0435\u0440": 16822, "Equal": 4283, "\u2581TODO": 9420, "Repository": 8813, "\u2581campaigns": 19886, "\u9009": 29216, "othes": 6317, "\u2581Musik": 20348, "Pattern": 11372, "Exper": 26011, "buch": 22699, "ape": 1748, "\u2581ot": 6957, "\u2581ptr": 13814, "FFER": 14291, "fast": 6985, "\u2581Ult": 19576, "\u2581philos": 28039, "ems": 7940, "\u2581comic": 19607, "Rich": 24447, "\u2581oktober": 27660, "\u2581betray": 26580, "\u2581\u043d\u0456": 24445, "\u2581simultaneously": 18134, "\u2581ranch": 26678, "\u2581Penn": 11710, "\u2581ey": 1746, "\u2581z": 686, "Paul": 22241, "\u2581Schw": 16260, "\ub77c": 29700, "code": 1409, "aging": 4054, "ire": 536, "\u2581walking": 7312, "actly": 19241, "\u2581produce": 7072, "ulator": 11094, "\u2581aligned": 23581, "\ub78c": 31390, "\u2581bend": 25527, "parent": 3682, "IFY": 15783, "\u2581Poz": 25392, "\u2581competition": 8995, "EXT": 4036, "\u2581dismissed": 23231, "\u2264": 30035, "\u2581lived": 6262, "html": 3391, "\u2581rapport": 18778, "\u2581\u0438\u0441\u043f\u043e\u043b\u044c\u0437\u043e\u0432\u0430": 28658, "\uff09": 29185, "oment": 19323, "servlet": 22029, "vart": 27377, "\u2581Person": 6441, "\u2581complexity": 17599, "\u2581presents": 15890, "\u2581Administration": 17186, "\u2581Selection": 26909, "\u2581celebration": 20744, "\u2581platform": 5181, "\u2581bare": 13034, "-,": 24244, "instance": 5241, "\u2581Turk": 16911, "\u2581Bal": 9573, "acles": 14395, "\u2581aliment": 27863, "iek": 18627, "Azure": 17019, "\u2581sound": 2622, "\u2581events": 3926, "\u2581jet": 14471, "\u2581Required": 22903, "\u04b3": 31856, "\u2581Bon": 8500, "\u2581marg": 15003, "\u2581commun": 1960, "\u2581coupled": 22081, "\u2584": 30213, "\u2581\u0412\u043e": 9665, "\u2581Lewis": 13131, "\u2581concer": 14055, "\u2581disappeared": 14746, "\u5237": 30426, "ra": 520, "\u2581familie": 14875, "\u2581Colonel": 18464, "\u8c61": 29254, "\u2581auch": 5370, "\u2581un": 521, "_->": 8276, "\u2581December": 4925, "entity": 5584, "\u2581leading": 5374, "etics": 24142, "nis": 11765, "\u0441\u0442\u0432\u0430": 6238, "\u2581Commercial": 24551, "\u0441\u043b\u0430\u0432": 18989, "\u0433": 28810, "cor": 4754, "Clause": 27330, "days": 13298, "\u2581earthqu": 27719, "\u2581Cloud": 13832, "\u2581\"__": 24452, "\u2581much": 1188, "\u0437\u0434": 16671, "\u2581Access": 11559, "self": 944, "Receiver": 26591, "edges": 26783, "\u2581mart": 15370, "Ten": 22415, "\u2581cell": 3601, "\u2581Russ": 3770, "\u2581Lesser": 19570, "icating": 27623, "orp": 16027, "\u0c3e": 31282, "\u2581\u0219i": 6944, "AT": 962, "\u2581where": 970, "\u2581r": 408, "\u4f11": 31381, "ijk": 17722, "\u2581aapt": 13130, "hw": 6118, "\u2581requires": 6948, "\u2581length": 3575, "Mac": 11483, "slot": 12685, "\u2581weren": 8658, "\u2581satisfied": 13671, "Option": 5425, "gage": 11332, "Vertical": 24647, "\ub05d": 31462, "\u2581(((": 15785, "\u2581\u041f\u0440\u0438": 11824, "\u2581cle": 1544, "\u2581acts": 11900, "\u2581[-": 28099, "utsche": 16083, "i\u00f3n": 1762, "\u2581deal": 3215, "\u2581swallow": 25993, "}}_{": 16125, "\u2581Kh": 11729, "NULL": 5992, "\u0432\u0435\u0442": 8496, "ativ": 9290, "\u7ba1": 29497, "itory": 4560, "\u12a0": 31942, "\u2581hood": 21224, "\u2581custody": 28103, "\u2581rings": 18947, "\u00fdm": 15690, "\u2581citt\u00e0": 20377, "izable": 11552, "\u2581gek": 26062, "\u2581trails": 28280, "\u2581ste": 2710, "\u2581communities": 9750, "FO": 4521, "\u2581term": 1850, "impl": 9252, "\u2581hill": 12254, "energy": 18785, "warz": 25718, "Include": 26438, "\u2551": 30019, "\u2581setup": 9520, "\u2581implement": 4808, "\u2581fights": 25186, "\u2581uso": 27427, "\u2581attracted": 18940, "\u8bf7": 29067, "\u2581Mai": 14313, "\u2581\u0418\u043d": 18170, "\u2581\u043f\u0435\u0440": 7726, "fel": 20553, "enti": 10338, "\u2581caf\u00e9": 28345, "Boot": 21270, "\u2581Sydney": 14469, "equal": 7318, "iet": 1296, "\u2581cutting": 12164, "erv": 784, "\u2581Cross": 10464, "\u2581erre": 19473, "\u2581investigated": 25481, "\u2581<<": 2087, "\u7d00": 31614, "\u6d41": 29642, "\u0451\u043b": 17374, "\u0448\u0442\u0430": 26960, "\u65cf": 30006, "\u2581Atl": 7751, "oid": 806, "\u2581legs": 7969, "uding": 9155, "\u2581Online": 10634, "\u2581pronounced": 28232, "anqu": 20668, "\u2581became": 3246, "EXP": 22136, "\u2581grocery": 24811, "\u202a": 31791, "ego": 6221, "\u2581Claire": 20817, "\u2804": 30897, "\u2581Clin": 19950, "\u2581\u041f\u0440\u043e": 12119, "\u00dfer": 28028, "\u2581Ale": 9766, "\u2581mig": 16089, "\u2581moins": 17775, "\u5934": 29640, "\u5c0f": 29138, "\u2581Ord": 22404, "z\u0151": 13765, "\u2581discret": 22683, "assign": 12895, "<0xD0>": 211, "oration": 9990, "AspNet": 13205, "kreis": 22717, "\u2581CONTR": 17453, "\u0419": 28996, "\u2581cold": 5256, "\ub54c": 30178, "\u2581Frauen": 28203, "\u2581Instead": 8162, "\u2581mentally": 24335, "\u2581#####": 5609, "\u2581vac": 7255, "\u2581[];": 9965, "\u2581urge": 23151, "rolled": 7780, "\u25b6": 30577, "\u2581lip": 11144, "\u2581\u0423\u043a\u0440\u0430": 26226, "plug": 24960, "etc": 20477, "matched": 28206, "Psi": 11506, "\u2581Auf": 8914, "\u4f9d": 30505, "\u2581Council": 7457, "\u2581compensation": 19204, "\u0432\u0430\u0432": 14215, "\u2581porn": 16794, "natural": 17568, "MB": 5953, "\u2581tower": 15894, "asci": 25436, "\u0459": 28918, "\u2581sold": 3910, "\u2581co": 1001, "interval": 15344, "\u2581sout": 17465, "amos": 14481, "\u2581peque": 25104, "CLK": 14711, "\u2581elected": 11401, "\u0440\u0438\u0441\u0442\u043e": 21462, "Limit": 13063, "dist": 10295, "UAL": 14821, "\uc99d": 30713, "\u0906": 31297, "\u2581clos": 3377, "\u2581segu": 9879, "\u2581comp": 623, "\u2581\u0430\u0431\u043e": 22860, "\u2581survey": 10911, "\u2581Core": 12197, "\u2581Table": 7582, "\u2581featured": 12526, "\u2581Hell": 15244, "orry": 11998, "<0x00>": 3, "Just": 10202, "\u2581Put": 10331, "latest": 21528, "\u05e8": 29075, "\u2581particles": 13938, "\u2581lattice": 19124, "\ub514": 30399, "\u2581hus": 4946, "\u2581tested": 13143, "\u5bbf": 31553, "\u2581signed": 7995, "CLUD": 16613, "\u2581ese": 20423, "level": 4404, "\u2581arrang": 11887, "\u2581Haus": 21209, "\u2581vital": 12588, "\u2581sending": 10313, "\u5199": 29503, "ick": 681, "\u2581bush": 25516, "\u96f7": 31047, "\u2581fastest": 25754, "\u2581'{": 22930, "}`": 12504, "\u2581exception": 5851, "ismus": 20870, "\u2581SC": 9730, "\u8f74": 30788, "\u2581quot": 17528, "forms": 14367, "secure": 20684, "\u2026.": 20541, "iot": 8720, "super": 8554, "?;": 25215, "hes": 2053, "\u2581m\u00e1s": 5268, "mate": 15356, "acht": 4755, "\u2581driver": 6303, "ski": 5253, "\u2581MIT": 17156, "\u2581Jac": 7129, "\u2581home": 1611, "Bool": 15571, "\u636e": 29020, "Feature": 11636, "\u2581never": 1484, "\u4f1d": 31884, "ff": 496, "\u2581laug": 9663, "\u2581drain": 18946, "\u2581Feel": 27540, "\u2581Youth": 20711, "\u2581tong": 12166, "\u2581Oktober": 17721, "character": 19933, "zte": 14798, "\u2581\u0432\u0430": 13524, "Pl": 2249, "\u2581volumes": 20535, "\u2581didn": 1539, "tocol": 4851, "\u2581ihren": 24461, "bolds": 8004, "uler": 19640, "\u2581coupling": 18047, "inas": 14321, "ibt": 15046, "\u2581char": 1280, "\u2581psy": 5523, "\u2581ic": 19699, "\u5b59": 31206, "\u2581login": 14570, "\u2581made": 1269, "\u2581Denmark": 26486, "Union": 20981, "\u2060": 29716, "awa": 8733, "SA": 5530, "\u2581nuc": 8523, "FREE": 28137, "pha": 2019, "\u02d9": 29776, "\u2581sche": 4803, "\u2581barn": 18581, "should": 6716, "qa": 19259, "atie": 11541, "otta": 21839, "\u2581English": 4300, "\u2581manual": 15561, "\u767c": 31046, "<0x04>": 7, "\u8d22": 31779, "ajax": 14686, "\u2581descent": 24871, "elson": 14814, "\u2581earned": 12839, "\u2581volume": 7531, "avax": 6598, "lope": 16740, "iki": 7137, "\u7bc4": 31974, "\u2581Criteria": 26496, "\u2581roll": 4595, "\u2581include": 3024, "\u2581({": 13734, "quir": 10851, "\u2581Edge": 22472, "\u2581arrive": 12688, "\u2581hold": 2400, "ance": 617, "\u534f": 30781, "\u2581Larry": 19861, "\u2581deb": 5665, "\u2581hyp": 8178, "\u2581gem": 15037, "\u2581m\u00f6": 21461, "\u2581forme": 19396, "\u2581Michelle": 24970, "\u2581container": 7640, "\ubc18": 30192, "\u2581nit": 22292, "\u2581electronic": 13176, "IFI": 21438, "\u2581Mov": 26544, "\u2581PK": 28519, "\u2581Should": 10934, "\u2581enter": 5870, "perties": 2931, "\u2581ha": 3631, "vt": 14029, "\u2581somehow": 9864, "collect": 16077, "dorf": 24705, "ENCE": 15683, "----------": 16417, "Draw": 5656, "\u2581lifted": 11942, "\u2581male": 7862, "\u2581zo": 20372, "\u2581Manager": 13111, "n\u00e9e": 17969, "\u2581Jar": 20069, "ady": 4425, "\u2581exper": 1469, "\u2581cav": 25553, "\u2581exec": 19626, "\u2581Capt": 9218, "\u0119d": 19556, "\u2581investigation": 11597, "\u2581Desc": 18869, "\u2581SV": 15952, "mil": 22626, "live": 17064, "ndef": 15680, "\u2581Crusher": 21879, "\u2581SHALL": 27287, "VEL": 16414, "\u7d0d": 31824, "SV": 11607, "ailand": 21151, "\u2581Testament": 26870, "\u2581reinforce": 25234, "gex": 9232, "\u2581processed": 16244, "\u2581greeted": 27473, "\u10ea": 30991, "\u2581necessarily": 11867, "\u2581flew": 16356, "}),": 6994, "\u2581elegant": 20583, "\u9012": 30380, "Round": 22483, "EventListener": 14101, "formed": 12914, "\u2581lur": 26914, "oge": 27695, "Method": 3942, "Behavior": 22872, "Country": 28073, "tls": 21908, "\u2581Claud": 25630, "R": 28754, "iated": 27267, "<0x4A>": 77, "\u2581\u0438\u0437\u0432\u0435\u0441\u0442": 21082, "ICENSE": 7941, "\u2581York": 2726, "artment": 4502, "\u2581GEN": 25778, "\u2581organic": 15897, "\u0446\u0430": 5394, "\u2581\u0141": 23181, "\u2581bears": 25051, "\u2581tal": 5741, "\u2581painting": 11514, "\u2581particle": 14988, "\u2581qualify": 23549, "\u2581remem": 26450, "pop": 5951, "3": 28770, "\u2581outstanding": 17329, "\u2581shelf": 22895, "****": 565, "coming": 4343, "\u2581claimed": 10335, "Family": 17170, "\u2581DMA": 23173, "\u2581inequality": 17522, "\u2581passengers": 18796, "~\\": 2658, "\u2581regia": 19009, "\u2581emperor": 25948, "asm": 7804, "ether": 8962, "\u2581sur": 1147, "\u2581arc": 13605, "(%": 16256, "\u2581Jap": 23106, "\u2581probe": 21227, "\u2581Indeed": 12876, "limits": 14347, "\u1ea7": 30049, "\u2581sem": 3546, "\u2581smoothly": 28147, "quant": 13896, "ILD": 14010, "Frame": 4122, "\u2581substantial": 15045, "\u2581Senior": 16805, "\u2581pale": 12805, "emed": 17239, "autre": 25538, "\u2581Wer": 12153, "\u2581productive": 22779, "\u044e\u0449\u0438": 10645, "\u2581ImGui": 21316, "vil": 25521, "imal": 3048, "\u2581feel": 1601, "wr": 7067, "\u2581aug": 11146, "xFE": 19601, "\u2581Knight": 21228, "\u2581Orth": 25663, "\u2581\u044d\u0442\u043e\u043c": 26512, "\u0105": 28866, "\u2581speaker": 17153, "\u2581Gol": 27085, "\u2581Saf": 12512, "}+": 9969, "Im": 2012, "sburgh": 23679, "\u5f90": 31921, "\u7db2": 31470, "<0x5C>": 95, "Result": 2716, "\u2581suggested": 8750, "\u2581doesn": 2368, "packet": 14050, "\u2581theorem": 16980, "\u039a": 29659, "\u2581Internet": 8712, "\u2581ride": 9015, "ression": 9202, "\u83dc": 30038, "\u26d4": 30184, "\u2581Quick": 16652, "news": 14290, "ech": 5295, "\u2581Mess": 13976, "[$": 7326, "\u2581tax": 3947, "reck": 16136, "illion": 23202, "ERR": 2986, "arity": 11910, "\u2581desp": 26717, "fare": 18368, "\u2581former": 4494, "hdr": 10499, "./": 3849, "GUI": 21778, "were": 27609, "\u021bia": 26946, "oin": 2448, "Mgr": 22109, "\u2581Yes": 5592, "\u2581Agricult": 23837, "\u2581Hor": 8221, "\u2581settembre": 24864, "AI": 11741, "\u2581trends": 17869, "\u2581Mu": 10495, "\u2581\u00eatre": 11983, "aled": 4742, "\u2581Jag": 18672, "\u2581UnityEngine": 14677, "\u2581award": 7619, "managed": 27309, "abilities": 7773, "\u2581MB": 18609, "berg": 4146, "\u2581Sort": 24822, "\u2581sleeve": 27685, "\u2581json": 7611, "rough": 996, "urg": 2821, "\u2581influenced": 19927, "\u00e9ho": 12689, "\u201d,": 9350, "circ": 9565, "\u2581sevent": 11130, "\u044a": 28870, "ined": 1311, "\uc561": 30916, "\u2581nuclear": 12025, "\u2581Sver": 28238, "\u2581tang": 15362, "\u2581boolean": 3695, "\u2581Academy": 10819, "{$\\": 20112, "\u5965": 31761, "<0x2A>": 45, "\u2581previous": 3454, "\u2581southern": 12227, "types": 5630, "od": 350, "\u2581We": 816, "\u2581einen": 7897, "\u2581agreements": 17320, "\u2581\u0445\u0443\u0434\u043e": 21196, "dar": 22421, "\u2581Jos": 9574, "\u2581requiring": 22579, "gem": 20898, "ern": 1173, "\")": 1243, "\u2581chaos": 21007, "\u7ae0": 30138, "\u8a0a": 30844, "\u2508": 31179, "\u0440\u0435": 800, "\u2581md": 12358, "\ucd1d": 31696, "\u30c3": 29213, "Are": 5985, "rock": 16013, "\u2581declared": 11804, "ifiable": 21386, "/*!": 19994, "\u2581Mam": 28388, "\u2581pol": 1160, "}$,": 5070, "\u2581important": 2278, ")(": 3847, "\u2581radio": 6480, "\u2202": 31698, "\u2581legis": 14864, "\u2581awk": 15986, "\u09b8": 30234, "\u2581life": 1411, "earing": 12385, "\u2581constitutional": 25913, "idents": 6640, "\u2581Pointer": 28597, "\u2581Partner": 28382, "RIGHT": 14166, "\u2581ext": 1568, "ining": 4038, "\u2581Pink": 24273, "\u2581Tony": 12040, "\u0159e": 21611, "icial": 5867, "\u2581novembre": 13183, "\u2581Inv": 16992, "iore": 27868, "Dis": 3278, "enced": 4697, "\u2581image": 3469, "CSS": 19633, "r": 28712, "Weight": 16310, "\u2581membres": 28356, "\u2581valid": 3716, "\u2581manuscript": 20869, "\u2581viewers": 24886, "\u2581INFO": 22977, "\u0dc3": 31963, "aaaa": 12648, "\u2581tel": 18408, "orts": 15587, "Segment": 17437, "\u2581elect": 3206, "\u2581hospitals": 21737, "\u2581lights": 9416, "<0x96>": 153, "\u2581supp": 2541, "persistence": 23414, "parse": 5071, "\u2581Madison": 20503, "\u3001": 29041, "\u2581again": 1076, "\u2581gam": 11129, "Login": 12611, "Channel": 7766, "\u2581est\u00e1": 11176, "\u2581Paris": 5465, "\u2581infer": 13701, "\u2581Device": 20000, "listen": 20246, "Slice": 21202, "\u2581animated": 25693, "tmp": 4964, "\u2581Sylv": 25987, "\u03c5": 29071, "\u84dd": 31084, "QUE": 20749, "\u753b": 29696, "\u2581da": 1866, "\u2581IP": 7076, "osed": 2352, "\u2581universal": 14598, "\u2581narrow": 8484, "<0x8D>": 144, "preventDefault": 24744, "\u0336": 31107, "\u2581Supreme": 14887, "\u2581Wa": 24867, "rugu": 27300, "nabla": 9190, "oshi": 27605, "coin": 10817, "Page": 4068, "\ud83d\ude0a": 30464, "\u2581Edward": 10785, "\u2581Piet": 19786, "\u2581Ra": 11074, "\u043d\u0438\u0446": 13042, "\u2581\u0441\u0435": 2310, "\u2581***": 17976, "uff": 1292, "\u2581\u043d\u0430\u0447\u0430": 11084, "arded": 14916, "\u2581realistic": 19595, "plo": 22433, "PI": 3110, "lif": 25092, "\u2581\u043f": 610, "\u2581driv": 4980, "\u2581Battle": 13711, "\u2581enem": 13595, "\u2581Beaut": 16686, "band": 3785, "Customer": 18477, "outputs": 23495, "\u2581Even": 4127, "\u2581anniversary": 21101, "\u2581outcome": 14120, "\u2581analyst": 22275, "substr": 23341, "\u2581instant": 10990, ",\"": 862, "cc": 588, "\u2581spectra": 23102, "\u308a": 29516, "\u0442\u043e": 914, "\u2581gauge": 14470, "\u52a0": 29058, "inates": 10218, "\u9ebb": 31701, "\u98db": 31765, "\u2581unknown": 9038, "irs": 15083, "\u5931": 29268, "ipping": 10206, "\u2581languages": 14028, ".');": 27148, "\u2581aud": 4786, "\u0144st": 24972, "\u2581than": 821, "/>": 2370, "zoom": 23915, "<0x3F>": 66, "\u2581racial": 18450, "\u2581fun": 746, "\u2581engineers": 22488, "\u0440\u0456\u044f": 23477, "las": 11215, "\u2581leave": 3530, "\u2581\u043e\u043f\u0435\u0440\u0430": 24889, "\u2581numer": 5539, "\u8d1d": 31124, "ilon": 3451, "\u0441\u043a\u0438\u044f": 25827, "\u0437\u044b": 7763, "\u2581traveled": 19948, "front": 6072, "ross": 1556, "\u2581reported": 5745, "\u2581pagina": 24771, "gl": 1727, "\u5229": 29819, "^{[": 13009, "\u028b": 31633, "Gen": 9872, "\u2581Chinese": 6707, "\u2581django": 24848, "\u2581constants": 19648, "\u032f": 30541, "itate": 9647, "when": 11233, "\u2581Church": 6381, "<0xA2>": 165, "iana": 5127, "ical": 745, "\u2581\u043f\u0430\u0440": 11894, "\u0261": 30105, "Event": 2194, "akers": 8774, "\u0263": 31013, "em\u00e1s": 20540, "removed": 28292, "\u2581surn": 26937, "did": 18568, "\u00a6": 29854, "ul": 353, "river": 5350, "\u62ff": 31191, "older": 3702, "\u2581National": 3610, "\u51b5": 30181, "Batch": 14713, "imb": 18931, "\u2581bec": 838, "\u2581super": 2195, "\u00f3n": 3203, "\u2581farther": 20936, "\u2581terrified": 26874, "\u2581cancellation": 27918, "\u9488": 30373, "istics": 5513, "ANK": 26393, "\u2581drinks": 16195, "impse": 26612, "eston": 27519, "\u2581Harbor": 28700, "\u6beb": 31331, "\u2581Vari": 14794, "dale": 21352, "\u2581Pre": 4258, "cpu": 5361, "halten": 17397, "reader": 14646, "etto": 19715, "\u2581Fem": 18375, "\u2581produced": 6763, "\u2581exem": 19997, "\u2581brick": 18236, "container": 6734, "dn": 13984, "\u2581cancelled": 24977, "\u2581chief": 9209, "\u2581soldier": 15232, "\u2581common": 3298, "\u2764": 29673, "\u2581Scre": 27273, "\u2581networking": 26780, "seq": 8930, "\u2581none": 6547, "issance": 12305, "\u2581\u0441\u0442\u0440\u0443": 27471, "\u2581actually": 2590, "\u2581Muham": 24323, "({\\": 11592, "\u2581rs": 19292, "\u4eab": 30461, "\u2581Services": 8074, "\u2550": 29090, "\u308b": 29116, "\u2581vod": 27420, "duct": 2478, "\u2581regard": 4166, "propri": 23232, "\u2581\u043c\u0435\u0442": 25276, "\u2581increasing": 6488, "\u2581alumin": 22894, "\u2581arm": 3648, "<0x50>": 83, "leted": 5627, "WE": 6631, "\u2581apr\u00e8s": 12986, "\u043c\u0430": 1530, "\u2581mountains": 13691, "Completed": 23305, "ation": 352, "Material": 12976, "ATA": 5854, "\u2581]": 4709, "\u2581Lake": 8703, "\u2581decay": 15224, "\u2581Bert": 20215, "\u2581thinking": 4195, "\u2581pets": 24642, "NEXT": 14026, "\u2581looks": 4674, "ello": 4508, "oured": 12991, "\u2581funeral": 18979, "adelphia": 14690, "om": 300, "lica": 24534, "\u6d6a": 31752, "\u2581Po": 5464, "\u2581en": 481, "\u2581Div": 5812, "operatorname": 12614, "\u2581Daw": 26334, "~~~~~~~~": 22770, "\u2581crushed": 25358, "{-": 9817, "\u7a0b": 29265, "\u89e6": 29937, "feature": 10453, "\u6c17": 31376, "\u2581Lieutenant": 18510, ".~": 10749, "\u2581crypt": 18649, "\u2581reddit": 22003, "eria": 10171, "ograp": 11879, "forward": 11397, "\u0441\u0438\u0442\u0435": 15327, "\u2581Alpha": 26910, "plom": 10958, "dash": 24917, "Migration": 25901, "\u2581appreciation": 26020, "\u2581Cold": 19260, "\u2581races": 16509, "\u0434\u0435\u0439": 17650, "').": 4532, "\u2581writes": 13883, "^^^^": 27657, "ignment": 6151, "\u2581vale": 28210, "}{\\": 3803, "\u2581f\u00f6": 14000, "\u2581simpler": 27013, "\u2581inject": 16453, "\u2581ceremony": 16172, "eking": 25447, "\u2581dri": 2768, "\u2581\u042e": 11396, "\u2581Affairs": 20871, "tings": 2549, "Table": 3234, "\u2581everybody": 12798, "\u2581cares": 22338, "q": 28775, "\u2581patterns": 11533, "ONE": 6349, "empt": 3310, "atom": 16739, "\u2581il": 1521, "\u2581satell": 17345, "\u2581dedic": 21810, "\u2581mur": 4834, "Node": 2259, "porter": 17175, "\u2581Tre": 9485, "\u53d7": 30154, "chester": 11841, "\u2581te": 711, "CTION": 5324, "thon": 7418, "\u0427": 28909, "\u0441\u043a\u0443\u044e": 20717, "\u2581border": 6765, "\u2581glass": 5252, "aning": 25388, "HO": 4104, "\u2581preced": 11405, "\u2581easier": 7089, "\u2581constructed": 13379, "ellers": 21877, "\u2581dod": 22216, "Pal": 14394, "da": 1705, "\u53d6": 29012, "\u2581Jorge": 26955, "\u2581j\u00e1": 24774, "\u2581supportive": 27729, "wrapper": 14718, "Validate": 19418, "nehmen": 22839, "\u2581p": 284, "\u90e8": 29237, "\u00e9rc": 23219, "iv": 449, "\u2581Legal": 22010, "\u2581d\u00e9": 2306, "ILE": 9316, "wal": 18404, "wed": 13274, "\u7684": 28914, "Module": 5144, "Des": 2715, "equals": 7013, "\u2581slid": 18457, "NdEx": 19248, "czas": 22582, "CHANNEL": 23299, "plugin": 10416, "\u2581examination": 20976, "ursor": 12558, "\u001f": 31217, "\u2581Bis": 23764, "ighed": 24776, "itations": 25964, "\u2581injury": 11254, "lings": 15073, "\u2581nou": 9276, "\u2581Fed": 22377, "\u2581stud": 1362, "\u2581\u043e\u0431\u0440\u0430\u0437\u043e\u0432\u0430": 25160, "olare": 19389, "\u00c7": 29215, "\u2581authors": 11739, "\u2581\"@": 14604, "\u2581galax": 11407, "journal": 22908, "ji": 3632, "\u2581QString": 19282, "terra": 26138, "\u0631": 28947, "\u2581content": 3036, "\u4fee": 29289, "\u0c28": 31674, "}}": 975, "\u2581Phill": 17083, "elligence": 18827, "nio": 22943, "\u2581meg": 9742, "\u8fdc": 30758, "\u2581further": 3629, "\u2581seems": 3969, "\u2581trans": 1203, "\u2581seconds": 7231, "\u0447\u0430": 1956, "\u2581CT": 22023, "Love": 23220, "=\"$": 24235, "\u2581species": 7018, "\u2581scarc": 28276, "\u2581private": 1597, "rah": 21174, "\u2581atoms": 24221, "\u4f20": 29359, "\u2581suck": 12375, "\u2581courtesy": 25826, "camera": 19779, "\u2581Catholic": 11377, "LOG": 5305, "Aff": 25683, "}]": 10157, "../": 1979, "\u2581waar": 14995, "UT": 1765, "\u2581teas": 24789, "earch": 3625, "\u2581drap": 26093, "\u2581such": 1259, "\u2581!==": 5352, "gru": 23696, "\u2581distant": 15569, "\u7a31": 31599, "ashion": 7106, "\u2581steam": 15291, "\u2581specialists": 28375, "mbre": 7979, "\u2581diagram": 13735, "rolling": 14342, "\u2581Mobile": 16430, "N": 28759, "\u53c8": 30744, "\u0941": 30034, "data": 1056, "')": 1481, "\u2581Hoch": 19202, "??": 8908, "covered": 18873, "n\u0105": 21077, "Session": 6554, "memset": 21253, "wick": 9462, "\u2581vagy": 28666, "\u2581Ph": 1972, "}^": 2381, "\u2581\u041b\u044e": 24667, "\u2581killer": 18353, "toolbar": 23465, "SM": 10439, "se": 331, "\u2581tand": 27631, "\u2581respond": 9421, "alling": 20441, "ingle": 5810, "\u2581Spencer": 27325, "\u2581database": 7499, "\u00fcber": 20173, "\u666f": 29960, "scape": 8951, "\u2581venture": 21106, "\u2581lawsuit": 28674, "\u7b26": 29252, "API": 6688, "\u2581Champion": 17229, "\u2581Hamilton": 10904, "ka": 2117, "IMP": 10238, "\u2581Ont": 16443, "\u043d\u0438\u0446\u0430": 17970, "\u2581rug": 13644, "fu": 21278, "LS": 6687, "\u2581heavily": 12759, "argument": 14635, "\u2581Mort": 14789, "r\u00e4": 16718, "\u2581enum": 10873, "\u2581inter": 791, "\u2581coffee": 7045, "eland": 13942, "\u2581killing": 10935, "\u2581legend": 12851, "\u2581conj": 11365, "\u2581\u043a\u0430\u0442\u043e": 14126, "\u2581Theme": 22888, "isting": 10137, "pawn": 25378, "Tab": 7560, "\u043c\u0435\u043d\u0435": 26714, "\u2581Past": 17860, "\u0434\u0430\u043d": 19872, "ClassName": 19452, "\u2581Nov": 8515, "\u2194": 30375, "ismiss": 28177, "sr": 13489, "XXXX": 26550, "\u2581mentioned": 7083, "\u2581mb": 20137, "\u2581mast": 27529, "\u2581dream": 4999, "\u2581instanceof": 9839, "ole": 1254, "anches": 12655, "\u2581va": 4536, "Shell": 15718, "\u2581repl": 4802, "\u05d2": 29632, "rier": 5118, "require": 6351, "\u2581colonial": 20150, "beta": 3484, "\u0432\u0448\u0438": 10697, "\u2581\u0431\u0430": 7460, "\u2581chr": 27515, "iero": 23419, "\u2581awareness": 13619, "iko": 13370, "\u8bef": 29515, "loss": 9195, "GO": 11628, "\u2581particular": 2830, "Bind": 12741, "\u2581attribute": 6836, "\u2581Emer": 16762, "ynamic": 5706, "\u2581simulation": 17230, "THER": 11948, "meta": 8301, "\u2581ancora": 28078, "\u2581hide": 9123, "\u5907": 29613, "\u2581precise": 17008, "\u2581failures": 25394, "\u2581Ernst": 26013, "\u2581decrease": 17889, "orious": 16464, "\uc73c": 29583, "\u00e8s": 3781, "\u2581scene": 6337, "CR": 5728, "\u2581instr": 7465, "<0x6F>": 114, "stairs": 13477, "\u2581People": 5619, "\u2581organiz": 6443, "\u2581reprezent": 28188, "\u620f": 30727, "\u2581separ": 3939, "\u2581pregnant": 15446, "\u2581datetime": 23916, "\u2581appear": 4305, "\u2581automated": 27761, "Connect": 16644, "\u2581\\(": 18823, "istribute": 15505, "\ud53c": 31306, "\u2581Stewart": 20681, "\u2581finns": 10961, "\u2581senior": 9362, "not": 1478, ")]": 4753, "Occ": 22451, "\u2581todos": 14920, "qq": 22736, "klass": 24660, "\u0446\u0456\u0457": 11071, "\u2581Lemma": 13584, "\u2581pr\u00e9sident": 25446, "it\u00e4t": 12890, "\u8d28": 30625, "``": 13940, "\u2581eb": 19049, "\u2581Handle": 16736, "Activ": 18127, "idan": 27966, "\u2581forces": 6894, "Unit": 6831, "\u0447\u0435": 1696, "\u2581Don": 3189, "Auto": 10014, "ocal": 15164, "\u2581Atlanta": 18279, "\u2581Les": 4573, "\u2581bajo": 22418, "\u2581\u0439": 22092, "lace": 22918, "\u2581nod": 5460, "\u8a9e": 30321, "dependent": 23751, "\u2581Wi": 16494, "\u2581cob": 24258, "<0x95>": 152, "\u2581ab": 534, "war": 6234, "\u2581Jed": 24987, "ensors": 28598, "que": 1011, "\u2581scientific": 10469, "\u2581manifest": 11052, "paid": 26283, "\u0089": 31198, "\u05bc": 29912, "v\u00ed": 16590, "\u2581trouve": 25171, "\u2581uint": 3869, "rench": 4284, "Loader": 11420, "AE": 12600, "\u2581Grad": 17252, "\u2581associ": 3509, "Send": 8363, ":</": 11423, "texture": 20196, "\u2581F": 401, "\u2581inequ": 16431, "\u2581vary": 11204, "ote": 1590, "unge": 21614, "\u2581Fitz": 21107, "\u2581memory": 4733, "\u0e04": 29546, "ository": 8266, "subseteq": 18768, "Results": 12220, "Processor": 17088, "\u2581slic": 17341, "\u2581Wu": 28660, "\u0442\u0435\u043b\u044c": 4446, "\u2581Memorial": 18506, "Instance": 4005, "\u2581ast": 9597, "olas": 16836, "\u043f\u0440\u0430": 7143, "abeth": 9255, "\ubbc0": 31831, "\u2581sor": 5279, "ACK": 4614, "\u2581Nap": 11629, "\u2581BB": 19942, "\u2581violent": 14643, "\u2581Kos": 20556, "\u2581secured": 21667, "lle": 20703, "\u2581partic": 1714, "\u2581hom": 3153, "m\u00eame": 26333, "\u2581Indones": 16653, "cleanup": 23642, "constructor": 18245, "\u2581Sales": 16377, "\u0275": 29102, "\u2581burn": 5698, "\u2581Mic": 8990, "\u2581bras": 20493, "\u00e2te": 17748, "\u2581square": 7930, "\u2581\u2581\u2581\u2581\u2581\u2581\u2581\u2581\u2581\u2581\u2581\u2581\u2581\u2581": 1417, "\u2581essence": 21213, "\u2581Victor": 12177, "\u2581right": 1103, "\u2581stead": 10445, "\u2581diagnosed": 26629, "\u2581thirty": 9418, "\u2581Less": 11385, "\u2581waves": 13295, "ientos": 19883, "\u2581downtown": 18530, "\u2581combinations": 26350, "\ud65c": 31273, "dialog": 10565, "<0x48>": 75, "\u2581zn": 13288, "\u2581EX": 4175, "abad": 20882, "uated": 25473, "\ucd5c": 30310, "=\"-": 23013, "\u2581she": 630, "\u043c\u0438\u0440": 20549, "builtin": 24916, "\u2581\u0431\u0440\u0430": 17515, "theless": 13054, "\u2581\u043f\u0435\u0440\u0435\u0434": 27844, "ached": 2694, "location": 2733, "\u0440\u0438\u0439": 16278, "\u2581Platform": 21018, "\u2581Fran\u00e7ois": 21976, "\u2581federal": 8432, "\u2581interactive": 22969, "\u2581Ruby": 27127, "\u0431\u043e\u0440\u0430": 27788, "\u2581spett": 27681, "\u2581signature": 12561, "\u2581begun": 13724, "umbling": 23491, "\u2581blood": 4242, "\u2581geb": 10560, "\u2581conditions": 4331, "\u2581AD": 10004, "omorphic": 22631, "\u2581gods": 16578, "\u2581sys": 11677, "\u2581depos": 11199, "\u0432\u043e\u0434\u0438": 14807, "\u2581Wrest": 28444, "FIL": 17168, "\u2581Page": 9328, "\u1f04": 31822, "\u2550\u2550": 27743, "agraph": 11280, "\u2581stage": 5430, "rb": 9312, "\u2581extern": 7784, "aware": 15950, "\u2581turned": 2897, "TIM": 16636, "atted": 11985, "acker": 21172, "CAP": 13706, "\u2581Really": 19393, "\u2581DateTime": 20917, "\u2581f\u0151": 25486, "\u2581Deep": 14972, "inf": 8879, "\u2581\"_": 15728, "aired": 27183, "\u2581eas": 1897, "\u2581opts": 13069, "ska": 9883, "\u2581Krieg": 19020, "route": 11833, "\u2581\u043a\u043e\u0440": 21146, "\u2581expected": 3349, "\u2581Runtime": 14046, "\u2581dis": 704, "\u2581_": 583, "\u6b0a": 31923, "\u043f\u0435\u0440": 10890, "\u2581featuring": 16312, "uese": 23663, "\u2581[[": 8070, "Manager": 3106, "burg": 5467, "\u9001": 29434, "\u2581Won": 27611, "\u2581\u043a\u043e\u043c\u0430\u043d": 11015, "\u2581Clay": 19230, "\u7576": 31332, "\u2581Pas": 12184, "MLE": 26555, "\u2581hesitated": 24717, "fx": 9367, "\u2581Ali": 15284, "NEL": 19014, "Threading": 24631, "\u2581Intent": 23867, "\u00f9": 28912, "\u2581anx": 8662, "\u2581alt": 5054, "mers": 14448, ";}": 26070, "\u2581sam": 4545, "\u2581listen": 7105, "del": 5149, "avity": 16012, "\u2581\u0441\u0456": 23964, "\u2581ther": 7454, "\u0e14": 29488, "av": 494, "icture": 10358, "`": 28832, "rons": 13455, "\u2581\u0441\u0442\u0435": 19776, "\u2581lang": 9848, "\u5eab": 31605, "rap": 1242, "\u2581record": 2395, "ocr": 3804, "BI": 8758, "\u2581longer": 3774, "\u2581strikes": 24128, "stad": 10862, "ufficient": 23885, "\u2581ER": 21346, "\u2581Ort": 14878, "\u2581reads": 16336, "\u2581Sw": 3904, "metic": 20529, "\u0442\u043e\u0433\u043e": 20725, "\u2581alternate": 24597, "\u2581taste": 9230, "\u2581Similar": 24232, "\u2581base": 2624, "elements": 16510, "\u2581flexible": 17574, "\u2581singer": 15307, "\u0441\u043a\u0438\u043c": 17810, "Stage": 20783, "\u2581constr": 8130, "mix": 23350, "assembly": 16476, "\u2581Example": 16693, "\u2581marks": 14191, "\u2581Astr": 25433, "eur": 7093, "\u2581Blog": 21095, "schaft": 7097, "stri": 26229, "\u2581executed": 15731, "\u05d0": 29127, "\u2581Jew": 5808, "\u2581doll": 6240, "\u2581Referee": 17641, "\u2581several": 2856, "\u2581fragment": 13693, "\u2581sectors": 23014, "\u2581__(": 25185, "\u043d\u0434": 8545, "\u5168": 29374, "\u0438\u0442\u043e": 26439, "flu": 17262, "\u2581funds": 10419, "CC": 4020, "connected": 14346, "\u2581films": 9922, "ux": 1554, "\u2581sl\u00e4": 11158, "\ud83d\udc80": 30785, "\u2581quick": 2936, "\u2581matrix": 7111, "reation": 14318, "\u0441\u043a\u0438\u0439": 4704, "\u2581invoke": 23071, "\u0643": 29171, "priority": 20762, "requency": 17400, "\u8bc1": 29425, "\u2581blind": 10337, "\u2581animal": 8527, "raph": 1875, "irtual": 4757, "<>": 28675, ")-\\": 26338, "\u03a4": 29777, "amiento": 15090, "\u2581itself": 3837, "\u2581Harrison": 23323, "ivid": 2397, "\u2581greed": 25173, "\u53e4": 30313, "\u2581Unit": 13332, "\u2581Normal": 23325, "keley": 24482, "ISH": 26571, "\u666e": 30571, "\u05b4": 30225, "akten": 21305, "\u2581Stadt": 11363, "ationToken": 17324, "ite": 570, "\u0440\u0456\u0457": 25474, "\u2581variance": 27493, "ague": 3512, "\u2581creativity": 22317, "star": 7890, "\u2581Found": 5196, "\u2581brush": 16284, "bis": 24971, "k\u00e9": 10641, "ntil": 12662, "\u2581taken": 3214, "\u2581sug": 28670, "\u2581united": 27434, "\u7537": 30353, "hell": 13436, "odge": 13167, "\u2581janu": 19173, "HttpServlet": 25497, "<0x57>": 90, "\u2581dressing": 21993, "di": 5605, "ING": 2043, "\u2581Cook": 13092, "STRUCT": 25010, "\u2581healthy": 7783, "\u2581manufacturer": 17746, "point": 2275, "\u2581emotions": 13855, "\u2581Earl": 20096, "\u0440\u0435\u0434\u0438": 15748, "\u533b": 31213, "\u2581nie": 7988, "\u2581An": 1094, "\u2581aggreg": 14554, "\u2581UTC": 21811, "\u041d": 28859, "vy": 12246, "POL": 21411, "\u2581hur": 7033, "\u2581responses": 14915, ";</": 16211, "bullet": 18129, "\u2581MD": 15834, "\u2581civilization": 26173, "\u2581Seg": 9594, "mt": 2630, "ORMAL": 24321, "/$": 23530, "\u2581track": 3508, "\u2581arguments": 6614, "\u2581dig": 3968, "\u2581Singapore": 17366, "\u2581agrees": 28175, "\u2581espec": 3343, "gles": 16984, "rdev": 23338, "\u2581guessed": 26415, "\u2581keen": 20005, "ms": 1033, "LOAD": 10614, "human": 18529, "\u00e1": 28820, "oad": 2091, "\u2581Nak": 24828, "ternal": 2885, "ifference": 21423, "\u2581eager": 15381, "\u2581expects": 28190, "\u662f": 28971, "heast": 13784, "archy": 12940, "\u2581ME": 13835, "\u2581electricity": 17242, "entric": 27053, "MA": 1892, "\u2581Ukrain": 23129, "ci": 1189, "ERO": 20574, "\u2581wur": 2826, "\u2581Area": 14488, "\u0440\u0430\u043d": 4934, "retval": 15063, "InputStream": 16026, "\u2581complement": 16696, "\u51e0": 30523, "\u2581rule": 5918, "scroll": 10334, "\u2581Mon": 3217, "iding": 3269, "\u043d\u0456\u0441\u0442\u044c": 19147, "(-": 6422, "\u2581cler": 24727, "Route": 9858, "\u2581pr\u00e9s": 9671, "<<": 5275, "\u2581chocolate": 14403, "ylon": 22956, "\u2581Sl": 4764, "metry": 16641, "joint": 16858, "\u2581Marshal": 27602, "\u2581dp": 21492, "\u2581Annual": 23647, "\u2581AS": 8128, "STO": 24833, "\u2581Innov": 24013, "\u2581sleeping": 12863, "ib": 593, "\u2581swo": 20153, "\u5bfa": 30799, "MS": 3477, "testing": 10163, "\u2581copied": 23773, "Adv": 20300, "\u2581boot": 11816, "\u2581destroying": 28613, "createElement": 17023, "apers": 6410, "Vector": 6162, "\u2581read": 1220, "ude": 987, "isi": 10867, "\u2581String": 1677, "ustral": 16472, "ills": 2767, "token": 5263, "ockey": 12277, "func": 4396, "\u2581opacity": 26355, "Total": 10240, "ED": 1906, "\u2581hor": 3292, "\u793a": 29073, "ipped": 5885, "ther": 620, "\u2581dust": 9188, "\u2581Flor": 7958,
[...]
