{"']['": 34368, "../": 3043, "FF": 3269, "QR": 18787, "heer": 44403, "\u0120decaying": 46957, "\u0120Cinc": 26563, "\u0120crus": 37440, "\u0120annex": 29557, "\u0120bridging": 49519, "rens": 25083, "\u0120bure": 23304, "autre": 45969, "\u00c3\u00a9p": 41808, "\u0120cause": 2847, "\u0120helmet": 26358, "ce": 336, "ient": 850, "\u0120substrate": 6605, "\u0120corruption": 16933, "\u0120guides": 22591, "]{}(": 35869, "\u0120Roche": 24940, "\u0120iff": 36714, "anyl": 38593, "perl": 43511, "TX": 13257, "\u0120Tang": 31256, "\u0120serine": 34248, "\u00e0\u00b0\u00bf": 44973, "\u0120capacitors": 45036, "ida": 4355, "ailand": 21580, "ru": 579, "\u0120Agency": 13677, "pei": 46392, "etic": 1999, "\u0120analysts": 26154, "\u0120shine": 28189, "\u0120\u00cf\u0125\u00cf\u0127\u00ce\u00bd": 47909, "\u0120laugh": 9012, "\u0120Forward": 25956, "posal": 40384, "unlock": 25919, "\u0120dispat": 27758, "\u0120preempt": 36588, "=====================": 18613, "gap": 27142, "OU": 2185, "\u0120payload": 24098, "\u0120endometri": 48122, "\u0120Individual": 21330, "\u0120two": 767, "\u0120artist": 9558, "\u0120hott": 40314, "Bin": 38601, "267": 23546, "\u00e5\u00a5\u00bd": 34439, "\u01203": 495, "\u0120ord": 4036, "\u0120oun": 20796, "expect": 23824, "\u00c9\u013b": 24870, "\u0120Technology": 10784, "\u0120gesture": 21850, "scriber": 24386, "}}$$": 30848, "\u0120plag": 32929, "curve": 33356, "\u0120ghosts": 35057, "\u0120respondent": 15587, "\u00d7\u0139": 36403, "\u0120modalities": 33433, "499": 37972, "urized": 40182, "ceptive": 31898, "\u0120bathrooms": 44204, "Out": 5677, "actively": 39237, "\u00e6\u0138\u00b9\u00e6\u00b3\u0137": 44301, "\u0120constitutional": 10281, "\u0120Nash": 20627, ".\u00e2\u0122\u013f": 1425, "\u0120sky": 8467, "\u0120limitation": 12291, "\u0120advise": 22276, "\u0120adiabatic": 44378, "\u0120Pon": 44816, "TK": 44942, "\u0120Pete": 26411, "\u0120FCC": 27470, "\u0120sarcoma": 45928, "hy": 1994, "Contin": 22262, "\u0120CXCR": 45605, "\u00ec\u013f\u00b4": 20959, "\u0120Mal": 5979, "dust": 49476, "ajas": 43774, "\u0120forcibly": 49375, "\u0120feathers": 34099, "\u0120representing": 9999, "agent": 12788, "\u0120differed": 24315, "(?:": 36512, "^/": 27652, "ars": 1032, "conc": 45542, "\u0120\u0120\u0120\u0120\u0120\u0120\u0120\u0120\u0120\u0120\u0120\u0120\u0120": 3203, "dest": 10812, "\u0120Ocean": 17323, "221": 20735, "\u0120client": 5268, "\u0120keen": 19497, "als": 932, "\u0120hotels": 21440, "zheimer": 22110, "\u0120kindness": 28426, "\u0120tense": 29341, "244": 21149, "Converter": 34051, "Fisher": 40018, "\u0120surrounds": 46168, "\u0120girlfriend": 19609, "\u0120exhaustive": 41389, "\u0120goes": 4566, "\u0120straight": 4951, "\u0120fluorescent": 16094, "\u0120valid": 3588, "\u0120inadequ": 16273, "\u00d8\u00a7\u00d8\u00aa": 24823, "\u0120displaced": 26699, "\u0120hemodynamic": 43631, "filtered": 45407, "ificance": 40348, "\u0120fonction": 48289, "\u0120into": 715, "\u0120grievance": 41462, "\u0120squadron": 40294, "\u00c3\u00a5ng": 40406, "\u0120chan": 47853, "\u0120brown": 8516, "Prime": 41133, "olymers": 47748, "corr": 45100, "mon": 2163, "\u0120ways": 4088, "\u0120tempt": 16031, "iners": 32930, "\u0120ST": 3915, "\u00c3\u0133": 8568, "iday": 4705, "ambling": 17461, "\u0120Pauli": 49676, "761": 40187, "\u0120Athletic": 39749, "46": 2950, "inging": 25751, "\u0120password": 9868, "\u0120kinases": 30447, "\u0120aqu": 12649, "\u0120contributors": 24781, "\u00d1\u0125\u00d0\u00bf": 42901, "axis": 10565, "roe": 20950, "\u0120Member": 17792, "Qi": 37908, "165": 15429, "half": 14674, "\u0120tall": 10086, "\u0120popping": 42084, "ungal": 29457, "\u0120roofs": 45784, "\u0120motivational": 49956, "\u0120exp": 866, "\u0120nod": 6913, "variable": 18645, "////////": 5071, "\u0120fantasy": 16879, "\u00e7\u00b5": 21700, "\u0120genomes": 21885, "\u0120post": 1501, "Group": 6998, "\u0120electrophys": 44553, "\u0120pets": 29286, "\u0120Plot": 40185, "\u0120MAL": 40273, "\u0120bay": 17699, "\u0120lottery": 36284, "\u0120chart": 8326, "\u0120recurs": 17910, "lav": 19306, "\u0120FY": 41779, "\u0120Read": 6707, "Make": 13325, "tracks": 46488, "ANI": 48298, "FUNC": 32652, "\u0120unlock": 19444, "\u0120Cros": 40293, "\u0120Priority": 46859, "\u0120PUR": 18385, "\u0120critically": 21038, "OWER": 27306, "\u0120reckon": 44352, "resse": 35202, "George": 23108, "inher": 27040, "\u00e0\u00b8\u0143": 20934, "\u0120merc": 14480, "\u0120attendance": 21250, "\u0120transporter": 29362, "\u0120Filip": 36935, "umberland": 44113, "\u0120Mas": 12962, "reprene": 14807, "\u0120epistem": 49658, "\u0120Lic": 17247, "\u00e0\u00a6": 8082, "reet": 3160, "\u0120attempt": 3177, "\u0120pathogenesis": 19556, "\u0120School": 4726, "ukary": 28420, "andon": 7541, "\u0120bod": 18400, "\u01201970": 10333, "\u0120reductions": 23082, "\u0120Lemmon": 43664, "\u0120cheese": 12173, "\u0120jelly": 39018, "\u0120cycl": 6776, "isans": 38161, "Summer": 46735, "\u00e3\u0124\u00b1": 49201, "\u0120Packet": 45603, "\u0120soybean": 38810, "\u0120Freeman": 33004, "\u0120calmly": 38440, "ementia": 19914, "-----------------------------------------": 38944, "\u0120Ada": 26525, "machine": 28936, "\u0120multidisciplinary": 44656, "217": 19443, "adow": 7240, "Several": 18431, "\u0120295": 28195, "\u0120inventor": 37131, "epit": 40978, "\u00eb\u00a7": 41986, "\u0120pion": 33536, "\u0120Himal": 49389, "istar": 43418, "\u0120Comedy": 44948, "microm": 36132, "^+_": 47106, "desc": 12898, "\u0120frustrating": 29125, "\u0120appro": 1192, "ARG": 24584, "\u0120burn": 5451, "\u0120questionna": 12253, "avg": 42921, "EA": 25716, "consistent": 32474, "\u0120SAS": 33918, "\u0120Questionnaire": 38536, "aiver": 18386, "urances": 47879, "\u0120creators": 33801, "GTT": 31275, "Emer": 43535, "Hay": 33972, "\u0120new": 747, "\u0120stance": 22567, "\u0120installations": 36774, "estry": 46526, "Website": 50023, "olu": 50025, "502": 28873, "\u0120[": 544, "\u0120dress": 7619, "Filter": 9824, "\u0120bench": 10955, "plate": 3789, "\u0120Ubuntu": 14425, "\u0120PG": 21298, "\u0120olfactory": 38269, "\u0120determine": 3653, "\u0120grazing": 42351, "lemen": 45457, "\u00d1\u0124\u00d1\u012e": 40837, "\u0120Dollar": 46693, "lected": 2231, "\u00c4\u00b1": 5588, "18": 1093, "\u0120confronting": 49672, "1952": 41083, "\u0120Magnetic": 40966, "\u0120Euclidean": 29850, "\u0120Id": 4031, "\u0120Every": 6000, "umer": 8329, "ko": 7381, "cause": 18923, "\u0120scale": 4311, "\u0120forgiven": 46804, "\u0120defective": 22327, "\u0120symplectic": 35637, "\u0120centralized": 36409, "\u012021": 3127, "\u0120gaseous": 42626, "200": 1518, "363": 26338, "\u0120searched": 16113, "\u0120Abr": 30473, "\u0120patented": 44214, "\u010a\u0120\u0120\u0120\u0120\u0120\u0120\u0120\u0120\u0120\u0120\u0120\u0120\u0120\u0120\u0120\u0120\u0120\u0120\u0120\u0120": 14243, "\u0120fatigue": 18693, "wang": 33317, "}}(\\": 12523, "\u0120impatient": 34456, "\u0120solved": 14042, "PEC": 41641, "Adv": 26256, "\u0120Independence": 32237, "Ric": 45668, "\">": 1138, "touch": 30713, "Track": 23857, "\u0120spotted": 20673, "Login": 27689, "\u0120consistency": 15274, "device": 10933, "\u0120488": 29364, "\u0120policy": 3646, "\u0120Chicago": 8068, "\u0120aiming": 26400, "onde": 19070, "ICE": 8875, "\u0120principle": 8063, "\u0120precisely": 10534, "\u0120Compl": 17878, "ivalent": 22809, "\u0120tubular": 25784, "Create": 9395, "Daily": 34934, "\u0120immunoglob": 35120, "\u0120Using": 6915, "iale": 40367, "litaxel": 44737, "\u0120colloqu": 50014, "mercial": 18034, "(&": 6395, "\u0120concede": 46272, "\u0120SAN": 47061, "\u0120Federal": 7671, "\u0120extension": 6880, "enne": 22217, "\u0120objected": 27511, "}}=\\": 29270, "\u0120rely": 10725, "Private": 22279, "\u0120flock": 29447, "\u0120maturity": 29791, "\u0120Maximum": 32642, "432": 32803, "\u00d0\u00b5\u00d1\u0124\u00d0\u00b5": 50231, "\u0120maybe": 5046, "\u0120gaining": 21896, "\u0120exempl": 17449, "akan": 40946, "Vern": 50126, "\u0120purse": 29725, "\u0120sparkling": 45531, "\u0120south": 6420, "rypted": 20814, "\u0120observables": 34658, "\u0120MSCs": 32220, "\u0120Mor": 4922, "dagger": 11560, "\u0120Greg": 13916, "uks": 24339, "Defendant": 25187, "respons": 15994, "\u00e3\u0123\u013a": 31355, "due": 21848, "\u0120memorandum": 29745, "bug": 7700, "Bra": 32893, "ripp": 21743, "\u0120terrestrial": 36680, "\u00e7\u012c": 36720, "\u0120presentation": 9759, "\u0120gems": 42776, "\u0120liquid": 5558, "\u0120fastest": 22583, "\u0120custody": 13555, "299": 24514, "\u0120Dog": 21048, "\u0120freelance": 44208, "\u0120Athen": 44600, "\u00cf\u0123\u00cf\u0130": 49100, "\u0120GEN": 49327, "\u0120Power": 8916, "\u00e7\u00a8\u012d": 31949, "Steven": 46022, "Ban": 39419, "\u0120VE": 16197, "\u00d0\u00b0\u00d0\u00b6": 22079, "improve": 49831, "\u0120Sources": 34734, "hop": 12242, "\u0120disbelief": 45582, "\u0120specificity": 13005, "\u0120refract": 20124, "\u0120../": 28222, "\u0120Fal": 20055, "\u0120ceiling": 16720, "bin": 4805, "\u0120annually": 21051, "^^^^": 32264, "patri": 44001, "\u0120irrespective": 30472, "\u0120painting": 13497, "\u0120^": 5042, "\u0120exerc": 4506, "\u0120\u00e2\u0122\u00a2": 10983, "350": 16552, "\u0120polymerase": 21028, "\u0120blew": 24294, "\u0120Grande": 35896, "oxacin": 38060, "\u0120privileged": 30082, "oud": 2995, "\u0120Hitch": 50189, "\u0120bring": 3324, "\u0120NEWS": 41059, "\u0120voltage": 6718, "pher": 20640, "\u00e3\u0123\u00a3\u00e3\u0123\u00a6": 21447, "running": 24220, "\u00d0\u0140": 26623, "\u0120TI": 27703, "\u0120Thread": 22553, "\u0120dye": 18722, "168": 13851, "anish": 9289, "\u0120allocate": 29211, "\u0120Freud": 30435, "print": 3845, "\u00e7\u0136\u0141": 20025, "\u00e6\u0125\u0127": 34397, "**:": 25593, "Accessor": 37670, "\u0120Haiti": 40906, "\u0120parce": 48304, "\u0120interfere": 19323, "Honey": 48871, "meet": 49422, "\u0120\u0120\u0120\u0120\u0120\u0120\u0120\u0120\u0120\u0120\u0120\u0120\u0120\u0120\u0120\u0120\u0120\u0120\u0120\u0120\u0120\u0120\u0120\u0120\u0120\u0120\u0120\u0120\u0120\u0120\u0120\u0120\u0120\u0120\u0120\u0120\u0120\u0120\u0120\u0120\u0120\u0120\u0120\u0120\u0120\u0120\u0120\u0120\u0120\u0120\u0120\u0120\u0120\u0120\u0120\u0120\u0120\u0120\u0120\u0120\u0120\u0120\u0120\u0120\u0120\u0120\u0120\u0120": 40960, "Lev": 35438, "elman": 35406, "\u0120HL": 28414, "\u0120susp": 5167, "hey": 26512, "faster": 27032, "\u0120strike": 9974, "ema": 8895, "\u0120prone": 21291, "\u0120Charlotte": 21438, "\u0120mood": 12315, "Remove": 21605, "\u0120qualify": 19478, "\u0120number": 1180, "ield": 1001, "\u0120Pract": 32923, "Maximum": 40984, "do": 3088, "\u0120infinite": 11968, "\u0120kernel": 10295, "\u0120IMP": 37401, "\u0120Json": 34124, "Cell": 10772, "\u0120Red": 4410, "tc": 18038, "\u0120Excellence": 43006, "\u0120Huff": 35318, "notification": 42942, "\u0120article": 3929, "\u0120Chrom": 26595, "dern": 42132, "cemia": 27942, "\u0120EN": 16449, "\u0120clos": 2734, "\u0120oceans": 40277, "sb": 18516, "gia": 45795, "\u0120Potential": 38473, "\u0120\\|\\": 33401, "Frames": 45952, "\u0120Aug": 3747, "\u0120distort": 35303, "\u0120causal": 19349, "\u0120frying": 47830, "\u0120recruited": 17875, "\u0120lepton": 45625, "\u0120Graduate": 37770, "\u0120disastrous": 37359, "\u0120gob": 43458, "\u0120capitalist": 33712, "\u0120Electrical": 42065, "epsilon": 4259, "\u0120impending": 40911, "fert": 44399, "\u0120Listen": 33851, "\u00e9\u0139\u00ae": 49271, "arest": 4885, "\u0120YORK": 44138, "\u0120entirely": 7094, "\u0120exercise": 5763, "\u0120Van": 10049, "\u0120clicked": 25363, "vnd": 47018, "\u0120swords": 36202, "\u0120cartilage": 25548, "lbrack": 26874, "NFTA": 44988, "\u0120Luk": 44879, "ANA": 49091, "\u0120weather": 8588, "\u00e4\u00ba\u0130": 30329, "rpm": 39871, "progress": 24951, "\u0120VB": 44283, "\u0120explan": 7148, "\u0120persec": 22411, "*).": 21292, "\u0120Roosevelt": 21519, "\u0120optionally": 33323, "CAS": 47503, "Johnson": 32336, "\u010d\u010a\u0109\u0109\u0109\u0109\u0109": 42595, "\u0120hydr": 33171, "Upper": 34252, "\u0120Pub": 22446, "481": 34474, "\u0120flattened": 42394, "town": 10700, "observ": 23705, "!.": 47346, "\u0120borderline": 45210, "\u0120links": 4859, "\u0120Marie": 21088, "\u0120Essentially": 48627, "ign": 525, "por": 1831, "\u0120Africa": 7531, "62": 3763, "Production": 40582, "\u0120sophomore": 43674, "\u0120ditch": 39081, "\u0120Equation": 20860, "\u0120impressed": 17847, "\u0120distances": 13849, "=================": 43094, "IFIC": 45442, "\u0120mun": 46131, "\u0120sle": 3574, "Already": 48216, "\u0120awareness": 11891, "PRL": 49255, "\u0120Purple": 49685, "Food": 32473, "\u0120devotion": 34537, "instein": 14130, "surgical": 47198, "Lat": 23080, "\u0120Defender": 42943, "![": 3138, "\u0120tamb": 17058, "\u0120minimize": 15338, "\u0120sometimes": 4536, "\u0120navigation": 15034, "\u0120practicing": 25815, "\u0120editor": 8121, "\u0120theatre": 20021, "\u0120Ank": 42847, "})-": 44564, "\u0120writer": 8406, "\u0120gallery": 19718, "\u0120disparate": 39653, "IRD": 46000, "\u0120resent": 23381, "\u0120offices": 14145, "\u0120Jun": 12576, "\u0120recruits": 38136, "\u0120FLAG": 46923, "mg": 7913, "iset": 42468, "\u0120flex": 6520, "\u0120Trip": 34896, "\u0120indistinguishable": 40184, "\u0120hereto": 36291, "dotted": 46774, "\u0120sw": 1863, "\u00c3\u00ban": 19664, "\u0120Cam": 6039, "tailed": 29551, "\u00e5\u00be\u012a": 45091, "vv": 24260, ")\\*": 45201, "isecond": 26054, "SA": 4576, "993": 35410, "\u0120abs": 2117, "\u0120ang": 2897, "ossa": 30797, "\u0120survive": 11883, "\u0120involvement": 10171, "\u0120win": 3330, "\u00ce\u00b9\u00cf\u0124": 40063, "\u0120parts": 4243, "\u0120shake": 17941, "\u0120Booth": 40905, "\u0120lur": 29661, "\u0120gain": 6351, "Pic": 37132, "optional": 21676, "\u0120finest": 23476, "administration": 46264, "\u0120laterally": 47226, "awks": 44685, "serious": 47396, "\u0120humility": 48044, "\u00e5\u0131\u0124": 39573, "\u0120Breit": 49094, "Matcher": 48725, "\u0120compl": 3137, "people": 13174, "\u0120Death": 14645, "\u0120relevant": 4623, "\u0120>": 2239, "\u0120modest": 16453, "PE": 3246, "\u0120hed": 21867, "\u010a\u0120\u0120\u0120\u0120\u0120\u0120\u0120\u0120\u0120\u0120\u0120\u0120\u0120\u0120\u0120\u0120\u0120\u0120\u0120\u0120\u0120\u0120\u0120\u0120\u0120\u0120\u0120\u0120\u0120\u0120\u0120\u0120\u0120\u0120\u0120\u0120\u0120": 27323, "\u0120cutter": 40588, "\u0120officially": 15335, "\u00ec\u013e": 44633, "\u0120extrusion": 49936, "dp": 12132, "didn": 48879, "\u0120EE": 14939, "say": 19506, "rison": 30434, "\u0120Heather": 37083, "\u0120server": 4771, "gas": 22228, "\u0120chars": 47647, "\u0120deput": 14158, "\u0120baby": 6858, "opter": 15578, "\u0120squ": 3896, "\u00c3\u00a8s": 12713, "\u0120Hug": 12818, "\u0120Description": 11451, "Insert": 26698, "\u0120444": 37688, "\u0120minute": 7017, "\u0120NK": 18156, "\u0120been": 644, "\u0120Tissue": 39218, "EINVAL": 37213, "manship": 43931, "\u0120ens": 3994, "-\\-\\": 34353, "oder": 8586, "\u0120fierc": 41899, "\u0120cycles": 11945, "\u0120HAR": 48302, "focused": 34821, "\u0120pitch": 11288, "icular": 8070, "\u0120Republican": 8786, "\u0120shells": 24383, "positive": 10247, "\u0120encourage": 11907, "\u0120ig": 25477, "]\\]).": 34494, "\u0120recom": 10774, "\u0120boarded": 50229, "aintiff": 2481, "\u0120UP": 20653, "\u0120papers": 9380, "Stan": 36447, "\u0120careers": 25829, "UTF": 18441, "\u0120incision": 33708, "ayout": 5038, "UTE": 23638, "\u0120contribution": 7680, "\u0120Harvard": 17330, "\u0120retrospectively": 39599, "ocompat": 39693, "\u0120villagers": 41182, "\u0120gallon": 46740, "Act": 6014, "try": 14626, "\u0120elevator": 26225, "...\\": 26922, "\u0120AFL": 43041, "CTIONS": 44622, "118": 14711, "\u0120fellow": 7715, "Rating": 46464, "\u0120sellers": 34864, "equiv": 8275, "\u0120coerc": 29323, "\u0120wrongly": 47723, "jets": 50241, "\u00ce\u00b8\u00ce\u00b7": 49626, "\u0120tackle": 18915, "oint": 842, "\u0120fever": 15198, "\u0120quoting": 32249, ")-": 4587, "Invest": 30381, "ek": 1441, "\u0120cens": 23339, "tl": 17945, "\u0120Cry": 34712, "1958": 36265, "\u0120Theodore": 40424, "\u0120dementia": 21763, "ena": 6736, "\u0120Mang": 41540, "\u0120masc": 43796, "\u0120cautious": 31798, "\u0120blink": 25924, "tbody": 30892, "arynx": 44793, "CAD": 47886, "\u0120Oliv": 47900, "Rout": 48611, "\u0120async": 20605, "\u010a\u0120\u010a": 19668, "-[": 21375, "\u0120Turkey": 14307, "olt": 7391, "\u0120Heck": 44415, "\u00d0\u00b5\u00d0\u00b2": 21537, "itatively": 21404, "\u0120Ninth": 32533, ";\\": 7405, "gent": 7322, "THE": 9707, "\u0120hook": 10584, "\u0120pi": 12580, "\u0120protects": 24696, "\u0120One": 2596, "\u0120368": 36829, "WR": 10690, "\u0120TE": 12248, "\u0120persuade": 29720, "\u0120obsession": 37238, "\u0120docket": 47145, "\u0120unsuitable": 49590, ".[": 4681, "\u0120Clarke": 31131, "\u0120intrig": 20746, "\u0120screens": 14584, "676": 29462, "acchar": 17282, "\u0120assisting": 34735, "\u0120countable": 43998, "fight": 44641, "\u0120USDA": 45921, "\u0120legacy": 17646, "ethod": 1130, "[\\": 5709, "\u0120cups": 15107, "\u0120lawyers": 16099, "\u0120relaxed": 19595, "\u0120smokers": 26934, "party": 14824, "\u0120Tit": 27897, "\u0120Employees": 41166, "\u0120394": 41267, "\u0120TODAY": 42971, "\u0120Kingston": 47706, "\u0120}_{": 30984, "\u0120tum": 3034, "\u0120angiography": 36398, "GC": 7258, "\u0120pap": 13860, "\u0120\"`": 36823, "eles": 6719, "illin": 18013, "\u0120invested": 22171, "\u0120passions": 38969, "pmed": 46552, "\u0120scratching": 47348, "\u0120liquidity": 49005, "\u0120James": 5490, "\u0120perplex": 44229, "Until": 24753, "iret": 38959, "\u0120racket": 45548, "\u0120spiritual": 12435, "\u0120Cal": 2263, "\u0120cert": 5306, "Calculate": 5850, ")}$": 10392, "\u00c3\u00bcn": 17499, "\u0120biom": 9303, "controller": 19879, "\u0120letting": 13872, "Folder": 27903, "about": 10383, "\u010a\u010a\u010a\u010a\u010a\u010a\u010a\u010a": 25330, "\u0120undoubtedly": 25369, "asant": 10597, "Pad": 14550, "orno": 41530, "\u0120sincerely": 43001, "uve": 48132, "\u0120rebuild": 21550, "\u0120Following": 11977, "\u0120Rebecca": 31959, "\u00e2\u012a\u0139\u00e2\u012a\u0139": 38443, "\u0120cynical": 47892, "\u0120Mb": 48681, "\u0120polarization": 14563, "\u0120Roh": 32524, "\u0120diastolic": 33767, "\u0120bones": 14910, "\u0120churn": 43132, "Mut": 31135, "az": 1370, "mic": 6185, "century": 9888, "958": 34240, "\u0120loves": 14528, "pas": 36785, "ist\u00c3\u00a4": 36825, "^),": 40643, "\u0120knows": 6057, "ae": 3348, "\u00e2\u0137": 17865, "\u0120qualifications": 32696, "\u0120warned": 14315, "187": 17306, "\u0120ships": 11811, "Daniel": 24526, "\u0120messy": 36396, "\u0120Obamacare": 39193, "Dispatcher": 46453, "\u0120defect": 7071, "merge": 27814, "\u0120networking": 23245, "asured": 47845, "\u0120Allan": 38266, "\u0120gratitude": 27579, "\u0120president": 4007, "\"))": 14708, "sym": 14774, "acing": 4234, "\u0120lign": 31431, "\u0120chewing": 41927, ")$;": 46433, "leep": 9481, "ications": 13211, "square": 15044, "His": 8389, "SL": 7084, "\u0120disdain": 49443, "ubicin": 38632, "given": 28821, "\u0120Gordon": 17419, "\u0120discuss": 2319, "\u0120fraction": 6919, "\u0120arrhythm": 38369, "\u0120112": 11633, "\u0120&\\": 9443, "\u00e5\u00b0": 10673, "\u0120convenient": 11638, "\u0120Editor": 17234, "binding": 13018, "\u0120Pokemon": 45391, "\u0120towns": 15918, "\u0120Pseud": 38365, "League": 43174, "Jonathan": 47413, "tcp": 34133, "ps": 793, "\u0120cinnamon": 33871, "\u0120scient": 4970, "\u00e2\u0122\u013f.": 6598, "\u0120fee": 9801, "\u0120gel": 9480, "\u0120nodules": 37154, "statements": 48639, "Parameter": 15402, "\u00d9\u0130": 37926, "\u0120spear": 31636, "\u0120Nova": 30947, "OUT": 7310, "\u0120Lis": 27461, "\u0120mut": 2873, "\u0120intervening": 37686, "faced": 28619, "\u0120hallway": 29329, "\u0120bibli": 48137, "ities": 1005, "\u0120debris": 21593, "ilio": 33364, "}_{(": 38113, "\u0120Kind": 29552, "\u0120voted": 14285, "\u0120level": 1268, "\u0120Conduct": 36052, "\u0120Jiang": 37818, "\u0120scholar": 26902, "\u0120rests": 27945, "requently": 34416, "\u0120guilty": 8106, "107": 12224, "ump": 1765, "}}$.": 11971, "Search": 13422, "\u0120Steam": 28984, "\u0120V": 657, "\u0120lanes": 24914, "\u00e3\u0124\u00b5": 31173, "icy": 2576, "\u00e8\u00af": 11894, "lift": 38722, "\u0120lucrative": 42733, "\u0120rental": 19272, "\u0120articles": 7774, "comments": 26122, "                 ": 50261, "alf": 2103, "\u0120lineage": 23009, "th": 394, "\u0120Heter": 49125, "\u0120};": 7734, "\u0120los": 3897, "\u0120formula": 7212, "189": 18359, "\u0120YE": 32342, "192": 14403, "generation": 14520, "Cu": 18675, "Board": 32994, "peritoneal": 36881, "\u0120Dixon": 39736, "chan": 2291, "agh": 29416, "Miss": 14866, "\u0120inte": 1101, "\u0120murders": 29803, "ascii": 29860, "\u0120Whats": 44891, "umina": 25029, "\u0120exons": 39700, "\u0120tilted": 37126, "\u0120again": 969, "\u0120photographers": 38676, "\u0120backlash": 43343, "achy": 24814, "\u0120max": 2781, "\u0120Tim": 8969, "\u0120Sebast": 29953, "\u00c7": 131, "uni": 20257, "license": 21997, "\u0120=": 426, "odes": 3180, "THER": 13656, "\u0120Getty": 21902, "terson": 30964, "\u0120Falls": 24618, "\u00e6\u012e\u0123": 36820, "\u0120without": 1293, "\u0120compliment": 25639, "reasonable": 14885, "wal": 18758, "\u0120homology": 23117, "\u0120@@": 34346, "\u0120incorpor": 6220, "jem": 38239, "ibil": 32096, "\u0120m\u00c3\u00a1": 37137, "valid": 7210, "\u0120detox": 40472, "\u0120Games": 12568, "kim": 42686, "\u0120comed": 25795, "\u0120subtract": 43444, "\u0120haz": 12052, "\u0120morale": 43812, "\u0120hereby": 20585, "\u0120(,": 33820, "Story": 29569, "Late": 44012, "\u0120MSM": 44986, "\u0120Dalton": 46262, "\u0120\u00d0\u00bf\u00d0\u00be\u00d0\u00bb": 26072, "\u0120determination": 7441, "\u0120owned": 9633, "\u0120Legisl": 17152, "\u0120riders": 26825, "\u0120einen": 27432, "buffer": 11023, "\u0120gradual": 26830, "\u0120vegetation": 28164, "\u0120muttered": 30807, "\u0120Claud": 35662, "\u0120?>": 23983, "Nobody": 30213, "\u0120Door": 40433, "\u0120\u00d8\u00ac": 44076, "curl": 31064, "\u0120PS": 10890, "\u0120escorted": 46452, "matics": 47328, "Mann": 49859, "overline": 4862, "ort": 430, "\u0120bacterial": 10741, "\u0120sugars": 36984, "\u0120nodal": 42645, "\u0120586": 50114, "\u0120investigators": 17085, "\u0120Universal": 21312, "\u0120rightly": 35155, "\u0120crowned": 47376, "forced": 15189, "idium": 29455, "\u00e9\u0139\u00b4": 37286, "\u0120\u00d1\u0129": 10530, "\u0120mach": 3674, "Anton": 38741, "^(": 24123, "Appellee": 28107, "\u0120randomised": 41699, "\u0120perenn": 42202, "\u0120ideals": 26784, "bilt": 50243, "\u0120combo": 35141, "olit": 47192, "agma": 22851, "\u012014": 1638, "\u0120payment": 7830, "though": 2004, "overn": 4574, "abilities": 6720, "owski": 15767, "\u0120Alt": 21913, "ulla": 26171, "\u0120exported": 34652, "uitar": 36567, "\u0120png": 38259, "Happy": 33298, "\u0120ultrasonic": 34582, "flu": 8501, "\u0120Rho": 38776, "\u00e1\u0125\u0136\u00e1\u0125": 39146, "\u0120mighty": 25427, "\u0120stage": 3924, "worth": 11448, "UH": 38450, "\u00e8\u00bb": 40329, "]\\],": 5413, "\u0120Knowing": 40828, "\u0120contag": 41142, "formerly": 42889, "\u0120taxonomic": 43653, "546": 45533, "\u0120Like": 6975, "\u0120sac": 7044, "\u0120downtown": 17207, "\u0120favor": 3718, "\u0120knelt": 47511, "\u00d1\u0123\u00d1\u0124\u00d0\u00b2\u00d0\u00b0": 48952, "<|assistant|>": 50281, "\u0120accept": 2997, "\u0120owning": 37695, "\u0120hugely": 40704, "\u0120362": 33933, "otten": 7382, "itored": 15931, "\u0120pp": 7266, "\u0120architecture": 10336, "\u0120Missouri": 16301, "rend": 5047, "\u0120Century": 21672, "istance": 3119, "\u0120opp": 1937, "\u0120patron": 24081, "\u0120Brig": 20202, "\u0120insulating": 22831, ",\\\\": 24303, "\u0120exposing": 28248, "WS": 10930, "match": 8992, "\u0120businesses": 9341, "\u0120rab": 28301, "\u0120fifteen": 15342, "\u0120refinement": 29646, "\u00d0\u00b5\u00d0\u00b3": 19985, "ipro": 39552, "Sb": 44834, "\\@": 34764, "Magn": 47981, "\u00d0\u00bd\u00d0\u00be\u00d0\u00b2": 49393, "\u0120onset": 11653, "\u00e7\u00ae\u00a1": 46419, "\u0120conscience": 23837, "\u0120532": 40062, "ilated": 31718, "\u0120proximal": 19561, "ogel": 40836, "\u0120620": 44733, "\u0120vanish": 29259, "\u0120McL": 29243, "\u0120retention": 17302, "\u0120Turk": 14901, "\u0120graded": 25082, "\u0120metro": 40011, "\u0120Gideon": 49119, "\u0120Andre": 23085, "\u0120hearty": 49618, "\u0120toute": 37383, "\u0120deployed": 18329, "\u0120Kommission": 39604, "\u0120track": 3540, "ibi": 29294, "\u0120hailed": 46156, "2": 19, "\u0120\u00e2\u012a\u00bc": 23377, "\u00d3": 143, "bert": 6291, "\u0120unw": 10357, "uke": 17936, "utz": 25374, "ERY": 16759, "\u0120Stewart": 19498, "\u0120calls": 5841, "\u0120Benefits": 43648, "\u0120\u00cf\u0125": 9529, "upsilon": 49423, "olesterol": 12050, "\u0120creatinine": 31585, "\u0120GTP": 37404, "evidence": 22432, "\u0120370": 32002, "psych": 20980, ".$": 10506, "\u0120Mechanical": 46523, "\u0120exist": 2226, "\u0120depressing": 47517, "sem": 6017, "\u0120CONDITION": 22231, "IFT": 14976, "\u0120ensembles": 49328, "\u0120poly": 3488, "\u0120reacted": 29771, "\u0120irrelevant": 19124, "\u0120inactivation": 30614, "\u00c2\u0137": 17237, "\u0120prenatal": 38977, "\u0120Cons": 4563, "unned": 25383, "\u0120Ste": 2951, "\u0120beh": 1602, "\u0120correlated": 9578, "\u0120Ms": 10137, "traditional": 46052, "FPar": 21284, "\u0120converge": 29623, "\u0120parser": 22109, "\u0120Mr": 2305, "Sp": 6104, "\u0120brewing": 40436, "\u0120thus": 3021, "\u0120Warsaw": 40431, "\u0120Arms": 41481, "ening": 2980, "Sequence": 26102, "\u0120111": 11334, "\u0120SNP": 20231, "\u0120ventilation": 23815, "\u0120surroundings": 27762, "olars": 10731, "\u0120Es": 9615, "writers": 34782, "<%": 46762, "news": 13608, "ager": 3800, "\u0120plausible": 21541, "\u0120UTC": 38040, "\u0120Am": 3052, "\u0120geen": 47250, "\u0120singularities": 34001, "riot": 49851, "\u0120criticism": 14226, "\u0120wasted": 25262, "x": 89, "itto": 35570, "\u00e6\u00b0\u0131": 49650, "\u0120aspects": 7794, "ub": 538, "\u0120Cond": 12776, "ritic": 17425, "\u0120bel": 1112, "null": 8629, "\u0120open": 1527, "\u0120Based": 10635, "tain": 14721, "rVert": 28042, "\u0120sadly": 30018, "\u0120335": 32575, "trade": 37719, "ffiti": 47525, "Unity": 47869, "\u0120peripheral": 10844, "}|\\": 23597, "\u0120Beer": 36619, "\u0120sarc": 23649, "\u0120tortured": 37274, "\u0120Rs": 22504, "\u0120oz": 23621, "\u00c3\u00ab": 10093, "ousal": 32389, "\u0120chaotic": 29784, "\u0120aus": 16506, "isto": 28697, "on": 251, "aim": 1468, "\u0120degraded": 30853, "\u0120interfer": 16165, "\u0120Machine": 21585, "\u0120CAL": 30865, "\u0120Mong": 31121, "ococcal": 34799, "\u0120Tanz": 39924, "\u0120mostly": 6571, "\u0120cher": 22765, "\u0120girl": 3226, "\u0120Aur": 29730, "\u0120abbrev": 31931, "\u0120vertebra": 39947, "\u0120Bold": 45596, "\u0120sil": 2830, "\u0120recap": 39994, "\u0120declaration": 16204, "\u0120cops": 23247, "\u0120BUT": 17706, "\u0120-----": 19312, "095": 37684, "\u0120funny": 11755, "\u0120Durham": 37870, "\u0120268": 30783, "aling": 4052, "antically": 39904, "call": 4065, "raph": 1354, "\u0120Lin": 18077, "\u0120Rogers": 22456, "570": 39156, "\u0120UM": 44171, "\u012095": 5325, "\u0120contribute": 8162, "\u0120reput": 34719, "\u0120fry": 39622, "\u0120managers": 15071, "\u0120Franz": 36373, "\u0120CDK": 44288, "\u0120shear": 19707, "\u0120microbi": 18124, "----------------------------------------------------------------": 2518, "\u0120Gh": 18861, "\u0120Instagram": 19614, "\u0120newborn": 23066, "\u0120celebrities": 36856, ")$\\": 47562, "\u0120NaN": 32694, "\u0120principally": 39288, "Wa": 46725, "\u0120Ges": 32580, "\u0120Comb": 17175, "Power": 20431, "\u0120daylight": 31335, "\u0120microglia": 34161, "nc": 9068, "\u0120materially": 40690, "\u0120Entertainment": 23890, "\u00e6\u0131\u0132": 34671, "croft": 44063, "main": 7265, "NOW": 22731, "\u0120mess": 4840, "\u0120mod": 771, "\u0120Aut": 5271, "\u00c5\u013d": 12040, "\u0120purchases": 21754, "ontal": 8226, "Unit": 14074, "149": 16717, "\u0120area": 2170, "\u0120Wes": 26226, "\u0120WS": 31364, "\u0120Depression": 27675, "^*,": 43558, "encial": 49016, "\u0120tensile": 38383, "Trump": 18130, "\u0120hereinafter": 41611, "\u01201923": 33881, "odon": 49222, "ADC": 38348, "Prop": 21389, "\u0120Dul": 33609, "\u0120Joy": 20614, "\u0120bowel": 25211, "Execution": 35449, ")\\,\\": 43790, "\u0120Bee": 31069, "\u0120graph": 4216, "\u0120\u00d0\u00b7": 8793, "\u0120chromat": 15346, "ophagy": 20728, "texture": 38595, "\u0120genome": 9128, "\u0120concent": 2786, "\u0120histological": 24394, "\u01201929": 29063, "=\"{{": 43615, "stdio": 43930, "\u0120mourn": 47680, "elligence": 16032, "varrho": 27056, "Running": 31484, "obox": 48577, "\u0120retired": 14373, "rosine": 21797, "\u0120d\u00c3\u00a9f": 42912, "\u0120HIV": 7452, "\u0120testing": 5175, "En": 3546, "\u0120HAND": 46683, "794": 38184, "\u0120Revel": 43294, "**,**": 44862, "\u0120secure": 7895, "\u0120sketch": 23211, "\u0120DEC": 32823, "adal": 30277, "\u0120MR": 11928, "\u0120pity": 27042, "\u0120Artist": 37618, "\u0120clergy": 41082, "\u0120Panc": 49561, "\u0120atherosclerotic": 49667, "\u0120rubbish": 45785, "vol": 8625, "\u0120litres": 47026, "\u0120infarction": 24043, "EventArgs": 40029, "\u0120rigidity": 40350, "ucked": 20044, "\u0120Australia": 6976, "\u0120imped": 20125, "\u0120Religious": 41079, "\u0120March": 3919, "comple": 7507, "tum": 48556, "hib": 1856, "\u0120Hamiltonian": 14342, "\u0120Eli": 19173, "bud": 27094, "asures": 16997, "\u0120affiliation": 37846, "feedback": 44333, "\u0120domain": 5028, "onyl": 38258, "adian": 7577, "\u0120wellness": 45849, "IDEO": 38949, "aded": 7917, "\u0120Jur": 23124, "delegate": 43663, "PLA": 41104, "double": 12237, "\u0120del": 1448, "\u0120biologically": 35605, "keep": 19773, "pure": 32669, "lia": 19702, "\u010e": 191, "\u0120Office": 7454, "\u0120amyl": 24672, "umbling": 24886, "\u0120Issue": 30810, "\u00e2\u0122\u0142": 19960, "\u0120endured": 37093, "local": 6790, "\u0120REL": 37954, "Everything": 22242, "\u0120Cost": 12805, "mult": 9961, "\u0120expanded": 11848, "\u0120wire": 6371, "\u0120Afghanistan": 16111, "\u0120predicts": 26295, "amily": 6404, "nem": 25476, "iller": 6626, "RENT": 39244, "\u0120Sim": 3759, "\u0120Inner": 38598, "\u0120inversely": 39342, "\u0120lute": 40118, "\u0120French": 5112, "\u0120Maria": 17100, "Positive": 40385, "chten": 43340, "\u0120dividends": 43503, "\u0120CONSEQUENTIAL": 48128, "\u00ed\u0137\u013a": 29470, "\u0120omit": 35991, "\u0120plut": 43013, "]{}\\^[": 44162, "May": 6791, "\u0120professor": 11652, "Highlight": 46006, "\u0120subdu": 49371, "erry": 9587, "direct": 18711, "rolling": 19891, "cre": 719, "379": 24880, "\u0120sensing": 17950, "\u0120grilled": 46342, "\u0120115": 11343, "\u0120inducing": 24635, "irector": 8152, "\u0120oct": 17109, "\u0120merchand": 25996, "\u0120ihn": 49690, "show": 9029, "\u0120508": 38820, "\u0120Watson": 21571, "WAIT": 46176, "feet": 48524, "\u00e2\u0122\u00a8": 40702, "\u0120Schematic": 46888, "=========": 33197, "\u0120depict": 17154, "\u0120injunction": 20267, "\u0120territories": 26949, "\u0120Telescope": 43417, "\u0120Morgan": 16286, "\u0120h\u00c3\u00a4n": 39939, "\u0120scout": 42513, "wg": 46506, "istered": 25462, "py": 4789, "\u0120startling": 42390, "\u0120Steele": 40592, "\u0120banker": 47880, "\u0120vener": 49110, "\u0120fireplace": 39696, "Spl": 37840, "\u0120impos": 4617, "\u0120concentrate": 21364, "orld": 2875, "\u0120{{{\\": 45656, "anti": 11924, "\u0120Ton": 24839, "\u0120net": 2036, "\u0120orbital": 18290, "Nevertheless": 36048, "witness": 47906, "enig": 46610, "\u0120experimental": 5661, "\u0120relent": 32027, "BPF": 36053, "INC": 32466, "\u0120favourable": 39262, "\u0120gent": 8030, "\u0120vox": 32582, "}{~": 39586, ".</": 8239, "NPs": 30502, "\u0120recomb": 21084, "Bud": 40255, "\u0120fall": 2965, "\u0120Tesla": 27876, "cessive": 49492, "\u0120grip": 17628, "share": 18316, "\u0120QC": 47230, "\u0120Scott": 7493, "\u0120teasp": 13236, "eless": 6134, "\u0120222": 25653, "\u0120entries": 12028, "\u0120Giovanni": 48505, "\u0120decade": 9976, "\u0120Bitcoin": 15025, "ilon": 2524, "\u0120sponsorship": 38786, "\u012037": 5345, "\u0120immunos": 23594, "561": 41081, "\u0120onion": 21635, "\u0120drummer": 43982, "\u0120replay": 44864, "\u0120dissenting": 34308, "\u0120d": 277, "\u0120Epic": 39688, "\u0120cardio": 40992, "\u0120Tok": 14391, "\u0120designation": 25344, "\u0120unhappy": 26442, "\u00d0\u00be\u00d0\u00bd": 11256, "FH": 36821, "\u0120receive": 4763, "\u0120reacting": 37986, "243": 23525, "\u0120distinguishing": 32495, "Server": 12023, "\u0120Sure": 15594, "\u0120Lug": 48910, "\u0120engulf": 48131, "\u0120motto": 45820, "Kate": 47085, "PtrFromString": 41557, "bris": 19709, "CONT": 34053, "\u0120Suff": 33519, "\u0120Gram": 22197, "\u0120EUR": 38928, "odil": 42369, "\u0120bids": 42863, "\u0120stre": 6126, "\u0120FEV": 48992, "\u0120subt": 8482, "Built": 44629, "Para": 47904, "\u0120Mumbai": 32111, "respectively": 49115, "potent": 35741, "Working": 32197, "\u0120filler": 38669, "\u0120Gothic": 38707, "OG": 11840, "\u0120deploy": 8745, "\u0120sculpt": 17481, "\u0120Standards": 27761, ">`": 39334, "\u0120immense": 24878, "\u0120SOME": 44933, "\"}^": 45509, ",&": 39108, "14514": 29148, "\u0120bilateral": 19379, "\u0120welcomed": 25213, "\u0120editions": 34081, "\u0120DOT": 46082, "\u0120atherosclerosis": 32317, "infected": 17159, "\u0120Personally": 49920, "\u0120referring": 14339, "\u00c3\u0125\u00c3\u0124\u00c3\u0125\u00c3\u0124\u00c3\u0125\u00c3\u0124\u00c3\u0125\u00c3\u0124": 26868, "\u0120Numbers": 35306, "Who": 7883, "\u0120illegal": 9676, "inde": 25313, "{[": 38791, "tery": 18631, "\u0120inspected": 36560, "network": 18428, "\u0120Elements": 41273, "photos": 47377, "footer": 28497, "\u0120Northwestern": 47624, "\u0120maintenance": 9363, "\u0120breathing": 14578, "outheast": 18518, "\u0120release": 3727, "nz": 36794, "\u0120AKI": 42860, "\u0120recover": 9295, "\u00e0\u00a4\u00bf": 20489, "PARAM": 24289, "\u0120drm": 41953, "\u0120USE": 19226, "\u0120bust": 21501, "oor": 1887, "\u0120paths": 11865, "\u0120wages": 17575, "\u0120front": 2914, "\u0120membrane": 6384, "\u0120pc": 21136, "agents": 21215, "\u0120expects": 21973, "ographically": 32414, "\u0120att": 863, "\u0120was": 369, "bar": 2009, "Auth": 15714, "\u0120declaratory": 36263, "\u0120iter": 10040, "\u0120balances": 40216, "\u0120accountability": 30990, "=\"../../../../../../": 33763, "\u0120regularization": 37820, "Metrics": 43764, "\u0120dedication": 31768, "belt": 47349, "\u0120Conflict": 50072, "\u0120dramat": 50104, "32": 1237, "nd": 2109, "\u0120SR": 12938, "isser": 46302, "needs": 50234, "\u0120maintaining": 11850, "\u010d\u010d": 16981, "\u0120stretched": 20061, "cro": 23853, "\",\"": 6624, "\u0120distinguish": 12129, "\u0120spectroscopy": 19638, "\u0120RBC": 33948, "([]": 35237, "ept": 35931, "\u0120Beijing": 18496, "FACE": 36502, "\u0120543": 43732, "\u0120flic": 44061, "injection": 47357, "keV": 40570, "\u00e3\u0122\u012f": 13752, "\u0120GOOD": 29638, "IEEE": 38508, "\u0120backup": 17119, "expected": 9127, "\u0120Ren": 12751, "\u0120subgroups": 22105, "\u0120Nepal": 35020, "\u0120alerted": 48035, "ameter": 6245, "oka": 20531, "\u0120Acting": 45500, "handed": 22124, "ippi": 17204, "ressive": 8122, "\u0120breat": 14911, "scala": 36650, "\u0120currencies": 39105, "\u0120comments": 5701, "comment": 13982, "FileName": 29529, "\u0120Track": 31633, "\u0120Rele": 32161, "gtrsim": 41908, "ING": 2637, "\u0120cou": 2565, "\u0120SAME": 48378, "redited": 28286, "asure": 5849, "\u0120inform": 4151, "\u00d0\u0139": 48390, "linear": 8172, "****************************************************************": 17344, "434": 40181, "Nat": 45721, "\u00e3\u0124\u00a4": 13682, "\u0120units": 5085, "\u0120simpl": 8077, "algia": 32836, "\u0120hyperb": 23400, "\u0120BF": 40542, "....\"": 24554, "PQ": 49392, "\u0120441": 40657, "\u0120NAT": 19689, "\u0120feder": 46381, "\u0120anxious": 20138, "\u0120beard": 29970, "informatics": 37366, "\u0120EW": 45118, "rainian": 24647, "sight": 18347, "\u0120shade": 21290, "\u0120ABA": 38725, "\u0120\u00e2\u0122\u0137": 39611, "\u00e2\u012b": 12984, "\u0120indulge": 47617, "\u0120localhost": 47038, "\u0120\u00c5\u013d": 46520, "\u0120superb": 29837, "etter": 46467, "turn": 14077, "Hol": 24095, "\u0120\u0120\u0120\u0120\u0120\u0120\u0120\u0120\u0120\u0120\u0120\u0120\u0120\u0120\u0120\u0120\u0120\u0120\u0120\u0120\u0120\u0120\u0120\u0120\u0120\u0120\u0120\u0120\u0120\u0120\u0120\u0120\u0120\u0120\u0120\u0120\u0120\u0120\u0120\u0120\u0120\u0120\u0120\u0120\u0120\u0120\u0120\u0120\u0120\u0120\u0120\u0120\u0120\u0120\u0120\u0120\u0120\u0120\u0120\u0120\u0120\u0120\u0120\u0120\u0120\u0120\u0120\u0120\u0120\u0120\u0120\u0120\u0120": 39454, "\u0120associative": 42162, "ierung": 37388, "\u0120vessels": 12671, "\u0120assessed": 7515, "road": 7704, "ORE": 11156, "ACTION": 38546, "\u00e4\u00bd\u0142": 24553, "Stand": 15542, "\u0120rockets": 39647, "\u0120Santos": 40059, "\u0120failed": 4242, "Martin": 28448, "oted": 4225, "\u0120neoplastic": 44686, "}}({{\\": 45099, "\u0120yields": 11026, "ittle": 1522, "\u0120airport": 13952, "sun": 13998, "\u0120rotor": 24633, "\u0120riding": 15150, "\u0120dich": 19821, "\u010a\u0120\u0120\u0120\u0120\u0120\u0120\u0120\u0120\u0120\u0120\u0120\u0120\u0120\u0120\u0120\u0120\u0120\u0120\u0120\u0120\u0120\u0120\u0120\u0120": 18118, "ename": 5116, "\u0120Investment": 32886, "\u0120nurt": 33242, "729": 47225, "DataSource": 38533, "\u0120abrog": 48736, "late": 12579, "riving": 19674, "\u0120painter": 27343, "osp": 2161, "\u0120explaining": 15571, "\u0120puzzled": 39340, "\u0120seven": 5093, "bul": 9705, "lymp": 9291, "\u0120circles": 14240, "468": 34087, "\u0120allows": 4483, "\u0120Industrial": 24148, "\u0120commit": 4514, "\u0120:-": 40679, "\u0120governs": 42086, "threatening": 33897, "\u0120Written": 36745, "inline": 17243, "\u0120heuristic": 47641, "\u0120coun": 2258, "\u0120gateway": 28894, "\u0120quickly": 4541, "\u0120nam": 9557, "\u0120securities": 23175, "\u0120ts": 28669, "\u0120350": 16176, "probe": 32373, "elta": 1862, "insula": 23619, "\u0120Wrest": 37839, "\u00e6\u0123": 29785, "\u0120gatherings": 50084, "\u0120brave": 21189, "rick": 4662, "\u0120peace": 6330, "Lower": 25216, "proc": 21299, "\u0120antitrust": 42067, "\u0120Bradley": 27991, "\u0120animations": 43588, "\u0120gast": 9144, "\u0120VAL": 15527, "iste": 16974, "\u0120calibr": 24403, ".^[@": 10174, "\u0120suck": 15327, "\u0120Brow": 19896, "\u0120recognizes": 25153, "YE": 27413, "four": 12496, "\u0120trajectory": 18974, "\u0120IOException": 33638, "\u0120artifacts": 24165, "\u0120phylogen": 38970, "odem": 46193, "\u0120Bac": 41561, "\u0120wel": 6210, "\u0120pioneer": 37775, "ICAN": 48697, "\u0120obsc": 14551, "\u0120thal": 32292, "\u0120Cle": 8148, "\u0120substantive": 22918, "\u0120ankles": 48500, "\u0120processor": 13732, "\u0120Emm": 29544, "\u0120\u00d1\u0123\u00d0\u00bf": 35671, "\u0120evenings": 39190, "\u0120surfing": 49337, "Fetch": 49382, "nodes": 26451, "\u0120narrator": 45811, "\u0120photographs": 15928, "\u0120auf": 12606, "\u0120messed": 43303, "\u0120thanks": 6701, "\u0120full": 2120, "\u0120acknowled": 9555, "\u0120fancy": 18612, "\u0120158": 22287, "broad": 31876, "\u0120reimbursement": 34432, "\u0120msgid": 44579, "\u01201960": 11994, "\u0120Teams": 47554, "strap": 13871, "\u0120rotating": 17387, "iple": 2113, "fere": 16957, "Region": 26330, "\u0120hacer": 29634, "Feed": 31666, "\u0120Thr": 39285, "\u0120ribosomal": 40867, "\u0120Pu": 14902, "\u0120siempre": 48092, "\u00e3\u0123\u00a6\u00e3\u0123\u0126\u00e3\u0124\u012d": 20550, "leftrightarrow": 38409, "anese": 39534, "\u0120relativity": 39241, "\u00c3\u00a6r": 37823, "vs": 10936, "AVA": 39066, "\u0120emig": 37797, "\u0120Pall": 42745, "%,": 5294, "\u0120invade": 42879, "////": 2917, "\u0120Shar": 25454, "2500": 47227, "reve": 38198, "\u0120terminus": 43259, "\u0120dreamed": 33305, "ral": 1544, "lace": 34648, "Recently": 24881, "\u0120dwell": 23031, "\u0120Score": 27292, "Rele": 43682, "\u0120liabilities": 37729, "Sort": 15462, "ournal": 4043, "\u0120Deutsch": 42141, "rific": 14830, "\u0120ACP": 47108, "\u0120counters": 33605, "fn": 4174, "\u0120trainers": 47366, "ichael": 44023, "\u0120men": 1821, "\u0120----------------": 4372, "797": 35304, "\u0120Margaret": 20145, "))$": 18103, "\u00e8\u00b1\u00a1": 44795, "uint": 8531, "\u0120unofficial": 49562, "\u0120Son": 11832, "8080": 40058, ">{{": 49884, "IED": 16577, "\u0120rogue": 44355, "}$.": 3363, "\u0120breathed": 39085, "\u0120conver": 5975, "radio": 25337, "\u0120torture": 21207, "\u0120COR": 27196, "iani": 27510, "\u0120Vu": 48452, "bridge": 8298, "\u0120Jah": 30403, "\u0120bronch": 24351, "\u0120development": 2440, "\u0120myocardium": 46394, "\u0120STAT": 12229, "\u0120ahead": 6386, "Af": 19405, "enic": 23876, "\u0120Aus": 25157, "\u0120coordinated": 25899, "\u0120hydroph": 17957, "standing": 6924, "\u0120flexible": 12112, "\u0120votes": 13008, "\u0120ethnic": 16175, "ertainly": 20427, "\u0120parade": 28768, "\u0120iso": 14928, "Ant": 24657, "timer": 26320, "International": 22817, "aceut": 11698, "\u010a\u0120\u0120\u0120\u0120\u0120\u0120\u0120\u0120\u0120\u0120\u0120\u0120\u0120\u0120\u0120\u0120\u0120\u0120\u0120\u0120\u0120\u0120\u0120\u0120\u0120\u0120\u0120\u0120\u0120\u0120\u0120\u0120\u0120\u0120\u0120\u0120\u0120\u0120": 29942, "\u0120synchronized": 30492, "status": 8581, "\u00ce\u00bc\u00ce\u0143": 31008, "aber": 33231, "\u0120attendant": 33482, "\u00e0\u00b8\u0136": 35071, "\u0120548": 45297, "ATION": 6570, "\u0120justification": 22861, "Jen": 48813, "\u0120Journey": 41976, "itt": 770, "ography": 3756, "\u00e0\u00b8\u00ab": 43260, "door": 11806, "\u0120Mais": 29164, "\u0120cuts": 12176, "\u0120IG": 43027, "CG": 10206, "\u0120June": 3978, "oning": 12777, "\u0120golden": 14072, "\u0120Taking": 21525, "\u0120quotient": 26860, "303": 20914, "County": 43582, "\u0120Del": 6304, "\u0120tobacco": 16045, "\u0120Og": 29256, "osaur": 46037, "integral": 49112, "\u0120compassion": 20992, "cig": 42537, "inctions": 36520, "ctors": 5285, "etine": 49401, "ressed": 2079, "\u0120practices": 8333, "ibo": 41968, "\u0120[*": 3921, "\u0120cooking": 12398, "\u0120but": 533, "Un": 2447, "CU": 18094, "\u0120Max": 7903, "hee": 31622, "iac": 14427, "\u0120giants": 33430, "\u0120kings": 25346, "\u0120Furthermore": 5488, "\u0120Moon": 16363, "\u0120replaces": 36287, "\u0120clade": 37623, "\u0120Nacional": 40322, "\u0120ultrason": 24223, "orphic": 41050, "\u0120Pre": 5729, "remember": 41773, "\u0120peninsula": 42816, "\u0120practition": 18112, "\u0120polishing": 35952, "\u0120objection": 14926, "\u0120sf": 42644, "affinity": 47854, "hani": 49520, "\u0120^{": 15892, "opez": 27217, "\u0120err": 1486, "\u0120ADC": 34026, "bt": 2612, "!/": 34834, "\u0120vars": 41665, "ower": 1017, "\u0120broken": 7154, "\u0120hypox": 17793, "COMM": 31264, "\u0120quantified": 18755, "\u0120Er": 8024, "\u0120Nate": 42973, "\u0120occurring": 12952, "\u0120admit": 11476, "\u0120empathy": 32496, "\u0120combinations": 13553, "\u0120prohibit": 33459, "\u0120recorded": 5950, "elist": 43874, "\u0120directing": 25091, "alleng": 27584, "worked": 45260, "ounge": 27351, "box": 3364, "}}})$": 45707, "\u0120forearm": 41854, "\u0120\u010a\u0120": 4928, "\u0120pon": 31284, "along": 28694, "abase": 4286, "\u0120titled": 18879, "\u0120blo": 31767, "\u00e0\u00b8\u00a2": 34816, "\u0120schem": 12199, "\u0120Gift": 40323, "false": 7750, "Strategy": 35548, "\u0120Person": 15694, "\u0120(:": 48372, "\u00d0\u00b5\u00d0\u00bb\u00d1\u012e": 23468, "\u0120Stay": 28504, "\u0120desire": 8327, "\u00e6\u0142\u00b7": 43929, "\u0120heavenly": 44593, "ag": 356, "\u0120lemon": 18616, "\u0120tremend": 17623, "308": 20777, "tron": 27418, "combe": 49766, "\u0120received": 2959, "\u0120situ": 5999, "?\"": 865, "it\u00c3\u00a4": 29074, "\u01201866": 49420, "\u0120struct": 1577, "prov": 11404, "Offic": 21756, "\u0120worden": 25188, "\u0120righteousness": 48562, "\u0120Comments": 28623, "\u00c3\u0143t": 23613, "CoV": 28334, "emetery": 22120, "Ed": 3996, "\u0120hydrophilic": 40497, "\u0120frivolous": 41111, "\u0120dreadful": 38074, "rew": 2663, "\u0120Ha": 10664, "\u0120\u00c2\u0142": 17345, "tk": 17922, "\u0120pursue": 15142, "\u0120capacitor": 23596, "labels": 31294, "renew": 35358, "itable": 7116, "\u0120reactivity": 29605, "\u0120speaking": 8288, "\u0120Beatles": 40159, "started": 40324, "\u0120mur": 4682, "\u0120clown": 42493, "\u0120featured": 12819, "\u0120prisons": 37704, "\u0120emergencies": 46996, "\u0120Pale": 38856, "\u0120participant": 14687, "site": 11264, "]/": 32666, "\u0120fixture": 34188, "\u0120beneath": 11834, "\\\\\\\\": 36038, "\u0120Laden": 40858, "\u0120primes": 42740, "Cont": 2861, "\u0120\u0120\u0120\u0120\u0120\u0120\u0120\u0120\u0120\u0120\u0120\u0120\u0120\u0120\u0120\u0120\u0120\u0120\u0120\u0120\u0120\u0120\u0120\u0120\u0120\u0120\u0120\u0120\u0120\u0120\u0120\u0120\u0120\u0120\u0120\u0120\u0120\u0120\u0120\u0120\u0120\u0120\u0120\u0120\u0120\u0120\u0120\u0120\u0120\u0120\u0120\u0120\u0120\u0120\u0120\u0120": 5980, "\u0120pact": 47448, "LECT": 9656, "\u0120Fac": 16035, "stream": 4963, "gate": 15353, "\u0120sequential": 22453, "install": 12543, "vised": 13337, "atro": 35078, "\u0120muss": 45215, "\u00e8\u012b\u00b2": 46461, "\u00c3\u00b4t": 25890, "\u0120proliferation": 9489, "\u0120discord": 37600, "\u01201889": 45272, "\u0120periodically": 28557, "\u0120mate": 20187, "ermanent": 47605, "\u0120plethora": 48541, "\u0120wir": 19129, "nej": 33841, "\u0120discarded": 25665, "\u0120controversy": 16305, "\u0120soothing": 47805, "manuel": 29506, "\u0120GPs": 48564, "\u0120forgetting": 37264, "1006": 45535, "\u0120RCT": 31741, "exercise": 48355, "\u0120kidney": 12333, "82": 3507, "\u0120Elite": 42676, "quantum": 46320, "earch": 3849, "\u0120Labor": 9543, "\u0120occupied": 13598, "unks": 18357, "\u0120methamphetamine": 42588, "\u0120Introdu": 47493, "\u00d0\u00be\u00d0\u00b3\u00d0\u00be": 15147, "mapping": 29042, "\u0120lent": 21685, "\u0120six": 2800, "\u0120clk": 49362, "\u0120Baseball": 27141, "\u0120Zen": 26167, "ceans": 33749, "]{\\": 42767, "\u0120Rodrig": 22709, "\u0120premiered": 48228, "\u0120returning": 10884, "ute": 1137, "elves": 45624, "\u0120Desktop": 45946, "\u0120scatter": 24493, "dump": 23593, "elesc": 16785, "\u0120Fro": 25847, "\u0120components": 4295, "\u0120galaxies": 11123, "\u0120broker": 23497, "\u0120Md": 31107, "\u0120denies": 31647, "^{+": 13566, "\u0120haste": 48326, "\u0120inhal": 33064, "entin": 41319, "shore": 21658, "\u0120accredited": 48267, "\u0120department": 7811, "\u0120Taiwan": 17975, "KR": 24989, "\u0120dramatic": 14138, "\u0120hunger": 23635, "\u0120Connect": 29562, "EU": 30476, "\u0120\u00cf\u0128": 31750, "\u0120millions": 9790, "\u0120Mission": 22368, "\u0120checking": 12669, "clair": 33641, "\u00eb\u012d\u00a4": 21465, "\u0120\u0120\u0120\u0120\u0120\u0120\u0120\u0120\u0120": 2286, ".[@": 6334, "CIAL": 28408, "...\\...\\": 35088, "\u0120Travis": 35382, "\u0120267": 27880, "\u0120(&": 41851, "iency": 4364, "\u0120distinguished": 15622, "ijing": 16741, "hit": 26824, "Diff": 27732, "\u0120irre": 21388, "\u0120CW": 34444, "\u0120imposes": 35979, "PBS": 37000, "\u00e3\u0125\u00a3": 41760, "Peer": 45447, "\u0120subtracting": 45771, "'^": 46628, "}%": 26172, "\u0120His": 3032, "ategy": 18710, "\u0120audition": 47373, "\u0120flown": 35653, "\u0120guardians": 43069, "\u0120immunized": 48341, "\u0120Oste": 49000, "\u0120plotted": 17944, "\u0120shaft": 13755, "\u0120drunken": 37863, "oxid": 39998, "www": 2700, "\u0120equipment": 6500, "\u0120Credit": 18451, "\u00d8\u00b3": 14585, "\u0120transported": 20870, "\u0120sensors": 13479, "\u0120Tommy": 27145, "\u0120vomiting": 33510, "ultan": 34049, "\u0120dense": 14086, "')->": 47007, "helf": 48164, "\u0120Nature": 13375, "ren": 445, "widet": 6767, "\u0120accumulation": 12037, "\u0120%>": 20322, "\u0120Basic": 20233, "\u0120Arc": 26476, "\u0120richest": 42821, "\u0120Cra": 15615, "ducers": 41590, "\u0120enjoyable": 30357, "owned": 15280, "696": 30651, "\u0120expense": 14247, "\u0120ich": 18119, "'):": 46976, "hetamine": 30633, "\u0120Column": 29085, "\u0120accounting": 15890, "uten": 10284, "\u0120Hb": 24777, "\u0120timed": 37282, "\u0120Cheese": 43714, "\u0120intensified": 45253, "po": 5367, "+)": 15020, "\u0120kar": 46247, "\u0120Growth": 27219, "\u0120transaction": 9996, "\u0120vibr": 13601, "\u0120simplify": 25636, "ATIONS": 32663, "}_{\\": 4689, "\u0120discussions": 11985, "\u0120clones": 21825, "\u0120Pok": 24323, "icher": 30373, "\u0120standpoint": 32764, "\u0120Scene": 45258, "\u0120analys": 5127, "\u0120interferon": 35229, "Ubuntu": 40614, "\u0120nuclear": 6069, "\u0120lest": 38138, "\u0120contracts": 12712, "\u0120soll": 36959, "\u0120deviation": 11254, "alm": 27507, "\u0120203": 24876, "\u0120partners": 10471, "\u0120genocide": 42604, "LO": 8372, "\u0120concord": 34860, "\u0120occupies": 41358, "\u0120bounced": 45394, "\u0120aggravated": 26668, "\u01201907": 39118, "\u0120Stokes": 39634, "}}-\\": 42637, "hljs": 43145, "\u0120Duchess": 49542, "\u0120PB": 15192, "velopment": 7683, "oca": 14799, "\u0120carriage": 21614, "\u0120born": 5686, "rangian": 23623, "\u0120emerges": 32361, "imate": 2542, "PHA": 37660, "\u0120hardness": 38576, "olas": 16328, "1960": 28476, "\u00e5\u0140": 32120, "\u0120car": 1113, "018": 12058, "Infl": 33675, "HPP": 40311, "\u0120influence": 4833, "Od": 40953, "er": 254, "\u0120Raman": 29421, "\u0120pest": 32409, "backend": 43890, "\u0120rectangle": 25334, "further": 44295, "\u0120judicial": 12379, "if": 338, "\u0120speeding": 43088, "\u0120discreet": 45696, "\u0120knew": 3260, "\u0120NEVER": 48231, "\u0120Route": 22720, "\u0120Arabidopsis": 48665, "point": 3659, "WARE": 17028, "\u0120Cand": 30011, "orphism": 28506, "\u0120acceleration": 17680, "\u0120manager": 7205, "\u0120paras": 11619, "\u0120subset": 8578, "\u012029": 3285, "\u0120widget": 26706, "rote": 3326, "Ur": 29796, "\u0120Peninsula": 33489, "ioned": 10998, "\u0120BMI": 15481, "\u0120Spain": 11268, "\u0120outbreaks": 34894, "\u0120bak": 35246, "avoid": 27635, "\u0120Levels": 41767, "\u0120Kyoto": 41951, "\u0120Brewing": 47922, ".-": 8634, "\u0120sanitation": 47995, "\u00e1\u0122\u00af": 49171, "\u0120coronavirus": 24891, "\u0120Daniels": 38488, "CLOCK": 49785, "ISPR": 37532, "\u0120object": 1789, "\u0120informative": 27096, "\u0120discovered": 6888, "\u0120Ant": 9422, "\u0120Architecture": 35052, "minster": 29345, "\u0120erupt": 30900, "\u0120killers": 45361, "\u0120stunt": 47765, "060": 24341, "\u0120clients": 8548, "quito": 20675, "\u0120Minister": 8308, "\u0120df": 20926, "\u0120Ernest": 40879, "recht": 38265, "\u00e3\u0125\u012d": 40352, "\u0120Fors": 45977, "\u0120uses": 4648, "\u0120films": 6590, "\u0120outlets": 23812, "GAG": 27864, "ara": 4595, "\u0120immunohistochemical": 39022, "\u0120quarters": 19902, "\u0120expressed": 4469, "\u0120tunnel": 16583, "Lab": 21663, "\u0120Atlas": 34052, "\u0120package": 5522, "\u0120bytes": 11061, "\u0120camping": 34778, "ANT": 5656, "\u0120Talk": 25664, "vironment": 2671, "ocyan": 26632, "diss": 36884, "\u0120drawn": 8392, "PCM": 41935, "libc": 34357, "\u0120unfinished": 46809, "ropathy": 47382, "boats": 45686, "\u0120thermally": 44408, "\u0120pix": 8066, "necessarily": 37967, "         ": 50269, "arn": 1596, "\u0120Mental": 29077, "Word": 22093, "seat": 36443, "\u0120machines": 10679, "\u0120contain": 3831, "274": 23735, "\u0120515": 39748, "\u0120jump": 6923, "\u0120trapped": 18195, "Sad": 41052, "\u00d7\u0137\u00d7": 12859, "positions": 35507, "\u0120resignation": 28404, "astings": 42118, "\u0120nous": 13953, "isin": 29197, "ienn": 45117, "\u0120fell": 6497, "\u0120Victor": 9964, "\u0120much": 1199, "\u0120bandwidth": 16992, "\u0120St": 659, "\u0120Hel": 7518, "acs": 18944, "\u0120roughly": 11467, "\u0120ing": 6446, "\u0120subunit": 20560, "()[": 43144, "\u0120stagger": 36668, "ulpt": 16884, "\u0120railway": 18217, "\u0120gan": 36827, "\u0120pren": 25861, "\u0120Nem": 37901, "\u0120ingen": 35604, "\u0120remembers": 31947, "missible": 13038, "\u0120viewer": 27025, "\u0120guests": 12958, "\u0120heal": 20658, "\u0120accidents": 23678, "European": 27748, "\u0120commits": 34588, "atation": 45510, "\u00d0\u00be\u00d0\u00bb\u00d1\u012e": 18584, "failed": 27337, "\u0120Do": 3166, "5": 22, "\u0120eased": 47241, "\u0120Compound": 49547, "\u0120Shift": 42247, "omonas": 31911, "\u0120warehouse": 27134, "\u0120Ukrainian": 27485, "\u00e5\u00ae\u00b9": 41683, "ach": 607, "\u0120anomaly": 30207, "\u0120participated": 13640, "\u0120INTEGER": 41847, "ef": 832, "\u00e6\u00b6": 37933, "Judge": 38126, "\u0120Years": 20175, "\u0120MDR": 44341, "\\]).": 8001, "\u0120br": 1308, "eah": 3983, "\u0120Ltd": 12098, "\u0120morphism": 25309, "\u0120\u00c2\u00b5l": 42213, "\u0120Colomb": 24607, "\u00e3\u0125\u00a9": 17694, "Station": 25972, "----------------------------------------------------------------------": 43067, "curr": 48280, "arrays": 43451, "\u0120dalla": 49315, "\u0120AUTH": 31501, "\u0120familiar": 7615, "\u0120coatings": 33734, "\u0120CB": 17933, "unners": 36558, "halt": 44717, "\u0120toward": 2584, "ions": 621, "sci": 29409, "families": 49896, "\u0120tonight": 11608, "\u0120Russians": 24794, "\u0120agriculture": 21047, "\u0120dors": 18154, "\u0120\u00c3\u0130": 25778, "gradient": 29844, "\u0120ec": 10038, "\u0120Welfare": 34142, "\u00c5\u00bee": 40823, "\u0120prefers": 41469, "ki": 5985, "\u0120\u00e2\u0124\u00ac": 17275, "\u0120talk": 2312, "von": 29997, "andals": 45642, "Someone": 29065, "bringing": 49575, "\u0120realize": 8968, "\u0120firmly": 18648, "CTS": 33949, "orton": 37181, "\u0120initi": 9347, "move": 15106, "\u0120McCain": 30926, "Journal": 24093, "Settings": 16704, "\u0120Ebola": 39566, "\u0120Father": 10956, "\u0120conclusion": 6452, "\u0120beating": 18019, "avern": 38545, "\u0120attack": 2983, "Complex": 39865, "\u0120anchor": 18536, "\u0120Teen": 41673, "exact": 42611, "\u0120Ctrl": 46432, "innerHTML": 41090, "\u0120host": 3167, "\u0120Assert": 22265, "\u0120perm": 8143, "\u0120fronts": 43679, "\u0120commented": 20503, "nor": 15387, "\u0120kept": 4934, "\u00c3\u00a1s": 7766, "ubernetes": 27419, "iba": 33068, "\u0120maritime": 37223, "\u0120lattice": 10979, "\u0120Finding": 34156, "\u0120diam": 45285, "                        ": 50254, "Dynamic": 31535, "Rb": 48908, "umin": 6059, "\u0120rides": 28742, "\u0120estimators": 48489, "\u0120Nicol": 49596, "when": 9453, "471": 33953, "\u0120Ronald": 26858, "\u0120Activ": 39750, "imme": 46848, "\u0120famous": 8530, "\u0120disc": 1262, "ULT": 10147, "attach": 38729, "\u0120coupling": 8789, "\u0120cran": 29358, "\u0120page": 3239, "arshal": 19032, "\u0120plasm": 12733, "\u00c3\u0143f": 41980, "cohol": 26898, "\u0120wilderness": 31654, "ului": 27472, "\u0120reminds": 25264, "\u0120tasted": 37907, "\u0120NAD": 25617, "\u0120[<": 43521, "\u00e6\u00a5\u0143": 39468, "oki": 31240, "\u0120PFS": 47286, "\u00e3\u0123\u0135\u00e3\u0124\u012e": 41162, "ertain": 1695, "\u0120guilt": 15457, "\u0120tune": 19928, "BD": 8561, "\u0120back": 896, "\u0120Palin": 49008, "\u0120vie": 22608, "\u0120turnover": 25759, "rv": 23667, "\u0120dehydr": 44317, "integration": 32375, "\u0120Small": 15023, "ariant": 6410, "thi": 48146, "\u0120sequ": 2160, "\u00c4\u012f": 7090, "\u0120intens": 12934, "iative": 18168, "\u0120delivering": 18723, "\u0120versatility": 49607, "ff": 567, "\u0120Sections": 31965, "recent": 45019, "\u0120wrapping": 31705, "\u0120critic": 7291, "Are": 6723, "\u0120liber": 10875, "Span": 18821, "\u00c4\u0127": 9230, "\u0120preparations": 20724, "strip": 25763, "\u0120uncertainties": 20418, "\u0120expressing": 13002, "\u0120bab": 5366, "207": 18202, "\u0120three": 1264, "ilus": 40014, "\\*](#": 18022, "\u0120bare": 8050, "ricular": 13267, "\u0120suo": 45588, "\u0120Andrew": 11116, "quad": 3362, "\u0120ids": 44077, "REAM": 30704, "\u0120assemblies": 25502, "\u0120Raz": 39194, "sponsored": 45519, "\u00e3\u0123\u00a4": 20691, "\u0120RD": 28613, "\u0120Quantum": 25136, "\u0120summon": 23439, "\u0120Hungary": 29171, "\u0120corpse": 35093, "\u0120Cuba": 24605, "*-*": 40291, "\u0120elic": 24021, "\u0120Ras": 28377, ")$": 1009, "\u0120Laboratory": 18196, "\u0120licence": 35683, "remote": 28213, "\u0120bindings": 48165, "otyping": 23943, "\u0120sg": 48237, "Ray": 23262, "452": 34237, "\u0120VARCHAR": 50066, "\u0120refe": 10591, "092": 46838, "\u0120fellows": 36339, "\u0120Constant": 22006, "hthal": 18563, "Strong": 39819, "jsp": 42717, "\u0120lesion": 15411, "\u0120terms": 2426, "\u00e2\u012a\u0139": 18391, "55": 2417, "$]{};": 31350, "pg": 8159, "\u0120accuracy": 7200, "\u0120profit": 11528, "\u0120misplaced": 48032, "\u0120almost": 2761, "shock": 35492, "Eric": 37376, "\u0120incontin": 47275, "irq": 20331, "\u0120{\\": 1926, "\u0120retal": 24998, "\u0120content": 2600, "\u0120Eq": 6354, "arner": 47612, "}}}$,": 35799, "\u0120virt": 4732, "m": 78, "\u0120270": 22540, "\u0120visibility": 23114, "\u0120concealed": 27715, "\u0120Further": 3840, "\u0120Incre": 16898, "\u0120premiums": 36102, "\u0120polish": 40167, "\u0120ori": 47692, "WL": 23272, "\u0120})": 13985, "nonumber": 6274, "fraid": 9126, "\u0120separation": 9712, "reich": 38938, "LQ": 32999, "\u0120adhered": 42159, "\u0120comport": 48414, "\u0120acknow": 6997, "IOException": 38487, "\u0120Rex": 36533, "AB": 2925, "\u0120outer": 8346, "orne": 9584, "\u0120WA": 27100, "\u0120iii": 37685, "\u0120residue": 16558, "\u0120mash": 48676, "\u0120liberal": 12773, "\u013a": 235, "Appendix": 31796, "\u0120Author": 10360, "\u0120deut": 38806, "sha": 20409, "boat": 27431, "\u0120parish": 25024, "\u0120hospital": 4675, "ie": 466, "609": 27059, "\u0120$[]$": 27655, "\u0120Plaintiff": 6043, "Earth": 38735, "\u0120plastic": 8013, "\u0120evaluate": 7472, "\u0120AF": 11854, "\u0120graft": 13684, "\u0120fut": 14484, "ported": 10750, "\u00ce\u00bf\u00ce\u00bb": 33211, "transl": 34881, "ARP": 37862, "Tal": 41520, "2014": 6759, "\u0120buried": 14205, "\u0120righteous": 28867, "NEXT": 30425, "\u0120raft": 42217, "\u0120ranch": 34034, "cond": 1038, "\u0120LR": 29718, "\u0120fuel": 7236, "rimin": 34673, "\u0120interviewing": 44235, "\u0120tyranny": 48320, "ochond": 9217, "ammat": 6710, "\u0120harmonic": 23007, "ithub": 6666, "orial": 10317, "\u00d0\u00b5\u00d0\u00b3\u00d0\u00be": 35712, "\u0120considering": 7296, "\u0120Paint": 41999, "vall": 42089, "\u00e5\u0135": 20833, "\u0120proble": 1409, "qt": 28221, "\u0120secular": 22884, "\u0120:-)": 32074, "\u0120raging": 48825, "Sit": 35678, "\u0120solution": 2900, "uv": 8962, "\u0120algebraic": 20157, "ized": 1025, "\u0120sulph": 33214, "Recall": 38418, "557": 38032, "\u0120Tue": 40915, "\u0120sharing": 9628, "charg": 10847, "\u0120Dist": 3656, "\u0120///": 6141, "\u0120Sisters": 46242, "\u0120Unique": 49116, "\u0120pass": 1509, "il": 300, "406": 24854, "\u0120Aurora": 39888, "\u0120Cont": 3267, "\u0120kann": 27772, "\u0120Feel": 35193, "\u0120primers": 17678, "\u0120extensions": 18149, "\u0120similarly": 12014, "\u0120stacks": 34577, "human": 13961, "\u0120downloaded": 20582, "\u0120Thor": 23077, "efficient": 20246, "\u012004": 16703, "\u0120holder": 17051, "Credit": 38482, "duty": 37163, "\u0120Fourteenth": 39056, "\u0120leakage": 23753, "\u0120mim": 13892, "\u0120exponent": 23653, "\u0120program": 2086, "Sim": 4749, "Tx": 29481, "[,": 34993, "\u0120norm": 5222, "rich": 5969, "\u0120swore": 42895, "\u0120Ex": 1889, "inkles": 43572, "\u00d5\u00b8": 50062, "\u0120crit": 2268, "\u0120radially": 44423, "\u0120{$": 37189, "lying": 2943, "\u0120Hol": 4716, "\u0120selector": 23434, "\u0120Okay": 19619, "\u0120da\u00c3\u0141": 38451, "07": 2922, "\u0120DL": 23707, "\u0120laid": 10090, "\u00e0\u00b8\u0123": 26265, "\u0120Guild": 33680, "Reason": 40722, "\u0120skinny": 42345, "\u0120Ub": 43899, "ucer": 48149, "PT": 5736, "\u0120-*-": 45180, "\u0120Russ": 3734, "483": 32282, "\u0120iod": 25723, "\u0120epoch": 23657, "\u0120\u00c5": 6078, "\u0120PUBL": 25095, "\u0120secrets": 20196, "\u0120Mean": 9601, "\u0120insurers": 42091, "\u00e7\u013f\u0122": 45111, "how": 5430, "etary": 12745, "039": 18832, "\u0120familiarity": 38550, "!,": 40928, "anchez": 31432, "ordered": 16586, "\u0120turbine": 27859, "\u0120noticing": 36307, "(+": 39525, "\u0120Laser": 40544, "\u0120autoc": 42436, "\u0120resolving": 30426, "\u0120progresses": 42851, "ellt": 47614, "\u0120LAP": 48869, "\u0120occurrence": 12340, "\u0120Hg": 29513, "\u0120hydrocarbon": 34736, "\u0120Are": 6272, "attr": 9573, "\u00c3\u0143": 1950, "external": 22108, "agency": 47746, "\u0120ultimate": 12553, "\u0120airplane": 33667, "GI": 23802, "\u0120bottles": 20321, "\u0120cri": 47032, "\u0120venom": 38222, "escape": 34189, "\u0120depicted": 17253, "ased": 833, "atz": 16859, "irubin": 42833, "abil": 5280, "rival": 49182, "\u0120testicular": 49734, "\u0120holding": 5877, "LIBR": 44169, "\u0120correlations": 13007, "\u0120concluding": 26215, "\u0120Wan": 49314, "ifically": 4452, "\u0120leader": 6657, "FIN": 29003, "\u0120stakes": 36309, "vier": 40714, "\u0120eats": 40724, "\u0120maxima": 49313, "\u0120It": 733, "itching": 31054, "\u0120345": 32670, "plement": 3018, "\u0120micro": 2494, "\u0120constitute": 12647, "swer": 22304, "Encoding": 25396, "\u0120kommer": 33045, "\u0120omega": 40639, "\u0120specializes": 46259, "ones": 2487, "IO": 6527, "izzard": 40304, "\u0120reopen": 37605, "\u0120tung": 49128, "Chat": 33731, "\u0120condem": 14502, "Mon": 9304, "\u0120challenged": 14870, "\u0120Tak": 23161, "\u0120oppose": 25437, "\u0120Transport": 26396, "locked": 30730, "\u0120Fas": 38777, "\u0120IRA": 36496, "far": 14103, "528": 42949, "\u0120Nicolas": 46312, "\u0120buzz": 23357, "\u0120championship": 15730, "\u0120Zam": 50017, "\u0120store": 4657, "|-": 9973, "\u0120>>": 11396, "\u0120fis": 14654, "\u0120Stop": 21305, "503": 26906, "\u0120Vancouver": 22126, "itating": 27427, "cyt": 36824, "\u0120!==": 20767, "\u0120Step": 18952, "FK": 27168, "\u0120SDK": 30500, "\u0120regiment": 35214, "\u0120BH": 28789, "\u0120unit": 3943, "\u0120cere": 9731, "boldmath": 19747, "\u0120\u00ec": 7775, "\u0120axle": 49435, "umann": 25331, "\u00bf": 125, "itus": 13865, "\u0120assume": 5467, "natural": 19293, "\u0120retrieve": 19553, "icester": 38673, "vert": 1748, "LAS": 40075, "CRP": 41836, "\u0120Iraq": 9256, "\u0120teams": 6671, "\u0120injecting": 42014, "\u00dd": 153, "GR": 6217, "TIOC": 44595, "\u0120annotated": 28267, "\u0120want": 971, "\u0120carcinoma": 12382, "\u0120Gru": 47976, "jected": 6499, "isible": 16802, "\u0120Jess": 18827, "\u0120role": 2554, "Grid": 15099, "kow": 49036, "\u0120secur": 3769, "\u0120Pump": 49011, "\u0120Sach": 33377, "\u0120Abu": 26957, "\u0120Cec": 31661, "ruck": 32068, "\u0120seen": 2326, "\u0120pessim": 45234, "\u0120rejection": 18235, "\u0120song": 4498, "ibraries": 11569, "irie": 34891, "placement": 26380, "\u0120gaze": 15944, "US": 3016, "\u0120systematically": 24181, "\u0120roared": 49876, "\u0120ag": 639, "\u0120strom": 25542, "\u0120emerged": 13082, "\u0120obscured": 45650, "\u0120hard": 1892, "aussian": 12064, "\u0120dismissed": 11511, "ends": 1727, "164": 18467, "\u0120accomplishments": 40243, "IMP": 40921, "bbie": 48036, "ancing": 6816, "\u0120juices": 44253, "\u0120probably": 3164, "vict": 40312, "\u0120Olson": 49849, "091": 44238, "Protocol": 26692, "\u0120contents": 9410, "GridView": 48618, "responding": 29078, "orer": 14071, "\u00c2\u00bf": 12402, "\u010a\u0120\u0120\u0120\u0120\u0120\u0120\u0120\u0120\u0120\u0120\u0120\u0120\u0120\u0120\u0120\u0120\u0120\u0120\u0120\u0120\u0120\u0120\u0120\u0120\u0120\u0120\u0120\u0120\u0120\u0120": 22597, "\u0120-----------------": 22971, "\u0120Protein": 20112, "necessary": 13142, "\u0120800": 14212, "ASS": 7810, "idity": 14283, "CLUDING": 20758, "\u0120Melbourne": 21818, "952": 39621, "imetry": 41696, "\u0120Sweet": 26048, "\u0120metam": 42281, "\u0120Recommend": 42683, "\u0120Dud": 45673, "\u0120rac": 7393, "\u0120aggravating": 43948, "\u0120retain": 13280, "\u0120topical": 32323, "\u0120Baseline": 41258, "Sz": 46840, "\u0120centered": 18932, "\u0120breed": 21876, "\u0120Mush": 48905, "\u0120fmt": 21081, "onald": 6540, "^.": 20225, "\u0120University": 2499, "\u0120protests": 18162, "\u0120(%": 26607, "fil": 5073, "ostatic": 48051, "\u0120arrangements": 16669, "\u0120negotiations": 16685, "\u0120enables": 13276, "\u0120BTC": 47118, "\u0120spat": 7046, "within": 24767, "\u0120showcase": 34647, "\u0120crushing": 37625, "\u0120----": 18218, "cur": 1915, "\u0120convergence": 14940, "\u010a\u0109\u0109\u0109\u0109": 2664, "\u0120Polish": 19701, "ulsive": 22480, "-$": 14595, "plicial": 40869, "\u0120uploaded": 28228, "\u00e3\u0125\u012b": 32935, "\u0120predators": 36207, "mode": 9561, "Elements": 25170, "\u0120objet": 40954, "\u0120Priest": 41701, "\u0120mis": 3731, "sold": 42022, "\u0120surplus": 30868, "\u0120PhD": 23011, "Virtual": 32170, "\u0120Ele": 13173, "\u0120pairing": 25015, "\u0120wp": 39648, "\u0120EL": 11642, "ronic": 3462, "\u0120Database": 20421, "\u0120demanded": 15665, "afka": 31393, "\u0120milling": 49946, "ACT": 11645, "\u0120storing": 20073, "ession": 2738, "\u00e7\u00b3": 37679, "\u0120vertical": 9118, "\u0120beverage": 32715, "\u00e5\u0131\u00b7": 41015, "\u0120Rep": 2719, "\u0120Zar": 41379, "liner": 41904, "\u0120avatar": 49530, "\u0120percentage": 7155, "plain": 19104, "\u0120employ": 2126, "\u0120fam": 1431, "plicit": 20692, "trans": 3675, "lington": 25185, "\u0120Keys": 38793, "iOS": 46716, "Lean": 46959, "\u0120wolf": 25872, "\u0120lesser": 16277, "\u0120mapped": 18301, "ilder": 6741, "\u00e5\u0132\u0130": 29427, "\u0120Contin": 12329, "\u0120investing": 23415, "\u0120[(": 21810, "\u0120suffices": 31088, "\u0120Cemetery": 36839, "oga": 13703, "\u0120estimated": 5998, "\u0120Bio": 16181, "\u0120Bever": 31508, "\u0120faulty": 40249, "\u0120teacher": 9732, "ITEM": 45129, "\u0120Champion": 31575, "\u0120bri": 45633, "\u0120FK": 46789, "\u0120\u00c2\u00b5L": 44957, "secured": 41480, "\u0120JE": 48597, "Proc": 29319, "\u0120stipulation": 41626, "\u0120survey": 6630, "ashes": 13539, "goto": 18026, "\u0120Kar": 12604, "equals": 22297, "\u00e5\u012c": 11043, "\u0120stro": 16953, "abetes": 24298, "\u0120probation": 19077, "\u0120blowing": 24935, "stead": 26463, "\u00e3\u0123\u00b0": 30723, "ferentially": 32432, "BER": 15051, "HT": 5324, "DN": 29681, "foreign": 37380, "\u0120select": 3609, "\u0120GCC": 42777, "\u0120beauty": 10763, "\u0120cytoplasm": 15848, "rys": 23155, "\u0120Practice": 23208, "\u0120Bapt": 24425, "ropical": 29289, "opian": 40113, "pmod": 44813, "\u0120Invoice": 49427, "\u0120spl": 6821, "\u0120naive": 27785, "\u0120NSW": 40035, "ilipp": 14134, "\u0120Higher": 23230, "\u0120triangular": 29740, "PLC": 21271, "\u0120Campaign": 27069, "\u0120grinding": 33046, "\u0120disparity": 37808, "\u0120Trading": 40046, "\u0120Indy": 49893, "Atl": 34944, "Best": 17277, "\u00e3\u0123\u0126": 5151, "\u0120publishing": 18051, "ancellor": 23563, "\u0120dispers": 15218, "imming": 34282, "AY": 8506, "]);": 9259, "}})": 12104, "Probably": 37161, "\u0120Sounds": 41900, "Corn": 43755, "\u0120differentially": 21673, "\\\\\\": 45677, "\u0120shorts": 32353, "\u0120Sanct": 49787, "pf": 18569, "\u0120EOS": 46569, "\u0120He": 754, "\u0120Malaysian": 48191, "ule": 1657, "\u0120t\u00c3\u00a4": 31234, "team": 22035, "ateral": 7476, "\u0120Calculate": 6762, "\u00e7\u00b7": 38675, "\u0120TeV": 39784, "\u0120having": 1907, "Mapping": 27220, "\u0120deprived": 25979, ".\";": 45974, "\u0120Face": 28801, "Ol": 33319, "NEY": 40740, "\u0120males": 10798, "\u0120ES": 15459, "ours": 2108, "eland": 15235, "960": 38049, "\u0120hen": 23394, "\u0120does": 1057, "\u0120neo": 28522, "\u0120graphene": 23076, "\u0120halo": 20674, "pending": 33965, "\u0120acquiring": 28635, "wat": 16526, "Fac": 39965, "\u00d0\u00b8\u00d1\u0129": 18565, "poon": 21880, "\u0120hypertensive": 41039, "\u00e5\u013b": 32053, "954": 41643, "yield": 41770, "\u0120tunnels": 37285, "\u0120accomplishment": 42285, "\u0120MRSA": 45602, "chev": 45627, "\u0120mast": 20971, "ullah": 32619, "\u0120Bitmap": 50192, "itors": 5109, "otropic": 32801, "\u00e1\u00bb\u0125": 41314, "\u0120worth": 4409, "playing": 30758, "ppler": 26005, "agin": 26093, "\u0120disast": 35847, "\u0120372": 38891, "\u0120avons": 48335, "\u0120Somers": 41874, "licts": 37693, "\u0120Path": 12899, "\u0120stir": 10576, "\u0120God": 2656, "\u0120admitting": 28168, "fet": 39792, "\u0120Operations": 27037, "\u0120large": 1781, "\u0120CAP": 21141, "\u0120potentially": 7826, "\u0120splend": 29428, "\u0120deceit": 48548, "weak": 20881, "\u0120Som": 27516, "unicode": 44054, "\u0120Emerson": 49243, "\u0120met": 1313, "ithm": 18136, "\u0120ample": 24904, "secret": 22882, "\u0120vert": 5765, "\u0120479": 41372, "ricane": 21879, "\u0120scream": 12452, "\u0120Hughes": 24008, "\u00e5\u012a\u0139": 44157, "\u0120astrocytes": 35622, "\u0120vig": 13271, "\u0120textile": 44383, "\u0120similarity": 14259, "\u0120Cx": 49050, "519": 49582, "*]{}.": 26119, "\u0120Men": 9730, "\u0120alongside": 12936, "\u0120preference": 14682, "\u0120ultras": 17741, "buk": 41554, "\u0120PDT": 46502, "\u0120technology": 4302, "\u0120exploits": 40725, "DK": 49462, "\u0129": 218, "010": 9104, "\u0120plates": 10855, "\u0120Andr\u00c3\u00a9": 49260, "\u0120shirts": 32622, "\u0120preceded": 29920, "IPS": 24748, "jek": 32374, "\u0120sections": 7118, "args": 8854, "WW": 26562, "\u0120filters": 15116, "erves": 19085, "\u0120statist": 5227, "\u0120introduce": 9569, "\u0120cho": 2093, "\u0120Next": 10209, "bd": 14836, "SIG": 22963, "imi": 23611, "usa": 26407, "\u0120blessing": 26569, "\u0120mundo": 30751, "\u0120Corn": 14656, "\u01201935": 29175, "detect": 33492, "asket": 20253, "\u0120Output": 24882, "xxx": 25887, "\u0120asymptotically": 38311, "opo": 38332, "*.": 4556, "\u0120bec": 791, "\u00e5\u00b7\u00a5": 41869, "\u0120bedside": 46922, "\u0120uncomfortable": 20032, "tfn": 24750, "\u0120unnatural": 44822, "AIDS": 38281, "guy": 26619, "\u0120recursive": 33037, "\u0120April": 4162, "mitted": 3004, "\u0120transition": 5502, "\u0120coconut": 26770, "Blocks": 43865, "ruitment": 47047, "\u0120trial": 2332, "resize": 35621, "\u0120HOWEVER": 49457, "0125": 49464, "\u0120Sug": 46815, "\u010a\u010a\u0120\u0120\u0120\u0120\u0120\u0120": 6530, "........": 5638, "fected": 5925, "652": 36681, "\u0120dramatically": 16821, "orph": 4048, "RUN": 29537, "\u00c3\u00a8": 3539, "\u0120couples": 17581, "\u0120Bert": 21804, "jj": 22492, "\u0120admire": 26930, "\u0120Ik": 31860, "********": 2015, "hift": 32190, "Speaking": 28326, "sin": 7432, "rec": 2845, "graph": 10580, "tow": 32289, "Sto": 36549, "ymph": 6011, "\u0120Present": 23952, "health": 15356, "rm": 1109, "\u0120postseason": 49982, "km": 10294, "\u00e5\u0132\u012a": 24168, "214": 21866, "\u0120doubt": 5545, "\u00e6\u00ac": 25715, "\u0120Hunter": 20189, "\u0120cant": 16216, "rails": 40451, "\u0120attenuated": 26513, "\u0120Maurice": 35544, "bib": 2383, "etition": 2930, "\u00e3\u0123\u00a7\u00e3\u0124\u0124": 45776, "\u0120tries": 14177, "Actor": 49925, "appoint": 9626, "adel": 11391, "\u0120relic": 34787, "mx": 26652, "arton": 43626, "\u0120deleterious": 42019, "\u0120$<$": 43736, "management": 26454, "\u0120stabilize": 33292, "\u0120ligation": 43854, "\u00e3\u0123\u00be\u00e3\u0123\u013d\u00e3\u0124\u0135": 46212, "\u0120Odd": 43871, "\u0120bulge": 44218, "doesn": 48724, "\u0120actor": 12353, "opor": 29606, "\u0120\u00d0\u0136": 31989, "\u0120detention": 22680, "055": 26881, "adows": 16044, "uis": 25338, "HO": 23435, "\u0120consequent": 40082, "\u0120curiam": 43215, "flip": 43272, "\u0120Nav": 8221, "\u00e7\u0124\u00b9": 29734, "ed": 264, "\u0120DH": 22886, "\u0120endemic": 31401, "\u0120trainer": 33837, "\u0120Derek": 36312, "\u0120285": 27360, "Certainly": 43954, "osite": 4547, "backup": 45978, "inherit": 45990, "\u0120wieder": 46473, "oultry": 30711, "\u0120relaxation": 17040, "\u0120statewide": 41366, "643": 31730, "\u0120Site": 17855, "\u0120Double": 18603, "\u0120Bulletin": 48805, "rather": 30786, "\u0120[];": 26991, "Name": 2402, "coupled": 40952, "Columb": 44265, "740": 44449, "\u0120comput": 2475, "Component": 12118, "}}}^{": 37450, "\u0120lesions": 10429, "\u0120opt": 1478, "lers": 10787, "\u0120allocation": 17621, "\u0120en": 546, "\u0120Rand": 18250, "\u0120cartridge": 28719, "\u0120capabilities": 13789, "\u0120Clifford": 42593, "\u0120desires": 21044, "}$": 724, "\u0120investment": 8149, "iles": 3205, "itions": 4431, "undle": 8054, "pert": 8292, "Section": 12612, "\u0120\";": 36417, "\u00e2\u0123\u0126": 40859, "bast": 24785, "\u0120peu": 27749, "\u0120Hampton": 41426, "\u0120MH": 32322, "\u0120Anne": 17467, "\u00c2\u00b7\u00c2\u00b7\u00c2\u00b7": 37269, "determ": 18916, "\u0120apparent": 5165, "pass": 5858, "\u00c4\u013b": 10060, "\u0120Quant": 12597, "\u0120athlete": 27799, "\u0120parte": 17532, "\u00c3\u00a4\u00c3\u00a4": 15175, "\u0120Standard": 12144, "\u00d0\u00bb\u00d0\u00b0": 36593, "separ": 16806, "\u0120bapt": 29767, "rav": 3385, "\u0120comeback": 41759, "\u0120equilibrium": 12902, "\u0120Brother": 14533, "oon": 3508, "\u0120mang": 19695, "eti": 45537, "que": 1452, "\u0120magnet": 10973, "\u0120jokes": 26984, "idad": 10045, "bial": 11588, "Lemma": 35439, "\u00e5\u012f\u0123": 37657, "ibrated": 50250, "\u0120size": 1979, "posite": 26343, "perp": 14715, "\u0120tout": 14078, "tube": 34995, "\u0120raids": 39395, "771": 40379, "\u0120Edu": 43826, "\u0120biochemical": 19183, "\u0120quarks": 35608, "thus": 40622, "Health": 19895, "\u0120PCa": 47702, "rolog": 9490, "fare": 17937, "Cost": 25997, "said": 26357, "894": 37493, "\u0120counter": 4828, "OW": 4290, "\u0120ranc": 50008, "\u0120idle": 27473, "\u0120Sharp": 36540, "\u0120reside": 28932, "Invitrogen": 29166, "broken": 30229, "\u0120Fair": 12772, "Hang": 49026, "cha": 13420, "\u0120Animal": 18630, "\u0120134": 13900, "Soon": 39382, "\u0120Alexander": 13651, "\u0120renov": 30074, "\u0120tiss": 3375, "\u0120cate": 32439, "\u0120achieved": 6786, "\u0120Life": 7813, "category": 14267, "\u0120Jerome": 44495, "Central": 33339, "\u0120CONCLUSION": 49950, "library": 17921, "Scroll": 23772, "\u0120fitting": 13532, "\u0120PROP": 41630, "Sender": 47099, "\u0120Gem": 28540, "While": 6175, "inger": 4940, "\u0120formulations": 26850, "\u0120covenant": 33043, "\u0120statues": 38490, "\u00e1\u00ba": 9702, "\u0120Own": 20659, "\u0120obviously": 9090, "\u0120bacteria": 9574, "yg": 11550, "\u0120Website": 25729, "\u0120Sund": 28767, "\u0120servers": 14903, "\u0120denotes": 12853, "namespace": 12361, "\u0120encryption": 24589, "\u0120Cy": 12552, "\u00e6\u0142": 15756, "\u0120junk": 26246, "Patient": 31630, "\u00e6\u012f\u00ae": 32130, "\u0120assist": 10073, "\u0120Plato": 36353, "const": 3474, "ygon": 37325, "\u0120slick": 38514, "\u0120*/,": 33701, "\u00d0\u0137": 41086, "\u0120Greater": 28319, "gressive": 11020, "sequ": 2346, "\u0120Fields": 28679, "renn": 32634, "\u0120Al": 1219, "\u0120Friedman": 38734, "REQ": 41819, "Kay": 46845, "MSO": 24469, "\u0120viv": 25898, "\u0120poisoned": 47494, "\u0120quelques": 47804, "ooting": 22933, "\u00d0\u00b5": 1207, "Population": 48705, "RAF": 40846, "summary": 8774, "\u0120exceed": 8268, "Variables": 48439, "Decode": 46057, "\u0120Ordin": 43795, "uma": 9307, "cester": 27449, "\u0120ank": 18282, "ley": 2205, "\u0120Soviet": 12194, "\u0120pier": 18753, "LED": 23167, "\u0120existence": 6242, "\u0120homosexual": 29721, "ifornia": 4729, "Subject": 18961, "\u0120HI": 31716, "\u0120eth": 5105, "\u0120tired": 11870, "\u0120absurd": 20873, "\u0120instantly": 18319, "\u0120annihilation": 37290, "\u0120JUD": 39953, "ract": 974, "\u0120valve": 11059, "\u0120uncontrolled": 42915, "\u0120drilled": 46721, "\u0120vodka": 49469, "c": 68, "\u0120cataly": 19889, "\u0120heritage": 21904, "0002": 12603, "black": 11958, "\u0120cursed": 39349, "\u0120Reich": 30674, "\u0120Budapest": 50086, "\u0120475": 34581, "._": 3333, "${\\": 29152, "Decimal": 44430, "\u0120Est": 8464, "kins": 7232, "\u0120Shared": 38480, "immer": 22369, "sidebar": 41315, "CH": 2775, "\u0120inscription": 45676, "\u0120discussion": 5955, "ometown": 33448, "\u0120Angels": 36580, "\u0120rgb": 46206, "\u0120Concord": 47594, "channel": 13695, "hao": 31035, "ittest": 44713, "kot": 46841, "ences": 2979, "\u0120poss": 1290, "\u0120paddle": 44432, "substack": 35547, "\u0120striking": 13631, "acia": 22622, "\u0120Marion": 38502, "\u0120CVD": 30243, "\u0120Parts": 41371, "\u0120Pos": 19353, "\u0120Aid": 38649, "opher": 12679, "\u0120thirty": 10488, "Pak": 39270, "\u0120Weaver": 45226, "\u0120Welsh": 29630, "PAR": 10845, "ified": 1245, "\u0120femin": 19026, "\u0120infrastructure": 11319, "erals": 23680, "\u0120145": 19092, "verte": 31861, "\u0120freshwater": 45199, "ething": 1526, "lander": 31457, "interacting": 47787, "\u0120grasping": 48635, "\u0120inmate": 34079, "\u0120hazards": 29952, "\u0120deline": 30191, "\u0120plane": 6415, "Tom": 15883, "\u0120Pick": 20745, "Review": 18658, "\u0120WM": 22209, "\u0120blot": 12585, "analytic": 42567, "\u0120LIFE": 49367, "pero": 49822, "REE": 12241, "registry": 31007, "readable": 25285, "ursed": 43376, "GroupName": 48975, "\u0120constituting": 38015, "gone": 22203, "\u0120influx": 32682, "\u0120humanitarian": 30122, "\u0120cation": 27201, "\u0120endorsement": 32116, "\u0120arrive": 12666, "\u0120mer": 4285, "ilo": 23353, "\u0120Excel": 24252, "fered": 3850, "\u0120convict": 35171, "\u0120fe": 704, "cheat": 40510, "\u0120figur": 43888, "\u0120Carol": 7618, "indow": 2174, "\u0120tradition": 4062, "046": 26857, "\u0120Hopefully": 33581, "1987": 15089, "\u0120leads": 5644, "\u0120concomit": 26459, "\u0120disjoint": 28465, "\u0120Acts": 34013, "Property": 8324, "\u0120generated": 4561, "\u0120bubble": 19251, "\u0120decir": 39048, "\u00e3\u0123\u00ae": 3917, "BYTE": 40231, "\u0120Saddam": 42795, "\u0120renovation": 45081, "\u0120fueled": 45511, "\u0120utilities": 28275, "\u0120col": 847, "\u0120according": 2556, "\u0120alternative": 5795, "\u0120SELECT": 23235, "\u0120Bcl": 33164, "\u0120378": 38316, "\u0120Examination": 43071, "\u0120operations": 5871, "\u0120\u00ce\u00b5\u00cf\u0122\u00ce\u00b9": 49929, "\u0120grup": 50242, "addam": 39122, "\u0120magic": 10721, "\u0120cereb": 42635, "ulent": 13543, "\u0120consolidated": 33114, "\u0120vibe": 45700, "\u0120comic": 17478, "\u0120VC": 29640, "\u0120teammate": 43827, "\u0120OCT": 36171, "\u0120cpu": 27754, "zez": 48385, "ipped": 6390, "\u0120gray": 11978, "\u0120asp": 29781, "\u0120363": 36813, "\u00e2\u0122\u0132": 3250, "\u00c2\u00bc": 11199, "\u0120Curtis": 32324, "\u0120performs": 17923, "istory": 5934, "ming": 3987, "ostream": 33203, "\u0120mat": 1111, "\u00d1\u0125\u00d1\u0122": 29366, "\u0120mix": 5878, "\u0120tendon": 33618, "\u0120sprint": 29644, "\u0120Korea": 9733, "\u0120Eph": 41504, "\u0120courts": 7829, "\u0120aluminum": 17454, "\u0120lineup": 25775, "\u0120Via": 29482, "!).": 30970, "\u0120Hua": 45108, "\u0120Stephens": 48015, "ativ": 13490, "banks": 49069, "\u0120chasing": 31702, "itud": 7128, "zc": 35759, "\u0120Static": 48435, "\u0120modifications": 14586, "\u0120Sect": 33743, "\u0120humanity": 16457, "\u0120fuck": 7435, "\u0120replacements": 47105, "\u0120\u00c3\u00a9p": 45431, "Available": 31130, "\u0120liberty": 17843, "\u0120eliminate": 13469, "\u0120GF": 33952, "orses": 11092, "ringer": 47761, "NL": 19214, "\u0120slam": 48041, "\u0120scler": 49253, "\u0120Churchill": 27961, "\u0120imposing": 23254, "can": 5092, "\u0120resonance": 12549, "ivil": 3823, "758": 33607, "nj": 43498, "1024": 31111, "\u0120alpha": 9765, "\u00c2\u0124": 8381, "\u0120appointment": 14286, "\u0120assumes": 19584, "\u0120towards": 4404, "exp": 4347, "\u0120Night": 12972, "\u0120catast": 22476, "added": 22566, "\u0120screening": 9273, "\u0120167": 22743, "server": 9438, "\u0120COPYRIGHT": 28827, "\u0120represented": 6607, "\u0120od": 7687, "\u0120Bot": 28469, "\u00d0\u00b5\u00d0\u00b6": 30826, "\u00e6\u012e": 18245, "it\u00c3\u00a9": 11272, "h": 73, "\u0120Jud": 4268, "\u0120hesitate": 32379, "ountain": 24726, "eg": 909, "uth": 3097, "ULTS": 34077, "\u0120ff": 34082, "\u0120natur": 42156, "\u0120Payment": 42659, "iast": 43143, "\u0120Guarant": 43646, "\u0120testis": 49034, "ographs": 25446, "Translation": 50208, "\u0120Ethereum": 38956, "\u012039": 6931, "\u0120sl": 1499, "\u0120engagement": 13226, "\u0143": 244, "\u0120\u00c3\u00ba": 16438, "\u0120rational": 8870, "\u0120*(": 25880, "\\$": 35153, "\u0120turkey": 34112, "\u0120haben": 25433, "\u0120quarterly": 42886, "\u0120ocular": 32791, "\u0120Estado": 43188, "\u0120possess": 7081, "copy": 12557, "rais": 21269, "\u0120Down": 9792, "\u0120cool": 4484, "\u0120230": 20504, "west": 8535, "\u0120discretion": 8637, "uvant": 29304, "igen": 3855, "\u0120lay": 2242, "\u0120wishes": 16995, "\u0120regener": 23999, "\u0120\u00c2\u00bf": 25769, "\u0120implementations": 27558, "\u0120councill": 46395, "\u0120deceive": 49768, "url": 6434, "\u0120nons": 14122, "})=": 19002, "deficient": 25652, "\u0120feet": 4669, "\u0120shud": 35928, "\u0120until": 1919, "\u0120ends": 7637, "flags": 12790, "ustainable": 36148, "\u0120resolved": 11512, "\u0120feels": 9193, "ovation": 21373, "oter": 31387, "\"(": 31770, "asma": 5614, "\u0120laboratory": 9965, "\u0120324": 32479, "\u0120cripp": 35956, "woods": 48853, "Ratio": 44700, "\u0120wie": 21650, "utative": 23996, "nyder": 38192, "External": 7504, "\u0120cig": 11721, "\u0120metaphysical": 47983, "\u0120touchdown": 22443, "\u00d8\u00b4": 22814, "zi": 9877, "rin": 11078, "\u0120aggregates": 29111, "\u0120elements": 3603, "dered": 3466, "\u0120wheat": 18173, "\u0120247": 28875, "\u0120Catholics": 33097, "\u0120sons": 15196, "width": 3429, "Republic": 32050, "arat": 47310, "\u0120plight": 47142, "lings": 13713, "\u0120appeals": 12527, "several": 43249, "erialize": 44350, "session": 12426, "col": 2052, "\u0120likewise": 21223, "ABC": 25647, "ieurs": 45715, "\u0120briefly": 13366, "\u0120pric": 14306, "\u0120550": 28564, "\u0120Bootstrap": 47720, "\u0120unve": 24973, "\u0120Tibet": 27061, "\u0120aliens": 28840, "\u0120strengths": 20544, "\u0120analyses": 6260, "\u0120spun": 28087, "\u0120beaten": 20698, "\u0120downstairs": 30854, "\u0120formulate": 36803, "dong": 45689, "feld": 25281, "\u0120unatt": 39152, "Money": 42066, "\u0120Tut": 50016, "six": 17182, "ark": 782, "33": 1610, "\u00ce\u00bf\u00cf\u0127": 8520, "\u0120tablespoons": 18850, "ils": 3683, "\u0120counties": 21813, "\u0120Gust": 33746, "\u0120implies": 8018, "\u0120veget": 8466, "abo": 40826, "\u0120breaking": 10155, "\u0120Sprint": 41058, "\u0120quanto": 41518, "In": 688, "\u00c2\u0126": 13854, "\u0120Mens": 33582, "\u0120yell": 42963, "\u0120RAS": 47297, "\u012053": 8676, "\u0120sockets": 47611, "\u0120monot": 26734, "station": 20502, "\u0120delegates": 30679, "rings": 32226, "\u0120reun": 27135, "\u0120arte": 39624, "\u0120growled": 49994, "KG": 47383, "\u0120cruc": 29325, "conviction": 29836, "\u0120(*": 2796, "\u0120cancell": 15166, "\u0120\u00c3\u00a1": 21079, "Camp": 25046, "Federal": 35535, "\u0120Gul": 43484, "notations": 42788, "thereum": 36376, "ouin": 44818, "mathrsfs": 8828, "\u0120ranging": 12319, "^\u00e2\u012a\u0134/\u00e2\u012a\u0134": 23286, "\u0120burner": 50078, "\u012007": 18188, "ibles": 23229, "California": 30971, "\u00d0\u00b8\u00d0\u00b9": 18664, "\u0120extra": 4465, "\u0120wip": 18967, "\\_[": 13380, "\u0120mask": 8989, "116": 13210, "\u00e4\u00bb\u00ac": 23788, "Six": 25347, "\u0120planes": 16340, "\u0120legislators": 37244, "\":[\"": 46576, "ionage": 49093, "chat": 23481, "\u0120isoforms": 30246, "treatment": 21272, "communication": 35437, "\u0120dermal": 48381, "================================": 4578, "\u0120loose": 13155, "\u0120Peer": 48091, "\u0120Thomas": 7195, "\u0120spont": 13176, "Around": 37198, "\u0120Hitler": 18816, "\u00e2\u0122\u00a6]": 20095, "\u0120Biological": 35210, "\u0120chr": 41934, "\u0120temporarily": 20220, "\u0120Zur": 41397, "\u0120vanishes": 27309, "\u0120unlocked": 37572, "Sunday": 27180, "\u0120rejo": 27326, "\u0120conceded": 30245, "\u00d0\u0142": 39082, "\u0120governance": 25978, "\u0120heavily": 11306, "CBS": 42866, "Emb": 30731, "\u0120authors": 4477, "\u0120adherence": 19471, "capacity": 37473, "\u0120Teachers": 43048, "\u0120clustered": 29102, "\u0120Husband": 49226, "411": 33775, "\u0120questioned": 17801, "odegrad": 42059, "----------------------------------------": 36960, "\u0120delight": 12725, "Sync": 27902, "\u0120TODO": 24202, "vart": 21531, "iginal": 10019, "plantation": 38484, "DEFAULT": 25409, "\u0120Hall": 6696, "game": 13197, "EQ": 19090, "\u0120districts": 16475, "\u0120cad": 18072, "\u0120supplemented": 19079, "0009": 24133, "\u0120slices": 18484, "July": 20443, "\u0120parole": 22640, "\u0120heel": 27770, "leigh": 34460, "ivism": 42339, "\u0120541": 39522, "planned": 44752, "tig": 46362, "aban": 23818, "\u0120slaughter": 30814, "\u0120repay": 29216, "\u0120sticky": 31714, "kil": 40408, "\u0120Symbol": 42653, "dens": 23624, "\u0120disseminated": 48313, "\u0120playwright": 48605, "\u0120conscient": 49307, "\u0120Birds": 43328, "\u0120Germ": 3323, "Hope": 24004, "married": 38982, "anging": 5610, "\u00e5\u00b9\u00b6": 42843, "alar": 45825, "\u00e8\u0126": 43641, "\u0120ADD": 38313, "\u0120easiest": 24746, "\u0120Cors": 49480, "\u0120taxes": 10474, "\u0120NJ": 11356, "\u010a\u0109\u0120": 17982, "\u0120biases": 31306, "POL": 34948, "\u0120gels": 31669, "blocking": 43883, "726": 49510, "440": 31543, "\u0120prog": 23995, "warning": 28207, "\u0120Experiments": 38166, "\u0120branch": 7789, "asek": 47104, "\u0120queue": 15154, "\u0120Sandra": 43785, "\u0120intelligent": 17497, "\u0120Petersburg": 34592, "\u0120fright": 15872, "ako": 18956, "alle": 4781, "sters": 13297, "existent": 46408, "\u0120neighboring": 20667, "bid": 7299, "\u0120depressed": 23201, "\u0120quotes": 19101, "Report": 20684, "\u0120bodily": 23989, "vous": 30571, "\u00bb": 121, "\u0120rookie": 29938, "\u0120herds": 47862, "\u0120retardation": 48112, "\u0120defeats": 49204, "sigma": 2592, "\u0120detailed": 7000, "itate": 17255, "glyph": 43428, "\u0120PA": 8010, "iratory": 10767, "\u0120legisl": 8269, "\u0120brows": 22931, "\u0120organizers": 37630, "\u0120ensure": 5416, "\u0120xcex": 34833, "\u0120subclass": 35851, "\u0120vaccine": 12538, "\u0120frequ": 2549, "\u0120irregular": 17948, "\".\"": 43196, "\u0120Dante": 42753, "\u0120impedance": 27853, "\u00c3\u00a1g": 31076, "Shape": 26403, "stit": 2376, "bread": 31212, "\u0120Walker": 16156, "CRT": 44059, "\u0120benchmarks": 49602, "847": 49830, "\u0120polic": 6382, "\u0120drugs": 5835, "\u0120labels": 13301, "compass": 16452, "\u0120Take": 11668, "\u0120rit": 14567, "arently": 18286, "\u00e3\u0123\u00aa": 6686, "\u0120Leban": 22514, "\u0120194": 26771, "existing": 20137, "\u0120Boat": 44522, "oppel": 28820, "\u0120FB": 30284, "\u0120erred": 14416, "amming": 28444, "\u0120started": 3053, "\u00e7\u00ab": 22701, "\u00e8\u0129": 16787, "oys": 16376, "ape": 2259, "\u0120Lau": 18894, "\u0120sized": 25180, "\u0120Voice": 28922, "\u0120jets": 24825, "\u00e9\u0129\u012f": 34698, "\u0120Preparation": 45221, "blur": 49857, "\u0120respons": 2539, "cf": 7836, "\u0120alien": 14165, "\u0120effected": 37099, "otions": 47839, "\u0120indicates": 6492, "\u0120notion": 10732, "\u0120collaboration": 14448, "astom": 36769, "\u0120exile": 33927, "\u0120EMS": 44055, "orange": 35270, "ENN": 47791, "\u0120kat": 45470, "\u0120donkey": 49695, "particip": 44475, "ocus": 2423, "\u0120drawback": 32489, "\u0120translates": 30376, "\u0120semiconductor": 10236, "\u0120Ped": 16868, "ograph": 2047, "\u0120map": 3711, "\u0120aesthetic": 24624, "\u00e7\u012a": 42025, "\u0120mildly": 38920, "thead": 45826, "itive": 1483, "Iter": 15628, "\u0120prisoners": 16154, "\u0120Paradise": 40577, "\u0120footnote": 43302, "\u0120bac": 45003, "ostatin": 49897, "\u0120coach": 8690, "\u0120Trail": 21832, "ior": 1528, "840": 38586, "\u0120Eddie": 27238, "\u0120usefulness": 31471, "\u0120Jo": 8174, "\u0120tenants": 31842, "\u0120Huntington": 49098, "\u0120ub": 12980, "\u0120Rh": 11537, "\u0120Dave": 16908, "Getting": 27347, "\u0120WILL": 22268, "arson": 20100, "zel": 21608, "pleted": 22631, "going": 5681, "\u0120allocated": 18564, "\u0120symmetry": 10377, "\u0120Dark": 14182, "partial": 3214, "\u0120el": 1045, "\u0120ly": 12865, "\u0120einem": 29840, "\u0120mug": 33222, "\u0120anisotropic": 35319, "\u0120Fc": 34858, "\u0120believers": 35922, "\u0120obliv": 38611, "Touch": 29330, "kc": 39745, "\u0120novelist": 42250, "\u00e3\u0123\u0139\u00e3\u0123\u0126": 46016, "\u0120ab": 490, "ive": 422, "\u0120agent": 5570, "\u00c3\u00a9g": 16266, "\u0120Adjust": 29702, "\u0120concessions": 44488, "\u0120nort": 20558, "\u0120Gunn": 46511, "\u0120FACS": 48457, "GS": 10339, "\u0120skeleton": 29564, "\u0120meetings": 12225, "VALID": 46330, "\u0120REST": 30392, "\u0120Th": 596, "\u0120softened": 39451, "\u0120innocence": 28667, "\u0120varies": 16149, "\u0120Clause": 26377, "\u00d0\u00bd\u00d1\u012d\u00d0\u00b9": 29729, "\u0120Ca": 6047, "Xi": 21416, "request": 9629, "ICA": 23296, "\u0120panc": 13785, "\u0120curative": 46876, "zent": 49738, "\u012056": 8026, "\u0120complexes": 12872, "\u0120Without": 12414, "\u0120muy": 28309, "\u00e3\u0123\u0141\u00e3\u0124\u0123": 44912, "\u0120partnered": 47199, "\u0120limited": 3710, "\u0120around": 1475, "\u0120speaker": 14925, "quilibrium": 48494, "\u0120EDIT": 17675, "\u0120occ": 1609, "\u0120functionality": 13175, "interface": 15049, "\u0120nucleotide": 18379, "\u0120[**": 4299, "\u0120detection": 5481, "\u0120Clin": 35412, "\u0120prompt": 8959, "rop": 1658, "plasia": 24506, "ViewById": 30031, "\u0120Doyle": 40289, "testing": 19462, "hedral": 16232, "\u0120steal": 20016, "\u0120Internal": 21074, "\u0120header": 10478, "a\u00c3\u00a7\u00c3\u00b5es": 35802, "\u0120mehr": 36565, "\u0120abnormalities": 19147, "\u0120examined": 6730, "eren": 22061, "\u0120Southern": 10586, "\u0120Quarter": 29787, "\u0120xx": 35564, "iendo": 47102, "\u0120ml": 13361, "\u00d0\u00be\u00d0\u00bb": 7869, "\u0120hundred": 4289, "\u0120convenience": 16397, "orc": 41845, "n\u00c4\u013d": 43037, "}=-": 39779, "pv": 45270, "}(\\": 3713, "lead": 26460, "chter": 45344, "\u0120pre": 638, "\u0120421": 38609, "ua": 5738, "\u0120Meaning": 45734, "\u0120Doctors": 48270, "iotics": 14514, "\u0120Rather": 13771, "\u0120comprised": 17224, "\u0120eggs": 11624, "subscribe": 31473, "\u0120Saw": 29961, "Bot": 33355, "\u0120emerg": 4406, "620": 38447, "Stop": 15021, "IDA": 45574, "\u0120Infect": 49078, "\u0120progenitors": 42388, "ordinary": 13339, "\u0120Int": 4458, "arius": 26548, "\u0120Answer": 37741, "\u0120422": 38429, "\u01201906": 38701, "Outside": 42983, "iere": 16749, "\u0120\"^": 25830, "}}=": 15243, "description": 10008, "\u0120Train": 29712, "De": 3848, "255": 10637, "orest": 27764, "LAB": 29317, "purpose": 27299, "]{.": 12004, "ERE": 8147, "\u0120Richards": 35122, "\u0120Kirk": 22579, "\u0120Resolution": 36347, "\u00c3\u00bc": 3090, "\u0120precip": 14842, "\u0120Rhode": 35743, "\u0120Bund": 26079, "\u0120hunters": 35041, "\u00d0\u00bb\u00d1\u0130": 36875, "\u0120respectable": 39034, "\u0120Asst": 39379, "enoid": 41064, "\u0120diffe": 845, "\u0120looks": 4453, "PCI": 38941, "Fs": 13139, "\u0120migraine": 41755, "\u0120Croatia": 42862, "\u0120Trophy": 42900, "\u0120Menschen": 45172, "\u00e2\u0122\u00b3": 18626, "\u0120cylinders": 37025, "peated": 31598, "crete": 6713, "olean": 7451, ")}$,": 29119, "\u0103": 180, "!\"": 1476, "\u0120pilot": 11572, "\u0120slots": 25195, "\u0120Liter": 18756, "roup": 47700, "Operation": 17547, "\u0120contraception": 49907, "\u0120physicians": 14975, "\u0120yourselves": 36544, "\u0120Manager": 15821, "\u0120adduct": 48427, "\u0120officials": 6338, "\u0120personalized": 32339, "\u0120Fa": 15404, "\u0120propriety": 47273, "ulk": 23073, "\u0120tension": 12415, "\u0120Regardless": 31565, "XV": 40421, "0027": 37812, "Conn": 31201, "\u0120Novel": 34349, "offic": 19102, "ithe": 37018, "\u0120Diss": 38608, "\u0120stood": 6225, "\u0120dominant": 11360, "$-": 2911, "\u0120paid": 5087, "\u00e4\u00ba\u0128": 17492, "\u00c3\u0131": 24029, "\u00e0\u00a4\u00ae": 32191, "\u0120pok": 43059, "wick": 15989, "\u0120Gott": 39131, "\u0120Findings": 41429, "azzo": 46255, "\u012076": 10909, "\u0120lib": 5135, "\u0120debtors": 44226, "\u0120Honorable": 37067, "\u0120sand": 7537, "\u0120Loc": 18771, "\u0120aggregate": 19737, "798": 37348, "\u0120separates": 36158, "\u0120Qt": 25879, "\u0120melted": 27072, ".[]{": 16079, "\u0120convers": 5636, "\u0120inversion": 27697, "ppa": 34043, "\u0120III": 6490, "\u0120Math": 8684, "hd": 13838, ",{\\": 11400, "nea": 21254, "\u0120DATE": 46611, "\u0120seated": 22813, "pike": 37333, "\u0120classifications": 43394, "\u0120Circ": 5819, "\u0120Cys": 50203, "\u0120Child": 8347, "lements": 9115, "\u0120phyl": 15583, "\u0120pos": 803, "\u0120depth": 6864, "\u0120roadway": 50159, "\u0120antennas": 36585, "uds": 36626, "taking": 29114, "\u0120Hours": 36897, "\u0120initWith": 44668, "\u0120sanity": 45985, "Temp": 31871, "\u0120uneasy": 43025, "REST": 46489, "\u0120scans": 20947, "DJ": 43996, "ka": 4530, "\u0120tank": 11100, "\\,\\": 12577, "ymb": 3445, "\u0120escap": 12870, "\u0120illeg": 20739, "plectic": 31615, "?,": 32215, "\u0120Andrews": 34855, "\u0120visit": 4143, "otimes": 5786, "plication": 17192, "\u0120cassette": 31392, "\u0120\u0120\u0120\u0120\u0120\u0120\u0120\u0120\u0120\u0120\u0120\u0120\u0120\u0120\u0120\u0120\u0120\u0120\u0120\u0120\u0120\u0120\u0120\u0120\u0120\u0120\u0120\u0120\u0120\u0120\u0120\u0120\u0120\u0120\u0120\u0120\u0120\u0120\u0120\u0120\u0120\u0120\u0120\u0120": 15533, "iders": 5852, "\u00ec\u013c": 27997, "\u0120Natural": 14673, "bird": 23182, "oplus": 11613, "\u0120spectrometry": 25535, "\u0120taxation": 34871, "\u0120eagerly": 37774, "\u0120Hus": 20699, "\u0120cheeks": 24194, "\u0120cipher": 39175, "\u0120breadth": 37535, "rehens": 8391, "Skip": 38241, "Bytes": 16721, "\u0120sealed": 18495, "\u00e0\u00b8\u00b4": 39251, "\u0120CRM": 47428, "\u0120radiant": 50223, "\u012088": 11003, "\\*,": 46655, "buff": 30586, "Russia": 37881, "Bed": 49188, "\u0120sourced": 47344, "\u0120concern": 4468, "lang": 8700, "urches": 16089, "\u0120plan": 2098, "\u0120transcription": 9464, "ction": 421, "\u0120effect": 1055, "omi": 21206, "\u0120labeled": 13130, "\u0120colonial": 21441, "\u0120privile": 10385, "metry": 15043, "\u0120disrupt": 13201, "0014": 28835, "\u0120284": 31507, "\u0120$$(": 34027, "Sh": 2809, "reme": 4190, "onaut": 27245, "282": 28899, "spec": 4157, "\u0120controvers": 9474, "\u0120granul": 27439, "\u0120Parlement": 35335, "erad": 45158, "\u0120markets": 10169, "\u0120tcp": 49047, "\u0120volley": 39767, "\u0120tangible": 33631, "\u0120Ferrari": 44152, "\u0120compens": 7037, "\u0120weighing": 27466, "\u0120Burns": 32574, "\u0120Native": 18199, "\u0120retains": 32751, "\u0120spell": 15368, "ivers": 1564, "semin": 49641, "\u0120amplified": 20068, "\u0120449": 40201, "\u0120promoters": 28960, "perhaps": 30875, "oooo": 33363, "\u0120portions": 11821, "\u0120macrophage": 30719, "\u0120oper": 1444, "\u0120promoted": 15127, "\u0120DU": 35049, "hav": 10940, "\u0120TER": 44886, "\u0120fluor": 16504, "\u0120tracing": 30749, "\u0120bullshit": 35281, "\u0120embeddings": 46234, "\u0120transcriptome": 38552, "\u0120New": 1457, "\u0120earliest": 18353, "\u0120Share": 20930, "idopsis": 28328, "mining": 39590, "\u0120hanno": 47060, "\u0120BSA": 35098, "cion": 48966, "\u0120157": 21043, "\u0120weak": 5075, "\u0120breast": 5988, "Hz": 8161, "\u0120discre": 15805, "\u0120VR": 21218, "\u0120Wire": 22338, "Well": 4497, "\u0120Ch": 775, "CHANTABILITY": 20386, "\u0120SB": 22051, "\u0120diagnoses": 28978, "scripts": 26804, "\u00c3\u00a7\u00c3\u00b5es": 17041, "495": 32296, "\u0120academics": 36760, "\u0120fan": 7989, "\u0120electoral": 25575, "Assuming": 39313, "Default": 9671, "\u0120Carpenter": 43855, "\u0120congreg": 44615, "Fake": 48410, "\u0120writing": 4028, "\u0120plung": 31314, "\u0120lone": 33178, "vironments": 11986, "travel": 39681, "\u0120administered": 11966, "\u0120Netanyahu": 39094, "\u0120downside": 42719, "\u0120heating": 12220, "\u0120metaphor": 27294, "peg": 21949, "f\u00c3\u00b6r": 30096, "uate": 6340, "intern": 25335, "iab": 31289, "WIND": 37058, "Wang": 31061, "\u0120deterior": 16528, "\u0120parl": 34680, "\u0120confrontation": 31233, "\u0120710": 47889, "\u0120\u00d0\u00b1": 9514, "\u0120Patent": 11754, "ut": 307, "FUNCTION": 30306, "\u0120metallicity": 33201, "\u0109\u0109\u0109\u0109\u0109": 32062, "Sk": 15992, "}}_\\": 26136, "amar": 33830, "\u0120Constitution": 10350, "\u0120benchmark": 22791, "\u0120cocon": 25621, "\u0120Pand": 29347, "\u0120combinatorial": 38183, "\u0120We": 844, "\u0120condensation": 33974, "Query": 8053, "\u0120DEF": 34428, "\u00e0\u00ae": 9053, "\u0120OFF": 21890, "reads": 38387, "\u0120unequiv": 40101, "^\u00c2\u00ae": 27596, "\u0120responding": 19392, "\u0120Reg": 3667, "\u0120Electronics": 43754, "\u0120mol": 14008, "\u010a\u0120\u0120\u0120\u0120\u0120\u0120\u0120\u0120\u0120\u0120": 7633, "\u0120^\\": 25492, "\u01201944": 21930, "\u0120ist": 10863, "prove": 17460, "\u00e0\u00ae\u00bf": 42920, "\u0120teeth": 9970, "\u0120occasional": 19322, "estine": 22019, "hetti": 44284, "\u0120unim": 32505, "respond": 2541, "\u0120distraction": 34169, "\u0120movie": 6440, "ydrates": 35320, "\u0120blat": 40458, "\u0120Col": 2065, "X": 57, "\u00e5\u00bc\u0131": 30077, "\u0120accordingly": 15672, "\u0120dazz": 41987, "\u0120trainees": 49303, "\u0120vicinity": 21520, "raining": 26208, "\u0120Fargo": 47429, "\u0120inadmissible": 48388, "mspace": 37273, "terminal": 14104, "wey": 41285, "Lord": 27537, "\u0120trades": 28587, "orems": 28657, "\u0120ici": 50121, "EL": 3887, "\u0120298": 31399, "\u0120Sil": 7949, "\u0120438": 40175, "\u0120sixteen": 25279, "454": 27087, "bum": 4603, "\u0120Hamburg": 38343, "\u0120handler": 16454, "\u0120boards": 16431, "arnings": 40578, "\u00cf\u012e": 7136, "\u0120acts": 6993, "uda": 14776, "\u00c4\u0139": 23814, "\u0120AIDS": 24482, "\u0120phrases": 25491, "rified": 32284, "\u0120331": 36438, "\u0120Knowledge": 28003, "\u0120missions": 21468, "\u0120varchar": 38021, "\u00d1\u0123\u00d0\u00bb\u00d0\u00b8": 38749, "\u0120monitors": 28028, "\u0120uk": 42487, "pret": 4025, "\u0120activator": 35196, "1948": 41646, "\u0120smallest": 8004, "\u0120Koh": 29732, "scar": 19378, "\u0120even": 1014, "MT": 6229, "\u0120peaked": 33404, "\u0120THIS": 10113, "\u0120'<": 21083, "lung": 40205, "\u0120insulting": 50124, "\u0120horns": 38555, "\u0120435": 35543, "\u0120Phone": 26391, "\u00d0\u00bd\u00d1\u012d\u00d1\u0127": 28167, "\u0120homomorphism": 33662, "\u0120accru": 30360, "\u012019": 655, "\u0120causes": 5997, "\u00d7\u00aa": 24990, "\u0120traction": 32535, "CFG": 34949, "\u0120Prot": 37319, "\u0120pri": 2235, "\u0120Denote": 44092, "\u0120Chevrolet": 49937, "\u0120sake": 13232, "\u0120Pole": 45724, "ropolitan": 19646, "conf": 8259, "\u0120Server": 13331, "overy": 4634, "ieu": 19683, "\u00e3\u0123\u0137\u00e3\u0124\u012e\u00e3\u0123\u0141": 48939, "\u0120graduate": 16125, "\u0120Ont": 15195, "\u0120washing": 17392, "atile": 12596, "ROOT": 34101, "\u0120articulated": 35144, "j\u00c3\u0142": 39461, "\u0120myth": 13296, "\u0120rebels": 28550, "\u0120CIT": 46226, "\u0120flowing": 19246, "idelberg": 45355, "ophysical": 40947, "IL": 3077, "iy": 14059, "ready": 2038, "D": 37, "\u0120nonsense": 25333, "\u010c": 189, "\u0120Historical": 27424, "\u00e7\u012c\u00b6": 43397, "\u0120Term": 13302, "\u010a\u0120\u0120\u0120\u0120\u0120\u0120\u0120\u0120\u0120\u0120\u0120\u0120\u0120\u0120\u0120\u0120\u0120\u0120\u0120\u0120\u0120\u0120\u0120\u0120\u0120\u0120\u0120": 6596, "Tele": 26839, "\u0120bank": 4310, "lei": 42157, "\u0120Course": 29746, "ofib": 40034, "\u0120\"$(": 48023, "\u0120124": 17294, "circ": 5574, "\u0120;;": 28513, "TEM": 27453, "pixel": 29206, "\u0120quantitatively": 36878, "\u0120areas": 3672, "FIG": 8209, "\u0120wins": 14896, "lease": 3621, "\u0120cookies": 14268, "\u0120measure": 2557, "\u0120450": 20156, "\u0120specify": 13199, "\u0120epigen": 26516, "chio": 41380, "\u0120Research": 5489, "Status": 9505, "\u0120\u0120\u0120\u0120\u0120\u0120\u0120\u0120\u0120\u0120\u0120\u0120\u0120\u0120\u0120\u0120\u0120\u0120\u0120\u0120\u0120\u0120\u0120\u0120\u0120\u0120\u0120\u0120\u0120\u0120\u0120\u0120\u0120\u0120\u0120\u0120\u0120\u0120\u0120\u0120\u0120\u0120\u0120\u0120\u0120\u0120\u0120\u0120\u0120": 18411, "\u0120Mitchell": 19980, "\u0120classic": 10610, "played": 35293, "coordinate": 36236, "\u0120disgusting": 40449, "registered": 41846, "\u0120Sweden": 16842, "\u0120545": 42974, "\u0120plaintiffs": 8341, "\u0120det": 843, "\u0120tem": 1565, "\u0120manipulation": 19763, "\u0120claiming": 15081, "\u0120champions": 28002, "i\u00c3\u00b3": 22125, "\u0120effectively": 8069, "\u00e6\u00b8": 26151, "\u0120242": 28415, "390": 23850, "versal": 34451, "\u0120revival": 36499, "\u0120orientations": 38730, "DateTime": 24151, "\u0120sermon": 46040, "/](": 46275, "\u0120v\u00c3\u00a4": 28574, "\u0120gond": 48202, "\u0120products": 3580, "\u010a\u010a\u0120\u0120": 8926, "jiang": 36492, "\u0120Rapid": 37645, "Little": 25392, "\u0120irr": 20433, "lod": 39079, "abled": 5063, "\u0120collaborate": 42124, "zitter": 45609, "\u0120hyperplasia": 42127, "CUR": 26336, "CLUDE": 39938, "cks": 6163, "\u0120keine": 47363, "\u0120Hercules": 48816, "\u0120blockers": 48846, "oc": 406, "\u0120${": 7224, "\u0120superposition": 45616, "\u0120Co": 2434, "\u0120Innovation": 32727, "anse": 46679, "ideos": 31686, "\u0120Holding": 47747, "\u0120Gos": 48042, "icult": 2702, "kw": 20168, "Flex": 49463, "prof": 34586, "\u0120electroph": 16991, "DG": 33765, "\u0120Dodge": 45323, "\u0120flood": 10802, "\u0120RS": 24313, "\u0120crushed": 24983, "emy": 29829, "647": 25953, ",{": 41194, "changed": 11950, "fb": 15662, "owe": 39036, "\u00e5\u012c\u00a1": 45008, "ivering": 36731, "\u0120Certificate": 39711, "Tur": 23992, "\u0120Convert": 31308, "\u0120ICU": 25311, "\u0120\u00c2\u00b5": 9804, "\u0120exhaust": 9286, "Theta": 12183, "326": 22391, "\u0120array": 3781, "\u0120Feature": 36350, "\u0120hal": 7905, "\u0120momenta": 38054, "\u0120auditor": 41740, "WOR": 43046, "\u0120primordial": 44036, "\u0120listings": 32985, "\u0120NI": 41177, "=======": 6877, "\u0120resemb": 22066, "\u0120swine": 45417, "\u0120offerings": 27278, "riction": 14365, "Choose": 37923, "COPY": 49617, "PEG": 21459, "acter": 1434, "\u0120Sever": 35395, "\u0120rolls": 21968, "\u0120Socrates": 43424, "\u0120doxor": 48628, ".*]{}": 13663, "quoting": 17056, "\u0120Agreement": 14297, "lications": 18498, "\":[": 29925, "\u0120fibres": 37550, ".&": 40551, "\u0120funds": 8064, "irical": 45756, "ys": 656, "\u0120recommendations": 12645, "\u0120Ira": 8831, "agement": 5585, "ises": 3013, "\u0120progn": 11150, "\u0120authority": 6265, "Copy": 17491, "\u0120loving": 18248, "\u0120Ay": 22587, "\u0120accessed": 19197, "\u0120gifts": 17714, "\u0120reproduced": 23775, "addle": 17014, "possibly": 38896, "CP": 5305, "\u0120projective": 27266, "ium": 1514, "\u0120strongly": 7052, "\u00c2\u00a2": 23696, "\u0120awake": 22238, "\u0120complication": 23950, "lv": 38884, "\u0120biomark": 15236, "\u0120succeeding": 42547, "\u00e5\u00a4\u012b": 48892, "\u0120Esq": 49286, "\u0120tat": 21504, "ruption": 9525, "AIN": 23098, "\u0120\u00d0\u00b6": 25705, "Muslim": 38682, "\u01201916": 31246, "\u01202010": 4267, "vote": 40997, "\u0120Augustus": 48088, "plugins": 24111, "\u0120fence": 19354, "raising": 25118, "OULD": 30384, "357": 24424, "Write": 10639, ")\\\\": 17108, "KC": 39089, "esto": 22055, "plot": 14095, "\u0120laps": 44421, "feit": 44684, "almost": 25855, "catenin": 31276, "\u0120ultrasound": 18533, "all": 455, "\u0120appoint": 6544, "answer": 31984, "\u0120frowned": 29550, "\u0120redundancy": 39296, "\u0120straightened": 48293, "\u0120requests": 9762, "\u0120lubric": 27203, "od": 351, "ceptible": 44043, "\u0120Blair": 28585, "resources": 21830, "\u00e7\u00a9\u00ba": 45249, "Proposition": 49162, "\u0120offspring": 22167, "roller": 6417, "amel": 20662, "\u0120uncertainty": 11649, "\u0120Results": 11279, "\u0120rout": 5557, "ange": 912, "generate": 16450, "illery": 21347, "LEV": 25684, "codes": 30968, "\u0120Lucas": 22838, "\u00e5\u0125\u0131": 44314, "\u0120standard": 2629, "\u0120share": 3894, "\u0120\u0120\u0120\u0120\u0120\u0120\u0120\u0120\u0120\u0120\u010a\u0120": 34229, "Jim": 24349, "\u0120succession": 27262, "DER": 13635, "Te": 7573, "\u0120charitable": 34251, "embedded": 40964, "\u0120permission": 9214, "\u0120cut": 2624, ".\u00e2\u0122\u012d": 32477, "\u0120divergence": 23279, "\u0120Median": 35780, "\u0120Byzantine": 47154, "completely": 43665, "\u0120singer": 16057, "\u00c3\u00a4ng": 36212, "\u0120Missing": 42234, "irement": 36728, "atonin": 44771, "\u0120Access": 13135, "\u0120acry": 28639, "plements": 16603, "\u0120Noah": 32794, "626": 47059, "rey": 5292, "\u0120exped": 16625, "\u0120Gib": 14786, "\u0120hasn": 11210, "\u0120Survey": 17136, "\u0120narc": 23328, "Tools": 32953, "\u0120peroxidase": 34596, "pieces": 36289, "\u0120measured": 4080, "}}}_": 16302, "anca": 35884, "quiet": 40748, "ammation": 9862, "\u0120conveyor": 39773, "\u0120filtering": 19690, "\u0120\u00d0\u00bf\u00d0\u00be\u00d0\u00b4": 25994, "oney": 2153, "acco": 12854, "\u0120inferences": 27377, "axel": 33960, "\u0120passed": 4817, "ickers": 40593, "\u0120pron": 11093, "('<": 45635, "\u00d1\u0124\u00d0\u00b0": 27123, "\u0120vocational": 49084, "prototype": 18834, "anity": 31448, "\u0120liar": 43459, "\u0120enc": 2349, "hof": 37021, "these": 20513, "\u0120mans": 30433, "util": 8906, "382": 31110, "fter": 699, "contains": 24634, "\u0120litre": 43803, "CAR": 25595, "\u00e7\u00a7\u012f": 49288, "Global": 18590, "\u0120reunion": 45591, "\u0120Empire": 13958, "\u0120em": 802, "351": 27018, "\u0120coils": 35062, "\u0120Chrome": 21722, "\u0120hebben": 33279, "\u0120Dear": 37268, "891": 36793, "\u0120MVC": 36656, "\u0120ban": 8913, "\u0120Regiment": 30068, "bod": 39455, "\u0120HSV": 40799, "\u0120hill": 13599, "\u0120hates": 38232, "fluor": 30895, "\u0120ever": 2455, "\u0120Bu": 11262, "\u0120compensation": 10963, "\u0120sib": 18729, "\u0120nickel": 30237, "\u0120Mats": 31999, "biomolecules": 33053, "\u0120deception": 38426, "MAG": 46492, "usi": 28954, "Cursor": 31620, "\u0120Donovan": 49028, "__)": 32350, "cribed": 9397, "\u0120snar": 50082, "\u0120mes": 6191, "package": 10708, "\u0120Lagrangian": 26150, "\u0120tam": 21526, "gly": 13233, "\u0120romantic": 18109, ")->": 18474, "plings": 22945, "\u0120pred": 2063, "cluded": 4686, "\u0120Ast": 15123, "\u0120Secondary": 29625, "\u0120Ellen": 31316, "\u0120theaters": 37807, "\u0120downregulation": 38726, ">,": 9983, "okrat": 45725, "igi": 33014, "\u0120First": 3973, "\u0120Murder": 46681, "\u0120ischemic": 23523, "orgetown": 47052, "discovery": 49330, "cz": 14617, "\u0120course": 2282, "\u0120halls": 35574, "determined": 37501, "ilian": 38515, "\u0120Region": 18973, "Jes": 23016, "\u0120billionaire": 45651, "\u0120Creek": 16611, "\u0120lenders": 41522, "Fat": 30597, "\u013e": 239, "011": 13925, "\u0120655": 39005, "\u0120grind": 35001, "\u0120atheist": 48621, "\u0120cell": 894, "ird": 1817, "71": 3677, "gun": 12528, "\u0120undertook": 42201, "\u0120516": 40520, "\u0120eg": 24088, "bys": 44678, "'ll": 1833, "\u0120suited": 18960, "rences": 1998, "\u0120embark": 29394, "\u0120grasped": 46137, "\u0120fill": 7522, "\u0120pan": 3199, "pot": 11714, "ifiable": 18397, "Jess": 45976, "tilde": 3582, "\u0120hosp": 45304, "CONTR": 31558, "\u0120lantern": 40962, "\u0120radically": 39278, "\u0120relay": 26276, "cluding": 6547, "-.": 21549, "Spanish": 29520, "matically": 33866, "\u0109\u0109": 623, "\u00e6\u013e\u0141": 34175, "\u01201977": 14960, "Quest": 34686, "Plaintiff": 19056, "066": 39425, "\u0120learn": 3037, "\u0120[\\": 24430, "\u0120ruth": 39428, "otts": 43285, "\u0120disabling": 44276, "\u0120Downtown": 46827, "pointer": 25078, "\u00a1": 96, "\u0120hardened": 43656, "}$]{}": 20977, "\u00c3\u0143ses": 37294, "atas": 47578, "active": 4507, "forming": 14692, "\u012017": 1722, "\u0120Priv": 19178, "295": 22270, "\u0120Jamaica": 41198, "reducible": 21456, "\u0120GPL": 32506, "\u0120Warning": 42982, "\u0120Seriously": 48587, "PROT": 39129, "\u00e5\u00bc\u0137": 44290, "\u0120limbs": 24601, "\u0120KP": 49012, "\u0120Witch": 45165, "\u0120brief": 4864, "\u0120Fuck": 49142, "\u0120cannot": 2550, "\u0120betray": 19829, "\u0120Reynolds": 27523, "\u0120neighbourhood": 24092, "\u0120produce": 4711, "\u0120catal": 6310, "\u0120INC": 21346, "adren": 31211, "\u0120analyzing": 18918, "\u0120ot": 14366, "\u0120erad": 31559, "\u0120duo": 32458, "\u0120Pull": 33212, "loop": 14075, "bare": 39517, "HB": 25435, "boundary": 45794, "\u0120deals": 13330, "\u0120Happ": 34386, "\u0120merge": 17310, "\u0120valor": 34173, "\u00ce\u00b9\u00ce\u00ba": 12388, "ulmonary": 35534, ".\u00e2\u0122\u0136": 25277, "AL": 1556, "\u0120Aer": 37785, "\u0120Ecuador": 40145, "\u0120lied": 27786, "\u0120analogy": 24760, "\u0120Indeed": 8079, "\u0120sampling": 10491, "\u0120\u00c2\u00a5": 43389, "\u0120reps": 47276, "\u0120GO": 11488, "JK": 43262, "talk": 26209, "\u0120consultant": 24773, "\u0120Networks": 32492, "\u0120openness": 47418, "\u0120pelvis": 47818, "\u0120Reading": 21108, "\u0120summarizes": 37250, "\u0120desarroll": 50158, "\u0120documentary": 18802, ",_": 8291, "\u0120platinum": 32297, "urope": 2737, "\u0120spectrum": 6637, "\u0120remnants": 38948, "\u0120Rio": 22319, "\u0120\u00e2\u0136": 22760, "\u0120remot": 25177, "strand": 35559, "\u0120java": 7626, "\u0120superoxide": 41180, "\u0120builders": 44267, "\u0120Martinez": 28982, "\u012091": 11583, "binary": 26458, "rase": 30319, "ner": 1216, "\u0120gastric": 16418, "\u0120ERROR": 33246, "\u0120Kaiser": 41867, "\u0120studies": 2175, "inis": 22153, "\u0120vested": 37478, "\u0120fazer": 39416, "\u0120libert": 20107, "\u0120housed": 24981, "\u00c3\u00b0": 25500, "Nil": 37490, "nals": 16474, "\u0120Ju": 19120, "\u0120fascinated": 39974, "\u0120Chambers": 40972, "************************************************************************": 21723, "\u0120realise": 27753, "\u0120poisoning": 33254, "\u0120McConnell": 41009, "Runtime": 17577, "\u0120Prom": 13798, "\u0120neoplasms": 48967, "\u0120heroic": 36715, "fields": 15069, "Interval": 27068, "gni": 45524, "\u0120connect": 4684, "\u00e2\u012d\u00af": 50034, "\u0120Boyd": 36297, "\u0120instructed": 17189, "\u012028": 3349, "\u0120Square": 15894, "There": 2512, "0123": 39154, "\u0120Ext": 9052, "Menu": 14324, "\u0120indebted": 37187, "\u0120\u00d0\u013c": 24572, "ajo": 23246, "conjugated": 32940, "\u0120triv": 35820, "leg": 1851, "Cloud": 22740, "\u0120snack": 33503, "ufact": 4074, "6": 23, "inates": 8475, "\u0120proposes": 29328, "\u0120indemn": 30888, "ungle": 24895, "\u0120courtesy": 23633, "\u0120ERA": 38233, "\u0120offseason": 42346, "Split": 33720, "\u0120par": 1061, "\u0120convention": 5008, "\u0120Spencer": 26878, "\u0120ESR": 42209, "VALUE": 22355, "\u00d0\u00b2\u00d0\u00b0": 22704, "Failure": 31146, "\u0120Tort": 35472, "\u0120dow": 48418, "Over": 5279, "\u0120attending": 16362, "opters": 37508, "Rain": 50170, "-------------": 10428, "\u0120place": 1659, "\u0120put": 1691, "\u0120decimal": 14492, "\u0120Gy": 20925, "\u0120designs": 11809, "\u0120Laws": 28856, "\u0120Wesley": 43921, "\u0120UPDATE": 44556, "\u0120moves": 9727, "37": 1787, "\u0120activate": 17561, "\u0120analyzed": 5867, "447": 28943, "\u0120gravitational": 18924, "\u0120Fellow": 21301, "#,": 27396, "ugar": 16734, "\u0120exclus": 46853, "\u00e0\u00a7\u012f": 42063, "temporal": 46258, "\u0120Pharmac": 37120, "\u0120aisle": 38133, "\u0120moreover": 25761, "nol": 27058, "Travel": 42576, "\u00e5\u012e": 15899, "NC": 9431, "\u0120examining": 17565, "\u0120tennis": 23354, "epithelial": 47910, "men": 3767, "FTWARE": 18530, "logo": 29402, "\u0120reasoning": 14720, "\u0120manuscripts": 40336, "oux": 23051, "\u0120tom": 7275, "\u0120robber": 42012, "\u0120USS": 47800, "itic": 17533, "\u0120sig": 9788, "17": 1166, "\u0120recurrence": 15969, "\u0120unter": 32925, "\u0120\"${": 26107, "\u0120politicians": 13557, "ober": 2672, "dependent": 6820, "\u0120DO": 7953, "oir": 9283, "204": 15781, "hon": 25224, "\u0120Remote": 38812, "Born": 30937, "\u0120sympath": 34144, "clk": 18255, "BW": 42230, "SDK": 45007, "\u0120transfers": 21916, "rugs": 22494, "mv": 36386, "\u0120optional": 15266, "orously": 29689, "\u0120that": 326, "Primary": 27967, "\u0120263": 32515, "\u0120plex": 43239, "gently": 40383, "\u0120Forms": 44017, "\u0120turbulence": 32125, "Leg": 18596, "\u012081": 11681, "\u0120play": 1132, "\u0120harbor": 22754, "\u0120grievances": 48358, "\u0120OTHERWISE": 35497, "standard": 15291, "\u0120bump": 19496, "\u0120dip": 12539, "(:": 20805, "quel": 38582, "recurs": 48934, "\u0120Vikings": 40269, "\u0120used": 908, "\u0120resign": 17928, "\u0120Perfect": 31960, "\u0120inlet": 29450, "\u0120Very": 15997, "ness": 1255, "rill": 48072, "\u0120Later": 14772, "ary": 552, "\u0120exports": 24217, "center": 9229, "\u0120dishes": 17114, "iev": 28017, "\u0120vo": 3273, "\u012089": 11289, "Some": 6080, "holder": 11375, "\u0120\u0120\u0120\u0120\u0120\u0120\u0120\u0120\u0120\u0120\u0120\u0120\u0120\u0120\u0120\u0120\u0120\u0120\u0120\u0120\u0120\u0120\u0120\u0120\u0120\u0120\u0120\u0120\u0120\u0120\u0120\u0120\u0120\u0120": 12703, "\u0120Emperor": 22212, "iolet": 16900, "\u00c3\u00a1rio": 28350, "\u0120Foundation": 6807, "chlor": 19700, "\u0120\u00c2\u00b6": 11367, "zione": 34559, "\u0120mentions": 25957, "\u0120Researchers": 43133, "\u0120discl": 4540, "bsite": 16709, "\u0120kicked": 19301, "\u01201937": 27598, "ocar": 27713, "\u0120\"#": 13938, "olar": 6062, "Account": 18091, "\u0120screened": 22546, "\u0120illustrating": 34805, "\u0120underwater": 35355, "ags": 3544, "\u0120encore": 29799, "\u0120concise": 44003, "\u0120intensity": 7133, "\u0120Courts": 33417, "\u0120Bundle": 48284, "gcc": 35181, "\u0120mais": 11565, "cx": 33060, "\u0120whiskey": 41236, "^\u00e2\u012a\u0134/\u00e2\u012a\u0134^": 28912, "\u0120Anderson": 13051, "Marg": 36569, ")}^": 40188, "param": 3575, "\u0120kl": 27451, "Asian": 47548, "\u0120shovel": 42553, "\u0120Iz": 37418, "gian": 15287, "\u0120fermion": 35530, "\u0120AGA": 43492, "\u0120overest": 35039, "\u0120slice": 15512, "\u0120frequency": 4294, "\u0120boundary": 7548, "\u0120commodity": 31142, "\u0120branded": 41294, "\u0120Else": 32867, "\u00e0\u00b1": 22379, "ei": 27116, "^\\*^": 33653, "Agg": 35619, "\u0120decomp": 30572, ">/": 38271, "\u0120Trin": 49057, "\u0120cmd": 20390, "Staff": 44440, "ilevel": 48268, "\u0120artists": 10846, "ssl": 28908, "\u0120therapeutic": 9282, "inent": 14622, "\u0120Bloomberg": 32952, "\u0120concept": 4473, "temp": 16306, "manual": 39842, "41": 3156, "\u0120epidem": 12495, "\u0120clinically": 16747, "\u0120Denver": 20734, "\u00ec\u0139": 21053, "formal": 24873, "\u0120Rich": 5612, "\u0120snacks": 36895, "column": 11631, "nod": 41933, "Handle": 16722, "\u0120Moz": 24872, "\u0120Retail": 45943, "\u0120grows": 17202, "TOR": 22726, "SQL": 12070, "Hash": 16850, "\u0120closed": 4581, "\u00c3\u00a4ll": 36383, "\u0120Frontier": 48688, "\u0120READ": 28204, "acements": 28633, "\u0120correction": 10618, "\u0120$(\\": 9722, "pletion": 16637, "\u0120platelet": 21039, "\u0120tires": 26429, "\u0120groaned": 50206, "\u0120realities": 34759, "ker": 6426, "\u0120commerce": 19938, "\u0120MySQL": 27777, "\u0120HOLDERS": 43227, "omorphisms": 29675, "conditional": 35428, "Gl": 9030, "Lu": 22653, "\u0120Front": 15808, "diagonal": 41758, "\u0120hit": 4352, "ids": 2352, "\u0120prognosis": 17102, "\u0120353": 35829, "\u0120Honda": 34379, "\u00e3\u0123\u0126\u00e3\u0123\u00a6": 36313, "\u0120defenders": 31342, "doi": 14369, "\u0120etched": 43700, "\u0120explorer": 46041, "orget": 44200, "INCLUDE": 47128, "\u0120seas": 26634, "\u0120courty": 31944, "propag": 44263, "284": 25676, "624": 44566, "\u00cf\u0125\u00ce\u00b9": 44586, "agne": 20232, "\u0120double": 4021, "eb": 2275, "373": 29546, "\u0120flats": 47350, "\u0120incubated": 10729, "\u0120Webb": 34932, "\u0120renders": 29512, "\u0120corridors": 47406, "onate": 33912, "\u0120pharmacological": 27331, "\u00c3\u00a9mon": 36197, "Extended": 43185, "aband": 47157, "dead": 26928, "\u0120Board": 5986, "against": 26204, "\u0120unreliable": 36230, "icians": 6433, "jquery": 19203, "\u0120dictates": 44682, "\u0120pretreated": 49640, "\u0120Kerr": 34877, "\u0120passes": 11999, "\u0120lab": 5188, "Okay": 9281, "pri": 3225, "lication": 5688, "\u0120Microsoft": 9664, "HY": 28605, "\u0120hacking": 35565, "})^{-": 44359, "\u0120latent": 21624, "\u0120advertise": 46459, "\u0120Steps": 46854, "\u0120steroid": 28972, "Constants": 31171, "\u00cf\u0123\u00cf\u012e": 28832, ".;": 9944, "\u0120Expect": 34697, "870": 49087, "\u0120ArrayList": 26267, "get": 788, "\u0120l\u00c3\u00a4": 27029, "\u0120saddle": 26759, "arning": 4026, "\u0120odds": 13653, "\u0120black": 2806, "\u0120Temple": 17658, "trunc": 39315, "\u0120transfer": 3700, "\u0119": 202, "Gate": 33919, "\u0120smoked": 29757, "Length": 10830, "\u0120electronic": 7051, "\u0120tracked": 27173, "nement": 34711, "yrs": 41939, "ender": 3109, "\u0120bottom": 5004, "\u0120atmospheric": 22018, "\u0120Dent": 46364, "\u0120estates": 42183, "environment": 20034, "usive": 15240, "\u0120insu": 11160, "\u0120Dyn": 32746, "pent": 21601, "\u010a\u0120\u0120\u0120\u0120\u0120\u0120\u0120\u0120\u0120\u0120\u0120\u0120\u0120\u0120\u0120\u0120\u0120\u0120\u0120\u0120\u0120\u0120\u0120\u0120\u0120\u0120\u0120\u0120\u0120\u0120\u0120\u0120\u0120\u0120\u0120\u0120": 25927, "\u0120146": 21640, "\u0120Few": 29578, "\u0120seeds": 12922, "kDa": 39550, "\u0120Tuc": 43047, "\u0120\u00c3\u012bt": 45176, "\u0120ra": 1218, "\u0120severed": 43805, "ytes": 12742, "song": 32429, "\u0120disease": 2728, "\u0120consultants": 40576, "urred": 15064, "\u0120Haven": 28093, "\u0120thieves": 42727, "\u0120analyzer": 38768, "illa": 6077, "ten": 1866, "\u0120Ed": 3619, "96": 4196, "\u0120novo": 17590, "\u0120biblical": 35525, "\u0120Lange": 49890, "\u0120Memory": 21688, "\u0120\u00cf\u0125\u00cf\u0126\u00ce\u00bf": 42191, "\u0120pleading": 26412, "ravo": 41647, "us": 316, "\u0120ideas": 5697, "burn": 14814, "\u0120divor": 13320, "\u0120pray": 12518, "\u00e0\u00a4\u0137": 24381, "\u0120Mechan": 27376, "\u0120Khal": 35667, "AMES": 37743, "\u0120maxim": 11903, "vention": 4053, "\u010a\u010a\u0120\u0120\u0120\u0120\u0120\u0120\u0120\u0120\u0120": 17091, "\u0120borders": 18275, "ordin": 29664, "\u0120\u00cf\u0122\u00ce\u00bf\u00cf\u0127": 32309, "\u0120team": 2285, "\u0120etc": 3966, "\u0120Market": 15111, "idase": 15678, "dev": 3620, "develop": 16714, "\u0120curric": 22182, "\u0120Champions": 27557, "\u0120convince": 18578, "\u0120fixes": 26019, "spir": 30917, "\u0120footballer": 31926, "esota": 14058, "\u0120proved": 8058, "\u00c3\u00aate": 33557, "\u0120Villa": 34374, "thro": 38088, "\u0120traff": 19225, "\u0120cavities": 38674, "protective": 39925, "\u0120vara": 45844, "\u0120defic": 8315, "\u0120html": 14271, "\u0120fier": 16797, "pections": 44809, "\u0120surgeons": 30208, "\u0120scenery": 38811, "Ring": 45606, "\u0120rebuilding": 42021, "\u0120prospect": 11091, "soon": 38753, "\u0120raised": 5439, "590": 44729, "\u0120departments": 20036, "\u0120substit": 10829, "\u0120guaranteed": 16293, "261": 26560, "\u0120pursued": 23321, "\u0120365": 23412, "\u0120dipped": 42600, "Wol": 48252, "\u0120Transmission": 48578, "\u0113": 196, "\u0120NV": 24671, "\u0120Ment": 48253, "\u0120USSR": 48727, "ylon": 19612, "Params": 18246, "\u0120binary": 8985, "igration": 15037, "mostly": 39025, "autres": 47730, "\u0120battling": 41453, "onym": 7983, "\u0120prim": 2248, "\u0120blends": 43709, "\u0120flange": 47713, "\u0120condensate": 39620, "\u0120SERVICES": 38986, "TOOL": 48275, "\u0120inco": 44592, "Peter": 23852, "veis": 46975, "Measure": 30563, "cers": 8964, "pgen": 15943, "abbath": 44872, "\u0120criter": 16696, "dist": 8155, "encephal": 41667, "\u010a\u010a\u0120\u0120\u0120\u0120\u0120\u0120\u0120\u0120\u0120\u0120\u0120\u0120\u0120\u0120\u0120\u0120\u0120\u0120\u0120\u0120\u0120\u0120\u0120\u0120\u0120\u0120\u0120\u0120\u0120\u0120\u0120\u0120\u0120\u0120\u0120\u0120\u0120\u0120\u0120\u0120\u0120\u0120\u0120\u0120\u0120": 48513, "\u0120deliberately": 21547, "\u0120salv": 29717, "gers": 7276, "\u0120Christina": 47831, "\u0120impeachment": 31105, "\u0120PST": 44561, "\u0120worsening": 43685, "\u0120sir": 8674, "omatic": 8977, "\u0120decline": 10343, "formula": 19350, "terior": 9085, "rons": 9036, "MAX": 11779, "\u0120Products": 23910, "]];": 44270, "\\\\": 3353, "aution": 45384, "orable": 12178, "\u0120guess": 5476, "\u0120infra": 16414, "~)": 13611, "Twitter": 31068, "0050": 35967, "\u0120smelled": 36280, "\u0120Lemon": 44513, "obenz": 46648, "\u0120feeder": 47843, "orentz": 27536, "\u0120Video": 16428, "\u0120FIF": 25971, "\u0120judiciary": 46619, "Async": 19168, "\u0120Era": 39233, "\u0120Dew": 45797, "\u0120printing": 11993, "yet": 28948, "\u0120glancing": 48147, "endif": 7287, "\u0120Tell": 19906, "unch": 3204, "\u0120\u00d0\u00bd": 4418, "\u0120jurisdiction": 7571, "\u0120indexes": 28308, "\u0120WHAT": 29632, "Sin": 40194, "\u0120Supply": 40429, "\u0120Care": 9776, "\u0120those": 1110, "vt": 20282, "760": 42047, "let": 1059, "ensive": 3134, "\u0120citizens": 7815, "ILITY": 11913, "Regardless": 47271, "\u0120fringe": 39411, "\u00d0\u00b5\u00d1\u0123\u00d0\u00ba": 31318, "100000": 42856, "acho": 49072, "\u0120System": 4155, "bus": 13097, "\u0120nud": 34408, "\u0120pillar": 43035, "HEAD": 22225, "\u0120toler": 8150, "\u0120trous": 36049, "\u0120smile": 8580, "\u0120impractical": 45783, "rative": 19981, "\u0120presume": 35533, "539": 32941, "thren": 40857, "VE": 12695, "leaf": 26342, "\u0120elect": 1516, "\u0120finer": 40259, "\u0120Ramirez": 48444, "AH": 17162, "off": 2727, "\u0120solidarity": 34394, "\u0120Looking": 23359, "Comput": 24408, "dec": 8632, "882": 39027, "\u0120phylogenetic": 23165, "Coming": 44655, "\u0120computerized": 47968, "HD": 10536, "sinh": 39281, "\u0120questo": 30975, "iquit": 16074, "\u0120parents": 4651, "\u0120destruct": 21181, "ipore": 44348, "\u0120lobbying": 40140, "\u0120Katz": 45084, "\u0120puppet": 47717, "UID": 18244, "\u0120ac": 913, "\u0120?": 3736, "\u0120[****,": 23734, "540": 34458, "Mit": 34967, "paper": 20790, "\u0120\u00c3\u012b": 17317, "YM": 44007, "mology": 44548, "\u0120vertebrate": 50021, "\u0120Os": 14183, "gn": 3757, "}=-\\": 45881, "\u0120\u00d0\u00bf\u00d0\u00b0\u00d1\u0122": 49114, "\u0120Pear": 14837, "\u0120stale": 46745, "Graph": 15499, "\u0120roster": 22970, "\u00e2\u0136\u0122\u00e2\u0136\u0122\u00e2\u0136\u0122\u00e2\u0136\u0122\u00e2\u0136\u0122\u00e2\u0136\u0122\u00e2\u0136\u0122\u00e2\u0136\u0122": 45315, "]$$": 49806, "\u0120peri": 24109, "898": 33868, "Valid": 13159, "ja": 6362, "\u0120immigration": 13163, "\u0120bot": 17994, "\u0120Supplementary": 18292, "\u0120Vamp": 49324, "\u0120WHETHER": 33206, "OND": 28104, "\u00e4\u00b8\u00ba": 20326, "\u00cf\u0123\u00ce\u00bf": 14733, "erta": 35327, "Wire": 31889, "\u0120Sophie": 35262, "\u0120Mai": 44610, "\u0120love": 2389, "\u0120day": 1388, "\u0120Kumar": 34946, "\u0120mortgages": 45371, "\u0120orange": 13735, "\u0120summary": 6010, "\u0120revolutionary": 22564, "\u0120M\u00c3\u00bcller": 49290, "\u0120CURL": 44422, "icture": 14083, "\u0120MER": 18226, "\u00c4\u0123": 5617, "CPP": 39600, "Sn": 16350, "Secret": 29727, "\u0120oh": 12506, "\u0120Along": 23243, "\\#": 16622, "CCC": 39228, "\u0120allev": 26353, "\"\"\"": 32488, "warm": 44041, "\u0120CYP": 27987, "Router": 47083, "\u0120144": 18836, "\u0120crying": 17800, "\u0120epis": 6314, "1982": 17103, "\u0120troubles": 19408, "\u0120caring": 23374, "\u0120indicative": 24838, "\u0120Yoga": 44052, "\u0120GW": 23765, "\u0120desc": 1398, "\u0120\u010a\u0120\u0120\u0120\u0120\u0120": 22937, "\u0120Oracle": 19792, "jp": 23731, "FIX": 27225, "astery": 29305, "317": 29667, "entes": 36836, "'ve": 1849, "\u0120palms": 38101, "\u0120'_": 38745, "\u0120organic": 8708, "oscow": 15635, "\u0120Need": 20389, "\u0120palace": 21131, "286": 23360, "\u0120pathogen": 20192, "\u00e9\u0122\u012b": 49037, "\u0120NULL": 5812, "\u0120circumvent": 39256, "Mind": 41312, "atable": 17980, "\u0120modeled": 23115, "\u0120209": 25597, "\u0120SPI": 37590, "gnu": 26497, "akia": 34335, "\u0120doorway": 27084, "Amount": 35277, "\u0120turmoil": 44073, "POR": 28303, "\u0120equ": 1298, "\u0120monomers": 36401, "1935": 47208, "\u010b": 188, "\u0120distract": 36815, "\u0120WD": 40789, "cient": 23389, "Newton": 44557, "\u0120Vinc": 45106, "link": 4492, "\u0120procedure": 5199, "\u0120ED": 8360, "\u0120alleles": 23561, "Kind": 18808, "\u0120contaminants": 36306, "\u0120Divine": 35502, "\u0120Bec": 40392, "\u0120knot": 26994, "oli": 10424, "socket": 25328, "Collection": 16687, "\u0120accessory": 33402, "\u0120professors": 33108, "\u0120saint": 24032, "\u0120novelty": 38135, "\u0120Publ": 15739, "\u0120tours": 24478, "\u00e3\u0125\u0125": 15815, "\u0120bara": 47039, "\u00e3\u0124\u00bf\u00e3\u0125\u00bc": 47519, "sk": 3319, "yss": 37409, "\u00eb\u00a9": 48672, "\u0120ess": 3265, "\u0120printf": 20275, "\u0120available": 2130, "OPS": 34659, "\u0120message": 3935, "]->": 33094, "alter": 37867, "draw": 6553, "\u0120Rural": 34148, "\u0120President": 3918, "\u0120Bel": 6512, "\u0120latency": 22667, "\u0120europ\u00c3\u00a9enne": 46143, "never": 7594, "\u0120incorporation": 24319, "eps": 2265, "aver": 11215, "Vec": 29113, "\u0120buck": 12433, "\u0120chuck": 22522, "\u0120tous": 29671, "\u0120Infantry": 33166, "\u0120clothes": 10015, "\u0120descent": 18499, "\u0120caffe": 29106, "\u0120astronaut": 35807, "\u0120alliance": 23158, "Messages": 40245, "\u00ae": 108, "\u0120Archbishop": 42624, "\u0120clust": 4359, "fecture": 42459, "BIN": 36402, "\u0120eller": 28688, "\u0120Willi": 4810, "\u0120elementary": 18307, "OTT": 31219, "\u0120hovering": 46115, "\u0120q": 2805, "\u0120PAGE": 38465, "\u0120Crisis": 39308, "Type": 2548, "resistant": 18305, "\u0120204": 23133, "\u0120migrated": 40891, "...)": 19552, "after": 6438, "\u0120Democr": 5364, "\u0120canon": 31992, "\u0120DAT": 41424, "\u0120athletes": 17812, "\u0120Anc": 49546, "Files": 19284, "705": 45698, "insic": 12003, "\u0120272": 32513, "\u0131": 226, "\u0120brings": 10316, "\u0120tang": 12717, "\u0120sou": 18155, "umi": 27198, "\u0120Release": 20002, "\u0120splice": 37690, "Org": 43129, "\u0120appellee": 21113, "\u0120mb": 45505, "\u0120Times": 7717, "\u0120tent": 12556, "aha": 19369, "from": 4064, "unto": 35106, "\u0120conquest": 35224, "\u0120driveway": 35664, "emat": 14359, "\u00e8\u00a7\u00a3": 33273, "Alex": 18552, "\u0120injured": 11062, "\u0120concentrating": 45012, "\u0120Ram": 9752, "\u0120grandmother": 20606, "inj": 27497, "\u00e0\u00b3": 28888, "\u0120heavy": 5536, "\u0120whole": 2644, "\u0120memoir": 32390, "ograp": 10555, "entials": 15738, "\u0120highlight": 6780, "pb": 15656, "\u0120illum": 16023, "\u0120myel": 16203, "eight": 19521, "\u0120werden": 19748, "\u0120{};": 25425, "\u0120soc": 9267, "\u0120congenital": 28296, "\u0120HN": 30792, "\u0120alright": 34557, "\u00c3\u00a7ois": 37191, "\u0120432": 37296, "\u0120Sang": 38236, "resh": 2935, "\u0120Nelson": 19027, "\u0120techniques": 5609, "imbabwe": 35976, "\u0120Family": 12079, "\u0120scholarly": 41023, "\u0120seeming": 41203, "\u0120Chu": 48012, "\u0120preach": 49383, "overset": 21411, "\u0120belly": 23828, "\u0120Tris": 27989, "\u0120tracks": 11411, "rapper": 15875, "\u0120tester": 49568, "Lau": 49698, "\u0120Vir": 6694, "\u0120juror": 32519, "Song": 41296, "eker": 44691, "VERTISEMENT": 36059, "ey": 2653, "ships": 19794, "fourth": 48499, "\u0120phosphor": 43734, "derived": 13472, "tests": 19453, "emi": 35381, "\u0120Conclusion": 37495, "\u0120mindful": 44049, "\u0120delivers": 26361, "\u012f": 224, "VII": 48818, "\u0120evaporation": 35921, "\u0120antif": 32534, "\u0120measures": 5593, "fix": 11097, "\u0120ambig": 15200, "\u0120unsett": 42467, "\u0120measurement": 6814, "\u0120Lisbon": 48104, "\u0120perf": 20403, "\u0120235": 23540, "\u0120album": 5400, "\u0120EC": 13507, "anches": 37426, "supplementary": 6962, "\u0120Johnny": 22810, "\u0120mosquito": 22790, "(),": 5715, "\u0120probing": 39578, "yml": 46415, "\u0120suffix": 34078, "!'": 11388, "\u0120hired": 14565, "\u0120exchanges": 23261, "\u0120toe": 25283, "\u0120intelligence": 9260, "otherwise": 32240, "\u0120kn": 694, "442": 34277, "\u0120handgun": 47164, "\u0120\u00d1\u0123\u00d0\u00bc": 49853, "iele": 38853, "\u0120restricting": 34617, "\u0120wardrobe": 43530, "elle": 4415, "\u0120Sigma": 24200, "\u0120Judicial": 32665, "\u0120Hann": 32766, "\u0120mont": 24325, "\u0120zone": 8232, "\u0120sets": 5239, "\u0120bill": 6007, "\\|^": 33354, "\u00c3\u00a4hler": 41638, "Cit": 42670, "]):": 46295, "\u0120tribes": 23206, "mathop": 20999, "cord": 29711, "\u0120SPECIAL": 38152, "perate": 44640, "\u0120antibody": 8092, "\u0120func": 11632, "umb": 3561, "\u00c4\u0125": 4265, "ige": 9236, "rology": 27044, "034": 20570, "\u0120cutting": 9968, "\u0120Current": 11604, "\u0120nitrate": 37394, "cue": 30940, "take": 21528, "\u0120Lun": 39761, "\u0120destination": 12095, "\u0120torque": 20441, "\u0120soak": 46026, "\u0120rescal": 46595, "ouver": 16017, "License": 17736, "\u0120escapes": 44716, "\u0120_,": 13830, "unning": 10455, "bered": 7455, "1967": 26369, "\u0120Collaboration": 31209, "\u0120Tall": 32826, "\u0120orn": 42909, "adapter": 31644, "\u0120compromise": 18230, "inner": 5338, "visors": 30178, "\u0120bonding": 20705, "usep": 2089, "otal": 5359, "IPE": 36066, "arch": 1116, "\u0120groove": 27444, "FU": 30531, "\u0120nur": 27359, "\u0120Oslo": 43516, "\u0120Sheet": 44764, "cpp": 14161, "\u0120dette": 49319, "notice": 37277, "\u0120monstrous": 49358, "\u0120congress": 27797, "\"},": 4982, "ilst": 13352, "\u0120manifold": 16751, "\u0120refrigerator": 29794, "\u0120dimin": 13064, "operatively": 29670, "\u0120massage": 30877, "governmental": 47557, "\u0120Volunte": 39067, "NB": 23097, "\u0120ro": 687, "\u0120automated": 16644, "\u00e5\u013d": 10041, "\u0120waveform": 34048, "\u00e5\u00be\u0139": 30808, "\u0120Heroes": 44925, "encia": 14994, "860": 48294, "\u0120JOHN": 48488, "\u0120edit": 12921, "lament": 19029, "\u0120CX": 20732, "791": 44030, "\u0120Central": 8170, "\u00e4\u00ba\u00ba": 13484, "\u0120387": 37516, "\u0120sphere": 15269, "group": 4399, "etz": 25532, "\u0120Augustine": 47974, "\u0120tea": 10331, "\u0120reconst": 49866, "\u0120burned": 15676, "orient": 13981, "\u0120recommended": 8521, "\u0120transgender": 31737, "\u0120torsion": 32266, "kr": 21529, "AU": 16408, "til": 1343, "\u0120militia": 39260, "\u0120format": 5981, "\u0120coll": 3007, "\u0120subdiv": 18375, "\u0120baseline": 8245, "\u0120assists": 27593, "Dem": 13641, "\u0120performing": 9591, "\u00c2\u0143": 6319, "\u0120dynamical": 18525, "\u0120daytime": 37527, "\u0120pyl": 29342, "cretion": 7401, "\u00e5\u00ae\u00b6": 34091, "phen": 7806, "\u0120Places": 26755, "\u0120undef": 46583, "PING": 49439, "\u0120MP": 12732, "\u0120deleted": 16737, "\u0120dismay": 41190, "}.": 7165, "nio": 48830, "\u0120Coffee": 33753, "factors": 41586, "\u0120ethanol": 16075, "aterials": 10373, "\u0120outside": 3345, "20": 938, "\u0120blockade": 28398, "\u0120communicate": 13791, "\u0120rugby": 29385, "Save": 17964, "incial": 19903, "\u0120\u00d0\u00b7\u00d0\u00b0": 19113, "\u0120viewing": 14657, "idepress": 32013, "(<": 40473, "\u0120confident": 13224, "\u0120attackers": 40567, "\u0120valley": 17836, "\u0120Notably": 28776, "Web": 9770, "iemann": 22345, "\u0120inn": 4470, "\u0120persecution": 31222, "\u0120longing": 40484, "\u0120hecho": 41106, "\u0120'-": 30225, "\u00ef\u00bb\u00bf": 41497, "professional": 36094, "\u0120Chloe": 45014, "\u0120vary": 6889, "views": 17920, "\u0120checkout": 36620, "\u0120pinpoint": 45661, "\u0120issues": 3374, "ysis": 1493, "consumer": 45908, "\u0120schools": 6629, "javase": 50024, "\u0120Springs": 26250, "\u0120Madame": 30979, "Washington": 25655, "\\(": 22229, "ressing": 13537, "\u0120fits": 13840, "\u0120530": 36135, "fred": 17408, "[@": 683, "Kill": 44079, "\u0120seizures": 26347, "\u0120unauthorized": 31957, "\u0120Newcastle": 35459, "\u0120diss": 5408, "\u0120commissioners": 45504, "\u0120genom": 47589, "\u0120Number": 11057, "\u0120neighborhood": 9168, "\u0120medicine": 9921, "onical": 12076, "\u0120quel": 24887, "\u0120FDR": 38140, "\u0120Irish": 11596, "\u0120Jane": 14884, "exception": 22558, "50": 1235, "stride": 42583, "\u00d0\u0134": 22292, "sn": 11489, "\u0120aura": 37468, "\u0120Teacher": 47080, "-------------------------------------------------------": 48151, "\u0120pla": 24939, "\u012046": 7904, "*\u00e2\u0122\u0132": 49411, "\u0120Increase": 49336, "\u0120fra": 6005, "ari": 1792, "\u0120Wall": 8799, "\u0120also": 671, "Rh": 27837, "\u0120confused": 13477, "\u0120nickname": 34826, "\u0120Australian": 9943, "\u0120Angeles": 9757, "\u0120socialism": 38384, "iamo": 46161, "\u0120timescale": 43936, "rd": 5784, "ADDRESS": 49559, "377": 22863, "boolean": 23170, "\u0120INTRODUCTION": 39507, "qp": 39541, "\u0120East": 5791, "physical": 29079, "ordon": 14276, "\u0120refrain": 35531, "\u0120RP": 22806, "\u0120loader": 38837, "ADVERTISEMENT": 36860, "\u0120HTML": 11685, "CHA": 46227, "db": 5470, "\u00ef\u00bc\u012e": 6238, "\u0120Teh": 32807, "\u0120Gaz": 31749, "\u0120dispersal": 43585, "\u0120Sym": 16048, "405": 20680, "\u0120coupons": 49516, "\u0120combined": 5678, "\u0120Homeland": 38394, "\u0120generic": 12314, "\u0120restrained": 39848, "\u0120ok": 8718, "\u0120basic": 5044, "illion": 2212, "ugh": 19180, "\u0120Rout": 30852, "\u00e5\u0131": 5941, "Reset": 36001, "\u0120peril": 35342, "\u0120communities": 7888, "tested": 41694, "\u0120swings": 42534, "\u0120Siem": 49894, "\u0120luxury": 18997, "sometimes": 32307, "\u0120Coming": 36657, "\u0120dry": 6079, "mis": 24418, "\u0120overload": 31778, "\u0120ISO": 22776, "\u0120Baptist": 30021, "\u0120turn": 1614, "\u0120Edd": 20709, "\u0120willful": 47187, "Rewrite": 39087, "\u0120$\\|": 31357, "\u0120Much": 18770, "nsylvania": 11187, "\u0120candy": 26996, "\u0120futures": 36424, "\u0120parcel": 32975, "GE": 7538, "enin": 27112, "\u00e4\u00bb": 5690, "\u0120elevated": 10702, "\u0120fib": 5713, ":-": 22314, "\u00c2\u00a5": 11190, "character": 17932, "\u0120tact": 13253, "\u0120Stra": 19967, "omycin": 22867, "atics": 29126, "quired": 17050, "\u0120conformal": 29269, "amination": 10899, "\u0120directory": 9617, "Enabled": 19157, "\u0120booth": 32405, "xym": 37543, "\u0120purchaser": 37896, "\u0120dispensing": 38951, "\u0120trypt": 46055, "\u0120convection": 46318, "\u0120Chick": 46797, "RSP": 50073, "\u0120Ramos": 50218, "\u0120actively": 15257, "\u0120534": 40730, "114": 13391, "\u0120Firstly": 35346, "\u0120broadening": 44448, "\u0120Linear": 29682, "\u0120malt": 33673, "RH": 30682, "\u0120fragrance": 48339, "560": 35556, "\u0120antagonists": 33226, "\u0120classification": 9162, "pend": 16183, "\u0120PL": 11188, "\u0120wherever": 20312, "respect": 21014, "\u0120Das": 23184, "\u0120HAL": 31604, "\u0120designated": 13205, "\u0120workflow": 24824, "cra": 33205, "ulty": 11788, "\u0120appliances": 32701, "anus": 38628, "\u0120goog": 41536, "\u0120vacate": 33085, "\u0120sandy": 41240, "\u0120TX": 19685, "\u0120physical": 3520, "\u0120abilities": 15277, "\u0120PAR": 20738, "hk": 44734, "{}\\": 43945, "\u0120Herz": 41660, "\u0120hex": 15442, "LL": 2293, "\u0120nuts": 20392, "\u0120stri": 3521, "\u0120HTTP": 17607, "\u0120microorganisms": 30250, "metics": 46682, "ush": 2345, "repos": 28486, "\u0120Bald": 28373, "\u0120Bonferroni": 40358, "\u0120addict": 26716, "Init": 10828, "ente": 13589, "\u0120limit": 2701, "\u0120rug": 16051, "\u0120??": 38199, "aning": 18197, "yo": 11904, "\u00e3\u0123\u0128": 9935, "ippy": 47621, "\u0120LAT": 35004, "Zhang": 36378, "Ice": 47141, "PP": 4785, "\u0120dull": 22544, "\u010a\u0109\u0109": 988, "\u0120photons": 20370, "\u0120EVENT": 30609, "\u00d8\u00a7\u00db\u012e": 30801, "ENC": 20712, "\u0120Marshal": 36923, "ennes": 41564, "itet": 38009, "\u0120AUTHOR": 48422, "\u0120Cov": 30517, "\u0120excellence": 31925, "ially": 1365, "\u0120particip": 2611, "().": 5023, "hma": 14894, "ctl": 19207, "gs": 5943, "ier": 1321, "\u0120trou": 10524, "\u01201920": 18471, "\u0120Apart": 23449, "\u0120Eqs": 24118, "Phase": 30335, "Santa": 39356, "\u0120\u00d0\u013a": 35256, "ATING": 42284, "\u0120paraly": 45636, "appy": 11599, "manager": 20649, "\u0120tot": 1931, "\u0120miracles": 44776, "guid": 38246, "\u0120cleaned": 22269, "\u0120blindness": 44868, "--**": 33301, "\u0120----,": 49869, "Advertisement": 34757, "072": 42515, "\u0120rulers": 36491, "Foo": 34296, "lder": 39828, "\u0120Yard": 43767, "\u0120NEED": 42945, "524": 43171, "\u0120exchanging": 46108, "aving": 3292, "\u0120oppressive": 50205, "\u0120tablets": 23368, "\u0120moved": 4395, "\u0120oxides": 40095, "-'": 48530, "239": 20487, "sell": 39217, "\u0120pand": 18060, "Dot": 41943, "universal": 40601, "\u0120victories": 34158, "\u0120philosoph": 17211, "\u0120suture": 40036, "ariju": 12635, "\u0120Nolan": 46831, "\u0120successive": 20946, "\u0120visceral": 37392, "\u0120Sto": 32081, "ortun": 2665, "\u0120Memphis": 33199, "\u0120Approximately": 36242, ")\">": 37916, "\u0120link": 3048, "Why": 4967, "hesis": 25232, "operated": 44735, "\u0120JJ": 25544, "\u0120functor": 27259, "\u0120collectors": 38454, "ji": 8020, "\u0120it": 352, "\u0120woman": 3416, "\u0120titanium": 30327, "\u0120Dee": 47433, "\u0120Laf": 35735, "\u0120musician": 26650, "\u0120APIs": 33261, "\u0120commanding": 36174, "\u0120firefox": 44905, "ipel": 48189, "\u0120Chief": 9060, "\u0120token": 10669, "heres": 14210, "556": 35466, "|_{": 17180, "\u0120corpus": 20689, "\u0120Cave": 41407, "\u0120seaw": 45841, "annels": 7059, "\u0120acquired": 9288, "\u0120eigenvalues": 20223, "\u0120differentiating": 43073, "\u0120customized": 32176, "\u0120unders": 17433, "\u0120least": 1878, "\u0120movement": 4866, "\u0120treacher": 43286, "\u0120instanceof": 31979, "baz": 31953, "\u00c2\u013c\u00c2\u0126": 30707, "\u0120acuity": 43457, "\u0120justices": 50236, "SIZE": 12771, "\u0120brutal": 23180, "\u0120\u00d0\u00bf\u00d1\u0122\u00d0\u00b5\u00d0\u00b4": 29929, "\u00e2\u0139\u0131": 43776, "\u0120accepts": 25026, "\u0120sober": 31864, "ographic": 5576, "\u0120glow": 15795, "\u0120kitchen": 8576, "\u0120owners": 9891, "r\u00c3\u00a8s": 31030, "portation": 16220, "ulf": 5773, "ved": 1272, "Acc": 11728, "\u0120illusion": 25451, "\u0120padding": 13294, "abit": 46442, "\u0120kay": 41885, "\u0120Cauc": 25659, "\u0120feasibility": 25720, "\u0120assistants": 35785, "\u0120itiner": 44414, "\u0120fals": 21649, "\u0120189": 24665, "ves": 1634, "\u0120Tower": 20610, "ERO": 34675, "DC": 9151, "\u0120mean": 1599, "\u0120prominent": 11906, "\u0120exclusively": 14288, "reens": 10436, "parameter": 19484, "arcel": 19526, "\u0120Europe": 3060, "\u0120pent": 15482, "251": 21451, "\u0120determining": 8925, "\u0120n\u00c3\u00a5": 31217, "\u0120drug": 2854, "\u0120foli": 45054, "\u0120lt": 46007, "umor": 15502, "\u0120\\(": 24829, "\u0120antiviral": 33636, "\u0120teens": 27517, "sein": 34103, "\u0120breeds": 35328, "Quantity": 48514, "\u0120Oval": 48954, "\u0120penal": 29697, "organized": 34092, "Three": 11831, "\u0120matters": 8213, "performance": 24159, "ikan": 38522, "|>": 49651, "\u0120damping": 31731, "coord": 29309, "\u0120Ultimately": 33975, "\u0120supporting": 8109, "Replace": 34435, "\u0120fast": 3809, "\u0120Fer": 20496, "\u0120Publishing": 24837, "WriteLine": 33626, "denly": 22912, "\u0120usual": 7312, "\u0120construct": 3989, "\u01201962": 20208, "\u00e6\u0137\u00b0": 15531, "\u0120diamond": 16673, "AX": 14942, "\u0120anche": 32239, "prior": 40844, "\u0120persuasive": 34593, ")}}{": 46890, "\u0120ethics": 18035, "Master": 20133, "mutex": 22687, "\u0120violations": 15927, "Ten": 27788, ":%": 27976, ")}$.": 28185, "\u0120medial": 24309, "bootstrap": 24884, "\u0120Um": 29744, "\u0120minorities": 31691, "MIT": 38860, "misc": 43671, ")\\].": 37077, "\u0120kil": 11895, "BIT": 14609, "\u0120violin": 36608, "\u0120Void": 49494, "\u0120Fit": 40632, "frequency": 18163, "\u01201978": 14304, "miR": 22221, "\u0120attacker": 30539, "\u0120IIS": 50122, "\u0120Interview": 31466, "\u0120aur": 32142, "\u0120expon": 13287, "\u0120stere": 14166, "\u0120tear": 16024, "\u0120short": 2159, "ensitive": 18917, "\u0120Roll": 21508, "\u0120condens": 25904, "cern": 20631, "\u0120operation": 4254, "ured": 1520, "Christ": 13238, "Abs": 18310, "most": 2252, "\u0120tumour": 18258, "\u0120construed": 21323, "\u0120afforded": 26299, "\u0120criminal": 6424, "columnwidth": 33237, "\u0120winding": 25072, "arrison": 27995, "\u0120gamma": 17356, "oste": 35279, "\u0120Wait": 21050, "\u0120renewed": 23347, "\u0120quantitative": 11745, "\u01201987": 12034, "\u0120predictions": 13650, "\u0120reduct": 27556, "\u0120horm": 10101, "\u0120openings": 29239, "\u0120accomplished": 14123, "\u0120$[\\": 34398, "\u0120penny": 36550, "772": 36936, "ulations": 3339, "371": 28898, "\u0120killings": 40139, "inho": 33742, "\u0120kinder": 40241, "\u0120Chiefs": 40839, "\u0120Button": 26645, "\u0120RG": 30369, "\u0120gait": 31262, "aryl": 31271, "\u0120Valentine": 33099, "\u0120||": 2785, "\u0120ballot": 22523, "\u0120CCT": 39794, "\u0120Trans": 4480, "ultz": 38085, "Statistics": 39854, "\u00e5\u00bf\u0127": 41250, "\u0120qubits": 42414, "\u0120dual": 8746, "bably": 15138, "Written": 39557, "omnia": 40529, "\u0120All": 1876, "\u0120bomber": 42786, "\u0120Garrett": 43367, "ENT": 3489, "\u0120classrooms": 45445, "\u00cf\u0123\u00cf\u0129": 49798, "Perhaps": 16830, "\u0120taxpayers": 27551, "tables": 38538, "Nullable": 44761, "regulation": 11973, "springframework": 19377, "\u0120hitch": 47826, "Expansion": 48731, "vertising": 38207, "IR": 3027, "\u0120Having": 14566, "807": 28950, "artifact": 22321, "\u0120MON": 33995, "\u0120Can": 2615, "\u0120reboot": 29393, "\u0120blinded": 34903, "\u0120softer": 44108, "\u0120Interests": 34665, "CA": 4280, "\u0120nada": 35927, "\u0120Cary": 50227, "\u0120$<": 22747, "\u0120Commiss": 33366, "\u0120Mark": 4744, "\u00e3\u0123\u013d": 24617, "\u0120Draw": 24440, "\u0120nephew": 33793, "26": 1731, "Help": 19576, "\u0120immunoglobulin": 40523, "\u0120exploration": 17947, "\u00e6\u00ae": 33369, "\u0120intended": 6034, "Dir": 13694, "\u0120controls": 5760, "\u0120longer": 3356, "likely": 10355, "\u0120variant": 12955, "\u0120Fra": 22864, "aturday": 7023, "Sam": 17232, "\u0120Mans": 25686, "ppo": 31244, "\u0120MU": 32639, "\u0120Pho": 18096, "\u0120Gallery": 21778, "\u0120Sons": 28431, "Applied": 41041, "clonal": 36932, "\u0120Masters": 29351, "\u0120texts": 17438, "\u0120severe": 5460, "\u0120MA": 6908, "%),": 9498, "discussion": 49794, "ractical": 26080, "\u0120pressing": 17178, "\u0120Dj": 43050, "\u0120dealing": 10620, "\u0120AC": 11940, "\u0120professionals": 12440, "gesterone": 34847, "ray": 1402, "\u0120Kub": 40407, "\u0120plated": 35610, "\u0120hosted": 17386, "\u0120condition": 1617, "\u0120Error": 11759, "\u0120enthusiastic": 31905, "\u0120her": 617, "onday": 6461, "\u00d0\u00bd\u00d0\u00b5": 32520, "$_{": 14982, "INK": 15130, "utor": 6854, "Poss": 34214, "\u0120garment": 40371, "\u0120arr": 4077, "\u0120Eco": 48804, "=======================": 27240, "\u0120forgiveness": 34555, "\u0120placed": 4845, "\u0120kid": 5772, "\u0120tit": 8225, "VEGF": 47737, "\u0120hospit": 11469, "avo": 41231, "osexual": 20703, "\u0120Put": 9272, "}}^": 7294, "\u00c5\u012f": 13293, "highlight": 30703, "\u0120HOW": 28281, "\u0120researching": 37676, "gow": 24003, "RM": 26889, "\u0120\u0120\u0120\u0120\u0120\u0120\u0120\u0120\u0120\u0120\u0120\u0120\u0120\u0120\u0120\u0120\u0120\u0120\u0120\u0120\u0120\u0120\u0120\u0120\u0120\u0120\u0120\u0120\u0120\u0120\u0120\u0120\u0120\u0120\u0120\u0120\u0120\u0120\u0120\u0120\u0120\u0120\u0120\u0120\u0120\u0120\u0120\u0120\u0120\u0120\u0120\u0120\u0120\u0120\u0120\u0120\u0120\u0120\u0120\u0120\u0120\u0120\u0120\u0120\u0120\u0120\u0120\u0120\u0120\u0120\u0120\u0120\u0120\u0120\u0120\u0120\u0120\u0120\u0120\u0120\u0120\u0120\u0120\u0120\u0120\u0120\u0120\u0120\u0120\u0120\u0120\u0120\u0120\u0120\u0120\u0120\u0120\u0120\u0120\u0120\u0120\u0120\u0120\u0120\u0120\u0120\u0120\u0120\u0120\u0120\u0120\u0120\u0120\u0120\u0120\u0120\u0120\u0120\u0120\u0120\u0120\u0120\u0120\u0120\u0120\u0120\u0120\u0120\u0120\u0120\u0120\u0120\u0120\u0120\u0120\u0120\u0120\u0120\u0120\u0120\u0120\u0120\u0120\u0120\u0120\u0120\u0120\u0120\u0120\u0120\u0120\u0120\u0120\u0120\u0120\u0120\u0120\u0120\u0120\u0120\u0120\u0120\u0120\u0120\u0120\u0120\u0120\u0120\u0120\u0120\u0120\u0120\u0120\u0120\u0120\u0120\u0120\u0120\u0120\u0120\u0120\u0120\u0120\u0120\u0120\u0120\u0120\u0120\u0120\u0120\u0120\u0120\u0120\u0120\u0120\u0120\u0120\u0120\u0120\u0120\u0120\u0120\u0120\u0120\u0120\u0120\u0120\u0120\u0120\u0120\u0120\u0120\u0120\u0120\u0120\u0120\u0120\u0120\u0120\u0120\u0120\u0120\u0120\u0120\u0120\u0120\u0120\u0120\u0120\u0120\u0120\u0120\u0120\u0120\u0120\u0120\u0120\u0120\u0120\u0120\u0120\u0120\u0120\u0120\u0120\u0120\u0120\u0120\u0120\u0120\u0120\u0120\u0120\u0120\u0120\u0120": 7421, "\u0120MO": 14789, "387": 25745, "rtc": 34433, "\u0120bought": 8686, "chle": 37894, "enting": 42424, "\u0120cham": 45909, "\u0120Cardi": 46283, "Gr": 3594, "\u0120inherit": 30686, "\u0120backyard": 34447, "\u0120einer": 24910, "orian": 40563, "Jur": 49864, "\u00c4\u00b1k": 47772, "\u0120cult": 2453, "\u0120Ru": 18268, "otta": 31797, "\u0120elephant": 31865, "lac": 42184, "model": 7645, "\u010a\u0120\u0120\u0120\u0120\u0120\u0120\u0120\u0120\u0120\u0120\u0120\u0120\u0120\u0120\u0120\u0120\u0120\u0120\u0120\u0120\u0120\u0120\u0120\u0120\u0120\u0120\u0120\u0120\u0120\u0120\u0120\u0120\u0120\u0120\u0120\u0120\u0120\u0120\u0120\u0120\u0120\u0120\u0120\u0120\u0120\u0120\u0120\u0120\u0120\u0120\u0120\u0120\u0120\u0120\u0120": 43068, "Mod": 4120, "plant": 8186, "If": 2042, "spin": 16056, "\u0120cloves": 40466, "\u010a\u0120\u0120\u0120\u0120\u0120\u0120\u0120\u0120\u0120\u0120\u0120\u0120\u0120\u0120\u0120\u0120\u0120\u0120\u0120\u0120\u0120\u0120": 17482, "\u010a\u010a\u0120\u0120\u0120\u0120\u0120\u0120\u0120\u0120\u0120\u0120\u0120\u0120\u0120\u0120\u0120\u0120\u0120\u0120\u0120": 19738, "\u0120Random": 20221, "\u00c4\u00ab": 10271, "\u0120View": 9182, "\u0120contro": 8830, "agles": 23044, "regex": 28847, "\u0120Rober": 5515, "0005": 13930, "emu": 36812, "irms": 11178, "hering": 42527, "\u0120parsley": 38955, "\u0120martial": 29731, "\u0120trail": 11693, "*+": 42396, "Play": 21020, "\u0120tourism": 26742, "\u010a\u0120\u0120\u0120\u0120\u0120\u0120\u0120\u0120\u0120\u0120\u0120\u0120\u0120\u0120\u0120\u0120\u0120\u0120\u0120\u0120\u0120\u0120\u0120\u0120\u0120\u0120\u0120\u0120\u0120\u0120\u0120\u0120\u0120\u0120\u0120\u0120\u0120\u0120\u0120\u0120\u0120\u0120\u0120\u0120\u0120\u0120\u0120\u0120\u0120\u0120\u0120\u0120\u0120\u0120\u0120\u0120\u0120\u0120\u0120\u0120\u0120\u0120\u0120\u0120\u0120\u0120\u0120\u0120\u0120\u0120\u0120\u0120\u0120\u0120\u0120\u0120\u0120\u0120\u0120\u0120\u0120\u0120\u0120\u0120\u0120\u0120\u0120\u0120\u0120\u0120\u0120\u0120\u0120\u0120\u0120\u0120": 27728, "\u0120messenger": 31267, "Center": 21972, "forms": 13015, "ayette": 32441, "\u0120evac": 21019, "================================================": 33015, "AMPLE": 40419, "tot": 23877, "iju": 44823, "Physical": 35227, "\u0120Statistics": 23363, "\u0120narciss": 47852, "CK": 7519, "\u0120Experience": 26962, "erp": 47952, "ampsia": 49709, "301": 17615, "\u0120pela": 35553, "\u0120):": 47432, "\u00d0\u00b8\u00d0\u00b3": 43461, "\u0120filthy": 46280, "Pb": 35923, "RPC": 48095, "\u0120foundations": 27629, "FY": 48965, "\u0120spong": 48230, "rogate": 28442, "logic": 46786, "\u0120majority": 5020, "\u00d1\u0139": 40530, "\u0120fireworks": 44161, "VS": 28259, "textarea": 44749, "\u0120walked": 7428, "\u0120Mass": 7532, "\u0120backbone": 27882, "\u0120Too": 21994, "\u0120Cassie": 40136, "\u0120gigantic": 41490, "Works": 21950, "\u0120index": 3605, "psin": 25591, "\u0120analogue": 28046, "\u0120tie": 13898, "\u0120doubts": 24626, "ws": 8819, "\u0120explosive": 26660, "\u0120differently": 13359, "\u0120recreational": 28977, "priority": 36505, "\u0120disgrace": 40655, "\u0120sludge": 42759, "\u0120Preston": 44124, "\u0120seamless": 45871, "\u0120gently": 15492, "\u0120remote": 8905, "\u00e0\u00a4\u00a8": 23068, "whose": 39374, "\u0120realiz": 42924, "\u0120AML": 34653, "\u0120proc": 15613, "\u0120asynchron": 29307, "\u0120Devon": 40316, "\u0120Mathematical": 34098, "\u0120Minutes": 48474, "\u0120input": 3280, "ITA": 47358, "\u0120flexion": 42392, "\u0120chir": 36494, "To": 1992, "\\}}": 34846, "\u0120permit": 9659, "\u0120partitioning": 41463, "Tan": 45621, "ost": 493, "With": 3378, "\u0120Psych": 13219, "\u0120account": 2395, "\u0120reliable": 9630, "tra": 7604, "\u0120doct": 10707, "\u0120f\u00c3\u00b6": 21119, "poll": 30209, "Almost": 33451, "\u0120Tournament": 34947, "ryan": 36440, "\u0120demonstrations": 32367, "\u0120degli": 39884, "\u0120internal": 4812, "\u0120inset": 31660, "\u0120hits": 12830, "\u0120Hash": 22272, "translated": 49916, "\u0120aureus": 26494, "negot": 43543, "great": 17124, "\u0120CONT": 34523, "38": 1839, "\u0120Even": 4952, "\u0120vehicles": 9411, "={": 11787, "\u0120leather": 16269, "\u0120elaborate": 21184, "\u0120balloon": 23470, "\u0120pupp": 20555, "\u00e0\u00a4\u00b9": 30598, "erre": 32987, "\u0120Short": 14196, "\u0120peritoneal": 35948, "\u0120allegation": 26840, "pless": 18628, "depth": 16719, "\u0120consider": 1908, "suits": 30293, "cli": 31010, "\u0120Reduction": 43383, "Ruby": 45317, "ecal": 45808, "\u0120plat": 26588, "\u0120Soon": 21965, "\u0120settling": 29116, "rived": 30487, "\u00d1\u012d\u00d1\u0127": 46070, "\u010a\u0120\u0120\u0120\u0120\u0120": 1043, "ircon": 48017, "\u012000000000000000000000000000000000": 34575, "\u0120daar": 48720, "\u0120leased": 44955, "UNIT": 49101, "\u0120location": 4328, "\u0120Wind": 17054, "Network": 19824, "Card": 18497, "\u0120forums": 25278, "aux": 10422, "\u0120Belle": 31596, "\u0120Cherry": 37738, "Friend": 44427, "\u0120medical": 3739, "\u0120PayPal": 46104, "redients": 46580, "\u0120GM": 15509, "\u0120Cro": 13198, "\u0120126": 17574, "\u0120mul": 22871, "Follow": 18905, "orney": 4801, "ogo": 24912, "/((": 29651, "ifice": 33095, "hele": 48056, "\u0120APA": 48780, "\u0120pressure": 3473, "regs": 24487, "\u00e1\u00ba\u00a1": 30110, "\u0120$\\{": 10809, "\u0120bon": 10163, "\u0120reasoned": 31114, "\u0120compute": 11897, "\u0120equiv": 32270, "\u0120profession": 8761, "\u0120Shapiro": 44934, "427": 38686, "\u0120r\u00c3\u00a9": 9568, "}})$.": 39049, "_)": 27307, "atrix": 28491, "\u0120Trib": 15637, "\u0120cursor": 20482, "\u0120narcotics": 41815, "\u0120fi": 12684, "\u0120Iron": 17826, "\u0120Tank": 40202, "iss": 739, "\u0120brightest": 43719, "\u010a\u0120\u0120\u0120\u0120\u0120\u0120\u0120\u0120\u0120\u0120\u0120\u0120\u0120\u0120\u0120\u0120\u0120\u0120\u0120\u0120\u0120\u0120\u0120\u0120\u0120\u0120\u0120\u0120\u0120\u0120\u0120\u0120\u0120\u0120": 29424, "47": 2504, "\u0120magnetization": 28565, "\u0120Materials": 20898, "930": 48180, "iscussion": 10055, "Furthermore": 20964, "utations": 35294, "\u0120Sham": 41964, "\u0120dil": 7425, "\u0120therefore": 3103, "\u0120TOP": 16087, "\u0120tier": 30625, "\u0120promotional": 32223, "Tests": 26943, "Sr": 46268, "\u0120dispositions": 46491, "plac": 33854, "otherap": 44469, "\u00cf\u0123\u00ce\u00b3": 36003, "\u0120Essex": 44057, "\u0120Cambridge": 11988, "\u0120climate": 7952, "porter": 18845, "roads": 29488, "lightenment": 48485, "\u0120Nig": 18759, "Fe": 7510, "deploy": 45552, "fonts": 8345, "\u0120Old": 8937, "\u0120confession": 26438, "\u0120CE": 7956, "\u0120sandwich": 25749, "ffffffff": 22518, "\u0120226": 27648, "NotNull": 41419, "\u0120ranged": 17751, "iske": 34643, "\u0120Array": 11782, "\u0120anonym": 26314, "\u0120ky": 44996, "quette": 48464, "[:": 18297, "ENRON": 37425, "plications": 35663, "\u0120squat": 39163, "\u0120rocking": 43219, "\u00e2": 158, "\u0120polynomials": 21783, "Payload": 48797, "\u0120Chel": 21665, "\u0120divisor": 11812, "\u0120fing": 8569, "\u0120idiot": 28006, "\u0120parliamentary": 30566, "ici\u00c3\u00b3n": 32206, "\u0120subtracted": 42426, "\u00d0\u00bd\u00d0\u00be\u00d0\u00b5": 41627, "\u0120BOOST": 10807, "\u0120filtration": 24077, "\u0120ambassador": 27178, "cout": 28644, "\u0120tablet": 19801, "\u0120arist": 30845, "\u0120mentioning": 29570, "achusetts": 13462, "0011": 23643, "\u0120solub": 26420, "\u0120casing": 30490, "satellite": 46079, "\u0120Dock": 41840, "\u0120vicious": 30157, "\u0120bronze": 26247, "idential": 9440, "\u0120incorporated": 11217, "rost": 18419, "isha": 25059, "Small": 25074, "\u0120revived": 43941, "\u0120distrust": 48655, "\u0120promoting": 14312, "fiction": 33223, "\u0120playing": 4882, "amsmath": 8798, "fl": 1258, "\u0120Contemporary": 39921, "\u0120approximate": 16851, "\u00e0\u00a7": 21283, "\u0120Harry": 11643, "pan": 4029, "\u0120register": 8749, "\u0120dart": 35197, "}),\\": 46257, "\u0120malicious": 24764, "182": 20700, "\u0120Carrie": 45274, "\u0120Council": 6456, "\u0120spoke": 7560, "\u0120grateful": 14442, "\u0120recycl": 18490, "\u0120chi": 21477, "\u0120Display": 27604, "staff": 34632, "\u0120echoes": 41249, "caster": 33293, "Neil": 41539, "\u0120Luckily": 41624, "\u00e3\u0123\u0141": 6218, "DESC": 42941, "558": 38070, "\u00c3\u00a9t\u00c3\u00a9": 39929, "\u0120Dav": 3826, "unched": 43157, "single": 20199, "\u0120ignore": 11823, "otics": 20290, "\u0120Truth": 23921, "da": 1473, "aaaa": 23342, "Justice": 43743, "\u0120bounty": 44279, "\u0120plantation": 45051, "\u0120Tus": 50249, "\u0141": 242, "Rearrange": 20300, "FFER": 27254, "\u0120alg": 20320, "*;": 25350, "ologically": 11220, "\u0120Clinton": 9662, "\u0120calories": 24692, "\u0120fashion": 8142, "\u0120promises": 16966, "\u0120\u010a\u0120\u0120\u0120\u0120\u0120\u0120\u0120\u0120\u0120\u0120\u0120": 21024, "\u0120solder": 31223, "\u0120brew": 25410, "\u0120leave": 3553, "ocytosis": 23984, "\u0120\u00cf\u0129": 23977, "ucing": 32578, "\u0120browse": 34740, "\u0120lineages": 34835, "\u0120condensed": 35341, "Studies": 38954, "\u0120stocks": 19487, "762": 40629, "\u0120Brennan": 45572, "\u0120NRA": 48812, "\u0120Product": 13126, "send": 13161, "Main": 13030, "\u0120modular": 23178, "\u0120oversight": 29002, "crystalline": 48256, "\u0120layered": 36910, "regation": 37480, "():": 14850, "sql": 11296, "\u0120quite": 3240, "harmonic": 38474, "\u0120spiral": 22377, "\u0120disput": 8278, "\u0120108": 13278, "\u0120leptin": 37751, "iben": 42181, "\u0120\u00d0\u00be\u00d0\u00bd": 47270, "----------------": 573, "atican": 31725, "\u0120entertain": 9845, "AVE": 13754, "\u0120interstate": 30899, "ology": 1497, "\u0120Nashville": 30647, "\u0120Gap": 46096, "\u0120suspect": 9101, "\u0120room": 2316, "\u0120endorse": 18883, "awning": 37567, "fro": 35255, "\u0120virtually": 14257, "\u0120ed": 1407, "\u0120fren": 28080, "amas": 33122, "inse": 38424, "\u0120GS": 28611, "\u0120inqu": 9254, "\u0120ought": 12758, "\u0120audience": 8446, "\u0120gener": 1006, "\u0120route": 7622, "\u0120appellate": 16939, "\u0120compromised": 25047, "QQ": 25138, "antib": 25499, "110": 7749, "\u0120stirred": 29087, "Prep": 29779, "\u0120destroy": 6909, "\u00e3\u0125\u0125\u00e3\u0125\u012a": 38906, "\u0120poder": 33693, "Img": 40148, "LS": 7858, "\u0120codon": 33442, "annel": 3536, "\u0120Buddhist": 27235, "\u0120mole": 3478, "ads": 6594, "\u0120Texans": 49065, "rect": 6471, "\u0120dependence": 10096, "\u0120ports": 17596, "\u0120saturation": 22185, "transition": 25974, "\u0120found": 1119, "344": 22543, "don": 9903, "\u0120restructuring": 48090, "\u0120propagating": 42995, "\u0120Tumor": 35288, "\u0120syringe": 40674, "\u0120Pt": 29673, "-\"": 46241, "\u0120vinyl": 27179, "\u0120*": 475, "\u0120Dynamics": 37868, "ollow": 901, "\u0120Warren": 17966, "\u0120satur": 19004, "failure": 33699, "\u0120convert": 6455, "\u0120accumulate": 29010, "\u0120mAb": 39096, "\u0120signal": 2625, "\u0120Amended": 42173, "\u00e2\u0122\u00b2": 6097, "\u0120insider": 45937, "Fish": 48290, "ouch": 9764, "\u0120ur": 2936, "ieux": 34750, "\u0120connecting": 12873, "her": 379, "\u0120nationality": 47166, "ahead": 42338, "\u0120interest": 1600, "Ped": 49789, "oprotein": 14891, "\u0120kinase": 11725, "\u0120oxygen": 7768, "\u0120mandibular": 48860, "\u0120assembl": 19308, "icide": 9429, "\u0120Heart": 15382, "\u0120candle": 28725, "irable": 8953, "\u0120Relative": 29666, "UMENT": 44854, "\u00c3\u00aetre": 47324, "sm": 3610, "\u0120decays": 27221, "\u0120KC": 36635, "cribe": 19268, "\u0120Military": 20884, "\u0120asserting": 29208, "\u00e8\u00a8\u013a": 44330, "\u0120Xi": 36852, "\u0120amounted": 37752, "\u0120Rew": 34479, "}{": 1217, "inement": 14675, "\u0120mog": 36032, "\u0120avoided": 16371, "cycles": 37360, "VERT": 23369, "acknow": 31954, "\u0120Thanksgiving": 32678, "|=": 28627, "\u0120cheerful": 39567, "\u00cf\u0122": 4134, "\u0120stronger": 10046, "\u0120vow": 30130, "tif": 40165, "\u0120SUMMARY": 44926, "\u0120pine": 21175, "\u0120aunt": 25969, "utable": 13508, "LEVEL": 36868, "\u0120announced": 6138, "Script": 9026, "activ": 19452, "atter": 2569, "\u0120isot": 14539, "uu": 19558, "aa": 5781, "v\u00c3\u00a4": 21380, "\u0120terminology": 28939, "\u00c5\u00a3": 13069, "medscimonit": 37406, "\u0120Dismiss": 40703, "229": 17107, "uins": 47701, "\u0120strangers": 26636, "112": 11124, "\u0120regression": 9077, "five": 12071, "\u0120Cit": 16415, "domains": 45047, "150": 8970, "\u0120holes": 11385, "\u0120stat": 1098, "\u0120strain": 7372, "Art": 11796, "\u0120129": 17181, "OE": 32658, "finder": 31732, "\u0120Kam": 21174, "\\|\\": 25583, "\u0120TA": 22039, "\u0120planned": 9355, "\u00a5": 100, "\u0120signing": 15428, "\u0120Winn": 31071, "300": 7554, "\u0120committing": 26841, "\u0120Certainly": 30445, "\u0120parenting": 31104, "\u0120wil": 31380, "\u0120shows": 2722, "\u0120jaws": 43567, "orna": 46932, "']))": 47916, "\u0120assigning": 34018, "\u0120undermined": 48178, "asted": 12457, "\u0120Consc": 49143, "police": 50141, "\u0120preserve": 14003, "\u0120types": 3510, "ARD": 10449, "\u0120Whatever": 21836, "\u0120chunks": 30151, "374": 24562, "\u0120Leeds": 39605, "\u00d0\u00b0\u00d0\u00bb\u00d0\u00b8": 33207, "\u0120jer": 23313, "\u0120substantial": 6832, "\u00d8\u00ba": 50011, "industrial": 49338, "Timeout": 20780, "\u0120FL": 11953, "\u0120critics": 17139, "fficacy": 35713, "\u0120Sin": 16495, "\u00d0\u00b0\u00d0\u00bb\u00d0\u00b0": 43437, "\u0120Pom": 28300, "ership": 4249, "\u0120bath": 8158, "\u0120violates": 28096, "info": 5374, "\u0120largest": 6253, "\u0120Bobby": 24707, "Ni": 24534, "\u0120noting": 15806, "\u0120$%": 40401, "allow": 8912, "\u0120Guard": 12174, "\u0120individualized": 47687, "\u0120George": 6086, "\u0120personality": 13216, "\u0120dimension": 7877, "\u0120\u00c5\u00bc": 28252, "ungs": 25190, "\u0120sentencing": 14625, "\u0120Activity": 21907, "\u0120uprising": 47930, "\u0120tick": 7049, "\u0120mmHg": 35123, "Thursday": 28549, "\u0120Americans": 7108, "\u0120fused": 29843, "\u0120markedly": 22293, "\u0120demons": 33262, "\u0120Cairo": 37068, "alli": 43953, "history": 22328, "\u0120Pence": 44946, "\u0120courtyard": 33924, "publ": 30146, "merce": 13672, "\u00e2\u0122\u00a6\u00e2\u0122\u00a6\u00e2\u0122\u00a6\u00e2\u0122\u00a6": 41391, "\u0120marked": 7101, "\u0120scrib": 43010, "rae": 43625, "\u0120phenyl": 29901, "\u0120Gore": 37697, "\u0120responders": 38427, "\u0120Palestin": 14198, "\u0120downloading": 33676, "ruz": 43311, "\u0120ptr": 27028, "\u0120Explorer": 29904, "\u0120count": 1385, "arate": 33573, "\u0120Meth": 36380, "\u0120ubiquit": 18523, "\u0120dripping": 45687, "\u0120autopsy": 37563, "eded": 16533, "\u0120duck": 27985, "\u0120PIN": 39317, "\u0120rescued": 28187, "rous": 18437, "\u0120Da": 12073, "\u0120SF": 15112, "\u0120hole": 7793, "payload": 35704, "\u0120malf": 37540, "\u0120extrinsic": 38988, "\u0120Olivia": 45790, "\u0120\u00f0\u0141": 22692, "\u0120misc": 27722, ")&": 29372, "\u0120tur": 10709, "umns": 7930, "COMP": 27550, "##": 817, "marker": 39754, "\u0120acknowledging": 40088, "ament": 2247, "\u0120ferry": 33111, "delete": 16435, "\u0120info": 8692, "program": 14996, "\u0120packets": 20342, "reshold": 6842, "\u0120peered": 43517, "\u0120shower": 16846, "keletal": 30554, "\u0120chalk": 40400, "\u0120sempre": 42722, "\u010a\u0120\u010a\u0120\u010a\u0120\u010a\u0120\u010a\u0120\u010a\u0120\u010a\u0120\u010a\u0120": 47034, "Advanced": 42378, "Buffer": 10644, "\u0120Amendment": 10737, "\u0120essence": 17718, "rove": 47550, "\u0120receiving": 6883, "\u00e6\u00ba": 36337, "meric": 1446, "\u0120Cape": 20904, "\u0120Foster": 24942, "/\u00e2\u0122\u012d": 43266, "\u0120naming": 26086, "\u0120tide": 26816, "\u0120coins": 21078, "\u0120exceeded": 22536, "\u0120headquarters": 17929, "\u0120solutions": 5482, "cloud": 18534, "\u0120municipal": 21209, "Anyway": 25954, "Sil": 18074, "\u0120broadband": 31170, "sover": 28242, "\u0120hosts": 14516, "\u0120Secure": 46251, "\u0120skills": 6936, "\u0120stick": 7356, "\\]]{}": 29013, "\u0120residues": 12359, "\u0120Structure": 29593, "906": 30920, "\u0120ecosystem": 17493, "\u0120Aim": 35291, "\u0120vector": 4972, "\u0120GH": 22419, "\u013e\u0135": 34918, "\u0120interact": 8008, "\u0120suspensions": 39174, "\u0120SIG": 32530, "                  ": 50260, "\u00c9": 133, "otically": 33248, "\u0120promul": 38548, "\u0120columnist": 43556, "\u0120helps": 7729, "\u0120espec": 27836, "Force": 30579, "'.\"": 41306, ")>": 21966, "\u0120Mont": 7812, "greater": 46274, "\u0120circle": 9096, "\u0120agents": 6083, "\u0120longevity": 37899, "\u0120pregn": 6632, "\u0120n\u00c3\u0125": 38229, "\u0120Maya": 41151, "\u0120\u00d8\u00a7\u00d9\u0126\u00d8\u00aa": 46751, "\u00c3\u00ae": 18513, "BASE": 23335, "ramble": 45110, "Cap": 15614, "value": 2877, "\u0120bipart": 28577, "oxygen": 26649, "shall": 30049, "\u0120facility": 9509, "enden": 27793, "iron": 2002, "Ger": 41032, "\u0120minimum": 5927, "indy": 38574, "\u0120Delhi": 19950, "result": 6870, "\u00e4\u00bb\u00bb": 44573, "\u0120517": 41495, "\u0120(\\#": 45637, "\u0120chefs": 49828, "\u0120epoxy": 42018, "\u0120throw": 4710, "frak": 5278, "\u0120revealing": 19678, "utton": 28738, "IRE": 29349, "\u0120coordinates": 11627, "\u0120Danish": 26304, "\u0120ruined": 27826, "near": 31323, "\u0120Gro": 14038, "mith": 27268, "\u0120astr": 15395, "\u0120ORDER": 19140, "\u0120HOLD": 37656, "\u0120insufficiency": 39975, "\u0120perturbation": 20452, "\u0120conflic": 11603, "\u0120retreat": 19015, "shop": 29203, "\u0120chase": 24577, "\u0120everywhere": 11678, "\u0120slurry": 44999, "\u0120averaging": 25001, "\u0120whim": 41750, "\u0120fair": 4344, "\u0120dropped": 8231, "\u0120lives": 4852, "\u0120trailers": 47958, "\u0120reached": 4925, "\u0120antagon": 13878, "\u0120168": 21748, "\u0120Waters": 34184, "wx": 22358, "inst": 6839, "\u0120Gri": 42765, "isco": 23538, "\u0120Point": 11149, "irectory": 12492, "\u0120ham": 10546, "\u0120bitter": 17123, "genes": 22422, "\u0120ninth": 28023, "\u0120309": 33000, "*(*": 24222, "usually": 27978, "cale": 25912, "\u00e0\u00a6\u00be": 33225, "\u0120trend": 9058, "\u0120monk": 35295, "Plaintiffs": 36645, "\u0120sees": 11403, "riterion": 41634, "\u0120Pd": 41895, "\u0120Govern": 5631, "EMPT": 47913, "arser": 9332, "ords": 6565, "\u0120uni": 42015, "\u00d0\u00bd\u00d0\u00b0\u00d1\u0131": 43167, "\u0120contradicts": 40878, "\u0120perturbative": 43939, "\u0120tablespoon": 23451, "\u0120chol": 27554, "\u0120affairs": 13909, "\u0120redirect": 21124, "\u0120regulated": 13527, "\u0120harass": 15598, "\u0120apt": 13390, "\u0120restaur": 7453, "\u010a\u0120\u0120\u0120\u0120\u0120\u0120\u0120\u0120\u0120\u0120\u0120\u0120\u0120\u0120\u0120\u0120\u0120\u0120\u0120\u0120\u0120\u0120\u0120\u0120\u0120\u0120\u0120\u0120\u0120\u0120\u0120\u0120\u0120\u0120\u0120\u0120\u0120\u0120\u0120\u0120\u0120\u0120\u0120\u0120\u0120\u0120\u0120\u0120\u0120\u0120\u0120\u0120\u0120\u0120\u0120\u0120\u0120\u0120\u0120\u0120\u0120\u0120\u0120\u0120": 11261, "\u0120nutrients": 23491, "\u0120naar": 41784, "\u0120Davies": 35693, "\u0120293": 26675, "\u0120uncover": 32355, "\u00ce\u00bb\u00ce\u00bb": 29704, "unnel": 35989, "\u0120glances": 49781, ")\\[": 36399, "ANGE": 25876, "TRA": 26963, "enton": 26947, "\u0120Circuit": 6817, "\u0120plasmid": 18242, "\u0120semantics": 35185, "Pret": 35737, "\u0120$|": 10493, "}}}_{\\": 37276, "061": 37545, "\u0120integrable": 40369, "\u0120vegg": 43697, "T": 53, "\u0120defeated": 16473, "\u0120manufacture": 6833, "\u0120veh": 3793, "347": 23568, "\u0120caller": 27333, "\u00e5\u0131\u0139": 43368, "TG": 16854, "\u0120representation": 6779, "\u0120inher": 10958, "CAT": 24227, "\u0120palp": 36385, "\u0120soaked": 38149, "\u0120Primer": 48400, "\u0120abruptly": 30046, "qu": 371, "Ct": 5229, "ius": 3750, "\u0120joined": 7416, "ollo": 25908, "\u0120Lebanon": 28746, "\u0120459": 40230, "idem": 5710, "\u0120Club": 9585, "otted": 7655, "040": 17884, "\u0120flows": 14221, "\u0120attracted": 17755, "\u0120exhausted": 20802, "Desc": 24776, "\u0120Job": 21591, "\u0120logger": 28822, "\u0120Elliott": 34694, "uku": 42379, "ributors": 42505, "iazep": 42907, "\u0120Hsp": 46149, "issions": 11483, "\u0120Ry": 19571, "\u0120casting": 20278, "\u0120halfway": 25854, "\u0120fr\u00c3\u00a5n": 36177, "\u0120anticancer": 38360, "\u0120equality": 13919, "1990": 13435, "\u0120implanted": 28567, "\u0120381": 41206, "\u0120parsing": 29072, "CW": 41584, "\u0120regex": 21165, "ruary": 4701, "\u0120Maker": 45325, "\u0120gl": 1289, "estyle": 12463, "\u0120AMPK": 46822, "\u0120epidermis": 49622, "\u0120Sex": 16678, "\u0120constitu": 13085, "GMP": 40340, "\u0120glioma": 41792, "\u0120Bri": 41431, "\u0120stored": 7141, "\u00e8\u00ba": 41777, "BLE": 18688, "\u0120medication": 12358, "\u0120Lu": 7511, "\u010d\u010a\u0120\u0120\u0120": 3568, "\u0120fragments": 14251, "\u0120\u0120\u010a\u0120": 32776, "\u0120ogs\u00c3\u00a5": 40415, "Vers": 43356, "Browser": 34228, "\u0120transgene": 48376, "gebras": 16343, "structor": 26161, "Proxy": 23074, "udd": 7937, "\u0120Dawson": 42890, "\u0120medications": 16940, "\u0120serpent": 45046, "block": 6172, "\u0120hell": 7085, "\u0120evaluations": 27163, "in": 249, "GL": 5990, "999": 16742, "\u0120twisted": 18935, "\u00c3\u00a9d": 15949, "\u0120gon": 26087, "OTH": 31407, "\u0120writings": 25527, "acht": 13261, "\u0120praying": 33632, "\u0120willingly": 45116, "TZ": 46714, "\u0120extraordinary": 15423, "Google": 17664, "\u0120microbiota": 30158, "\u0120solids": 33785, "\u0120complicated": 9542, "\u0120coastal": 22431, "tico": 26869, "ri": 363, "\u0120fingerprint": 32970, "\u0120excretion": 35317, "\u00e2\u0122\u00a6.": 19639, "\u0120Fish": 23645, "bring": 30788, "wc": 38212, ":`": 30337, "\u0120contral": 39388, "\u0120cement": 19165, "Into": 34868, "\u0120determinants": 29647, "Thu": 44644, "))/((-": 25349, "\u0120s\u00c3\u00b3": 27884, "\u0120Rub": 11879, "\u0120Hindu": 26334, "aram": 29982, "\u0120TV": 5579, "akis": 30441, "original": 19164, "\u0120Silva": 35084, "\u0120cultivated": 30481, "\u0120bachelor": 37589, "\u00e3\u0125\u0142": 39162, "\u0120basil": 40683, "\u0120case": 1083, "\u0120Mine": 27288, "]['": 45443, "\u0120Lucia": 47040, "\u0120utf": 40502, "friendly": 19771, "\u0120lov": 6652, "\u0120stric": 34614, "163": 18121, "\u0120forma": 21682, "etype": 40427, "\u0120squad": 13487, "\u0120231": 28804, "identity": 32965, "\u00d0\u00b0\u00d1\u0122": 12559, "\u0120introduces": 23970, "\u0120Jedi": 44642, "methyl": 13006, "\u0120bioactive": 45613, ")/(": 6959, "\u0120Tukey": 44384, "ANCE": 19320, "ZX": 46481, "\u0120investors": 12946, "Compiler": 42711, "\u0120Earth": 7565, "\u0120reserve": 15917, "\u0120doctrine": 12791, "issue": 15697, "\u0120experiencing": 18492, "\u0120cigarettes": 25539, "\u0120blacks": 26769, "\u0120discover": 9413, "\u0120LO": 23310, "\u0120sensor": 8468, "\u0120sings": 44718, "\u0120Bronx": 47752, "\u0120Hey": 18793, "\u0120headers": 20546, "gc": 23654, "\u0120Dru": 47756, "\u0120spirits": 19851, "\u00d1\u0125\u00d0\u00ba": 49052, "\u00e0\u00af\u0123": 38223, "l\u00c4\u00b1": 41189, "know": 14428, "\u0120elong": 17717, "buck": 24507, "ramer": 28882, "\u0120toxicity": 14386, "\u0120Byz": 38557, "oky": 44814, "\u0120Correction": 40862, "\u0120compassionate": 46316, "\u0120hold": 2186, "\u0120glanced": 17377, "\u0120queries": 19241, "\u0120maize": 34714, "\u0120parted": 39301, "\u0120installation": 12692, "\u0120Stores": 49024, "burgh": 13055, "esan": 41080, "docker": 31510, "\u0120contralateral": 41782, "\u0120dealers": 31346, "\u0120festivals": 33182, "813": 49891, "were": 12796, "raft": 2694, "ARS": 15286, "injury": 48145, "\u0120county": 9635, "\u0120engineered": 28136, "\u011b": 204, "\u0120Laid": 29250, "uy": 7352, "\u00c3\u00bch": 26288, "\u0120optimize": 22318, "\u0120contributed": 9945, "Experimental": 32954, "\u0120jog": 32412, "\u0120Eff": 39070, "\u0120defense": 5684, "\u0120insane": 24812, "DRV": 41016, "\u0120Nursing": 42985, "\u00c2\u0127": 16643, "\u0120vortex": 25584, "\u0120Eat": 43852, "\u0120Annex": 45326, "agraph": 10094, "\u0120Pitt": 15946, "Disable": 46575, "\u0120tolerate": 31259, "\u00e3\u0123\u00b3": 46674, "\u0120skillet": 37548, "mathbf": 2407, "ato": 4611, "Unfortunately": 20810, "\u0120s\u00c3\u00a5": 18679, "\u0120microphone": 32265, "\u0120Flowers": 48595, "\u0120wives": 26283, "cloth": 45313, "\u00e5\u0129": 13486, "\u0120Portuguese": 26467, "\u0120Flood": 48613, "\u0120mosquitoes": 35995, "\u00d1\u0131": 3504, "gon": 19835, "\u0120kins": 48729, "\u0120resultant": 29395, "eeee": 47285, "\u0120Paso": 43623, "\u0120classifying": 49653, "imiento": 29378, "\u0120epist": 30009, "\u0120posters": 32482, "\u0120Mice": 33133, "uli": 22357, "\u0120handic": 34898, "\u0120showc": 44762, "\u00e3\u0123\u0139\u00e3\u0123\u00be\u00e3\u0123\u013b": 42075, "urbed": 16193, "\u0120Revenue": 27464, "\u0120MC": 15300, "\u0120ett": 13096, "rid": 6992, "LEFT": 33959, "r\u00c3\u00a4": 44093, "\u0120immensely": 45224, "\u0120Willis": 42650, "\u0120Bloom": 21034, "Gas": 43537, "\u0120decrease": 6379, "\u00e9\u0141": 40153, "\u0120Jerusalem": 17913, "bench": 31591, "\u0120lia": 45652, "sole": 6538, "\u0120ATT": 35645, "cerpt": 26009, "\u0120args": 13059, "\u0120640": 37174, "\u0120dimensions": 10103, "FN": 21771, "\u011d": 206, "ather": 1226, "\u0120themes": 16876, "\u0120neck": 7623, "\u0120loro": 37938, "\u0120Se": 1023, "\u00c8\u013b": 16163, "member": 14360, "STATIC": 38386, "erson": 3796, "wf": 48808, "ists": 1346, "plates": 13436, "\u0120ubiquitin": 39519, "abeth": 10881, "\u0120salon": 48574, "\u0120Kre": 23900, "\u0120tragedy": 22820, "fatal": 48901, "\u0120138": 15410, "\u0120lower": 2406, "\u0120170": 18672, "FET": 30516, "Players": 49649, "\u0120invented": 23179, "215": 21351, "\u0120donations": 23866, "\u0120Walt": 31580, "\u0120goto": 28357, "PropertyGroup": 41410, "\u0120Edinburgh": 25990, "ang": 606, "\u00e5\u0143\u0139": 30886, "Up": 5683, "without": 14920, "\u0120unlaw": 18725, "\u0120Tobacco": 47786, "zbollah": 49038, "\u0120Janet": 35685, "\u01201924": 32921, "\u0120Plan": 9224, "facing": 33681, "\u0120medicinal": 34121, "\u0120fidelity": 32422, "782": 44037, "\u0120pollutants": 39917, "Fragment": 24054, "\u0120ladies": 16901, "obby": 18846, "ceil": 25247, "\u0120intentional": 22991, "\u0120hides": 43660, "\u0120checked": 10141, "\u0120sip": 36577, "\u0120TC": 19171, "\u0120Weather": 28323, "println": 16684, "oded": 7459, "\u0120proposition": 13989, "\u0120stamp": 21463, "\u0120spars": 37139, "img": 8428, "unk": 3938, "alla": 18524, "\u00d0\u00be\u00d1\u0122\u00d0\u00bc": 38660, "\u0120plugins": 28437, "gs\u00c3\u00a5": 39427, "Hook": 40568, "\u0120Essays": 49121, "\u0120pots": 36612, "\u0120Guid": 36661, "\u0120boolean": 12419, "\u0120Hussein": 42376, "\u0120{{\\": 7524, "\u00d1\u0130": 8204, "\u0120coinc": 10891, "\u0120dol": 28000, "\u0120supernat": 20637, "Cy": 25385, "balance": 20203, "retch": 31981, "\u0120external": 6024, "appe": 6243, "cticut": 20030, "edic": 39877, "\u0120offense": 8399, "\u0120VIP": 35625, "\u0120Proteins": 48704, "\u0120Kyle": 25856, "Treatment": 40189, "Then": 5872, "British": 22832, "\u0120fetus": 36866, "\u0120KY": 47500, "ARGS": 44551, "..\\..\\": 25976, "Ne": 6560, "\u0120lakes": 28169, "\u0120displays": 12646, "\u0120freezing": 24250, "Clean": 36272, "enstein": 32782, "\u0120Binding": 36233, "\u00c5\u0135": 30075, "\u0120eb": 38391, "\u0120Organisation": 44115, "\u00e5\u013d\u0140": 26270, "GFP": 14160, "\u00e2\u0122\u00a6\u00e2\u0122\u00a6": 18780, "iv": 400, "\u0120stepping": 24655, "\u0120continu": 44351, "444": 24447, "ift": 2094, "reliable": 31631, "\u0120strides": 47582, "\u0120mapping": 10603, "\u00c3\u00aas": 44516, "\u0120nicer": 49482, "44": 2031, "\u0120NO": 7651, "\u0120analytic": 20059, "onte": 25599, "\u0120cycle": 5880, "))**": 20979, "CLK": 22370, "Women": 22737, "Buf": 28829, "\u00e7\u0143\u012b": 38563, "\u0120Planned": 46933, "secure": 26971, "ITLE": 43561, "ometer": 11955, "grad": 4971, "gold": 27716, "\u00e8\u0123": 30590, "hearted": 32928, "\u0120Larry": 20681, "\u0120dynamically": 23043, "pnt": 22137, "\u0120Sak": 29869, "acey": 32175, "\u0120VIII": 29136, "\u0120basal": 15919, "\u0120validated": 17618, "\u012008": 16331, "\u0120porous": 26665, "olved": 5336, "\u0120velocity": 7602, "\u0120VALUES": 20436, "\u0120Shan": 41098, "hung": 46790, "\u0120expenses": 12222, "\u0120David": 5119, "\u0120Aristotle": 35274, "trees": 45670, "\u0120National": 3313, "private": 9486, "insert": 14447, "hip": 1456, "olysis": 23575, "\u00e3\u0124\u00a8": 38750, "\u0120regulation": 7248, "igne": 40214, "\u0120tard": 43596, "\u0120Partner": 46411, "\u0120\u0120\u0120\u0120\u0120\u0120\u0120\u0120\u0120\u0120\u0120\u0120\u0120\u0120\u0120\u0120\u0120\u0120\u0120\u0120\u0120\u0120\u0120\u0120\u0120\u0120\u0120\u0120\u0120\u0120\u0120\u0120\u0120\u0120\u0120\u0120\u0120\u0120\u0120\u0120\u0120\u0120\u0120\u0120\u0120\u0120\u0120\u0120\u0120\u0120\u0120\u0120\u0120\u0120\u0120\u0120\u0120\u0120\u0120\u0120\u0120\u0120\u0120\u0120\u0120": 36321, "pulse": 48241, "\u0120compat": 9800, "\u0120obsolete": 40072, "jam": 25402, "\u00c3\u00b6l": 38095, "\u0120dishon": 31531, "\u0120comrades": 40032, "\u0120Socorro": 48847, "180": 11395, "\u0120promotes": 18653, "\u0120purchase": 7471, "\u0120tip": 9092, "his": 8701, "\u0120phosphorus": 36611, "ovial": 41476, "\u0120fragmentation": 27159, "cry": 43583, "launchpad": 25932, "\u0120spike": 24147, "\u0120lame": 42837, "\u0120accommodate": 18045, "\u0120franch": 14754, "float": 9599, "\u0120decoded": 45775, "KS": 14007, "\"\\": 35343, "Fed": 28246, "\u0120grabbing": 37301, "\u0120updating": 22753, "\u0120Coul": 24369, "\u0120$\\{\\": 25352, "required": 17354, "\u00e2\u0122\u0136\u00e2\u0122\u0136\u00e2\u0122\u0136\u00e2\u0122\u0136": 17803, "\u0120Factor": 16090, "\u0120instruments": 13225, "President": 20349, "riad": 32892, "\u0120Authority": 17907, "imps": 39830, "\u0120HQ": 41053, "\u0120sunt": 43098, "\u0120Wol": 21405, "established": 21877, "\u0120required": 2424, "\u00ce\u00bc\u00ce\u00b5": 18951, "\u0120];": 25896, "\u0120Ess": 15322, "Joseph": 32618, "\u0120symmetries": 34902, "\u0120unanimously": 38350, "erk": 9314, "\u0120felony": 17974, "mia": 15604, "raham": 20336, "ibernate": 38216, "\u00e6\u013f": 12676, "imento": 21035, "\u0120aboard": 22995, "\u0120subscribe": 26302, "\u0120aplic": 38470, "\u0120solely": 12718, "Flags": 17466, "\u0120ko": 20846, "\u0120Robin": 22463, "EVER": 26727, "\u0120BOOL": 46013, "\u00e5\u00bc\u0122": 35930, "\u00bb\u00bf": 24384, "\u0120constituent": 31239, "\u0120porque": 25366, "\u0120archaeological": 39327, "\u0120Comiss": 42680, "ulation": 1427, "\u0120Classical": 38237, "\u0120autonomic": 45852, "}-\\": 10780, "\u0120complimentary": 48301, "ptic": 13683, "\u0120govern": 1809, "\u0120Air": 6037, "\u0120sauce": 12364, "\u0120Kra": 30164, "\u0120\u00d7\u0133": 37167, "\u0120Genome": 36921, "oslov": 50157, "\u0120Copyright": 8283, "\u00e0\u00b0": 10681, "\u0120Tokyo": 17413, "wear": 21417, "vertical": 26806, "\u0120aneurys": 27627, "MC": 7722, "idis": 30861, "itat": 33101, "tis": 35879, "controlled": 16894, "vest": 5410, "\u0120Die": 9362, "\u0120propri": 14045, "\u0120Dictionary": 26372, "\u0120enlargement": 43684, "\u0120Threat": 46371, "Weak": 49341, "\u0120dexamethasone": 49478, "casters": 47107, "].[": 41512, "Obj": 18527, "\u0120concepts": 12342, "..\"": 31042, "\u0120Schwartz": 39119, "tur": 39493, "\u0120sports": 9001, "\u00e6\u0127": 46791, "775": 49310, "\u0120Seems": 50140, "\u0120mad": 10279, "igm": 15379, "0023": 34063, "\u0120Buf": 42236, "Preview": 43123, "\u0120conflicts": 15272, "confirm": 38286, "\u0120capit": 43395, "osex": 15800, "\u0120tagged": 31480, "lost": 38483, "\u0120Zimm": 44302, "optic": 37016, "inition": 10991, "\u0120retin": 26965, "\u0120company": 2567, "\u0120Union": 6398, "JC": 32318, "\u0120Particularly": 37664, "\u0120cords": 46891, "\u00c5\u0133": 16124, "rena": 18946, "\u0120Lowe": 49152, "\u0120rehearing": 48684, "\u0120\\%": 44829, "api": 6682, "example": 11667, "\u0120Gray": 18707, "456": 25133, "\u0120&$": 44428, "imes": 1022, "planation": 45525, "wer": 8358, "\u0120Block": 15204, "\u0120GT": 22733, "NaN": 44932, "\u0120Pitts": 19987, "\u0120numpy": 36950, "\u0120ambitious": 24683, "\u0120Ran": 34396, "\u0120entry": 5857, "\u0120Gibson": 29215, "\u0120piled": 41902, "\u0120rebut": 30080, "ubunt": 42731, "\u0120TO": 5935, "\u0120Bank": 6022, "ulate": 4187, "\u0120guide": 7102, "\u00b0": 110, "\u0120mig": 5563, "\u0120Report": 10840, "omon": 16142, "ricks": 21557, "\u0120lasted": 20578, "election": 24508, "}}\\": 3080, "^{-\\": 12886, "\u0120conjunction": 17385, "Congress": 39333, "\u0120andere": 40200, "\u0120prison": 5754, "825": 44439, "\u0120intrinsically": 45654, "\u0120engaged": 9583, "\u0120manages": 26091, "\u0120magn": 2849, "\u0120contributor": 24938, "\u0120wanna": 17341, "enson": 24480, "\u0120seminal": 41116, "\u0120conduc": 49598, "\u0120volcano": 36374, "\u0120239": 27862, "==============================": 41972, "\u0120315": 29117, "\u0120conventions": 29793, "izable": 12729, "\u0120conferences": 27691, "medium": 28672, "brit": 31005, "STA": 37789, "undo": 16538, "616": 42106, "\u01201896": 43843, "BV": 13152, "mares": 44672, "Einstein": 48987, "\u00d1\u0123\u00d1\u0124\u00d0\u00b2\u00d0\u00b5\u00d0\u00bd": 45476, "SRC": 31694, "\u0120countryside": 31504, "\u0120creeping": 49801, "\u00e4\u00bf\u013f": 38908, "Absolute": 49805, "oubtedly": 22839, "catalina": 48391, "\u0120Quin": 40081, "oyl": 24592, "\u0120listing": 16485, "\u0120Conne": 11055, "enum": 14379, "\u0120Were": 27200, "YRIGHT": 26051, "Delta": 3442, "\u0120nuest": 28870, "venile": 18044, "getElementById": 22339, "dle": 34630, "\u0120Ans": 42259, "\u0120alignments": 43097, "\u00e3\u0125\u0143": 24404, "\u0120Delivery": 40605, "\u0120carcinogenesis": 47355, "717": 46043, "\u0120marched": 31653, "\u0120rearrangement": 47410, "\u0120\u0120\u0120\u0120\u0120\u0120\u0120\u0120\u010a\u0120": 49176, "FL": 4639, "Space": 16929, "\u0120Pride": 39523, "oulos": 32498, "889": 33546, "\u0120num": 930, "\u01201955": 23438, "\u0120Beth": 22169, "54": 3439, "ushi": 34485, "\u0120tiles": 28390, "\u0120fruitful": 46001, "fiddle": 39058, "\u0120Guy": 22757, "\u0120\u00d1\u0124\u00d0\u00be": 32554, ">-": 34616, "\u0120identify": 4271, "asone": 38187, "iated": 4215, ")$)": 48329, "\u0120\u00d9\u0128": 31159, "arm": 1513, "commutative": 42253, "\u0120..": 10712, "gus": 28349, "ows": 5811, "\u0120worm": 28384, "\u0120capturing": 26475, "Ron": 42353, "rected": 18685, "company": 25610, "671": 35276, "\u0120\u00e2\u0122\u013b": 15956, "\u0120complemented": 48912, "\u0120inclusions": 47541, "\u0120curious": 14338, "\u0120probable": 14051, "\u0120PLA": 36770, "UW": 47370, "lif": 6458, "\u0120Said": 35194, "\u0120ICC": 32207, "agnet": 36488, "aily": 4170, "clud": 741, "\u0120haem": 23754, "\u0120supp": 915, "icism": 36106, "\u00e8\u0124": 32026, "OY": 36615, "0022": 28484, "]{}\\_": 45382, "\u0120reaches": 14190, "}=\\": 7628, "\u0120Lib": 9271, "\u0120ROS": 17313, "Yeah": 6506, "comfort": 12625, "\u00d7\u0136": 18007, "\u0120Tab": 19660, "blow": 37777, "\u0120emitter": 41709, "\u0120Irene": 47613, "anyon": 30822, "\u0120Angel": 18354, "\u0120Junior": 25418, "\"])": 45564, "\u0120LOC": 35378, "Bir": 50182, "\u0120HER": 20467, "Find": 9867, "account": 15793, "\u0120revisions": 38549, "demo": 32971, "\u0120Strategy": 32988, "apoptotic": 38159, "\u0120--------------------------": 36056, "uggling": 37706, "\u0120corresponding": 3969, "281": 27571, "\u0120Security": 9044, "\u0120{": 551, "asa": 19924, "\u0120Zone": 24380, "\u0120Prevention": 27526, "\u0120POST": 28846, "\u0120immunization": 33145, "\u0120Bru": 12810, "ifference": 17693, "\u0120313": 31389, "\u0120occurrences": 37102, "Geometry": 37130, "\u00d0\u00b0\u00d0\u00bc\u00d0\u00b8": 35411, "\u0120Billy": 19669, "zw": 40965, "database": 25522, "\u0120licensing": 26920, "ActivityThread": 44369, "otrophic": 44456, "mess": 46631, "\u0120$+": 49938, "\u0120Exchange": 18517, "\u0120arches": 50042, "\u0120Fang": 50162, "\u00ab": 106, "\u0120Install": 28771, "\u0120Adult": 32967, "\u0120Man": 3083, "isks": 38235, "\u0120Ethan": 44542, "tim": 12292, "eri": 25933, "\u0120Nat": 17320, "\u0120phosphate": 17016, "\u0120sword": 14228, "\u0120FS": 28109, "---------------------------------": 30282, "\u0120Nep": 26121, "\u0120satisf": 3449, "\u0120code": 2127, "]-": 12977, "\u0120routing": 24749, "\u0120predecessor": 28934, "\u0120hatch": 32732, "\u0120sanctuary": 35514, "Flag": 22532, "\u0120Cyp": 43968, "\u0120sa": 618, "utum": 44080, "access": 10773, "Charles": 27515, "\u0120another": 1529, "042": 30969, "\u0120Honey": 37101, "\u0120obstacles": 24238, "\u0120Bark": 46548, "\u0120spiders": 48037, "\u0120garant": 35834, "\u012065": 7251, "fre": 18105, "Transaction": 25580, "\u0120diminishing": 48245, "\u0120whip": 34203, "\u0120homologous": 30742, "\u0120Py": 8462, "\u0120portal": 20280, "\u0120Tob": 20358, "\u0120earthquakes": 48833, "\u0120mineral": 17160, "\u0120Differential": 38160, "\u0120spins": 27923, "NAME": 9536, "\u0120relates": 7033, "igl": 48148, "\u0120Ng": 38495, "\u0120Eisen": 32133, "                   ": 50259, "\u0120cannabis": 19625, "\u0120compar": 3294, "\u0120NY": 10310, "mente": 12704, "repository": 37498, "=\"$(": 43306, "uty": 12223, "\u0120Getting": 27669, "aid": 13774, "\u0120rRNA": 30509, "\u0120awaiting": 31288, "adem": 4788, "~),": 28004, ">.": 13208, "\u0120Kaz": 24793, "\u0120Cour": 29047, "\u0120universe": 10325, "ival": 2401, "\u0120taught": 10256, "1980": 16134, "\u0120Ear": 40627, "\u0120Stevens": 22801, "]}$": 45114, "\u0120Whole": 31373, "\u0120skepticism": 44730, "\u0120whipped": 37914, "\u0120revelation": 28423, "\u0120motif": 14443, "\u0120lying": 10776, "olves": 14503, "\u0120Madd": 33210, "\u01201909": 38624, "\u0120knockdown": 23471, "\u0120comorbidities": 37584, "ocratic": 23606, "\u0120stra": 3405, "606": 25358, "\u0120pelvic": 31084, "\u0120incub": 7189, "\u0120Wy": 18059, "\u0120municipality": 24530, "\u0120wurde": 40803, "ORAND": 38438, "\u0120games": 3958, "ulp": 31709, "\u0120debuted": 41362, "\u0120shot": 5103, "\u0120pavement": 37984, "\u0120increments": 42344, "\u0120Shepherd": 44452, "\u0120Drugs": 45124, "0090": 49455, "\u0120NEW": 22428, "jc": 23925, "wp": 16471, "]_{": 35830, "\u0120long": 1048, "\u0120ms": 13818, "doctoral": 49888, "\u0120manifolds": 28236, "\u0120Miami": 16146, "stitution": 5379, "\u0120provisional": 50010, "\u0120rapt": 46012, "longrightarrow": 18637, "\u0120digging": 28063, "\u0120parks": 21952, "\u0120erosion": 32561, "\u010d\u010a\u010d\u010a\u0109": 39015, "iger": 8047, "infl": 11006, "\u0120sliced": 25530, "\u01201880": 32626, "boys": 25637, "\\\u0103": 38572, "\u0120surfaced": 47300, "\u0120spleen": 26528, "\u0120pictured": 35957, "\u0120575": 45916, "\u0120migrate": 31690, "02": 2640, "\u0120precise": 10799, "No": 2302, "\u0120mil": 2301, "\u0120Opp": 16823, "\u0120abol": 17654, "\u0120rode": 22461, "\u0120occupancy": 35190, "unal": 23795, "\u0120recordings": 19654, "\u0120Luxem": 44133, "\u0120gravit": 15885, "\u0120cutaneous": 36476, "cus": 11675, "\u0120resistant": 14264, "\u0120lith": 18995, "\u0120fin": 1442, "Tuesday": 28266, "\u0120installed": 8038, "\u0120undergraduate": 31454, "arily": 3441, "joy": 3881, "ting": 1076, "stein": 6339, "\u0120segment": 8223, "\u0120Fire": 8726, "\u0120extracts": 16756, "Mont": 28211, "\u00d0\u00bb\u00d0\u00b8": 11378, "\u00c3\u00b3l": 32250, "GAN": 39845, "\u0120worry": 7664, "\u0120good": 1175, "organisms": 21072, "ichen": 35009, "\u0120proves": 19539, "\u0120discrimination": 11081, "orio": 44940, "\u0120communism": 48709, "fund": 19431, "stem": 852, "\u0120marg": 10792, "b": 67, "\u0120Roy": 14655, "ourier": 15421, "DT": 15580, "\u0120yeast": 15727, "qn": 47051, "\u0120slated": 47395, "ych": 3155, "\u00d1\u0123\u00d1\u0124\u00d0\u00b2": 14887, "uan": 9041, "\u00e3\u0124\u012b": 11039, "\u0120mph": 36772, "\u0120gears": 40204, "\u0120deletions": 38995, "\u0120vest": 20229, "\u0120leurs": 37762, "\u0120Highway": 21788, "\u0120learning": 4715, "reverse": 32514, "\u010a\u010a\u0109\u0109\u0109\u0109": 39900, "99999999": 43977, "parser": 20154, "Learning": 43453, "obar": 26927, "\u0120Mao": 36194, "\u0120Zend": 43844, "\u0120weekly": 13772, "\u0120meaningless": 34209, "Learn": 36599, "clin": 47217, "\u0120VAR": 30226, "\u0120kh": 26856, "izo": 38585, "Obama": 39302, "AUC": 42080, "KY": 30424, "\u0120warmer": 34562, "\u0120Winston": 33970, "inge": 18909, "328": 22130, "geometric": 49704, "\u0120Metal": 28241, "\u0120Luther": 24496, "western": 18288, "\u0120totality": 40071, "090": 39703, "lash": 36896, "\u0120repro": 41543, "\u0120diagnostic": 10401, "\u0120471": 41468, "\u0120\u00f0\u0141\u013a": 49042, "icion": 16118, "\u0120Determine": 11374, "\u0120IM": 10744, "\u0120socket": 17498, "\u0120Mom": 13541, "\u0120opportun": 3791, "\u0120theology": 31525, "receptor": 44501, "\u0120chromium": 50064, "\u0120describes": 8631, "920": 43557, "\u0120Steel": 19727, "\u0120recipients": 20841, "ternal": 2893, "\u0120Lind": 12529, "ASM": 45352, "\u0120home": 1728, "\u0120assassin": 46127, "\u0120dubbed": 33690, "jes": 39238, "\u0120wonder": 4282, "\u0120STR": 18443, "\u0120entrance": 13032, "\u0120numer": 4520, "\u0120toilet": 21487, "\u0120fights": 24662, "\u0120Points": 31411, "edited": 49539, "234": 20210, "\u0120Tenn": 12362, "773": 40761, "ar\u00c3\u00a1": 45556, "\u0120\u00e2\u012b": 8611, "Exec": 12560, "\u0120epithelium": 24936, "\u0120luck": 7516, "ellar": 8739, "269": 23292, "knock": 48459, "\u0120reception": 16112, "\u0120publicity": 29957, "\u0120599": 49928, "\u0120weapons": 8914, "\u0120mailing": 30959, "\u0120bacterium": 42207, "\u0120responsibilities": 19715, "\u0120comparing": 10941, "\u0120staggered": 41778, "ardo": 15916, "itsu": 37529, "ogl": 11816, "\u0120inquiries": 34989, "\u0120spouses": 46179, "\u0120parallels": 43630, "\u0120dext": 45498, "Gra": 49886, "\u0120barr": 38700, "\u0120Bangl": 26315, "\u0120Bet": 8387, "\u0120evolve": 23554, "\u00e2\u0122\u0141": 42580, "astically": 20595, "fw": 25837, "\u0120Syscall": 27045, "\u0120integrate": 19837, "%);": 34649, "\u0120correspond": 2723, "\u0120glaucoma": 39872, "\u0120vegetables": 15737, "\u0120Wald": 48690, "Permission": 38247, "\u0120plague": 31781, "\u0120misunderstanding": 40663, "\u0120manifested": 33579, "\u0120pituitary": 37804, "amin": 4988, "Calendar": 37443, "\u0120tidy": 49031, "\u0120LICENSE": 21826, "jah": 22577, "\u0120married": 7028, "ful": 1020, "leveland": 18475, "\u0120arguments": 7125, "\u0120------------------------------": 43090, "arroll": 44029, "conditions": 32978, "\u0120Forum": 24703, "iologic": 39390, "\u0120Natal": 34530, "\u0120experience": 2793, "\u00e3\u0123\u0135\u00e3\u0123\u00a8\u00e3\u0123\u012e": 46770, "\u0120Magic": 21577, "}}_": 5000, "\u0120109": 12652, "Rom": 30998, "sects": 33009, "Average": 33993, "\u0120wet": 9685, "\u0120Relief": 38799, "olding": 17593, "\u0120distribution": 3268, "\u0120blogger": 38816, "\u0120Lon": 37941, "\u0120variational": 39762, "\u0120Wellington": 42337, "toolbar": 44338, "\u0120Volkswagen": 47486, "\u0120Lucy": 24112, "}}.": 47254, "\u0120sist": 25560, "\u0120aviation": 34953, "Day": 15490, "\u0120Constitutional": 39722, "\u0120https": 5987, "\u00e5\u00af": 13744, "jobs": 44144, "\u0120Shang": 20710, "\u0120MAG": 40070, "\u0120classifiers": 49996, "\u0120restored": 16789, "rome": 5450, "isation": 5837, "\u0120Ind": 2102, "\u0120asympt": 12139, "\u0120only": 760, "\u0120explor": 31880, "\u0120CDs": 45444, "\u0120tracts": 40784, "\u0120crawled": 46944, "\u0120disappearance": 31852, "\u0120forty": 14327, "dition": 1360, "ikip": 14956, "openh": 32610, "152": 17472, "tered": 3606, "only": 7483, "\u00e5\u0131\u0138": 27937, "}}^{-": 34273, "\u0120compliant": 38147, "\u0120equation": 5150, "\u0120pollut": 33076, "\u0120middle": 4766, "apping": 5436, "\u0120Career": 42258, "\u00d1\u0136": 47540, "\u0120og": 9040, "\u0120185": 23512, "\u0120vigil": 28027, "\u0120haven": 6468, "olics": 28428, "\u0120\"/": 13357, "\u0120contradictory": 34126, "\u0120rewritten": 35993, "ovsky": 42891, "\u0120Leonard": 27708, "\u0120advantage": 5750, "\u0120weights": 13461, "zes": 13505, "\u0120Spr": 14474, "\u0120consolid": 16932, "}({{\\": 35420, "\u00ea\u00b2": 35458, "\u0120Bay": 6912, "claimer": 34837, "998": 27043, "My": 3220, "pherd": 29359, "\u0120Harris": 13680, "continued": 45892, "Bo": 11478, "\u0120cooks": 48972, "\u0120i": 891, "\u0120coined": 48945, "\u0120travers": 26696, "Hig": 34969, "[{": 39487, "\u0120105": 12446, "Upon": 28050, "\u0120instrumentation": 42507, "\u0120discouraged": 42965, "\u0120Sant": 18056, "Aldrich": 26155, "pressed": 30813, "\u0120attacks": 8104, "except": 16829, "\u0120Jer": 5633, "mul": 31601, "\u0120endoscopic": 32709, "\u0120hated": 21023, "NG": 12770, "sex": 11523, "\u0120cuc": 37610, "ET": 2025, "^{(": 4932, "two": 9389, "\u0120permissible": 32588, "\u0120Uk": 11915, "\u0120Conclusions": 35329, "\u0120Mitch": 39003, "\u0120sino": 40442, "ohan": 42874, "\u0120suitably": 43364, "Kenn": 45395, "iding": 2821, "sek": 45902, "hearing": 31629, "\u0120Jul": 9218, "\u0120comparatively": 31381, "\u0120PN": 35709, "\u0120administr": 7255, "questions": 34974, "\u0120breastfeeding": 37689, "\u0120identically": 45963, "pit": 18086, "enses": 5060, "\u0120brilliant": 15925, "\u0120voxel": 46092, "FILTER": 44624, "\u00d0\u00b0\u00d0\u00ba": 9640, "nesday": 7502, "will": 9846, "\u0120emitted": 23128, "Icon": 19877, "feb": 46370, "\u0120parity": 25622, "\u0120780": 46951, "\u00d1\u0122\u00d0\u00b0\u00d0\u00b7": 46645, "099": 43771, "\u00c3\u00b6r": 6592, "\u0120integrates": 49661, "\u01201882": 49325, "\u0120constructs": 21031, "\u0120disclose": 17611, "\u0120boil": 22149, "once": 19131, "\u00e3\u0123\u00bf": 26725, ").\"": 33540, "old": 744, "\u0120many": 1142, "\u0120vendors": 24742, "\u0120suction": 34907, "\u0120dancer": 42411, ",%": 21795, "\u0120repeal": 35682, "\u0120metformin": 43318, "\u0120Blind": 44892, "mov": 16047, "intf": 44313, "oughed": 49527, "\u0120Equ": 8721, "actory": 6697, "\u0120prolif": 7987, "\u0120individually": 15978, "\u0120Handbook": 42958, "\u0120wrought": 46546, "\u0120engineer": 16518, "\u00e7\u0131\u00be": 41492, "\u0120performance": 3045, "v\u00c3\u00a9": 43147, "\u0120Effective": 41805, "\u0120NEGLIGENCE": 49505, "QUAL": 34532, "\u0120Rate": 28606, "\u0120Complete": 25426, "\u0120arrests": 31285, "\u0120inning": 40762, "umni": 17316, "\u0120little": 1652, "\u0120Comparing": 42438, "\u0120sess": 46796, "\u0120illicit": 41566, "rue": 32340, "\u0120Army": 8663, "\u0120linebacker": 45585, "+(": 18958, "\u00c3\u00a7as": 49802, "\u0120voluntarily": 25706, "\u00e2\u0122\u013b": 457, "\u0120diagnosis": 6120, "\u01201940": 16952, "\u0120EIGEN": 49266, "\u0120mp": 23542, "illed": 2591, "\u0120assumptions": 13260, "\u0120pret": 3215, "\u0120Side": 19942, "\u0120Krist": 24131, "\u0120BLOCK": 44425, "\u0120multiple": 2709, "nas": 27109, "auer": 17146, "\u0120stark": 29274, "\u00d1\u0125": 2964, "871": 40010, "Mex": 32476, "ICAL": 25129, "\u0120messaging": 29908, "\u0120nd": 40515, "082": 45159, "\u0120particularly": 3782, "\u0120np": 15749, "\u0120lever": 19732, "\u00e2\u0122\u00a2": 5817, "\u0120thorough": 11080, "\u0120admissible": 22961, "\u0120Essay": 49506, "\u0120Long": 8057, "\u010d\u010a\u0120\u0120": 16413, "\u0120akin": 33917, "cl": 498, "\u0120holy": 18465, "close": 10483, "minist": 2680, "\u012a": 219, "\u0120:=": 3843, "\u0120\\|_{": 46479, "862": 45343, "K": 44, "Cache": 15554, "1800": 37773, "1016": 37524, "\u0120Z": 1503, "859": 32168, "\u0120rescue": 14471, "}.$": 34580, "\u0120negative": 4016, "\u0120appellant": 7048, "]{}": 1181, "\u0120Juda": 41277, "\u0120sort": 3686, "pected": 5344, "\u0120represent": 1957, "]--": 7086, "\u0120developers": 12259, "\u0120ensemble": 19862, "\"],": 21391, "\u0120necrosis": 21467, "334": 24257, "\u00c3\u00b6m": 35127, "\u0120Notes": 21812, "err": 1000, "stone": 10228, "au": 1952, "\u0120(\u00c2\u00b1": 27852, "\u0120stealing": 27980, "semb": 4393, "\u0120snippet": 36408, "\u0120Terry": 21638, "\u0120helium": 38244, "\u0120airborne": 42864, "onsense": 49235, "\u0120duly": 38597, "^*(": 23628, "\u0120Detection": 31765, "\u0120lipoprotein": 30823, "inos": 15777, "\u0120obtaining": 13546, "\u0120chaper": 41944, "\u0120photometric": 36392, "mus": 14557, "ya": 5973, "\u0120pr\u00c3\u00b3": 34117, "\u0120strata": 49913, "\u0120\u00c3\u00a5": 13581, "\u0120fore": 2273, "service": 10613, "\u0120adjusted": 10904, "\u0120abortion": 16403, "\u0120sb": 34505, "\u0120playback": 35415, "ViewModel": 39744, "\u0120Cott": 46497, "\u0120enabled": 11410, "\u0120cir": 5947, "\u0120Lett": 12464, "\u0120Fin": 7198, "\u0120compuls": 37169, "cium": 44185, "\u0120civilized": 47182, "988": 49475, "\u0120Meat": 47696, "\u00d9\u012a\u00d8\u00af": 49788, "\u0120camera": 6568, "slave": 39629, "role": 14337, "\u0120resil": 22576, "\u0120Thompson": 16647, "\u0120backwards": 24291, "Sex": 30386, "\u0120clutch": 30231, "addy": 15242, "\u0120606": 48501, "\u0120Marcel": 42430, "\u0120dictators": 39710, "549": 25469, "\u0120-------------------------": 32703, "\u0120Init": 10813, "Gu": 8469, "486": 27538, "\u0120coord": 5245, "ivat": 43236, "\u00c3\u00a9l": 20255, "icultural": 40319, "\u0120torso": 46532, "error": 3775, "\u0120adv": 1604, "\u0120Tips": 41893, "\u0120exhib": 4813, "\u0120Bo": 3452, "Original": 25494, "\u0120abort": 25618, "ACC": 15804, "\u0120Ivan": 27443, "\u0120reporter": 12726, "\u0120aids": 34253, "\u0120ORF": 43765, "}$\\": 23743, "illas": 28769, "\u00e8\u00a2": 38053, "2000": 6914, "inking": 10274, "\u0120sculpture": 34486, "\u0120inviting": 31337, "artan": 46412, "Ma": 16490, "gd": 35333, "=.": 36406, "CAN": 40555, "\u0120forward": 3579, "\u0120hue": 43192, "Bow": 47935, "\u0120clear": 2590, "irect": 4128, "\u0120clock": 8886, "\u0120silver": 9711, "workers": 26719, "\u0120seu": 24437, "odontic": 49154, "/,": 40391, "validation": 29599, "\u0120sta": 21513, "refs": 44281, "ilar": 1858, "\u0120embedded": 12691, "Java": 19469, "\u0120cal": 1724, "\u0120getting": 2970, "IVE": 11477, "\u0120altogether": 17965, "\u0120metropolitan": 37814, "))": 1228, "\u0120Ham": 5516, "untime": 10849, "\u0120Jean": 13089, "Usage": 31838, "female": 35686, "\u0120traverse": 42309, "icum": 45745, "select": 7135, "Television": 46776, "\u0120FAQ": 35863, "\u0120commonplace": 47817, "money": 29706, "nerg": 21060, "\u00d9\u0129\u00d8\u00a7": 37760, "\u0120Citizens": 30299, "\u0120isoform": 36566, "STITUTE": 47259, "rina": 29814, "\u00d0\u00b0\u00d0\u00bc": 11409, "arent": 2699, "STE": 38795, "\u0120glasses": 17543, "\u0120southwest": 31438, "\u0120brethren": 49829, "\u0120cognition": 31937, "angu": 2435, "\u0120founding": 23569, "cccc": 19533, "885": 29805, "\u0120scraping": 47232, "\u0120Rush": 31933, "\u0120AdS": 48324, "\u0120topography": 48865, ")\\<": 48744, "aylor": 9614, "Ad": 3837, "https": 3614, "\u0120Account": 16480, "omyces": 36315, "\u0120594": 46475, "ih": 6356, "\u0120poison": 14537, "bool": 10975, "\u0120Dallas": 16700, "\u0120Guatemala": 46560, "\u0120cluster": 7368, "ipp": 5265, "\u0120Alber": 21265, "\u0120hypoxia": 23618, "===================": 26657, "\u0120conclude": 7525, "proto": 20894, "inction": 9977, "\u00e8\u00bd": 27258, "\u0120Palest": 11481, "aintenance": 30720, "IENT": 31093, "\u0120Biol": 38912, "Completion": 49767, "\u0120book": 1984, "based": 3169, "pir": 5378, "\u0120esper": 35656, "\u0120Triton": 39776, "())": 6649, "\u0120_____": 37866, "\u0120magnification": 28358, "######": 5146, "REM": 31085, "documentation": 37442, "operations": 42316, "\u0120overhaul": 46626, "ango": 13903, "\u0120ru": 8864, "\u0120conductive": 19604, "\u01201927": 31687, "\u0120stranded": 42194, "\");": 3287, "\u0120massive": 7863, "126": 13381, "\u0120strat": 15252, "pired": 24875, "\u01201885": 46416, "\u0120degenerative": 47073, "\u00e7\u013f": 37531, "\u0120willingness": 24741, "agulant": 49815, "more": 3062, "\u0120prop": 4198, "}}({\\": 19753, "\u0120gross": 13711, "oyd": 15860, "\u0120opacity": 26655, "\u01201926": 33554, "HEL": 38719, "\u0120cricket": 25154, "StackTrace": 39646, "\u0120Vote": 49588, "chs": 42585, "ty": 555, "\u0120lol": 23385, "725": 43809, "\u0120stop": 3523, "\u0120abide": 41761, "\u0120chiefs": 46282, "\u0120blah": 37598, "ijerph": 11763, "\u0120Lan": 27717, "Pay": 19334, "itian": 34851, "posure": 25909, "673": 35791, "Way": 32035, "\u0120Hed": 46689, "588": 44563, "\u012067": 9963, "\u0120Zip": 48695, "TextView": 30288, "provide": 42260, "avor": 15100, "\u0120Possible": 40550, "CLA": 20646, "\u0120bitmap": 42615, "---": 1532, "hold": 4949, "\u0120epitopes": 42110, "\u0120associate": 15629, "ancock": 47453, "elt": 2585, "OH": 8575, "\u0120aph": 38779, "\u0120district": 3286, "\u00e2\u0122\u013f;": 38904, "\u0120launch": 8027, "\u0120unwilling": 27086, "714": 44034, "}({": 45372, "sat": 22354, "sey": 5462, "\u0120tray": 23361, "\u0120absol": 4847, "\u0120endometrial": 39202, "thm": 7801, "\u0120Gest": 45594, "\u0120tricks": 24866, "\u0120commission": 8119, "tik": 28785, "\u0120BMW": 33399, "\u0120logs": 20131, "\u00e4\u00ba\u012e": 34744, "Av": 13834, "ollah": 37740, "\u00e3\u0124\u012b\u00e3\u0124\u012e": 39692, "\u0120ink": 12296, "\u0120agony": 41335, "Registration": 46563, "imation": 14508, "declare": 42754, "\u0120~": 5062, "Con": 1773, "oster": 7337, "osomal": 13304, "\u00e6\u013d\u00b4": 33859, "?**": 39148, "relax": 39471, "\u0120respect": 1675, "\u0120Coach": 28466, "\u0120tiny": 10058, "\u0120burden": 7977, "OOGLE": 29367, "dma": 28278, "\u0120vaguely": 39559, "dain": 41555, "\u0120foi": 27052, "ometric": 7480, "\u0120affects": 11852, "\u0120accord": 7158, "dding": 38699, "\u01201840": 46537, "uscitation": 48043, "POINT": 34415, "\u0120imposed": 11295, "\u0120heterozyg": 49846, "\u0120preserved": 15296, "\u0120psychiatrist": 39738, "](": 880, "\u0120reign": 19485, "cultural": 37452, "nier": 36366, "\u0120bankers": 44478, "cut": 7317, "\u0120rehears": 33558, "cumin": 42425, "\u0120purely": 15846, "\u00e0\u00a5\u012a": 33358, "\u0120independent": 3907, "\u00e4\u00b9\u012a": 43244, "iseconds": 31439, "\u0120drowning": 46298, "\u0120lp": 39322, "vendor": 33247, "\u0120Indonesia": 23340, "prote": 8517, "hist": 15700, "Career": 29431, "Always": 34361, "\u0120f\u00c3\u00b6r": 10647, "rfloor": 30266, "\u00cf\u0123\u00ce\u0143": 41620, "\u0120sister": 7586, "\u0120tumors": 8837, "\u0120Bradford": 36890, "\\-": 23671, "details": 23454, "awi": 33259, "\u0120/**<": 37944, "\u0120Initially": 32312, "\u0120FIRST": 38425, "\u0120Hawkins": 43230, "\u0120bu": 1081, "]]>": 31422, "shoot": 40719, "ifying": 5411, "\u0120s\u00c3\u00b3lo": 43344, "\u0120reviewing": 16725, "\u0120rest": 1551, "\u00ea\u00b8": 36178, "Disabled": 47703, "mediate": 8613, "j\u00c3\u00a4": 46550, "\u0120contained": 6221, "\u0120reass": 17279, "\u0120classics": 42975, "TV": 12101, "\u0120surgeries": 37966, "\u0120Los": 8742, "\u0120BIG": 39733, "fs": 3671, "\u0120regional": 9933, "\u0120RNAs": 31719, "\u0120sucking": 42296, "\u0120shortening": 39243, "\u0120trade": 5454, "Instead": 20576, ":]": 34417, "\u0120accompany": 13920, "ymmetry": 41961, "Paper": 46250, "\u0120Diet": 23845, "\u0120Sey": 49015, "idental": 37115, "\u00c3\u00a1k": 45801, "\u0120sponsor": 28924, "\u0120need": 878, "\u0120ba": 18927, "Energy": 35515, "\u0120Admin": 37727, "vens": 14941, "\u0120poses": 24543, "\u0120partir": 39955, "heavy": 37893, "451": 30592, "doch": 47435, "\u0120intellig": 6835, "nament": 10749, "Spe": 12923, "scriptstyle": 19326, "\u0120Drop": 26829, "\u0120motivate": 41509,
[...]
