{"lected": 2231, "some": 8826, "\u00e8\u0122\u0125": 45466, "_{": 578, "dst": 19335, "Axis": 30056, "eves": 23841, "push": 11340, "\\][": 28118, "\u0120creator": 24799, "\u0120Parlement": 35335, "yne": 48783, "driv": 14615, "\u0120struct": 1577, "\u0120Oh": 5531, "\u0120model": 1566, "\u0120Out": 6282, "\u0120scanner": 25152, "\u0120'$": 34912, "\u0120tapes": 33942, "\u0120351": 35710, "sn": 11489, "\u0120warm": 5890, "atinib": 45702, "\u0120cot": 13450, "osing": 5555, "\u0120objections": 21915, "\u0120females": 10753, "\u0120boarding": 34519, "\u0120CO": 6392, "D": 37, "\u0120proudly": 35731, "='": 5473, "\u0120opposition": 10266, "\u0120SER": 38802, "\u0120hydrolysis": 29112, "IFF": 42130, "\u0120Officer": 12743, "outs": 8349, "'re": 1472, "\u0120negot": 8408, "\u0120Ru": 18268, "255": 10637, "\u0120ellipt": 20194, "\u0120Girls": 26152, "\u0120Syl": 28612, "\u0120wrist": 20051, "\u0120333": 30057, "\u0120life": 1495, "Supplementary": 9227, "bz": 38841, "\u0120respective": 9056, "igate": 12894, "service": 10613, "\u0120211": 24978, "^{[": 36692, "\u0120spectrophot": 40147, "\u0120Maced": 40549, "tier": 42614, "\u0120Fruit": 43974, "\u0120assembling": 44015, "\u0120relativ": 44544, "mon": 2163, "215": 21351, "\u0120glor": 41070, "\u0120colonization": 32591, "\u0120hatte": 44674, "rtl": 44964, "\u0120refused": 9284, "gz": 20449, "\u0120revol": 46577, "\u0120glow": 15795, "\u0120KDE": 47197, "Everybody": 35485, "\u0120sunny": 32650, "orb": 16937, "aliana": 48108, "\u0120Os": 14183, "\u0120Lorenzo": 50190, "NO": 7716, "Slice": 33779, "better": 29266, "\u0120tournament": 14811, "\u0120overr": 17797, "Brush": 44777, "\u0120antisense": 45632, "\u0120sme": 47993, "\u0120prost": 17248, "\u0120sial": 50244, "\u0120Sadly": 47870, "\u00d0\u00b0\u00d1\u0131": 32255, "\u0120\u00e2\u013b\u00aa\"": 18781, "\u0120Edition": 17897, "\u0120Barack": 22306, "\u0120Resort": 36322, "\u0120famous": 8530, "\u0120Mrs": 6827, "\u0120hors": 43347, "\u0120Frame": 17780, "\u0120169": 23504, "widget": 14778, "\u0120Roger": 19528, "\u0120Gordon": 17419, "irled": 47097, "})-": 44564, "\u0120agents": 6083, "Coun": 35108, "\u0120Stick": 47708, "$,": 1366, "\u00c3\u00b6m": 35127, "\u0120\"$(": 48023, "\u00e6\u0143\u00a3": 32594, "\u0120Table": 5270, "\u0120n\u00c3\u00a5": 31217, "emetery": 22120, "\u0120R\u00c3\u00a9": 45282, "forEach": 34176, "\u0120fishing": 15133, "\u0120palp": 36385, "\u0120traject": 13310, "\u0120exerts": 45956, "\u0120Marsh": 15463, "\u0120Dreams": 48774, "\u0120grandes": 45521, "\u00e2\u0122\u0136": 1128, "zz": 4396, "777": 28880, "CCA": 40020, "CUR": 26336, "aucoup": 47802, "\u0120occas": 10900, "\u0120ancest": 13251, "\u0120nomination": 23726, "\u00e6\u00af\u0136": 44075, "\u0120acre": 36982, "\u0120TYPE": 39024, "\u0120campaigns": 18120, "\u0120amplification": 17442, "^{(\\": 24448, "arent": 2699, "exp": 4347, "\u0120grab": 10013, "\u0120aspir": 15874, "DEVICE": 28663, "\u0120endorse": 18883, "\u0120Patriots": 33668, "Radius": 39547, "\u0120puck": 46402, "ature": 1177, "\u0120extensive": 9470, "BIT": 14609, "\u0120Aster": 47496, "\u0120lad": 9931, "\u0120READ": 28204, "Optional": 36301, "ophils": 49076, "\u0120diodes": 50041, "\u0120\\\\": 3202, "\u0120String": 4605, "(_": 10107, "riz": 21100, "pat": 4066, "Jim": 24349, "compile": 26032, "\u0120an": 271, "\u0120SN": 7167, "\u0120purs": 8796, "\u0120Division": 9333, "161": 20664, "\u0120Sad": 21995, "\u00d0\u00bf\u00d1\u0122": 22682, "\u0120conspic": 35886, "ostic": 6932, "ginx": 48431, "\u0120Plat": 48758, "abama": 13832, "oplasma": 48978, "\u00e8\u00a1\u00a8": 24160, "\u0120individuals": 4292, "USA": 22396, "Honey": 48871, "Handle": 16722, "otherapeutic": 41489, "OO": 4985, "\u0120celebrities": 36856, "\u01201876": 50074, "\u0120reservation": 28930, "\u0120status": 3708, "\u00e6\u0125": 21555, "controll": 35019, "enzyme": 45218, "\u0120Bryant": 33276, "ACC": 15804, "\u0120carcinogenesis": 47355, "ridges": 37945, "existent": 46408, "\u0120prodig": 48864, "Conn": 31201, "\u0120home": 1728, "gro": 26817, "\u0120tending": 43981, "\u0120clock": 8886, ")]": 9102, "\u0120anest": 16028, "\u0120franch": 14754, "\u0120lawyers": 16099, "\u0120Because": 4923, "\u0120startup": 20500, "\u0120McL": 29243, "\u0120youngest": 25423, "PROP": 32969, "\u00c9\u013b": 24870, "\u0120Body": 18456, "abolism": 42541, "\u0120bifur": 32605, "Launch": 41803, "aceuticals": 33367, "Segment": 44808, "\u0120CNN": 16098, "compiled": 49140, "those": 21808, "\u0120defines": 13067, "\u00e3\u0123\u0139\u00e3\u0123\u00a6\u00e3\u0123\u0126\u00e3\u0124\u012d": 41102, "\u0120scaled": 24337, "            ": 50266, "\u0120Bill": 7641, "\u0120rifles": 36064, "\u0120empt": 5766, "oser": 14356, "\u0111": 194, "ieu": 19683, "UX": 21466, "=\"-": 24539, "\u0120nominal": 25662, "\u0120chim": 19114, "\u0120shaken": 36712, "\u0120BC": 12895, "annel": 3536, "\u0120ensured": 33075, "\u0120progenitors": 42388, "achment": 8941, "1941": 44606, "given": 28821, "float": 9599, "\u0120kissed": 23651, "orbit": 30339, "plastic": 32502, "right": 918, "vart": 21531, "written": 15720, "\u0120boarded": 50229, "\u0120rebels": 28550, "\u00e5\u0127\u012a": 43216, "balance": 20203, "\u0120\u00c2\u00b5m": 28592, "\u0120\u00cf\u0126\u00ce\u00b9\u00cf\u0124": 48002, "avir": 29365, "\u0120Teresa": 46937, "\u00d4": 144, "\u0120pl": 499, "\u0120Bran": 46028, "\u0120Emerson": 49243, "\u0120warriors": 29353, "\u0120lui": 17669, "\u0120graft": 13684, "\u0120Sett": 30827, "\u0120Was": 12349, "\u0120Nat": 17320, "\u0120composite": 8212, "265": 21317, "\u0120honest": 8274, "\u0120Ply": 41659, "\u0120slaughter": 30814, "\u0120expansions": 40955, "]{\\": 42767, "Find": 9867, "warn": 30289, "\u0120Representative": 19974, "\u0120Among": 9658, "gan": 1247, "\u0120electricity": 13978, ">::": 14157, "\u0120bandwidth": 16992, ":_": 23338, "VERTIS": 35326, "\u0120section": 2593, "\u0120electoral": 25575, "\u0120\u0120\u0120\u0120\u0120\u0120\u0120\u0120\u0120\u0120\u0120\u0120\u0120\u0120\u0120\u0120\u0120\u0120\u0120\u0120\u0120\u0120\u0120\u0120\u0120\u0120\u0120\u0120\u0120\u0120\u0120\u0120\u0120\u0120\u0120\u0120\u0120\u0120\u0120": 13475, "\u0120schedules": 28631, "sale": 39019, "\u0120loss": 2957, "\u012097": 10694, "stackrel": 23386, "\u0120posing": 42501, "\u0120maize": 34714, "------": 4485, "\u0120WHERE": 17242, "\u0120Him": 15101, "\u0120fifth": 10720, "\u0120BIG": 39733, "\u0120Ment": 48253, "\u0120convers": 5636, "ohn": 2116, "\u0120cytokine": 19918, "\u0120inher": 10958, "\u0120permitting": 27382, "ero": 2771, "\u0120Wagner": 31424, "\u0120v\u00c3\u00a6re": 46249, "ank": 1164, "\u0120narrowing": 44746, "\u0120PNG": 42288, "\u00c2\u0126": 13854, "oma": 3691, "259": 20395, "\u0120conditioned": 27039, ")}/\\": 46201, "\u00ce\u00ba\u00ce\u00b5": 45133, "\u0120Buy": 22900, "orsch": 34267, "\u0120<!": 44342, "\u0120blindness": 44868, "\u0120skating": 46851, "\u0120inspect": 16030, "\u0120buoy": 42172, "ocr": 3131, "\u0120americ": 41290, "\u0120certain": 2176, "\u0120BACK": 29221, "\u0120IMPLIED": 25900, "make": 11145, ":.": 43118, "\u0120flags": 12201, "heating": 47451, "\u0120Cash": 27020, "\u0120vor": 18285, "\u0120plum": 29896, "Effects": 34721, "\u00e1\u0125\u0136": 36017, "comments": 26122, "\u0120handle": 6016, "uti": 32616, "Miller": 42038, "IBM": 47762, "\u0120screens": 14584, "\u0120releasing": 20437, "ruvate": 40888, "\u0120Config": 20851, "\u0120#{": 42298, "Window": 12205, "Patient": 31630, "lamide": 36275, "Page": 10099, "neys": 20161, "vil": 33745, "\u0120Calgary": 37304, "\u0120Mal": 5979, "\u0120criter": 16696, "\u0120GPL": 32506, "\u0120fold": 7975, "\u0120walls": 8099, "\u0120radiation": 7742, "})\\": 8395, "\u0120DIST": 26605, "\u00c5\u013dci": 26968, "475": 30176, "479": 28757, "manifest": 46830, "\u0120Thornton": 50087, "rick": 4662, "\u0120caud": 36112, "lop": 46319, "idia": 32825, "\u0120escort": 33352, "acre": 20537, "122": 14351, "\u0120genom": 47589, "identifier": 31668, "\u0120IB": 32728, "\u0120Plans": 43934, "Filter": 9824, "$).": 14553, "smallmatrix": 48070, "\u0120lasts": 34756, "\u0120Administration": 13500, "\u0120nano": 27126, "\u0120furious": 32986, "headed": 24818, "TW": 36584, "\u0120awakening": 47158, "\u0120kinds": 9351, "\u0120telomere": 48509, "\u0120evaluations": 27163, "Bl": 5622, "timer": 26320, "\u0120mentor": 31854, "cells": 13101, "\u0120fashionable": 43195, "\u0120Bring": 28436, "\u0120certainty": 23140, "\u0120Capitol": 27314, "\u0120done": 2218, "ferencing": 46382, "\u0120acknowledges": 26785, "\u0120ventricle": 36848, "\u0120intentional": 22991, "\u0120Mitch": 39003, "\u0120looked": 3261, "\u010a\u010a\u010a\u0120\u0120\u0120\u0120\u0120\u0120": 37293, "\u0120unb": 26007, "?>": 28391, "\u0120Extra": 33838, "\u0120greed": 37819, "...?\"": 45847, "\u0120slain": 47256, ">{{": 49884, "quer": 14056, "\u0120observe": 10018, "\u0120gestures": 35324, "\u00ce\u00b2": 5346, "ABILITY": 13845, "\u0120RNA": 5771, "\u0120addresses": 12453, "Tables": 29153, "\u0120ONLY": 35310, "\u0120exchanger": 49045, "asts": 9346, "782": 44037, "configuration": 24693, "trip": 39816, "\u0120discover": 9413, "\u0120Poisson": 24513, "\u0120allegation": 26840, "squared": 47593, "LES": 23710, "\u0120WITH": 9277, "voice": 22619, "\u0120skip": 17049, "asser": 30666, "\u0120rectal": 37263, "DH": 13432, "\u0120Crim": 13602, "\u0120photography": 20937, "latest": 35261, "\u0120Hang": 39008, "\u0120shocks": 36085, "]->": 33094, "\u0120excessively": 45891, "\u0120cri": 47032, "\u0120569": 49545, "\u0120Dew": 45797, "icas": 42888, "\u0120Retail": 45943, "\u0120Transl": 46925, "\u0120324": 32479, "raits": 32695, "oglob": 15137, ")}_": 24661, "\u0120Huss": 44035, "triangle": 24269, "\u0120thermoplastic": 48766, "gers": 7276, "roviral": 48377, "\u0120onclick": 35254, "say": 19506, "(?:": 36512, "\u0120remodeling": 27975, "\u0120ment": 9022, "decoder": 48759, "\u0120weed": 32983, "hele": 48056, "ph": 545, "^[": 18990, "apk": 37104, "\u0120\\|": 11045, "\u0120106": 12708, "\u0120correction": 10618, "Material": 30240, "759": 32054, "\u0120unambiguous": 39662, "\u0120degeneracy": 44877, "\u0120innovative": 16694, "\u0120pleth": 43985, "aceutics": 48734, "\u0120MOS": 30001, "iological": 8673, "Private": 22279, "\u0120muy": 28309, "gypt": 9565, "backslash": 27054, "\u0120\u0120\u0120\u0120\u0120\u0120\u0120\u0120\u0120\u0120\u0120\u0120\u0120\u0120\u0120\u0120\u0120\u0120\u0120\u0120\u0120\u0120\u0120\u0120\u0120\u0120\u0120\u0120\u0120\u0120\u0120\u0120\u0120\u0120\u0120\u0120\u0120\u0120\u0120\u0120\u0120\u0120\u0120\u0120\u0120\u0120\u0120\u0120\u0120\u0120\u0120\u0120\u0120\u0120\u0120\u0120\u0120\u0120\u0120\u0120\u0120\u0120\u0120\u0120\u0120\u0120\u0120\u0120\u0120\u0120\u0120\u0120\u0120\u0120\u0120\u0120\u0120\u0120\u0120\u0120\u0120\u0120\u0120\u0120\u0120\u0120\u0120\u0120\u0120\u0120\u0120\u0120\u0120\u0120\u0120\u0120": 8369, "\u0120anime": 29326, "\u0120Meta": 30680, "tsd": 42366, "\u0120TAG": 43907, "\u0120determine": 3653, "\u0120rigid": 16572, "\u0120oxidase": 36519, "\u0120heavenly": 44593, "\u0120duct": 17451, "\u0120driveway": 35664, "\u0120MO": 14789, "\u0120hardened": 43656, "\u0120nationality": 47166, "^\\*^": 33653, "ald": 8950, "0030": 29728, "\u0120Fuk": 34990, "\u0120weaken": 20171, "YPT": 32857, "576": 33333, "\u0120modulator": 46097, "\u0120ster": 10335, "\u0120coff": 33374, "\u0120parted": 39301, "\u0120Steel": 19727, "r\u00c3\u00a8s": 31030, "\u0120cerevisiae": 41866, "\u0120randomization": 46852, ")=-": 49621, "aws": 11345, "\u0120Democrat": 20736, "\u0120highways": 40459, "terminus": 40691, "htm": 25071, "\u0120visibly": 47975, "\u0120encoder": 32049, "\u0120spong": 48230, "summary": 8774, "\u00e3\u0124\u0131": 23872, "\u0120rt": 37523, "\u0120dro": 3926, "\u0120Scul": 46661, "));": 4027, "\u0120injection": 8829, "iotics": 14514, "\u00c2\u0130": 28372, "ynthetic": 23744, "\u0120shelves": 30058, "\u0120Sons": 28431, "\u0120polymeric": 33973, "\u0120Jackie": 37641, "\u0120Try": 15358, "yl": 1190, "\u0120prohib": 9419, "\u01201947": 23518, "\u0120Gest": 45594, "\u0120NY": 10310, "\u0120elder": 11504, "alex": 47510, "\u0120uni": 42015, "MT": 6229, "\u0120dissimilar": 43110, "\u0120nucleotides": 31227, "rivolous": 35781, "\u0120prom": 1964, "Type": 2548, "\u0120Muse": 10176, "\u0120residence": 12913, "\u0120everybody": 11648, "TO": 7058, "NOT": 10311, "\u0120pink": 14863, "\u0120monster": 19827, "HAND": 33359, "WOR": 43046, "\u0120entrepreneurs": 30440, "\u0120convert": 6455, "\u0120Bullet": 36926, "medical": 38079, "CV": 8887, "\\]\\[": 41018, "\u0120quota": 45544, "\u0120Cost": 12805, "\u0120Tai": 14616, "joint": 16662, "igin": 15085, "navigation": 37336, "lace": 34648, "inched": 39012, "pile": 49499, "\u0120pir": 19188, "\u0120475": 34581, "appy": 11599, "ts": 1641, "\u0120indeed": 6296, "\u0120mont": 24325, "\u0120curtain": 31261, "}=(": 34465, "\u0120NH": 18020, "\u0120antes": 35822, "\u00c8\u013bi": 24427, ",,": 19396, "\u0120bronze": 26247, "inae": 35841, "\u0120last": 1390, "\u0120Econom": 17535, "\u0120lumbar": 31345, "USED": 28477, "\u0120stripes": 36298, "\u01201907": 39118, "\u0120modulo": 40090, "\u0120Commission": 5399, "\u0120Robertson": 34405, "\u0120bred": 37553, "\u0120vaccinated": 42721, "\u0120distributor": 43064, "isma": 46984, "\u0120abrog": 48736, "\u0120enjoying": 18262, "hold": 4949, "Player": 19998, "astolic": 28013, "irst": 712, "\u0120cultural": 8928, "\u0120zombie": 42120, "\u0120methamphetamine": 42588, "\u0120jack": 19708, "\u0120&\\": 9443, "\u01201972": 15750, "launch": 20476, "\u0120revers": 7661, "\u00cf\u0123\u00cf\u012e": 28832, "\u0120southwest": 31438, "\u0120scholarly": 41023, "Voice": 48900, "\u0120prevented": 14415, "PLC": 21271, "\u0120Prov": 9225, "arb": 34113, "\u0120withdrawing": 49666, "igma": 2005, "\u0120Zam": 50017, "\u0120undesirable": 26016, "\u0120apert": 19587, "\u0120protects": 24696, "src": 7614, "\u0120Task": 17526, "\u0120impe": 19812, "\u0120Ref": 7567, "OH": 8575, "Link": 10516, "FIL": 23562, "\u0120IGF": 23591, "\u0120screw": 11598, "\u0120lan": 28967, "\u0120relieve": 29522, "anity": 31448, "\u0120soit": 38180, "several": 43249, "\u0120prohibiting": 43987, "odom": 49576, "\u0120accelerate": 28523, "seeking": 41772, "\u0120synchronization": 27801, "\u0120heme": 47086, "\u0120Lu": 7511, "Forg": 47565, "dependence": 39606, "ubicin": 38632, "ributors": 42505, "\u0120honorable": 49448, "\u0120skeptical": 33872, "\u0120Fifty": 38625, "\u0120Positive": 29071, "\u0120Ges": 32580, "aks": 8765, "\u0120stead": 8933, "\u0120Journal": 9109, "atches": 32358, "\u0120sclerosis": 33565, "\u0120knives": 36014, "India": 31870, "\u0120palate": 45238, "\u0120admissibility": 49965, "include": 3709, "vill": 40579, "\u0120ammunition": 28630, "\u0120n\u00c3\u00ba": 41170, "ping": 14650, "targeted": 44490, "\u0120carp": 26918, "ugs": 22201, "\u0120scav": 35901, "uster": 8976, "\u0120glycos": 26988, "\u0120Impact": 29930, "()->": 18331, "\u0120Clerk": 28568, "Mor": 18968, "\u0120stre": 6126, "\u0120smarter": 38144, "\u0120biology": 16775, "img": 8428, "\u0120angiogenesis": 28038, "\u0120datasets": 15302, "\u0120Photos": 30921, "\u0120WHETHER": 33206, "\u0120poetic": 40522, "\u0120Hook": 30276, "\u0120Self": 16531, "\u0120minutes": 2909, "\u0120blending": 41209, "\u0120minorities": 31691, "\u0120CCD": 33169, "\u0120),": 12062, "\u0120Jur": 23124, "pdf": 9275, "\u0120;;": 28513, "\u0120trump": 29154, "\u0120Afterwards": 47090, "unov": 43772, "\u0120installations": 36774, "Makes": 48468, "\u0120sounds": 7835, "TP": 12261, "\u0120fertilization": 46960, "\u0120grasped": 46137, "any": 1279, "\u0120coefficients": 10303, "Neg": 26700, "pip": 42532, "\u0120stacking": 37444, "\u0120CCT": 39794, "\u0120diminished": 23028, "Ow": 47646, "Dig": 19224, "219": 24558, "omonas": 31911, "Parameter": 15402, "\u0120implies": 8018, "\u0120impart": 22435, "Mot": 38306, "Lost": 47801, "925": 48054, "\u0120Elliot": 49867, "803": 28953, "\u0120(!": 6522, "Not": 3650, "\u0120PM": 5365, "\u0120warns": 42169, "Hmm": 33633, "original": 19164, "\u0120covariant": 43359, "\u0120inquired": 39257, "ine": 460, "eing": 21228, "Dark": 29285, "ognition": 32854, "Exists": 39415, "\u00d0\u00b8\u00d0\u00b2": 16423, "\u0120Spider": 32537, "\u00d8\u00b7": 29937, "\u00e9\u00a1": 19780, "quered": 35551, "\u0120Joseph": 10092, "\u00e5\u0131\u00b7": 41015, "ament": 2247, "\u0120erupted": 41763, "\u0120photographer": 24996, "\u0142": 243, "\u00d0\u00b5\u00d0\u00bd\u00d1\u012e": 40123, "^\\": 2850, "Conv": 37262, "430": 34230, "traumatic": 45134, "\u0120includ": 927, "\u0120De": 1605, "\u0120cache": 11556, "\u0120Lady": 12688, "\u0120BP": 17641, "Template": 14968, "\u0120discriminatory": 30602, "\u0120York": 2816, "\u0120Scot": 11137, "\u0120family": 2021, "\u0120unbiased": 38663, "indi": 40620, "rette": 46021, "ruly": 46072, "enezuel": 20656, "{{\\": 2386, "\u0120antioxidants": 40536, "Asset": 37910, "^+": 4526, "crypto": 36371, "\u0120Gothic": 38707, "\u00d8\u00a7\u00d8\u00a8": 47931, "jud": 6881, "\u0120legislation": 10843, "\u0120cub": 12966, "\u0120doubled": 25128, "\u00e6\u012e": 18245, "Helper": 19570, "ubin": 34610, "historic": 43957, "crossing": 48262, "\u0120sculpt": 17481, "\u0120Ug": 29636, "ubl": 2292, "\u0120Alberta": 29026, "\u0120migrate": 31690, "\u0120desktop": 15439, "chem": 10398, "\u0120sar": 34886, "\u010d\u010a": 2379, "\u0120chooses": 28467, "atoes": 45000, "\u0120homogeneity": 43967, "formation": 1248, "\u0120proced": 3352, "\u0120Get": 5057, "\u0120ep": 2563, "iday": 4705, "protect": 33724, "\u0120wouldn": 5082, "\u0120viewing": 14657, "LEVEL": 36868, "\u0120fleeing": 37637, "LEV": 25684, "\u0120Testament": 26529, "\u0120subsidies": 34371, "\u0120provide": 2085, "\u00e6\u0142\u00bc": 45683, "\u0120FISH": 48068, "\u0120liquidity": 49005, "\u0120stupid": 11339, "inities": 46821, "0032": 40363, "tails": 37465, "}\",": 32722, "\u0120Athe": 19705, "\u0120{(": 48469, "\u0120isomorphism": 20169, "\u0120identifies": 22649, "Additionally": 28144, "under": 4524, "\u0120sweeping": 28110, "\u0120terrain": 25061, "fb": 15662, "mons": 23787, "\u0120disease": 2728, "\u0120devast": 17376, "\u0120squares": 19325, "\u0120preserving": 24279, "\u0120fifty": 13719, "quarter": 35443, "formations": 44837, "\u0120partially": 10571, "att": 1595, "\u0120immigrant": 28054, "omorphic": 13468, "\u0120Let": 1281, "\u0120retention": 17302, "\u0120slice": 15512, "\u0120Risk": 22887, "=\\": 2029, "\u0120cond": 6882, "\u0120ambassador": 27178, "\u00e3\u0125\u0143": 24404, "Jew": 27341, "\u0120grinned": 30443, "\u0120Synd": 31181, "aras": 31210, "appellant": 34657, "\u01201905": 37400, "\u0120Shirley": 44339, "783": 46076, "\u0120Drama": 49637, "\u0120Enter": 10871, "estly": 27459, "\u0120FREE": 27460, "{};": 41619, "\u0120check": 2451, "\u0120Rig": 34382, "\u0120226": 27648, "\u0120tensors": 47454, "ppo": 31244, "thinking": 37341, "\u0120junctions": 33138, "\u0120\u0120\u0120\u0120\u0120\u0120\u0120\u0120\u0120\u0120\u0120\u0120\u0120\u0120\u010a\u0120": 25766, "\u0120Nob": 14388, "Sty": 37217, "\u0120Scripture": 39447, "Gal": 19393, "\u0120crowd": 9539, "shire": 19299, "rieved": 35571, "\u0120WARN": 47303, "\u0120doctrines": 40785, "\u0120Leslie": 35657, "axes": 44832, "\u0120infar": 19285, "keeper": 20984, "ss\u00c3\u00a4": 48155, "erna": 34685, "\u0120slots": 25195, "culos": 36828, "\u0120Gold": 7284, "\u0120liquids": 32819, "\u0120Square": 15894, "\u0120put": 1691, "\u0120innov": 8434, "\u0120spectral": 9879, "\u0120ophthal": 39109, "\u0120\u00c3\u00b6ver": 39966, "powers": 39969, "STRA": 41187, "\u0120availability": 11659, "539": 32941, "den": 3354, "\u0120Johnston": 38437, "bab": 43658, "first": 7053, "\u0120culinary": 44604, "\u0120Filip": 36935, "\u0120Diss": 38608, "resh": 2935, "\u0120banc": 30973, "ikh": 20323, "\u0120Congo": 37642, "\u0120\u00e2\u0138\u0142": 45247, "\u0120Deut": 23441, "ivo": 6073, "\u0120embark": 29394, "\u0120translator": 42726, "faith": 39575, "frey": 49804, "\u0120Samsung": 23061, "\u0120rank": 5958, "AAAAAAAAAAAAAAAA": 28597, "gated": 27189, "Esc": 32629, "\u0120automotive": 33170, "widet": 6767, "\u0120failed": 4242, "hern": 3766, "\u0120explo": 10220, "\u0120band": 3961, "\u0120squeezed": 29172, "\u0120docket": 47145, "\u0120intracellular": 14036, "\u0120na": 5549, "\u0120REC": 28239, "\u0120us": 441, "\u0120mirrors": 27034, "\u0120pays": 17587, "\u0120impaired": 15506, "dig": 11174, "\u0120Municip": 26117, "extra": 24124, "Mod": 4120, "\u0120servers": 14903, "habilitation": 16626, "NSString": 26648, "\u0120negotiation": 34326, "\u0120torrent": 38163, "\u0120It": 733, "clude": 2445, "ovember": 4301, ".',": 40219, "uate": 6340, "lang": 8700, "\u0120confident": 13224, "\u00ef\u00bf\u00bd": 21478, "\u01201943": 23430, "\u0120ascertain": 24228, "\u0120decedent": 35666, "\u0120hop": 5184, "\u0120known": 1929, "zoom": 44164, "imiento": 29378, "\u0120characteristic": 8847, "\u0120hydraulic": 25471, "\u0120drop": 5926, "\u0120h\u00c3\u00a5": 47898, "\u0120Rough": 43375, "WIDTH": 40097, "\u00c4\u0125": 4265, "\u0120Sham": 41964, "PU": 7575, "bels": 45786, "riot": 49851, "\u0120runtime": 20243, "treatment": 21272, "\u00e6\u0139\u0142": 47029, "\u0120Best": 9567, "bron": 40742, "\u0120connected": 4802, "\u0120Cross": 10547, "VII": 48818, "\u0120Cafe": 45013, "\u0120imported": 21117, "\u0120attributed": 12877, "\u0120Andre": 23085, "\u012061": 9901, "\u0120emitting": 25946, "TEST": 14524, "itional": 16097, "\u0120alliance": 23158, "\u0120precipitated": 45554, "bigl": 17896, "\u0120Wick": 47172, "\u0120Prem": 13343, "\u0120Midd": 34012, "alo": 12584, "\u0120SSD": 37037, "i\u00c3\u00a7\u00c3\u00a3o": 43362, "\u0120Tac": 37458, "\u0120shouted": 19294, "\u0120meg": 19488, "fs": 3671, "\u0120mk": 36904, "\u0120Solomon": 31049, "\u0120MON": 33995, "}},": 8503, "\u0120remembers": 31947, "\u0120ROC": 39526, "judicial": 46567, "\u0120monotonic": 45973, "82": 3507, "mie": 44492, "\u0120org": 4955, "\u00d0\u00b5": 1207, "\u0120salmon": 24791, "\u0120terminology": 28939, "fake": 39182, "\u0120quantified": 18755, "\u0120embro": 32957, "\u0120analogous": 19890, "Imp": 30081, "\u0120fonction": 48289, "\u0120taxable": 39195, "\u0120remarkably": 24678, "puted": 19280, "\u0120cultivated": 30481, "\u0120Um": 29744, "162": 19603, "chid": 42290, "\u0120hides": 43660, "\u0120antifer": 46965, "enching": 36616, "verted": 13083, "inkles": 43572, "\u0120pes": 27246, "Ext": 7992, "\u0120tant": 22602, "\u0120Ph": 1777, "\u0120med": 1129, "317": 29667, "developer": 35654, "onas": 46605, "\u0120dying": 13889, "\u0120FIFA": 38075, "\u0120447": 41219, "\u0120acknowled": 9555, "\u0120gifts": 17714, "\u0120481": 41981, "\u0120heard": 3735, "\u00d9\u0127": 5843, "]{}]{}": 9899, "\u0120HBV": 28929, "\u0120HashMap": 47523, "\u0120survived": 16139, "KK": 18717, "\u0120Griffin": 29926, "\u0120booster": 48696, "\u0120debut": 11386, "but": 2858, "plac": 33854, "ighb": 47295, "ule": 1657, "\u0120tracking": 12544, "Jeff": 27656, "strous": 45567, "\u0120firefighters": 45399, "\u0120Often": 24503, "\u0120chemokine": 47351, "REE": 12241, "\u0120hs": 49343, "\u0120backed": 17245, "\u0120honesty": 33773, "\u0120ordained": 50081, "resholds": 25316, "\u0120SPSS": 32500, "\u0120generator": 14156, "\u0120substant": 4326, "\u0120enhancement": 14314, "\u0120161": 22761, "24": 1348, "ograms": 17629, "\u0120verse": 23252, "\u0120disregard": 27719, "\u0101": 178, "\u0120pursue": 15142, "\u0120onc": 18695, "ouin": 44818, "\u0120zig": 48567, "\u00e8\u00a2\u00ab": 41873, "\u0120dominance": 26447, "ded": 4861, "\u00c6\u00b0": 23227, "ST": 1267, "\u0120depended": 32945, "\u0120pol": 877, "}&": 21316, "\u0120Option": 27357, "eria": 5169, "\u0120Initially": 32312, "\u0120doxorubicin": 48776, "\u0120dest": 3154, "ahr": 24452, "PK": 15659, "\u0120Harvard": 17330, "lights": 22850, "ono": 20283, "SOCK": 42937, "\u00d0\u00b9": 10411, "\u00e6\u0131": 22470, "\u0120\u00d0\u00bf\u00d0\u00be\u00d0\u00bb": 26072, "\u0120sein": 27437, "\u0120quien": 44311, "hydration": 37249, "\u0120vara": 45844, "/": 16, "orin": 48333, "\u0120isolate": 20843, "phe": 21289, "=\"@+": 26038, "\u0120channel": 5048, "\u00e6\u00b7": 36087, "\u0120disappoint": 11034, "\u0120Reset": 41126, "Order": 13921, "\u0120enterprise": 16100, "Tal": 41520, "IDs": 31724, "Military": 42531, "\u0120print": 3379, "\u0120fermion": 35530, "oblast": 16827, "\u0120handling": 10885, "\u0120swiftly": 34304, "Alias": 44292, "\u0120Diaz": 45887, "only": 7483, "kh": 17616, "\u0120myocardium": 46394, "\u0120borough": 46861, "\u0120geen": 47250, "NESS": 17582, "\u0120kinetics": 24273, "\u0120Marines": 34913, "errno": 39386, "coordinate": 36236, "\u0120fixed": 4229, "mic": 6185, "\u00e3\u0123\u00a8\u00e3\u0123\u0126\u00e3\u0123\u0128": 29474, "\u0120Joe": 9915, "\u0120patients": 1363, "feature": 24594, "iors": 17327, "elem": 33511, "\u0120stealth": 41088, "]]": 9502, "Variable": 23807, "\u0120didnt": 42126, "\u0120footballers": 23236, "\u0120Could": 16574, "\u00ef\u00bc\u013c": 18140, "ignant": 45806, "jee": 39101, "472": 32006, "\u0120exists": 4961, "Fox": 29969, "perate": 44640, "CTIONS": 44622, "\u0120exhibited": 12322, "quad": 3362, "Det": 8486, "\u0120Message": 17775, "\u0120Fraz": 48119, "ionale": 44365, "\u0120diplomats": 47755, "equals": 22297, "\u00e3\u0123\u00a6\u00e3\u0123\u0126\u00e3\u0124\u012d": 20550, "075": 29631, "exercise": 48355, "bis": 24000, "\u0120inform": 4151, "Kat": 47027, "\u0120Coll": 10595, "\u0120arrow": 14150, "\u0120solub": 26420, "rangle": 3799, "\u0120delic": 37619, "\u0120consistently": 12724, "\u0120latent": 21624, "ylan": 24107, "\u0120wrongly": 47723, "\u0120Glen": 30484, "\u0120immersed": 35131, "upper": 23725, "\u0120commonly": 7744, "Body": 15163, "achus": 12903, "\u0120rgba": 32267, "\u00e7\u00bb": 12755, "\u0120Joan": 29778, "avin": 23793, "\\\",": 31875, "\u0120expired": 27416, "eral": 1560, "iotic": 12381, "AR": 1277, "\u0120Holy": 13936, "\u0120Scientific": 15317, "utta": 29662, "refresh": 38664, "\u0120farmer": 24718, "\u0120Services": 9491, "\u0120Eleanor": 35099, "\u0120Act": 3162, "\u0120zomb": 29567, "\u0120resistant": 14264, "ces": 707, "\u0120suppression": 14523, "\u0120mul": 22871, "scape": 9875, "\u0120suffices": 31088, "Mu": 31425, "\u0120covenant": 33043, "secondary": 36277, "\u0120steak": 36557, "\u0120Stockholm": 38476, "710": 41680, "AFP": 42382, "EDIT": 18071, "\u0120motivations": 42852, "\u0120below": 2708, "\u0120etc": 3966, "230": 17569, "\u0120MLS": 33894, "\u00e1\u00bf\u0138": 43077, "iven": 3870, "\u0120Vec": 43876, "Names": 14090, "heer": 44403, "bolt": 45296, "\u0120Between": 17842, "illo": 16078, "034": 20570, "Hex": 35348, "Stan": 36447, "();": 1874, "Argument": 22388, "Hell": 39312, "\u0120graceful": 45822, "\u0120puppet": 47717, "\u01201932": 30953, "\u0120pd": 31385, "iera": 22771, "\u0120strang": 23457, "\u0120....": 22833, "\u0120schol": 35749, "LY": 12715, "odds": 8421, "\u0120410": 31938, "\u0120MI": 16432, "525": 37219, "\u0120estos": 48421, "\u012090": 5091, "\u0120happens": 6569, "counter": 20285, "\u0120similarities": 22620, "\u0120gad": 27835, "380": 24137, "\u0120Rew": 34479, "\u0120boiled": 35517, "\u0120Legion": 36200, "\u0120DEC": 32823, "\u0120145": 19092, "osidase": 44555, "765": 49002, "amed": 3163, "\u0120\u0120\u0120\u0120\u0120\u0120\u0120\u0120\u0120\u0120\u0120\u0120\u0120\u0120\u0120\u0120\u0120\u0120\u0120": 4333, "Menu": 14324, "nor": 15387, "\u0120ig": 25477, "aukee": 28855, "gins": 35022, "RENT": 39244, "843": 38119, "\u0120bids": 42863, "\u0120NOTICE": 43512, "\u0120Transfer": 23109, "\u00e3\u0124\u0143": 33548, "\u0120Queen": 11628, "\u0120escape": 8773, "]^.": 8562, "\u0120enforce": 7767, "\u0120Nig": 18759, "\u0120shakes": 41482, "\u0120hemp": 45967, "\u0120SSR": 46414, "\u0120go": 564, "SUCCESS": 34866, "\u0120plus": 5043, "\u00d0\u00be\u00d0\u00bb": 7869, "\u0120Lee": 8652, "male": 30165, "\u0120Within": 15092, "ableView": 38375, "lem": 5616, "anus": 38628, "\u0120airway": 23024, "\u0120remnants": 38948, "\u0120thousand": 8014, "\u0120secretly": 31065, "}}}$.": 33471, "Also": 9917, "acter": 1434, "idespread": 13933, "\u01201957": 23305, "hu": 11917, "ovation": 21373, "\u0120predominantly": 18705, "\u00e4\u00ba\u0128": 17492, "\u0120244": 27146, "\u0120persuasive": 34593, "\u0120resuspended": 38110, "cardi": 41229, "\u010a\u0120\u0120\u0120\u0120\u0120\u0120\u0120\u0120\u0120\u0120\u0120\u0120\u0120\u0120\u0120\u0120\u0120\u0120\u0120\u0120\u0120\u0120\u0120\u0120\u0120\u0120\u0120\u0120\u0120\u0120\u0120\u0120\u0120\u0120\u0120\u0120\u0120\u0120\u0120\u0120\u0120\u0120\u0120\u0120\u0120\u0120\u0120\u0120\u0120\u0120\u0120\u0120\u0120\u0120\u0120": 43068, "\u00c3\u00afve": 30180, "\u0120bou": 29909, "\u0120Davies": 35693, "\u0120park": 5603, "pw": 42641, "Extended": 43185, "\u0120Von": 36372, "\u00d1\u0123\u00d1\u0124\u00d0\u00b0\u00d0\u00b2": 43965, "\u0120Merkel": 44669, "\u0120C": 330, "\u0120Mut": 15601, "\u0120startups": 37735, "\u0120malnutrition": 48461, "\u0120bir": 3350, "\u0120supported": 4516, "np": 18650, "\u0120Learn": 26779, "\u00e4\u00ba\u013d": 40951, "\u0120absorption": 11058, "\u0120BLOCK": 44425, "\u0120ii": 21255, "NMR": 39209, "\u0120Compound": 49547, "\u0120velocities": 24409, "Alert": 33388, "kind": 11258, "\u0120Myth": 43633, "\u0120pathways": 9130, "\u0120fuer": 36069, "\u0120Introduction": 12276, "\u0120pituitary": 37804, "\u01201983": 11299, "\u0120simpler": 19554, "\u0120450": 20156, "\u0120thinking": 4680, "\u0120eliminating": 23703, "domin": 33285, "pref": 11499, "rb": 13041, "\u0120boxing": 36607, "boost": 15467, "\u0120leaf": 10617, "cultural": 37452, "\u0120Dum": 38004, "\u0120echo": 7392, "\u0120Central": 8170, "\u0120producers": 18014, "plays": 42241, "\u0120Carey": 45377, "\u0120Carb": 45411, "^+_": 47106, "\u0120Boy": 12143, "\u0120lips": 11233, "lein": 18937, "\u0120enamel": 46803, "2013": 6622, "\u0120Slav": 50168, "\u0120Pablo": 46482, "acker": 16468, "KO": 19395, "Dav": 12403, "---------------------------------------------": 42451, "\u0120albeit": 23447, "\u0120lyrics": 24591, "/?": 22549, "\u0120\u00c2\u00b5M": 26271, "\u0120\u00c3\u012bt": 45176, "contained": 41010, "finite": 35161, "\u0120micron": 39436, "\u0120diffuse": 21858, "\u0120MSS": 45322, ").\"": 33540, "ospheric": 48800, "\u0120ng": 9782, "thi": 48146, "\u0120alright": 34557, "BG": 21279, "cele": 44033, "\u0120pit": 8483, "\u0120assembl": 19308, "\u0120coming": 3551, "\u0120grate": 12525, "\u0120overwhelming": 16400, "\u0120ling": 23614, "\u0120disposable": 34679, "IN": 1042, "ardon": 22628, "\u0120upgrading": 38234, "\u0120illum": 16023, "virus": 41038, "cumin": 42425, "\u0120commut": 43416, "overlay": 46732, "CC": 2648, "\u0120pretend": 22830, "\u0120chains": 13178, "\u0120possible": 1896, "\u0120cam": 4049, "\u0120File": 8490, "\u0120variance": 11041, "\u0120Jen": 18854, "\u0120Economic": 19190, "\u0120remove": 5386, "onectin": 31295, "\u0120distilled": 35755, "ulmonary": 35534, "\u0120tactic": 36633, "hos": 40001, "\u00cf\u0126\u00ce\u00b5": 16411, "ungle": 24895, "\u0120query": 7316, "\u0120Stack": 24544, "\u012083": 11439, "\u0120levels": 2308, "\u0120limiting": 14155, "\u0120Indians": 16869, "\u00e0\u00a4\u00ae": 32191, "553": 42633, "\u0120aver": 10180, "\u0120ruin": 23737, "idx": 16159, "\u0120religion": 9596, "\u0120remn": 26384, "\u0120smartphones": 33188, "ker": 6426, "arine": 43304, "\u0120commerce": 19938, "\u0120R": 416, "\u0120nationwide": 23931, "\u01202": 374, "\u0120accusing": 37781, "\u0120154": 21603, "\u0120Hoe": 49502, "aron": 10510, "\u0120Meaning": 45734, "yss": 37409, "\u0120demand": 4831, "oxin": 32747, "rices": 5395, "\u0120{%": 37183, "ular": 792, "\u0120staff": 4750, "\u0120ana": 19059, "lux": 29833, "\u0120Intern": 3749, "\u0120cloud": 9005, "\u0120aa": 39951, "\u0120crore": 43813, "Records": 48081, "spread": 42755, "\u0120academ": 8371, "mr": 28094, "adin": 36877, "\u0120rotational": 22090, "\u0120investments": 18900, "\u0120Compensation": 37309, "\u0120Pir": 25017, "ABLE": 8908, "\u0120Flat": 36682, "\u0120Gary": 18975, "\u0120questionnaires": 28687, "December": 22784, "death": 26975, "_);": 39133, "FIX": 27225, "\u0120sermon": 46040, "495": 32296, "\u0120glimp": 27092, "\u0120Genetic": 37003, "\u0120digestive": 36013, "'}": 13995, "\u0120annihilation": 37290, "har": 9432, "inging": 25751, "\u0120contact": 3057, "\u0120Hans": 16137, "\u0120population": 3072, "\u0120Measure": 22679, "\u0120estimating": 26230, "\u0120counter": 4828, "\u0120pursu": 8205, "nej": 33841, "\u0120pens": 17113, ")|^": 33923, "western": 18288, "eta": 1464, "iness": 1632, "\u0120chees": 36187, "\u0120ADVIS": 48646, "\u0120accommodate": 18045, "V": 55, "income": 20666, "\u00d0\u00b5\u00d1\u0124\u00d1\u0123\u00d1\u0131": 36663, "\u0120suitability": 45984, "ullen": 26584, "slo": 37953, "\u0120Rivera": 43107, "GroupName": 48975, "\u0120ADA": 37149, "ynthesis": 15001, "\u00d0\u00b0\u00d0\u00bd\u00d0\u00b4": 50230, "Financial": 41349, "\u0120adjustment": 14000, "\u00e2\u0128\u0134": 23759, "\u0120MCF": 30949, "becca": 27407, "documentclass": 8604, "\u0120among": 2190, "\u0120subscribe": 26302, "\u0120Allied": 32683, ">$": 24576, "\u00e7\u0124": 21944, "\u0120bucks": 33096, "\u0120browsing": 33310, "\u0120MAY": 37591, "mob": 42096, "\u0120tasted": 37907, "\u0120Boat": 44522, "\u0120crit": 2268, "\u0120sound": 3590, "Peter": 23852, "\u0120Past": 20840, "copyright": 35152, "\u0120blinded": 34903, "aaaa": 23342, "rij": 23151, ")[": 6904, "686": 28057, "\u0120essa": 46038, "blocking": 43883, "\u0120nickel": 30237, "igen": 3855, "\u0120Attribute": 42090, "\u0120monkey": 28005, "\u0120predecess": 21895, "\u0120collagen": 15546, "\u0120Cable": 38174, "\u0120retiring": 42200, "\u0120snapshot": 29679, "elta": 1862, "\u00c2\u0142\u00c2\u0142": 2519, "\u0120Shadow": 28258, "\u0120chiefs": 46282, "liness": 28399, "\u00e5\u0138": 39429, "\u0120quatern": 40163, "Regular": 35616, "\u0120fortified": 50251, "ipe": 5495, "\u0120repo": 30905, "\u0120Rules": 16228, "\u0120\\*\\*\\*": 31904, "\u0120veh": 3793, "\u0120understandable": 34007, "cias": 34016, "\u00e2\u0137\u0132\u00e2\u0137\u0132\u00e2\u0137\u0132\u00e2\u0137\u0132": 36963, "\u0120extraordinarily": 49258, "\u0120Java": 8595, "\u0120quantification": 21652, "\u00c3\u00b6": 2381, "\u0120petitioner": 11810, "\u0120helpless": 26952, "requently": 34416, "\u0120CK": 17939, "\u0120Various": 25838, "\u0120Kindle": 43252, "\u0120constituted": 19419, "\u0120Forms": 44017, "Winter": 47463, "\u0120\"@": 34683, "imes": 1022, "\u00e5\u0128": 14262, "\u0120Eug": 26851, "Notify": 48100, "\u0120neuropath": 43393, "\u0120pact": 47448, "\u0120testis": 49034, "\u0120opaque": 34350, "\u00d0\u00b0\u00d1\u0130": 47682, "arch": 1116, "meg": 33373, "rotate": 44979, "\u0120Mario": 27264, "rir": 42061, "\u0120Dou": 33115, "isEmpty": 41703, "Considering": 40619, "\u0120ops": 38322, "\u0120uttered": 41856, "\u0120invoice": 45156, "UTERS": 48181, "\u0120DF": 35425, "cop": 21592, "riched": 16278, "\u01201937": 27598, "\u0120Spencer": 26878, "\u0120instructions": 7997, "agua": 45877, "\u0120pract": 2283, "\u0120deliveries": 40547, "\u0120Plugin": 49366, "xmm": 27963, "9": 26, "four": 12496, "...'": 29678, "\u0120Sun": 4146, "\u0120Jamaica": 41198, "\u0120Administrative": 33241, "\u00d1\u0124\u00d0\u00b5\u00d1\u0122": 46360, "\u00c3\u00a9n": 9390, "ancia": 40933, "\u0120basal": 15919, "[:": 18297, "\u0120hangs": 37778, "culate": 3699, "icity": 5755, "apache": 8418, "rox": 41636, "\u00c3\u00bc": 3090, "\u0120loving": 18248, "\u0120statistical": 7605, "OCK": 9466, "\u0120View": 9182, "\u0105": 182, "\u0120Jean": 13089, "\u0120Delhi": 19950, "ungal": 29457, "\u0120276": 32193, "\u0120\u0120\u0120\u0120\u0120\u0120\u0120\u0120\u0120\u0120\u0120\u0120\u0120\u0120\u0120\u0120\u0120\u0120\u0120\u0120\u0120\u0120\u0120\u0120\u0120\u0120\u0120\u0120\u0120\u0120\u0120\u0120\u0120\u0120\u0120\u0120\u0120\u0120\u0120\u0120\u0120\u0120\u0120\u0120": 15533, "protein": 20529, "\u00c4\u0133": 46233, "\u0120enemy": 9054, "fax": 37546, "\u0120hapl": 21586, "\u0120Bitcoin": 15025, "\u0120cooperate": 29406, "(@": 22256, "^+$": 26723, "\u0120Sword": 47783, "\u0120graduate": 16125, "logger": 23173, "vor": 19449, "cret": 2414, "umbing": 32348, "amiento": 36726, "ski": 9327, "\u0120JOIN": 27253, "\u0120visited": 11580, "\u0120chond": 28877, "OFFSET": 33441, "SRC": 31694, "versal": 34451, "\u0120ZnO": 45275, ":": 27, "\u0120\u0120\u0120\u0120\u0120\u0120\u0120\u0120": 286, "\u00ce\u00af": 6450, "\u0120nos": 13647, "\u0120comput": 2475, "\u0120liqu": 4874, "ROM": 34940, "\u0120rat": 2839, "imetric": 35079, "interest": 14014, "\u0120unnecessary": 15279, "\u0120dancing": 18792, "\u0120disappeared": 15159, "\u0120prest": 21641, "234": 20210, "Prime": 41133, "\u0120designate": 42638, "load": 2799, "Exactly": 39364, "Individual": 38861, "\u0120Cut": 18665, "\u0120oscillator": 27957, "umbo": 45566, "plugins": 24111, "clusion": 3444, "\u0120upregulated": 24680, "Te": 7573, "\u0120guid": 10312, "\u0120chemical": 5793, "izz": 11114, "eneration": 21369, "amental": 27569, "\u0120Bundle": 48284, "\u0120ect": 26570, "\u0120evid": 20456, "\u0120intentions": 21546, "BUS": 45483, "\u0120researc": 7440, "Washington": 25655, "thel": 34633, "\u0120follow": 956, "acebook": 6145, "\u0120usual": 7312, "062": 37258, "\u0120Pediatric": 44039, "\u0120replic": 7446, "aylor": 9614, "Excel": 43062, "Iterator": 22782, "\u0120clarified": 31637, "}}}^": 24759, "\u0120ORDER": 19140, "\u0120Effects": 24350, "\u0120Ker": 27831, "\u0120demol": 25948, "\u0120continuously": 14949, "996": 28053, "\u0120254": 29501, "OMA": 40356, "ople": 879, "\u0120PD": 6442, "\u0120addict": 26716, "\u0120dynamics": 8062, "ati": 8657, "\u0120Notably": 28776, "\u00d0\u00b0\u00d0\u00b2": 10324, "kr": 21529, "\u0120kt": 33209, "\u0120glyph": 33981, "\u0120project": 2199, "grass": 34495, "\u0120delle": 26027, "\u0120minimized": 36625, "\u0120ruby": 40110, "mux": 49862, "house": 5967, "\u0120Facts": 37351, "oddsidemargin": 8867, "\u0120_,": 13830, "\u0120page": 3239, "\u0120IgG": 15473, "illion": 2212, "adjusted": 23811, "\u0120works": 2987, "\u0120Camb": 26608, "ural": 1546, "aille": 36826, "\u0120sixteen": 25279, "jj": 22492, "\u0120protagonist": 39092, "\u0120arrival": 13024, "\u0120mocking": 49282, "081": 41551, "mt": 6917, ")}(": 14411, "quist": 32446, "\u0120echoes": 41249, "ives": 1644, "Club": 43402, "Inf": 20067, "\u0120canon": 31992, "eday": 35862, "\u0120pretext": 39543, "ucose": 44612, "manufact": 48117, "\u0109\u0109\u0109\u0109\u0109\u0109": 47174, "vu": 40970, "\u0110": 193, "\u0120collective": 12786, "oid": 1238, "\u0120confused": 13477, "\u0120Games": 12568, "\u0120Baker": 18749, "\u0120unemploy": 16096, "\u0120declar": 18600, "Meanwhile": 18978, "coll": 14641, "reck": 17456, "\u00ec\u00a7\u0122": 34391, "\u0120prayer": 15851, "\u0120pumps": 29131, "\u0120Plot": 40185, "LP": 13010, "\u0120equ": 1298, "\u0120deemed": 14320, "\u0120breast": 5988, "\u0120List": 5552, "\u0120anth": 13950, "hene": 17866, "\u0120'''": 42011, "\u0120unsupported": 36542, "\u0120anguish": 44089, "sky": 13456, "\u0120Ethereum": 38956, "\u0120guided": 18107, "\u00e5\u0130\u0141": 39673, "\u0120t": 246, "\u0120overview": 18389, "\u0120vacant": 33997, "SB": 15803, "\u0120settlement": 10858, "\u0120Sympt": 40561, "land": 1373, "auer": 17146, "died": 42729, "\u0120fluctuations": 15113, "\u0120disciplined": 48310, "istes": 50197, "encoder": 36465, "\u00e2\u0136\u0122\u00e2\u0136\u0122\u00e2\u0136\u0122\u00e2\u0136\u0122": 26069, "\u0120illicit": 41566, "\u0120hull": 28470, "058": 30541, "\u0120contradicts": 40878, "\u0120elabor": 14883, "\u0120Last": 9859, "\u0120entang": 18768, "\u0120ago": 3622, "-------------------------------": 32107, "\u0120asserts": 17086, "\u0120catalog": 20623, "adren": 31211, "\u0120connects": 23417, "\u0120Casey": 32252, "\u0120chord": 32894, "marshal": 34767, "\u0120regularization": 37820, "\u0120limitation": 12291, "propyl": 38652, "\u0120fazer": 39416, "Saturday": 28007, "\u0120nar": 39016, "\u0120incidental": 40514, "adv": 24301, "\u0120).": 13441, "\u0120cal": 1724, "\u0120commerc": 5592, "\u0120passes": 11999, "depth": 16719, "amino": 19741, "\u0120Lay": 31910, "\u0120huge": 5699, "\u0120continu": 44351, "\u0120tad": 46868, "\u0120In": 496, "FV": 42972, "\u0120Girl": 14758, "Lean": 46959, "1935": 47208, "\u0120DDR": 47426, "\u0120confronting": 49672, "\u0120clearer": 30909, "iets": 46426, "\u0120cra": 8034, ")**(-": 29291, "\u0120Case": 10498, "\u0120embedded": 12691, "\u0120Response": 19371, "\u0120Rub": 11879, "INVAL": 22189, "\u010d\u010a\u0120\u0120\u0120\u0120\u0120\u0120\u0120\u0120": 33235, "bol": 33338, "\u0120binding": 4865, "transaction": 35238, "\u0120bug": 7505, "othered": 25688, "\u0120utmost": 34497, "\u0120Appeal": 19160, "compact": 36648, "otrop": 41916, "cester": 27449, "\u0120exponential": 17619, "opathological": 28342, "\u0120exactly": 4555, "\u0120padd": 41243, "\u0120Shape": 42668, "Raw": 24436, "\u0120Palestin": 14198, "\u0120candidates": 9183, "\u0120Default": 18193, "\u0120artery": 12235, "\u0120discipl": 10918, "Kenn": 45395, "morrow": 49178, "\u0120\u00d0": 929, "\u0120CAD": 29263, "matic": 33778, "\u0120guessed": 30346, "\u0120bureauc": 25126, "self": 1286, "stones": 35695, "\u0120conditional": 17697, "\u0120bite": 18470, "\u0120snacks": 36895, "Min": 10292, "\u0120hath": 29272, "\u0120TLR": 21575, "\u0120plotting": 38542, "inta": 39078, "vis": 4534, "\u0120imaging": 6979, "enda": 11635, "\u0120adjunct": 49816, "MAC": 28647, "\u0120pretrial": 37631, "\u0120hog": 47891, "\u0120competed": 29177, "\u00ce\u00bd": 3147, "\u0120anc": 6164, "\u0120warfare": 27205, "uz": 7958, "\u0120Crom": 45010, "Discussion": 14146, "\u0120cones": 38974, "\u0120alternatively": 31506, "\u0120Sah": 32706, "\u0120exposed": 7329, "GT": 9334, "TT": 4490, "\u0120Karl": 21138, "dominal": 43405, "\u0120HAD": 45236, "\u0120LAB": 46184, "\u0120Youtube": 49459, "Others": 41255, "\u0120Lav": 31274, "\u0120inventions": 47112, "\u0120strengthening": 31845, "ers": 398, "\u0120sucks": 35058, "\u0120Rena": 30958, "\u0120Holding": 47747, "\u00c3\u0139": 6027, "onym": 7983, "\u0120circumstance": 26741, "\u0120Declaration": 27113, "\u0120Mumbai": 32111, "\u0120sorts": 16308, "\u0120Marl": 46847, "\u0120graphic": 19908, "017": 11027, "\u00e1\u0122\u0122": 48716, "\u0120mur": 4682, "\u0120annoyed": 34639, "\u0120BOOST": 10807, "\u0120proto": 21634, "(\"#": 19410, "\u01200": 470, "PSC": 37612, "Encoder": 37854, "\u0120*);": 46083, "\u0120Detroit": 17372, "\u0120fraud": 9116, "\u0120invoke": 22073, "\u00e3\u0124\u012b": 11039, "models": 19286, "\u0120Err": 9717, "\u0120specimen": 20204, "\u0120computing": 12672, "\u0120prolifer": 26767, "\u0120unfor": 42439, "\u0120ROB": 47079, "LOW": 47123, "\u0120expended": 49976, "\u0120carry": 4459, "ppler": 26005, "\u0120Palest": 11481, "\u0120yard": 15789, "00000": 9439, "\u0120whatsoever": 24612, "\u0120Green": 6115, "APP": 18137, "told": 42618, "/*!": 46170, "\u00e7\u00bd": 19957, "\u0120affinity": 15430, "\u0120protagon": 30224, "holes": 34998, "yel": 44447, "\u0120curative": 46876, "\u0120follic": 23423, "}{": 1217, "contains": 24634, "\u0120\u00c4\u012f": 23263, "\u0120JUD": 39953, "\u0120lav": 22874, "}|^": 37207, "xygen": 38190, "\u010d\u010d\u0120\u0120\u0120\u0120\u0120\u0120\u0120\u0120\u0120": 41499, "\u0120illustrations": 33954, "\u0120pronoun": 43980, "isf": 3042, "xor": 28374, "\u0120sleeves": 37318, "jas": 33583, "ceeded": 49930, "\u0120occult": 42003, "\u0120taught": 10256, "USE": 17423, "keywords": 47558, "verse": 3025, "\u00e6\u012c": 18751, "\u0120finals": 34482, "i\u00c3\u00a8re": 18127, "\u0120differentially": 21673, "\u0120Township": 26469, "Applied": 41041, "\u0120prohibits": 33093, "\u0120screened": 22546, "\u00d0\u00b5\u00d0\u00bd\u00d0\u00b8": 40286, "suffix": 49959, "\u0120termination": 15056, "          ": 50268, "\u0120Las": 15878, "\u0120143": 21445, "\u0120\u00c2\u00bb,": 28599, "\u0120partial": 7898, "\u0120impair": 11490, "\u0120nov": 22458, "group": 4399, "\u0120Marina": 43519, "succ": 45992, "IFIC": 45442, "Elect": 21749, "\u0120zo": 24615, "dock": 44721, "\u0120dictates": 44682, "\u0120focus": 2770, "Tell": 17570, "\u0120pot": 1721, "\u0120attracts": 45465, "\u0120m\u00c3\u00a9d": 40044, "\u0120unsaturated": 45833, "othing": 5775, "\u0120Ship": 30196, "baz": 31953, "\u0120Doing": 38733, "cht": 12914, "argv": 28928, "\u0120enthusi": 12833, "\u0120Scient": 11615, "\u0120hacking": 35565, "\u0120Tok": 14391, "\u0120planes": 16340, "\u0120necessarily": 7933, "ugg": 18050, "\u00d0\u00b8\u00d1\u0124\u00d1\u012e": 21030, "\u0120finished": 6699, "WK": 27767, "\u00e3\u0124\u00b7": 22545, "\u0120genres": 39831, "\u0120variant": 12955, "\u00cf\u0126\u00ce\u00b1\u00ce\u00b9": 30656, "\u0120Teachers": 43048, "\u0120resumed": 30974, "\u0120(:": 48372, "fif": 25512, "\u0120responds": 27019, "exposure": 48917, "\u0120tard": 43596, "\u0120Cal": 2263, "eron": 16259, "VM": 11804, "\u0120Greece": 17785, "\u00c3\u0143": 1950, "\u0120\u00eb": 10608, "fortunately": 9520, "electric": 34502, "symmetric": 39617, "\u0120partir": 39955, "\u0120sight": 8184, "\u0120temporal": 11935, "\u0120Exercise": 40626, "\u0120Jennifer": 26355, "\u0120niche": 25803, "\u0120Commonwealth": 16342, "\u0120Lower": 20672, "\u0120ser": 1151, "\u0120cin": 15573, "\u0120\u00d8\u00a7\u00d9\u0126": 9445, "\u0120undisputed": 30501, "\u0120adhesion": 15921, "othe": 4977, "css": 9016, "```": 11202, "opsy": 14143, "\u0120steam": 15401, "\u0120Trav": 25480, "\u0120concurrent": 17336, "riages": 26074, "\u0120thrive": 34298, "ICs": 43128, "\u0120gour": 49992, "WV": 34772, "\u0120Encyclopedia": 43338, "kp": 50120, "ountain": 24726, "\u0120etching": 29411, "metal": 33107, ";\\": 7405, "ulating": 8287, "Share": 18281, "\u0120Random": 20221, "\u0120stew": 22855, "\u0120ray": 21868, "\u010d\u010a\u010d\u010a\u0120\u0120\u0120\u0120\u0120\u0120\u0120": 23883, "805": 27632, "vast": 35982, "\u0120husband": 5938, "APE": 42840, "ogra": 20116, "\u0120Italy": 9972, "\u0120speck": 46067, "\u0120Flowers": 48595, "\u0120Neut": 44889, "\u0120saturated": 23543, "\u0120dismiss": 5597, "\u0120Shipping": 42855, "BPF": 36053, "\u0120acquis": 40922, "\u0120participant": 14687, "\u0120Yoga": 44052, "EEK": 41404, "\u0120paved": 41608, "\u0120hyster": 32685, "\u0120remains": 4558, "\u0120Construction": 24969, "\u0120dependent": 7976, "%).": 10970, "LIN": 29193, "Fall": 37327, "bod": 39455, "lest": 46701, "\u0120invested": 22171, "OW": 4290, "\u0120loser": 48222, "\u0120maid": 30302, "on": 251, "\u01201900": 24810, "\u0120Active": 20049, "spl": 23336, "XR": 31576, "\u0120Cardinal": 36190, "\u0120Que": 7035, "\u0120v\u00c3\u00a4": 28574, "ypse": 42769, "rends": 34844, "\u0120tablespoon": 23451, "LANG": 47043, "\u0120adduct": 48427, "\u00e6\u0138\u00b0": 24308, "\u0120monkeys": 30552, "\u0120forecasts": 43942, "\u0120Pixel": 45562, "\u0120nu": 8794, "\u0120Defendants": 12254, ".*,": 20011, "\u0120certificates": 28460, "\u0120airports": 38042, "\u00e3\u0123\u00aa\u00e3\u0123\u00a9": 41326, ")):": 49751, "\u0120chopped": 17513, "\u0120expanding": 16122, "\u0120abs": 2117, "\u0120closed": 4581, "IDENT": 25788, "forcing": 22958, "consistent": 32474, "sidered": 38617, "\u0120Living": 19383, "pee": 49953, "\u0120fort": 7574, "\u0120substitutions": 35225, "azz": 11105, "\u0120120": 7346, "\u0120researchers": 8607, "edar": 31679, "\u0120grat": 15556, "\u0120honor": 10390, "\u0120Cancer": 13877, "\u0120succ": 18382, "\u0120size": 1979, "\u0120regeneration": 22781, "\u0120Sim": 3759, "\u0120Acute": 39718, "\u0120functions": 3470, "identity": 32965, "\u0120SAL": 47305, "jsp": 42717, "imer": 7438, "\u00c8": 132, "}}_": 5000, "\u0120cock": 11694, "\u0120translate": 16497, "direction": 21285, "\u0120obstruct": 23040, "\u0120bonded": 30746, "ellington": 38796, ":\"": 5136, "\u0120dug": 25640, "\u0120Floyd": 41931, "tera": 36497, "ensity": 2741, "Errors": 36655, "\u0120instances": 10872, "\u0120nont": 25450, "\u0120gray": 11978, "\u0120pigment": 30448, "\u0120subclass": 35851, "\u0120Ess": 15322, "\u0120UND": 43675, "026": 17048, "\u0120Movement": 25678, "aines": 27666, "\u0120antibody": 8092, "uction": 14684, "\u0120segment": 8223, "\u00e8\u0129": 16787, "bbing": 30690, "oarthritis": 44483, "\u0120antibodies": 8740, "\u0120formation": 4702, "\u0120drawn": 8392, "\u00e5\u0131\u00af": 18148, "\u0120arriving": 20948, "\u0120denotes": 12853, "\u0120seaw": 45841, "JB": 35941, "293": 19630, "\u0120beating": 18019, "\u0120Mus": 4878, "haul": 35606, "dding": 38699, "\u0120argues": 8219, "Pak": 39270, "                  ": 50260, "elles": 18502, "raz": 5744, "\u0120accounting": 15890, "\u0120Blair": 28585, "\u0120Need": 20389, "\u0120breathed": 39085, "\u0120weekends": 29665, "\u0120\u00cf\u0122\u00ce\u00bf\u00ce\u00bb": 45002, "&#": 11167, "margin": 15456, "data": 2203, "rock": 16249, "\u0120Ste": 2951, "\u0120glancing": 48147, "async": 27216, "\u0120Witch": 45165, "tx": 10136, "\u0120destiny": 31776, "\u0120Sect": 33743, "\u0120plasmid": 18242, "\u0120Hicks": 41097, "\u0120honors": 34727, "process": 7404, "\u0120Page": 10703, "scribed": 31509, "\u0120down": 1066, "arta": 37964, "\u0120titers": 41876, "Stock": 35484, "\u0120everywhere": 11678, "room": 4461, "\u0120){": 48946, "\u0120Moses": 25084, "\u0120Ct": 16316, "\u0120glycine": 45944, "\u0120antenna": 17512, "tell": 38878, "\u0120Nut": 20473, "\u0120Avenue": 14216, "enabled": 22331, "\u0120Physics": 17709, "\u0120worried": 11926, "Prim": 18204, "011": 13925, "\u0120455": 34892, "\u0120distance": 4181, "\u0120stealing": 27980, "280": 19100, "dep": 7955, "application": 13259, "GREEK": 34971, "\u0120\u00d9\u0123\u00d9\u012c": 37710, "\u0120annoyance": 49058, "\u0120plagued": 48086, "\"}": 986, "\u0120}_{": 30984, "$=": 34954, "\u0120realize": 8968, "vens": 14941, "encial": 49016, "--[": 50001, "Soft": 38368, "\u0120relaxation": 17040, "\u00d7\u0142": 29052, "XL": 31823, "\u0120residing": 33978, "ieur": 26730, "GMP": 40340, "re": 250, "\u0120renov": 30074, "info": 5374, "holder": 11375, "ije": 32583, "\u0120\u00c3\u013b": 35017, "\u0120bare": 8050, "\u0120halves": 37999, "\u0120polymorphic": 45178, "atore": 42466, "\u0120ang": 2897, "\u0120multin": 37197, "ride": 5630, "\u0120subcontract": 44980, "\u0120trypt": 46055, "id": 301, "\u0120often": 2223, "\u0120NaCl": 22748, "segment": 29429, "cc": 550, "\u0120disput": 8278, "\u0120dataset": 10895, "Statistical": 21214, "\u0120clarity": 19843, "\u0120glimps": 50216, "\u010a\u0120\u0120\u0120\u0120\u0120\u0120\u0120\u0120\u0120\u0120\u0120\u0120\u0120\u0120\u0120\u0120\u0120\u0120\u0120\u0120\u0120\u0120\u0120\u0120\u0120\u0120\u0120\u0120\u0120\u0120\u0120\u0120\u0120\u0120\u0120\u0120\u0120\u0120\u0120\u0120\u0120\u0120\u0120\u0120\u0120\u0120\u0120\u0120\u0120\u0120": 47464, "\u0120sticks": 24094, "\u0120submitted": 9262, "urg": 3922, "\u0120asym": 8285, "\u0120\u0120\u0120\u0120\u0120\u0120\u0120\u0120\u0120\u0120\u0120\u0120\u0120\u0120\u0120\u0120\u0120\u0120\u0120\u0120\u0120\u0120\u0120\u0120\u0120\u0120\u0120\u0120\u0120\u0120\u0120\u0120\u0120\u0120\u0120\u0120\u0120\u0120\u0120\u0120\u0120\u0120\u0120\u0120\u0120\u0120": 17067, "\u0120adult": 6782, ".[^": 35117, "\u0120den": 1850, "\u0120otherwise": 5010, "\u0120volt": 6044, "\u0120letters": 4876, "\u0120difference": 3064, "\u00e7\u012b\u00a9": 34389, "iste": 16974, "rails": 40451, "\u0120SFR": 45147, "\u0120ablation": 28913, "\u0120built": 4270, "Ky": 41062, "91": 4739, "inee": 22593, "\u0120enacted": 23552, "\u0120Pirates": 48166, "\u0120newly": 9841, "MS": 3338, "ovi": 39594, "\u0120absorbed": 19360, "\u0120radicals": 26875, "\u0120degree": 4248, "cels": 35430, "\u0120TRA": 28981, "\u01201080": 41399, "console": 22452, "\u0120ann": 2459, "\u0120expressions": 12091, "\u0120mistaken": 20854, "\u0120holidays": 23193, "idd": 2016, "\u0120Policy": 11981, "\u0120Distribution": 30313, "parable": 36730, "\u0120seu": 24437, "\u0120digested": 38780, "OTE": 30948, "BEGIN": 32077, "Cell": 10772, "4": 21, "cluding": 6547, "\u0120automatic": 12077, "\u0120PDE": 36780, "\u00e9\u0137\u00b7": 44989, "orea": 46080, "\u0120smiled": 11373, "\u0120blind": 9645, "\u0120traff": 19225, "pulse": 48241, "full": 11546, "\u0120Seoul": 36546, "\u00e8\u00af\u00b4": 41807, "\u0120exact": 3242, "\u0120aggravated": 26668, "\u0120maximizing": 46875, "\u0120incredibly": 16088, "mc": 17475, "\u0120blocks": 8336, "\u0120b": 270, "atus": 3144, "oved": 3149, "leveland": 18475, "runtime": 21005, "\u0120silk": 23048, "\u0120paper": 2929, "ow": 319, "Camera": 31962, "\u0120Rapid": 37645, "px": 3498, "\u0120olfactory": 38269, "overn": 4574, "usions": 16723, "parse": 12083, "289": 24208, "\u0120vocals": 23599, "\u0120dwarf": 25747, "\u00e2\u0138\u012a\u00e2\u0138\u012a": 28220, "ensin": 29118, "\u0120conn": 30606, "\u0120modalities": 33433, "idor": 49410, "\u0120beginning": 5068, "\u0120wieder": 46473, "e": 70, "\u0120g\u00c3\u00a9n\u00c3\u00a9": 46477, "feeding": 26449, "ottu": 29842, "q": 82, "\u0120shielding": 41435, "43": 3079, "*~": 3853, "\u0120Heaven": 22758, "\u01201902": 42662, "ivist": 45456, "Aug": 15853, "ANN": 24582, "\u0120sounding": 31283, "cler": 13147, "\u0120SERVICES": 38986, "cyclic": 43804, "\u0120eyebrow": 47342, "host": 5465, "\u0120unitary": 24287, "}}$$": 30848, "MEM": 17589, "\u0120Raz": 39194, "\u0120Own": 20659, "\u0120decreased": 6137, "239": 20487, "292": 27122, "$_": 10001, "\u0109\u0109\u0109\u0109": 5879, "\u0120Dutch": 13986, "\u0120localization": 14536, "\u0120revealed": 4950, "OUT": 7310, "\u0120dens": 12006, "conditional": 35428, "\u0120indicated": 4860, "\u01201995": 8878, "\u0120Person": 15694, "\u0120aberr": 22939, "\u0120motifs": 25907, "\u0120EEG": 29253, "Period": 35159, "\u010a\u0120\u0120\u0120\u0120\u0120\u0120\u0120\u0120\u0120\u0120\u0120\u0120\u0120\u0120\u0120": 1015, "popular": 32667, "\u0120Hungary": 29171, "\u0120Syracuse": 48534, "skirts": 44747, "\u0120concentrated": 16761, "\u0120hypothesis": 9079, "\u0120upl": 27165, "\u0120\u00ce": 1454, "ogr": 31481, "Nic": 37433, "State": 5443, "alar": 45825, "\u0120lib": 5135, "\u0120Mets": 44526, "\u0120downside": 42719, "ethod": 1130, "\u0120Alert": 37330, "acency": 43850, "/{": 32095, "\u0120who": 665, "onomic": 22255, "\u0120Omaha": 50180, "\u0120contrast": 4499, "\u0120Organization": 17273, "\u0120stepping": 24655, "\u0120inlet": 29450, "\u00ec\u0126": 29597, "\u0120literally": 12832, "\u0120lieutenant": 32386, "\u00e7\u00a1": 49835, "\u0120Sharp": 36540, "ATION": 6570, "\u0120medication": 12358, "\u0120555": 36918, "\u010d\u010a\u0109\u0109\u0109": 17158, "shifts": 37758, "\u0120Appellate": 33682, "\u0120omitted": 11035, "\u0120absent": 12125, "\u0120\u0120\u0120\u0120\u0120\u0120\u0120\u0120\u0120\u0120\u0120\u0120\u0120\u0120\u0120\u0120\u0120\u0120\u0120\u0120\u0120\u0120\u0120\u0120\u0120\u0120\u0120\u0120\u0120\u0120\u0120\u0120\u0120\u0120\u0120\u0120\u0120\u0120\u0120\u0120\u0120\u0120\u0120\u0120\u0120\u0120\u0120\u0120\u0120\u0120\u0120\u0120\u0120\u0120": 24356, "\u0120DSS": 41811, "\u0120experimenting": 46086, "\u0120Holder": 42868, "}$]{}": 20977, "imen": 38498, "ursed": 43376, "flare": 47547, "\u0120merging": 34047, "Mart": 15510, "older": 4486, "\u0120indicates": 6492, "eqn": 15214, "oscow": 15635, "boolean": 23170, "rar": 23537, "\u0120ctrl": 44574, "\u0120idea": 2934, ")=\\": 7182, "imi": 23611, "itude": 3396, "\u0120jurors": 25710, "\u0120supernatants": 41321, "Amb": 33818, "\u0120coded": 25175, "NAP": 42032, "\u0120third": 2626, "Ent": 7580, "intage": 23834, "\u0120%)": 41569, "Vector": 15219, "154": 17161, "isks": 38235, "\u0120Senator": 18718, "\u0120Saturday": 7814, "\u00ce\u00b1\u00ce\u00bd": 27580, "\u0120\u00c3\u0123": 36201, "cosh": 39813, "=\u00e2\u0122\u013f": 44680, "\u0120Edited": 41221, "ight": 429, "\u0120barred": 22030, "133": 14380, "kw": 20168, "\u0120nt": 34900, "\u00e4\u00b8\u012b": 36168, "\u0120wage": 16610, "\u0120stream": 5542, "\u0120CSV": 45584, "\u0120p": 268, "SSL": 21156, "hands": 43442, "\u0120strategic": 15285, "\u0120quiet": 7107, "angu": 2435, "\u0120Grant": 13629, "\u0120wield": 37214, "message": 8559, "\u0120studio": 11803, "\u0120contend": 21244, "\u0120unlocked": 37572, "\u0120inappropriate": 19582, "\u0120seemed": 4455, "\u0120torture": 21207, "\u0120neph": 23416, "\u0120admitting": 28168, "\u0120insensitive": 39188, "Hard": 24953, "\u0120blessings": 42242, "\u0120questionable": 30455, "awks": 44685, "\u0120Hip": 45469, "\u0120raison": 48089, "\u0120Duchess": 49542, "culator": 49605, "pherd": 29359, "\u0120hom": 2860, "\u00d0\u00b5\u00d0": 2871, "\u0120364": 35585, "entre": 46162, "\u0120XXX": 29373, "\u0120motiv": 15265, "\u00e5\u012a\u00b0": 22044, "anger": 3751, "\u0120bothered": 28860, "\u0120comorbid": 30142, "\u0120mentions": 25957, "\u0120inhom": 34951, "\u0120drilling": 22896, "\u0120------------------------------": 43090, "Aye": 50195, "\u00e6\u00a7": 43033, "\u0120prolific": 46698, "\u0120oct": 17109, "\u0120tem": 1565, "oproteins": 34022, "girl": 23660, "AS": 1719, "\u0120Bible": 13534, "Upload": 31483, "\u0120Carl": 11197, "hythm": 14292, "\u0120fal": 18512, "\u00c3\u00a1r": 26805, "\u0120dial": 11901, "itiveness": 48826, "backend": 43890, "\u0120pivot": 26376, "Metadata": 25467, "\u0120Weekly": 33022, "planned": 44752, "\u0120Furthermore": 5488, "Button": 8880, "Oct": 14909, "\u0120DEBUG": 40374, "\u0120optimism": 36970, "\u0120engaged": 9583, "\u0120antiqu": 47160, "\u0120transaction": 9996, "\u0120unpredictable": 32947, "\u0120visual": 5304, "\u0120passwords": 34060, "\u0120434": 38963, "itte": 50161, "fusion": 12213, "\u0120completes": 29141, "LB": 34547, "study": 34966, "\u00c3\u00a1z": 36526, "\u0120Greek": 11308, "\u0120solvents": 32281, "\u0120intensified": 45253, "\u0120imprint": 41212, "\u0120RNase": 46034, "001": 2874, "\u01201985": 12210, "\u0120weren": 10345, "\u0120Wei": 42701, "\u0120partitioning": 41463, "izzard": 40304, "itars": 45712, "\u0120sting": 38278, "\u0120sailed": 33497, "ador": 9325, "=(\\": 36864, "\u0120ale": 21844, "ogl": 11816, "\u0120nucleus": 13787, "tom": 25321, "\u00f3": 175, "+$": 23547, "\u0120Sherman": 32106, "\u0120mood": 12315, "\u0120Instead": 7820, "\u0120torn": 15070, "Recogn": 44349, "\u0120filing": 12108, "INFO": 16615, "\u0120538": 43139, "anguage": 2848, "\\*\\*": 8730, "Austral": 22571, "\u0120380": 31118, "\u010a\u010a\u0120\u0120\u0120\u0120\u0120\u0120\u0120\u0120\u0120\u0120\u0120\u0120": 32972, "\u00e5\u0127\u00ac": 35601, "cx": 33060, "\u0120Rich": 5612, "\u0120designer": 17039, "\u0120Stark": 38684, "\u0120hydrochlor": 41300, "terrorism": 49587, "azu": 48285, "\u0120Bob": 8679, "\u0120grade": 9646, "Cle": 13378, "\u0120grateful": 14442, "color": 4897, "regon": 14467, "\u0120unt": 18093, "\u0120Emmanuel": 49765, "\u0120fire": 3289, "\u0120enrolled": 17692, "\u0120\u00ce\u00bd": 15902, "stmt": 39894, "sponsored": 45519, "\u0120incoming": 19363, "\u00e2\u0138\u00aa": 48394, "\u0120coins": 21078, "\u0120Eagle": 26864, "\u0120Proceedings": 31298, "\u0120abnormal": 10969, "Long": 12486, "\u0120rulings": 36127, "amais": 44450, "\u0120prophets": 45888, "\u0120Vector": 17811, "Isa": 48728, "\u0120Sher": 10648, "\u0120decided": 4425, "How": 2347, "\u0120homicide": 35050, "516": 42420, "\u0120concave": 40886, "\u0120Historical": 27424, "\u0120bee": 30747, "mouth": 19845, "\u0120className": 32181, "\u0120castle": 19887, "}}}$,": 35799, "\u0120activating": 27149, "umbent": 30791, "\u0120IA": 32815, "\u0120win": 3330, "\u0120blamed": 27137, "spectrum": 39862, "\u0120grapes": 41417, "ivism": 42339, "593": 43114, "                        ": 50254, "\u0120Rating": 36485, "\u0120wow": 39361, "\u0120hatch": 32732, "Corp": 35980, "Lastly": 48295, "both": 15617, "\u0120outright": 30227, "}}}}\\": 39272, "\u0120adjudication": 39791, "\u0120intricate": 36930, "Joe": 28440, "Berry": 41704, "erred": 13004, "\u0120defe": 7965, "\u0120pesticides": 37934, "\u0120redundancy": 39296, "\u00ef\u00bc\u0133": 41870, "\u0120masculine": 42212, "Southern": 46742, "\u0120Eugene": 36362, "\u0120prov": 872, "3333": 26409, "None": 11336, "Power": 20431, "Sarah": 40587, "551": 41227, "\u0120periphery": 29615, "sy": 19089, "apiro": 37557, "\u0120substance": 10359, "Language": 26170, "\u0120Campus": 40737, "IPS": 24748, "exact": 42611, "\u0120mesmo": 39362, "\u0120north": 6146, "Asia": 48948, "Spot": 46450, "\u0120each": 1016, "ulty": 11788, "\u0120treaty": 23848, "FACE": 36502, "fd": 9194, "\u0120nam": 9557, "\u0120reimburse": 27533, "\u0120Sean": 22723, "\u0120HCC": 20272, "\u0120from": 432, "\u0120wool": 25818, "\u0120regiment": 35214, "\u0120Less": 15405, "\u0120desp": 26882, "\u0120enf": 31310, "isi": 13401, "\u0120transc": 21427, "\u0120IBD": 42342, "ethoxy": 45873, "\u0120Tibet": 27061, "910": 45827, "\u0120Magistrate": 46527, "\u0120Pink": 27653, "\u0120m\u00c3\u00a1": 37137, "Twitter": 31068, "\u0120epigenetic": 30818, "\u0120escal": 20092, "\u0120offenders": 33815, "\u0120spark": 13673, "oslav": 31792, "issen": 38677, "\u0120Skin": 37019, "\u0120debit": 46810, "\u0120downs": 37616, "\u0120ih": 25730, "decoration": 43101, "\u0120logo": 18479, "\u0120She": 1500, "\u0120bake": 32413, "oarth": 41093, "\u00c3\u0143m": 30856, "Robert": 21309, "\u0120sorrow": 26034, "acet": 12204, "Nd": 29128, "resistance": 40697, "\u0120Share": 20930, "\u01201954": 24178, "\u0120seiz": 15013, "\u0120existed": 13164, "\u00d7\u00a8": 21062, "\u0120conformational": 34241, "\u0120137": 14509, "\u0120STM": 46273, "Phi": 6065, "\u0120graph": 4216, "\u0120beliefs": 13379, "\u0120soda": 29737, "\u0120varchar": 38021, "plements": 16603, ">;": 21431, "\u0120clothing": 14234, "\u0120Bak": 25958, "\u0120case": 1083, "\u0120enforced": 27810, "IGH": 30292, "\u0120skate": 37931, "eks": 3194, "\u0120recreational": 28977, "\u0120onClick": 39144, "\u0120ventil": 39825, "obbsee": 46924, "module": 8640, "\u0120outline": 19270, "zech": 18506, "IRQHandler": 49760, "\u0120pertaining": 27855, "endo": 10081, "<_": 32044, "\u0120compensatory": 36948, "Loaded": 49473, "aching": 5250, "\u0120=>": 3001, "\u0120constraint": 7658, "\u0120GCC": 42777, "atonin": 44771, "\u0120biologically": 35605, "\u00e0\u00a5\u012f": 17665, "\u0120Stri": 35289, "\u0120Cumm": 44950, "\u0120avatar": 49530, "\u0120roared": 49876, "\u0120aged": 10652, "opened": 31370, "]{}\\": 12159, "\u0120Juliet": 46326, "\u0120\u00c3\u013a": 23022, "\u0120chain": 5931, "fee": 6851, "\u0120Combat": 46750, "orno": 41530, "\u0120investigator": 25881, "\u0120Shelby": 49231, "\u00e5\u012b\u012f": 22329, "\u0120describing": 12930, "fr": 925, "\u0120synerg": 26455, "\u0120books": 5098, "999": 16742, "\u0120LC": 15884, "\u0120Permission": 40078, "ACCESS": 40842, "tif": 40165, "\u0120cytoplasmic": 24256, "\u0120wandering": 31590, "xhtml": 35217, "aways": 42287, "\u0120ate": 18739, "\u0120gland": 21147, "\u0120half": 2716, "\u0120Prospect": 49540, "\u0120les": 3293, "auth": 14399, "\u0120wheels": 17727, "\u0120lunar": 41929, "Round": 15654, "\u0120hiding": 17197, "\u0120stirred": 29087, "\u0120influence": 4833, "\u0120smoothed": 43966, "\u0120Tools": 29806, "DECL": 27588, "\u00e5\u0141\u00ba": 41140, "\u0120Tat": 28887, "garten": 40122, "\u0120discourage": 43162, "\u0120preserve": 14003, "osal": 22399, "\u0120cancel": 14002, "\u0120antibiotics": 18042, "\u0120mb": 45505, "\u0120Seventh": 33808, "\u0120hung": 10416, "ips": 2824, "\u0120bridges": 24853, "\u0120amendments": 26340, "elia": 29173, "Rock": 31059, "All": 3074, "\u0120brakes": 36609, "Cr": 14201, "\u0120119": 12035, "\\].": 4207, "\u0120holding": 5877, "azine": 7841, "\u0120guinea": 40315, "\u0120conne": 1865, "undo": 16538, "\u0120glasses": 17543, "Anyone": 31568, "\u0120corporation": 13739, "NV": 23459, "rophys": 22154, "air": 1094, "\u0120preventing": 13538, "536": 42082, "iology": 10537, "heim": 17563, "\u0120left": 1669, "organization": 25590, "\u01201906": 38701, "\u0120Hit": 14473, "563": 42310, "uesta": 49778, "\u0120rit": 14567, "shock": 35492, "deb": 25206, "hua": 38349, "\u00e5\u00bd": 14318, "\u0120peasant": 41207, "\u0120domest": 41574, "Virgin": 45761, "\u0120Each": 5815, "SO": 8683, "\u0120\\_": 23577, "\u0120emergency": 8945, "'m": 1353, "\u0120chromatography": 19849, "patch": 20559, "\u0120Dual": 38405, "\u0120flows": 14221, "idyl": 26790, "476": 31699, "\u0120Chem": 11382, "\u0120Jam": 15315, "sizeof": 23269, "iley": 11416, ")\">": 37916, "bg": 17424, "sd": 8289, "\u00ce\u00bc\u00ce\u00b1": 17757, "\u0120Billy": 19669, "\u0120ook": 28562, "Ids": 33922, "Mind": 41312, "Req": 47501, "\u0120lar": 1236, "\u0120SB": 22051, "Compare": 33925, "PS": 3299, "\u0120Russia": 7422, "\u0120114": 11601, "\u01202018": 4765, "Phys": 9083, "ol": 311, "matched": 25049, "Ay": 42829, "\u0120Arabidopsis": 48665, "\u0120capricious": 48775, "peer": 28935, "\u0120sit": 1790, "\u0120evangelical": 49430, "\u00e2\u0126\u00a2": 14313, "\u0120initWith": 44668, "\u0120DIY": 45919, "ber": 589, "\u0120IX": 26821, "\u0120structures": 5289, "\u0120skin": 4808, "News": 19537, "Net": 8695, "\u0120tamp": 50149, "\u0120monot": 26734, "\u0120I": 309, "\u0120\u0120\u0120\u0120\u0120\u0120\u0120\u0120\u0120\u0120\u0120\u0120\u0120\u0120\u0120\u0120\u0120\u0120\u0120\u0120\u0120\u0120\u0120\u0120\u0120\u0120\u0120\u0120\u0120\u0120\u0120\u0120\u0120\u0120\u0120\u0120\u0120": 13113, "\u0120adhered": 42159, "\u0120reve": 3195, "._": 3333, "\u0120inclusion": 11250, "}\\,\\": 21627, "\u0120melanoma": 22835, "\u0120offset": 8409, "\u0120shar": 17614, "\u0120Fc": 34858, "\u0120sanit": 44368, "SD": 3871, "devices": 49242, "page": 6377, ")_{": 14548, "\u0120Alexa": 31717, "Rem": 8494, "okers": 20972, "\u0120grup": 50242, "\u0120solution": 2900, "\u0120specifications": 23944, "tailed": 29551, "enen": 35697, "\u0120casualties": 32853, "cash": 48926, "\u0120Reverend": 45351, "('#": 30932, "Mad": 19008, "\u0120bass": 16819, "\u0120measurable": 27289, "Flow": 20671, "ieren": 26914, "Salmonella": 46266, "\u0120coupons": 49516, "raid": 46088, "oblastic": 49769, "pntd": 23125, "\u0120thro": 10218, "degree": 14577, "eler": 15766, "unal": 23795, "\u0120Ped": 16868, "\u0120th": 289, "\u0120CRE": 27176, "agara": 50022, "}:": 17168, "\u0120slipp": 38947, ")),": 9679, "\u0120constituents": 26290, "\u0120induced": 5802, "\u0120Zoo": 41117, "\u0120appe": 1393, "\u0120Centre": 12169, "\u0120insecurity": 45583, "\u0120unsafe": 20372, "\u0120significant": 1534, "\u0120{};": 25425, "PACK": 32272, "\u00ea\u00b8": 36178, "\u0120Salem": 45354, "\u0120vanishing": 29199, "\u0120equipment": 6500, "Row": 10990, "\u0120commenced": 24488, "scale": 7527, "CTL": 25156, "\u0120Should": 14482, "omer": 8056, "ucid": 15912, "\u0120DNS": 29446, "\u0120contre": 37379, "ulsions": 40005, "\u00ce\u00bd\u00ce\u00b7": 41451, "\u0120'\"": 32589, "\u0120Branch": 25474, "\u0120deton": 43072, "\u0120Bian": 47336, "\u0120Network": 10701, "Game": 18237, "Pay": 19334, "\u0120bijection": 50119, "\u0120Character": 18633, "Dist": 14178, "\u0120weakness": 14855, "\u0120532": 40062, "\u0120Stru": 48730, "\u0120Ecuador": 40145, "opia": 30147, "i\u00c3\u00a9n": 21878, "\u0120Burton": 33718, "\u0120sql": 21512, "!),": 42678, "bil": 33331, "\u00e0\u00b9\u012b": 23039, "ANCE": 19320, "\u0120GAPDH": 41610, "ophore": 40197, "\u0120Spr": 14474, "ished": 1428, "\u010d\u010a\u0120\u0120\u0120\u0120\u0120\u0120\u0120\u0120\u0120\u0120\u0120": 8173, "tv": 18698, "=${": 49755, "\u0120pole": 15903, "\u0120antigen": 11611, "ctive": 19343, "\u0120volunt": 12228, "\u0120sympathetic": 24152, "\u0120correctly": 9113, "\u0120Rx": 47317, "21": 1797, "java": 5594, "true": 5672, "\u0120excluding": 22914, "\u0120His": 3032, "\u0120liner": 36654, "\u0120renew": 10660, "\u0120ha": 419, "changed": 11950, "cedes": 30573, "biomolecules": 33053, "\u0120lett": 34848, "ced": 758, "formal": 24873, "tico": 26869, "\u00cc": 136, "\u0120Steelers": 47732, "-'": 48530, "ogenes": 31435, "ductor": 8543, "\u0120Used": 26713, "\u0120associative": 42162, "\u0120plated": 35610, "\u0120combination": 5019, "\u0120IG": 43027, "ERIAL": 31164, "\u0120Dow": 23549, "\u00c3\u00bcl": 33472, "323": 21874, "\u0120office": 3906, "species": 28956, "\u01202013": 4072, "Oper": 10996, "\u0120courty": 31944, "jk": 17443, "reactive": 31708, "\u0120Morocco": 40983, "\u0120super": 2221, "van": 6148, "\u0120liter": 4133, ")?": 6177, "\u00c2\u0142\u00c2\u0142\u00c2\u0142\u00c2\u0142\u00c2\u0142\u00c2\u0142\u00c2\u0142\u00c2\u0142": 10906, "AAAAAAAA": 14587, "\u010a\u0120\u0120\u0120\u0120\u0120\u0120\u0120\u0120\u010a\u0120\u0120\u0120\u0120\u0120\u0120\u0120": 24675, "\u0120comprehension": 35380, "\u0120interrog": 16608, "daughter": 33475, "\u0120Settlement": 41573, "\u0120ihm": 45680, "veis": 46975, "acements": 28633, "ahoma": 15809, "\u0120LOVE": 36996, "FE": 12297, "\u0120LICENSE": 21826, "\u0120endure": 30565, "\u0120correlation": 5921, "\u0104": 181, "\u0120Und": 42812, "\u00cf\u0122\u00ce\u00bf": 16287, "hof": 37021, "\u0120sale": 7289, "\u0120Bend": 38020, "ory": 590, "\u0120recogn": 3183, "\u00d0\u00b4\u00d0\u00b5\u00d0\u00bb": 45578, "particular": 50077, "\u00d9\u0129": 9427, "\u0120ag": 639, "iere": 16749, "\u00e3\u0123\u00be\u00e3\u0123\u013d\u00e3\u0124\u0135": 46212, "\u0120afflict": 36107, "\u0120===": 11013, "\u00d1\u0125\u00d1\u0124": 22190, "\u0120TD": 24246, "Sam": 17232, "\u0120admits": 19943, "\u0120drank": 27215, "Notable": 48415, "\u0120v\u00c3\u0143": 48546, "-{\\": 22001, "\u0120\u00c2\u00b0": 11758, "ensch": 49296, "\u0120\"<": 16375, "Found": 16641, "examples": 32045, "\u0120mRNAs": 34033, "fault": 40478, "\u0120reli": 10926, "Direction": 36925, "cnt": 26950, "scill": 9477, "\u0120fren": 28080, "\u0120428": 40008, "\u0120puzzle": 25351, "\u0120Ign": 25619, "\u0120Vincent": 26456, "\u0120Cob": 27911, "\u0120Walk": 11255, "\u0120cavern": 46531, "\u0120Authority": 17907, "246": 23260, "1950": 32522, "\u0120Center": 5197, "otherapy": 7805, "\u0120segregation": 29604, "Unlike": 31137, "1001": 40506, "Owner": 36762, "\u0120landed": 17735, "\u0120stretch": 13726, "\u0120kinematic": 44062, "\u0120remain": 3464, "\u0120risks": 10502, "\u0120stimulation": 10277, "ENSE": 11535, "\u0120diagrams": 21302, "\u0120simulate": 26065, "textnormal": 28975, "\u0120Mes": 19926, "\u0120*": 475, "\u0120hist": 1872, "izon": 21148, "\u0120restrictive": 29190, "\u0120supplier": 29622, "quisition": 34961, "\u0120employed": 7091, "\u0120Si": 10283, "\u0120settled": 11371, "\u0120Mechan": 27376, "otherwise": 32240, "stairs": 15475, "\u0120fitness": 14601, "\u0120Asst": 39379, "\u0120playground": 41008, "\u0120336": 34128, "\u0120lovers": 26987, "\u0120heparin": 36327, "\u0120\u00c3\u0125": 24449, "ophysical": 40947, "ATURE": 40668, "\u0120wheelchair": 37962, "\u0120UM": 44171, "\u0120gentlemen": 24173, "Professional": 46361, "\u0120lev": 20978, "\u0120hospitality": 34598, "\u0120daar": 48720, "idth": 2202, "\u0120receptor": 6437, "\u0120secured": 14049, "\u0120Whether": 12369, "sea": 15681, "\u0120vad": 46832, "widehat": 8752, "\u0120ensemble": 19862, "\u00e0\u00b1": 22379, "\u0120pipes": 25886, "walls": 45930, "SAM": 43335, "\u0120Date": 10421, "perp": 14715, "\u0120promising": 12532, "\u00bf": 125, "\u0120cumulative": 18849, "tap": 37056, "\u0120cosmology": 42716, "kv": 39297, "inib": 43891, "Topic": 46167, "\u0120pity": 27042, "Change": 13086, "\u0120dann": 40696, "\u0120\\[*": 35138, "\u0120correspondence": 17668, "rost": 18419, "\u0120Bren": 25063, "Ju": 40700, "EX": 4237, "ror": 6045, "\u0120descend": 36672, "ury": 1626, "\u0120Diseases": 35852, "\u0120Laden": 40858, "(#": 45818, "\u0120prescribed": 15588, "kets": 43846, "OUGH": 36290, "\u00c4\u0123n": 39353, "oc": 406, "//": 605, "\u0120became": 3395, "\u0120cookie": 19550, "ned": 9306, "\u0120forfeiture": 38111, "\u0120Preparation": 45221, "\u0120autonomic": 45852, "\u0120Package": 30454, "quantum": 46320, "clk": 18255, "\u0120Pix": 48806, "SCH": 49670, "\u0120implementing": 16994, "Manager": 8224, "49": 2537, "\u0120Evans": 19872, "uder": 32656, "j": 75, "]$.": 20481, "PCs": 30632, "Italian": 33741, "\u012094": 11107, "\u0120sk": 1629, "stitute": 5157, "\u0120Stand": 8419, "\u0120ethnic": 16175, "\u0120eaten": 22186, "\u0120track": 3540, "\u0120Phot": 12010, "represent": 12554, "\u0120prospects": 22087, "\u0120$-$": 24281, "please": 32897, "ennas": 35148, "\u010a\u010a\u0120\u0120\u0120\u0120\u0120\u0120\u0120\u0120\u0120\u0120\u0120\u0120\u0120\u0120\u0120\u0120\u0120\u0120\u0120\u0120\u0120\u0120\u0120\u0120\u0120\u0120\u0120": 42897, "\u0120Sheriff": 22565, "umping": 30022, "\u00d1\u0124\u00d0\u00b8": 43811, "\u0120autonomous": 26279, "infer": 47586, "ankind": 48794, "\u0120wrong": 3430, "\u0120USA": 5106, "range": 6324, "\u0120Mill": 13134, "_[": 14767, "\u0120Tip": 38708, "roleum": 26519, "lease": 3621, "\u0120similarity": 14259, "\u0120freezing": 24250, "\u0120Boolean": 23858, "\u0120inpatient": 40083, "\u0120commitments": 32316, "\u0120police": 3513, "\u0120unemployment": 20549, "\u0120Peru": 31805, "\u0120optimizing": 39793, "Rearrange": 20300, "\u0120Manila": 43949, "\u0120IIS": 50122, "\u0120filming": 32539, "\u0120\"%": 17280, "orts": 8707, "\u0120competitors": 21607, "processed": 36981, "\u0120helped": 6518, "\u0120intestinal": 16356, "\u0120ay": 26275, "\u0120ppm": 28273, "UH": 38450, "\u0120belong": 5663, "\u0120fr\u00c3\u00a5": 26266, "'}\\": 32131, "wealth": 13902, "713": 40210, "\u0120Windsor": 42835, "\u0120453": 42955, "asmuch": 49067, "king": 4351, "\u0120logic": 9317, "473": 31408, "\u0120[{": 33440, "Hum": 40320, "278": 24803, "\u0120tai": 43579, "\u0120disse": 15062, "making": 11849, "_->": 31547, "afety": 33816, "\u0120piled": 41902, "ruff": 43305, "\u00ce\u00b9\u00ce\u00b1": 14858, "\u0120Kitty": 43947, "GLOB": 48430, "\u0120Guatemala": 46560, "parency": 19318, "ismiss": 22527, "\u0120Lis": 27461, "aintenance": 30720, "\u0120'{": 39846, "Within": 26190, "\u0120conceived": 20913, "\u00e5\u013d": 10041, "\u010a\u0109\u0109\u0109\u0120\u0120\u0120": 42820, "\u0120Owens": 44248, "\u0120614": 48932, "\u0120milit": 14269, "\u0120stator": 49927, "\u0120nic": 6815, "\u0120Taq": 45339, "\u0120Compare": 29036, "urb": 4063, "(*": 9672, "\u0120Newark": 35699, "radius": 19731, "ynom": 9822, "\u0120batches": 39657, "ed": 264, "\u010a\u010a\u0120\u0120": 8926, "\u0120constantly": 11485, "\u0120decoder": 29810, "rent": 624, "\u0120networks": 6928, "\u0120authorized": 14047, "\u0120tid": 18882, "\u0139": 234, "includes": 30076, "Modern": 33824, "Skip": 38241, "\u0120Abdul": 39509, "\u0120je": 5139, "\u0120forum": 12209, "\u0120ligation": 43854, "\u0120tailor": 40637, "xit": 19706, "\u0120just": 816, "compan": 32729, "hour": 11964, "\u0120HL": 28414, "Jul": 24221, "\u0120271": 32855, "\u0120caption": 11743, "\u0120\\|\\": 33401, "payload": 35704, "\u00ce\u00bb\u00ce\u00b7": 38929, "ropical": 29289, "Gly": 31599, "Note": 8497, "\u00e9\u00ab": 27712, "\u0120beginner": 43240, "cia": 14265, "errals": 47013, "\u0120diss": 5408, "\u00c3": 127, "\u0120techn": 1732, "\u0120lic": 8374, "Shut": 32832, "\u0120CONFIG": 21628, "aser": 12290, "')$": 31807, "\u0120hugely": 40704, "\u0120discern": 26923, "fast": 7957, "\u0120ry": 43938, "\u0120ski": 21114, "\u0120Sit": 27817, "\u0120q": 2805, "kov": 17131, "\u0120PW": 47124, "\u0120turbulence": 32125, "\u0120Trials": 47992, "\u0120Christ": 2828, "\u010a\u0120\u0120\u0120\u0120\u0120\u0120\u0120\u0120\u0120\u0120\u0120\u0120\u0120\u0120\u0120\u0120\u0120\u0120\u0120\u0120\u0120": 12826, "\u0120empower": 25145, "comment": 13982, "const": 3474, "BER": 15051, "tait": 19340, "\u0120Soviet": 12194, "\u0120kinda": 26702, "oving": 11305, "\u0120Caesar": 34343, "\u0120\u00ec\u013f": 35305, "\u0120summation": 36138, "\u0120Thus": 3308, "\u0120Katherine": 37497, "Patent": 40504, "\u01201896": 43843, "\u0120Series": 12234, "\u0120abuses": 35703, "\u0120Winnipeg": 48046, "\u0120naive": 27785, "Expansion": 48731, "\u0120Furn": 45506, "\u0120Spons": 49329, ")}+": 49633, "ern": 1808, "\u0120Miles": 29761, "\u0120Tao": 48916, "end": 423, "abeth": 10881, "\u0120Minneapolis": 32635, "\u0120Ferdinand": 47457, "asive": 10563, "\u0120demolished": 44550, "bi": 4193, "\u010d\u010a\u0120": 4256, "United": 11586, "lower": 12973, "248": 20520, "Tool": 13285, "nu": 3023, "\u0120transcribed": 34348, "\u0120Theme": 45551, "rente": 48338, "Build": 10987, "icer": 35467, "\u0120Dodge": 45323, "\u0120Smart": 19778, "150": 8970, "\u00e3\u0124\u00b8": 24149, "}\\;": 32453, "Gs": 15121, "consider": 15603, "anks": 3107, "\u0120eyeb": 21182, "batch": 23941, "\u0120backbone": 27882, "\u0120habitual": 41633, "bst": 35441, "\u0120doc": 5474, "\u0120vesicle": 48025, "\u0120Suit": 48426, "\u0120predictions": 13650, "\u0120arrest": 5263, "achi": 23712, "Verlag": 46211, "\u0120cheese": 12173, "school": 19221, "\u0120gaps": 18388, "\u0120Medal": 30759, "\u0120smiling": 18727, "\u0120Migration": 49063, "\u0120socket": 17498, "\u0120public": 1345, "\u0120Bor": 14027, "enta": 20891, "midt": 23533, "\u0120breeze": 29178, "\u0120Income": 33224, "\u0120pero": 20056, "Later": 24801, "\u0120NEGLIGENCE": 49505, "ieri": 33239, "\u00e3\u0124\u00a4": 13682, "\u0120Materials": 20898, "\u0120exc": 2507, "\u0120patient": 3110, "alleng": 27584, "\u0120Brooks": 26066, "Male": 27346, "\u0120northeast": 29510, "\u0120phosphatase": 30577, "\u0120indoors": 42842, "ucent": 49973, "\u0120\u0120\u0120\u0120\u0120\u0120\u0120\u0120\u0120\u0120\u0120\u0120\u0120\u0120\u0120\u0120\u0120\u0120\u0120\u0120\u0120\u0120\u0120\u0120\u0120\u0120\u0120\u0120\u0120\u0120\u0120\u0120\u0120\u0120\u0120": 12375, "Light": 19258, "\u0120nicer": 49482, "\u0120Site": 17855, "\u0120whiskey": 41236, "\u0120centrifugation": 29691, "\u0120regarding": 5001, "\u0120disappearance": 31852, "\u00e5\u012a": 6765, "\u0120covering": 10985, "\u0120fibroblasts": 23273, "compass": 16452, "\u0120way": 1039, "\u0120macroscopic": 35915, "\u0120reproduction": 21068, "stats": 22530, "embedded": 40964, "\u0120flight": 8630, "Zip": 42095, "\u0120einer": 24910, "ARGS": 44551, "\u0120327": 31133, "r\u00c3\u00a9": 20887, "\u0120shore": 16838, "\u0120inward": 27162, "GFP": 14160, "hematic": 22409, "anyl": 38593, "?).": 40778, "enter": 9553, "\u0120HBO": 41069, "\u0120carrot": 47215, "imetry": 41696, "Jon": 25324, "uts": 14298, "588": 44563, "oretic": 30325, "Kill": 44079, "olds": 3502, "\u0120coy": 49145, "geometric": 49704, "\u0120quoted": 15212, "\u0120capita": 37297, "\u0120succeeds": 44584, "\u0120Dios": 46516, "\u00c3\u0143v": 49099, "\u0120coined": 48945, "integr": 13897, "\u0120complete": 3426, "\u0120Yang": 19028, "\u0120result": 906, "\u00d0\u00be\u00d0\u00b4": 8804, "\u0120580": 42178, "\u0120inversely": 39342, "\u0120communism": 48709, "ash": 1225, "CS": 5166, "rac": 8306, "ocolate": 12049, "\u0120flipped": 34572, "\u0120DN": 26688, "throws": 34832, "\u0120Moody": 49318, "helper": 28316, "\u0120Cho": 13999, "\u0120lanes": 24914, "\u0120respiratory": 11900, "\u0120blurred": 44042, "\u0120pops": 42206, "\u0120herpes": 42869, "eV": 31027, "\u0120Dun": 12221, "\u0120Pretty": 37375, "inse": 38424, "\u00c3\u0133": 8568, "\u0120models": 3210, "\u0120resultant": 29395, "\u0120tree": 5202, "\u0120precise": 10799, "\u0120thoracic": 33288, "million": 24561, "\u00d0\u00bb\u00d0\u00b5": 44909, "\u0120Bruno": 38370, "\u0120Profile": 27047, "\u0120spell": 15368, "\u0120identities": 22925, "CLU": 29441, "solid": 23706, "\u0120\\**": 31713, "\u0120foremost": 31971, "r\u00c3\u00a5": 36535, "\u0120relig": 4607, "Har": 13804, "\u0120IEEE": 25726, "\u0120knots": 33462, "ICO": 24218, "stress": 39940, "\u0120believers": 35922, "ilian": 38515, "Theme": 33347, "\u0120challeng": 4747, "\u0120elites": 43599, "asketball": 31862, "\u00e8\u013b": 46982, "unctional": 47855, "14514": 29148, "ategy": 18710, "bug": 7700, "ilers": 30526, "\u0120McCain": 30926, "Go": 6826, "\u0120Kaz": 24793, "BUF": 36675, "sembles": 40275, "viv": 40418, "lain": 40033, "axon": 49306, "ki": 5985, "\u0120seventy": 28089, "\u0120alias": 28129, "MSC": 31014, "Ger": 41032, "\u0120chiral": 22926, "wood": 5308, "\u0120rac": 7393, "SDL": 36572, "mma": 13632, "\u0120salivary": 39498, "\u0120caso": 27759, "\u0120inducing": 24635, ",\\[": 42696, "(\\": 1035, "uclidean": 26365, "\u0120spreading": 17355, "\u0120doi": 28076, "\u0120However": 1723, "Prefix": 27111, "modal": 24353, "\u0120pneum": 12990, "\u0120lid": 16486, "\u0120labs": 39803, "\u0120forgotten": 14454, "\u0120arguably": 25711, "\u0120positional": 40798, ":)": 37731, "\u0120arg": 1736, "Xiv": 12179, "\u0120Everything": 16942, "iles": 3205, "Pa": 9387, "\u0120sovereign": 16629, "ictionary": 10052, "ppers": 13906, "validate": 30716, "\u0120devastated": 43287, "\u0120all": 512, "\u0120PORT": 49246, "pri": 3225, "\u0120abelian": 31106, "\u0120readily": 12450, "\u0120minimally": 34885, "\u00da\u00af": 40134, "\u0120Ark": 14012, "\u0120Mode": 24629, "\u0120equal": 4503, "\u0120methanol": 26492, "rolet": 46712, "Iter": 15628, "itarian": 14621, "iter": 2562, "\u0120118": 12643, "\u0120privile": 10385, "Views": 43091, "\u0120confirming": 24025, "\u0120fistula": 49214, "\u0120uncertain": 8767, "\u0120periods": 9894, "\u0120scrambled": 36369, "\u0120Bear": 25743, "\u0120indie": 40308, "achy": 24814, "idelines": 7686, "\u0120decentral": 31331, "\u0120Pill": 48213, "docker": 31510, "\u0120dams": 40258, "0000": 1418, "\u0120These": 2053, "ressing": 13537, "\u0120buses": 23444, "addle": 17014, "\u0120broke": 9377, "274": 23735, "ayan": 26782, "Required": 28463, "inguish": 29641, "Execute": 31141, "ATIONS": 32663, "\u0120herbal": 34952, "\u0120superv": 35220, "\u0120prosec": 6751, "ramer": 28882, "\u0120smaller": 4577, "\u0120VM": 20797, "328": 22130, "---------------------------------------": 36311, "\u0120odor": 26883, "\u0120irreversible": 38378, "\u0120trypsin": 38756, "\u0120inflicted": 39723, "\u0120soak": 46026, "\u0120generic": 12314, "rone": 29037, "\u0120angrily": 48834, "ORDER": 24066, "\u0120coating": 14037, "\u0120Wend": 29443, "\u0120Dental": 47918, "\u00e4\u00ba\u012d": 22010, "]{}\\_[": 41305, "2019": 9638, "\u0120jobs": 7375, "iki": 8678, "\u0120enzyme": 9548, "Object": 4241, "\u0120sits": 17954, "\u0120Tar": 20081, "lycer": 24141, "creation": 30767, "\u00e8\u0143": 32750, "\u0120proliferation": 9489, "304": 19321, "\u0120composer": 25375, "\u00e4\u00b8\u00bb": 34204, "XP": 37494, "ATCC": 47020, "ipers": 48412, "\u0120cases": 2219, "\u0120plugs": 49359, "Fine": 28986, "\u0120highlight": 6780, "\u0120Knowledge": 28003, "zym": 5228, "\u0120MW": 30267, "\u0120Protestant": 31573, "\u0120Indiana": 14614, "\u0120cl": 502, "\u0120Machine": 21585, "\u0120keywords": 28731, "\u0120trousers": 39150, "\u0120remind": 9287, "harmonic": 38474, "ovan": 22053, "\u0120Articles": 37218, "flags": 12790, "letal": 15449, "ebook": 20328, "^\\[[@": 31096, "\u0120performer": 40247, "stdio": 43930, "CLAIM": 35772, "CM": 5883, "!/": 34834, "\u0120discard": 37271, "\u0120Without": 12414, "late": 12579, "\u0120plating": 40774, "OV": 4741, "ICA": 23296, "fuel": 36667, "\u0120noise": 6046, "\u0120585": 47861, "\u0120Gulf": 18351, "\u0120Hopefully": 33581, "\u0120Back": 8247, "\u0120enables": 13276, "\u0120Donna": 35436, "asgow": 26227, "\u0120\u00c2\u00ab": 7539, "\u0120placing": 15606, "\u0120doom": 45471, "\u0120congest": 25801, "allocate": 42472, "FP": 7073, "\u0120youthful": 44098, "\u0120aby": 48689, "\u01201994": 9354, "wan": 10320, "\u00e2\u012b": 12984, "\u0120resp": 1183, "\u0120connect": 4684, "\u0120Stories": 30902, "\u0120Tool": 16235, "political": 33979, "\u0120fart": 18337, "\u0120stressed": 21198, "\u0120Plato": 36353, "\u0120Dialog": 36623, "iceps": 41150, "\u0120carcinomas": 35563, "\u0120annot": 12182, "\u00d0\u0137": 41086, "\u0120recurs": 17910, "\u0120rupt": 23982, "\u00aa": 105, "\u0120WO": 25069, "Anim": 40387, "\u0120interfer": 16165, "\u0120expand": 5645, "tbl": 12749, "\u0120adop": 18943, "\u0120businessman": 32427, "ArrayList": 43797, "\u0120generalize": 39970, "IM": 2894, "sized": 10306, "alous": 19357, "\u0120recognise": 31410, "\u0120weakly": 22112, "\u0120colleagues": 11651, "\u0120Run": 14311, "emale": 15183, "poly": 18372, "\u0120Princeton": 25853, "\u0120Burn": 19941, "\u0120History": 9541, "sometimes": 32307, "ibal": 34300, "ote": 1584, "\u00e4\u00bb\u00a5": 16877, "Version": 8893, "\u0120riot": 34170, "documented": 34023, "\u0120675": 48190, "\u00c3\u00a4sident": 49560, "\u00ce\u00baB": 20688, "\u0120expelled": 39372, "\u0120ortholog": 44608, "lung": 40205, "\u0120princess": 28806, "\u0120inaug": 23942, "\u0120319": 33311, "versions": 36446, "Supported": 40015, "(\".": 29825, "\u0120-----------------------": 28527, "\u0120antif": 32534, "\u0120Jones": 8302, "\u0120scary": 24851, "\u0120unwilling": 27086, "\u0120convolution": 27311, "\u0120Moz": 24872, "\u0120437": 39949, "\u01201997": 8210, "\u0120Estate": 22301, "\u0120ellip": 36809, "oxacin": 38060, "'=>": 46294, "umat": 21154, "\u0120customize": 36219, "w": 88, "\u0120McD": 30946, "\u0120probably": 3164, "\u00e3\u0123\u013f\u00e3\u0123\u00ae": 33124, "\u0120everything": 3253, "ultan": 34049, "Name": 2402, "\u0120curvature": 16841, "\u0120multiplier": 39199, "\u0120dosage": 24411, "\u0120Ninth": 32533, "motion": 26049, "\u0120replication": 14970, "\u0120slide": 14518, "\u0120cumbersome": 41049, "\u0120suicide": 13184, "463": 36043, "sol": 18989, "Deg": 47068, "^\u00c2\u00ae^": 31743, "\u0120salient": 43066, "hpp": 17471, "\u0120Hussein": 42376, "\u00e6\u012e\u0129": 34811, "ay": 333, "scheme": 29619, "\u0120\u00c3\u0139": 6806, "ienced": 33574, "&=\\": 24060, "\u0120happily": 26174, "\u0120Greater": 28319, "\"))": 14708, "\u0120actu": 22664, "fluor": 30895, "ATOR": 26573, "\u0120filaments": 31368, "\u0120scalp": 33756, "\u0120pand": 18060, "\u0120breached": 35369, "\u00c3\u00a4m\u00c3\u00a4": 44885, "\u0120brid": 18138, "\u0120wur": 31546, "paces": 32328, "\u0120SI": 17862, "anium": 19808, "\u0120invas": 45052, "\u00d0\u00b5\u00d0\u00bd\u00d0\u00b8\u00d1\u0131": 22625, "sig": 24502, "\u0120gravel": 33791, "strength": 45563, "\u0120fell": 6497, "lesssim": 20089, "EH": 46353, "Ks": 37991, "plemented": 38758, "\u0120hott": 40314, "\u0120intoler": 40621, "\u0120Roc": 33614, "exe": 20963, "\u0120resisting": 42163, "\u01202015": 4104, "\u0120OH": 20492, "deficient": 25652, "DP": 9308, "\u0120rum": 11267, "ployment": 27378, "\u0120488": 29364, "\u0120satellites": 29388, "\u0120furnish": 31538, "NotFound": 34115, "\u0120performed": 2684, "\u0120inte": 1101, "\u0120Sin": 16495, "\u0120Socialist": 36781, "r\u00c3\u0143a": 40980, "\u0120Supreme": 6413, "\u0120modifier": 34301, "erdinand": 43528, "\u0120Severe": 47770, "coupling": 50038, "ogenesis": 8258, ".](": 5774, "\u0120August": 4223, "retch": 31981, "Mutable": 32859, "cence": 6466, "\u0120vent": 5698, "\u0120simplest": 22325, "08": 2904, "\u0120doubling": 35373, "\u0120nightmare": 28026, "\u0120careg": 23063, "\u0120nested": 20494, "2006": 8603, "\u0120balls": 15254, "\u0120Mat": 6397, "\u0120canoe": 47884, "\u0120mineral": 17160, "\u013b": 236, "mathb": 1324, "\").": 6788, "\u0120mosque": 37951, "VS": 28259, "\u00d0\u00bb": 3415, "icago": 7298, "------------------": 22928, "\u0120Sob": 34804, "hedron": 45938, "\u0120detectives": 42661, "\u0120consumers": 11349, "\u0120learns": 33772, "resident": 49923, "eters": 2521, "SL": 7084, "\u0120poor": 4105, "\u0120murmured": 34688, "\u0120\u00d0\u00bf\u00d0\u00b0\u00d1\u0122": 49114, "atio": 28965, "\u0120counts": 9372, "\u0120nitrogen": 14164, "\u0120discharg": 14886, "\u0120encountered": 14494, "\u0120ballot": 22523, "\u0120Zone": 24380, "Much": 30271, "\u0120spam": 29296, "\u0120authorize": 37015, "\u0120wor": 548, "comple": 7507, "\u0120household": 11692, "\u0120Detective": 27983, "\u00eb\u012d\u012a": 28162, "\u0120Veh": 28493, "Pot": 29255, "IPV": 33539, "\u0120Strike": 41054, "\u0120Temperature": 43669, "\u0120Gap": 46096, "\u0120disasters": 36578, "\u0120Principles": 43655, "uffling": 47587, "\u0120Spy": 48156, "\u0120deux": 23156, "\u0120taxed": 48715, "uv": 8962, "SERVER": 40056, "\u0120Presidential": 37029, "\u0120adjusted": 10904, "IGEN": 41310, "isure": 23479, "\u0120description": 5740, "HU": 26809, "\u0120appreciate": 11435, "considered": 46779, "\u0120freedom": 7185, "\u0120bias": 8492, "olk": 16537, "\u0120THEM": 46632, "\u0120separated": 9070, "\u0120tel": 14591, "\u0120633": 48891, "\u0120shattered": 34994, "\u0120specialization": 48544, "\u0120venom": 38222, "\u0120abras": 45105, "amid": 46726, "\u0120franchise": 17117, "\u0120Ens": 31790, "ENG": 40861, "\u0120Charlotte": 21438, "\u0120Aus": 25157, "\u0120canceled": 32093, "\u0120herd": 33361, "vergence": 41801, "Applications": 43432, "\u0120Stein": 23202, "\u0120accessing": 24497, "Return": 15968, "\u0120intercept": 22548, "\u0120Shel": 19787, "\u0120sunlight": 23993, "([": 8850, "atorial": 25922, "Provider": 14725, "\u0120anonym": 26314, "verting": 31324, "\u0120prison": 5754, "\u0120exchange": 6431, "\u00c5\u013b": 14438, "\u0120sensory": 17872, "getElement": 21415, "\u0120Marvel": 24466, "fessional": 25218, "\u0120defer": 36574, "\u0120----------------------------": 38759, "RN": 39290, "\u0120determined": 3413, "\u0120LOS": 46898, "es": 265, "\u0120cytosol": 48986, "etta": 19953, "\u010a\u010a\u0120\u0120\u0120\u0120\u0120\u0120\u0120\u0120\u0120\u0120": 36209, "\u0120Ke": 6018, "\u0120Pseud": 38365, "\u0120compl": 3137, "step": 10539, "\u0120rescue": 14471, "\u0120happened": 4592, "\u0120obesity": 13833, "\u0120wounded": 16545, "\u0120roasted": 38240, "\u0120Stan": 10908, "afa": 37124, "\u0120cultivate": 49507, "oci": 1118, "\u0120weeks": 3618, "\u0120drink": 5484, "\u0120GROUP": 42370, "OSS": 17790, "\u0120Sw": 4235, "\u0120nasal": 23761, "athon": 22721, "\u00e3\u0124\u012d": 5832, "/(-": 5584, "infect": 39367, "ivat": 43236, "\u0120solely": 12718, "ization": 1320, "apply": 18788, "540": 34458, "icularly": 21883, "\u00e5\u012a\u0139": 44157, "\u0120produce": 4711, "\u0120spot": 6308, "\u0120shri": 35483, "esy": 15867, "ritz": 32071, "\u0120gaseous": 42626, "\u0120mediation": 38630, "\u0120registers": 25611, "\u0120declares": 34852, "daily": 35431, "\u0120Cliff": 29214, "zw": 40965, "\u0120WE": 13573, "\u0120Mercury": 36091, "tetra": 49513, "hattan": 20660, "\u0120Denote": 44092, "oresist": 41348, "clud": 741, "\u0120raise": 7164, "\u0120judgments": 23014, "\u0120cutoff": 23046, "\u0120rese": 1927, "\u0120TR": 7500, "controller": 19879, "\u0120naval": 25186, "\u0120attributable": 26585, "\u0120Ci": 32982, "\u0120royal": 17292, "\u0120ALJ": 27872, "\u00cf": 139, "\u0120weak": 5075, "\u0120retrospective": 19403, "------------------------------": 28693, "\u0120cages": 41459, "tumor": 38335, ")$)": 48329, "ben": 7564, "Nob": 25372, "ivir": 43365, "\u00e2\u0122\u00a8": 40702, "\u0120Copenhagen": 40892, "\u0120innovations": 32771, "essing": 41804, "\u0120Afric": 4594, "line": 1282, "par": 1148, "\u0120dehydration": 45115, "posal": 40384, "CI": 7142, "\u0120st": 331, "\u0120nec": 15136, "\u0120injections": 25602, "051": 32720, "zerba": 41743, "UMP": 47774, "\u0120prosthetic": 48199, "ette": 5464, "\u0120/></": 29972, "\u0120505": 37153, "MAP": 13820, "\u0120refe": 10591, "\u0120Chip": 33769, "\u0120Handbook": 42958, "European": 27748, "\u0120splen": 48507, "                 ": 50261, "\u0120elastic": 15386, "msg": 4856, "\u0120microbiota": 30158, "\u0120supposed": 6326, "\u0120Grove": 32431, "Safe": 35947, "til": 1343, "Message": 7474, "More": 7673, "\u0120du": 3443, "\u0120wires": 20343, "\u0120SMALL": 26381, "\u0120Tommy": 27145, "yellow": 28659, "\u0120scrub": 28990, "\u0120iteration": 19502, "ARE": 9818, "\u0120McK": 16638, "\u0120294": 35168, "\u0120ts": 28669, "557": 38032, "Wol": 48252, "\u0120}(": 37199, "egan": 30558, "\u0120dow": 48418, "\u0120dream": 7156, "\u0120trick": 10480, "\u0120Arena": 29410, "\u0120Academ": 9420, "\u0120ancestral": 37147, "\u0120curiam": 43215, "\u0120sixty": 21116, "\u0120Advance": 36808, "\u0120\u00c8\u013bi": 27487, "\u0120Chron": 27877, "\u0120ow": 18454, "1957": 35364, "watch": 13060, "\u0120step": 3213, "\u0120Monte": 16448, "\u0120PCT": 48608, "Router": 47083, "\u0120supplement": 8499, "\u0120once": 2378, "\u0120gravit": 15885, "\u0120Ge": 3096, "\u0120pitcher": 31021, "often": 32205, "pass": 5858, "plane": 13568, "\u0120dex": 27625, "merce": 13672, "\u0120VS": 29151, "tid": 32247, "\u0120whale": 35105, "\u0120displayed": 8653, "\u0120injustice": 31427, "\u0120unle": 33243, "\u0120land": 2659, "\u0120believe": 2868, "ez": 16130, ",(": 25075, "\u0120kinases": 30447, "itter": 4069, "\u0120roots": 11465, "\u0120Chi": 18907, "\u0120NM": 19193, "\u0120plat": 26588, "\u0120dis": 557, "dL": 21087, "RELEASE": 35010, "ibo": 41968, "\u0120quarterly": 42886, "\u0120discussion": 5955, "\u0120Laser": 40544, "\u0120CXCL": 42762, "urer": 13615, "\u0120Traffic": 39215, "zyk": 44109, "\u0120capped": 44491, "\u0120ab": 490, "prototype": 18834, "\u0120Gur": 33514, "ILITY": 11913, "\u0120analyst": 23960, "\u0120Doc": 18589, "\u0120resembled": 43117, "\u0120Brewing": 47922, "\u0120django": 41747, "\u0120documents": 7177, "\u0120sweetness": 43486, "failed": 27337, "\u0120claimants": 49639, "\u00d0\u00b0\u00d1\u0123\u00d1\u0124": 29685, "}-\\": 10780, "Cand": 43348, "Brian": 35119, "\u0120ACS": 41613, "\u0120foot": 3174, "\u0120cathe": 15517, "roc": 15683, "weeks": 24464, "\u0120factories": 29492, "\u0120Inc": 3690, "\u0120added": 2879, "\u0120mathemat": 11076, "rivial": 10482, "\u0120coin": 18011, "\u0120China": 4135, "\u0120Winn": 31071, "\u0120$^": 31502, "\u0120Thanksgiving": 32678, "\u0120mindset": 36231, "thren": 40857, "qs": 41317, "wang": 33317, "\u0120voltage": 6718, "\u0120fisher": 27633, "asmine": 35760, "rug": 2371, "\u0120coordinates": 11627, "authentic": 42996, "\u0120Birmingham": 26846, "\u0120Administrator": 36370, "Lj": 49387, "audi": 14504, "Defendant": 25187, "Surface": 33412, "\u0120artist": 9558, "\u0120displacement": 16837, "occur": 30714, "\u0120MIT": 20695, "\u0120auditory": 26618, "\u0120dedication": 31768, "\u0120meals": 16961, "\u0120written": 3542, "\u0120Arabia": 20498, "\u0120lun": 19749, "\u0120\u00e2\u0122\u013e": 773, "INGTON": 33082, "\u0120pretreatment": 33555, "\u0120unhealthy": 36713, "\u0120microp": 39375, "\u0120Kill": 26464, "istan": 7399, "percent": 25250, "\u0120r": 391, "\u0120302": 29044, "weather": 32607, "dimension": 39120, "\u0120respiration": 37742, "\u0120crack": 9370, "\u0120cows": 24737, "\u0120pleasing": 37902, "\u0120propriety": 47273, "ip": 532, "setlength": 8731, "\u0120homestead": 47933, "vc": 16788, "\u0120locked": 12623, "\u0120theoretically": 28055, "\u0120Do": 3166, "Del": 13569, "utors": 21176, "558": 38070, "{|": 23334, "\u0120AL": 6589, "\u0120Rib": 31641, "\u0120Sir": 9011, "\u0120europ\u00c3\u00a9": 31020, "\u0120forget": 7740, "\u0120SIZE": 36124, "\u0120crop": 17177, "\u0120nap": 19422, "\u0120vari": 1459, "Kh": 35994, "STATUS": 22574, "\u0120policies": 7823, "\u0120militia": 39260, "\u0120DRAM": 46656, ")\\<": 48744, "Appendix": 31796, "\u0120ensembles": 49328, "\u0120reserves": 23003, "\u0120mandibular": 48860, "ATE": 4966, "\u0120Madrid": 21924, "\u0120col": 847, "alloc": 10835, "\u0120Graham": 17953, "\u0120Garden": 18733, "\u0120Pas": 17231, "\u0120noticeable": 28629, "\u0120undermine": 29614, "\u0120530": 36135, "xrightarrow": 37826, "rogenic": 41508, "\u0120==": 2295, "\u0120placenta": 41809, "\u0120complaining": 25917, "\u0120{#": 1712, "\u0120router": 23093, "\u0120Reuters": 24197, "\u0120482": 43823, "\u0120clad": 46017, "gender": 21069, "\u0120spines": 49898, "\u0120confocal": 29478, "\u0120gardening": 48110, "beh": 48384, "asty": 9898, "{'": 46912, "Az": 22351, "UU": 33759, "\u0120linguistic": 32019, "\u0120susceptible": 16931, "\u00ce\u00ac": 8348, "des": 3229, "\u0120labeled": 13130, "copy": 12557, "\u0120mixed": 6804, "ideon": 42674, "bably": 15138, "\u0120opens": 13279, "\u0120active": 3939, "\u0120fate": 13742, "\u0120LI": 13092, "rimp": 29680, "\u0120deploy": 8745, "\u0120transgenic": 21439, "\u0120habeas": 23870, "\u0120Ven": 12683, "eding": 7022, "unique": 22524, "\u0120sufficiency": 32572, "\u0120right": 987, "\u0120being": 1146, "apo": 40240, "extensions": 40028, "\u0120sadd": 37127, "reload": 41347, "\u0120storytelling": 41651, "\u0120Johns": 34676, "\u0120permitted": 11460, "Obj": 18527, "\u0120violating": 26554, "\u0120minist": 28099, "\u0120nog": 30876, "\u0120peu": 27749, "tiny": 24290, "\u0120Adobe": 33143, "hte": 28993, "\u0120beers": 31883, "\u0120tachy": 38922, "\u0120balcony": 36009, "\u0120immunodef": 40519, "\u0120Lights": 44074, "ican": 9593, "\u0120criticism": 14226, "\u0120Lock": 19989, "\u0120Champ": 23431, "\u0120inventory": 19543, "\u0120dynamically": 23043, "\u0120arist": 30845, "Defendants": 38421, "\u0120Kan": 20626, "\u0120Adventures": 46592, "UART": 47604, "073": 40991, "\u0120dispute": 12027, "micro": 18227, "wall": 12081, "arrays": 43451, "\u0120ph": 815, "sie": 48188, "nr": 23838, "iplex": 48572, "\u0120Mb": 48681, "imension": 50127, "\u0120hurry": 24284, "ical": 474, "establish": 39961, "\u0120Immun": 14540, "\u0120price": 4376, "\u0120Brig": 20202, "My": 3220, "Step": 13996, "\u0120\u0120\u0120\u0120\u0120\u0120\u0120\u0120\u0120\u0120\u0120\u0120\u0120\u0120\u0120\u0120\u0120\u0120\u0120\u0120\u0120\u0120\u0120\u0120\u0120\u0120\u0120\u0120\u0120\u0120\u0120\u0120\u0120\u0120\u0120\u0120\u0120\u0120\u0120\u0120\u0120": 13075, "\u0120Legisl": 17152, "\u0120ALS": 38410, "IES": 9785, "arat": 47310, "\u0120parece": 49267, "\u0120n": 295, "\u0120Rare": 44605, "\u0120Ves": 46602, "\u0120Overall": 15699, "\u0120eldest": 39311, "\u0120infants": 15330, "\u0120deportation": 36759, "\u0120monstrous": 49358, "\u0120Russian": 7247, "\u0120congrat": 28858, "\u0120extracting": 34705, "\u0120Wisconsin": 15558, "\u0120statute": 6645, "\u0120\\\"": 12114, "\u0120corpor": 5944, "KS": 14007, "\u0120struggle": 11182, "third": 19016, "\u0120tranqu": 34131, "\u0120mixture": 7802, "\u0120dust": 8660, "\u0120dissenting": 34308, "1301": 39677, "plementation": 21857, "\u0120giants": 33430, "\u0120Dogs": 40938, "\u0120discovering": 30375, "\u00e9\u00a3": 33700, "gtk": 41200, "water": 7779, "\u0120Barrett": 39457, "}}({\\": 19753, "chy": 43749, "\u0120STE": 45740, "\u0120Cott": 46497, "William": 23684, "curl": 31064, "\u01201400": 47207, "WS": 10930, "\u0120professions": 48502, "mitting": 15318, "ishops": 29194, "fi": 11125, "798": 37348, "090": 39703, "\u0120Wnt": 31704, "\u0120ignorant": 28884, "\u0120Layer": 35368, "\u00e1\u00bf\u00a6": 48234, "Various": 36744, "1977": 20087, "\u0120Lebanese": 46900, "\u0120Poinc": 41327, "\u0120exp": 866, "1005": 38723, "azy": 26537, "measure": 30238, "unlock": 25919, "\u0120scen": 5362, "method": 9349, "\u0120generate": 6635, "\u0120shy": 23478, "\u0120Khan": 21128, "/((": 29651, "iquity": 28780, "COLOR": 38505, "\u0120Scroll": 43103, "\u0120Virginia": 9385, "\u0120metabolic": 10761, "\u0120Architecture": 35052, "\u0120alarming": 40975, "\u0120Hed": 46689, "crystall": 38636, "\u0120Lans": 46985, "\u0120metab": 5198, "\u0120doping": 34233, "729": 47225, "ca": 6357, "\u0120Ski": 43807, "AK": 9780, "\u0120initiated": 15247, "ITEM": 45129, "\u0120350": 16176, "\u0120oper": 1444, "\u0120(\u00c2\u00b1": 27852, "\u0120improper": 14697, "\u0120hypotheses": 24316, "\u0120confront": 11449, "\u0120BEL": 45704, "\u0120stared": 15014, "\u0120MTV": 49244, "rotation": 43151, "esque": 44179, "&=&\\": 24255, "bital": 14424, "cible": 20109, "\u0120--------------------": 23784, "enses": 5060, "\u0120isolated": 7011, "023": 13269, "Has": 15413, "\u0120lacked": 20296, "\u0120Thailand": 23174, "\u0120overlap": 14787, "\u0120Sally": 32577, "\u0120Class": 6550, "\u0120Collection": 17078, "\u0120Imperial": 23032, "omial": 28261, "rough": 903, "\u0120leng": 33596, "!\\": 18083, "\u0120Ein": 34120, "iske": 34643, "\u0120interesting": 4722, "Spl": 37840, "\u0120boasts": 38716, "\u00e8\u00b5\u00b7": 39859, "Push": 37331, "\u0120Cricket": 42579, "\u0120Indonesian": 43113, "\u0120severity": 12147, "\u0120amp": 32263, "\u0120theat": 28245, "\u0120ain": 16326, "\u0120pounding": 39883, "\u0120spe": 705, "\u0120handc": 41993, "\u0120spiked": 48649, "\u0120variables": 4903, "\u0120converse": 42810, "\u0120really": 1663, "\u0120averaging": 25001, "oner": 26732, "\u0120Masters": 29351, "\u0120339": 34509, "\u0120geared": 48526, "\u0120road": 3971, "\u0120fats": 39100, "\u0120gren": 35596, "Simon": 36945, "Props": 32461, "church": 38643, "\u0120----------------------------------------------------------------------------------------------------------------------------------------------------------------------------------------------------------------------------------------------------------------": 32399, "\u0120safe": 4999, "estones": 42529, "andid": 21497, "\u0120specialized": 18052, "Bigg": 31467, "\u0120anniversary": 19054, "                     ": 50257, "\u0120250": 10257, "\u0120duties": 12803, "Hub": 20062, "288": 21340, "\u0120Riley": 32920, "liquid": 38390, "mun": 1815, "\u0120Respondents": 43607, "List": 2765, "OA": 31794, "\u0120\u00c3\u00balt": 32528, "})^{-": 44359, "\u0120bac": 45003, "\u0120Jewish": 9556, "\u0120\u0120\u010a\u0120": 32776, "anto": 11780, "reference": 14005, "\u0120xcex": 34833, "\u0120APIs": 33261, "Mann": 49859, "\u0120[-": 28591, "\u0120authorizing": 49931, "Yu": 42039, "\u0120postnatal": 38047, "\u0120phone": 4481, "\u0120pra": 9791, "\u0120Sep": 16925, "owe": 39036, "\u0120Using": 6915, "otherap": 44469, "\u0120Evening": 48136, "\u0120chlorine": 42488, "\u0120promin": 28760, "\u0120Tickets": 48702, "Course": 49522, "package": 10708, "urity": 5051, "\u0120area": 2170, "\u0120suggested": 5125, "ci": 5297, "Format": 10069, "feit": 44684, "\u0120Portal": 48135, "Wild": 37633, "\u0120hitting": 16116, "\u0120excision": 35845, "aught": 4551, "\u0120HD": 10116, "\u0120een": 10814, "button": 8060, "\u0120WT": 12020, "\u0120weekly": 13772, "\u0120grandmother": 20606, "\u0120pale": 14530, "\u0120manageable": 49951, "isation": 5837, "\u0120sys": 11876, "ach": 607, "\u0120ventricular": 17604, "\u0120transduction": 28942, "\u01201848": 48308, "IGF": 48345, "\u0120contributed": 9945, "Trans": 6189, "\u0120comprise": 19142, "071": 41432, "\u010a\u010a\u0120\u0120\u0120\u0120\u0120\u0120\u0120\u0120\u0120\u0120\u0120\u0120\u0120\u0120\u0120\u0120\u0120\u0120\u0120\u0120\u0120\u0120\u0120\u0120\u0120\u0120\u0120\u0120\u0120\u0120\u0120\u0120\u0120\u0120\u0120\u0120\u0120\u0120\u0120\u0120\u0120\u0120\u0120\u0120\u0120": 48513, "\u0120adjacent": 9701, "\u0120Disorders": 49566, "\u0120Ple": 21231, "\u0120angles": 14636, "\u0120Gor": 35160, "\u0120\u0120\u0120\u0120\u0120\u0120\u0120\u0120\u0120\u0120\u0120\u0120\u0120\u0120\u0120\u0120\u0120\u0120\u0120\u0120\u0120\u0120\u0120\u0120\u0120\u0120\u0120\u0120\u0120\u0120\u0120\u0120\u0120\u0120\u0120\u0120\u0120\u0120\u0120\u0120\u0120\u0120\u0120\u0120\u0120\u0120\u0120\u0120\u0120\u0120\u0120\u0120\u0120\u0120\u0120\u0120\u0120\u0120\u0120\u0120\u0120\u0120\u0120\u0120\u0120\u0120\u0120\u0120\u0120\u0120\u0120\u0120\u0120\u0120\u0120\u0120\u0120\u0120": 49051, "\u0120CX": 20732, "code": 3211, "\u0120vocational": 49084, "\u0120fit": 4944, "\u0120Rock": 9384, "subscribe": 31473, "\u0120stimulate": 23278, "33": 1610, "\u0120h\u00c3\u00b6": 40109, "yyyy": 41246, "opathy": 15819, "\u0120dissected": 45560, "isi\u00c3\u00b3n": 32320, "\u0120find": 1089, "\u0120565": 46472, "\u0120Eco": 48804, "\u012008": 16331, "ategory": 1280, "\u0120concomit": 26459, "<|padding|>": 1, "\u0120whole": 2644, "\u0120Albert": 18252, "\u0120Cris": 27936, "uce": 6977, "\u0120coordinating": 45415, "programming": 38170, "thank": 47033, "\u0120bombs": 24401, "generally": 43786, "\u012080": 5096, "\u0120\u010a\u0120\u0120\u0120": 8129, "\u0120financial": 4832, "\u0120Ont": 15195, "\u0120\u0120\u0120\u0120\u0120\u0120\u0120\u0120\u0120\u0120\u0120\u0120\u0120\u0120\u0120\u0120\u0120": 4356, "icable": 35232, "\u0120classrooms": 45445, "\u0120mistake": 10551, "odont": 32430, "brand": 22374, "\u0120week": 2129, "Public": 15689, "\u0120Enc": 35506, "\u0120Sanskrit": 48610, "ackage": 1627, "\u0120ger": 21974, "\u0120advocating": 43243, "\u0120operating": 6498, "\u0120Lug": 48910, "\u0120Newsp": 49239, "\u0120ma": 6429, "\u0120-------------------------------": 45835, "\u0120some": 690, "\u0120Bryan": 30397, "\u0120item": 5382, "\u0120mult": 1554, "))*-": 41456, "\u0120credit": 6152, "\u0120Vikings": 40269, "\u0120United": 1986, "\u0120Bas": 8373, "scope": 14329, "Did": 8917, "\u0120agencies": 11009, "\u0120Fif": 12979, "prec": 17995, "bootstrap": 24884, "\u0120430": 34068, "iben": 42181, "\u0120descended": 31206, "\u0120\"-": 19479, "\u0120Register": 13106, "\u00e5\u012e\u0138": 27707, "Lie": 28625, "\u0120fiercely": 48423, "\u0120Aut": 5271, "\u0120hearts": 15060, "\u01201888": 44728, "\u0120tables": 7180, "\u0120Profess": 9895, "\u00e8\u00ba\u00ab": 45748, "temperature": 26158, "gres": 29878, "\u0120hereafter": 38492, "\u0120rejected": 10945, "\u0120rotates": 45933, "\u0120Holdings": 46889, "\u0120Matthews": 34313, "\u0120plaques": 38073, "\u0120199": 1749, "\u0120sofa": 30929, "\u0120Exped": 45626, "\u0120ga": 23646, "\u0120handed": 14048, "atives": 3993, "\u0120mediates": 41922, "\u0120Promise": 32949, "\u0120ky": 44996, "*~*": 11881, "\u0120Rug": 30322, "aea": 47542, "))^": 46931, "\u0120detectable": 21759, "\u0120Latin": 12760, "=[": 20879, "\u0120addr": 26181, "\u0120contradictory": 34126, "dummy": 44224, "\u0120Neu": 29459, "casts": 44358, "\u0120nonnegative": 46214, "***": 9264, "\u0120alerts": 34854, "Arthur": 34021, "Float": 21125, "\u0120threshold": 7887, "\u00e1\u0122\u00ba": 33160, "October": 22117, "net": 3024, "\u0120135": 13620, "\u0120Hudson": 23602, "lying": 2943, "REL": 33792, "\u0120were": 497, "ERO": 34675, "\u0120Colin": 31086, "jab": 37918, "proper": 30976, "\u0120\u0120\u0120\u010a": 38679, "\u0120Adelaide": 40282, "\u0120eloqu": 39408, "Meet": 46785, "\u0120Flor": 7230, "Ha": 18853, "nl": 13307, "rocal": 29536, "\u0120registering": 41863, ".\";": 45974, "\u0120Timothy": 32905, "\u0120arousal": 45264, "\u0120Val": 4009, "\u0120Ham": 5516, "\u0120Fran": 22976, "domain": 13517, "AV": 5851, "IZE": 38517, "\u0120declined": 13072, "\u0120accumulate": 29010, "\u0120Up": 5863, ")}_{": 20669, "\u0120LIB": 42381, "\u0120exhibiting": 30259, "\u0120ABA": 38725, "1942": 45202, "665": 48204, "Ala": 31155, "So": 2598, "\u0120accurate": 7899, "\u0120Gly": 30133, "openssl": 39999, "ons": 790, "\u0120cow": 12120, "brate": 32243, "\u0120moiety": 37772, "\u0120Posts": 36304, "\u00e3\u0125\u00a3": 41760, "\u0120hob": 48287, "dj": 45061, "Su": 9244, "XT": 31922, "bay": 32442, "transfer": 17338, "\u0120assume": 5467, "\u01201915": 27698, "\u0120138": 15410, "\u0120\u0120\u0120\u0120\u0120\u0120\u0120\u0120\u0120\u0120\u0120\u0120\u0120\u0120\u0120\u0120\u0120\u0120\u0120\u0120\u0120\u0120\u0120\u0120\u0120\u0120": 7828, "eLife": 48763, "\u0120loud": 11216, "\u0120398": 41281, "--------------": 10521, "\u0120IR": 9812, "141": 18962, "man": 1342, "\u0120adjusting": 19427, "\u0120Ruby": 21521, "&&\\": 25984, "\u0120Console": 26466, "\u0120fox": 30013, "\u0120They": 1583, "\u0120neurode": 32647, "\u0120\".\"": 40923, "orporated": 31813, "Saint": 41676, "\u00d0\u00b7": 7762, "\u0120Maj": 18410, "\u0120routinely": 21774, "\u0120dashboard": 38458, "\u012099": 8688, "IVATE": 44882, "oubt": 17290, "opinion": 45157, "\u0120-\\": 10042, "\u0120onward": 47768, "\u0120tidy": 49031, "\u0120inter": 734, "though": 2004, "\u0120motto": 45820, "\u0120Mang": 41540, "\u0120ACP": 47108, "\u0120reimbursement": 34432, "\u0120cathode": 31672, "reli": 22987, "aud": 5353, "\u0120adopts": 47932, "malloc": 44754, "\u0120infectious": 18023, "\u0120penetr": 23532, "\u0120prominently": 46454, "\u0120cationic": 45034, "chu": 46260, "\u00c2\u0125": 10778, "\u0120Trevor": 44870, "akespe": 19892, "artifact": 22321, "\u0120COR": 27196, "traits": 32172, "album": 31638, "\u0120optical": 5748, "\u0120gestational": 34522, "\u00d8\u00aa": 8181, "atible": 20497, "\u0120dinner": 8955, "\u0120explaining": 15571, "\u0120culprit": 43412, "lies": 23677, "\u0120same": 1072, "\u0120Speech": 38399, "vers": 735, "\u0120NPs": 29007, "\u0120formulae": 42764, "\u010a\u0120\u0120\u0120\u0120\u0120\u0120\u0120\u0120\u0120\u0120\u0120\u0120\u0120\u0120\u0120\u0120\u0120\u0120\u0120\u0120\u0120\u0120\u0120\u0120\u0120\u0120\u0120\u0120\u0120\u0120": 22597, "\u00e3\u0124\u012a\u00e3\u0123\u0128": 28254, "\u0120originates": 42799, "\u0120hesitation": 39500, "\u0120ska": 42469, "\u0120ESR": 42209, "aru": 29883, "distribution": 35360, "\u00c3\u00bcn": 17499, "\u0120Seriously": 48587, "installed": 40539, "\u010a\u0109\u0120\u0120\u0120": 14352, "\u0120answer": 3662, "\u0120flor": 49716, "\u0120Critical": 34448, "\u0120lateral": 11884, "\u0120gh": 32798, "vasive": 34850, "\u0120inspir": 39637, "\u0120reperfusion": 44924, "sav": 47929, "\u0120------------------": 23461, "oyo": 49155, "\u0120engineers": 19414, "food": 19480, "\u0120Associated": 23323, "\u0120Royal": 10043, "\u0120deposited": 17063, "\u00d0\u00bd\u00d0\u00b8": 14171, "pec": 1553, "\u0120duality": 34962, "692": 34769, "\u0120managing": 14419, "\u0120immortal": 34677, "bsd": 45005, "-------------------------------------------------------": 48151, "\u0120consulted": 33444, "))))": 27483, "657": 28339, "\u0120Antar": 31913, "Fe": 7510, "\u0120Powers": 33904, "\u0120sparked": 35560, "\u0120Pour": 27808, "\u0120subtract": 43444, "IGN": 13003, "\u0120in": 275, "\u0120contacts": 12716, "\u0120featured": 12819, "\u0120Lincoln": 15915, "Whatever": 25713, "istent": 6688, "ivery": 6106, "software": 33385, "\u0120deeper": 12861, "\u0120435": 35543, "Olympic": 40611, "\u00a7": 102, "\u0120press": 2315, "krit": 41134, "\u0120monomers": 36401, "fet": 39792, "\u0120Shift": 42247, "\u0120bamboo": 42657, "zzle": 12610, "\u0120soften": 50007, "lla": 14797, "\u0120Pow": 15181, "istry": 4721, "\u0120vacc": 7062, "\u0120lysis": 33148, "\u0120symp": 12514, "\u0120selling": 10156, "378": 25139, "\u0120emerges": 32361, "0024": 33713, "\u0120eBay": 43131, "\u00e3\u0124\u012a": 15275, "\u00e7\u0142\u0123": 42697, "\u0120hacia": 49774, "'ll": 1833, "][": 7082, "\u0120integr": 2899, "\u0120inflation": 15631, "\u0120501": 28416, "\u0120\u00c2\u00bb.": 42052, "Wu": 45055, "\u0120repr": 30667, "biggl": 33438, "\u0120hypers": 24052, "454": 27087, "\u0120Mae": 40793, "ental": 3950, "Student": 36303, "\u0120Wise": 45144, "centration": 36551, "\u00d0\u00be\u00d1\u0123\u00d1\u0123": 45366, "\u0120catal": 6310, "\u0120despite": 5747, "\u0120ACE": 29376, "\u0120EGF": 44367, "Fran": 44630, "838": 48463, "\u0120presidency": 26083, "\u0120contracts": 12712, "\u0120practicing": 25815, "\u0120Airport": 18328, "uman": 5409, "\u0120patents": 21410, "\u0120Third": 12245, "\u0120Price": 16040, "\u0120Firm": 38541, "\u0120accorded": 48693, "ANA": 49091, "830": 35400, "\u0120mountain": 11129, "raints": 21462, "}^{\\": 4799, "}}}": 6092, "liga": 30137, "))/": 13987, "Dave": 39993, "\u0120educational": 11331, "\u0120Generation": 28598, "kot": 46841, "\u0120rent": 8845, "*^*": 21237, "\u0120Boost": 35476, "\u0120have": 452, "\u0120Ukrainian": 27485, "\u0120Cec": 31661, "\u0120oppressive": 50205, "\u0120field": 1673, "\u0120esc": 6262, "mine": 18886, "itoneal": 22490, "\u0120derivatives": 13335, "\u0120their": 616, "\u0120agre": 2669, "\u0120wolf": 25872, "\u0120twentieth": 28385, "dd": 1678, "iac": 14427, "verts": 31332, "\u0120s\u00c3\u00a9": 22572, "\u0120acoustic": 19463, "\u0120nephe": 30124, "\u0120abnorm": 32459, "OK": 10249, "\u0120Kol": 24688, "rap": 1761, "Users": 17104, "\u0120subcutaneous": 31967, "\u0120Develop": 20148, "Enable": 27265, "\u0120Reserved": 32997, "Bits": 31736, "\u0120Conversely": 24646, "uned": 37437, "\u00e8\u0122": 13180, "\u0120unatt": 39152, "cion": 48966, "rystals": 49968, "temp": 16306, "\u0120sc": 660, "\u0120joints": 22136, "\u0120pleasant": 17127, "Days": 41430, "\u0120215": 23917, "\u0120critic": 7291, "\u00d1\u0123\u00d1\u0124\u00d0\u00b2\u00d0\u00be": 40017, "\u0120Signal": 31616, "\u0120dramatically": 16821, "\u0120JUST": 28509, "\u0120corrections": 17660, "\u0120autonomy": 29601, "anchester": 16071, "--------------------------------------------": 40904, "\u0120Chest": 43267, "reptococcus": 46782, "\u0120variation": 7629, "reg": 1747, "South": 17967, "xu": 46036, "\u0120gew": 34381, "Jen": 48813, "eter": 1715, "\u0120delay": 5778, "\u0120entr": 10032, "\u0120watched": 9047, "inence": 40156, "\u0120bulky": 41274, "\u0120histone": 28410, "\u0120glance": 17834, "HV": 22984, "\u0120devote": 34097, "\u0120Oliv": 47900, "\u0120caspase": 23506, "\u0120\u00d0\u00bc\u00d0\u00be\u00d0\u00b6": 30954, "annon": 16554, "rito": 36902, "\u0120Obamacare": 39193, "\u0120pertinent": 21452, "EC": 4625, "\\]](": 45662, "\u0120fis": 14654, "\u0120Mitchell": 19980, "\u0120707": 48071, "\u0120theolog": 48342, "\u00c3\u00a4l": 17366, "geqslant": 32291, "sample": 16848, "XV": 40421, "uild": 4084, "\u0120must": 1364, "\u0120Ball": 14702, "\u0120quicker": 31124, "\u0120strained": 37007, "efficient": 20246, "\u0120swallowed": 30427, "\u0120Robin": 22463, "\u0120parench": 39897, "\u0120$${\\": 16207, "\u0120allies": 17760, "\u0120[]{": 27501, "\u0120voted": 14285, "\u0120overcoming": 40845, "\u0120Cic": 45812, "\u0120proves": 19539, "opin": 30436, "ictionaries": 49580, "\u0120moon": 12334, "\u0120patent": 9469, "232": 19136, "\u0120presently": 21654, "\u0120appliances": 32701, "2222": 48049, "\u0120kde": 49745, ".^\\[[@": 43782, "\u0120preservation": 23029, "details": 23454, "\u0120seam": 22595, "\u0120Recall": 28285, "]--": 7086, "\u0120manipulation": 19763, "\u0120fl": 892, "che": 1962, "nc": 9068, "\u0120adoles": 13275, "\u0120cancer": 2923, "\u0120gas": 3678, "Tree": 14444, "\u0120machine": 5145, "$:": 18965, "\u0120MAT": 26572, "\u00c2\u0122\u00c2\u0124": 33939, "\u010a\u010a\u0120\u0120\u0120\u0120\u0120\u0120\u0120\u0120\u0120\u0120\u0120\u0120\u0120\u0120\u0120\u0120\u0120\u0120\u0120\u0120": 48458, "bind": 13245, "\u0120\"\"\"": 12251, "attach": 38729, ")}": 3117, "\u012000000000000000000000000000000000": 34575, "orage": 4423, "\u0120biodegrad": 48913, "community": 24925, "\u0120marketplace": 27769, "---|": 15623, "velope": 15209, "\u0120litigation": 15561, "\u00c2\u00b4": 11679, "\u0120grains": 19786, "Operation": 17547, "\u0120Bol": 16001, "\u0120complains": 40538, "umble": 19493, "kow": 49036, "Indian": 28531, "vents": 27156, "\u0120Claire": 31231, "\u0120proud": 9979, "\u012009": 15630, "\u00e5\u0127\u00a5": 23373, "structured": 34218, "1961": 34493, "\u0120symbolic": 24762, "\u00c3\u00b4ng": 45559, "old": 744, "kte": 47520, "}},\\": 23102, "\u0120Peer": 48091, "\u0120tutor": 16304, "\u0120protect": 4017, "\u0120audiences": 23886, "\u0120surve": 8957, "\u0120virtues": 37398, "\u0120aesthetic": 24624, "compatible": 34118, ">>>>": 35402, "confirmed": 37467, "autom": 37771, "\u0120approached": 13781, "\u0120reactive": 17411, "\u0120columns": 9930, "ville": 6169, "Know": 27958, "\u0120lest": 38138, "\u0120signature": 11118, "\u0120pointing": 13458, "909": 28766, "\u0120inquire": 40279, "\u0120garment": 40371, "misc": 43671, "\u0120shouts": 44974, "\u0120FIGS": 36317, "\u0120trimmed": 36756, "\u0120disdain": 49443, "\u0120interstellar": 47751, "appoint": 9626, ">.": 13208, "\u0120NT": 20483, "\u0120Dominican": 46406, "RET": 22178, "\u00e8\u0122\u012e": 38328, "ppat": 18510, "\u0120realm": 19929, "\u0109\u0109\u0109\u0109\u0109\u0109\u0109\u0109": 36990, "\u0120CI": 7309, "apshot": 27760, "1966": 28355, "stage": 13311, "camp": 23485, "ensible": 35418, "\u0120aggressively": 39730, "pric": 38604, "OFF": 18036, "bben": 31803, "\u0120cities": 8238, "\u0120immature": 34000, "istor": 6709, "yscall": 20377, "\u0120implementations": 27558, "imp": 11548, "xym": 37543, "\u0120Resp": 12019, "\u0120avail": 1961, "\u0120quadrant": 48045, "wasysym": 8860, "org": 2061, "\u0120pix": 8066, "\u0120constit": 3598, ")!": 25246, "\u0120union": 8083, "\u0120separ": 2533, "\u0120sampled": 19958, "\u0120604": 46771, "wh": 2484, "\u01201996": 8441, "xxxx": 16321, "\u0120506": 39172, "\u0120owes": 42261, "mighty": 40884, "peat": 16388, "\u0120och": 8363, "\u0120spoiled": 46935, "\u00e6\u0127": 46791, "\u0120topological": 17597, "\u0120Gun": 22222, "\u0120illegally": 30060, "charged": 31094, "ith": 334, "ophy": 7868, "\u0120forb": 17163, "Lord": 27537, "music": 30911, "Syntax": 44981, "'):": 46976, "\u0120RP": 22806, "SUM": 35111, "ch": 348, "\u0120hesit": 16063, "\u0120gen": 730, "\u0120Generally": 21910, "ariju": 12635, "\u00e8\u00b5": 23692, "beit": 15932, "Company": 32088, "ension": 2452, "\u0120twe": 13660, "PROT": 39129, "\u0120Investment": 32886, "\u0120retaliation": 29995, "\u0120grub": 33336, "\u0120honestly": 20509, "\u0120ending": 12365, "(\"%": 22219, "iso": 14699, "\u0120Am": 3052, "\u0120||": 2785, "apes": 9652, "\u0120liber": 10875, "\u0120muscular": 27602, "doped": 43142, "isers": 34768, "\u0120Duty": 43172, "KES": 46009, "\u0120compulsory": 42571, "terror": 32511, "\u0120malicious": 24764, "iche": 16128, "\u0120exports": 24217, "\".": 3446, "\u0120inferences": 27377, "\u0120implic": 6139, "\u0120microtub": 32918, "\u0120pyro": 44993, "\u00c5\u00b1": 49572, "\u0120284": 31507, "\u0120burn": 5451, "URN": 24790, "\u0120bron": 13605, "ogene": 6679, "\u0120Mg": 17917, "\u0120counting": 15496, "Entity": 14984, "\u00e6\u00a5": 28492, "\u0120Since": 3932, "\u0120desde": 28947, "enz": 12586, "OOK": 16569, "\u0120javascript": 25109, "\u0120gonad": 50138, "\u0120hated": 21023, "\u0120predictors": 23477, "\u0120directly": 3587, "arman": 36687, "IVE": 11477, "\u0120printer": 19736, "\u0120484": 40783, "\u0120restless": 43958, "\u0120opacity": 26655, "obacterium": 34755, "![](": 12520, "\u0120microenvironment": 35962, "iji": 27520, "\u0120pin": 9176, "\u0120Cold": 20754, "\u0120defeats": 49204, "\u0120alarms": 49454, "\u0120royalty": 37283, "debug": 13125, "iger": 8047, "\u0120bib": 20314, "\u0120capillary": 26802, "\u0120Aim": 35291, "\u0120awakened": 48752, "Address": 12236, "\u0120irrad": 14770, "\u00e2\u0123\u0126": 40859, "\u0120obese": 21967, "\u0120seize": 33694, "\u0120teaching": 9551, "Queen": 38997, "\u0120seg": 8753, "\u0120surviving": 21548, "\u0120Shin": 33655, "\u0120Directory": 36186, "\u0120Lightning": 41882, "\u0120puff": 42199, "BBC": 47235, "osed": 1700, "\u0120snow": 8762, "\u0120Coul": 24369, "\u0120tightened": 41912, "\u0120worry": 7664, "\u00e5\u013e\u00b0": 24086, "cens": 46874, "\u0120Common": 10200, "\u0120\u00e2\u0122\u013a": 2802, "cles": 5005, "rystal": 18568, "intestinal": 19850, "\u0120fade": 28755, "\u0120Viv": 31802, "pped": 1882, "\u0120writ": 2416, "\u0120\u00d8\u00b9": 25849, "\u0120sap": 35223, "\u0120punched": 39214, "Ubuntu": 40614, "\u0120\u00c3\u00a9l": 26926, "actors": 46435, "Spain": 49348, "\u0120new": 747, "\u0120inferred": 22245, "\u0120323": 32597, "ULAR": 17983, "atl": 42029, "093": 44527, "engo": 38434, "\u0120concludes": 20097, "\u0120recommend": 5583, "\u0120elegant": 20654, "\u0120rou": 30497, "irq": 20331, "\u0120consuming": 21337, "registry": 31007, "uparrow": 24175, "\u0120Norton": 34909, "prep": 19428, "\u0120pesso": 41837, "\u0120arbitrator": 45196, "+-": 22501, "\u0120throughput": 28519, "\u0120mosaic": 37997, "\u00e3\u0124\u0125": 47343, "\"_": 47439, "\u00ce\u00bf\u00cf\u0127\u00ce\u00bd": 35280, "\u0120degener": 25273, "OMEM": 48579, "\u0120Research": 5489, "Stat": 9710, "independent": 17777, "idav": 13592, "\u0120Staff": 17112, "\u0120Connecticut": 20973, "\u0120folded": 20618, "\u0120198": 26397, "\u0120Points": 31411, "iker": 24736, "\u0120Napoleon": 32436, "\u00e0\u00b8\u00a2": 34816, "imbab": 35206, "yrus": 22932, "}_": 2000, "INTER": 19118, "\u01201966": 19213, "paste": 23164, "PROM": 35672, "094": 41280, "\u0120readiness": 40628, "liked": 44939, "\u0120pertains": 45703, "ermanent": 47605, "\u0120bacteri": 48382, "rank": 14714, "cred": 25798, "\u0120pub": 13384, "Three": 11831, "twitter": 16705, "tar": 17447, "ese": 3248, "uling": 16292, "\u0120nome": 43831, "\u0120advised": 15140, "\u0120Than": 34646, "\u00d9\u0126\u00d9\u012b": 38033, "Make": 13325, "urgical": 19785, "}\\}$": 37299, "versus": 38564, "\u0120shop": 8979, "jd": 28034, "quality": 15177, "College": 45970, "\u0120hostile": 21668, "\u0120hed": 21867, "STAR": 45897, "cut": 7317, "Msg": 21611, "\u0120muit": 27735, "\u0120receives": 14488, "\u0120Secondly": 32216, "\u0120epile": 22815, "created": 22337, "\u0120entertaining": 25945, "\u0120unsuccess": 22727, "\u0120minded": 48163, "office": 30496, "tr": 1206, "aditional": 22675, "ocular": 26292, "\u0120analogy": 24760, "\u0120tetra": 26823, "\u0120feminine": 35491, "\u0120MV": 25587, "nat": 25781, "When": 3039, "\u0120needing": 25312, "\u0120OB": 27227, "istant": 5567, "\u012023": 3495, "\u0120attend": 8041, "\u0120contributes": 17904, "\u0120literature": 6239, "\u0120killed": 5339, "\u0120Patent": 11754, "\u0120canal": 19913, "ceedings": 22868, "\u0120mixtures": 24170, "carrier": 48789, "\u0120differentiate": 22629, "fro": 35255, "oler": 15740, "\u0120collections": 18406, "\u0120tempo": 28250, "\u0120stay": 3297, "${": 8626, "\u0120Creation": 42087, "\u0120chapters": 23168, "\u0120akt": 46966, "\u0120Chemistry": 36873, "\u0120Louisville": 39492, "\u0120{{\\": 7524, "xa": 14346, "\u0120Churchill": 27961, "\u0120dragons": 41705, "\u0120listen": 8028, "h": 73, "\u0120recal": 42545, "\u00ec\u013f": 10361, "CHANNEL": 48197, "\u0120bureaucracy": 48356, "\u0120chromosomal": 32795, "MIX": 43640, "\u00d0\u00b8\u00d1\u0127": 21602, "rut": 39770, "\u0120naming": 26086, "Ad": 3837, "\u0120185": 23512, "\u0120Cycl": 25053, "numeric": 37718, "orate": 27928, "\u0120owned": 9633, "\u0120shoulder": 9215, "\u0120diese": 36054, "ARRAY": 37983, "c": 68, "\u0120prote": 1233, "\u0120tre": 2578, "\u0120introduction": 10199, "\u0120asserted": 16402, "\u0120prosperity": 30391, "ousand": 37143, "\u0120prescriptions": 37971, "\u0120indeterm": 44785, "\u0120encompassing": 46940, "\u0120sister": 7586, "\u0120COS": 43456, "\u0120\u00d9\u0126": 23630, "Cy": 25385, "\u0120choices": 10165, "\u0120peripheral": 10844, "\u0120scall": 45829, "\u0120Lamb": 25852, "stown": 39225, "Math": 18102, "\u0120PER": 23564, "\u0120Plaintiffs": 12601, "\u0120217": 26517, "\u0120Switzerland": 18908, "Lookup": 48061, "\u00d0\u00b5\u00d1\u0129": 30338, "\u0120DP": 25891, "\u0120bacterial": 10741, "\u0120disproportion": 30839, "\u0120dusk": 47619, "\u0120Fresh": 30149, "anya": 32028, "\u00c3\u00a8s": 12713, "\u0120VC": 29640, "oul": 3941, "adies": 46349, "\u0120docs": 27586, "\u0120suppressing": 35582, "uitively": 41597, "urrection": 44639, "\u0120lign": 31431, "\u0120MN": 26583, "ister": 2131, "\u0120cet": 32228, "\u0120inhib": 3084, "came": 34403, "\u0120voices": 15547, "\u0120changed": 4391, "NAME": 9536, "\u0120sign": 861, "\u0120Pete": 26411, "\u0120conduit": 35198, "pnt": 22137, "\u0120Heather": 37083, "actic": 9994, "\u0120transfected": 17858, "Ter": 33878, "\u0120hypertensive": 41039, "ichia": 30378, "yn": 1362, "s": 84, "\u0120interface": 5673, "conditioning": 42743, "Anthony": 50047, "\u0120}^{": 47260, "\u0120Paso": 43623, "\u0120Pet": 8939, "bo": 2399, "\u0120excit": 10964, "die": 20875, "\u0120contexts": 22349, "egen": 27701, "\u0120req": 23169, "Bound": 27869, "\u0120Salv": 28178, "Broad": 34752, "\u0120familiarity": 38550, "\u0120460": 34678, "\u0120gi": 15891, "\u0120Cent": 2932, "\u0120etern": 16649, "\u0120delays": 20219, "\u0120Sweet": 26048, "')\\": 34311, "\u0120clothes": 10015, "&-": 34377, "\u00c3\u00b1o": 21000, "\u0120g\u00c3\u00b6": 38980, "\u0120contiguous": 41248, "ames": 1443, "\u0120brushes": 48820, "comput": 16777, "TRUE": 26501, "MA": 3788, "wagen": 40990, "orse": 10245, "\u0120malfunction": 43280, "Compl": 46004, "\u0120tap": 13341, "ibile": 48316, "Init": 10828, "pid": 4239, "\u0120GHz": 30588, "\u0120malware": 36887, "}}}(\\": 39111, "\u0120whist": 37031, "\u0120crown": 16834, "\u0120Argentina": 23881, "\u0120experien": 4298, "\\,": 4615, "\u0120vegetable": 21436, "\u0120Veterans": 30109, "tras": 33035, "\u0120festivals": 33182, "cul": 1291, "\u0120Alexandria": 38783, "\u0120billed": 47045, "ribe": 29798, "team": 22035, "\u0120nobility": 49578, "\u0120\u00cf\u0125\u00cf\u0126\u00ce\u00b7": 37384, "\u0120Control": 9175, "\u0120debates": 27155, "pad": 11022, "ret": 1221, "\u0120sport": 9678, "\u0120migrants": 25991, "\u0120pros": 5847, "\u0120liberty": 17843, "\u0120princ": 3505, "\u0120310": 27322, "\u0120groove": 27444, "\u0120\u0120\u0120\u0120\u0120\u0120\u0120\u0120\u0120\u0120\u0120\u0120\u0120\u0120\u0120\u0120\u0120\u0120\u0120\u0120\u0120\u0120\u0120\u0120\u0120\u0120\u0120\u0120\u0120\u0120": 10204, "xim": 3266, "\u0120THEN": 28620, "\u012066": 9523, "\u0120args": 13059, "\u0120Pri": 13558, "\",": 995, "\u0120benign": 21690, "\u00cf\u0129": 9650, "aim": 1468, "\u0120populated": 26956, "\u0120Baldwin": 37103, "gpu": 37597, "\u0120Aside": 43308, "\u0120[[*": 44965, "618": 47017, "abolic": 20038, "\u0120Stim": 38459, "\u0120operates": 17209, "endi": 44731, "\u0120procedures": 7259, "\u0120slew": 48602, "ized": 1025, "Reviewer": 49312, "pcbi": 18381, "\u0120LM": 25840, "issued": 47401, "nonatomic": 42264, "DESC": 42941, "\u0120fights": 24662, "\u0120juvenile": 20962, "}))": 26025, ").[": 36033, "acknow": 31954, "unci": 36637, "\u0120bounded": 11542, "\u0120antic": 37935, "\u0120someone": 3095, "\u0120fuzzy": 31921, "\u0120Rebecca": 31959, "\u0120listener": 24199, "\u0120disappointing": 31623, "\u0120-----": 19312, "etry": 5704, "ql": 5848, "\u0120government": 2208, "223": 20360, "quarters": 14105, "define": 3182, "\u0120deficient": 24030, "\u0120comedian": 43778, "\u0120531": 46916, "\u0120primary": 3625, "\u0120Grace": 18966, "acting": 20594, "\u0120Nicholas": 26876, "ius": 3750, "|_{\\": 34813, "\u0120metastatic": 19798, "OHN": 35047, "\u0120motion": 3200, "esian": 16561, "\u0120discriminated": 49247, "\u0120styled": 49879, "\u0120kl": 27451, "ference": 1793, "\u0120firefox": 44905, "ther": 508, "\u0120deck": 12595, "\u0120aren": 6403, "\u0120interacting": 18745, "\u0120stabilization": 28366, "\u0120favourable": 39262, "\u0120During": 6408, "\u0120throw": 4710, "\u0120\u0120\u0120\u0120\u0120\u0120\u0120\u0120\u0120\u0120\u0120\u0120\u0120\u0120\u0120\u0120\u0120\u0120\u0120\u0120\u0120\u0120\u0120\u0120\u0120\u0120\u0120\u0120\u0120\u0120\u0120\u0120\u0120\u0120": 12703, "\u0120heeft": 32903, "\u0120Chronicle": 35971, "\u0120pr\u00c3\u00a9": 19856, "\u0120DEL": 38336, "\u0120likelihood": 12177, "\u0120bash": 29826, "varepsilon": 4519, "\u0120attitude": 12046, "\u0120Memorial": 20718, "bellum": 38569, "\u0120Imp": 16009, "\u0120booth": 32405, "\u0120flies": 19826, "\u0120laug": 5510, "\u0120conductors": 39713, "\u0120outlets": 23812, "arnings": 40578, "CONT": 34053, "\u0120robes": 46675, "ISON": 48278, "\u0120Squadron": 36365, "\u0120play": 1132, "\u00c3\u00a1l": 21762, "oidal": 16080, "\u0120distances": 13849, ",}": 46609, "\u0120presidential": 12674, "\u00e0\u00ba": 34556, "\u0120specifically": 5742, "\u0120bastard": 32199, "\u0120masc": 43796, "roelectric": 47943, "\u0120Spanish": 9883, "\u0120worldwide": 11762, "\u0120POL": 32504, "\u0120cod": 12738, "\u0120AGA": 43492, "\u0120blends": 43709, "\u0120malloc": 46138, "\u0120Azerba": 46555, "\u0120spor": 24188, "\u0120precedent": 19440, "\u0120perfusion": 27651, "\u0120troubling": 39728, "oform": 45193, "\u0120minimum": 5927, "\u0120stratified": 31539, "Unity": 47869, "imedia": 41022, "Website": 50023, "inux": 8810, "\u0120495": 40191, "\u0120described": 2529, "\u0120289": 30717, "cannot": 32824, "jes": 39238, "\u0120Male": 23588, "\u0120Sacramento": 36405, "\u0120fertilizer": 46642, "Stage": 30635, "}}^{{\\": 48367, "\u010a\u0120\u0120\u0120\u0120\u0120\u0120\u0120\u0120\u0120\u0120\u0120\u0120\u0120\u0120\u0120\u0120\u0120\u0120\u0120\u0120\u0120\u0120\u0120\u0120\u0120\u0120\u0120\u0120\u0120\u0120\u0120\u0120\u0120\u0120\u0120\u0120\u0120\u0120\u0120\u0120\u0120\u0120": 37974, "\u0120Fo": 36414, "\u0120compose": 38530, "\u0120Elementary": 34578, "\u0120GPS": 21303, "\u0120consequences": 9099, "\u0120ao": 18547, "flight": 31045, "lines": 8737, "\u0120charged": 6636, "Mix": 35394, "sender": 36294, "\u0120predomin": 12687, "791": 44030, "\u0120composition": 5889, "\u0120Ed": 3619, "Could": 18179, "\u0120tumors": 8837, "*>": 28365, "into": 14806, "quin": 16573, "\u0120blades": 25254, "\u0120recreation": 37481, "TCP": 32423, "\u0120CCL": 39756, "rival": 49182, "xyz": 35609, "\u0120closely": 8244, "\u0120convin": 13136, "\u0120quantization": 36643, "\u0120coll": 3007, "\u0120Bull": 17346, "wikipedia": 25842, "\u0120supers": 17402, "hide": 21179, "\u0120deer": 24563, "\u0120Platform": 28449, "aram": 29982, "\u0120Utility": 43533, "friend": 8471, "\u0120painful": 16592, "\u0120manuscripts": 40336, "\u0120Speed": 24090, "\u0120holdings": 37996, "iator": 35250, "\u0120microbiome": 44027, "\u0120BLAST": 45523, "Energy": 35515, "Secondary": 47789, "\u0120Finals": 47329, "\u00e5\u012e": 15899, "omencl": 47468, "\u0120rope": 20762, "\u0120scrutiny": 24852, "\u0120hypert": 10781, "ony": 2421, "ucky": 12202, "\u0120doesnt": 36908, "\u0120Beatles": 40159, "\u0120INTO": 17116, "\u0120operated": 11658, "\u0120slack": 37358, "istical": 11230, "zel": 21608, "228": 20694, "vdots": 28439, "\u0120larval": 40076, "\u00d7\u00aa": 24990, "\u0120randomised": 41699, "finish": 43020, "doibase": 33835, "\u0120insufficient": 12497, "\u0120sch": 5807, "\u0120bri": 45633, "\u0120referring": 14339, "\u0120graduating": 38588, "Padding": 45565, "']": 6038, "\u0120determin": 11544, "\u0120Bart": 17486, "grat": 25923, "\u0120accompanied": 11704, "child": 7003, "missible": 13038, "\u0120Lucy": 24112, "\u0120masters": 26616, "\u0120subgroup": 14632, "tz": 21239, "\u0120291": 34958, "Represent": 35012, "elled": 5911, "ags": 3544, "\u0120Prep": 29081, "atie": 25630, "\u0120confuse": 40678, "cein": 43959, "--------------------": 15879, "November": 23375, "\u0120drums": 27275, "ifice": 33095, "\u0120celery": 44699, "human": 13961, "Deep": 30763, "617": 41830, "'];": 22734, "Tools": 32953, "\u0120zeal": 42939, "condition": 12380, "chus": 42606, "\u0120niece": 43551, "CMV": 36420, "\u0120activist": 22531, "\u00d9\u012c\u00d8\u00a9": 32229, "intel": 34291, "\u0120497": 44473, "\u00e5\u012a\u013f": 47754, "Cha": 49029, "\u00e0\u00b8\u0129": 25051, "\u0120alphabet": 30156, "\u0120Schmidt": 31400, "\u0120'./": 33378, "\u00e2\u0122\u0127": 12836, "066": 39425, "494": 32942, "\u0120berries": 37408, "spinal": 45895, "\u0120diab": 6562, "\u0120glared": 47278, "NS": 4883, "a\u00c3\u00a7\u00c3\u00a3o": 14291, "ferr": 27480, "\u0120ar": 549, "\u0120TF": 22539, "\"\"\"": 32488, "\u0120offsets": 41669, "\u0120ens": 3994, "\u0120fewer": 11184, "cuse": 25018, "\u00c2\u00b3": 19281, "\u0120puzzles": 43884, "\u0120Hash": 22272, "\u0120precaution": 47644, "\u0120inoc": 19081, "\u0120procession": 44210, "central": 25765, "grave": 45283, "\u0120NFC": 49149, "\u0120Michigan": 11314, "351": 27018, "390": 23850, "\u0120embarrassing": 34019, "\u0120reign": 19485, "\u0120clinicians": 26690, "Univers": 44920, "chin": 27545, "\u0120creating": 6153, "\u00e3\u0124": 1357, "gre": 24204, "\u0120Secondary": 29625, "\u01201945": 18824, "\u0120Education": 10286, "iculous": 16512, "functions": 20619, "unts": 24779, "\u0120325": 28325, "\u00c3\u00ac": 12931, "missive": 35407, "Max": 9684, "\u0120vra": 37312, "utch": 9248, "\u0120lucrative": 42733, "Preferences": 46824, "\u0120governor": 14176, "\u0120pres": 838, "osphere": 25677, "\u01200000": 34919, "\u0120\u00d0\u00b2\u00d1\u0123": 24797, "\u0120churches": 18777, "fff": 22650, "raise": 22525, "\u0120divis": 35076, "\u0120OPT": 37692, "cci": 46668, "\u0120\u00d7\u0137": 46977, "\u0120ranc": 50008, "real": 6549, "\u0120incent": 15210, "FLAGS": 19499, "Hence": 35914, "INDEX": 34558, "\u0120stage": 3924, "\u0120aliment": 45186, "tag": 7784, "\u0120consent": 7578, "olly": 10378, "].\"": 47744, "oping": 18225, "\u0120removable": 38109, "\u0120murm": 23189, "\u0120glu": 28552, "\u00e2\u0122\u013f?": 43820, "\u00e5\u00b0": 10673, "\u0120preponder": 34563, "owned": 15280, "\u0120\u00ef\u00bb\u00bf": 35762, "iced": 5491, "\u0120apple": 19126, "\u0120repent": 39531, "\u0120causation": 36448, "\u0120OA": 29258, "MED": 19047, "onyl": 38258, "\u0120Gym": 48634, "dia": 45179, "argument": 24058, "\u0120advert": 7314, "reams": 9779, "\u0120bored": 23086, "\u0120stromal": 35006, "?.": 29006, "\u0120Dana": 36669, "\u0120global": 4156, "\u0120Maur": 21664, "\u0120ips": 41998, "Station": 25972, "Setup": 37632, "\u0120pu": 8429, "\u0120AFP": 27816, "ynaptic": 35692, "\u0120simultaneously": 10486, "Creation": 47731, "\u0120VAR": 30226, "imated": 18280, "\u00e5\u00ae\u013c": 17576, "vl": 29576, "\u0120lineup": 25775, "Assign": 44467, "ym": 1105, "\u0120California": 5002, "iert": 27252, "omethyl": 37109, "\u0120navigate": 24171, "icans": 27441, "Supreme": 31177, "\u0120pilgr": 31514, "\u0120329": 35453, "Marie": 44617, "542": 49895, "\u0120agarose": 39086, "\u0120resident": 14544, "scene": 32280, "renn": 32634, "(+)": 35242, "\u0120Subjects": 37235, "\u0120ned": 44370, "\u0120diferen": 44838, "\u0120before": 1078, "ibaba": 48748, "\u0120Heritage": 26254, "\u0120genotyping": 41234, "oso": 26471, "\u0120commit": 4514, "\u0120Country": 17241, "\u0120Faith": 27955, "\u0120neo": 28522, "itations": 22644, "blog": 9198, "---------": 9794, "Bbb": 22982, "\u0120War": 3660, "BMI": 31685, "\u0120anarch": 34822, "\u0120torment": 44457, "\u0120Corporation": 11294, "\u0120monocyte": 48251, "\u0120subdu": 49371, "ssl": 28908, "\u0120circumstances": 5989, "\u0120Registration": 39927, "````": 34842, "\u0120waved": 27194, "\u0120phenolic": 44787, "\u0120shel": 9200, "\u0120contemplate": 46973, "technical": 48746, ".\u00e2\u0122\u0136": 25277, "Created": 32331, "aution": 45384, "\u0120Emirates": 47229, "\u0120frightened": 27185, "\u0120reporting": 9610, "\u0120design": 2216, "\u0120Tem": 8582, "atted": 19822, "MG": 24580, "1945": 36354, "\u0120barg": 14862, "\u0120hence": 7613, "042": 30969, "_+": 13879, "Iowa": 46917, "\u0120ESPN": 27478, "ranking": 47883, "roma": 49086, "Sport": 47477, "\u0120wilderness": 31654, "\u0120lnc": 32878, "Pipeline": 47469, "229": 17107, "\u0120deriv": 3538, "\u0120Kenny": 39370, "\u0120impending": 40911, "\u0120anchor": 18536, "\u0120jointly": 26277, "\u0120suture": 40036, "Et": 24858, "Tasks": 44131, "\u0120le": 458, "\u0120stays": 19931, "\u0120NO": 7651, "\u0120SS": 13575, "isse": 16886, "\u0120BA": 23730, "\u010a\u010a\u010a\u010a\u010a\u010a\u010a": 35451, "\u0120metadata": 21464, "lie": 9114, "ENABLE": 32814, "\u0120cheapest": 45869, "indle": 19909, "\u01201": 337, ")}\\": 7398, "\u0120Francisco": 10765, "prim": 13374, "\u0120analytical": 16101, "jen": 22289, "\u0120invari": 24162, "\u0120fraudulent": 25447, "TIM": 25490, "Charlie": 45255, "\u0120Tales": 46155, "\u0120phylogenetic": 23165, "\u0120ulcers": 44623, "\u0120conspiracy": 13445, "\u0120inconvenience": 40471, ">:": 32056, "ivered": 7782, "Scalar": 29094, "\u0120artwork": 28227, "icy": 2576, "fan": 20227, "\u0120evalu": 3595, "\u0120vox": 32582, "Lev": 35438, "\u0120Freddie": 48882, "\u0120tangled": 49515, "ctl": 19207, "moving": 26621, "\u0120colours": 22290, "\u0120deduce": 27566, "\u0120additions": 30733, "Offset": 13736, "\u0120Gang": 35230, "ificantly": 36211, "\u0120actually": 2686, "arded": 13073, "\u0120incentives": 26911, "aspx": 31024, "\u0120Ev": 5635, "\u0120excerpt": 32491, "signed": 36323, "\u0120bloc": 41129, "\u0120dread": 18638, "\u0120Ancient": 32198, ")...": 41605, "LEX": 40680, "oda": 17457, "\u0120\u00d0\u00b4\u00d0\u00bb\u00d1\u0131": 31618, "\u0120Festival": 14964, "\u0120dump": 13725, "\u0120circles": 14240, "\u0120mayor": 14967, "216": 17271, "\u0120pathogens": 19788, "\u0120Null": 34631, "\u00c2\u0142\u010a": 21304, "\u0120Employment": 35499, "\u0120presidents": 37627, "raiser": 40902, "\u00e6\u0138\u0129\u00e4\u00bb\u00b6": 42522, "{}\\": 43945, "\u0120ct": 45830, "Ker": 45948, "\u0120ducks": 46495, "---|---": 20782, "\u0120instruments": 13225, "\u0120Sol": 8144, "\u0120sympt": 4937, "ATED": 11657, "\u0120theory": 3762, "\u0120entries": 12028, "initis": 46999, "AMP": 12437, "\u0120multiplied": 31458, "\u0120oppressed": 48852, "transcript": 49223, "\u0120spoon": 26531, "\u0120Babylon": 37125, "License": 17736, "\u0120Rand": 18250, "\u0120Supplementary": 18292, "gomery": 25256, "calendar": 36913, "website": 37054, "Choose": 37923, "it\u00c3\u00a9s": 38477, "\u0120rough": 7227, "kon": 32937, "\u0120\u00d7\u013e": 32017, "\u0120Float": 44376, "completion": 45634, "\u0120REALLY": 48792, "\u0120Child": 8347, "porary": 10368, "\u0120acceptance": 14924, "\u0120comes": 3249, "\u0120um": 5111, "angers": 11207, "\u0120\u00ce\u00ba": 9028, "square": 15044, "}'": 15996, "comp": 3118, "****************************************************************": 17344, "\u0120mapped": 18301, "urance": 4628, "ict": 882, "Json": 17219, "\u0120garage": 19476, "ANK": 19871, "\u0120denominator": 12619, "\u0120angels": 29828, "\u0120speaker": 14925, "\u0120cyn": 31970, "\u0120topped": 32072, "\u0120prop": 4198, "\u0120springs": 29121, "ramento": 33165, "(\"": 1587, "\u0120\u00c5\u00bce": 33604, "\u0120Institute": 6516, "\u0120creature": 15906, "\u0120silly": 19456, "\u0120tin": 20596, "\u0120scale": 4311, "\u0120ost": 27723, "\u0120Some": 3808, "\u0120cytok": 10815, "orting": 12655, "\u0120stamps": 37946, "\u0120el": 1045, "\u0120GTP": 37404, "ilogy": 38665, "\u0120immunological": 40469, "lbrace": 44537, "\u0120planting": 31761, "for": 1542, "=\"'": 34468, "+}": 46015, "\u0120introdu": 3092, "acin": 25440, "\u0120disagree": 14936, "=\"_": 23604, "\u0120septic": 37334, "}}.$$": 32964, "\u0120pop": 1684, "\u0120lap": 13427, "\u0120Jong": 38065, "\u0120Humph": 40824, "\u0120rhythms": 41176, "\u0120unresolved": 39394, "\u00c5\u0126": 20729, "health": 15356, "\u0120Barnes": 28852, "\u0120LN": 40850, "Commission": 42698, "\u0120hastily": 44753, "\u0120upstairs": 24311, "\u0120Entity": 33162, "\u0120accomplishments": 40243, "\u0120luminal": 46142, "\u0120Final": 16299, "\u0120mak": 47657, "ketch": 48411, "Lic": 49124, "isti": 49356, "056": 29160, "reverse": 32514, "conspir": 45097, "\u0120severe": 5460, "odil": 42369, "\u0120Alan": 17560, "=====": 43024, "\u0120Empire": 13958, "\u0120Rout": 30852, "Brit": 19189, "Hol": 24095, "\u0120supermarket": 39556, "\u0120admire": 26930, "Download": 20865, "aturally": 28147, "\u0120conveyor": 39773, "MBOL": 43830, "\u0120Planet": 29719, "\u0120divided": 4272, "findViewById": 44688, "\u0120PROFITS": 49080, "\u0120returns": 6548, "\u0120big": 1943, "Geography": 46263, "\u0120empowerment": 49952, "\u0120Terminal": 37060, "\u0120Lau": 18894, "\u0120buy": 4489, "atan": 37628, "1965": 28403, "rator": 21573, "\u0120Enron": 32377, "71": 3677, "fig": 926, "\u0120Years": 20175, "\u0120planet": 8859, "\u0120340": 28528, "\u0120\u010a\u0120\u0120\u0120\u0120\u0120": 22937, "productive": 16233, "ithmetic": 23343, "\u00cf\u0123\u00cf\u012b": 38093, "iffe": 30908, "\u0120\")": 36660, "\u0120die": 3150, "\u0120terrified": 32052, "\u0120captured": 10848, "Invalid": 19504, "pload": 8108, "\u0120Lux": 28313, "\u0120topical": 32323, "P": 49, "\u0120\u00d1\u0122\u00d0\u00b0\u00d0\u00b7": 25510, "IER": 35960, "\u0120Lloyd": 24395, "CIAL": 28408, "457": 28744, "amento": 12263, "uring": 981, "\u0120Which": 6758, "\u0120Comment": 22955, "rations": 34789, "raw": 2040, "\u0120reopen": 37605, "assen": 38740, "\u0120carried": 4824, "\u012012": 1249, "\u0120metabolite": 32184, "\u0120skill": 10861, "CREATE": 25875, "\u0120!=": 3613, "http": 2413, "\u0120instance": 4227, "oline": 11975, "\u01201949": 24344, "Origin": 34478, "Calendar": 37443, "arxiv": 39962, "\u0120FAA": 40589, "\u0120paddle": 44432, "\u0120expect": 1902, "cor": 5528, "\u0120tang": 12717, "\u0120232": 26972, "\u0120ware": 20784, "682": 35488, "Alexander": 41736, "\u0120renovation": 45081, "hay": 49289, "\u0120Katz": 45084, "UINT": 41092, "\u0120passion": 9908, "\u0120accompany": 13920, "\u0120front": 2914, "address": 12025, "DEFAULT": 25409, "grad": 4971, "\u0120longe": 35133, "\u0120parad": 11951, "Risk": 44751, "nothing": 26142, "\u00e3\u0123\u00ab\u00e3\u0124\u012a": 39593, "\u0120shares": 10764, "\u0120542": 46190, "allows": 42905, "\u0120B": 378, "\u0120passed": 4817, "uitary": 32419, "sci": 29409, "\u0120Falk": 50106, "\u0120quarters": 19902, "\u00e2\u0122\u0125\u00e2\u0122\u0125": 23401, "^{": 768, "\u0120rehears": 33558, "\u0120wired": 36427, "\u0120SUN": 40686, "\u0120Health": 4775, "\u0120viewed": 11575, "\u0120wicked": 26395, "\u0120saddle": 26759, "\u0120Literature": 27746, "\u0120completed": 6312, "oned": 11406, "Source": 7781, "Ast": 34699, "\u0120\u00d7": 6810, "choline": 36992, "762": 40629, "\u0120Library": 11397, "otts": 43285, "\u0120gamma": 17356, "\u0120vague": 21248, "\u0120mushrooms": 31022, "\u0120destabil": 37355, "\u0120exploiting": 38883, "\u0120\u0120\u0120\u0120\u0120\u0120\u0120\u0120\u0120\u0120\u0120\u0120\u0120\u0120\u0120\u0120\u0120\u0120\u0120\u0120\u0120\u0120\u0120\u0120\u0120\u0120\u0120\u0120\u0120\u0120\u0120\u0120\u0120\u0120\u0120\u0120\u0120\u0120\u0120\u0120\u0120\u0120\u0120\u0120\u0120\u0120\u0120\u0120\u0120\u0120\u0120\u0120": 22177, "\u00eb\u012c": 22983, "dim": 4528, "\u0120aging": 15174, "\u0120MOD": 39823, "\u0120bets": 45780, "agu": 19438, "\u0120pair": 4667, "cam": 12583, "\u0120Already": 41332, "\u0120Theo": 48511, "asse": 18546, "\u0120widening": 50050, "\u00c3\u00a9tait": 36748, "iret": 38959, "\u0120UT": 28602, "\"};": 13334, "ped": 9357, "\u0120glare": 40332, "\u0120=": 426, "\u0120Occ": 17763, "pmed": 46552, "\u0120EIGEN": 49266, "\u0120Tr": 1535, "\u0120frost": 34724, "\u0120ear": 2472, "\u0120cloak": 35053, "mp": 2503, "\u0120intrusion": 39482, "ViewController": 20775, "\u0120scrutin": 43668, "\u0120insistence": 45095, "\u0120fluid": 6514, "bright": 33951, "\u0120Henry": 8966, "\u0120dated": 15483, "%);": 34649, "momentum": 42647, "ient": 850, "\u0120pc": 21136, "\u0120Apply": 39530, "\u012022": 3307, "supp": 4032, "\u0120goto": 28357, "\u0120explicitly": 11120, "maybe": 28489, "Software": 31495, "imbabwe": 35976, "\u0120anisotropic": 35319, "\u0120Arthur": 15948, "\u0120ethanol": 16075, "\u0120conj": 7862, "\u0120Francis": 7980, "\u0120industries": 17057, "\u0120Nik": 17250, "ferences": 3065, "\u0120desper": 12298, "\u0120deputy": 19041, "dump": 23593, "\u0120TCP": 28371, "EMENT": 17260, "\u0120Modern": 16349, "\u0120Respond": 16546, "\u0120AF": 11854, "ouses": 15011, "relative": 27038, "\u00e3\u0123\u00ab\u00e3\u0123\u00af": 35300, "\u0120Freedom": 20574, "it\u00c3\u0142": 21622, "\u0120epithelium": 24936, "ostat": 30469, "\u0120male": 5086, "diss": 36884, "\u0120AMER": 36041, "\u0120223": 26879, "\u0120patio": 42801, "technology": 48786, "\u0120ecl": 42267, "igger": 16046, "\u0120sliding": 20661, "\u0120\\{": 9121, "523": 44219, "\u0120ease": 11990, "yset": 19518, "mathds": 33857, "\u0120intercourse": 33755, "\u0120medicines": 26114, "Application": 12332, "\u0120popularity": 18395, "\u0120att": 863, "\u0120phenyl": 29901, "\u0120assayed": 38284, "\u00c5\u0124y": 47016, "\u0120'+": 47526, "ency": 1371, "\u0120conflict": 7344, "\u0120excitatory": 43740, "\u0120We": 844, "ny": 5134, "isc": 2865, "\u01201988": 11513, "Rank": 34337, "\u0120natural": 3626, "\u0120herein": 11249, "\u012044": 7127, "\u0120Winter": 17802, "inyl": 16979, "\u0120LPS": 18945, "\u0120Lic": 17247, "\u0120Miami": 16146, "\u0120XML": 14784, "\u0120CLASS": 28085, "Bo": 11478, "Ich": 39980, "\u0120\u0120\u0120\u0120\u0120\u0120\u0120\u0120\u0120\u0120\u0120\u0120\u0120\u0120\u0120\u0120\u0120\u0120\u0120\u0120\u0120\u0120\u0120\u0120\u0120\u0120\u0120\u0120\u0120\u0120\u0120\u0120\u0120\u0120\u0120\u0120\u0120\u0120\u0120\u0120\u0120\u0120\u0120\u0120\u0120\u0120\u0120\u0120\u0120\u0120": 19617, "\u0120influx": 32682, "\u00e0\u00b8\u00a5": 32601, "akia": 34335, "Partial": 43487, "\u0120TGF": 18785, "\u0120ideals": 26784, "\u0120Empty": 45598, "Central": 33339, "\u0120inconsistencies": 45611, "\u0120stitches": 46870, "41": 3156, "\u0120identifier": 21674, "'$": 9805, "\u00c2\u00ba": 11703, "\u0120wealth": 8788, "\u0120intellect": 10893, "\u0120Prime": 12128, "\u0120rein": 9838, "anne": 17416, "\u0120ST": 3915, "\u0120arrested": 9833, "\u0120screaming": 22233, "\u0120forgive": 23697, "330": 24070, "\u0120adviser": 28051, "oret": 7262, "Input": 8982, "\u0120psychological": 12264, "\u0120Gross": 28362, "ership": 4249, "\u0120dag": 31398, "\u0120337": 33624, "ability": 1430, "\u0120cancelled": 26224, "\u010a\u010a\u0120\u0120\u0120\u0120\u0120\u0120\u0120\u0120\u0120\u0120\u0120\u0120\u0120": 31072, "\u0120\u0120\u0120\u0120\u0120\u0120\u0120\u0120\u0120\u0120\u0120\u0120\u0120\u0120\u0120\u0120\u0120\u0120\u0120\u0120\u0120\u0120\u0120\u0120\u0120\u0120\u0120\u0120": 9219, "\u0120rabb": 26345, "horse": 33647, "\u0120Sebastian": 35972, "\u0120Pursuant": 37368, "\u0120AX": 41279, "\u0120grids": 42590, "\u0120propos": 2749, "ially": 1365, "ubert": 34762, "\u0120k\u00c3\u00a4": 27082, "uscular": 35109, "\u0120\u00e0\u00a4\u00aa": 42042, "LOCK": 32740, "\u0120Pine": 34289, "recorded": 44695, "\u0120.$$": 18822, "\u0120601": 41649, "eqno": 43913, "usa": 26407, "\u0120640": 37174, "\u01201897": 45265, "\u0120orthogonal": 19627, "deploy": 45552, "\u0120qualification": 35011, "\u0120Cars": 46759, "\u00e3\u0123\u00a6\u00e3\u0123\u0126\u00e3\u0123\u00be\u00e3\u0123\u013b": 47169, "\u0120feathers": 34099, "MeV": 42058, "affinity": 47854, "Universal": 49194, "ould": 450, "\u0120patch": 12097, "|-": 9973, "\u0120gastro": 16971, "!!!!": 18963, "\u0120Bars": 39400, "\u0120meson": 41341, "LC": 7988, "\u0120\u00c3\u00a9v": 45631, "plots": 42045, "\u0120need": 878, "\u00e4\u00b8\u0122": 9850, "\u0120branc": 11363, "\u0120tbl": 47838, "\u0120impulses": 48009, "agem": 31646, "\u0120hatred": 24307, "Playing": 49579, "\u0120integrates": 49661, "\\]": 696, "criminal": 50055, "\u0120shortcut": 28194, "entity": 21294, "\u0120prestige": 46466, "\u0120Sgt": 48653, "\u0120pools": 24283, "10": 740, "\u0120priorit": 23652, "ventional": 26743, "biom": 29812, "pH": 24867, "\u0120kDa": 30527, "\u0120inception": 39645, "Animal": 42675, "\u0120seminar": 44588, "uations": 12542, "\u0120retros": 14582, "cp": 7693, "INCLUDE": 47128, "\u0120jou": 42138, "\u0120preclude": 31423, "azard": 38364, "1932": 48184, "\u0120Seems": 50140, "\u0120gathered": 13037, "\u0120Getty": 21902, "illance": 11845, "\u0120Collins": 20146, "\u0120update": 5731, "\u0120Huang": 37024, "\u0120impartial": 38919, "\u0120respectively": 2975, "posted": 50096, "366": 25772, "missions": 8331, "board": 4697, "second": 9815, "nix": 47352, "\u0120axe": 44910, "orem": 4362, "hint": 42988, "\u0120dav": 34843, "serv": 1498, "\u0120schizophren": 21730, "\u0120heed": 43119, "\u0120droplets": 30244, "\u0120Tub": 39942, "\u0120regimen": 24020, "\u0120polishing": 35952, "\u0120Broad": 13796, "\u0120helmet": 26358, "\u0120premature": 20346, "Please": 7845, "\u0120hypot": 37251, "\u0120weddings": 50225, "ley": 2205, "duction": 10083, "\u0120phosphorylation": 13655, "yle": 2172, "\u0120move": 2118, "adder": 14630, "\u0120Urban": 24517, "\u0120skeletal": 20847, "SP": 4350, "locale": 33113, "\u0120grouped": 24104, "nuts": 33507, ")*": 2888, "445": 40948, "\u0120Rein": 35013, "\u0120reacts": 44865, "\u0120complication": 23950, "ologous": 17359, "./": 11379, "\u0120wh": 364, "\u0120ton": 7020, "\u00c2\u00a3": 14775, "\u0120distinguished": 15622, "\u0120tro": 6727, "\u0120subset": 8578, "plicit": 20692, "LOCAL": 34041, "membrane": 27313, "\u0120preferable": 29224, "YES": 24239, "istics": 3397, "\u0120antim": 19254, "\u0120drive": 4446, "653": 35726, "574": 38503, "Errno": 30589, "\u0120anec": 34009, "enough": 40252, "\u0120brackets": 26609, "thereum": 36376, "\u0120multimedia": 38195, "Canvas": 39442, "\u0120prescribing": 41776, "\u0120joking": 43707, "\u0120238": 27518, "\u0120repair": 8706, "greg": 6130, "rig": 10389, "\u0120uniqueness": 34002, "\u0120resurrection": 44515, "\u0120abuse": 7242, "\u0120bipartisan": 45320, "\u0120filament": 26533, "\u0120dr": 1837, "olite": 46431, "osities": 48250, "\u0120cfg": 49088, "ved": 1272, "NUMBER": 40804, "Official": 38023, "rolled": 9095, "\u0120Rus": 29132, "\u0120futile": 42568, "\u0120Sixth": 25164, "\u0120assaults": 44848, "\u0120score": 4868, "\u0120Osw": 45530, "092": 46838, "sulf": 30923, "ippet": 25479, "\u0120Stewart": 19498, "\u0120plurality": 11234, "\u0120$\\|": 31357, "\u0120phosphatidyl": 48093, "attle": 4046, "\u0120950": 49305, "everything": 35773, "\u00e7\u00bb\u0131": 49344, "evol": 32805, "\u0120bras": 41797, "\u0120localities": 48630, "\u0120nets": 37507, "726": 49510, "\u0120warrants": 32570, "\u0120Pole": 45724, "aga": 12727, "\u0120takeover": 48896, "\u0120bigger": 8750, "197": 18493, "\u0120M\u00c3\u00a9": 36912, "\u0120\u00cf\u0125\u00ce\u00b5": 40647, "\u0120cogn": 7709, "\u0120expense": 14247, "MSCs": 31412, "'.\"": 41306, "\u0120Family": 12079, "\u0120lifes": 32051, "\u0120shook": 11898, "\u0120493": 43476, "chel": 29311, "\u0120Whe": 13274, "^{{\\": 19022, "\u0120player": 4760, "UIT": 41270, "\u0120replay": 44864, "rbrace": 46130, "zeta": 7597, "\u0120Defendant": 8167, "\u0120gossip": 34168, "containing": 15408, "ogram": 12935, "\u0120quas": 21582, "Tri": 24490, "\u01201913": 33920, "\u0120Sport": 21483, "\u0120Working": 21919, "\u0120see": 923, "\u0120Private": 20859, "\u0120Elli": 34221, "\u0120protecting": 15233, "\u0120Friend": 25845, "\u0120chromium": 50064, "Initial": 23527, "\u0120=\\": 14680, "Abs": 18310, "\u00e6\u012b\u0122": 25276, "thor": 42771, "\u0120rocks": 16419, "DU": 28893, "\u0120decorated": 25701, "\u0120affiliated": 27312, "NdEx": 35539, "ptr": 4773, "\u0120def": 809, "+/-": 30700, "\u0120next": 1735, "\u0120souls": 23729, "\u0120Xavier": 49365, "INIT": 25844, "ille": 4002, "\u0120Cord": 31726, "\u0120Unicode": 39879, "758": 33607, "important": 18108, "\u0120regression": 9077, "\u00e5\u00b8": 15446, "cores": 38337, "Inflater": 45951, "187": 17306, "\u0120Alternative": 37757, "\u0120RSA": 42097, "readonly": 48719, "aporation": 33874, "References": 4941, "\u0120operators": 9158, "oides": 34910, "\u0120June": 3978, "\u0120small": 1355, "\u0120Counts": 45073, "herin": 29769, "\u0120Header": 36471, "ronic": 3462, "\u0120ju": 7166, "\u0120documented": 14290, "lord": 20305, "\u0120matern": 45171, "\u0120Abdullah": 49445, "\u0120Second": 6347, "\u0120Beck": 17600, ")^{-": 14607, "\u00e5\u0127\u00a8": 30423, "bel": 8382, "\u0120military": 4668, "ui": 4113, "\u0120dealers": 31346, "ns": 2224, "\u0120\u00e2\u0124\u00ac": 17275, "Ul": 40026, "\u0120engineer": 16518, "iset": 42468, "anchez": 31432, "abin": 25967, "\u00e2\u013b\u00aa": 12218, "\u0120however": 2299, "\u0120screen": 3601, "\u0120previously": 3786, "\u0120referendum": 26479, "\u0120deterministic": 30027, "uginosa": 36530, "ilage": 22775, "\u0120Memphis": 33199, "\u00e2\u0122\u00a6\u00e2\u0122\u00a6": 18780, "\u0120Franco": 39035, "toxic": 39826, "\u0120grapp": 41879, "osse": 37554, "438": 40848, "\u0120tradem": 20033, "raint": 5335, "\u0120Beautiful": 34718, "\u0120albumin": 24641, "otype": 5174, "video": 16455, "score": 18891, "DY": 32201, "\u0120predicting": 21565, "14": 1047, "\u0120received": 2959, "\u0120similar": 2074, "\u0120Atl": 8628, "Great": 15611, "\u0120buzz": 23357, "\u0120Atty": 26712, "\u0120positivity": 34324, "\u00e5\u00b8\u00b8": 36548, "\u0120shorten": 48399, ")=(": 28844, "\u0120blocked": 13230, "\u0120unde": 15560, "\u0120Walker": 16156, "JC": 32318, "\u0120Diana": 33240, "anyahu": 36640, "\u0120cortex": 14031, "\u0120delegates": 30679, "\u0120alloc": 9771, "\u0120gained": 12103, "\u0120styling": 43753, "\u0120condemned": 26212, "\u0120Huntington": 49098, "digest": 49534, "\u0120Cp": 29049, "title": 5564, "\u0120chromatin": 24014, "\u0120ordinance": 25245, "\u0120Sandy": 27504, "\u0120Chu": 48012, "Cong": 22960, "\u0120phot": 2359, "langle": 4841, "\u0120necessity": 15504, "\u0120Parlament": 33867, "lon": 18640, "\u0120realizes": 36683, "\u0120Carlo": 22799, "\u0120screwed": 34672, "\u0120dent": 13822, "\u0120neck": 7623, "\u0120Herbert": 30806, "\u0120exported": 34652, "FER": 38064, "pers": 5726, "\u00c3\u0132\u00c2\u00b5": 18251, "\u00c3\u00a1n": 9435, "zzles": 44426, "\u0120NOW": 29659, "\u0120discouraged": 42965, "er": 254, "opath": 11036, "))/(-": 38327, "boldsymbol": 5664, "\u0120deliber": 12465, "\u012079": 11275, "kern": 25272, "\u0120cluster": 7368, "collapse": 33683, "aptop": 48013, "\u0120Glu": 35850, "\u0120complexes": 12872, "02": 2640, "\u0120threats": 14207, "Ama": 28488, "\u0120Lecture": 49090, "\u0120(;": 42744, "Phase": 30335, "corresponding": 47771, "\u0120straight": 4951, "\u0120(\\": 5081, "\u0120atmospheric": 22018, "\u0120flattened": 42394, "\u0120invading": 45573, "Mel": 23021, "\u0120collector": 25389, "ipheral": 41762, "Jy": 44257, "\u0120eup": 43398, "\u0120overlay": 33828, "\u0120mas": 9425, "\u0120Rousseau": 48403, "\u0120Constitutional": 39722, "widgets": 49875, "\u0120Princ": 13545, "\u0120clips": 29205, "atem": 31587, "\u0120storm": 9902, "\u0120PCB": 43463, ".?": 50057, "orted": 7551, "\u0120voor": 13513, "\u0120nullptr": 28471, "Speaking": 28326, "\u0120deported": 48004, "otox": 10505, "\u0120Store": 16106, "Call": 7865, "\u0120kick": 8386, "\u0120lobby": 16612, "\u0120Breast": 41046, "\u0128": 217, "\u0120transported": 20870, "datab": 35549, "logic": 46786, "ktion": 44222, "\u010a\u0120\u0120\u0120\u0120\u0120\u0120\u0120\u0120\u0120\u0120\u0120\u0120\u010a\u0120\u0120\u0120\u0120\u0120\u0120\u0120\u0120\u0120\u0120\u0120": 46336, "297": 23185, "appro": 6772, "\u0120Magic": 21577, "Brazil": 41946, "getInstance": 43616, "hi": 5801, "ienn": 45117, "\u0120expr": 40280, "\u0120iss": 1521, "\u0120Your": 5402, "alias": 29913, "\u0120amusing": 38420, "00000000": 4226, "iant": 6231, "\u0120geo": 45267, "\u0120destroys": 46340, "\u00c5\u0135": 30075, "\u0120suc": 8227, "\u0120overwhelmingly": 42935, "\u0120wondered": 13876, "\u0120massively": 48994, "\u0120ICP": 48767, "Lists": 50030, "\u0120transcriptional": 18304, "notes": 21377, "\u0120Infantry": 33166, "vironment": 2671, "although": 20261, "\u0120Select": 16551, "\u0120switch": 5234, "\u0120Pro": 1294, "emb": 16697, "\u0120coun": 2258, "\u0120xmlns": 15664, "\u0120endorsement": 32116, "\u0120blogs": 24960, "uin": 19014, "\u00ef\u00bc\u012a": 14236, "\u0120Ang": 4965, "\u0120\u0120\u0120\u0120\u0120\u0120\u0120\u0120\u0120\u0120\u0120\u0120\u0120\u0120\u0120\u0120\u0120\u0120\u0120\u0120\u0120\u0120\u0120\u0120\u0120\u0120\u0120\u0120\u0120\u0120\u0120\u0120\u0120\u0120\u0120\u0120\u0120\u0120\u0120\u0120\u0120\u0120\u0120\u0120\u0120\u0120\u0120\u0120\u0120\u0120\u0120\u0120\u0120\u0120\u0120\u0120\u0120\u0120\u0120\u0120\u0120": 24245, "\u0120Sak": 29869, "\u0120canine": 33110, "\u0120interpretations": 27838, "Ready": 31777, "\u0120recycl": 18490, "olution": 2241, "\u0120lugar": 33479, "\u00e0\u00b5\u012f": 33695, "\u0120#": 1852, "\u0120NBC": 22303, "\u0120specially": 24443, "\u0120TCR": 34193, "\u0120MLB": 36481, "\u0120COM": 8610, "\u0120Satan": 28364, "\u0120610": 43385, "Idx": 34345, "BC": 3979, "\u0120Mage": 45851, "\u0120EX": 8021, "nsylvania": 11187, "\u0120636": 49921, "\u0120$": 370, "\u0120namespace": 12953, "]{": 1019, "\u0120sentencing": 14625, "\u0120FP": 25127, "\u00c6\u00a1": 47170, "ivity": 2351, "\u0120ultimately": 9142, "kar": 18970, "onial": 24755, "\u00e3\u0123\u00bf": 26725, "549": 25469, "pes": 19064, "\u0120evolutionary": 16483, "422": 28418, "\u0120mission": 7517, "\u0120USS": 47800, "\u0120exams": 34666, "\u0120Zion": 29452, "||": 9473, "eking": 22230, "\u0120unprecedented": 23663, "storage": 22214, "heading": 33049, "eft": 30698, "\u0120lbs": 38818, "ilin": 39806, "\u0120northwest": 29979, "Kn": 18933, "parameters": 22041, "anton": 27813, "\u0120randomized": 14871, "Primary": 27967, "}~": 31193, "\u0120corrupted": 40634, "\u0120Jacob": 14737, "\u0120extraordin": 44876, "119": 12115, "rl": 8435, "\u0120Mick": 42735, "\u0120blocker": 45859, "lambda": 2260, "\u0120Dart": 39967, "\u0120durations": 47668, "\u0120requ": 997, "atham": 46621, "\u0120reception": 16112, "\u0120preach": 49383, "\u0120duck": 27985, "\u0120nausea": 33706, "\u0120communist": 33823, "pike": 37333, "\u0120dancer": 42411, "\u0120perhaps": 4931, "\u0120Part": 3512, "checking": 47009, "astro": 24157, "\u0120ownership": 12851, "\u0120dominated": 14691, "\u0120structural": 8350, "ona": 8440, "\u010d\u010a\u0120\u0120\u0120\u0120\u0120\u0120\u0120": 5452, "ricia": 32055, "Strategy": 35548, "\u0120DG": 39268, "\u0120{$": 37189, "\u0120slips": 42282, "\u0120furnace": 33926, "\u00d1\u012c\u00d1\u0122": 41663, "ASHINGTON": 38815, "CRIPT": 22068, "Parts": 49563, "\u0120sticking": 26530, "fa": 6855, "\u0120Unless": 15999, "\u0120Astr": 22042, "\u0120taxa": 29821, "\u0120embargo": 39135, "STD": 34504, "cuador": 37487, "reviewed": 33349, "scient": 30202, "Buy": 37517, "\u0120nud": 34408, "\u00cf\u0125\u00ce\u00b5\u00ce\u00b9": 33629, "\u00e3\u0123\u00a3\u00e3\u0123\u0141": 18514, "\u0120ho": 8511, "\u0120cubes": 37072, "\u0120consented": 42243, "hybrid": 44972, "essa": 15959, "\u0120Sessions": 35015, "enso": 49200, "\u0120crest": 30402, "picture": 22659, "\u0120Orleans": 20159, "\u0120companion": 16866, "Coll": 19013, "\u00e6\u00b3\u0137": 20113, "\u00e0\u00a5\u012d": 25159, "\u0120veget": 8466, "quit": 48997, "otyp": 6042, "\u0120graphene": 23076, "Pen": 26008, "\u0120out": 562, "130": 11246, "FK": 27168, "650": 31036, "\\{\\": 17567, "\u0120helix": 37324, "\u0120libr": 40211, "529": 45316, "omes": 6819, "\u0120Bios": 21160, "\u0120sh": 439, "\u0120nons": 14122, "oused": 24695, "\u0120quotient": 26860, "\u0120Natalie": 50033, "\u0120thank": 5717, "\u0120approved": 7012, "itrogen": 10682, "\u0120Cath": 8842, "Border": 29694, "\u0120lors": 40841, "\u0120pla": 24939, "\u0120leaned": 18274, "\u0120Welfare": 34142, "\u0120Sky": 16194, "Font": 16976, "\u0120perceptions": 24789, "\u0120support": 1329, "dex": 2465, "\u0120COMM": 15135, "north": 37436, "\u0120airlines": 39995, "\u0120employer": 11169, "Library": 20607, "\u0120jamais": 46109, "Foot": 20212, "\u012038": 6480, "\u0120incarn": 40553, "\u00e3\u0123\u0135\u00e3\u0123\u00a8\u00e3\u0123\u012e": 46770, "\u00ef": 171, "/+": 23615, "\u0120Nathan": 23662, "\u0120assortment": 50131, "rium": 9007, "\u0120Debtor": 22736, "\u0120motions": 14462, "\u00d1\u0124\u00d0\u00be\u00d1\u0122": 18706, "\u012045": 5329, "piece": 14705, "alled": 18859, "\u0120starch": 31001, "INK": 15130, "\u0120poets": 32976, "sense": 33829, "641": 33976, "\u0120Note": 5838, "\u0120uter": 22837, "\u0120poco": 42592, "\u0120Mother": 12273, "\u0120Dra": 23701, "noise": 24946, "\u0120dieser": 41253, "\u0120Fox": 11024, "\u0120Cambodia": 41984, "J": 43, "ractical": 26080, "olded": 28102, "omination": 45455, "ooo": 50036, "\u0120know": 871, "FileType": 48632, "ollary": 17405, "\u0120Europe": 3060, "\u0120tickets": 14997, "ions": 621, "Lu": 22653, "\u0120viel": 35566, "1978": 19791, "KN": 25227, "female": 35686, "\u010a\u0120\u0120\u0120\u0120\u0120": 1043, "\u0120standards": 7465, "Left": 11875, "\u0120sadly": 30018, "\u0120bullshit": 35281, "\u0120State": 2418, "\u0120Durham": 37870, "\u0120473": 38961, "\u0120Vernon": 42171, "\u0120adiabatic": 44378, "\u0120cube": 23636, "414": 32631, "ograph": 2047, "reliable": 31631, "\u0120concentrating": 45012, "up": 484, "\u0120diplomat": 41318, "\u0120plung": 31314, "\u0120revived": 43941, "\u0120willful": 47187, "ouden": 48057, "\u0120wolves": 36162, "785": 49082, "umu": 49304, "\u0120teams": 6671, "\u0120maar": 33893, "\u0120dove": 38688, "\u0120Hold": 21476, "\u0120oxides": 40095, "\u0120hyperplasia": 42127, "kered": 40617, "\u0120Glass": 23219, "\u0120facto": 32924, "ylase": 38578, "\u0120Tap": 37113, "\u0120whats": 47515, "\u00e3\u0123\u0133": 17531, "\u0120unusual": 11555, "$/": 32865, "jax": 20262, "\u010d\u010a\u0120\u0120\u0120": 3568, "judge": 47075, "\u0120revenge": 25442, "\u00d0\u00b0\u00d1\u0124\u00d0\u00b0": 27372, "loop": 14075, "\u0120popping": 42084, "\u0120Fans": 47472, "--------": 397, "\u0120oceans": 40277, "children": 13863, "\u0120PUBLIC": 35283, "\u0120unrestricted": 48566, "\u0120deprived": 25979, "\u0120Air": 6037, "924": 49102, "\u0120Barn": 15359, "\u0120P": 367, "ublic": 975, "checkbox": 30204, "\u01201898": 42122, "\u0120SCH": 44026, "\u0120comparing": 10941, "\u0120Loading": 32784, "urers": 45011, "\u00ce\u00b1\u00cf\u0125": 40051, "MOV": 40498, "endent": 20708, "\u0120ese": 38044, "INLINE": 33192, "\u0120investigate": 7409, "\u0120trac": 43944, "\u0120puts": 12516, "\u00c2\u0127": 16643, "\u00e9\u013e\u0122": 41085, "\u0120province": 14254, "\u0120noises": 33737, "\u0120unrest": 27572, "autions": 36336, "(%": 24722, "\u0120Ins": 6995, "scriptscriptstyle": 27886, "\u0120facie": 31452, "\u0120footsteps": 33535, "riter": 12327, "Life": 14660, "visor": 16179, "\u0120Buffalo": 28299, "aggreg": 46601, "Fig": 1470, "comfort": 12625, "bach": 16836, "\u0120Mort": 16905, "\u0120Importantly": 27628, "\u0120escaped": 18993, "\u0120MAN": 31250, "Background": 15633, "\u0120person": 1436, "\u0120canvas": 18857, "\u0120bitch": 23331, "UTR": 33660, "\u0120recommendations": 12645, "cards": 35817, "stat": 8766, "\u0120JP": 24144, "\u0120Coc": 40825, "\u0120nuisance": 41843, "\u00e9\u013a": 29852, "\u0120rural": 11393, "\u0120prize": 17767, "ustain": 28216, "rn": 30930, "rite": 3852, "\u0120knowingly": 30210, "\u0120dry": 6079, "\u0120marsh": 32341, "\u0120*/,": 33701, "\u0120Keys": 38793, "\u0120soul": 7765, "\u0120adapting": 42174, "inject": 44155, "\u00d0\u00b0\u00d0\u00bd": 6754, "\u0120Mexico": 8987, "\u0120301": 24271, "\u00c3\u00b8re": 45299, "\u0120acetyl": 27802, "\u0120tetr": 35263, "texture": 38595, "\u0120Claude": 39107, "043": 21045, "elines": 25379, "\u0120commanders": 39717, "\u0120Activ": 39750, "uscript": 7468, "\u0120unnamed": 42540, "\u0120squarely": 48859, ")}$.": 28185, "\u0120hard": 1892, "ETS": 45467, "provider": 33008, "\u012015": 1458, "archy": 12638, "\u0120resection": 19187, "\u0120refrain": 35531, "idea": 36665, "\u0120essentially": 9093, "waukee": 29298, "oplan": 37200, "ving": 1382, "TERN": 46811, "describe": 49027, "\u0120stressors": 49834, "\u0120nan": 6399, "\u0120bem": 36664, ")(": 2769, ">()": 31759, "\u0120flexible": 12112, "eren": 22061, "\u0120NSString": 31681, "\u0120museums": 34028, "\u0120Athletics": 49402, "11": 883, "\u0120Rash": 40934, "\u0120prism": 49615, "eness": 8098, "\u0120mutation": 10577, "\u0120perpendicular": 20277, "\u00e4\u00ba\u00ba": 13484, "uen": 31526, "\u0120spokeswoman": 35027, "\u0120lever": 19732, "\u0120revisions": 38549, "\u0120RIP": 41218, "\u0120superconducting": 32890, "\u0120encourages": 29426, "\u0120Managing": 47651, "\u0120lane": 18209, "\u0120Cor": 3094, "\u0120mirror": 11472, "\u0120Above": 32761, "\u0120regim": 17350, "\u0120rh": 13882, "1986": 14880, ".__": 24856, "WP": 28124, "\u010a\u010a": 535, "\u0120reckless": 32397, "\u0120replicated": 37221, "otransferase": 47640, "IVER": 35043, "sett": 12569, "\\\\": 3353, "Aldrich": 26155, "UInt": 39136, "\u0120fiscal": 17940, "\u0120Moving": 39207, "\u0120compar": 3294, "\u0120homepage": 47978, "Perm": 23513, "\u0120ting": 39838, "\u0120Yas": 48171, "\u0120fierc": 41899, "\u0120categor": 13213, "\u0120cred": 3552, "\u0120chromat": 15346, "\u0120resume": 21058, "\u0120\u00cf\u0126\u00ce\u00b7\u00ce\u00bd": 25628, "orum": 26606, "\u0120Theatre": 19670, "\u0120SPE": 23012, "\u0120homem": 29590, "\u0120diaphragm": 34622, "\u0120spec": 946, "\u0120preferably": 13027, "bage": 16229, "\u0120Cat": 12441, "\u0120acting": 8534, "submit": 21399, "esa": 37036, "\u0120evacuation": 39774, "acci": 42401, "\u0120eruption": 46140, "\u0120Dalton": 46262, "Photos": 46570, "\u0120p\u00c3\u00a4": 49635, "\u0120mole": 3478, "yers": 13356, "plement": 3018, "\u0120Oregon": 15427, "\u0120recombination": 22989, "\u0120458": 42700, "\u0120Scene": 45258, "\u0120throws": 12326, "\u0120entitled": 7429, "\u0120monk": 35295, "\u0120diffe": 845, "ident": 888, "task": 14605, "\u00c5\u0141": 9663, "mails": 42453, "onstr": 26739, "\u0120copolymer": 37798, "film": 18405, "\u0120DH": 22886, "\u0120ils": 38934, "within": 24767, "\u0120Enterprises": 48327, "\u0120avoided": 16371, "\u0120pornography": 37314, "\u0120synth": 23234, "\u0120scree": 48675, "anol": 9201, "\u0120ferment": 42990, "\u0120chrom": 5937, "\u0120Shannon": 35175, ")/(": 6959, "CONTROL": 37423, "oxygen": 26649, "wards": 4515, "iza": 21631, "\u0120471": 41468, "\u0120const": 1030, "While": 6175, "\u00e5\u012c": 11043, "\u0120\u00d0\u00b0": 15057, "\u0120155": 20029, "\u0120Prob": 27849, "\u0120Enable": 34747, "\u00e2\u0122\u013b": 457, "340": 23695, "\u0120hurricane": 37705, "\u0120comeback": 41759, "pitch": 45935, "937": 47508, "\u0120ett\u00c3\u00a4": 20463, "\u0120lion": 27405, "Govern": 47795, "\u0120badly": 16426, "\u0120provides": 3400, "\u0120Archives": 23728, "\u0120190": 21732, "particle": 25268, "\u0120Sam": 5769, "ressions": 37761, "\u0120baby": 6858, "\u0120Nicol": 49596, "\u0120dev": 1474, "arn": 1596, "\u0120stru": 4630, "\u0120Display": 27604, "\u0120centers": 12127, "CRP": 41836, "Height": 13881, "\u0120indicate": 5224, "\u0120actors": 14142, "\u0120quietly": 16092, "una": 9821, "\u0120fibrin": 31113, "E": 38, "ising": 2182, "_;": 17540, "_-": 18914, "\u0120\u0120\u0120\u0120\u0120\u0120\u0120\u0120\u0120\u0120\u0120\u0120\u0120\u0120\u0120\u0120\u0120\u0120\u0120\u0120\u0120\u0120\u0120\u0120\u0120": 7643, "ivia": 27561, "acion": 33271, "\u0120height": 4898, "\u0120decades": 8007, "\u0120amplic": 48537, "icken": 20471, "<>": 36784, "\u0120------------------------": 31589, "\u0120Tor": 7608, "oint": 842, "Ste": 6812, "\u0120Janet": 35685, "\u0120scrape": 49939, "\u0120Dillon": 45393, "berries": 25058, "\u0120Eden": 36220, "irie": 34891, "\u0120Level": 15557, "\u0120colors": 9830, "ayer": 4071, "faster": 27032, "\u0120futures": 36424, "weet": 8775, "total": 13074, "_{{\\": 6263, "\u0120phenomenal": 44294, "oprop": 27403, "\u00e2\u0122\u0136'": 46823, "\u0120sprayed": 48490, "\u0120apparently": 8505, "\u0120reflective": 29210, "\u0120coupling": 8789, "ger": 1063, "\u0120revive": 47122, "knock": 48459, "IB": 5472, "asia": 13411, "Focus": 26078, "obal": 3051, "expand": 28834, "FileName": 29529, "SYSTEM": 47146, "URL": 9715, "Mir": 24143, "\\^[": 26997, "\u0120provoke": 46554, "\u0120delir": 47556, "\u0120astronaut": 35807, "\u0120Wings": 44363, "\u0120nanow": 48239, "olu": 50025, "byte": 8833, "represented": 33174, "\u0120font": 8266, "\u0120founding": 23569, "\u0120electronic": 7051, "olation": 17888, "elman": 35406, "high": 8656, "\u0120titled": 18879, "\u0120(!(": 45496, "\u0120converted": 11516, "\u0120unlawful": 21545, "\u0120betray": 19829, "\u0120570": 39615, "\u0120main": 2022, "\u0120Instruction": 41959, "hh": 12155, "\u0120sailing": 31474, "\u0120orderly": 42062, "QJ": 42806, "\u0120Bj": 45257, "focused": 34821, "\u0120Yam": 27117, "innings": 32599, "iousness": 35715, "annot": 11423, "ATH": 10948, "\u0120??": 38199, "manual": 39842, "yll": 21767, "\u0120\u0120\u0120\u0120\u0120\u0120\u0120\u0120\u0120\u0120\u0120\u0120\u0120\u0120\u0120\u0120\u0120\u0120\u0120\u0120\u0120\u0120\u0120\u0120\u0120\u0120\u0120\u0120\u0120\u0120\u0120\u0120\u0120\u0120\u0120\u0120\u0120\u0120\u0120\u0120\u0120\u0120\u0120\u0120\u0120\u0120\u0120\u0120\u0120\u0120\u0120\u0120\u0120\u0120\u0120\u0120\u0120\u0120\u0120\u0120\u0120\u0120\u0120\u0120\u0120\u0120\u0120\u0120\u0120\u0120\u0120\u0120\u0120\u0120\u0120\u0120\u0120\u0120\u0120\u0120\u0120\u0120\u0120\u0120\u0120\u0120\u0120\u0120\u0120\u0120\u0120\u0120\u0120\u0120\u0120\u0120\u0120\u0120\u0120\u0120\u0120\u0120\u0120\u0120\u0120\u0120\u0120\u0120\u0120\u0120\u0120\u0120\u0120\u0120\u0120\u0120\u0120\u0120\u0120\u0120\u0120\u0120\u0120\u0120\u0120\u0120\u0120\u0120\u0120\u0120\u0120\u0120\u0120\u0120\u0120\u0120\u0120\u0120\u0120\u0120\u0120\u0120\u0120\u0120\u0120\u0120\u0120\u0120\u0120\u0120\u0120\u0120\u0120\u0120\u0120\u0120\u0120\u0120\u0120\u0120\u0120\u0120\u0120\u0120\u0120\u0120\u0120\u0120\u0120\u0120\u0120\u0120\u0120\u0120\u0120\u0120\u0120\u0120\u0120\u0120\u0120\u0120\u0120\u0120\u0120\u0120\u0120\u0120\u0120\u0120\u0120\u0120\u0120\u0120\u0120\u0120\u0120\u0120\u0120\u0120\u0120\u0120\u0120\u0120\u0120\u0120\u0120\u0120\u0120\u0120\u0120\u0120\u0120\u0120\u0120\u0120\u0120\u0120\u0120\u0120\u0120\u0120\u0120\u0120\u0120\u0120\u0120\u0120\u0120\u0120\u0120\u0120\u0120\u0120\u0120\u0120\u0120\u0120\u0120\u0120\u0120\u0120\u0120\u0120\u0120\u0120\u0120\u0120\u0120\u0120\u0120\u0120\u0120\u0120\u0120\u0120\u0120\u0120\u0120\u0120\u0120\u0120\u0120\u0120\u0120\u0120\u0120\u0120\u0120\u0120\u0120\u0120\u0120\u0120\u0120\u0120\u0120\u0120\u0120\u0120\u0120\u0120\u0120\u0120\u0120\u0120\u0120\u0120\u0120\u0120\u0120\u0120\u0120\u0120\u0120\u0120\u0120\u0120\u0120\u0120\u0120\u0120\u0120\u0120\u0120\u0120\u0120\u0120\u0120\u0120\u0120\u0120\u0120\u0120\u0120\u0120\u0120\u0120\u0120\u0120\u0120\u0120\u0120\u0120\u0120\u0120\u0120\u0120\u0120\u0120\u0120\u0120\u0120\u0120\u0120\u0120\u0120\u0120\u0120\u0120\u0120\u0120\u0120\u0120\u0120\u0120\u0120\u0120\u0120\u0120\u0120\u0120\u0120\u0120\u0120\u0120\u0120\u0120\u0120\u0120\u0120\u0120\u0120\u0120\u0120\u0120\u0120\u0120\u0120\u0120\u0120\u0120\u0120\u0120\u0120\u0120\u0120\u0120\u0120\u0120\u0120\u0120\u0120\u0120\u0120\u0120\u0120\u0120\u0120\u0120\u0120\u0120\u0120\u0120\u0120\u0120\u0120\u0120\u0120\u0120\u0120\u0120\u0120\u0120\u0120\u0120\u0120\u0120\u0120\u0120\u0120\u0120\u0120\u0120\u0120\u0120\u0120\u0120\u0120\u0120\u0120\u0120\u0120\u0120\u0120\u0120\u0120\u0120\u0120\u0120\u0120\u0120\u0120\u0120\u0120\u0120\u0120\u0120\u0120\u0120\u0120\u0120\u0120\u0120\u0120\u0120\u0120\u0120\u0120\u0120\u0120\u0120\u0120\u0120\u0120\u0120\u0120\u0120\u0120\u0120\u0120\u0120\u0120\u0120\u0120\u0120\u0120\u0120\u0120\u0120\u0120\u0120\u0120\u0120\u0120\u0120\u0120\u0120\u0120\u0120\u0120\u0120\u0120\u0120\u0120\u0120\u0120\u0120\u0120\u0120\u0120\u0120\u0120\u0120\u0120\u0120\u0120\u0120\u0120\u0120\u0120\u0120\u0120\u0120\u0120\u0120\u0120\u0120\u0120\u0120\u0120\u0120": 19979, "sciously": 43386, "\u0120dist": 940, "\u0120unique": 4451, "n": 79, "\u0120sqlite": 45675, "\u0120Jul": 9218, "family": 11807, "igmat": 44916, "enches": 44404, "arXiv": 17418, "aw": 1403, "\u0120physical": 3520, "ographic": 5576, "Originally": 32234, "\u0120contrad": 10435, "idan": 31945, "\u00ec\u0138\u00b4": 39907, "\u0120alternatives": 18075, "Judge": 38126, "%--": 38396, "\u0120HAND": 46683, "\u0120categorized": 27948, ")\\,": 13941, "\u0120embeddings": 46234, "\u0120fiber": 9538, "\u0120Mach": 20310, "\u0120dealt": 18445, "\u0120\u0120\u0120\u0120\u0120\u0120": 979, "\u0120nonlinear": 14561, "idin": 21480, "\u0120Brisbane": 40767, "\u0120\u00e2\u0122\u0135,": 22049, "\u0120Nixon": 26089, "\u00e5\u0125": 32653, "\u0120hearsay": 35513, "\u0120pleural": 46388, "Paul": 17239, "\u0120Arch": 7984, "Cons": 9323, "\u0120acid": 3527, "\u0120hash": 13283, "\u0120Fifth": 17538, "193": 19631, "fair": 25525, "\u0120absurd": 20873, "\u0120pork": 23914, "olutions": 17009, "ACH": 16319, "\u0120\u00e2\u0122\u00a2": 10983, "\u0120reven": 15008, "ificance": 40348, "\u0120pioneering": 45200, "}$\\": 23743, "ba": 5830, "\u0120Nach": 41535, "\u0120message": 3935, "\u0120BMP": 37985, "\u0120lighting": 15632, "\u0120Clem": 48930, "\u0120Nem": 37901, "\u0120rig": 8132, "GNU": 47509, "rass": 13404, "\u0120son": 3347, "\u0120counselor": 42687, "\u0120colloqu": 50014, "\u0120\u00d0\u00bd\u00d0\u00b5": 12880, "\u0120parliamentary": 30566, "trunc": 39315, "\u0120cochle": 48751, "\u0120surprise": 9326, "fmt": 20602, "untu": 4573, "header": 10146, "ument": 1303, "\u0120hesitated": 32360, "\u0120racial": 15066, "odia": 28539, "\u0120complic": 5177, "\u0120**[": 41361, "Break": 30389, "\u0120music": 3440, "\u0120variational": 39762, ".--": 18295, "\u0120metropolitan": 37814, "))**": 20979, "\u0120ranch": 34034, "nose": 48848, "\u0120solved": 14042, "\u0120asked": 2546, "kin": 5914, "\u0120Hend": 20069, "\u0120Nancy": 23397, "\u0120Definition": 23709, "\u0120applause": 41958, "\u0120Comparing": 42438, "\u0120traumatic": 27784, "OS": 2697, "hoff": 35660, "uese": 20761, "\u00e2\u0122\u012b": 1186, "\u0120pom": 31204, "\u0120strangely": 38612, "ogg": 19613, "\u0120Foot": 12867, "\u0120farther": 21816, "hon": 25224, "\u0120prolif": 7987, "\u0120sua": 20983, "\u0120decomp": 30572, "\u00c2\u00ae": 8942, "\u0120turt": 31082, "\u0120Bis": 45941, "\u0120relevance": 17200, "\u0120demonstrating": 17227, "\u0120deput": 14158, "##": 817, "}^*": 19135, "\u0120$({\\": 30780, "\u0120caring": 23374, "\u0120IV": 8019, "\u0120cros": 23987, "Working": 32197, "\u0120Wi": 19516, "\u0120physiology": 32337, "\u0120WWE": 37888, "\u01201909": 38624, "\u0120$%": 40401, "\u0120Reading": 21108, "\u0120scar": 12689, "ishi": 31384, "vention": 4053, "\u0120Half": 23177, "\u0120publicity": 29957, "\u0120Ideas": 43504, "\u0120clog": 43848, "jel": 43879, "ibilities": 9594, "Jess": 45976, "\u0120purchased": 9716, "program": 14996, "\u0120interfering": 30809, "\u0120asleep": 17390, "Exchange": 49241, "verter": 20043, "\u0120enriched": 18839, "\u0120PBS": 13626, "Members": 22282, "\"})": 7547, "\u00d0\u00b0\u00d0\u00b7": 11995, "Xi": 21416, "\u0120pat": 869, "\u00e7\u013c\u0126": 5225, "\u0120630": 43138, "\u0120clones": 21825, "Disable": 46575, "heed": 45217, "\u0120trough": 39445, "anor": 29984, "vez": 29350, "\u0120funny": 11755, "limit": 17465, "Gate": 33919, "\u0120artifact": 34332, "\\(": 22229, "\u0120Point": 11149, "bial": 11588, "\u0120rolling": 14572, "haus": 25531, "ctica": 39536, "\u0120Anne": 17467, "\u0120Protein": 20112, "\u0120renewed": 23347, "openhagen": 38137, "mac": 12432, "imeter": 17121, "\u0120scalar": 13434, "\u0120124": 17294, "\u0120io": 17908, "\u0120probed": 39039, "\u0120algebra": 8697, "\u0120umbre": 29955, "\u0120eagle": 42484, "\u0120Cornwall": 44677, "\u0120Tyson": 47873, "\u0120Croatia": 42862, "\u0120Optional": 38016, "\u0120Montana": 27540, "\u0120WHE": 31286, "\u0120innovation": 15832, "iversary": 16488, "Callback": 18229, "\u0120ve": 1670, "\u0120experience": 2793, "\u0120Arg": 14979, ")/": 1933, "\u0120hierarchy": 19868, "Original": 25494, "\u0120RF": 15371, "antom": 25417, "\u0120Har": 3972, "\u0120wake": 11772, "Wrapper": 27757, "SNP": 47936, "ies": 447, "\u0120reward": 10921, "JSON": 17635, "arts": 12863, "airy": 17608, "\u0120sham": 23013, "\u0120aus": 16506, "\u0120hasta": 33869, "ptive": 20834, "\u0120optimum": 24571, "Comb": 26180, "\u0120flashing": 36070, "\u0120Anything": 33571, "\u0120profoundly": 38245, "\u0120sqrt": 8084, "\u0120Cron": 39186, "venue": 7290, "\u0120settling": 29116, "irement": 36728, "\u0120328": 33141, "\u0120Annie": 31338, "}{{\\": 17098, "rous": 18437, "\u0120publishers": 28329, "\u0120VP": 25867, "asian": 27933, "\u0120test": 1071, "DEX": 25408, "\u0120Yorker": 48215, "\u0120Year": 10519, "\u0120largest": 6253, "\u0120races": 15820, "\u0120incre": 1141, "\u0120amount": 2408, "\u00e2\u0122\u00a6]": 20095, "ouri": 13979, "\u0120annotation": 22581, "\u0120misunder": 23452, "recated": 18115, "\u00e5\u00ae\u00b6": 34091, "wey": 41285, "\u0120creative": 10995, "\u0120critically": 21038, "\u0120nada": 35927, "uitar": 36567, "\u00c2\u00b1": 3069, "\u0120Convert": 31308, "\u0120triggering": 30444, "Adam": 33467, "575": 41211, "\u00cf\u0127": 5117, "\u0120./": 27479, "thought": 24286, "\u0120Expect": 34697, "cancer": 30366, "\u0120th\u00c3\u00a9": 44134, "\u0120Volkswagen": 47486, "DEV": 15528, "\u0120doubts": 24626, "pbio": 27889, "Done": 34739, "\u0120crisis": 8891, "\u0120labelling": 46684, "\u0120/><": 19884, "\u0120Gu": 3262, "Personal": 27129, "\u0120wrap": 16384, "\u010a\u010a\u010a\u010a\u010a\u010a\u010a\u010a": 25330, "\u0120147": 20825, "\u0120Martinez": 28982, "0019": 33416, "assed": 39479, "\u00ef\u00bd": 20422, "ite": 614, "\u0120Hidden": 44145, "\u0120API": 8990, "\u0120Dep": 3315, "adel": 11391, "*(": 5355, "\u0120truly": 7777, "AME": 14081, "rivate": 6775, "ube": 4338, "\u0120dans": 7723, "\u0120biomark": 15236, "\u0120underway": 30361, "columnwidth": 33237, "activate": 36915, "\u0120LW": 43178, "iless": 47629, "\u0120CONCLUSION": 49950, "\u0120gifted": 36621, "\u00c2\u00b0": 3272, "\u012072": 8187, "\u0120Next": 10209, "\u0120dispose": 35125, "\u0120predecessors": 43211, "ansion": 6232, "porter": 18845, "\u0120interle": 25817, "\u0120Stra": 19967, "\u0120BH": 28789, "\u0120saving": 13868, "made": 12710, "\u0120pronounced": 17088, "pleted": 22631, ").)": 42968, "\u0120EGFR": 26720, "\u0120elic": 24021, "\u0120\u0120\u0120\u0120\u0120\u0120\u0120\u0120\u0120\u0120\u0120\u0120\u0120\u0120\u0120\u0120\u0120\u0120\u0120\u0120\u0120\u0120\u0120\u0120\u0120\u0120\u0120\u0120\u0120\u0120\u0120\u0120\u0120\u0120\u0120\u0120\u0120\u0120\u0120\u0120\u0120\u0120\u0120\u0120\u0120\u0120\u0120\u0120\u0120\u0120\u0120\u0120\u0120\u0120\u0120\u0120\u0120\u0120\u0120\u0120\u0120\u0120\u0120\u0120\u0120": 36321, "distance": 19893, "Ross": 44018, "\u0120poison": 14537, "\u0120Sed": 31593, "follow": 25739, "\u0120Musk": 42497, "married": 38982, "\u0120overexpression": 19911, "Acc": 11728, "\u0120semif": 45406, "\u0120remov": 5326, "umed": 21625, "\u0120gal": 5918, "forming": 14692, "\u00e8\u00af\u00b7": 44673, "\u00e5\u0132\u012f": 28610, "OUNT": 19984, "\u0120curl": 26721, "bara": 16231, "\u0120poster": 20731, "\u0120Keith": 24035, "\u0120\u00d0\u00ba\u00d0\u00be\u00d0\u00bd": 34464, "\u0120TW": 30694, "Var": 13248, "\u0120algebras": 21360, "Decimal": 44430, "Util": 12804, "\u0120disg": 20538, "Coord": 32876, "EGFR": 47447, "formatter": 47460, "olidated": 49999, "\u0120Od": 18668, "however": 35529, "\u0120qu": 572, "uje": 36295, "\u0120Haw": 9221, "}^+": 39106, "\u0120assignment": 12714, "\u0120Based": 10635, "\u0120determinants": 29647, "\u0120Sart": 44484, "\u0120champions": 28002, "uppose": 2384, "neider": 34629, "\u0120\u00d0\u00b4\u00d1\u0122\u00d1\u0125\u00d0\u00b3": 47601, "==========================": 48666, "\u0120Required": 41622, "\u0120ming": 43261, "\u0120utilized": 12845, "th": 394, "\u0120geb": 30722, "![**": 22367, "\u0120inoculated": 33599, "\u00e5\u00b7": 16385, "\u0120deleting": 37193, "ims": 14381, "880": 43277, "Sched": 37110, "assets": 26094, "RA": 5214, "STOP": 37547, "Crim": 39546, "\u0120Size": 19662, "Uint": 34440, "Food": 32473, "\u00cf\u0122\u00ce\u00b1": 42044, "aceutical": 13428, "hai": 16926, "\u0120action": 2250, "Additional": 14087, "\u0120marrow": 18440, "\u0120mosquito": 22790, "\u0120phrases": 25491, "cold": 32538, "Welcome": 21096, "pci": 33580, "\u0120Finnish": 36090, "\u0120HG": 46246, "Cli": 49452, "\u0120wound": 10785, "\u0120eighteenth": 37475, "ripp": 21743, "Joy": 47698, "\u0120especially": 3340, "tcp": 34133, "\u0120Disease": 18742, "\u00ee": 170, "142": 17364, "\u0120Determination": 48893, "olars": 10731, "ungen": 17079, "\u0120wrapped": 15312, "WAIT": 46176, "\u0120pendant": 41215, "\u0120bum": 47274, "\u0120Giul": 41527, "reed": 22767, "\u0120sulfur": 25524, "cyclop": 30120, "\u00d1\u0129": 4435, "\u0120ap": 1049, "screen": 14396, "\u00d0\u00b8\u00d0\u00bb": 15780, "\\!\\!\\!": 47996, "\u0120concentrate": 21364, "\u0120escap": 12870, "Match": 21008, "forum": 39061, "\u0120faithfully": 48479, "\u0120lifeless": 49825, "\u0120Dam": 12304, "\u0120bag": 7351, "fefefe": 41330, "\u0120deep": 3676, "assay": 33263, "\u0120permanent": 9928, "\u0120interpre": 18396, "optimal": 29776, "erialize": 44350, "Value": 3902, "\u00e9\u0129\u0133": 38001, "ece": 18393, "asm": 4542, "fonts": 8345, "------------------------------------------------------": 48904, "\u0120Corps": 17729, "\u00e6\u0139\u00a5\u00e6\u013e\u00ac": 49868, "\u0120enterprises": 32447, "adm": 44434, "\u00e8\u00a6\u0123": 18764, "\u0120adjuvant": 29398, "\u0120Lewis": 13054, "\u0120amplifier": 22742, "\u0120tips": 12192, "tok": 25348, "\u0120swung": 27858, "gregation": 18840, "\u0120Austrian": 29535, "ocese": 32143, "\u0120desires": 21044, "]_": 33376, "\u0120Might": 35284, "ulas": 37961, "\u0120Generated": 41415, "ractable": 44374, "\u0120realities": 34759, "050": 20812, "\u0120Cx": 49050, "adata": 10433, "\u0120answering": 22291, "\u0120Rachel": 22739, "itto": 35570, "\u0120negative": 4016, "ION": 2449, "\u0120delet": 8812, "\u0120scan": 11017, "\u0120eliminated": 17527, "\u0120mentioned": 5393, "\u0120examination": 8368, "tip": 22076, "outer": 11872, "ocytosis": 23984, "\u0120empl": 24795, "\u0120tip": 9092, "\u0120lur": 29661, "Former": 28292, "\u0120numerical": 10704, "\u0120cent": 1399, "\u0120if": 604, "\u0120investors": 12946, "\u0120tous": 29671, "\u0120forma": 21682, "\u0120Simmons": 36845, "Writing": 37587, "\u0120Thur": 39623, "spheres": 46051, "\u0120copper": 14295, "\u0120sideways": 39876, "idem": 5710, "\u00d0\u00b2\u00d0\u00b5\u00d1\u0122": 47659, "\u0120+/-": 11620, "\u0120Augustus": 48088, "\u0120parallel": 7529, "\u0120adenosine": 37121, "managed": 39196, "'\\": 11671, "\u0120clarify": 19148, "\u0120belief": 9927, ".*]{}": 13663, "\u0120splicing": 30772, "\u0120css": 30689, "671": 35276, "()),": 35632, "\u0120vec": 21004, "\u0120CONSEQUENTIAL": 48128, "\u0120Craw": 27688, "\u0120more": 625, "purpose": 27299, "\u00eb\u00a9": 48672, "\u0120Tud": 50005, "\u0120goog": 41536, "PT": 5736, "\u01208000": 48296, "ukin": 24421, "\u0120Cele": 33245, "\u0120valve": 11059, "\u00e0\u00ab": 25657, "{{": 6394, "contents": 28662, "Bag": 36524, "\u0120Luna": 47392, "\u010a\u0120\u0120\u0120\u0120\u0120\u0120\u0120\u0120\u0120\u0120\u0120\u0120\u0120\u0120\u0120\u0120\u0120\u0120\u0120\u0120\u0120\u0120\u0120\u0120\u0120\u0120\u0120\u0120\u0120\u0120\u0120\u0120\u0120\u0120\u0120\u0120\u0120\u0120\u0120\u0120\u0120\u0120\u0120\u0120\u0120\u0120\u0120\u0120\u0120\u0120\u0120": 36411, "\u0120commissioned": 26237, "Spin": 38115, "amate": 22021, "ricks": 21557, "\u0120Inv": 17595, "2": 19, "classified": 39651, "IAM": 43990, "\u0120bart": 44693, "Missing": 36840, "\u0120fired": 11226, "\u0120vanish": 29259, "\u0120infra": 16414, "\u0120tents": 40667, "\u0120Videos": 46165, "ipzig": 47265, "\u0120stabbed": 37836, "\u0120Civil": 10109, "0004": 15017, "Which": 7371, "\u0120mus": 1948, "swap": 35933, "\u0120declines": 34044, "CES": 40692, "\u0120grilled": 46342, "ropic": 12189, "\u0120slipping": 37032, "stack": 9742, "\u0120WordPress": 31198, "exchange": 35757, "\u0120judged": 24242, "\u0120Joyce": 36606, "\u0120GT": 22733, "\u0120\u00d0\u00be\u00d1\u0124": 15095, "\u0120NPR": 37957, "\u0120MVP": 39524, "\u0120The": 380, "\u00e0\u00b8\u0123": 26265, "do": 3088, "\u0120\u00c5\u013d": 46520, "Dan": 15961, "\u0120reproduced": 23775, "\u0120ontology": 42081, "\u0120applied": 3732, "\u0120SMS": 37100, "\u0120massless": 46718, "\u0120modular": 23178, "\u0120precision": 12320, "company": 25610, "\u0120moderately": 28249, "\u0120Relief": 38799, "BS": 4449, "\u0120Disk": 44088, "mV": 45329, "lder": 39828, "offset": 10946, "\u0120exchanges": 23261, "\u0120peered": 43517, "Down": 10854, "\u0120occasionally": 13949, "\u0120pants": 19110, "\u0120policym": 44119, "\u0120Trust": 10215, "bell": 10910, "\u0120pushing": 13383, "\u0120conclusion": 6452, "\u0120privacy": 11068, "Definitions": 36235, "\u0120cereal": 42725, "perl": 43511, "\u0120glycol": 22471, "\u0120Seven": 20400, "produ": 5551, "903": 36814, "ilant": 39821, "412": 30965, "\u0120indices": 14452, "\u0120discour": 22528, "\u0120differs": 19986, "\u0120incredible": 14331, "\u0120\u00e0\u00a4\u00b8": 33465, "LEFT": 33959, "Remove": 21605, "gold": 27716, "...\"": 3255, "volume": 21970, "^*\\": 24638, "\u0120favorites": 30740, "irections": 40357, "\u0120nitride": 41119, "\u0120timescale": 43936, "\u0120misdem": 34945, "OST": 13792, "\u0120rooft": 43271, "\u0120Acting": 45500, "^+(": 46849, "\u00cf\u0125\u00ce\u00b5": 41783, "\u0120ste": 2870, "Dependencies": 47671, "an": 266, "####": 1835, "\u0120Ethiopia": 35363, "arus": 33858, "bet": 9900, "imental": 11471, "\u01202500": 46059, "aths": 48193, "quest": 4557, "\u0120designs": 11809, "\u0120airport": 13952, "earch": 3849, "\u0120improvements": 11701, "rens": 25083, "Width": 12175, "\u0120Running": 33941, "iele": 38853, "....\"": 24554, "\u00d1\u0125\u00d0\u00bf": 42901, "\u0120TG": 24602, "\u0120slammed": 31800, "\u0120Improve": 30343, "\u0120cinema": 26693, "\u0120exiting": 44528, "iscopal": 47441, "\u0120pessoas": 48491, "\u00c3\u00a4\u00c3\u00a4n": 21964, "\u0120Morris": 17771, "udge": 15414, "\u0120conceptual": 20178, "\u0120Bangkok": 48771, "plication": 17192, "\u0120HOME": 49418, "\u0120insurg": 36246, "wiki": 16123, "1933": 49812, "\u0120outlines": 36264, "\u0120Crick": 36432, "alen": 43322, "\u0120balloons": 50210, "ediatric": 41816, "\u0120tariffs": 37363, "\u0120comment": 4385, "BITS": 39076, "\u0120aspirin": 39764, "\u0120burial": 33672, "\u00c3\u00a5r": 18481, "978": 40481, "\u0120flavors": 26791, "\u0120Forest": 16015, "clinical": 20892, "\u0120Victorian": 27794, "\u012032": 4567, "\u0120slash": 41048, "cko": 49993, "ale": 1079, "\u0120shuttle": 30201, "\u0120GH": 22419, "613": 46878, "hatic": 47863, "Reader": 15283, "Need": 32783, "\u0120fake": 15223, "\u0120memorandum": 29745, "\u0120heirs": 46834, "\u0120embarked": 48053, "Lib": 19467, "\u0120penn": 33945, "\u0120Ring": 22668, "\u0120Bangl": 26315, "\u0120Te": 2745, "encephal": 41667, "\u0122": 211, "\u0120Ale": 16660, "\u0120oxid": 7495, "\u0120Caribbean": 25564, "\u0120groom": 32083, "\u0120\u00ce\u00b1\u00cf\u0122\u00ce\u00bf": 46440, "\u0120306": 31950, "Yo": 39996, "lut": 40376, "\u0120ID": 5417, "\u0120clo": 23406, "\u0120attempts": 9437, "\u0120\u00ce\u00b5": 9737, "ceeding": 46943, "\u0120stair": 22298, "umped": 26515, "\u0120whirl": 45151, "uated": 11634, "\u0120geography": 37756, "\u0120Across": 39635, "\u0120sausage": 40741, "\u0120narrowly": 35440, "\u0120depleted": 33661, "\u0120costume": 28067, "\u0120open": 1527, "API": 11252, "heid": 22252, "ocate": 24461, "\u0120imprison": 14875, "UTC": 42773, "\u0120worship": 17246, "month": 7791, "anny": 10059, "iska": 23951, "gem": 25460, "\u0120immunoprecip": 36889, "\u0120terrorism": 19227, "aris": 26232, "\u0120Teh": 32807, "\u0120phen": 4188, "ammers": 42560, "\u0120disclosures": 42880, "err": 1000, "tags": 23059, "CH": 2775, "\u0120dishon": 31531, "\u0120verdict": 11844, "\u0120Hamiltonian": 14342, "\u00eb\u00a6\u00ac": 38248, "\u0120worms": 35231, "Assert": 21659, "Bud": 40255, "metics": 46682, "piratory": 48208, "\u0120Urs": 46534, "readable": 25285, "anked": 43730, "nyder": 38192, "\u0120installed": 8038, "\u0120eyebrows": 34036, "avi": 23096, "\u0120Att": 5706, "isons": 10047, "Ibid": 35063, "\u0120conformation": 28324, "remember": 41773, "341": 28459, "\u0120Symbol": 42653, "\u0120pow": 5030, "\u0120single": 2014, "\u0120isolation": 12940, "uary": 3702, "date": 2754, "Dialog": 16786, "\u0120ET": 17464, "\u0120Meet": 35404, "\u0120inclination": 30388, "\u0120343": 35815, "\u0120alcohol": 7665, "\u0120props": 29060, "keep": 19773, "ARRANT": 11486, "Ga": 20750, "\u00ea\u00b8\u00b0": 42581, "\u010a\u0120\u0120\u00c2\u0142\u00c2\u0142\u00c2\u0142": 43566, "\u0120billionaire": 45651, "paced": 47417, "ecal": 45808, "\u0120religious": 7231, "290": 22308, "\u0120ability": 3745, "\u0120VIP": 35625, "\u0120rituals": 37455, "\u0120mate": 20187, "\u0120watching": 7487, "REG": 11991, "\u0120Bry": 15341, "\u0120stuffed": 30040, "434": 40181, "ology": 1497, "engineering": 44602, "rers": 22895, "\u0120Warriors": 34777, "convex": 44181, "elon": 46842, "\u00e5\u013b": 32053, "\u0120Detect": 22464, "\u0120spectrometry": 25535, "\u0120Wit": 43060, "jackson": 26318, "\u0120Injury": 46151, "df": 4989, "\u0120Money": 22405, "\u0120ad": 519, "\u0120month": 1770, "\u0120quality": 3290, "\u0120aggression": 27894, "\u0120incarceration": 38886, "\u0120EN": 16449, "iban": 27546, "Fac": 39965, "\u0120superf": 23426, "\u0120CCC": 48277, "TE": 5428, "etermined": 15769, ">>": 5064, "Flor": 31887, "\u0120viability": 17036, "\u0120couplings": 27654, "Social": 25123, "\u0120nerve": 11083, "\u0120Ble": 35526, "short": 14458, "0090": 49455, "\u010a\u010a\u0120": 1744, "\u0120Liam": 44123, "\u0120computational": 15180, "cott": 22869, "bys": 44678, "lag": 14293, "{\\": 464, "\u00c3\u00b4": 9837, "Does": 10795, "expl": 15083, "\u0120falling": 10805, "ric": 695, "Plot": 28253, "Mm": 32611, "\u0120subtype": 27567, "affected": 48130, "mess": 46631, "\u0120pesticide": 49525, "\u0120whichever": 39347, "\u0120amateur": 27736, "\u0120feel": 1928, "\u0120technically": 22335, "\u0120statist": 5227, "LRQ": 43591, "\u0120friction": 20636, "\u0120rankings": 31972, "\u0120Tas": 35203, "\u0120helium": 38244, "\u0120Think": 19296, "$\u00e2\u0122\u0135": 30775, "\u0120180": 12660, "\u0120industry": 4491, "\u0120kiss": 10135, "\u0120cush": 26938, "ERS": 6117, "edy": 6368, "\u0120piv": 15213, "rendered": 33803, "\u0120hospitalization": 28344, "layers": 33990, "\u0120Parl": 30576, "\u0120Comics": 35018, "\u00e7\u0126": 26036, "\u0120Kashmir": 35416, "curs": 16461, "\u0120trip": 7408, "\u0120Jenn": 18823, "\u0120Heat": 22512, "iten": 26217, "\u0120reperto": 36514, "\u0120DOC": 38909, "\u0120contrasts": 39165, "\u0120Ey": 39896, "Sym": 23875, "\u0120Storm": 25005, "veau": 37574, "\u0120recon": 8756, "ze": 2721, "\u0120Edinburgh": 25990, "lost": 38483, "260": 19319, "]": 62, "\u0120borrowing": 40770, "fix": 11097, "\u01201903": 40937, "numbers": 40957, "\u0120wrists": 45015, "uff": 2066, "\u0120pool": 6363, "\u0120ASP": 27548, "\u0120court": 1302, "\u0120Weiss": 34167, "\u0120\"(": 7998, "will": 9846, ":@\"": 25731, "oprecip": 27447, "\u0120condensation": 33974, "\u0120granted": 7169, "\u0120am": 717, "\u0120Read": 6707, "\u0120shareholders": 28284, "\u0120affair": 18830, "*(*": 24222, "\u0120});": 6824, "MW": 35669, "command": 12467, "\u0120econ\u00c3\u00b3": 46058, "Web": 9770, "------------": 2912, "rather": 30786, "\u0120feeding": 12422, "\u012049": 7584, "\u0120Bulgar": 31519, "\u0120repetitions": 49495, "\u0120desarroll": 50158, "Kim": 27682, "Command": 12094, "\u0120'#": 25777, "\u00e0\u00a5\u0123": 38619, "\u010f\u0103": 30843, "\u0120hypoxic": 42577, "\u0120summer": 5768, "\u0120impacted": 27857, "othal": 30205, "roup": 47700, "\u0120alumin": 14992, "\u0120stalls": 48073, "\u0120HIM": 49526, "lasting": 31403, "\u0120unsuitable": 49590, "respectively": 49115, "Mapper": 37479, "ract": 974, "\u0120distal": 16891, "\u0120\u00eb\u00a7": 46927, "\u0120\u0120\u0120\u0120\u0120\u0120\u0120\u0120\u0120\u0120\u0120\u0120": 3059, "\u0120executed": 11407, "\u00e7\u00a7\u012f": 49288, "\u0120shower": 16846, "quis": 26500, "Abbreviations": 35558, "\u0120omit": 35991, "(<": 40473, "\u0120Rivers": 28160, "\u0120represent": 1957, "\u0120Entry": 30234, "Gest": 47155, "\u0120realized": 8156, "\u0120coinc": 10891, "\u0120inflow": 48866, "usk": 24378, "\u0120PP": 20250, "\u0120Preston": 44124, "\u0120Wild": 13303, "adequ": 14629, "manship": 43931, "\u0120siempre": 48092, "\u010a\u0120\u0120\u0120\u0120\u0120\u0120": 3893, "\u0120outcomes": 6973, "\u0120---": 8915, "\u0120Hear": 36909, "through": 10489, "\u0120atherosclerosis": 32317, "AMA": 38022, "anged": 4626, "tree": 12588, "\u0120irradiated": 34531, "DV": 26807, "ORANDUM": 38560, "iologic": 39390, "val": 1208, "\u0120gene": 3320, "\u0120raids": 39395, "chst": 47971, "\u0120inertial": 48450, "\u0120Olymp": 10406, "\u0120orth": 9373, "\u00e6\u0139\u00b6": 22975, "\u0120frown": 48445, "\u0120Wheat": 39979, "\u0120tribes": 23206, "\u0120Fish": 23645, "\u0120novelist": 42250, "\u0120EDTA": 33946, "\u00e2\u013b": 27582, "\u0120Fighter": 45398, "\u0120667": 46753, "\u0120strength": 4757, "idenote": 49156, "pez": 29283, "\u0120Assumption": 43536, "\u0120headline": 30062, "\u0120ich": 18119, "empt": 2187, "ortunately": 6761, "\u0120toss": 15331, "\u0120trail": 11693, "\u0120decays": 27221, "\u0120relapse": 28524, "\u00e8\u00a2": 38053, "orman": 39221, "\u0120hemod": 47716, "pattern": 17523, "ochond": 9217, "\u0120immunos": 23594, "\u0120sugg": 1803, "\u0120Playing": 50000, "\u0120endless": 19461, "\u012035": 4791, "\u0120\u00c3\u013c": 49035, "\u0120ba": 18927, ")\u00e2\u0122\u0135(": 28691, "\u0120centrifuged": 29881, "\u0120ahead": 6386, "omic": 4986, "\u0120internet": 8573, "\u0120vigorous": 34922, "OME": 14519, "\u0120stagn": 36879, "\u0120diverse": 11117, "\u0120gradient": 11786, "\u0120Commissioner": 15605, "\u0120proportion": 8394, "\u0120Su": 4137, "Pr": 6140, "\u0120involving": 7668, "wich": 14634, "\"\\": 35343, "\u0120microscopic": 22973, "\u0120base": 2613, "\u0120exceeding": 27433, "\u00e5\u00bf\u0125": 36644, "\u0120litre": 43803, "568": 48699, "\u0120OCD": 48872, "\u0120Ded": 47131, "\u0120spans": 35742, "\u0120chaos": 20142, "\u0120affirmative": 25712, "\u0120inhal": 33064, "consuming": 33136, "\u0120ASD": 29895, "\u0120valor": 34173, "\u0120av": 1323, "\u0120transmitting": 25104, "\u0120travelled": 29433, "entin": 41319, "\u0120say": 1333, "\u0120silently": 29387, "\u0120period": 2180, "1995": 12731, "\u0120Publishers": 41486, "\u0120mejor": 43587, "Executor": 35680, "\u0120Une": 44589, "LW": 46106, "ristol": 27512, "\u0120drastically": 31063, "\u0120column": 5084, "LEN": 19441, "\u0120LT": 26124, "\u0120pricing": 20910, "\u00e5\u00bb\u00ba": 40309, "values": 8858, "eson": 45336, "\u00d1\u0131": 3504, "\u0120Proteins": 48704, "Claim": 34200, "\u0120effective": 3576, "\u0120cryptocur": 22394, "pressing": 39385, "bounded": 44344, "\u0120detriment": 49917, "\u0120zoning": 35900, "oyle": 26558, "\u0120sect": 25102, "\u00e5\u0143\u00a6": 28586, "amas": 33122, "Distribution": 35207, "Password": 22147, "\u0120branded": 41294, "\u0120Christina": 47831, "\u0120voc": 11571, "\u0120resin": 14159, "squ": 23600, "rec": 2845, "uvre": 38527, "\u00e0\u00a4\u00b0": 15754, "compl": 21013, ").](": 17981, ",.": 23659, "whether": 20094, "odb": 36570, "Mont": 28211, "\u0120JA": 44471, "\u0120hither": 35788, "\u0120burden": 7977, "\u0120rack": 22173, "olean": 7451, "175": 14840, "\u0120chromosome": 15406, "\u0120recruitment": 16510, "ms": 983, "\u0120hen": 23394, "\u0120portrait": 22946, "\u0120Vac": 36495, "\u0120marital": 27774, "\u0120polish": 40167, "420": 25569, ")})": 27232, "Kit": 18938, "\u0120rom": 10102, "\u0120-=": 24869, "\u0120\u0120\u0120\u0120\u0120\u0120\u0120\u0120\u0120\u0120\u0120\u0120\u0120\u0120\u0120\u0120\u0120\u0120\u0120\u0120\u0120\u0120\u0120\u0120\u0120\u0120\u0120\u0120\u0120\u0120\u0120\u0120\u0120\u0120\u0120\u0120\u0120\u0120\u0120\u0120\u0120\u0120\u0120\u0120\u0120\u0120\u0120\u0120\u0120\u0120\u0120\u0120\u0120\u0120\u0120\u0120\u0120\u0120\u0120\u0120\u0120\u0120": 26625, "pmatrix": 14336, "\u0120descriptors": 42785, "ang": 606, "\u0120glands": 29108, "Jackson": 36340, "\u0120suspect": 9101, "421": 42383, "BK": 46235, "\u0120Flores": 46644, "\u0120stitch": 40532, "\u00d1\u0123\u00d0\u00bb\u00d0\u00b8": 38749, "pire": 16695, "\u0120migration": 10346, "\u0120limited": 3710, "\u0120ik": 12628, "zy": 3847, "CBC": 40222, "\u0120Planned": 46933, "\u0120Wid": 39407, "demand": 36478, "\u0120remainder": 6414, "))/(": 12193, "\u0120Swift": 24619, "inition": 10991, "Inv": 13836, "\u0120Hayes": 33275, "\u00e6\u0141\u00a5": 48950, "\u0120scheduled": 11526, "ga": 2485, "\u0120lease": 16959, "\u0120stock": 5739, "\u0120refresh": 22906, "Business": 27270, "\u0120adipose": 28721, "scala": 36650, "\u0120cosmological": 26166, "\u0120397": 37737, "ographers": 42679, "v\u00c3\u00a9": 43147, "Irish": 45383, "Payload": 48797, "\u0120Telescope": 43417, "\u0120Territ": 48770, "\u0120laptop": 16556, "\u0120massive": 7863, "\u0120coincidence": 27454, "\u0120Perth": 44937, ".^[@": 10174, "generated": 20419, "abis": 16291, "auge": 9789, "\u0120undes": 19231, "\u0120Cons": 4563, "property": 9134, "\u0120arithmetic": 27844, "alleg": 38653, "\u00e0\u00b9\u0123": 40455, "\u0120checkpoint": 32552, "\u0120922": 47722, "]\\]).": 34494, "\u0120stands": 9572, "\u0120Roberts": 16171, "Christian": 26207, "ryst": 11925, "\u0120debuted": 41362, "gnome": 36957, "\u0120([**": 45488, "\u0120groaned": 50206, "\u0120tumour": 18258, "\u0120nh": 31386, "nis": 24836, "\u0120OUR": 38392, "\u0120galaxies": 11123, "\u0120hills": 19607, "\u0120leases": 47194, "66": 2526, "imit": 16563, "254": 15161, "()`": 42702, "\u0120statements": 7234, "\u0120Sa": 10388, "\u0120branching": 27213, "\u0120Reader": 33123, "curve": 33356, "('": 2073, "\u0120este": 12368, "birds": 40382, "\u0120luxury": 18997, "\u0120tracts": 40784, "sv": 11427, "\u0120Jes": 6445, "\u0120millions": 9790, "\u0120\u00ec\u0140": 32115, "\u0120chemically": 34663, "\u0120atyp": 31052, "\".\"": 43196, "\u0120request": 2748, "\u0120Certificate": 39711, "osyl": 39847, "perse": 43292, "\u00e2\u0124": 46979, "\u0120AB": 12056, "\u0120forgot": 18298, "\u0120acknowledgment": 48371, "\u0120Chin": 33351, "Marshal": 39444, "\u0120det": 843, "\u0120mic": 8555, "\u0120awards": 16620, "\u0120Soon": 21965, "herichia": 31977, "\u0120Conrad": 42738, "SESSION": 44405, "fills": 44849, "237": 20991, "\u00d1\u0125\u00d0\u00ba": 49052, "\u0120Judah": 49548, "\u0120relates": 7033, "''(": 50101, "irit": 4621, "\u0120vol": 1936, "\u00e5\u00b0\u0128": 37373, "dale": 22604, "\u00e1\u00b9": 15868, "ises": 3013, "\u0120163": 23309, "\u00ce\u00bf\u00cf\u012f": 27435, "vette": 48359, "31": 2405, "\u0120cellar": 46139, "ONLY": 41889, "\u0120Arbit": 44287, "}),\\": 46257, "\u01201926": 33554, "\u0120glomerular": 41418, "wife": 27505, "\u0120gamb": 38415, "\u0120dysplasia": 48723, "\u0113": 196, "versely": 13110, "schemas": 24991, "wedge": 12707, "\u0120intermittent": 32540, "\u0120digging": 28063, "\u012011": 1903, "\u00d9\u012c": 6463, "\u012081": 11681, "\u0120Jesse": 31472, "\u0120MHC": 32209, "permission": 33290, "\u0120locality": 33643, "\u0120Eleven": 49075, "\u0120Had": 14136, "\u0120mars": 40584, "\u0120much": 1199, "gorith": 4100, "\u0120showing": 4645, "\u0120remained": 6376, "\u0120444": 37688, "\u0120Snyder": 41835, "UMENT": 44854, "\u010a\u0120\u0120\u0120\u0120\u0120\u0120\u0120\u0120\u0120\u0120\u0120\u0120\u0120\u0120\u0120\u0120\u0120\u0120\u0120\u0120\u0120\u0120\u0120\u0120\u0120\u0120\u0120\u0120\u0120\u0120\u0120": 9740, "invalid": 25359, "\u0120univariate": 36474, "751": 37950, "\u0120distortions": 46598, "\u0120sol": 1220, "\u0120memories": 12959, "\u0120thirteen": 27291, "\u00d0\u0136": 32697, "Structure": 34359, "\u0120Museum": 11032, "Figure": 2841, "INGS": 19212, "Der": 19932, "\u00ce\u00bf\u00ce\u00bb": 33211, "\u0120social": 2675, "\u0120manufacture": 6833, "\u0120kindly": 26604, "Huh": 38532, "yt": 1767, "Developer": 45682, "yu": 30838, "bx": 22141, "\u00e2\u0139": 27739, "\u0120washing": 17392, "\u0120Columbus": 27899, "archive": 22477, "\u0120feas": 13050, "DF": 14803, "\u0120w": 259, "\u0120malaria": 19643, "\u0120fortune": 19994, "1939": 42093, "\u0120epitopes": 42110, "\u0120213": 25098, "leine": 44431, "heets": 37586, "\u0120constitutional": 10281, "\u0120cant": 16216, "\u0120Background": 17720, "\u0120sp": 653, "\u0120votes": 13008, "eration": 3328, "ceived": 6991, "\u0120gra": 7098, "rub": 18241, "689": 29941, "\u0120baked": 30363, "\u0120computation": 13782, "\u0120defenders": 31342, "\u0120Bag": 19997, "\u0120consolidated": 33114, "\u0120Lith": 31976, "csv": 25265, "\u0120airplane": 33667, "skin": 36861, "\u0120SAT": 38176, "\u0120textbook": 40554, "\u0120vaccines": 21268, "\u0120Thir": 39345, "CE": 4339, "\u0120swell": 41153, "\u00d0\u00bc": 5160, "\u0120aud": 3820, "po": 5367, "ODU": 14647, "otomy": 22438, "\u0120invariably": 37504, "\u0120undue": 39284, "ressional": 28370, "umption": 23892, "\u0120visceral": 37392, "\u0120shr": 11111, "\u0120eighty": 32571, "\u0120coral": 34110, "\u0120dairy": 22759, "\u0120d\u00c3\u00a9f": 42912, "\u0120chorus": 35397, "indexOf": 33966, "\u0120\u00ce\u00b8\u00ce\u00b1": 38833, "\u0120vigorously": 42210, "antiago": 34566, "isher": 6850, "\u0120\u00c3\u00a5": 13581, "\u0120differentiated": 22266, "\u0120shaft": 13755, "rehen": 6792, "\u0120linked": 7939, "Location": 11930, "agg": 13046, "\u0120Syd": 16739, "\u0120fibrobl": 18003, "============": 7770, "disc": 12722, "\u0120Deep": 18147, "\u00e2\u012a\u0139": 18391, "\u0120stimulated": 18606, "\u0120brick": 20098, "\u0120bands": 10604, "\u0120Swan": 35359, "FILTER": 44624, "\u0120powered": 20351, "printStackTrace": 45098, "\u0120crater": 47642, "=\"'$(": 48201, "\u0120secretory": 42323, "\u0120solvent": 15465, "\u00c4\u0123m": 49377, "\u0120Kra": 30164, "ophage": 22263, "\u0120unint": 25962, "umes": 9181, "\u0120decade": 9976, "\u0120tiss": 3375, "properties": 19402, "\u0120Clifford": 42593, "endpoint": 42882, "\u0120preserv": 11607, "County": 43582, "\u0120gets": 4850, "\u0120Commun": 6269, "\u0120hem": 7492, "\u0120BY": 9149, "\u0120normalization": 21539, "\u0120FC": 16004, "\u0120Electron": 28021, "\u0120neighbouring": 33423, "\u0120masked": 34741, "\u0120cytochrome": 34956,
[...]
