{"]\\],": 5413, "754": 31254, "\u0120Educ": 9031, "\u0120api": 23370, "\u0120Auth": 21326, "\u0120Inspector": 31881, "\u0120\u0120\u0120\u0120\u0120\u0120\u0120\u0120\u0120\u0120\u0120\u0120\u0120\u0120\u0120\u0120\u0120\u0120\u0120\u0120\u0120\u0120\u0120\u0120\u0120\u0120\u0120\u0120\u0120\u0120\u0120\u0120\u0120\u0120\u0120\u0120\u0120\u0120": 13873, "\u0120Pass": 11271, "\u0120INFO": 37561, "\u0120Watts": 46629, "\u0120novels": 19204, "\u0120persecution": 31222, "via": 13917, "\u0120spanned": 40423, "\u0120GV": 46231, "i": 74, "\u0120gloves": 26936, "\u0120Lub": 40403, "\u0120liar": 43459, "\u0120Limit": 46757, "suc": 47924, "\u0120viscosity": 21819, "\u0120influencing": 29189, "\u0120Armenian": 46657, "install": 12543, "CG": 10206, "\u0120hing": 34865, "heries": 38486, "\u0120microphone": 32265, "\u00d0\u00b8\u00d0\u00bb": 15780, "\u0120truth": 5083, "\u0120Charg": 36355, "zent": 49738, "igraphy": 49792, "\u00cf\u012b": 7490, "ureus": 21993, "\u0120Scar": 26709, "\u0120crank": 33852, "\u0120textbooks": 45789, "\u00c2\u0142\u00c2\u0142\u00c2\u0142\u00c2\u0142": 5562, "\u0120recon": 8756, "\u0120Right": 10154, "\u0120exile": 33927, "\u0120foster": 22846, "\u0120prevailing": 27274, "Introduction": 14214, "oprop": 27403, "ALL": 5626, "\u00c3\u00a8": 3539, "basis": 40265, "\u0120Ampl": 47695, "\u0120So": 1893, "orge": 4652, "\u0120poles": 25284, "\u0120converges": 26414, "\u0120stuffed": 30040, "\u00c2\u0126": 13854, "rophys": 22154, "}$-": 15728, "chain": 10050, "bird": 23182, "\u0120boost": 9510, "\u0120commission": 8119, "irth": 12769, "\u0120Upper": 24120, "\u0120nh": 31386, "Safe": 35947, "\u0120people": 952, "Items": 16379, "\u0120DE": 6202, ".[@": 6334, "leys": 28165, "xym": 37543, "\u0120reproducibility": 38041, "\u0120\u00d0\u00bf\u00d0\u00be": 17008, "\u0120pedest": 21861, "435": 36677, "\u0120Preston": 44124, "\u0120overthrow": 47743, "FILES": 39502, "\u0120lodge": 40486, "\u0120wenn": 35569, "\u0120empir": 13974, "\u00e3\u0123\u00bb": 46989, "\u0120sub": 749, "rest": 1120, "\u0120given": 1677, "\u0120Bern": 10246, "\u00e5\u012a\u0128": 18434, "second": 9815, "\u0120Edward": 12824, "\u0120enhancement": 14314, "\u0120microbi": 18124, "\u01201994": 9354, "Decl": 18608, "\u0120jack": 19708, "eme": 20867, "USER": 23131, "gium": 20811, "\u0120happily": 26174, "\u0120Bag": 19997, "\u0120ethyl": 30097, "\u0120coping": 30963, "\u0120formations": 34256, "\u00e6\u0138\u00b0": 24308, "\u0120etched": 43700, "Arc": 47134, "\u0120organ": 1963, "\u0120regard": 2743, "\u0120fetch": 20279, "bey": 22905, "\u0120organize": 23968, "\u0120dx": 18747, "\u0120bust": 21501, "\u0120concession": 44619, "\u0120713": 48396, "\u0120readout": 49914, "\u0120fry": 39622, "\u0120Palin": 49008, "ouri": 13979, "\u0120diamond": 16673, "<|ASSISTANT|>": 50279, "\u0120parish": 25024, "pattern": 17523, "\u0120mines": 27304, "\u0120Marshall": 19629, "\u0120Madame": 30979, "\u0120Eug": 26851, "pers": 5726, "bootstrap": 24884, "oarth": 41093, "ilib": 9746, "\u0120Along": 23243, "\u0120cab": 7674, "prof": 34586, "\u0120Adelaide": 40282, "\u0120debuted": 41362, "\u0120///<": 46880, "\u0120En": 3035, "\u00e3\u0124\u00b8": 24149, "tte": 38489, "Views": 43091, "stranded": 40121, "ob": 706, "\u0120Ward": 18730, "\u0120pul": 4734, "\u0120encourage": 11907, "Arch": 18551, "braska": 19088, "\u0120Football": 15794, "\u00ce\u00bb\u00ce\u00bb": 29704, "\u00ec\u012d": 35169, "\u0120obedience": 40138, "\u0120DAMAGES": 32024, "\u0120cut": 2624, "\u01201979": 13842, "Bi": 16621, "\u0120intimate": 21383, "\u0120Springfield": 42669, "\u0120cabbage": 42688, "))$,": 44418, "\u0120bloggers": 41982, "icion": 16118, "\u0120physiological": 13424, "\u0120Friend": 25845, "\u0120haplotypes": 42510, "\u012042": 5976, "ep": 554, "\u0120sending": 10430, "\u0120actor": 12353, "\u0120REM": 25300, "oxygen": 26649, "enhanced": 35465, "brates": 36613, "\u0120backdrop": 37924, "\u0120computes": 48169, "ZO": 48876, "\u0120achievable": 39941, "holder": 11375, "lit": 14326, "\u0120Benn": 20931, "interesting": 47606, "mut": 10082, "cribing": 28010, "\u0120port": 2245, "Date": 6958, "compare": 23813, "*+": 42396, "google": 9906, "Den": 20990, "graphs": 33884, "Ich": 39980, "\u0120expr": 40280, "\u0120Kn": 10381, "\u0120il": 4164, "\u0120angels": 29828, "\u0120HPLC": 32230, "\u0120assess": 2939, "Lewis": 47228, "\"\"\"": 32488, "\u0120\u00d0\u013a": 35256, "\u0120restrictions": 13133, "nv": 31287, "EXP": 40207, "People": 8836, "\u0120considers": 19401, "ARC": 28077, "661": 36630, "textsf": 39851, "\u0120partir": 39955, "\u0120Builder": 42489, "\u0120synchronization": 27801, "\u0120supernatant": 26951, "\u0120transported": 20870, "\u0120spectacular": 22936, "\u00e7\u013d\u00ae": 28154, "\u0120Marshal": 36923, "PK": 15659, "balance": 20203, "ether": 7851, "Ptr": 12030, "\u0120rendered": 13697, "\u0120bay": 17699, "\u0120advance": 7170, "Running": 31484, "\u0120Posts": 36304, "\u0120Borg": 39561, "\u0120\u00d0\u00bd\u00d0\u00be": 41666, "\u0120unsatisf": 43288, "params": 12928, "\u0120TNF": 14857, "\u00c3\u00b3l": 32250, "\u0120recorder": 40438, "\u0120costing": 45964, "rake": 47081, "\u0120offenses": 19626, "iers": 4670, "alloc": 10835, "EA": 25716, "scient": 30202, "\u0120Monica": 34781, "ometimes": 9057, "\u0120settlement": 10858, "\u0120liable": 15922, "\u0120Parlement": 35335, "'s": 434, "agers": 16014, "\u0120396": 38024, "tol": 34776, "\u0120pyramid": 39694, "len": 5025, "\u0120technicians": 40560, "une": 2517, "\u0120coordinator": 30468, "}}_": 5000, "\u0120grapes": 41417, "stown": 39225, "\u0120thin": 6906, "\u0120area": 2170, "urs": 2244, "\u0120ASD": 29895, "ologists": 11644, "\u0120ancestral": 37147, "Los": 30580, "\u0120Chip": 33769, "Support": 22032, "brate": 32243, "\u0120rage": 22324, "\u0120reaches": 14190, "verting": 31324, "wealth": 13902, "\u0120KB": 37998, "versible": 31675, "\u00e8\u00af\u00b7": 44673, "\u0120ADP": 46003, "\u0120DEFAULT": 29339, "tb": 25192, "\u0120education": 4730, "ker": 6426, "\u0120fistula": 49214, "\u0120disadvantage": 18928, "\u0120transport": 4616, "strings": 27329, "\u0120bony": 45861, "\u0120conformation": 28324, "pir": 5378, "\u0120extrav": 32792, "\u0120inversely": 39342, "\u0120Anti": 18567, "\u0120Lorenzo": 50190, "\u0120infamous": 33486, "\u0120astr": 15395, "\u0120wa": 5172, "audio": 22172, "\u0120\u00d1\u0123\u00d0\u00bb": 25332, "\u0120estimators": 48489, "\u0120Sw": 4235, "\u0120suggest": 1804, "\u0120wars": 16860, "\u0120irritation": 39890, "289": 24208, "\u00ef\u00bc\u012b": 14106, "../../": 4598, "\u0120slim": 27973, "Shader": 38031, "released": 38296, "isease": 42294, "olin": 15141, "\u0120Drew": 30864, "random": 14719, "iculous": 16512, "\u0120accent": 22713, "ausing": 36314, "MARY": 32944, "\u0120announced": 6138, "\u0120concurrent": 17336, "\u0120affine": 29438, "\u0120modulated": 27577, "\u0120Angl": 25939, "Royal": 40262, "Akt": 41737, "\u0120Part": 3512, "\u0120otherwise": 5010, "\u0120household": 11692, "Orientation": 43773, "\u0120swine": 45417, "\u0120cruel": 17877, "\u0120Experience": 26962, "651": 33297, "{{": 6394, "\u0120Madison": 21661, "Entry": 14085, "them": 16083, "\u0120monot": 26734, "henyl": 19692, "^),": 40643, "\u0120nodules": 37154, "\u0120SED": 41343, "\u0120PLAY": 45516, "\u0120purge": 45726, "\u0120Scotland": 13944, "\u0120Planck": 38797, "Device": 15982, "\u0120Lor": 32203, "\u0120Dorothy": 40103, "\u0120monoton": 41907, "\u00ab": 106, "\u0120narrowing": 44746, "^": 63, "JC": 32318, "\u0120Bo": 3452, "\u0120invoked": 25605, "\u0120upgrades": 34232, "eterm": 13109, "UAL": 31440, "\u0120theology": 31525, "eger": 38142, "\u0120Altern": 14255, "\u0120Hers": 41264, "\\|_{\\": 43654, "gil": 44626, "income": 20666, "\u0120script": 6001, "}_{\\": 4689, "\u0120Web": 7066, "James": 18448, "\u0120nt": 34900, "\u0120regenerative": 50100, "\u0120shall": 3091, "\u0120sus": 2817, "\u0120predictive": 15970, "\u0120birth": 4201, "bral": 11887, "\u0120resume": 21058, "\u0120cites": 28070, "\u0120Galactic": 28848, "needed": 34498, "\u0120continue": 4035, "\u0120lac": 26238, "\u0120profess": 4180, "\u0120diamonds": 34779, "\u0120yourselves": 36544, "fade": 43810, "\u0120CSV": 45584, "\u0120ellos": 47204, "11111111": 31044, "thon": 6033, "by": 1615, "\u0120hardness": 38576, "aka": 10573, "aurant": 28973, "\u0120acquis": 40922, "iate": 4513, "ontally": 34106, "Fragment": 24054, "angling": 36874, "AND": 5543, "\u0120Strick": 40772, "\\[[@": 8088, "\u0120dot": 14261, "jQuery": 36955, "\u0120IgM": 40440, "\u0120tac": 32851, "\u0120Music": 11412, "\u0120wurde": 40803, "\u0120Jag": 25198, "wrote": 48141, "\u0120week": 2129, "\u00ce\u00bf\u00cf\u0127\u00cf\u0124": 37833, "\u0120upside": 28636, "\u0120spike": 24147, "\u0120Drum": 39582, "Exists": 39415, "su": 3467, "\u0120loved": 7636, "ted": 8659, "\u0120Elect": 11051, "Wrapper": 27757, "\u0120expansion": 7466, "\u0120video": 3492, "rient": 5692, "\u0120diversity": 9991, "\u0120quantity": 10671, "vm": 11618, "\u0120\u00d0\u00bf\u00d1\u0122\u00d0\u00b5\u00d0\u00b4": 29929, "\u0120BF": 40542, "\u0120Jeffrey": 30274, "wo": 680, "\u0120Jimmy": 20164, "gor": 3892, "relation": 16429, "\u0120patron": 24081, "surface": 26555, "tot": 23877, "gid": 38902, "\u0120packet": 13138, "\u0120estimator": 29107, "\u0120Gly": 30133, "\u0120succeed": 9302, "\u0120compulsory": 42571, "hors": 4210, "bsite": 16709, "structures": 45345, "nw": 47938, "\u0120Conf": 11204, "\u0120Yorker": 48215, "Plug": 48650, "\u0120termed": 23776, "=(": 10190, "\u0120artery": 12235, "Cam": 14651, "\u0120aussi": 23571, "AIDS": 38281, "\u0120maneuver": 32183, "\u0120axis": 7844, "course": 17406, "\u0120admire": 26930, "stem": 852, "\u0120tomatoes": 24806, "acyl": 43023, "\u0120Franz": 36373, "\u0120mourning": 43841, "}^{": 1990, "\u0120cumulative": 18849, "\u012002": 16261, "steps": 20528, "rowth": 14612, "\u0120cope": 23808, "\u0120sexual": 5615, "\u0120ultimately": 9142, "\u00e5\u0133": 18617, "asy": 7077, "308": 20777, "Word": 22093, "\u0120Mae": 40793, "ffe": 44539, "\u0120Intern": 3749, "ience": 1482, "\u0120incontin": 47275, "reth": 47365, "omo": 19216, "\u0120compromising": 48637, "\u0135": 230, "CAM": 34508, "urai": 40172, "\u0120wart": 34950, "gently": 40383, "\u0120duty": 7143, "\u0120system": 985, "\u0120KK": 49606, "gester": 33935, "\u0120Dec": 7659, "\u0120\u00c3\u00a9": 3974, "onial": 24755, "\u0120CTL": 47714, "otyping": 23943, "\u0120indisp": 31207, "\u0120brushing": 45853, "\u0120comparisons": 14023, "\\'": 4479, "\u0120lever": 19732, "\u0120europ\u00c3\u00a9enne": 46143, "]^.": 8562, "\u00e2\u0123\u0126": 40859, "\u0120fabricated": 26493, "\u0120LAT": 35004, "\u0120inde": 41975, "\u0120eighth": 23738, "\u0120Imm": 17573, ",...": 35824, "\u0120TEX": 30280, "\u0120spines": 49898, "\u0120fights": 24662, "critical": 26717, "\u0120LB": 27118, "\u00ec\u013f\u013a": 34123, "\u0120rubber": 17023, "}.\\": 23516, "\u0120intox": 24205, "\u0120LAP": 48869, "\u0120protects": 24696, "idenote": 49156, "\u0120manifest": 9766, "\u0120politicians": 13557, "\u0120Sword": 47783, "quilibrium": 48494, "\u0120Kr": 17145, "uish": 37043, "\u0120stereotypes": 44720, "asing": 2355, "\u00ce\u0136": 12507, "\u0120relativistic": 29100, "\u0120crisp": 29990, "BRE": 37168, "\u0120JR": 38175, "\u0120Lith": 31976, "atas": 47578, "\u0120accus": 20387, "\u0120Victorian": 27794, "\u00eb\u012d": 14394, "\u0120GOOD": 29638, "\u0120molecular": 5787, "\u0120illumin": 34080, "\u00d0\u00b5\u00d0\u00bd\u00d1\u012e": 40123, "\u0120Phillip": 38881, "ending": 1946, "Dig": 19224, "\u0120introduce": 9569, "\u0120segments": 13288, "wheel": 29061, "^*\\": 24638, "\u01201926": 33554, "\u0120zoo": 41089, "\u0120chambers": 23462, "\u0120eventually": 6524, "\u0120fet": 8264, "HOU": 23704, "\u0120LIN": 38268, "\u0120Pok\u00c3\u00a9mon": 41979, "\\[": 1447, "\u0120exposed": 7329, "\u0120gig": 14349, "achy": 24814, "like": 3022, "\u0120brig": 28097, "\u0120hydroph": 17957, "\u0120containment": 46054, "\u0120incre": 1141, "etable": 48453, "\u0120fairness": 28959, "Conne": 9687, "\u0120franch": 14754, "\u0120Battle": 15764, "\u0120apple": 19126, "\u0120possessing": 31139, "\u0120alien": 14165, "\u0120educate": 31150, "adesh": 19205, "\u0120future": 2852, "\u0120everything": 3253, "\u0120condensation": 33974, "\u0120peeled": 35003, "amines": 35753, "\u0120alkyl": 17519, "rian": 5651, "secure": 26971, "\u0120Wald": 48690, "\u0120silence": 10837, "Parser": 20455, "\u0120M\u00c3\u00bcller": 49290, "Rev": 7498, "\u0120cytokine": 19918, "uters": 15807, "Ed": 3996, "Whit": 26508, "\u0120livelihood": 43689, "\u0120earth": 6149, "roscopic": 26129, "compiled": 49140, "\u0120COMMAND": 19527, "\u0120Illinois": 11545, "\u00d0\u0142": 39082, "suffix": 49959, "\u0120crisis": 8891, "\u0120plasmids": 29530, "eras": 11987, "append": 9691, "ipeline": 24997, "uitable": 32672, "\u0120dissection": 32508, "\u0120bloss": 33620, "DI": 11364, "\u0120irrespective": 30472, "\u0120distraction": 34169, "\u0120Theme": 45551, "doch": 47435, "rain": 1949, "\u0120Button": 26645, "mentioned": 13012, "\u0120confirmation": 16883, "\u0120\u00c3\u00a6": 27119, "\u0120capacitance": 30026, "\u0120Gur": 33514, "OO": 4985, "\u0120wife": 4475, "IU": 34988, "\u0120incomplete": 18464, "\u0120strength": 4757, "422": 28418, "peritoneal": 36881, "Recall": 38418, "stride": 42583, "FY": 48965, "\u0120card": 3120, "ssl": 28908, "\u0120chemicals": 17110, "\u0120wiki": 35372, "\u0120deliber": 12465, "conductor": 48679, "idin": 21480, "\u0120Congressional": 30841, "-)": 16945, "\u0120Questionnaire": 38536, "}}}}\\": 39272, "\u0120AGN": 32507, "().": 5023, "\u0120discord": 37600, "\u0120ol": 8919, "\u0120\u0120\u0120\u0120\u010a\u0120": 31988, "visible": 22772, "dashed": 32448, "\u00e4\u00b8": 3218, "\u0120Present": 23952, "\u0120Woman": 23724, "412": 30965, "\u0120Powell": 27286, "\u00d0\u00b0\u00d1\u0131": 32255, "\u0120Organic": 44278, "+\\": 2766, "\u0120Long": 8057, "Left": 11875, "\u0120disappeared": 15159, "\u0120Ott": 26118, "\u0120STATES": 18746, "\u0120Wilcox": 37225, "\u0120Break": 24037, "\u0120Mega": 44969, "\u0120water": 1824, "\u0120nun": 28616, "015": 10496, "println": 16684, "\u0120alteration": 26787, "CMC": 42970, "\u0120|=": 19470, "----------------------------": 29295, "lik": 7513, "\u00e7\u0141\u00a5": 34609, "\u0120genetically": 24663, "\u0120surprises": 37700, "Pay": 19334, "FH": 36821, "hler": 49854, "Property": 8324, "\u00e3\u0125": 1769, "\u0120trust": 4517, "necess": 11353, "\u0120Crew": 43158, "\u0120catastrophe": 41786, "\u0120respectively": 2975, "eval": 15419, "\u0120legally": 17734, "BR": 7941, "\u0120paradigm": 22199, "}<": 27482, "\u0120bake": 32413, "\u0120../../": 35955, "\u0120Marxist": 48641, "\u0120intact": 15282, "\u0120electrolyte": 31191, "rendered": 33803, "\u0120footing": 44938, "\u0120econ\u00c3\u00b3": 46058, "\u0120Challenge": 26703, "\u0120disposed": 15432, "RSA": 42903, "map": 4251, "herence": 11724, "318": 28560, "\u0120visibly": 47975, "%": 6, "estival": 9607, "ization": 1320, "hn": 13107, "the": 783, "\u0120changing": 6890, "sterdam": 24621, "gravity": 28702, "\u0120smashed": 38737, "\u00c3\u00a4\u00c3\u00a4": 15175, "\u0120llam": 42078, "blem": 12404, "\u0120Associated": 23323, "charset": 49611, ">::": 14157, "\u00e0\u00b8\u0143": 20934, "}}}{\\": 27637, "uvre": 38527, "itted": 2166, "\u0120analogy": 24760, "r\u00c3\u00a5": 36535, "vereign": 16034, "nen": 26159, "\u0120disposable": 34679, "ortion": 9564, "recip": 19977, "\u0120compuls": 37169, "isexual": 47035, "\u0120chop": 38419, "ationally": 21320, "\u0120Floor": 32370, "\u0120gene": 3320, "\u0120decides": 21936, "\u0120subsystem": 42146, "bash": 31333, "rophic": 16117, "\u0120Leslie": 35657, "\u0120}_": 46938, "\u0120Activities": 40499, "American": 7878, "\u0120jointly": 26277, "\u0120recognize": 9446, "\u0120instantly": 18319, "Par": 4221, "orable": 12178, "organized": 34092, "\u0120Tot": 39800, "Bean": 20317, "VT": 28889, "\u00d0\u00b5\u00d1\u0123\u00d0\u00ba": 31318, "afers": 43860, "jobs": 44144, "\u0120intrac": 11251, "----------------------------------------------------": 47332, "alin": 19337, "\u0120justification": 22861, "\u0120_{": 8454, "\u0120Resistance": 35624, "reli": 22987, "\u0120touching": 19883, "wr": 10641, "\u0120lysates": 32777, "\u0120come": 1705, "IGN": 13003, "iquit": 16074, "Following": 17588, "\u0120energies": 14120, "resources": 21830, "},\\": 5548, "scan": 22798, "\u0120Writing": 24207, "\u0120titled": 18879, "urate": 33559, "\u0120Graham": 17953, "\u0120Fac": 16035, "\u0120Ya": 36523, "apers": 6143, "\u0120fiddle": 47121, "6000": 48616, "  ": 50276, "\u0120Bedford": 47677, "\u0120claimants": 49639, "\u0120buck": 12433, "\u00e6\u00b1\u0124": 43741, "820": 45386, "continued": 45892, "inetics": 41295, "\u0120modulator": 46097, "rile": 25007, "\u0120options": 4610, "\u0120impulses": 48009, "vendor": 33247, "bibliography": 34424, "\u0120Kad": 48398, "affin": 29396, "\u00e5\u0126": 48897, "\u00c5\u013d\u00c4\u0129": 42756, "334": 24257, "=/": 33870, "=\"{{": 43615, "ights": 4380, "\u0120prox": 16843, "\u0120P": 367, "\u0120killing": 9811, "iotic": 12381, "\u0120smoothed": 43966, "\u0120exponents": 41025, "\u0120fundament": 6662, "\u0120409": 27744, "\u0120Torah": 46855, "\u0120Luckily": 41624, "Dom": 17004, "\u0120pouch": 43606, "\u0120PF": 22919, "\u00e4\u00bf": 16818, "\u00e3\u0125\u0138": 36924, "ois": 10225, "\u0120prep": 3765, "Area": 23954, "\u0120generality": 31376, "\u0120Obamacare": 39193, "\u0120ceremonies": 39781, "\u0120xcex": 34833, "als": 932, "***": 9264, "\u0120petty": 38817, "\u0120launch": 8027, "\u0120OF": 3481, "DF": 14803, "gb": 20773, "director": 39874, "\u0120multiplayer": 44047, "inary": 2767, "renew": 35358, "hire": 11094, "\u0120incubated": 10729, "nership": 10026, "\u0120doct": 10707, "gf": 29976, "\u00eb\u012d\u012a\u00eb\u012d\u00a4": 31912, "\u0120Hearing": 38308, "\u0120th\u00c3\u00a9": 44134, "\u0120575": 45916, "\u00e2\u0122\u012d": 12882, "NavBar": 47296, "\u0120pig": 8393, "ropri": 12341, "Overview": 35067, "Bab": 49903, "authentic": 42996, "beck": 28298, "\u0120freedom": 7185, "\u0120Montreal": 24604, "\u0120channels": 8123, "cmd": 14111, "\u0120Phot": 12010, "\u0120Pav": 32069, "\u0120popular": 4633, "\u0120contribut": 5027, "ardo": 15916, "\u0120axial": 19853, "\u0120europ": 23620, "ucose": 44612, "\u0120longitudinal": 14854, "leen": 16813, "\u0120recipient": 18344, "\u0120sugars": 36984, "\u0120id": 2654, "\u0120cardi": 5900, "\u00c3\u013b": 15097, "\u0120fp": 44296, "igmat": 44916, "\u0120embryo": 26223, "College": 45970, "lj": 35687, "\u00c2\u00af": 15500, "\u0120Chap": 17235, "\u00e7\u00ae": 25541, "\u0120convolution": 27311, "\u0120conjugated": 33502, "\u0120monop": 45966, "chst": 47971, "crypt": 22243, "Those": 15745, "\u0120cancel": 14002, "Sto": 36549, "\u0120unfamiliar": 32139, "ynes": 37889, "\u0120dragon": 22159, "bris": 19709, "GM": 14633, "abolic": 20038, "/": 16, "\u0120powder": 11687, "\u0120~": 5062, "dehy": 16752, "\u0120Element": 26392, "\u0120Celtic": 40327, "\u0120Nile": 43093, "mv": 36386, "\u00cf\u0125\u00ce\u00b7": 17186, "\u0120Heisenberg": 44000, "\u0120Based": 10635, "peak": 27183, "775": 49310, "\u0120Jordan": 13268, "enue": 23979, "uitive": 48714, "\u0120hetero": 50116, "\u0120construct": 3989, "\u0120blending": 41209, "\u0120significantly": 3012, "umar": 22711, "icks": 5519, "ruby": 26176, "\u0120fulfill": 19145, "\u0120governs": 42086, "\u0120fraudulent": 25447, "\u0120supposed": 6326, "\u0120\"(": 7998, "\u0120Britt": 37601, "]{": 1019, "yme": 28705, "\u0120Mexican": 16234, "amsfonts": 8834, "\u0120Biological": 35210, "CHAR": 15843, "EQ": 19090, "CW": 41584, "\u0120downward": 21169, "\u0120deciding": 18000, "file": 3140, "\u0120minim": 7221, "Route": 24158, "\u0120hobby": 34057, "\u0120instituted": 38417, "roduction": 7662, "wave": 15007, "Single": 21822, "\u0120Diamond": 25148, "*](#": 47446, "\u0120monocytes": 29649, "\u0120raw": 9305, "\u0120ROM": 33506, "\u0120Monthly": 43562, "elsen": 46323, "\u0120forfe": 24184, "\u0120Response": 19371, "|^": 10819, "him": 13243, "FALSE": 33814, "\u0120pacing": 35500, "Cluster": 31455, "\u0120Socorro": 48847, "\u0120located": 4441, "ked": 16386, "\u0120voltage": 6718, "Android": 18842, "attering": 9476, "\u010a\u0120\u0120\u0120\u0120\u0120\u0120\u0120\u0120\u0120\u0120\u0120\u0120\u0120\u0120\u0120\u0120\u0120\u0120\u0120\u0120\u0120\u0120\u0120\u0120\u0120\u0120\u0120": 6596, "\u0120cytok": 10815, "\u0121": 210, "rik": 16409, "models": 19286, "\u0120559": 47534, "\u0120Ce": 16357, "\u0120umbilical": 47224, "**^": 47546, "l": 77, "paces": 32328, "\u0120Together": 20058, "\u0120footprint": 33257, "\u0120hospital": 4675, "\u00c2\u0140": 34210, "yland": 36843, "\u0120detox": 40472, "\u0120Bur": 7634, "\u00e0\u00a4\u00a8": 23068, "\u0120EVENT": 30609, "\u00ce\u00af": 6450, "\u0120appet": 22115, "\u0120sites": 4375, "\u0120retardation": 48112, "\u0120subgroup": 14632, "Defendants": 38421, "\u0120compliance": 10276, "\u0120leaf": 10617, "\u0120falls": 11521, "\u0120grasp": 15909, "\u0120107": 14034, "UV": 14817, "canvas": 32688, "--------------------": 15879, "\u0120Make": 10338, "Inst": 10548, "\u0120cytokines": 16011, "\u0120Follow": 19166, "acetyl": 28152, "\u0120capric": 43636, "cember": 4246, "Matrix": 18507, "\u0120proble": 1409, "\u0120(<": 16616, "posable": 34690, "\u0120Pi": 16617, "\u0120Bd": 40518, "\u0120prop": 4198, "\u0120heard": 3735, "\u010a\u010a\u0120": 1744, "////////////////////////////////": 16985, "\u00d0\u013f": 25518, "ia": 571, "\u0120addr": 26181, "\u0120Sa": 10388, "\u0120nicotine": 31788, "\u0120GPL": 32506, "\u012022": 3307, "Education": 32868, "\u00ce\u00be": 20933, "\u0120ovar": 16119, "\u0120212": 21990, "\u0120killer": 17830, "\u0120striking": 13631, "\u0120planar": 23601, "--------------": 10521, "\u0120Babylon": 37125, "oused": 24695, "power": 9177, "iture": 10233, "Annotation": 37052, "\u0120weapon": 10485, "\u0120sparked": 35560, "\u0120238": 27518, "\u0120dreadful": 38074, "\u0120Surface": 29700, "\u0120juices": 44253, "\u0120gossip": 34168, "\u00e9\u0125": 24299, "\u0120averaged": 17522, "\u0120segreg": 34880, "\u0120sang": 21758, "\u00e4\u00b8\u012c": 16740, "\u0120countless": 23499, "\u0120Harry": 11643, "\u0120Qt": 25879, "\u0120cocktail": 29086, "\u0120aggregated": 40006, ")',": 41149, "Bytes": 16721, "\u0120ransom": 46091, "\u0120PO": 19784, "\u0120cartridge": 28719, "].\\": 46694, "awk": 28989, "\u0120OTHERWISE": 35497, "\u0120strang": 23457, "\u0120idol": 36123, "\u00e6\u00b3\u00a8": 44712, "\u0120citizen": 15245, "\u0120cylinder": 16657, "\u0120Administ": 10051, "767": 50246, "aters": 20264, "\u00ce\u00b1": 2141, "\u0120relent": 32027, "\u0120producer": 14281, "\u0120story": 2926, "yles": 9250, "\u0120distract": 36815, "\u0120asym": 8285, "UINT": 41092, "local": 6790, "community": 24925, "\u0120States": 2077, "\u0120slides": 19459, "\u0120Hay": 12665, "\u0120Pain": 21869, "GP": 12295, "ista": 8727, "\u0120shirts": 32622, "\u0120monks": 34955, "When": 3039, "\u0120adhesive": 21134, "\u0120fibrillation": 42237, "down": 3487, "to": 936, "\u0120Orlando": 27687, "\u0120sells": 27924, "ossier": 49138, "ented": 8006, "\u012000000000": 43652, "zech": 18506, "\u0120Barrett": 39457, "\u0120Ctrl": 46432, "\u0120probl": 37386, "\u00e2\u0122\u0132": 3250, "\u0120objection": 14926, "\u00c3\u00a9mon": 36197, "\u0120OW": 46192, "\u0120verse": 23252, "\u0120capable": 7032, "\u0120management": 4323, "\u0120loudly": 31311, "\u0120Eclipse": 32472, "\u0120Adjust": 29702, "Tu": 37675, "\u0120Respondents": 43607, "\u0120peg": 47997, "\u0120VL": 26387, "\u00e3\u0125\u0143": 24404, "\u0120Name": 9424, "\u0120Kitchen": 31990, "\u0120Quantitative": 36686, "oba": 27073, "\u0120SDK": 30500, "\u0120sleeping": 14343, "\u0120controls": 5760, "Det": 8486, "rific": 14830, "\u0120solvents": 32281, "\u0120Ajax": 47867, "\u0120metal": 5148, "\u0120Orange": 21491, "\u0120circuit": 5049, "ns": 2224, "\u0120blur": 29017, "bud": 27094, "\u0120jest": 25613, "\u0120peng": 42151, "\u0120INS": 22162, "735": 46676, "\u0120Tra": 6572, "\u0120wouldn": 5082, "wood": 5308, "wide": 4363, "wrap": 13585, "\u0120brace": 27965, "acial": 19601, "\u0120claimed": 7558, "\u0120engaged": 9583, "{}\\": 43945, "\u0120bara": 47039, "\u0120forcibly": 49375, "\u0120Independent": 20911, "\u0120loc": 1150, "error": 3775, "\u0120outset": 35681, "\u0120dimensions": 10103, "\u0120quot": 12686, "oelect": 41121, "\u012001": 14805, "\u0120visits": 12941, "\u0120sane": 44419, "''$": 42308, "infinity": 43723, "\u0120takes": 3936, "Regardless": 47271, "qi": 33980, "\u0120Shaw": 24999, "\u00ee": 170, "PROM": 35672, "\u0120resides": 31951, "ches": 2706, "vention": 4053, "\u0120culturally": 42838, "otides": 20327, "riz": 21100, "\u0120gamers": 40178, "smooth": 34006, "\u0120number": 1180, "\u0120dome": 34074, "Justice": 43743, "\u0120landed": 17735, "inject": 44155, "\u0120Anal": 14703, "\u0120Dies": 34147, "eness": 8098, "\u00c2\u013e": 16605, "\u0120secrecy": 37595, "\u0120334": 36027, "misc": 43671, "ome": 485, "\u0120ingredients": 12696, "\u0120carefully": 9257, "friendly": 19771, "\u0120eligibility": 26281, "otle": 29998, "ractable": 44374, "exercise": 48355, "\u0120familiar": 7615, "Anthony": 50047, "ration": 1589, "\u0120eldest": 39311, "agreement": 45694, "ize": 907, "orms": 19793, "_\\": 2253, "ellers": 20945, "ADA": 40851, "\u0120antagonist": 25166, "rys": 23155, "\u0120migraine": 41755, "hskip": 49819, "|}": 24800, "ische": 15488, "bear": 48211, "sembling": 35128, "iners": 32930, "\u0120illnesses": 31372, "\u0120Sydney": 17361, "\u0120Gir": 35480, "hops": 26001, "kay": 4629, "\u0120therapy": 4918, "\u0120TO": 5935, "\u0120fields": 4910, "\u0120Hob": 24756, "\u0120eq": 16186, "actic": 9994, "initial": 19078, "Facebook": 25116, "amoto": 32150, "\u0120renormalization": 39358, "already": 39735, "2002": 10016, "iversary": 16488, "SM": 6955, "\u0120Khan": 21128, "mutex": 22687, "\u0120wizard": 35589, "\u0120pragmatic": 41585, "psilon": 4277, "\u00d7\u00a7": 41855, "\u0120revert": 43004, "\u00e6\u0139\u0142": 47029, "\u0120Zion": 29452, "\u0120sparing": 49779, "\u0120distinguishes": 44587, "IRQHandler": 49760, "\u0120ultrasound": 18533, "\u0120ceramic": 25757, "\u0120Supply": 40429, "respond": 2541, "\u00e7\u0130\u00b0": 35321, "Ko": 40849, "IMO": 44293, "\u0120abbrev": 31931, "oucester": 47949, "anka": 22847, "iedad": 46368, "Medical": 41225, "\u00c3\u00a7ois": 37191, "\u0120Belgium": 22785, "\u0120imperfect": 35180, "\u0120irreversible": 38378, "New": 4257, "\u0120replen": 43692, "day": 1201, "\u0120originated": 23923, "\u00c2\u0124": 8381, "\u00d1\u0124\u00d0\u00b0": 27123, "\u0120Eye": 27919, "\u0120placeholder": 30300, "\u010a\u0120\u0120\u0120\u0120\u010a\u0120\u0120\u0120": 15398, "\u0120proposal": 10419, "joint": 16662, "\u0120Mul": 26251, "\u0120study": 1263, "\u0120grammar": 28146, "paths": 34605, "parable": 36730, "Dat": 14362, "MBOL": 43830, "\u0120benefits": 5373, "optic": 37016, "\u0120intoxicated": 45192, "ocations": 47575, "\u0120iTunes": 33139, "\u0120Fleming": 48585, "\u0120Trin": 49057, "\u0120rul": 5885, "\u0120laptop": 16556, "FX": 27208, "ipal": 19522, "bad": 14367, "lif": 6458, "Appe": 24135, "18": 1093, "venile": 18044, "context": 8882, "achusetts": 13462, "\u0120keep": 1978, "\u0120alt": 6945, "\u0120flowing": 19246, "usepackage": 2099, "\u00e8\u0125\u00bd": 20287, "oyle": 26558, "During": 10457, "\u0120Indiana": 14614, "\u0120disparity": 37808, "\u0120507": 38991, "\u0120snack": 33503, "\u0120displaying": 19703, "toolbar": 44338, "\u0120angrily": 48834, "\u0120grill": 32257, "\u00e1\u00bb\u013b": 36937, "\u0120detailing": 38746, "\u0120AA": 17838, "\u0120stainless": 31361, "i\u00c3\u00b3": 22125, "\u00d0\u00b0\u00d0\u00b2": 10324, "vo": 5711, "Organ": 25727, "\u00e1\u00bf": 16482, "equal": 11969, "nered": 25466, "\u0120related": 2905, "\u0120upregulated": 24680, "\u0120lineages": 34835, "\u0120researched": 41548, "\u00e1\u0125\u0136": 36017, "386": 20373, "\u0120echocardi": 32902, "\u0120facilitate": 12454, "ication": 8518, "\u0120joking": 43707, "Cart": 34395, "\u0120Judy": 38048, "355": 22341, "\u0120Scroll": 43103, "\u0120revoked": 43868, "SI": 5824, "\u0120Retail": 45943, "\u0120conject": 19704, "\u0120Cry": 34712, "uable": 8584, "\u0120nam": 9557, "clip": 11536, "\u0120Montgomery": 27438, "\u0120locality": 33643, "\u0120hit": 4352, "\u0120economic": 5054, "elyn": 30024, "student": 39095, "print": 3845, "NESS": 17582, "substr": 39765, "\u0120answer": 3662, "\u0120surgeons": 30208, "\u0120runway": 39486, "\u0120administrative": 10656, "\u0120apert": 19587, "\u00c2\u012f": 22015, "\u0120publ": 2958, "\u0120campaign": 4544, "\u0120Assume": 22883, "\u0120dou": 2443, "08": 2904, "otyp": 6042, "\u0120Director": 9966, "essed": 16187, "LES": 23710, "\u0120Gabriel": 27581, "\u0120CONTRIBUT": 35819, "\u0120d\u00c3\u00a9s": 38050, "\u0120punished": 29163, "\u0120metabolites": 19789, "\u0120spect": 2812, "Me": 5072, "\u0120turn": 1614, "\u0120differently": 13359, "\u0120Fix": 22360, "\u0120\u00d0\u00a2": 32757, "setting": 28617, "\u0120Memorandum": 35235, "\u01201906": 38701, "overview": 39930, "\u0120Plot": 40185, "iculously": 40685, "\u0120UINT": 41078, "\u0120quir": 43915, "comes": 3217, "okinetic": 37004, "\u0120nanost": 44930, "dong": 45689, "Methods": 15568, "otrop": 41916, "\u0120Odys": 45744, "\u0120Statutes": 47654, "aret": 9668, "\u0120scientists": 10950, "\u0120Senator": 18718, "demo": 32971, "\u00e4\u00ba\u013d": 40951, "\u00c3\u00b3n": 3876, "\u0120scrut": 19666, "\u0120Guang": 37830, "\u0120Bachelor": 40856, "\u0120souls": 23729, "stein": 6339, "\u00c5\u0141": 9663, "\u0120inward": 27162, "883": 39273, "\u0120age": 2363, ")**": 4846, "agul": 31695, "\u0120hone": 39741, "qui": 41496, "\u0120monuments": 41650, "rophy": 13354, "\u0120backed": 17245, "\u0120Alternatively": 20564, "\u0120asbestos": 43237, "Blocks": 43865, "\u0120Scul": 46661, ")\u00e2\u012a\u0134": 48885, "\u0120\u00d0\u0137": 35005, "ski": 9327, "Welcome": 21096, "\u0120commands": 13896, "\u0120stipulation": 41626, "\u0120hacia": 49774, "356": 25008, "IFF": 42130, "Islam": 34330, "uve": 48132, "MTP": 47887, "\u0120congress": 27797, "\u0120inference": 17032, "\u0120\u010a\u0120\u0120": 21898, "\u0120Mortgage": 45103, "\u0120obey": 20090, "bearing": 26201, "\u0120LHC": 35864, "vious": 3391, "\u0120ac": 913, "irectional": 30869, "\u00e7\u00bb\u0131": 49344, "rance": 27638, "\u00e3\u0123\u00ab": 5444, "Normal": 20167, "\u0120clinic": 14235, "\u0120Output": 24882, "\u0120one": 581, "ken": 3612, "eration": 3328, "rition": 9174, "\u0120ancient": 9129, "\u0120garden": 10329, "\u0120![": 13976, "\u0120PE": 11031, "\u0120brow": 6479, "\u0120OP": 13664, "\u0120pour": 6531, "raising": 25118, "\u0120Horse": 27950, "\u0120Loop": 32057, "\u0120poverty": 14192, "orp": 24578, "anni": 30100, "\u0120ONE": 21252, "\u0120Short": 14196, "Examples": 32896, "optimal": 29776, "\u0120prospectively": 44045, "HANDLE": 45191, "\u0120Collections": 47304, "\u0120excav": 27960, "\u0120firm": 5882, "\u0120housing": 8039, "'\\": 11671, "cho": 4039, "1987": 15089, "Example": 16698, "\u0120trouble": 7596, "\u0120Fox": 11024, "\u0120potatoes": 20951, "struct": 2855, "\u0120\u00d0\u00bd": 4418, "\u0120tutorial": 23647, "\u0120intriguing": 27807, "\u0120recurrent": 18902, "\u0120disappointment": 27531, "uttle": 38751, "\u0120Tour": 11997, "1800": 37773, "\u0120tachy": 38922, "177": 15907, "aturday": 7023, "Motion": 39363, "utor": 6854, "\u0120489": 40625, "ustration": 10965, "\u0120Clare": 42319, "annot": 11423, "\u0120gland": 21147, "\u0120bureauc": 25126, "\u0120mach": 3674, "\u0120singular": 11098, "agner": 25823, "\u0120sure": 2119, "\u0120notices": 27833, "asury": 19659, "\u0120coins": 21078, "MF": 31309, "\u0120primordial": 44036, "outhern": 6360, "\u0120287": 29669, "uant": 25513, "\u0120march": 14172, "\u0120electrophys": 44553, "\u0120Dutch": 13986, "\u013b\u00aa": 8318, "\u0120commutative": 33796, "\u0120Brid": 33628, "orno": 41530, "ImageView": 45799, "\u0120stain": 17996, "\u0120polymorph": 14057, "\u0120throughout": 4768, "signed": 36323, "\u00d7\u00a4": 43845, "\u0120Elaine": 47385, "after": 6438, "\u00cf\u0123\u00cf\u0129": 49798, "\u0120IIS": 50122, "Americ": 6496, "encil": 21177, "\u00e5\u012e": 15899, "\u0120influenced": 12208, "\u0120referenced": 23378, "\u0120foundation": 12153, "Cells": 30870, "\u0120bid": 12246, "\u0120panels": 12471, "\u0120trace": 10711, "\u0120cos": 7349, "\u0120sacrifice": 17789, "ople": 879, "ceptive": 31898, "\u0120snakes": 37094, "\u0116": 199, "vector": 11000, "arxiv": 39962, "iya": 44631, "\u0120coach": 8690, "\u0120welcome": 10112, "ustomed": 28048, "\u0120sur": 919, "uj": 10441, "\u0120spouse": 22333, "\u0120conductor": 23998, "Summary": 18548, "\u0120someone": 3095, "\u0120Italy": 9972, "Picker": 35561, "distance": 19893, "\u0120Contrary": 42748, "irie": 34891, "\u0120Neut": 44889, "\u00c3\u00a9n\u00c3\u00a9": 33678, "\u0120peasant": 41207, "(-\\": 19724, "\u0120nud": 34408, "provided": 33850, "PTR": 33955, "STE": 38795, "Factor": 17070, "empre": 46404, "626": 47059, "\u0120second": 1273, "|}\\": 47715, "\u0120proxy": 17335, "ipers": 48412, "ijing": 16741, "within": 24767, "acey": 32175, "riend": 6902, "bestos": 38784, "\u0120asymmet": 40736, "\u0120browser": 9882, "mighty": 40884, "\u0120Films": 43667, "715": 44941, "\u0120black": 2806, "\u0120aan": 19935, "\u0120winding": 25072, "\u0120councils": 45667, "-----------": 9998, "ophores": 47785, "\u0120labs": 39803, "junction": 45148, "\u0120efect": 48636, "yahoo": 49269, "\u0120lute": 40118, "but": 2858, "should": 11425, "\u0120Mood": 36189, "\u0120Neo": 40989, "nn": 9866, "Tr": 2290, "write": 6343, "isse": 16886, "\u0120incremental": 32809, "\u010a\u0120\u0120\u0120\u0120\u0120\u0120\u0120": 648, "\u0120proport": 5782, "pv": 45270, "421": 42383, "\u0120Calder": 47660, "514": 42389, "\u0120haben": 25433, "\u0120Regular": 35116, "\u00c3\u00a4s": 38083, "weights": 42739, "ameter": 6245, "GO": 10993, "\u0120Eliot": 45773, "cler": 13147, "\">": 1138, "\u0120been": 644, "\u0120empl": 24795, "\u0120commence": 25301, "Crypt": 33862, "\u0120understood": 7192, "\u0120atop": 31831, "Dav": 12403, "riched": 16278, "sf": 6091, "\u0120transcript": 7045, "\u0120arbit": 6444, "\u0120accepting": 18738, "\u0120Fern": 20344, "\u0120WHAT": 29632, ".\"_": 38039, "\u0120??": 38199, "\u0120CHE": 44104, "olds": 3502, "411": 33775, "Swift": 44756, "Eventually": 46587, "\u0120Moran": 50046, "\u0120Planned": 46933, "\u00d0\u00b0\u00d1\u0124\u00d1\u012e": 15309, "pent": 21601, "inny": 23819, "_{\\{": 49372, "\u0120complic": 5177, "Chief": 32100, "BUF": 36675, "\u0120refund": 23005, "ULTS": 34077, "atization": 47159, "\u0120indexes": 28308, "ccording": 3421, "\u0120whit": 30661, "\u0120delayed": 13444, "Nat": 45721, "\u0120administr": 7255, "\u0120malfunction": 43280, "\u0120decline": 10343, "\u0120hemodynamic": 43631, "\u0120petroleum": 36941, "GY": 39491, "\u0120adjustments": 23927, "commercial": 37763, "\u0120Rather": 13771, "\u0120Gary": 18975, "\u0120retaining": 26179, "\u0120xe": 12762, "tr": 1206, "\u0120\\*\\*": 22004, "\u0120rows": 10175, "aho": 22278, "\u0120enjo": 23919, ".__": 24856, "host": 5465, "\u0120PROVIDED": 33278, "\u0120cosmetic": 35361, "366": 25772, "OBJECT": 35581, "zet": 39753, "\u0120contag": 41142, "\u0120person": 1436, "\u00e0\u00a6": 8082, "\u0120475": 34581, "friends": 29261, "\u0120register": 8749, "\u0120CAD": 29263, "\u0120similarity": 14259, "\u0120hypox": 17793, "DEBUG": 18828, "Listen": 19577, "\u0120somebody": 11853, "\u0120rav": 37952, "\u0120resc": 9708, "Service": 7456, ".\u00e2\u0122\u013b": 9027, "\u0120archives": 31523, "\u0120CONTR": 19061, "\u0120Emp": 11274, "sha": 20409, "CAG": 32382, "ishly": 41524, "pain": 31406, "953": 41892, "stalk": 43222, "\u00c3\u0143a": 6336, "\u0120boiling": 25317, "ClassName": 43731, "\u0120Files": 23895, "\u0120Add": 5733, "\u0120conquer": 35590, "22": 1423, "\u0120establish": 5100, "\u0120\u0120\u0120\u010a": 38679, "\u0120blogger": 38816, "\u0120Ros": 11957, "\u0120alleles": 23561, "izes": 4219, "\u0120b": 270, "\u0120malign": 11934, "bigoplus": 36985, "\u0120sex": 2825, "\u00e5\u0130\u0141": 39673, "\u0120mates": 41730, "\u0120gren": 35596, "URES": 43087, "\u0120Client": 23472, "\u00ce\u00b2": 5346, "\u0120seu": 24437, "\u0120blows": 31033, "ENCE": 17740, "arers": 44798, "\u0120aquatic": 38000, "holm": 26666, "\u0120Bottom": 36035, "\u0120pasture": 48554, "\u0120resulting": 4795, "\u0120p\u00c3\u0125": 45122, "RI": 4873, "\u0120erased": 44767, "\u0120SMB": 49687, "\u0120wing": 12916, "\u0120documented": 14290, "\u0120cult": 2453, "ater": 727, "ecl": 44008, "\u0120reacts": 44865, "\u0120ones": 4394, "imately": 7325, "\u0120Bee": 31069, "atoes": 45000, "\u0120aluminium": 47645, "IGHT": 9981, "ived": 1567, "\u0120ser\u00c3\u00a1": 46240, "\u0120Zen": 26167, "\u0120Duchess": 49542, "omas": 4921, "IO": 6527, "Mult": 11001, "device": 10933, "\u00ce\u00af\u00ce\u00b1": 18184, "\u0120protest": 8005, "Sat": 20794, "Jon": 25324, "\u0120Fame": 27993, "\u0120tapes": 33942, "\u0120lesion": 15411, "216": 17271, "\u0120carrots": 39033, "Moreover": 21342, "\u0120syn": 2753, "uren": 39771, "\u00e4\u00b8\u0138": 42848, "jdbc": 43313, "|$.": 47044, "\u0120carb": 12344, "\u0120bowl": 11636, "\u0120Character": 18633, "\u0120retina": 30067, "\u0120break": 2740, "\u0120founders": 33663, "\u0120Volunte": 39067, "ondo": 23863, "\u0120peaceful": 19951, "\u0120qualifications": 32696, "\u0120Alexa": 31717, "\u0120Resolution": 36347, "\u0120Heroes": 44925, "\u0120\u00c2": 1191, "\u0120Rule": 7804, "beyond": 42218, "\u0120divers": 7940, "\u0120Sid": 24752, "\u0120COUN": 46981, "\u0120virtue": 16968, "vement": 41562, "izon": 21148, "\u0120Japanese": 6692, "\u00e7\u012c\u00b6": 43397, "}&": 21316, "\u0120illness": 9749, "\u0120clinics": 25543, "}})$.": 39049, "\u0120particul": 46596, "TZ": 46714, "\u0120missionaries": 46895, "\u0120suited": 18960, "\u0120Even": 4952, "\u0120vigorously": 42210, "mark": 4698, "\u0120quadrup": 42227, "\u0120plugged": 43867, "\u00ce\u00ba": 5676, "icity": 5755, "\u0120rapper": 48048, "\u01201910": 31707, "\u0120dragged": 22944, "matic": 33778, "\u00e0\u00a4": 2483, "\u0120sous": 32022, "ptide": 18238, "\u0120Apply": 39530, "database": 25522, "\u0120phe": 39720, "\u00e6\u00b2\u00a1": 46049, "etic": 1999, "\u0120equals": 18207, "\u0120noticing": 36307, "\u0120Comparison": 23736, "ited": 959, "\u0120Wheeler": 38918, "rox": 41636, "\u0120transformation": 9261, "\u0120Lew": 11146, "\u0120Pacific": 11553, "WC": 23398, "done": 17506, "srep": 43644, "\u0120Joshua": 29092, "\u0120pers": 1153, "\u0120clust": 4359, "\u0120license": 7981, "\u0120update": 5731, "News": 19537, "\u0120determinants": 29647, "central": 25765, "pleasant": 26273, "date": 2754, "\u00e3\u0123\u00b3": 46674, "Previous": 25925, "\u0120behaving": 50090, "\u00c3\u00a4t": 12271, "\u0120grade": 9646, "\u0120impair": 11490, "\u00c3\u00b3w": 18538, "arma": 21401, "enary": 35634, "typen": 15224, "\u0120Usage": 43825, "\u0120German": 5685, "\u0120accomplish": 14294, "GLIGENCE": 49169, "open": 5758, "\u0120bc": 49501, "NN": 8504, "ition": 539, "oyal": 6462, "064": 36717, "rimination": 30879, "\u0120dreams": 13702, "\u0120Farmer": 49146, "========": 822, "andon": 7541, "\u0120Dise": 15094, "oval": 19249, "\u00d0\u0134": 22292, "\u0120Sr": 22827, "66": 2526, "attice": 9772, "\u0120flame": 21253, "Recently": 24881, "\u0120progressed": 33127, "\u0120kol": 38301, "j\u00c3\u0142": 39461, "Us": 8484, "\u0120ventil": 39825, "\u0120standalone": 40468, "Song": 41296, "\u0120Saw": 29961, "\u0120separates": 36158, "amboo": 35924, "uuid": 36268, "\u0120interloc": 45460, "\u0120uncover": 32355, "\u0120sorry": 7016, "VV": 31983, "Does": 10795, "\u0120dilution": 23458, "\u0120laparoscopic": 35299, "luent": 36711, "\u0120\\*": 9350, "\u0120498": 42872, "\u0120SER": 38802, "utum": 44080, "\u0120dm": 42961, "\u0120Dodge": 45323, "\u0120tally": 47966, "\u0120Lisbon": 48104, "\u0120helpful": 9371, "aph": 9761, "ney": 2191, "detail": 20119, "\u0129": 218, "}$.": 3363, "\u0120binds": 22294, "\u0120174": 24727, "\u0120empty": 6325, "sus": 36903, "\\\\\\": 45677, "\u0120Cunningham": 45691, "\u0120overdose": 46539, "\u0120Creates": 46778, "\u0120ease": 11990, "\u00c3\u00bcller": 35603, "update": 11183, "\u0120maid": 30302, "\u0120endometrial": 39202, "\u0120axes": 24039, "quark": 46310, "Named": 37195, "\u0120communism": 48709, "\u0120allerg": 25096, "\u0120pos": 803, "\u00cf\u0127": 5117, "\u0120stove": 33360, "\u0120parsed": 36838, "Quantum": 42175, "\u0120thyroid": 17298, "\u0120Maps": 33861, "amation": 20717, "\u0120defence": 17147, "ackage": 1627, "opro": 39587, "\u0120Afghan": 13376, "rive": 6606, "cursor": 14849, "\u0120simplicial": 45666, "\u0120hanging": 14203, "ogel": 40836, "FileType": 48632, "hhhh": 47626, "\u0120nurs": 9444, "\u0120skinny": 42345, "otions": 47839, "voltage": 36133, "\u0120sql": 21512, "\u0120Toy": 23183, "\u0120General": 4214, "\u0120dr": 1837, "\u0120murder": 7701, "ATCC": 47020, "\u0120\\{": 9121, "Sign": 11212, "\u0120classifier": 30410, "protocol": 26324, "profile": 14729, "\u0120popul": 28969, "\u0120cou": 2565, "leftarrow": 33028, "Environment": 27041, "\u0120Craw": 27688, "\u0120Felix": 36172, "\u0120Caf": 42107, "Invalid": 19504, "\u0120Ranch": 35607, "\u0120[`": 44308, "\u0120esp": 17985, "\u0120club": 5453, "\u0120pace": 13870, "pressed": 30813, "\u0120poker": 32748, "\u0120Moving": 39207, "\u0120sua": 20983, "Read": 5703, "\u0120===": 11013, "rose": 11194, "\u0120Tok": 14391, "*(*": 24222, "ultz": 38085, "\u0120enlarge": 46112, "QC": 37556, "\u0120Internet": 7336, "\u0120Kent": 12808, "played": 35293, "\u0120Byz": 38557, "paragraph": 43575, "Fish": 48290, "\u0120400": 9166, "1994": 13034, "\u0120HOU": 41831, "\u0120municipal": 21209, "\u0120beating": 18019, "\u0120junior": 19394, "\u0120expired": 27416, "\u0120Russian": 7247, "ACA": 33550, "QT": 44243, "baz": 31953, "\u0120early": 2393, "\u0120comparing": 10941, "\u0120decode": 30358, "None": 11336, "\u0120admits": 19943, "\u0120didnt": 42126, "\u0120grief": 20993, "\u0120massless": 46718, "Hang": 49026, "\u0120regist": 6167, "\u0120Assert": 22265, "Enable": 27265, "amous": 14919, "rin": 11078, "\u0120lon": 16646, "\u0120counsel": 5067, "\u0120vaccination": 19640, "\u0120MLB": 36481, "\u0120383": 38162, "illance": 11845, "/*": 3122, "\u01201895": 42549, "\u0120EGF": 44367, "\u0120}": 748, "\u0120Comisi\u00c3\u00b3n": 46187, "\u00d0\u00b8\u00d0\u00b2": 16423, "160": 9913, "]<": 47384, "neut": 47850, "\u0120maintain": 6558, "\u0120bif": 25171, "\u0120ads": 16557, "\u0120PIP": 50248, "\u0120Campbell": 20163, "ria": 5182, "Fa": 30235, "\u0120Alfred": 24179, "\u0120lack": 3480, "odes": 3180, "\u0120Integer": 22008, "\u0120Mang": 41540, "\u01201915": 27698, "\u0120CCD": 33169, "ilton": 7839, "\u0120hered": 34924, "\u00d9\u012c\u00d8\u00a9": 32229, "nx": 28708, "ientes": 42523, "\u0120bind": 8980, "\u0120bother": 15105, "\u0120Ivy": 45397, "bibr": 14457, "\u0120245": 22752, "\u0120prejudicial": 33218, "\u0120oft": 39670, "utt": 13077, "?:": 18346, "conditional": 35428, "\u0120MPI": 45063, "ROOT": 34101, "\u0120contains": 4428, "MD": 7414, "\u0120correcting": 35827, "\u0120others": 2571, "similar": 22202, "UInt": 39136, "\u00e2\u0136": 9799, "years": 10526, "IN": 1042, "\u0120Shah": 24919, "\u0120carp": 26918, ",\\,\\": 18866, "CIAL": 28408, "polarized": 49814, "\u0120Cup": 9167, "\u0120(\u00c2\u00b1": 27852, "otox": 10505, "\u0120tort": 9810, "\u0120Font": 24216, "\u0120\".\"": 40923, "\u0120Orient": 45674, "\u0120collaborated": 49586, "\u0120Jack": 5332, "\u00e9\u0124": 30086, "\u00c3\u00a9n": 9390, "mol": 17071, "nae": 48918, "liked": 44939, "\u0120preacher": 50146, "front": 6342, "\u00d0\u00b5\u00d0\u00bd\u00d0\u00b8\u00d0\u00b5": 22515, "Educ": 25735, "\u0120Ba": 11086, "Blob": 45020, "\u0120curs": 50215, ",%": 21795, "\u0120rotation": 9381, "\u0120differentiate": 22629, "uku": 42379, "Miller": 42038, "ellar": 8739, "ye": 6683, "vill": 40579, "\u00e5\u0132\u0130": 29427, "orous": 11303, "\u0120s\u00c3\u0125": 39300, "ito": 7067, "vas": 9210, "person": 10816, "\u0120BRCA": 40624, "pinion": 22104, "\u00e8\u00bd": 27258, "thel": 34633, ".\u00e2\u0122\u013e": 32300, "\u0120n\u00c3\u0125": 38229, "legend": 42262, "\u0120Rex": 36533, "\u0120SSH": 41728, "\u0120grammat": 47412, "idas": 21400, "\u0120Adrian": 33357, "\u0120intersect": 23965, "\u0120\u00ce\u00b5\u00cf\u0122": 29495, "\u0120rece": 1645, "\u0120labor": 5299, "\u0120Dun": 12221, "134": 15468, "xc": 10587, "\u0120Jak": 32319, "\u0120Deep": 18147, "\u0120Revolution": 15033, "\u0120shortcomings": 35387, "ail": 647, "\u0120Gibbs": 36641, "abstract": 15834, "mw": 50198, "\u0120anxiety": 10397, "\u0120mediator": 37190, "219": 24558, "if": 338, "\u0120Xi": 36852, "\u0120Government": 7295, "\u0120CSF": 25601, "IONS": 21109, "\u0120cannot": 2550, "\u0120tearing": 35765, "Vi": 37956, "\u0120logical": 13760, "\u0120constru": 16276, "GS": 10339, "\u0120usb": 29227, "rophot": 36293, "713": 40210, "\u0120malignancies": 36929, "adores": 29213, "\u0120474": 42461, "\u0120opio": 22596, "\u0120620": 44733, "\u0120Evening": 48136, "aan": 16189, "\u0120Parts": 41371, "deen": 48737, "\u0120Carib": 23920, "\u0120continual": 45120, "})$$": 43742, ",_": 8291, "\u0120lax": 46948, "\u0120rude": 30446, "indi": 40620, "response": 10927, "\u0120mV": 36436, "\u0120Wilson": 10520, "\u0120Rodgers": 41678, "\u0120affordable": 18261, "\u0120bloom": 30601, "\u0120thought": 1869, "\u0120\u0120\u0120\u0120\u0120\u0120\u0120\u0120": 286, "LL": 2293, "dit": 22940, "SN": 18243, "\u0120Kos": 24986, "loaded": 19052, "Visible": 26998, "rk": 33716, "Seconds": 41989, "\u0120Warning": 42982, "\u0120\u00c3\u012b": 17317, "anu": 40160, "596": 36679, "1937": 45750, "\u0120alleging": 23962, "she": 6689, "\u0120surfaces": 9421, "\u0120speeches": 31537, "\u0120marginally": 42876, "\u0120clips": 29205, "aldehyde": 38869, "Om": 39007, "\u0120decir": 39048, "27": 1630, "figures": 40203, "BB": 10172, "naments": 27647, "\u0120ri": 4172, "\u0120integrate": 19837, "\u0120wardrobe": 43530, "\u010d\u010a\u010d\u010a": 15971, "\u0120uncertainty": 11649, "mage": 27316, "YE": 27413, "\u0120Hack": 34999, "ousing": 19315, "\u0120pont": 42020, "\u0120Mold": 49523, "\u0120vehicles": 9411, "\u0120coloring": 35633, "stat": 8766, "\u0120Levy": 45082, "\u0120Big": 7967, "wp": 16471, "\u0120note": 3877, "\u0120Phillips": 22618, "\u0120collar": 23966, "\u0120Rodrig": 22709, "\u0120jurisdiction": 7571, "=============": 18669, "ameth": 31906, "educated": 45093, "\u0120compl": 3137, "\u0120components": 4295, "\u0120injuries": 9478, "\u0120Its": 7850, "299": 24514, "jango": 19762, "bags": 46728, "\u0120214": 25901, "\u0120secured": 14049, "\u0120worldwide": 11762, "\u0120interplay": 36039, "\u0120suitably": 43364, "backup": 45978, "\u0120FK": 46789, "\u0120underlying": 6944, "\u0120m\u00c3\u00b6": 30203, "\u0120liquidity": 49005, "gathered": 14856, "November": 23375, "work": 1601, "\u0120infra": 16414, "\u0120lab": 5188, "\u0120snatched": 48134, "chlor": 19700, "eer": 49388, "\u0120stric": 34614, "completion": 45634, "\u0120immunofluorescence": 35055, "\u0120degradation": 11961, "ictor": 8617, "thread": 11972, "\u0120shortly": 13515, "amss": 8809, "\u0120fingers": 9881, "\u0120eg": 24088, "\u0120compromised": 25047, "\u0120Sacramento": 36405, "inous": 37724, "amis": 45205, "Nos": 45433, "601": 39855, "{})": 39224, "\u0120sentencing": 14625, "\u0120Akt": 28945, "oral": 7909, "\u0120fragmented": 42283, "\u0120methanol": 26492, "\u0120quiz": 39627, "\u0120Erin": 46604, "\u0120Rochester": 39528, "\u0120acoustic": 19463, "\u0120concludes": 20097, "\u0120persu": 12407, "Spanish": 29520, "\u0120worries": 28314, "ampions": 6543, "\u0120TOP": 16087, "\u0120donated": 26837, "\u0120Maj": 18410, "\u0120vacant": 33997, "\u00c4\u0123s": 42257, "\u0120turf": 44409, "\u0120Terminal": 37060, "AMA": 38022, "appro": 6772, "\u0120zeal": 42939, "ECs": 31353, "\u0120Whilst": 46365, "Blo": 48265, "\u0120Ket": 50105, "products": 23832, "opo": 38332, "izing": 3006, "\u0120vacu": 39499, "\u0120ric": 15438, "ermal": 19278, "astric": 42925, "\u00e0\u00a5\u012a": 33358, "ksi": 22516, "otransferase": 47640, "note": 9939, "\u0120bang": 29246, "\u0120accessories": 28234, "antly": 5954, "\u0120ingred": 10275, "iegel": 50199, "inched": 39012, "\u0120inventions": 47112, "\u0120broadcasting": 32380, "\u0120destabil": 37355, "uber": 22651, "pard": 43832, "reens": 10436, "\u0120particle": 8091, "\u0120Hoe": 49502, "\u0120networking": 23245, "ilated": 31718, "BF": 16380, "TOR": 22726, "\u0120Shadow": 28258, "\u00e2\u0124\u00ac\u00e2\u0126\u00a2": 47719, "\u0120horrible": 19201, "\u0120Ey": 39896, "^\u00c2\u00ae^": 31743, "\u0120redu": 1660, "amins": 31278, "\u0120ourselves": 9361, "\u0120withdrawn": 26924, "\u0120HO": 28538, "\u0120\u00cf\u0126\u00ce\u00b7\u00cf\u0124": 24073, "chor": 27918, "\u0120discrim": 7134, "gart": 23946, "categories": 34286, "\u0120about": 670, "\u0120Welfare": 34142, "\u0120objects": 5113, "\u0120fluctuations": 15113, "\u0120WAY": 32155, "\u00d8\u00af": 9211, "\u0120Bru": 12810, "RAY": 23544, "igi": 33014, "rogenic": 41508, "\u0120prohibited": 19772, "\u0120accum": 7358, "\u01201937": 27598, "\u0120contro": 8830, "\u0120inj": 2450, "\u0120gloom": 43580, "Deg": 47068, "\u0120mucus": 47489, "\u0120Chu": 48012, "\u0120ast": 7846, "\u0120paste": 15596, "issued": 47401, "ide": 504, "\u0120dram": 8711, "\u0120ben": 2240, "pec": 1553, "urb": 4063, "\u0120ter": 4109, "berries": 25058, "licts": 37693, "Two": 7910, "ographer": 25895, "\u0120danger": 5434, "\u0120Observe": 45356, "\u00c3\u00a1nd": 44193, "\u0120acry": 28639, "\u0120excel": 34219, "itch": 2682, "\u0120admission": 11341, "\u0120shear": 19707, "\u0120357": 34506, "\u0120arth": 14665, "\u00c3\u00a9c": 32839, "\u0120aim": 4388, "arguments": 31126, "\u0120509": 42400, "Bron": 39674, "gres": 29878, "\u0120seriously": 10369, "\u0120Age": 11362, "ettes": 23314, "her": 379, "\u0120directive": 26777, "\u0120Palmer": 28854, "\u0120persons": 7732, "\u00e7\u00a7": 16998, "bus": 13097, "}%": 26172, "\u0120Vul": 34820, "\u00d0\u00b0\u00d0\u00b1\u00d0\u00be\u00d1\u0124": 36324, "\u0120Ply": 41659, "\u0120Flo": 46311, "\u0120}\\": 11153, "\u0120Turks": 47563, "OURCES": 50186, "\u0120himself": 2994, "nia": 15298, "phrine": 35594, "\u0120work": 789, "\u0120regulators": 21790, "\u0120dehydrogen": 26427, "\u0120/>": 4725, "Att": 6601, "\u0120malignancy": 32108, "ignant": 45806, "\u0120cro": 9187, "\u0120rotates": 45933, "\u0120smoke": 11283, "\u0120prophyl": 27634, "\u0120492": 45223, "trigger": 29363, "\u0120electromagnetic": 19302, "\u00cf\u0126\u00ce\u00b1": 14439, "\u00d0\u00bd\u00d1\u012d\u00d1\u0127": 28167, "uximab": 45424, "\u0120with": 342, "\u0120cried": 14187, "Database": 21563, "\u0120superconducting": 32890, "\u0120below": 2708, "essages": 23282, "\u0120intraoperative": 43872, "\u0120parch": 44959, "122": 14351, "ycler": 42447, "\u0120Singer": 42166, "\u0120Fund": 10980, "ixon": 17707, "}\\;": 32453, "\u0120aided": 35479, "\u0120dormant": 50188, "oin": 31511, "ux": 2310, "GF": 4161, "bably": 15138, "\u0120marker": 10705, "Chars": 45132, "scale": 7527, "\u0120\\;": 11549, "achers": 24751, "\u0120Although": 4129, "\u0120Island": 8451, "\u0120handle": 6016, "\u0120Heavy": 32592, "\u0120tourist": 22777, "\u0120\u00ce\u00b7": 24355, "\u0120transportation": 13120, "\u0120\u00c3\u0139": 6806, "\u0120hesitate": 32379, "Cause": 33460, "\u0120expects": 21973, "\u0120stranger": 20218, "Lic": 49124, "\u0120spoon": 26531, "\u0120Vaugh": 38923, "\u0120')": 47071, "\u0120prophylactic": 49528, "\u0120pursu": 8205, "\u0120maker": 24320, "\u00e3\u0123\u00a8\u00e3\u0123\u0139\u00e3\u0123\u00a6": 44517, "Songs": 49705, "\u0120volunteers": 15986, "492": 33964, "\u0120complications": 10552, "Women": 22737, "\u0120telescopes": 49997, "\u0120nerve": 11083, "\u0120WARRANTY": 23181, "al": 267, "rencies": 24034, "\u0120Hamm": 25478, "tuple": 31491, "\u0120motif": 14443, "GL": 5990, "\u00c3\u00afve": 30180, "olla": 30997, "6789": 43784, "Graphics": 37430, "strain": 49292, "\u0120Airlines": 29218, "\u0120judging": 32721, "\u0120{},": 30744, "\u0120deformed": 37196, "\u0120altogether": 17965, "ployment": 27378, "isi\u00c3\u00b3n": 32320, "\u0120MH": 32322, "================================================================": 15256, "\u0120Petersburg": 34592, "AQ": 35572, "\u0120fen": 38775, "\u0120Hume": 47094, "\u0120June": 3978, "ror": 6045, "\u0120appellants": 21142, "\u0120anxious": 20138, "ifies": 7790, "\u0120ki": 25130, "rates": 27619, "\u0120rc": 27657, "SYSTEM": 47146, "\u0120confronting": 49672, "rophe": 33875, "\u0120knots": 33462, "\u0120mundane": 48657, "Components": 40333, "abbit": 12815, "\u0120Pop": 12278, "\u0120Plains": 49668, "\u0120pages": 7223, "\u0120Pictures": 30200, "High": 12412, "ogi": 48000, "\u0120agent": 5570, "\u0120\u00ce\u00b1\u00ce\u00bd": 36684, "\u0120resemb": 22066, "\u0120begg": 28332, "\u0120meal": 11484, "Fan": 49987, "\u00c3\u00a4h": 21243, "\u0120SNP": 20231, "\u0120preceded": 29920, "\u0120bye": 44319, "Jet": 40339, "\u0120Ja": 21572, "arial": 24406, "\u0120fox": 30013, "\u0120generator": 14156, "Ki": 40170, "IGF": 48345, "eLife": 48763, "aylor": 9614, "\u0120Raymond": 29936, "\u0120decay": 10027, "olutions": 17009, "     ": 50273, "obuf": 23605, "419": 43676, "\u0120point": 1127, "\u0120curing": 37374, "\u0120completed": 6312, "sources": 33491, ")+(": 38849, "\u0120precaution": 47644, "\u0120contribution": 7680, "\u0120paying": 10054, "\u0120Serum": 30028, "Apart": 41618, "\u0120prince": 24012, "mean": 10722, "\u0120Pir": 25017, "\u0120bamboo": 42657, "\u0120involve": 6388, "0008": 19765, "\u0120infer": 9441, "\u0120lt": 46007, "\u0120abilities": 15277, "ippets": 46588, "\u0120contraception": 49907, "LEASE": 26084, "oglobin": 20491, "ous": 528, "usa": 26407, "\u00e4\u00b9\u012a": 43244, "ised": 1701, "mac": 12432, "azy": 26537, "\u0120disabilities": 26545, "\u0120GmbH": 38230, "Treatment": 40189, "YY": 21226, "\u0120ingen": 35604, "\u0120[\u00e2\u0122\u00a6]": 21938, "\u0120hypertensive": 41039, "\u0120receptor": 6437, "Movie": 48157, "\u0120Thai": 28191, "\u0120Mem": 6700, "\u0120milestone": 41457, "\u0120gu": 1149, "\u0120Romanian": 45575, "\u0120neuronal": 16069, "init": 4478, "\u0120chi": 21477, "\u0120Hospital": 8896, "\u0120projects": 6493, "\u010d\u010a\u010d\u010a\u0120": 26061, "\u0120glorious": 28548, "\u0120stunning": 21472, "IDTH": 24282, "\u0120Linux": 13492, "\u0120park": 5603, "\u0120Monster": 39608, "isson": 17469, "\u0120elsewhere": 11358, "\u0120pollut": 33076, "igin": 15085, "\u0120conceive": 42684, "j\u00c3\u00a4": 46550, "enh": 17305, "\u0120cat": 5798, "their": 14094, "\u0120controversial": 15620, "Enter": 15886, "UTH": 19366, "\u0120typeof": 29144, "\u0120Sequence": 31583, "pose": 3014, "icio": 34339, "\u0120bishops": 39180, "ellen": 22220, "icate": 9038, "\u0120li": 632, "ccc": 28716, "\u0120reconc": 30855, "\u0120invariance": 31429, "\u0120sleeves": 37318, "1001": 40506, "\u0120]{}": 15707, "\u0120abundant": 17829, "inta": 39078, "\u0120expiration": 32298, "\u0120vitamins": 35347, "\u0120technical": 7681, "\u0120Phys": 4111, "\u0120royal": 17292, "\u0120Nate": 42973, "\u0120confession": 26438, "mpi": 42225, "doesn": 48724, "\u0120company": 2567, "TP": 12261, "\u00c2\u00ab": 12391, "choice": 22122, "153": 16271, "/+": 23615, "ydrates": 35320, "\u00e0\u00ae\u0137": 42516, "\u0120Disk": 44088, "\u0120pioneering": 45200, "Coll": 19013, "\u0120JUD": 39953, "lessly": 13102, "red": 433, "\u0120cand": 3940, "\u0120instance": 4227, "\u0120retain": 13280, "\u0120electrons": 14465, "0000000000000000": 9754, "\u0120PURPOSE": 20103, "\u0120flavour": 34149, "Uint": 34440, "\u0120habit": 8803, "\u0120infar": 19285, "\u0120injunctive": 40349, "Ap": 11538, "itti": 21498, "rics": 18211, "Bo": 11478, "\u0120ranges": 13794, "\u0120paired": 18433, "\u00e6\u00b1": 24545, "ATURE": 40668, "\u0120jewelry": 28226, "\u0120fertility": 27161, "666": 24185, "STAR": 45897, "cept": 916, "exp": 4347, "360": 16587, "confirmed": 37467, "\u0120FEV": 48992, "\u0120unim": 32505, "1600": 34691, "\u0120speeding": 43088, "mathds": 33857, "\u0120SUR": 45022, "\u0120nuclei": 15935, "UES": 16768, "\u0120spilled": 42893, "Bound": 27869, "\u0120photographic": 31769, "ococcal": 34799, "GH": 12677, "hbox": 18452, "\u0120trial": 2332, "afx": 50095, "Another": 8195, "ange": 912, "umn": 3068, "Myc": 37538, "\u0120stimulated": 18606, "\u0120HIF": 33280, "words": 12113, "\u0120concessions": 44488, "Jewish": 37721, "rils": 44784, "annotations": 47926, "\u0120Deutsch": 42141, "witness": 47906, "\u0120Goldberg": 48261, "\u0120Very": 15997, "\u0120flu": 2938, "\u0120Ident": 15108, "amount": 19581, "antically": 39904, "\u00cf\u0122\u00ce\u00bf": 16287, "ViewById": 30031, "emic": 11060, "circle": 23118, "\u0120agree": 5194, "\u0120Areas": 46653, "varrho": 27056, "edar": 31679, "\u0120untreated": 20716, "mina": 49147, "\u010a\u010a\u010a\u0120\u0120\u0120\u0120\u0120\u0120": 37293, "iones": 12629, "asket": 20253, "\u0120perspective": 8668, "\u0120Block": 15204, "riev": 8279, "ALE": 23502, "\u0120handles": 22139, "\u0120imagin": 30087, "\u0120oxidase": 36519, "\u0120Uh": 41932, "\u0120Collect": 22729, "\u0120Herr": 27779, "072": 42515, "NA": 1322, "Wilson": 39440, "\u0120Indust": 12622, "QJ": 42806, "\u0120respond": 3794, "\u0120nude": 30790, "\u0120\u00d7\u0137": 46977, "nb": 5668, "\u0120grandmother": 20606, "weather": 32607, "ahead": 42338, "ah": 1240, "\u0120epile": 22815, "POR": 28303, "\u0120acquiring": 28635, "++": 3424, "[]": 5456, "\u0120affidavit": 18360, "\u0120urge": 21434, "WL": 23272, "ICS": 25261, "\u0120Greene": 35038, "positions": 35507, "\u0120pavement": 37984, "AJ": 36947, "\u0120WWE": 37888, "\u0120----------------------------": 38759, "JM": 41734, "kim": 42686, "\u0120betting": 34601, "scribed": 31509, "assador": 18692, "Roman": 30574, "\u00c3\u00bdm": 44177, "tocol": 16658, "Pas": 48787, "\u0120incidence": 9364, "\u0120Python": 13814, "\u0120authentication": 19676, "?,": 32215, "\u0120growled": 49994, "\u0120Town": 10079, "\u0120Weekly": 33022, "ill": 408, "\u0120including": 1690, "ontal": 8226, "afood": 33458, "\u0120pol": 877, "\u0120Optical": 40347, "\u0120rigidity": 40350, "\u0120dialect": 28282, "Camera": 31962, "\u0120INTEGER": 41847, "\u0120hacker": 48109, "\u0120When": 2091, "dictionary": 46717, "unnable": 45757, "\u0120intron": 40131, "\u0120haem": 23754, "\u0120complied": 35037, "osex": 15800, "\u0120NAS": 13170, "\u0120biting": 41185, "Matcher": 48725, "659": 21889, "\u0120gap": 8037, "connected": 14063, "\u0120lives": 4852, "][": 7082, "\u0120mk": 36904, "provide": 42260, "egal": 42552, "\u0120branches": 12998, "\u0120841": 43909, "isser": 46302, "\u0120editor": 8121, "April": 19591, "29": 1717, "Master": 20133, "\u00c4\u0123n": 39353, "\u0120carcinomas": 35563, "\u0120\u0120\u0120\u0120\u0120\u0120\u0120\u0120\u0120\u0120\u0120\u0120\u0120\u0120\u0120\u0120\u0120\u0120\u0120\u0120\u0120\u0120": 5808, "heta": 22666, "Expression": 16960, "\u0120inactivation": 30614, "\u0120\u00c3\u00a9gal": 41865, "\u0120deadly": 18649, "ringes": 45324, "patrick": 38456, "\u0120showers": 39426, "\u0120histologic": 46409, "\u0120schooling": 46772, "\u0120onions": 27408, "\u0120frig": 48232, "\u0120Java": 8595, "\u0120downtown": 17207, "\u0120permissible": 32588, "\u0120Wien": 48968, "room": 4461, "\u0120alone": 3815, "TOF": 46873, "\u0120atherosclerotic": 49667, "Tree": 14444, "rehens": 8391, "\u0120buffer": 6391, "itivity": 5714, "\u0120ved": 27685, "\u0120triggering": 30444, "renn": 32634, "\u0120SAS": 33918, "swap": 35933, "\u0120Fixed": 30159, "life": 8206, "control": 8519, "IMAGE": 35894, "\u00e2\u0138": 10897, "\u0120Jedi": 44642, "\u0120ZnO": 45275, "\u0120replicated": 37221, "\u0120facilitating": 30753, "Hash": 16850, "\u0120defe": 7965, "\u0120infected": 9813, "\u0120Det": 4597, "\u0120nom": 7163, "\u0120burned": 15676, ".<": 17778, "\u0120vacate": 33085, "\u0120ammonia": 35212, "ennial": 38987, "aders": 16208, "\u0120scary": 24851, "ril": 21704, "\u0120complaints": 14672, "valid": 7210, "encoder": 36465, "\u0120Holly": 12885, "ML": 4132, "\u0120esta": 19764, "ovation": 21373, "\u0120CG": 16944, "\u0120Rd": 21775, "\u0120Poisson": 24513, "\u0120bombing": 25485, "\u0120Allah": 27006, "held": 13028, "\u0120shiny": 30006, "\u0120Rele": 32161, "\u00d0\u00ba\u00d1\u0125": 34366, "\u0120knives": 36014, "urch": 3201, "BPF": 36053, "\u0120firstly": 41005, "acrylate": 43070, "\u00d9\u012a\u00d8\u00af": 49788, "\u0120assortment": 50131, "ressive": 8122, "Amb": 33818, "orf": 34760, "abit": 46442, "\u0120quant": 2677, "nav": 8002, "asant": 10597, "\u0120ought": 12758, "\u0120meantime": 22849, "139": 15270, "\u0120immunodef": 40519, "\u0120ven": 8097, "America": 24573, "Everybody": 35485, "Metrics": 43764, "\u0120Locke": 49019, "active": 4507, "19": 746, "lege": 3792, "\u0120enthusi": 12833, "\u0120foundations": 27629, "\u0120fins": 45006, "LAB": 29317, "ility": 874, "\u0120skill": 10861, "\u0120multipl": 18878, "*).": 21292, "\u0120responsible": 5506, "\u0120modalities": 33433, "history": 22328, "\u0120gru": 26970, "\u0120Boys": 27014, "\u0120Vic": 29876, "PREFIX": 41464, "\u01202500": 46059, "zhou": 40305, "zilla": 43745, "alkyl": 18573, "enda": 11635, "prison": 13094, "\u0120act": 769, "Ax": 19820, "\u0120Ts": 20613, "\u0120controvers": 9474, "\u0120IA": 32815, "\u00e3\u0123\u013f\u00e3\u0124\u012e": 39984, "Make": 13325, "\u0120magnitude": 9777, "axes": 44832, "\u0120infil": 15480, "\u0120castle": 19887, "(?:": 36512, "gue": 25070, "\u0120Esther": 41120, "\u00c3\u00a4sident": 49560, "\u0120consequ": 4823, "insky": 26495, "PB": 27440, "\u0120HashMap": 47523, "commerce": 32248, "126": 13381, "\u00eb\u012c": 22983, "socket": 25328, "\u0120stitches": 46870, "\u0120Docket": 49126, "\u0120Archives": 23728, "\u0120Legislature": 22891, "sphere": 40196, "Camp": 25046, "\u0120Bundle": 48284, "\u0120developers": 12259, "\u00e4\u00b9\u012d": 29766, "\u0120pie": 3376, "writ": 8510, "\u0120SAM": 32579, "\u0120fle": 7771, "\u0120sails": 49726, "\u0120541": 39522, "\u0120phenyl": 29901, "osp": 2161, "\u0120native": 7925, "\u0120consistent": 5185, "earchers": 31103, "\u0120professional": 5702, "162": 19603, "\u0120\u00e2\u0122\u012b": 44578, "\u0120humility": 48044, "biom": 29812, "\u0120embry": 10150, "\u0120trac": 43944, "agle": 16151, "\u00e5\u00b9\u00b4": 19144, "approved": 37407, "\u0120CU": 32463, "\u0120bliss": 39577, "\u0120Assistance": 43404, "\u0120prominence": 44373, "\u0120sigma": 40009, "\u0120/*!<": 44740, "links": 23053, "ropathy": 47382, "GAC": 38231, "\u0120secrets": 20196, "Asc": 48819, "\u0120searches": 17891, "ifting": 12545, "\u0120dashed": 17889, "tier": 42614, "\u0120dors": 18154, "Besides": 26021, "\u0120antifer": 46965, "\u0120clear": 2590, "\u01201995": 8878, "\u0120ordained": 50081, "agin": 26093, "\u0120misunderstood": 46485, "\u0120aa": 39951, "\u010d": 190, "\u0120sensible": 24600, "\u0120taxation": 34871, "hton": 41844, "',\\": 37652, "how": 5430, "\u0120custody": 13555, "\u0120bolts": 40602, "\u01201911": 34283, "\u0120expensive": 8214, "\u0120natural": 3626, "ambers": 17688, "\u0120unwilling": 27086, "xz": 39344, "travel": 39681, "IFE": 37272, "zier": 43465, "99999999": 43977, "\u0120dehydration": 45115, "554": 46027, "\u0120assistants": 35785, "\u0120Commissie": 44847, "nlm": 35510, "atement": 26333, "\u0120premier": 24654, "\u0120Gar": 10867, "\u0120Iv": 34784, "\u0120behaves": 37824, "eleration": 41563, "\u0120superintendent": 45480, "\u0120Brent": 34819, ":_": 23338, "LAY": 25055, "\u0120strept": 29898, "\u0120hinted": 47466, "remia": 46739, "\u0120satur": 19004, "\u0120nib": 44768, "\u0120Bengal": 37063, "imoto": 45459, "ophysical": 40947, "dent": 33659, "purpose": 27299, "\u0120Edition": 17897, "evin": 11799, "\u0120Ye": 23203, "opt": 2178, "\u0120rev": 3585, "\u0120ham": 10546, "\u0120secretary": 14385, "Mich": 15228, "\u0120museum": 16064, "\u0120threat": 4322, "HE": 1922, "\u0120inequality": 11370, "\u0120parking": 12102, "\u0120Harris": 13680, "\u0120PARTICULAR": 20383, "II": 2267, "\u0120polymerase": 21028, "\u0120incomp": 15321, "blood": 25304, "tree": 12588, "inz": 29415, "\u0120darker": 28170, "\u0120Bullet": 36926, "mspace": 37273, "Circ": 27610, "\u0120Spar": 38731, "\u0120Duty": 43172, "Like": 9817, "\u0120pad": 13229, "ographics": 24959, "ih": 6356, "\u0120Federation": 20369, "iab": 31289, "\u0120went": 2427, "\u0120homogeneity": 43967, "\u0120\u00d0\u00bb": 17978, "outputs": 44902, "\u0120contrasts": 39165, "\u0120instincts": 39609, "\u0120hovering": 46115, "\u0120Rainbow": 46375, "266": 22313, "-\\": 2249, "\u0120reproductive": 19448, "Big": 5178, "vee": 19406, "Living": 14316, "ential": 1624, "0022": 28484, "leq": 3040, "\u0120conductance": 29738, "uchar": 38130, "\u0120graph": 4216, "\u0120sprite": 42994, "\u0120flanking": 47152, "VEGF": 47737, "\u0120dismant": 37227, "\u0120undergoing": 17362, "nose": 48848, "\u0120nanoc": 49942, "rown": 2924, "\u0120blowing": 24935, "\u0120Parties": 44340, "\u0120unlikely": 11543, "\u0120caregiver": 44148, "\u0120ruined": 27826, "DECLARE": 47110, "\u0120Britain": 9643, "\u0120Treatment": 17012, "\u0120gef": 41817, "\u0120go": 564, "\u0120Gap": 46096, "\u0120fl": 892, "\u0120Bow": 10427, "\u0120fractions": 17711, "\u0120Associates": 30540, "\u0120Randy": 36532, "initis": 46999, "Ger": 41032, "\u0120wicked": 26395, "\u0120absolutely": 8839, "\u0120Nation": 15963, "\u0120Olymp": 10406, "\u0120albums": 16258, "857": 31416, "\u0120))": 39705, "\u0120Chambers": 40972, "least": 38462, "ichlet": 42878, "\u0120transgene": 48376, "\u0120Columbia": 12746, "\u0120Johnson": 7902, "herin": 29769, "uetooth": 23548, "\u0120Mao": 36194, "\u0120patient": 3110, "\u0120importantly": 15538, "\u0120Priest": 41701, "Th": 1044, "\u0120futures": 36424, "w": 88, "()->": 18331, "\u0120Reference": 19039, "ovi": 39594, "\u0120questa": 44807, "\u0120newly": 9841, "\u0120Garcia": 26424, "man": 1342, "inks": 3106, "\u0120comprehens": 9483, "folk": 27257, "\u0120can": 476, "\u0120ARISING": 34984, "\u00d0\u0133": 45809, "PID": 46288, "\u0120raging": 48825, "==========": 6428, "\u00e6\u0142": 15756, "\u0120now": 1024, "\u0120HFD": 48662, "\u0120anticancer": 38360, "\u0120oligonucle": 30316, "HEP": 33337, "\u0120Zar": 41379, "\u0120cured": 29025, "marinedrugs": 30371, "\u0120machining": 48330, "\u0120Mack": 23302, "oder": 8586, "liance": 38114, "\u0120mistake": 10551, "\u0120Jenkins": 29306, "\u0120towns": 15918, "mus": 14557, "\u0120NULL": 5812, "_{(": 13061, "\u0120Cathedral": 33017, "\u0120uc": 44274, "mathsf": 9501, "\u0120capital": 5347, "468": 34087, ",)": 43508, "aa": 5781, "ensure": 5358, "serif": 40004, "endor": 13047, "\u00e0\u00a5": 6123, "\u0120algebraic": 20157, "fish": 12306, "1000": 9138, "\u0120Chr": 43920, "agnetic": 9967, "\u0120retail": 10567, "245": 19490, "autre": 45969, "\u0120demonstrations": 32367, "\u0120Rare": 44605, "delta": 3005, "fre": 18105, "\u0120TRUE": 24420, "azed": 30981, "\u0120dig": 2836, "\u0120\u0120\u0120\u0120\u0120\u0120\u0120\u0120\u0120\u0120\u0120\u0120\u0120\u0120\u0120\u0120\u0120\u0120\u0120\u0120\u0120\u0120\u0120\u0120\u0120\u0120\u0120\u0120\u0120\u0120\u0120\u0120\u0120\u0120\u0120\u0120\u0120\u0120\u0120\u0120\u0120\u0120\u0120\u0120\u0120\u0120\u0120\u0120\u0120\u0120\u0120\u0120\u0120\u0120\u0120\u0120\u0120\u0120\u0120\u0120\u0120\u0120\u0120\u0120\u0120\u0120\u0120\u0120\u0120\u0120\u0120\u0120\u0120\u0120\u0120\u0120\u0120\u0120\u0120\u0120\u0120\u0120\u0120\u0120\u0120\u0120\u0120\u0120\u0120\u0120\u0120\u0120\u0120\u0120\u0120\u0120\u0120\u0120\u0120\u0120\u0120\u0120\u0120\u0120\u0120\u0120\u0120\u0120\u0120\u0120\u0120\u0120\u0120\u0120\u0120\u0120\u0120\u0120\u0120\u0120\u0120\u0120\u0120\u0120\u0120\u0120\u0120\u0120\u0120\u0120\u0120\u0120\u0120\u0120\u0120\u0120\u0120\u0120\u0120\u0120\u0120\u0120\u0120\u0120\u0120\u0120\u0120\u0120\u0120\u0120\u0120\u0120\u0120\u0120\u0120\u0120\u0120\u0120\u0120\u0120\u0120\u0120\u0120\u0120\u0120\u0120\u0120\u0120\u0120\u0120\u0120\u0120\u0120\u0120\u0120\u0120\u0120\u0120\u0120\u0120\u0120\u0120\u0120\u0120\u0120\u0120\u0120\u0120\u0120\u0120\u0120\u0120\u0120\u0120\u0120\u0120\u0120\u0120\u0120\u0120\u0120\u0120\u0120\u0120\u0120\u0120\u0120\u0120\u0120\u0120\u0120\u0120\u0120\u0120\u0120\u0120\u0120\u0120\u0120\u0120\u0120\u0120\u0120\u0120": 36393, "\u0120folding": 23205, "\u0120ner": 38998, "shi": 41386, "\u0120;": 3706, "\u0120eval": 2777, "soc": 33353, "\u0120acclaimed": 42445, "\u0120chest": 9081, "Register": 16601, "\u0120follicles": 44535, "effective": 13116, "563": 42310, "\u0120comet": 47470, "Nik": 39104, "\u0120thunder": 24511, "1177": 45085, "\u0120be": 320, "\u0120FIF": 25971, "cup": 6837, "\u0120amended": 13799, "\u0120divert": 37573, "\u0120453": 42955, "\u0120pall": 23915, "Science": 34191, "Dictionary": 29872, "\\#": 16622, "States": 27121, "\u0120eh": 25685, "jets": 50241, "pur": 13182, "\u00e4\u00bd": 7111, "===========": 15765, "azines": 20532, "iska": 23951, "\u0120absorb": 15816, "\u0120Sum": 7069, "\u0120Orleans": 20159, "\u0120molding": 32828, "iction": 2474, "HD": 10536, "\u00e5\u00a5\u00bd": 34439, "\u00c3\u00b6k": 40380, "fficacy": 35713, "freq": 41122, "\u0120carcinogenesis": 47355, "\u0120MB": 15255, "1986": 14880, "made": 12710, "\u0120crad": 40517, "gamma": 2733, "\u0120taxonomic": 43653, "\u0120drama": 14562, "Call": 7865, "\u0120\u00d8\u00b9": 25849, "NY": 20604, "\u0120Category": 26891, "\u0120implication": 27570, "akt": 21216, "\u0120Science": 6875, "\u00ea\u00b3": 26437, "Tx": 29481, "\u0120immunostaining": 47571, "\u0120pics": 40482, "\u0120combines": 24772, "encing": 5537, "atively": 3146, "\u0120socially": 28071, "\u0120allegiance": 44436, "\u0120Cart": 16619, "\u0120Bass": 28219, "\u0120Exhibit": 33072, "\u0120Lisa": 22707, "birds": 40382, "\u0120Gateway": 42977, "\u0120Qu\u00c3\u00a9": 47840, "\u0120Swe": 38583, "\u0120ER": 7220, "1103": 30032, "genes": 22422, "\u0120commanding": 36174, "\u0120Wisconsin": 15558, "\u0120backing": 19673, "\u0120approaches": 7274, "\u0120PER": 23564, "Center": 21972, "\u0120Wonder": 26733, "\u0120valence": 35874, "Sql": 27683, "ashed": 6948, "flex": 23210, "\u0120intermedi": 26103, "\u0120exhaust": 9286, "\u0120ali": 19541, "jn": 33126, "\u0120splits": 36509, "acio": 37831, "vine": 29735, "Tracker": 43270, "ETS": 45467, "\u0120Augustine": 47974, "Originally": 32234, "\u0120Anthrop": 49593, "\u0120,\"": 49870, "214": 21866, "ARM": 24407, "\u0120announcing": 30849, "iae": 18620, "\u0120hij": 22082, "\u0120indexed": 32891, "GRE": 41127, "\u0120sine": 37353, "\u0120laughed": 12918, "task": 14605, "OID": 38243, "\u0120\u00cf\u0126\u00ce\u00b9\u00cf\u0124": 48002, "\u0120Progress": 28225, "\u0120tours": 24478, "TY": 25090, "\u0120Maced": 40549, "\u0120professions": 48502, "amily": 6404, "\u0120Too": 21994, "\u0120'%": 25137, "\u0120Sang": 38236, "!(": 35764, "\u0120prosperous": 47058, "norm": 12850, "ighters": 15053, "psych": 20980, "quee": 39757, "\u0120searching": 12203, "\u0120answ": 2928, "\u0120wider": 14200, "ncia": 19003, "\u0120trafficking": 22003, "\u0120198": 26397, "\u0120referencing": 44978, "\u0120awakening": 47158, "bery": 14907, "}=": 4203, "\u00e3\u0124\u00af": 16436, ")}/\\": 46201, "\u0120Stanton": 47877, "\u0120straightforward": 15246, "\u00cf\u0125\u00ce\u00b9": 44586, "\u0120aid": 8596, "\u00e7\u00ae\u00a1": 46419, "\u0120bounded": 11542, "\u0120pian": 35951, "\u0120Kindle": 43252, "\u0120subl": 37284, "Sport": 47477, "Ada": 38432, "\u0120Judgment": 24992, "\u0120Berry": 30014, "\u0120belly": 23828, "ump": 1765, "erving": 26368, "\u0120Enterprises": 48327, "\u0120Daisy": 39437, "\u0120fascination": 48249, "\u0120inconven": 24890, "\u0120Investigation": 32907, "ylum": 20401, "\u0120chapters": 23168, "\u0120Use": 7890, "aration": 10068, "\u0120lengthy": 24585, "\u0120\u00d0\u00bf\u00d0\u00b5\u00d1\u0122": 26546, "\u012093": 11456, "\u00c3\u0132": 5186, "\u0120ischemic": 23523, "\u00d0\u00b0\u00d0\u00b3": 27404, "\u0120approximated": 34930, "League": 43174, "\u0120Crisis": 39308, "\u0120life": 1495, "\u0120fireworks": 44161, "\u0120circumstantial": 45026, "again": 16245, "\u0120transgender": 31737, "\u0120Flying": 42027, "660": 38874, "*>": 28365, "\u0120tokens": 21761, "Grant": 35723, "\u0120starting": 4983, "aying": 16948, "\u0120eukary": 31046, "\u0120produ": 1002, "(\"/": 28229, "\u0120281": 33790, "283": 28933, "\u0120reject": 12009, "\u0120restitution": 32551, "inqu": 21500, "cats": 38718, "\u0130": 225, "waters": 48920, "\u0120tip": 9092, "\u0120nav": 6563, "}\\": 889, "dal": 26955, "\\*](#": 18022, "nob": 31528, "\u0120flawed": 33657, "ata": 682, "\u0120relatives": 17772, "\u0120Nike": 40864, "\u0120Alban": 31208, "arch": 1116, "838": 48463, "illy": 9352, "\u0120bal": 4273, ")](#": 17281, "msgstr": 10653, "erves": 19085, "\u0120scholarship": 26104, "idepress": 32013, "\u0120commodity": 31142, "332": 32078, "y": 90, "ift": 2094, "cover": 16484, "andid": 21497, "\u0120forbidden": 25415, "oden": 26063, "\u00d0\u00bb\u00d1\u012e": 39435, "\u0120CCT": 39794, "\u0120drowned": 40649, "endi": 44731, "*\u00e2\u0122\u0132": 49411, "odenal": 50054, "\u0120bases": 14395, "\u0120governors": 45513, "inher": 27040, "\u0120neatly": 36166, "AW": 24564, ">$": 24576, "cyl": 32990, "\u0120knows": 6057, "ails": 5351, "arp": 5916, "\u0120sv": 18504, "607": 25616, "\u0120trab": 19146, "ained": 1243, "\u0120advocates": 23318, "transferase": 30837, "\u0120surplus": 30868, "igated": 27285, "467": 44598, "Market": 45607, "\u0120Light": 10315, "\u0120mountain": 11129, "esteem": 40597, "\u0120tasting": 40599, "refs": 44281, "\u0120rec": 761, "flat": 22829, "\u0120basement": 21135, "\u0120callback": 15259, "Basically": 37565, "706": 28166, "unks": 18357, "\u0120delays": 20219, "antib": 25499, "\u0120ISIS": 25484, "\u0120removable": 38109, "\u0120spared": 40335, "\u00e7\u0136\u00bb": 42930, "545": 42772, "\u0120Cork": 44261, "\u0120er": 2827, "\u0120humans": 7497, "\u0120Alexand": 26958, "hint": 42988, "iness": 1632, "vat": 38760, "\u0120heir": 33961, "ynman": 44166, "\u0120FB": 30284, "\u0120asymptotic": 20185, "\u0120Women": 10168, "\u0120entities": 14429, "\u0120jer": 23313, "inf": 2050, "bk": 36058, "\u0120converting": 22022, "................": 10925, "\u0120classroom": 20874, "Hs": 31176, "agua": 45877, "LOW": 47123, "\u0120margins": 24390, "cheat": 40510, "\u0120desarroll": 50158, "315": 23580, "\u00c5\u00a1\u00c3\u0143": 47022, "\u0120algo": 30390, "\u0120CVD": 30243, "\u0120Hillary": 18175, "\u0120javax": 24296, "\u0120modo": 29505, "\u0120RSS": 35452, "substant": 44167, "\u0120'\"": 32589, "\u0120Attempt": 42478, "Array": 6542, "\u0120frames": 13009, "fact": 12690, "\u0120\u00ed": 25811, "\u00e6\u00b0\u0139": 44899, "\u0120'_": 38745, "maha": 46331, "\u0120calcium": 11672, "dimethyl": 34342, "beam": 33312, "\u0120tern": 49688, "\u0120ult": 4054, "\u0120DateTime": 33180, "\u0120pornography": 37314, "Is": 2513, "pred": 12787, "\u0120Dublin": 24523, "\u0120upward": 19123, "\u0120peas": 28297, "\u0120CpG": 36457, "\u0120stroll": 42121, "\u0120Reid": 29038, "\u0120speaker": 14925, "\u0120Activ": 39750, "\u0120counterpart": 14317, "\u0120declined": 13072, "\u0120common": 1846, "\u0120Dart": 39967, "unny": 17259, "\u0120anemia": 31442, "\u0120Ke": 6018, "SIOC": 40739, "sqrt": 2609, "ivated": 8550, "acid": 34704, "\u0120Assay": 37140, "\u0120pellet": 37278, "orc": 41845, "yi": 28212, "\u0120CCA": 47820, "=\"-": 24539, "543": 49046, "\u0120separator": 35823, "\u0120skate": 37931, "cers": 8964, "]),": 6660, "\u0120Robin": 22463, "\u0120IPv": 36247, "\u0120raids": 39395, "\u00e3\u0125\u00bc\u00e3\u0125\u012a": 42364, "\u0120Sched": 41827, "\u0120contral": 39388, "check": 5903, "\u0120forg": 7175, "uffer": 6030, "\u0120ejection": 34261, "\u0120etching": 29411, "magn": 30362, "\u0120Nar": 26417, "rying": 11729, "\u0120Dra": 23701, "scala": 36650, "\u0120graphics": 15896, "eren": 22061, "\u0120trailer": 19150, "opts": 28330, "\u0120quadrant": 48045, "\u0120pill": 12575, "\u0120r\u00c3\u00a9": 9568, "\u01200000": 34919, "\u0120scen": 5362, "\u0120Thu": 38792, "\u0120barn": 23584, "pei": 46392, "glyph": 43428, "NRAS": 26941, "\u0120NBA": 19305, "\u0120VE": 16197, "\u0120Number": 11057, "\u0120UP": 20653, "etime": 7816, "\u0120beliefs": 13379, "\u0120Masters": 29351, "\u0120timeline": 28563, "\u0120KS": 39280, "\u00e6\u00b4": 30093, "\u0120Riv": 40558, "\u0120maple": 43946, "andidates": 44975, "CONST": 31700, "\u0120commens": 42482, "eat": 48497, "\u0120phylogenetic": 23165, "\u00e2\u0122\u00b2-": 14466, "\u01201957": 23305, "VERT": 23369, "\u0120wink": 42790, "\u0120layouts": 50107, "\u0120------": 16081, "\u0120competence": 30281, "node": 6219, "\u0120Sprint": 41058, "<=": 44072, "\u0120Euroopan": 45536, "\u0120clutch": 30231, "\u0120aortic": 22678, "\u0120patch": 12097, "\u0120operations": 5871, "\u0120Hold": 21476, "verb": 25340, "\u0120bite": 18470, "WB": 33424, "\u0120Corpor": 9697, "Am": 8096, "\u0120wheel": 9530, "\u0120Pope": 18422, "\u0120IEEE": 25726, "\u0120lb": 32830, "\u0120accept": 2997, "iev": 28017, "\u0120ranged": 17751, "\u00c2\u013a\u00c2\u00af": 38913, "atre": 11203, "rect": 6471, "sent": 17094, "\u0120halted": 37350, "\u0120abolished": 31175, "cell": 3992, "Agg": 35619, "\u0120reputation": 12681, "\u0120Lucia": 47040, "Male": 27346, "\u0120301": 24271, "\u0120deriv": 3538, "$).": 14553, "Exactly": 39364, "\u00ef\u00bf\u00bd\u00ef\u00bf\u00bd": 42481, "uggest": 21662, "\u0120hes": 34236, "redients": 46580, "\u0120mammalian": 21744, "\u0120vulner": 10070, "\u0120quark": 19468, "ancellor": 23563, "\u0120Var": 15590, "Geography": 46263, "button": 8060, "aws": 11345, "\u0120Symphony": 44110, "\u0120\u00d1\u0125": 11770, "layout": 7916, "\u0120;)": 24457, "\u0120Naples": 44489, "\u0120queer": 38493, "\u0120tackles": 39223, "\u0120jurisdictional": 26244, "christ": 48266, "\u0120Concept": 38298, "athi": 46517, "\u0120Accept": 31884, "\u00e5\u012a\u00a9": 37208, "resolution": 21061, "rist": 2198, "Stat": 9710, "\u0120habitat": 20571, "Org": 43129, "\u0120reper": 21230, "connector": 44396, "\u0120derives": 38422, "charge": 7778, "\u0120Mod": 4559, "fine": 32829, "907": 29249, "\u0120Menu": 31857, "Ser": 6075, "\u0120Marsh": 15463, "\u0120devast": 17376, "dition": 1360, "\u0120fel": 11664, "anean": 18313, "\u0120Hide": 37082, "usep": 2089, "fold": 8089, "\u0120prospect": 11091, "\u0120allegations": 11307, "\u00d1\u0131\u00d0\u00bc": 49977, "ousand": 37143, "rounds": 41233, "\\}$": 10952, "vol": 8625, "\u0120CS": 9404, "\u0120emphasizes": 35520, "\u0120Humph": 40824, "\u0120COS": 43456, "fresh": 47120, "\u0120latex": 44127, "Cs": 6072, "typeof": 25833, "\\\":": 24089, "\u0120vicious": 30157, "tten": 38497, "\u0120nobody": 12445, "Hope": 24004, "\u0120criticism": 14226, "\u010d\u010a\u0109\u0109\u0109": 17158, "},{": 28130, "ancy": 4306, "637": 44260, "30": 1229, "inois": 10868, "tri": 12512, "ST": 1267, "^-": 8011, "\u0120president": 4007, "\u0120presents": 10262, "\u0120gi": 15891, "\u0120treated": 4127, "umpy": 37028, ".\").": 32755, "\u0120mating": 31112, "\u0120antitumor": 41068, "\u0120FA": 10601, "\u0120mythology": 40898, "\u0120bol": 16049, "grow": 47248, "\u00e7\u0137\u012e": 45261, "itis": 5895, "arl": 7694, "\u0120Liberty": 23583, "340": 23695, "\u0120condition": 1617, "\u0120Peru": 31805, "Timestamp": 41516, "\u0120germination": 47438, "\u0120cardiac": 10177, "\u0120toilet": 21487, "\u0120suscept": 10219, "arest": 4885, "FFIRMED": 28696, "\u0120Ver": 7188, "ractor": 30524, "\u0120calibrated": 35890, "igious": 17689, "\u0120Polic": 47670, "\u0120Cannon": 48220, "fall": 12615, "\u0120Stock": 15725, "\u0120mentions": 25957, "creation": 30767, "\u0120Viking": 44567, "\u0120editing": 14835, "\u0120extant": 46463, "\u0120winner": 13688, "\u0120IFN": 15006, "ativity": 18473, "\u0120employers": 18652, "\u0120Ernst": 41888, "bol": 33338, "\u01201949": 24344, "166": 17962, "\u0120Trinity": 31465, "\u0120epidermal": 35371, "!),": 42678, "\u0120\u0120\u0120\u0120\u0120\u0120\u0120\u0120\u0120\u0120\u0120\u0120\u0120\u0120\u0120\u0120\u0120\u0120\u0120\u0120\u0120\u0120\u0120\u0120\u0120\u0120\u0120\u0120\u0120\u0120\u0120\u0120\u0120\u0120\u0120\u0120\u0120\u0120\u0120\u0120\u0120\u0120\u0120\u0120\u0120\u0120\u0120\u0120\u0120\u0120\u0120\u0120\u0120\u0120\u0120\u0120\u0120\u0120\u0120\u0120\u0120\u0120\u0120\u0120\u0120\u0120\u0120\u0120\u0120\u0120\u0120\u0120\u0120\u0120\u0120\u0120": 47666, "\u0120PCT": 48608, "onald": 6540, "\u0120GTP": 37404, "\u0120products": 3580, "letters": 29076, "\u0120{": 551, "\u0120behavioural": 35174, "matching": 45767, "rong": 29487, "\u0120assists": 27593, "\u0120unfinished": 46809, "\u0120autom": 3772, "terest": 6173, "\u0120improvement": 7756, "\u0120{{": 12033, "+)": 15020, "Plus": 25263, "\u0120musicians": 20230, "\u0120Serve": 35166, "&=&\\": 24255, "\u0120programmers": 39335, "\u0120poco": 42592, "12": 805, "\u0120sod": 9359, "\u0120Valid": 33937, "sure": 43574, "\u0120Mechanical": 46523, "\u0120securities": 23175, "irect": 4128, "\u0120\u00d0\u00b2\u00d1\u012d": 20488, "\u0120magnitudes": 32800, "\\,\\": 12577, "ousands": 35314, "\u0120MAR": 30438, "341": 28459, "772": 36936, "\u0120antis": 21827, "ognition": 32854, "\u0120Aer": 37785, "\u0120Excellence": 43006, "\u0120thrust": 19031, "\u0120Shot": 43761, "entially": 4303, "enson": 24480, "Locale": 45408, "\u0120Australia": 6976, "Salt": 46061, ")}^{": 46538, "\u01201300": 47822, "\u0120Wade": 31678, "\u0120calorie": 49450, "concept": 31503, "\u00d0\u00bd\u00d1\u0131": 32493, "\u0120Whitney": 42809, "\u0120Bloomberg": 32952, "\u0120George": 6086, "ingly": 5356, "\u0120dele": 33578, "ifiable": 18397, "aucoup": 47802, "}^\\": 9616, "Stone": 49518, "girl": 23660, "\u0120dentist": 40069, "880": 43277, "ilight": 30673, "\u0120fir": 36901, "803": 28953, "ippy": 47621, "biology": 36415, "ructures": 38124, "\u0120albicans": 46761, "\u0120Mitch": 39003, "\u0120physically": 13318, "\u0120basis": 3720, "\u0120bug": 7505, "\u0120flash": 10299, "sensitive": 19579, "\u0120fucking": 12835, "duino": 43728, "\u0120low": 1698, "\u0120naked": 16867, "\u0120cliffs": 44122, "\u0120inactivated": 49192, "kid": 49934, "anti": 11924, "\u0120Pear": 14837, "nonatomic": 42264, "\u0120office": 3906, "\u0120Shen": 30972, "Check": 9063, "izable": 12729, "\u0120poisoning": 33254, "\u0120puzzle": 25351, "\u0120clever": 19080, "\u0120alumin": 14992, "Arthur": 34021, "\u00e2\u0122\u013f;": 38904, "\u0120aerosol": 41580, "\u0120Sham": 41964, "$.\\": 43638, "\u0120sponsorship": 38786, "ggle": 27920, "\u0120sci": 33010, "\u0120eines": 48360, "\u0120Ske": 44840, "stellar": 31885, "\u0120Emperor": 22212, "\u0120()]{}": 43134, "appendix": 50237, "ITY": 7400, "code": 3211, "--------------------------------": 1013, "\u0120];": 25896, "Williams": 31174, "\u0120workload": 32140, "///": 10638, "\u0120skipped": 37001, "clk": 18255, "\u0120nn": 48257, "\u00d0\u00bf\u00d1\u0122": 22682, "\u0120wire": 6371, "\u0120\u0120\u0120\u0120\u0120\u0120\u0120\u0120\u0120\u0120\u0120\u0120\u0120\u0120": 3380, "ilized": 19944, "Defendant": 25187, "\u0120Nazis": 33406, "\u0120EUR": 38928, "vt": 20282, "\u0120Gaming": 44907, "\u0120financial": 4832, "bare": 39517, "\u0120hides": 43660, ")\\": 1572, "\u0120$<": 22747, "\u0120sher": 22968, "\u0120universe": 10325, "hee": 31622, "\u0120Rescue": 44150, "\u0120AK": 16826, "ateness": 48362, "\u0120Sor": 24367, "ASP": 29020, "\u0120IRC": 48674, "\u0120Went": 50026, "\u0120hostage": 43180, "\u0120Kim": 10766, "\u0120tubing": 39240, "ramble": 45110, "\u00e6\u0140\u013e": 26354, "\u00cf\u0126\u00ce\u00ac": 33627, "projects": 31224, "\u0120veterinary": 43248, "\u0120actors": 14142, "\u0120edited": 16168, "\u0120dan": 16447, "\u0120contralateral": 41782, "\u0120precipitated": 45554, "formaldehyde": 47236, "eller": 7707, "\u0120Mi": 9823, "\u0120Almost": 24059, "\u00cf\u0126\u00ce\u00b1\u00ce\u00b9": 30656, "\u0120Intel": 17545, "WRITE": 25444, "Season": 38547, "\u0120Few": 29578, "send": 13161, "\u0120293": 26675, "151": 18795, "\u0120Iraqi": 24923, "COMP": 27550, "\u0120LM": 25840, "orical": 33140, "php": 5581, "\u0120math": 14168, "usalem": 16840, "ussion": 26148, "\u0120altering": 30897, "\u0120designate": 42638, "Italian": 33741, "ceived": 6991, "\u0120oriented": 19373, "SEM": 23015, "\u0120exports": 24217, "\u0120suprem": 25937, "\u0120medically": 44597, "umas": 49998, "\u0120Nest": 34660, "\u00d0\u00b5\u00d0\u00bc": 10077, "\u0120Buffalo": 28299, "venir": 40833, "\u0120intrins": 43019, "\u0120hypothalamus": 49279, "\u0120solid": 4891, "124": 13397, "\u0120Amb": 15889, "\u0120trajectories": 24102, "dropdown": 29633, "\u0120latter": 6158, "\u0120probation": 19077, "\u00d0\u00b5\u00d0\u00b9": 15290, "exist": 31477, "\u0120manifested": 33579, "acci": 42401, "\u0120shows": 2722, "\u0120analyzer": 38768, "bly": 44444, "\u0120monopol": 44911, "\u0120Reverend": 45351, "\u0120Sensitivity": 50132, "\u0120Mel": 8359, "\u00d0\u00b5\u00d0\u00bb": 9247, "plements": 16603, "\u0120Reserved": 32997, "\u0120deformations": 45989, "\u0120unknown": 7202, "chapter": 33080, "plemented": 38758, "native": 23963, "Intent": 28843, "060": 24341, "\u0120Outcomes": 50253, "\u0120sends": 16965, "\u0120attention": 4116, "angular": 12406, "\u0120''": 15078, "ag": 356, "\u0120drivers": 10865, "\u0120strengthen": 17084, "\u0120Wiki": 37059, "simeq": 13960, "\u0120Imp": 16009, "sectional": 20382, "\u0120mut": 2873, "\u0120ester": 24153, "\u0120young": 2872, "\u0120overex": 14525, "094": 41280, "\u0120fal": 18512, "isti": 49356, "ODU": 14647, "\u0120reass": 17279, "\u0120meets": 16382, "\u0120ulcer": 27622, "oidal": 16080, "\u0120Neal": 42602, "Remove": 21605, "\u0120researchers": 8607, "Yang": 41160, "\u0120'.": 29996, "rogens": 46863, "\u0120Sadly": 47870, "\"+": 42491, "ICAg": 49316, "\u0120advert": 7314, "\u010a\u0120\u0120\u0120\u0120\u0120\u0120\u0120\u0120\u0120\u0120\u0120\u0120\u0120\u0120\u0120\u0120\u0120\u0120\u0120\u0120\u0120\u0120\u0120\u0120\u0120\u0120\u0120\u0120\u0120\u0120\u0120": 9740, "jen": 22289, "rou": 30898, "\u0120pelo": 30645, "\u0120Comp": 3631, "\u0120Chrome": 21722, "\u0120Claud": 35662, "\u0120Cubs": 44272, "\u0120permissions": 15607, "\u0120deleter": 40272, "\u0120response": 2380, "\u0120embrace": 19653, "\u0120imprisoned": 32749, "anton": 27813, "100": 2313, "\u0120bec": 791, "\u0120supporters": 14501, "cht": 12914, "\u0120saline": 18704, "),": 582, "ALS": 16755, "+/-": 30700, "osexuality": 34427, "\u0120Chal": 39293, "sek": 45902, "\u0120Crime": 23325, "TN": 25697, "\u0120wind": 5448, "ison": 1988, "\u0120hurt": 8513, "ytes": 12742, "ogene": 6679, "iencies": 19053, "037": 20826, "\u0120244": 27146, "\u0120hype": 31012, "\u0120transferring": 27090, "\u0120291": 34958, "Chapter": 13617, "compact": 36648, "variables": 39448, "rational": 40328, "\u0120WI": 39279, "\u0120Lightning": 41882, "\u0120padd": 41243, "lle": 43973, "Verlag": 46211, "\u0120Benef": 27873, "\u0120doub": 18283, "\u0120Broad": 13796, "\u0120shattered": 34994, "\u0120rolls": 21968, "Na": 15061, "\u0120Infantry": 33166, "arsh": 7894, "oj": 13511, "\u0120overlapping": 21481, "Sort": 15462, "\u0120Apparently": 25998, "Ro": 22052, "==============": 26446, "\u0120abundances": 30374, "861": 38978, "\u0120fa\u00c3\u00a7": 40881, "\u0120fortress": 41289, "XM": 45057, "\u0120slippery": 46903, "\u0120upwards": 32372, "\u0120hel": 1203, "etics": 11665, "Title": 13408, "STATIC": 38386, "\u0120Inhibition": 47769, "\u0120recursion": 43489, "\u010a\u010a\u0120\u0120\u0120\u0120\u0120\u0120\u0120\u0120\u0120": 17091, "\u0120factorization": 39401, "\u0120SM": 9947, "\u0120craw": 18684, "\u0120outlines": 36264, "\u0120emails": 16530, "\u00e5\u0122": 16849, "\u0120tunneling": 33344, "\u0120captain": 13595, "\u0120redund": 19886, "\u0120abst": 20965, "\u0120feather": 22676, "\u0120Bast": 35747, "anyl": 38593, "\u0120step": 3213, "issippi": 17530, "iations": 10944, "regex": 28847, "\u0120298": 31399, "\u0120feast": 32484, "protection": 39013, "drm": 40361, "\u0120tu": 11737, "\u0120something": 1633, "\u0120obtaining": 13546, "\u0120unsuccessful": 28008, "..\\..\\": 25976, "\u0120sunset": 32712, "asmod": 45049, "\u0120enhance": 7278, "\u0120Nos": 18407, "\u0120filming": 32539, "\u0120helpless": 26952, "\u0120vars": 41665, "\u0120tremend": 17623, "\u0120lingu": 20365, "\u0120score": 4868, "\u0120Hind": 15713, "\u0120Alt": 21913, "isin": 29197, "\u0120Hour": 36581, "Azure": 43381, "\u0120suspended": 14116, "\u0120comic": 17478, "motor": 43838, "\u0120ank": 18282, "ID": 1838, "\u0120deviation": 11254, "mort": 29043, "q": 82, "\u0120ride": 9549, "WM": 21862, "Speed": 30475, "\u0120Median": 35780, "\u0120commissions": 36662, "onds": 39320, "\u0120Login": 41977, "\u0120BLAST": 45523, "\u0120\u0120\u0120\u0120\u0120\u0120\u0120\u0120\u0120\u0120\u0120\u0120": 3059, "\u0120pelvis": 47818, "771": 40379, "\u0120medical": 3739, "\u0120saves": 26866, "union": 20172, "Wood": 30098, "\u0120SMS": 37100, "\u0120stock": 5739, "apsing": 33616, "\u0120Chamber": 23119, "\u0120tackling": 46710, "holds": 15532, "\u0120culmin": 27798, "\u0120season": 2952, "\u0120soll": 36959, "iative": 18168, "inished": 40313, "\u0120561": 48024, "\u0120scheduled": 11526, "\u0120Stop": 21305, "matter": 30596, "\u00e1\u00bd\u00b0": 46673, "\u0120awaiting": 31288, "\u0120Pet": 8939, "\u0120chemot": 48875, "\u0120Brun": 19298, "\u0120Reset": 41126, "\u0120enterprises": 32447, "\u0120WR": 18887, "uting": 9634, "\u0120Aaron": 22234, "\u0120readable": 34025, "oi": 10986, "\u0120diary": 26899, "\u0120spir": 15009, "\u0120innovative": 16694, "\u0120vert": 5765, "\u0120remove": 5386, "\u0120sheep": 16396, "\u0120Terms": 26746, "ordin": 29664, "\u0120fost": 25243, "tron": 27418, "\\}}": 34846, "psy": 19060, "\u0120Cow": 18544, "\u0120Brown": 7233, "\u0120Mate": 40758, "\u0120Serbian": 48069, "anic": 32092, "\u0120<-": 12630, "\u0120poly": 3488, "\u0120Hungarian": 32863, "\u0120Bav": 43447, "\u0120Directory": 36186, "\u00e2\u013b": 27582, "icide": 9429, "orns": 35546, "ethyl": 4040, "\u0120procedures": 7259, "\u0120steering": 21406, "\u0120COVID": 19314, "\u0120supports": 8525, "pb": 15656, "peat": 16388, "DB": 8904, "\u0120recombination": 22989, "cot": 27678, "\u0120fitted": 14662, "\u0120hints": 28145, "\u0120BAL": 28341, "\u0120misery": 33030, "off": 2727, "ichever": 33780, "\u0120lobe": 27317, "\u0120Une": 44589, "Charlie": 45255, "\u012090": 5091, "\u0120dispers": 15218, "\u0120heritage": 21904, "\u0120322": 31619, "kers": 23521, "878": 34802, "\u0120forfeiture": 38111, "ths": 20556, "\u0120digested": 38780, "iman": 25884, "min": 1222, "Generate": 40731, "row": 736, "onde": 19070, "&$": 35965, "\u0120Antarctic": 47857, "iting": 2996, "lag": 14293, "\u00d8\u00ae": 28337, "\u0120populated": 26956, "arel": 28091, "\u0120gifted": 36621, "apk": 37104, "Unique": 40049, "Of": 4527, "\u0120closely": 8244, "olysis": 23575, "Last": 8693, "Online": 30430, "\u0120Genesis": 39184, "iology": 10537, "\u0120Crystal": 29509, "\u0120drained": 31817, "\u0120minimized": 36625, "mn": 16192, "structure": 18317, "\u0120Audio": 26319, "veolar": 27971, "\u0120Copyright": 8283, "Tim": 16910, "onom": 11168, "\u0120HLA": 24743, "AME": 14081, "\u0120main": 2022, "\u0120Salv": 28178, "\u0120audience": 8446, "\u0120wines": 33707, "throws": 34832, "\u0120render": 8600, "\u0120aval": 37182, "\u0120ly": 12865, "\u0120Multiple": 20815, "\u0120\u00d0\u00b7\u00d0\u00b0": 19113, "\u0120thickening": 46994, "\u0120Managing": 47651, "\u0120glancing": 48147, "785": 49082, "\u0120\u00c2\u0135": 40521, "\u0120exceeded": 22536, "\u0120Bra": 12963, "\u0120kins": 48729, "\u0120era": 8685, "\u0120prevalent": 21270, "\u0120wavelengths": 25738, "\u0120finds": 9010, "iden": 9226, "\u0120degeneracy": 44877, "uled": 8263, "cc": 550, "\u0120prepared": 5480, "END": 8112, "prefix": 15445, "\u0120harmful": 19632, "\u0120ripp": 32058, "\u0120polymeric": 33973, "coli": 46351, "\u0120hypothesize": 41661, "\u012054": 8255, "\u0120handgun": 47164, "\u0120Ultr": 49995, "\u0120Amanda": 33811, "fight": 44641, "\u0120insomnia": 48878, "lein": 18937, "\u0120RD": 28613, "\u0120urine": 16327, "\u0120LO": 23310, "\u0120chol": 27554, "\u0120Abuse": 48020, "obox": 48577, "\u0120utilizing": 17617, "variable": 18645, "\u0120corticoster": 36891, "\u0120universal": 10898, "\u0120igual": 45862, "\u0120accompl": 7576, "\u0120guilt": 15457, "\u0120pin": 9176, "\u0120arg": 1736, "US": 3016, "~~~~": 10261, ",$$": 11227, "Mac": 13815, "\u0120crimes": 12137, "\u0120halt": 19086, "took": 50079, "\u0120fairly": 9648, "\u0120pic": 14402, ")})": 27232, "\u0120$.": 13355, "\u0120Facility": 36503, "432": 32803, "\u0120relentless": 44064, "ESULT": 46119, "\u0120introdu": 3092, "\u0120trois": 47967, "later": 31312, "omen": 4034, "\u0120Cat": 12441, "shr": 34083, "nest": 48050, "\u0120adduct": 48427, "\u0120Cert": 19937, "\u0120bells": 36161, "\u0120relinqu": 42289, "\u0120carriers": 15495, "\u01201889": 45272, "computer": 32948, "\u0120ear": 2472, "\u0120developing": 6684, "\u0120Samsung": 23061, "neutral": 27912, "\u0120esper": 35656, "\u0120Guidelines": 24620, "\u00e8\u0129\u00aa": 21232, "\u0120caves": 41644, "\u0120fee": 9801, "eties": 11292, "\u0120lengths": 16095, "Aust": 16796, "tau": 3115, "\u0120diabetes": 8401, "\u0120observ": 1759, ">&": 12399, "\u0120melt": 14534, "cible": 20109, "\u0120casting": 20278, "479": 28757, "\u0120Pray": 32543, "TEXT": 19093, "I": 42, "Although": 8430, "\u0120Shore": 35787, "\u0120Andrea": 35944, "\u01201840": 46537, "\u0120emergent": 47006, "\u0120Signature": 49803, "\u0120deleterious": 42019, "\u0120888": 48761, "\u0120Kirk": 22579, "rowning": 31041, "ribution": 2382, "positive": 10247, "Archive": 46589, "205": 16763, "\u0120Aboriginal": 42053, "\u0120commerce": 19938, "side": 2189, "icaid": 24467, "\u0120field": 1673, "acillus": 27755, "Runner": 34102, "mu": 1906, "rss": 43053, "\u0120Rabbit": 41948, "\u0120acting": 8534, "\u0120notations": 41818, "rops": 33840, "\u0120studio": 11803, "\u0120Creative": 28283, "Model": 7104, "\u0120AN": 2933, "\u0120party": 3128, "reshold": 6842, "\u0120substantive": 22918, "\u0120charming": 25507, "\u0120137": 14509, "az": 1370, "\u0120\\}": 31858, "\u0120asymmetric": 26640, "\u0120disciples": 33846, "ance": 593, "\u0120drop": 5926, "\u00e3\u0123\u0139\u00e3\u0123\u00a6": 18309, "\u0120interstate": 30899, "\u0120mushrooms": 31022, "\u0120FROM": 10727, "\u0120Film": 15913, "\u0120\u00d0\u00b2\u00d1\u0123": 24797, "\u0120oli": 34163, "rels": 32742, "\u0120MR": 11928, "\u0120EE": 14939, "\u0120beats": 27125, "\u0120BH": 28789, "\u0120lol": 23385, "\u0120communications": 10924, "\u0120stent": 25882, "\u0120HCC": 20272, "\u0120frost": 34724, "\u0120retin": 26965, "\u0120attracting": 35748, "\u0120weakness": 14855, "\u0120See": 2594, "ocol": 4368, "\u0120violation": 8411, "OG": 11840, "\u0120conspiracy": 13445, "2005": 9204, "orious": 16224, "\u0120Utah": 18143, "Pod": 20411, "\u0120Keep": 16600, "161": 20664, "\u0120civilization": 23749, "\u0120Against": 24161, "\u0120Decision": 28722, "\u0120Taliban": 32625, "\u010a\u0120\u0120\u0120\u0120\u0120\u0120\u0120\u0120\u0120\u0120\u0120\u0120\u0120\u0120\u0120\u0120\u0120\u0120\u0120\u0120\u0120\u0120\u0120\u0120\u0120\u0120\u0120\u0120\u0120\u0120\u0120\u0120\u0120\u0120\u0120\u0120\u0120\u0120\u0120\u0120\u0120\u0120\u0120\u0120\u0120\u0120\u0120\u0120\u0120\u0120\u0120": 36411, "\u0120supernatants": 41321, "Appellants": 41383, "\u0120adapting": 42174, "1940": 38765, "\u0120Majesty": 30913, "riage": 5896, "\u0120lang": 19457, "\u0120hackers": 38287, "\u0120Vernon": 42171, "tar": 17447, "ATES": 42564, "\u0120pedestrians": 47325, "libs": 26959, "\u0120fr": 1315, "\u0120bes": 6290, "\u00e7\u012b": 15957, "GER": 19622, "ibration": 11457, "\u0120accomplished": 14123, "\u0120Eugene": 36362, "\u0120shining": 28115, "Bow": 47935, "protected": 18641, "npmjs": 47449, "\u0120pretty": 3965, "\u0120Bea": 33534, "quel": 38582, "\u0120driving": 6276, "\u0120raises": 16540, "\u0120interval": 7726, "\u0120pren": 25861, "\u0120Lesser": 32425, "\u0120existing": 5368, "\u0120acquire": 16270, "blind": 27895, "game": 13197, "\u0120RNAi": 36880, "\u0120rising": 11002, "\u0120Factors": 38182, "#####": 22002, "\u00e9\u0129\u012e": 42013, "Definition": 18712, "\u0120EQ": 44643, "?\",": 46607, "door": 11806, "\u0120fr\u00c3\u00a5": 26266, "ITH": 7176, "353": 29137, "\u0120Banach": 42605, "\u0120Water": 10205, "\u0120actu": 22664, "26": 1731, "\u0120wis": 14552, "\u0120seeks": 14993, "\u0120behaviour": 8770, "\u0120bu": 1081, "redit": 12289, "){#": 4253, "anish": 9289, ".\\[[@": 15775, "144": 14231, "\u0120styles": 14957, "\u0120EF": 24931, "sufficient": 31031, "\u0120Lake": 9396, "\u0120shaken": 36712, "\u0120stationed": 38712, "gressive": 11020, "\u0120Sin": 16495, "\u0120Chicken": 31541, "\u0120Dodgers": 47506, "\u0120arter": 7463, "\u0120unlimited": 25470, "attach": 38729, "iest": 10558, "400": 8320, "Supplementary": 9227, "Detail": 29596, "INLINE": 33192, "\u0120prefers": 41469, "\u0120unfolded": 42273, "walker": 49679, "\u0120forces": 5621, "\u0120Dak": 20469, "ounge": 27351, "\u0120absor": 5862, "\u0120Brett": 36604, "ensis": 16520, "\u0120overturn": 46011, "charts": 45945, "ipzig": 47265, "\u0120molar": 34085, "selector": 28192, "\u0120gotten": 12759, "formin": 37518, "training": 31158, "erent": 41377, "\u0120convergent": 41886, "aki": 11938, "pping": 2784, "June": 18948, "\u00e2\u0137\u0132": 20245, "\u00e5\u00af\u00b9": 25949, "UNC": 34893, "through": 10489, "\u0120Frequency": 38544, "\u0120BO": 20466, "\u0120anonymity": 39185, "Conclusions": 22807, "\u0120Tian": 44442, "net": 3024, "\u00e8\u00b7\u00af": 49521, "array": 3728, "join": 13956, "\u0120bash": 29826, "\u0120fact": 958, "DATE": 33762, "\u01201917": 27062, "\u0120Nas": 30672, "\u0120granules": 39216, "endpoint": 42882, "\u00eb\u00a9": 48672, "\u0120wow": 39361, "\u0120remar": 48194, "\u0120\u00ef": 16141, "severe": 40192, "\u0120cul": 13679, "\u0120\u00c2\u00b1": 3279, "\u00e2\u0122\u0136\"": 12012, "\u0120alley": 31132, "\u0120nail": 23806, "\u0120comparative": 20407, "\u0120Typically": 22460, "\u00cf\u0130\u00ce\u00bd": 26867, "\u0120troubles": 19408, "do": 3088, "09": 2693, "XX": 6873, "\u0120converter": 24660, "\u00e5\u013d\u00be": 39249, "\u0120forms": 4948, "oured": 9698, "\u0120expedition": 26018, "\u0120sont": 16491, "\u0120CXCL": 42762, "\u0120aspart": 44928, "conc": 45542, "\u0120Meaning": 45734, "\u0120richest": 42821, "\u0120administ": 3232, "FF": 3269, "\u0120Tou": 44025, "\u0120great": 1270, "\u0120concert": 12699, "acy": 1974, "\u0120descript": 4494, "focused": 34821, "\u0120meters": 17249, "aphragm": 32556, "\u0120hates": 38232, "\u0120Pol": 3130, "CONF": 44286, "development": 27055, "\u00d1\u0125\u00d0\u00bd": 40546, "\u0120monitoring": 8667, "\u0120Arlington": 50013, "hesia": 19257, "\u0120eject": 37726, "\u0120Reds": 48660, "\u0120Donovan": 49028, "\u0120inhal": 33064, "\u0120downregulated": 34122, "\u0120use": 897, "\u0120spent": 5262, "\u010a\u010a\u0109\u0109": 11866, "\u0120224": 22856, "\u0120mart": 16172, "efficient": 20246, "bool": 10975, "\u0120Turn": 11748, "\u0120automation": 29885, "\u0120Nort": 19536, "\u0120\u00e0\u00a4\u00b8": 33465, "processed": 36981, "aber": 33231, "\u0120bonuses": 40164, "\u0120lenders": 41522, "\u0120Ro": 8741, "\u0120Patients": 12493, "ATP": 25606, "\u0120arts": 14635, "uc": 1028, "\u0120val": 821, "\u0120prem": 5398, "\u0120explained": 5544, "sect": 7338, "vals": 9863, "\u0120tongue": 14018, "\u0120reminds": 25264, "\u0120aorta": 35688, "\u0120OUT": 16341, "\u0120Tal": 12636, "\u0120assemblies": 25502, "\u0120loot": 41045, "\u0120presentation": 9759, "\u0120respecting": 41006, "l\u00c3\u00a4": 42824, "Models": 37748, "\u0120alignments": 43097, "ridges": 37945, "\u0120check": 2451, "aiver": 18386, "\u0120filter": 5806, "\u0120Huss": 44035, "idently": 45996, "\u0120diff": 2171, "Willi": 16792, "Headers": 31163, "ADS": 36160, "\u0120plaster": 43116, "\u0120visual": 5304, "\u00e7\u0123": 48078, "\u00e7\u00b4\u0142": 48815, "\u0120\u00ce\u00b4\u00ce\u00b5\u00ce\u00bd": 49456, "Mean": 12515, "\u0120dilig": 23947, "\u0120Variable": 34725, "232": 19136, "\u00d8\u012e": 26969, "founder": 31456, "\u0120base": 2613, "\u0120law": 1569, "grams": 5059, "\u0120Ital": 40300, "generic": 27256, "\u0120Comic": 43878, "\u0120fund": 3187, "\u0120~*": 24125, "\u0120pardon": 34030, "\u0120disbelief": 45582, "Bits": 31736, "\u0120violations": 15927, "\u0120sprinkle": 47865, "\u0120remorse": 47753, "aughing": 48139, "llo": 48620, "ymoon": 49595, "\u0120XIII": 49730, "ibly": 4360, "\u0120heal": 20658, "blogs": 46856, "\u0120catalytic": 19677, "\u0120redshifts": 43986, "\u0120PNG": 42288, "\u0120officially": 15335, "shut": 43780, "\u00c2\u00b7": 6256, "\u0120owner": 7302, "\u0120\u00d0\u0134": 21615, "\u00c2\u0141": 24625, "################": 11890, "\u0120variational": 39762, "\u0120Wedding": 48735, "\u0120\"\u00e2\u013b\u00aa": 14434, "\u0120manifestations": 26683, "info": 5374, "\u0120spit": 37205, "\u0120internet": 8573, "\u0120DR": 10710, "culture": 29831, "Period": 35159, "\u0120Bradford": 36890, "\u0120woven": 39239, "support": 13821, "ierno": 40820, "\u0120adolescence": 43570, "Would": 17304, "\u0120appe": 1393, "\u0120canine": 33110, "\u0120villagers": 41182, "\u0120question": 1953, "\u0120Payne": 42073, "STRU": 33284, ":\",": 49777, "Spec": 8546, "zb": 30007, "\u0120glor": 41070, "\u0120Boltzmann": 48274, "\u0120candidates": 9183, "\u0120nullptr": 28471, "bigl": 17896, "idia": 32825, "\u0120Czech": 21647, "aussian": 12064, "isible": 16802, "\u0120Strategy": 32988, "\u0120greedy": 38754, "JK": 43262, "\u0120unf": 5369, "wend": 41753, "yses": 25381, "best": 14461, "\u0120insol": 27752, "\u0120Orthodox": 30154, "\u0120goog": 41536, "\u0120epidemiological": 31634, "\u0120Midd": 34012, "\u0120Norm": 13531, "\u0120Catal": 17684, "oking": 6856, "\u00e6\u00b0\u0133": 46356, "\u0120heterozyg": 49846, "inction": 9977, "%\"}": 20868, "\u00e0\u00b8\u00b2\u00e0\u00b8": 20516, "ophyll": 30604, "\u0120SIG": 32530, ":$$\\": 47279, "\u0120\u00ce\u00b5\u00cf\u0122\u00ce\u00b9": 49929, "832": 46702, "\u0120Array": 11782, "\u0120deposition": 12503, "\u0120Cod": 40753, "\u0120Sandy": 27504, "\u0120automorphism": 40755, "\u010a\u010a\u010a\u010a\u010a": 8863, "\u0120purification": 23609, "backs": 12270, "\"[": 39258, "\u0120misplaced": 48032, "\u0120Raleigh": 48922, "IDE": 15400, "\u0120expansions": 40955, "Condition": 32352, "SOURCE": 30095, "\u0120politically": 23075, "Ring": 45606, "\u0120trou": 10524, "Tenn": 30461, "\u0120deletion": 17404, "udo": 16469, "\u0120Questions": 30254, "\u0120stellar": 13671, "\u0120MCF": 30949, "adh": 33233, "\u0120preponder": 34563, "1972": 23482, "odil": 42369, "\u00d1\u0123\u00d1\u012e": 41501, "aaaa": 23342, "\u0120methamphetamine": 42588, "inine": 14989, "erver": 17188, "apan": 3682, "\u0120Centers": 33589, "\u0120.$$": 18822, "\u0120sho": 6738, "iosis": 43220, "ESS": 5479, "\u0120traject": 13310, "...](": 26635, "\u0120Terror": 31199, "\u0120raft": 42217, "yx": 28264, "\u0120estud": 47101, "knock": 48459, "\u0120velvet": 43716, "\u0120hiking": 33061, "\u0120lacked": 20296, "'];": 22734, "dil": 43886, "\");": 3287, "\u0120NR": 15132, "\\(": 22229, "\u0120Hat": 23676, "pag": 32590, "\u0120appropri": 3991, "idem": 5710, "\u0120RV": 23049, "phot": 22468, "\u00e0\u00b8\u0139": 37948, "\u0120OK": 10826, "Pop": 14918, "\u0120missions": 21468, "\u0113": 196, "TestCase": 40595, "\u0120mouth": 6208, "\u0120Jacksonville": 46066, "\u00de": 154, "\u0120cabinets": 47545, "\u0120histograms": 47846, "flower": 33179, "\u0120cres": 36098, "\u0120Gear": 39676, "\u0120portrayed": 30804, "\u0120prescribed": 15588, "neck": 34936, "\u0120testifying": 49190, "acon": 11660, "regn": 21357, "cfg": 22181, "\u0120affili": 12350, "\u0120fil": 1193, "Rel": 9112, "keletal": 30554, "ravel": 35545, "\u0120Schw": 34347, "\u0120garment": 40371, "730": 44828, "\u0120Leone": 49771, "\u0120theorem": 10012, "\u0120Bob": 8679, "\u0120decor": 11482, "\u0120absorbed": 19360, "dehyde": 18054, "asion": 4930, "\u0120bio": 9015, "omon": 16142, "\u0120Alliance": 20958, "\u0120delicate": 21140, "\u0120gasoline": 29312, "\u0120telome": 38103, "\u00e2\u0122\u0125\u00e2\u0122\u0125\u00e2\u0122\u0125": 48738, "immer": 22369, "javase": 50024, "quarter": 35443, "HIV": 34331, "\u0120,\\": 19049, "\u0120Hann": 32766, "\u0120Former": 28351, "iele": 38853, "\u0120matrices": 12624, "oyer": 37674, "\u0120descriptors": 42785, "()\">": 49384, "\u0120machine": 5145, "ogenicity": 39873, "enter": 9553, "\u0120information": 1491, "\u0120exception": 6517, "\u0120handed": 14048, "\u0120europe": 19454, "][^": 48167, "\u0120voy": 21554, "Story": 29569, "\u0120situ": 5999, "\u0120contrast": 4499, "\u0120Appellees": 38568, "\u0120WARRANTIES": 15466, "\u0120Janet": 35685, "\u00e3\u0123\u012d": 9146, "Gen": 7475, "\u0120t": 246, "entieth": 24644, "\u0120Hansen": 40596, "Cli": 49452, "\u0120Majority": 43471, "\u0120wealthy": 20193, "\u0120NBC": 22303, "576": 33333, "\u0120skins": 39274, "offe": 44356, "ighbor": 25194, "\u0120defect": 7071, "\u0120uneasy": 43025, "view": 1374, "\u0120Ling": 47999, "nya": 49252, "a\u00c3\u00b1": 39564, "arthy": 27914, "\u0120Village": 20186, "\u0120widget": 26706, "\u0120Clearly": 21461, "\u0120pup": 16597, "\u0120copied": 22489, "AL": 1556, "\u0120bipart": 28577, "iz": 478, "\u0120Friedrich": 37511, "(\\[": 7748, "\u0120doll": 6135, "orectal": 21073, "obb": 19074, "\u0120Cros": 40293, "\u0120acupuncture": 42543, "\u0120wholesale": 35222, "\u0120creepy": 43152, "ally": 595, "\u0120semif": 45406, "(\"": 1587, "\u0120Crim": 13602, "\u0120Markov": 25228, "foods": 36632, "\u0120\"/": 13357, "\u0120Property": 15347, "\u0120ministry": 20454, "\u0120bonding": 20705, "--\"": 26836, "\u0120evoked": 32338, "\u0120datasets": 15302, "ocortic": 35612, "stmt": 39894, "\u0120rhythms": 41176, "\u0120lum": 13053, "\u0120Rivers": 28160, "\u0120FE": 20015, "\u0120offering": 9159, "\u0120Drive": 19672, "obs": 10600, "CLUDING": 20758, "opus": 30504, "\u0120pen": 4331, "\u0120promoter": 12634, "uents": 44385, "\u0120Sex": 16678, "\u0120s\u00c3\u0143": 36185, "\u0120\u00ce\u00bcg": 14986, "\u00e2\u0122\u013f\u00e2\u0122\u0136": 45038, "\u0120sporadic": 39631, "LEX": 40680, "\u0120Thomson": 41963, "\u0120Award": 11240, "enario": 37343, "hf": 45791, "640": 33031, "\u0120Evans": 19872, "Univers": 44920, "\u0120Spec": 5587, "\u0120creditor": 29870, "thouse": 37017, "\u0120geography": 37756, "\u0120sophisticated": 18144, "\u0120Say": 21882, "\u0120calibr": 24403, "\u0120verd": 27553, "\u0120\\[[": 28052, "bringing": 49575, "\u0120lungs": 18926, "option": 7872, "\u0120aut": 1125, "\u0120solver": 47037, "__.": 47977, "\u0120skating": 46851, "\u0120computation": 13782, "\u0120Label": 24527, "California": 30971, "\u0120discharges": 48246, "\u0120acetone": 48886, "fe": 453, "goog": 48031, "\u0120weekend": 8849, "7554": 49565, "eenth": 14860, "\u0120epoxy": 42018, "\u0120Dong": 39571, "EP": 13801, "\u0120Hel": 7518, "\u0120Unit": 16062, "ario": 5629, "oto": 4881, "\u0120credibility": 17938, "}).": 38331, "Thus": 14131, "micromachines": 41163, "\u0120incorporates": 31167, "\u0120philanth": 40174, "hm": 11774, "moil": 42584, "\u0120m\u00c3\u00a9t": 44189, "\u0120\u00c3\u00a9galement": 45119, "series": 22253, "tit": 39584, "\u0120Conway": 47313, "\u0120Lecture": 49090, "Nob": 25372, "\u0120linker": 39391, "ha": 3227, "\u0120senators": 31650, ")}=\\": 41780, "ellite": 29873, "Neill": 41437, "\u0120mov": 1855, "UID": 18244, "\u0120Wolf": 17698, "\u0120CASE": 44714, "\u0120org": 4955, "riter": 12327, "259": 20395, "non": 4160, "\u0120syrup": 30121, "onso": 46958, "omething": 8792, "isma": 46984, "oked": 8163, "\u0120<=": 11049, "\u0120Liber": 15562, "\u0120Square": 15894, "\u0120relevance": 17200, "\u0120perfectly": 9670, "FPar": 21284, "nanomaterials": 26808, "\u0120analysis": 1783, "\u0120bill": 6007, "acl": 29404, "\u0120\\^": 35911, "\u0120crushing": 37625, "\u0120Att": 5706, "sponsored": 45519, "\u012012": 1249, "\u0120hard": 1892, "\u0120Kw": 48601, "\u010a\u0109": 996, "\u0120vocational": 49084, "559": 36002, "\u0120Consc": 49143, "611": 45759, "\u0120inheritance": 24954, "\u0120longevity": 37899, ")];": 46462, "\u0120hus": 5424, "\u0120Grade": 28775, "\u0120client": 5268, "\u0120gard": 15934, "\u0120diagnostics": 39266, "\u0120Heart": 15382, "\u00d1": 141, "\u0120spoke": 7560, "588": 44563, "\u0120Eagle": 26864, "\u0120sitting": 7063, "thia": 36005, "yer": 7885, "iberal": 42883, "\u0120vamp": 25176, "\u0120\u0120\u0120": 341, "\u0120replaced": 7932, "box": 3364, "\u0120Jackie": 37641, "\u0120filling": 12868, "\u0120hardware": 10309, "\u0120Bible": 13534, "\u0120ORDER": 19140, "ections": 20713, "\u0120meditation": 23986, "\u0120dislike": 34941, "\u0120Drake": 36338, "mmr": 41615, "\u0120tools": 5657, "\u0120h\u00c3\u00b6": 40109, "---------------------------------------------": 42451, "\u0120Degree": 46997, "]--": 7086, "\u00e4\u00be\u012d": 32378, "\u0120mg": 5770, "\u0120purchasing": 21016, "\u00e3\u0125\u0142": 39162, "nonumber": 6274, "\u0120dominance": 26447, "\u0120VT": 36989, "\u0120results": 1543, "corrected": 43122, "Isa": 48728, "APP": 18137, "\u0120grateful": 14442, "abase": 4286, "xtures": 16873, "ILY": 37784, "\u0120integrating": 24399, "healthy": 27952, "\u00ef\u00bc\u0133": 41870, "ArgumentException": 43411, "\u0120%%": 38689, "\u012077": 10484, "Expand": 12897, "\u0120thru": 41125, "\u0120conserved": 14900, "\u0120agreed": 5821, "elastic": 25563, "coming": 4202, "\u0120Added": 32157, "\u0120disciplinary": 32873, "\u0120propagate": 38500, "ct": 291, "cultural": 37452, "\u0120squat": 39163, "\u0120turtle": 45993, "\u01203": 495, "\u0120youthful": 44098, "Burn": 44441, "Stra": 35562, "]\",": 44082, "pf": 18569, "\u0120six": 2800, "\u0120Shel": 19787, "\u0120interconnected": 36282, "\u0120Rs": 22504, "\u0120athe": 15389, "\u0120stays": 19931, "\u0120quarterback": 22385, "\u0120distinct": 5799, "225": 14832, "\u010a\u0120\u0120\u0120\u0120\u0120\u0120\u0120\u0120\u010a\u0120\u0120\u0120\u0120\u0120\u0120\u0120": 24675, "\u0120affair": 18830, "\u0120stacked": 24982, "\u0120dots": 20200, "mitting": 15318, "LS": 7858, "fits": 26017, "\u0120Martha": 26642, "\u0120Bent": 35134, "\u0120testing": 5175, "\u0120sports": 9001, "\u0120toys": 23908, "\u0120closed": 4581, "who": 10002, "\u0120expressed": 4469, "\u0120resur": 25189, "\u0120natives": 38646, "hetto": 48850, "\u0120bleeding": 14771, "\u0120nucleon": 46439, "\u0120substances": 15991, "Pur": 30431, "\u0120vertebrate": 50021, "isecond": 26054, "\u0120milling": 49946, "\u0120Nigerian": 45207, "Copyright": 20968, "Qual": 34255, "\u0120answering": 22291, "Business": 27270, "\u0120tbl": 47838, "\u0120donde": 38106, "Ham": 22176, "\u0120groove": 27444, "viruses": 19351, "ls": 5200, "\u0120nice": 5322, "\u0120likewise": 21223, "\u0120Interactive": 47875, "cknow": 6084, "\u0120rails": 29418, "\u0120eliminate": 13469, "\u0120sidewalk": 33619, "\u0120phosphat": 21335, "Greg": 33612, "unque": 35963, "\u0120generosity": 42548, "\u0120restored": 16789, "\u0120talk": 2312, "\u0120rope": 20762, "\u0120vanishes": 27309, "\u0120slider": 32968, "\u0120Wrest": 37839, "\u0120notebook": 24849, "Adapter": 16930, "\u0120sustainable": 18380, "HTTP": 23760, "\u0120Administrative": 33241, "ther": 508, "record": 15352, "ALK": 31545, "\u00e3\u0123\u00a6\u00e3\u0123\u0126\u00e3\u0123\u0141": 45950, "CACHE": 49877, "\u0120Windows": 7464, "\u0120plaus": 18662, "\u0120habl": 50209, "\u0120university": 9835, "\u0120incident": 7119, "\u0120dal": 26932, "\u0120SSL": 27243, "\u0120deduced": 36183, "\u0120Parm": 42336, "\u0120\\*\\**": 38710, "\u0120et": 1162, "ospheric": 48800, "\u0120Events": 28310, "\u0120sia": 43538, "\u0120tunes": 43569, "ENG": 40861, "\u0120elongated": 31172, "\u010d\u010a\u010d\u010a\u010d": 35745, "\u0120maybe": 5046, "\u0120cells": 1341, "\u0120Slow": 32151, "\u0120Techn": 6439, "\u0120neutrophils": 28906, "\u0120338": 35591, "\u010a\u010c\u0120\u0120\u0120\u0120\u0120\u0120": 37682, "\u0120Judges": 19592, "icism": 36106, "\u0120shaking": 18577, "issance": 18478, "ANN": 24582, "\u0120convictions": 19130, "tabs": 33754, "Know": 27958, "\u0120blocker": 45859, "\u0120STAT": 12229, "\u0120repair": 8706, "\u0120url": 9688, "axis": 10565, "Disc": 21831, "ivariate": 12735, "Field": 6180, "\u0120Eisen": 32133, "un": 328, "\u0120sincerely": 43001, "Pa": 9387, "IC": 1864, "\u0120pag": 24949, "\u0120circum": 4493, "\u0120residual": 12541, "December": 22784, "\u0120Mend": 30521, "955": 31722, "DAY": 29807, "sidered": 38617, "\u0120somet": 4258, "\u0120Railroad": 31606, "\u0120behav": 2724, "\u0120aspirin": 39764, "\u0120hypergly": 43525, "\u0120lymphoid": 43853, "Tick": 44249, "ulin": 6236, "\u00d9\u012d": 49773, "KERNEL": 45723, "01": 520, "\u0120\u00c2\u00bb": 9280, "\u0120FAQ": 35863, "#.": 26577, "\u0120hum": 1547, "\u0120Reports": 27241, "\u0120Extended": 45710, "\u0120benefited": 37081, "\u0120Despite": 9937, "before": 9131, "high": 8656, "\u0120hunger": 23635, "\u0120altar": 30099, "\u00c6\u00a1": 47170, "imar": 49414, "psis": 26633, "\u0120societal": 38058, "\u0120mutagenesis": 45889, "\u0120creation": 8869, "aid": 13774, "omaly": 27724, "ram": 3358, "\u0120hormone": 14689, "\u0120breadth": 37535, "\u0120deleg": 12016, "itol": 16180, "\u0120dominating": 41297, "\u0120PL": 11188, "\u0120cri": 47032, "eous": 22953, "\u0120HK": 39827, "\u0120disse": 15062, "\u0120misunder": 23452, "\u0120cricket": 25154, "\u0120centr": 26297, "\u0120sourced": 47344, "\u0120MG": 24879, "846": 34938, "\u0120inhaled": 44280, "\u0120Animals": 29301, "heavy": 37893, "\u0120Ob": 4386, "\u0120aspects": 7794, "errors": 22836, "\u0120molecule": 12570, "\u0120coincides": 30150, "\u0120sheet": 8335, "\u0120RA": 12875, "ansas": 10642, "\u0120CN": 18526, "\u0120VEGF": 23199, "367": 25140, "\u0120capturing": 26475, "\u0120strands": 30450, "\u0120PRO": 25382, "\u0120Newcastle": 35459, "\u0120GBM": 41494, "idemargin": 8865, "\u0120Florida": 7758, "sen": 8243, "\u0120cytoplasm": 15848, "\u0120cloning": 34591, "ki": 5985, "quarters": 14105, "\u0120drifting": 44251, "usual": 45580, "Tan": 45621, "render": 12574, "\u0120tester": 49568, "\u0120donors": 17728, "\u0120beads": 21162, "Settings": 16704, "\u0120flare": 32818, "Focus": 26078, "\u0120psy": 32884, "\u0120interfere": 19323, "\u0120psychiatric": 19830, "182": 20700, "\u0120presently": 21654, "\u0120sexuality": 30545, "\u0120Kitty": 43947, "song": 32429, "rically": 16671, "xD": 40220, "zn": 27509, "lost": 38483, "lee": 14906, "\u0120Fitzgerald": 41926, "ground": 2595, "ming": 3987, "\u0120membranes": 15403, "\u00d0\u00b8\u00d1\u0122": 20650, "\u0120\u00d0\u00bf\u00d1\u0122\u00d0\u00be": 28413, "Always": 34361, "\u00e2\u0122\u0136": 1128, "\u0120right": 987, "\";": 3664, "\u00e4\u00bd\u013e": 21275, "\u0120EOS": 46569, "\u0120delivering": 18723, "\u0120Pie": 27695, "\u0120Malta": 47832, "\u00e7\u00a6": 44020, "\u0120charge": 4179, "ellt": 47614, "rosc": 10425, "})}{": 43391, "\u0120belief": 9927, "C": 36, "ader": 6475, "\u0120integrated": 8527, "\u00d8\u00a7\u00db\u012e": 30801, "USY": 34608, "Published": 32963, "\u0120Wise": 45144, "\u0120prevalence": 8996, "\u0120elastic": 15386, "\u0120misleading": 24363, "India": 31870, "nesday": 7502, "\u0120lure": 42620, "Creation": 47731, "cro": 23853, "\u0120grup": 50242, "orta": 29674, "\u0120438": 40175, "\u0120bona": 47243, "\u0120(-": 3383, "\u00d0\u00b5\u00d0\u00bd": 5126, "\u0120Kel": 22821, "\u0120graves": 38854, "\u0120Connecticut": 20973, "\u0120Princess": 23091, "er": 254, "\u0120Cardinal": 36190, "\u0120bargain": 27871, "break": 7054, "\u0120blot": 12585, "iline": 25178, "\u0120apprent": 35016, "ong": 543, "\u0120thrown": 13044, "MENTS": 39307, "\u0120vari": 1459, "\u0120commonly": 7744, "ventory": 28584, "uities": 39560, "lest": 46701, "\u0120stimul": 7328, "\u0120Medical": 8710, "\u0120Raj": 17549, "\u0120inaccessible": 49187, "\u0120isomorphism": 20169, "uclide": 24735, "\u0120\u0120\u0120\u0120\u0120\u0120\u0120\u0120\u0120\u0120": 2674, "\u0120unconscious": 22382, "\u0120adenosine": 37121, "\u0120s\u00c3\u00a4": 31051, "\u0120346": 38290, "lion": 38374, "Kar": 40016, "oughed": 49527, "\u0120\u00d0\u00b8\u00d0\u00bd": 34217, "\u0120Municipal": 35266, "\u0120Using": 6915, "Va": 31775, "\u0120Cobb": 43342, "\u0120probed": 39039, "\u0120coil": 18783, "olphins": 35706, "\u0120exclusively": 14288, "\u0120stocks": 19487, "\u0120Justin": 20839, "fulness": 16858, "327": 20298, "\u0120neutrino": 23463, "pool": 10730, "LIST": 23422, "cale": 25912, "\u0120sings": 44718, "\u0120Ia": 47597, "\u0120AI": 14980, "at\u00c4\u0125": 44106, "\u0120Isabel": 36139, "\u0120waited": 13308, "\u0120synthetic": 13506, "\u0120Develop": 20148, "\u0120pave": 29238, "\u0120Wayne": 22165, "\u0120Labor": 9543, "\u0120interstitial": 36243, "\u0120front": 2914, "\u0120Rights": 12484, "\u0120criticized": 23159, "\u0120promotion": 14892, "\u0120opponent": 16871, "\u00d1\u0125\u00d1\u0122": 29366, "\u0120robbed": 38208, "cels": 35430, "\u0120PAC": 31136, "\u00e3\u0123\u0124\u00e3\u0124\u012c": 38591, "'/": 39618, "Co": 6869, "\u0120ozone": 41276, "\u0120660": 44493, "\u0120silenced": 46616, "\u0120coe": 6161, "\u0120Herald": 31566, "\u0120\u0120\u0120\u0120\u0120\u0120\u0120\u0120\u0120\u0120\u0120\u0120\u0120\u0120\u0120\u0120\u0120\u0120\u0120\u0120\u0120\u0120\u0120\u0120\u0120\u0120\u0120\u0120\u0120\u0120\u0120\u0120\u0120\u0120\u0120": 12375, "\u0120Aunt": 27078, "\u0120\u00d9\u0128": 31159, "LOC": 21766, "\u0120parcel": 32975, "\u0120movies": 11321, "\u0120occurs": 6634, "\u0120stands": 9572, "\u0120Song": 16865, "\u0120phospholip": 31939, "\u0120True": 11793, "\u0120MVC": 36656, "\u012017": 1722, "Mo": 15155, ",'\"": 45719, "\u010a\u010a\u0120\u0120\u0120\u0120\u0120\u0120\u0120\u0120\u0120\u0120\u0120\u0120\u0120\u0120\u0120\u0120\u0120\u0120\u0120\u0120": 48458, "\u0120Huh": 49648, "\u0120PST": 44561, "annotation": 22965, "\u0120Users": 28100, "\u0120stool": 32217, "\u0120Syrac": 46578, "\u0120Simmons": 36845, "\u0120Applic": 38260, "land": 1373, "\u0120'[": 41000, "\u0120loci": 20024, "\u0120local": 1980, "\u0120Built": 41898, "\u0120facial": 17754, "}'": 15996, "\u0120CC": 12992, "\u0120meals": 16961, "\u0120bos": 16237, "parser": 20154, "ener": 4330, "aux": 10422, "\u0120Load": 16676, "======================": 17863, "\u0120Individual": 21330, "uffs": 25428, "women": 31450, "unreadable": 35754, "BS": 4449, "\u0120Eston": 39863, "\u0120actresses": 41973, "\u0120solitary": 29437, "\u0120cens": 23339, "\u0120unitary": 24287, "guided": 26960, "\u0120bary": 28556, "\u0120po": 2963, "277": 23545, "stated": 33834, "\u0120iii": 37685, "\u0120tubes": 17080, "\u0120gigantic": 41490, "accept": 14764, "carbon": 17027, "\u0120exchanges": 23261, "\u0120flames": 26126, "cript": 1687, "enem": 43722, "Light": 19258, "fried": 41717, "\u0120beaches": 29780, "\u0120Caucasian": 43748, "\u0120botan": 44820, "Sky": 45060, "channels": 32460, "stant": 3223, "CF": 7386, "riction": 14365, "\u0120Meyer": 30944, "\u0120casualties": 32853, "1952": 41083, "first": 7053, "\u0120stroke": 9980, "\u0120orbit": 12801, "INFO": 16615, "inspired": 38358, "iceps": 41150, "\u0120canned": 45364, "\u00d0\u00b5\u00d1\u0124\u00d1\u0123\u00d1\u0131": 36663, "odo": 19095, "river": 9878, "\u0120housed": 24981, "\u0120deter": 25615, "\u0120182": 25985, "ip": 532, ")$": 1009, "\u0120Purpose": 47908, "\u0120mice": 3754, "\u00c2\u00a7": 7803, "\u0120Sean": 22723, "\u00e1\u0125\u0132": 26781, "\u0120defenders": 31342, "\u0120rivals": 28851, "\u0120Telegraph": 40321, "\u0120formal": 7473, "Ale": 44163, "\u0120newsletters": 46566, "\u0120Trib": 15637, "\u0120STRICT": 47528, "\u0120Pur": 14929, "igo": 15973, "\u0120judges": 16006, "\u0120identities": 22925, "\u0120suppressing": 35582, "\u0120Morris": 17771, "\u0120Lucy": 24112, "\u0120Status": 20364, "illi": 3370, "\u0120interact": 8008, "\u0120pyr": 31023, "\u0120unpaid": 35778, "\u0120[**": 4299, "031": 26045, "tox": 15595, "Ja": 37135, "\u0120Fellowship": 37417, "\u00e0\u00b8\u00b1": 25160, "\u0120edit": 12921, "protobuf": 30257, "xE": 34100, "acion": 33271, "\u0120perox": 19899, "\u0120substrate": 6605, "\u0120sneak": 36129, "\u0120lith": 18995, "\u0120whites": 19991, "\u0120Arabic": 26503, "isty": 39660, "\u0120Creek": 16611, "etta": 19953, "\u0120inode": 42423, "\u0120see": 923, "\u0120RE": 5689, "\u0120litigation": 15561, "transl": 34881, "\u0120Jamie": 27283, "\u0120fused": 29843, "ceral": 33606, "\u00e0\u00ab": 25657, "usr": 11919, "Table": 3235, "\u0120inches": 13048, "\u0120herd": 33361, "\u0120intercourse": 33755, "\u00e4\u00bb\u00a5": 16877, "\u0120dub": 19155, "\u0120afforded": 26299, "ats": 1832, "Extensions": 31489, "\u0120slog": 44216, "\u0120spotlight": 34543, "\u0120spying": 49613, "\u0120Halloween": 30556, "\u0120encoun": 7702, "\u0120confer": 32039, "\u0120Fi": 33813, "\u0120implicated": 19588, "mare": 22005, "rij": 23151, "\u0120cessation": 32822, "\u0120phenomenon": 11562, "\u0120Out": 6282, "\u0120illustrates": 18303, "stained": 31975, "\u0120Colombia": 31003, "\u0120disagree": 14936, "bars": 33396, "\u0120appearing": 15602, "\u0120RNA": 5771, "\u0120separated": 9070, "\u0120ej": 22317, "\u0120Chance": 42475, "\u0120opioid": 28447, "\u0120burgers": 42803, "minist": 2680, "decor": 29284, "501": 32689, "bbie": 48036, "\u0120321": 33251, "\u0120LPS": 18945, "ienna": 22890, "AUD": 40091, "\u0120heels": 25296, "\u0120Junior": 25418, "zi": 9877, "\u01201933": 26916, "\u0120iterate": 35388, "\u0120assigns": 39360, "\u0120delivers": 26361, "\u0120bull": 12156, "Pacific": 34114, "\u0120angry": 11790, "inho": 33742, "owler": 40885, "\u00e4\u00be\u013d": 47750, "\u0120Costa": 26002, "\u0120California": 5002, "\u0120endured": 37093, "\u0120asympt": 12139, "\u0120retal": 24998, "\u0120British": 4782, "Ther": 24305, "\u0120Pil": 21263, "339": 23688, "\u0120dramat": 50104, "\u0120inclusive": 25495, "\u0120Neu": 29459, "\u0120saying": 3981, "\u00c5\u012f": 13293, "\u0120Protocol": 26010, "Bigr": 29914, "\u0120Nim": 49608, "\u0120376": 38516, "probably": 31330, "posed": 7334, "274": 23735, "elfare": 12747, "\u0120lact": 16184, "illery": 21347, "\u0120adm": 7599, "\u0120penet": 17550, "columns": 31248, "\u0120kilometres": 39050, "\u0120intention": 8208, "\u0120lenses": 22881, "\u0120gained": 12103, "\u0120centrally": 44411, "768": 41356, "ollary": 17405, "*~(": 46608, "\u0120trails": 27192, "\u0120SAL": 47305, "\u0120Refs": 41966, "BMI": 31685, "\u0120Oliver": 20554, "\u0120Products": 23910, "ables": 2272, "api": 6682, "\u0120having": 1907, "\u0120comput": 2475, "\u0120ener": 21606, "mary": 3454, "\u0120marketplace": 27769, "\u0120minerals": 29383, "\u0120Oz": 31683, "ify": 1419, "\u0120compass": 17066, "_{-\\": 26568, "\u0120authorities": 9061, "haw": 21733, "\u0120Yahoo": 31230, "\u0120cruc": 29325, "Lit": 32401, "\u0120dick": 33702, "CRC": 35939, "\u0120severity": 12147, "agnet": 36488, "\u0120Apost": 38254, "stitution": 5379, "\u0120dens": 12006, "\u00c5\u00bee": 40823, "\u0120Seattle": 16335, "hookrightarrow": 45233, "eth": 678, "mmc": 45549, "548": 47070, "oxic": 32759, "\u0120NO": 7651, "\u00e3\u0124\u00a7": 47760, "\u0120equal": 4503, "tif": 40165, "Eye": 48144, "hma": 14894, "\u0120Eph": 41504, "Ident": 11540, "judge": 47075, "\u0120Fri": 30867, "________": 3234, "rapeutics": 36024, "\u0120admissibility": 49965, "\u0120pointed": 8042, "\u0120interfer": 16165, "\u0120fruitful": 46001, "058": 30541, "One": 4041, "\u0120switched": 17609, "\u00e1\u00bd\u00b6": 28555, "\u0120greater": 3687, "}),\\": 46257, "\u0120proceed": 4262, "\u0120tend": 5257, "\u0120ever": 2455, "Po": 8816, "\u0120variations": 10575, "symbol": 25354, "rie": 6595, "Once": 10758, "\u0120indist": 31929, "ans": 507, "\u0120starring": 28193, "\u0120justify": 15249, "HG": 28658, "\u012094": 11107, "\u0120kr": 36407, "\u0120Eh": 37646, "neo": 40612, "\u0120USDA": 45921, "\u0120Scheme": 38339, "\u0120reluctantly": 46572, "lite": 46788, "arat": 47310, "\u0120243": 30188, "ii": 2886, "rison": 30434, "\u0120Functions": 36944, "\u00e1\u00bf\u00b6": 41862, "\u0120Lan": 27717, "\u0120heavily": 11306, "pod": 29871, "Rand": 47495, "\u0120----,": 49869, "mania": 32009, "\u0120lie": 7027, "[": 60, "mas": 6681, "\u0120damping": 31731, "\u0120handlers": 40093, "atches": 32358, "\u0120Since": 3932, "aryl": 31271, "\u0120som": 1260, "\u0120barrels": 33545, "\u0120doomed": 38467, "gger": 34362, "dies": 37229, "\u0120Acting": 45500, "\u0120variants": 11640, "\u0120Spect": 17143, "254": 15161, "./": 11379, "\u0120Conservatives": 40055, "\u0120supr": 32909, "\u0120country": 2586, "idad": 10045, "\u0120MU": 32639, "\u0120followed": 3560, "\u0120contributions": 9021, "\u0120soul": 7765, "\u0120requesting": 24433, "\u0120\u00c3\u00ac": 31016, "\u0120before": 1078, "\u0120acceptance": 14924, "otte": 32567, "ApJ": 33159, "\u0120Issues": 37076, "\u0120Abbey": 37875, "\u0120respectful": 38975, "\u0120Ne": 3532, "circuit": 39264, "urope": 2737, "pid": 4239, "\u0120mRNAs": 34033, "\u0120dangerous": 8312, "\u0120manip": 9452, "\u0120sizeof": 13322, "\u0120MIT": 20695, "\u0120Sundays": 45999, "Ct": 5229, "\u0120Latin": 12760, "\u0120teen": 11332, "piring": 46496, "\u0120ears": 13628, "\u0120strand": 23186, "liqu": 26255, "\u0120aneurys": 27627, "\u0120readings": 28799, "\u0120ferment": 42990, "\u0120undermined": 48178, "ras": 6230, "\u0120Breit": 49094, "\u0120Genes": 37549, "\u0120Adams": 16026, "\u0120Frame": 17780, "ricks": 21557, "\u0120detention": 22680, "\u0120275": 25255, "\u0120Fla": 28675, "\u0120chair": 6951, "CHE": 48425, "\u0120Cath": 8842, "\u0120warehouse": 27134, "\u0120Elvis": 49177, "oS": 37791, "\u0120bitterness": 44875, "OR": 1372, "\u0120depleted": 33661, "Suddenly": 43199, "CRE": 15718, "undle": 8054, "overn": 4574, "\u0120fibr": 13244, "umin": 6059, "UX": 21466, "\u00c8\u013bi": 24427, "chro": 41298, "\u0120v\u00c3\u00bd": 46292, "ujah": 48120, "\u0120Live": 14309, "parameter": 19484, "\u0120crystallization": 46129, "43": 3079, "port": 631, "ging": 3390, "Screen": 22249, "\u0120protesters": 23590, "\u0120rob": 4848, "}}(\\": 12523, "oln": 13221, "\u0120dep": 1305, "\u0120rejo": 27326, "\u0120bomb": 10110, "parallel": 19783, "\u0120vel": 5828, "\u0120tap": 13341, "\u0120disappointed": 19271, "\u0120foregoing": 20128, "tim": 12292, "\u0120gn": 18976, "\u0120refuses": 29939, "aspx": 31024, "\u0120FS": 28109, "\u0120hurts": 31835, "\u0120TM": 18426, "\u0120Amy": 22138, "\u0120Driver": 32911, "\u0120keV": 33052, "\u0120CURI": 33984, "\u0120frontier": 34642, "ounced": 11493, "\u0120Indigenous": 35623, "G": 40, "Germany": 37796, "\u0120tetr": 35263, "WH": 8835, "\u00e2\u012a\u0139\u00e2\u012a\u0139": 38443, "841": 39506, "\u0120syringe": 40674, "\u0120precluded": 38932, "\u0120cellulose": 30429, "CXX": 39032, "\u0120Sample": 24046, "\u0120Ang": 4965, "\u0120Teen": 41673, "\u0120th": 289, "\u0120malicious": 24764, "\u0120commentators": 42608, "\u0120@@": 34346, "\u0120hors": 43347, "\u0120voice": 4318, "\u0120speculated": 39377, "\u01201897": 45265, "\u0120commuting": 49681, "\u0120border": 5680, "\u00e2\u012d\u00af": 50034, "\u0120OFF": 21890, "\u0120curtain": 31261, "\u0120package": 5522, "\u0120moves": 9727, "ooting": 22933, "agg": 13046, "\u00c5\u00af": 23665, "6": 23, "\u0120Message": 17775, "possibly": 38896, "\u0120bladder": 18676, "ahr": 24452, "AA": 2446, "\u0120(\u00e2\u012a\u0134": 18239, "1100": 37965, "\u0120salient": 43066, ")=(": 28844, "\u0120Spark": 33308, "\u0120Eddie": 27238, "\u0120perceptual": 39612, "----------------------------------------------": 42040, "BW": 42230, "\u0120func": 11632, "CHANNEL": 48197, "\u0120evident": 8943, "evolution": 38314, "emit": 35999, "\u0120commercial": 6264, "keys": 12305, "elope": 46749, "\u0120Juda": 41277, "hadoop": 49750, "onents": 8999, "ho": 1689, "\u0120referendum": 26479, "\u0120simplify": 25636, "RB": 26646, "Worker": 35370, "imetry": 41696, "Large": 31727, "\u0120admiration": 35746, "\u0120gamb": 38415, "\u0120METHOD": 37939, "\u0120Toast": 40278, "[$\\": 46265, "\u0120marginal": 16888, "\u0120Brief": 16404, "yet": 28948, "\"...": 36673, "\u00e4\u00ba\u012e": 34744, "\u0120phosphor": 43734, "\u0120serving": 9417, "\u0120organizers": 37630, "\u0120allow": 1581, "lessness": 23786, "\u0120assure": 21684, "nad": 45331, "IBM": 47762, "ulose": 20693, "\u0120beautifully": 27839, "\u0120www": 8280, "------------------------": 26043, "\u0120surveyed": 28671, "uper": 29974, "\u0120Might": 35284, "\u0120Criteria": 39554, "\u0120naar": 41784, "\u0120crop": 17177, "\u0120\u00cf\u0122\u00ce\u00bf\u00ce\u00bb": 45002, "urity": 5051, "1941": 44606, "when": 9453, "\u0120goods": 10229, "\u00e3\u0124\u012b": 11039, "================": 1702, "rol": 1102, "\u0120instanceof": 31979, "\u0120leuc": 36954, "produ": 5551, "Controller": 8929, "\u0120camps": 19509, "orphisms": 45911, "Lyn": 48959, "atra": 29628, "\u0120CIR": 23408, "\u00e2\u0128\u0134": 23759, "cis": 28268, "\u0120)\\": 32860, "ng": 1251, "\u0120Bless": 38658, "Why": 4967, "\u0120researc": 7440, "\u0120Dub": 20065, "\u0120amused": 41024, "\u0120Between": 17842, "\u0120fermentation": 30734, "\u0120diam": 45285, "jquery": 19203, "sql": 11296, "ains": 1550, "\u0120(%)": 11767, "\u0120cookie": 19550, "\u0120advertisement": 28064, "\u0120prohibition": 30034, "\u0120persuasive": 34593, "aused": 15525, "\u0120wants": 5605, "\u0120abuse": 7242, "\u0120newer": 21629, "batch": 23941, "UMP": 47774, "\u0120CALL": 32388, "ause": 766, "Moh": 48598, "\u01201882": 49325, "\u0120Fun": 15955, "ulu": 21362, "opian": 40113, "\u0120scout": 42513, "\u0120attempt": 3177, "----------------------------------------------------------------------------------------------------------------------------------------------------------------------------------------------------------------------------------------------------------------": 16525, "\u0120slept": 21567, "aron": 10510, "inners": 12947, "\u0120Sweden": 16842, "\u0120\u00d1\u0126": 21534, "\u0120r\u00c3\u00a9s": 32563, "\u0120accomplishments": 40243, "\u0120c": 260, "acchar": 17282, "}\\!": 33714, "\u0120anne": 27175, "\u0120deepest": 34620, "coc": 39354, "Angle": 42245, "2010": 7199, "\u00e1\u0125\u0136\u00e1\u0125": 39146, "chemical": 20465, "\u0120['": 14412, "\u0120Chapter": 10372, "IMP": 40921, "Binary": 32849, "\u0120consulted": 33444, "\u0120OL": 42587, "brown": 33167, "ucked": 20044, "raised": 42750, "\u0120Mono": 49302, "\u0120dy": 17713, "\u0120\u00d1\u012f\u00d1\u0124\u00d0\u00be": 27854, "\u0120DDR": 47426, "\u0120sich": 15747, "isto": 28697, ")**(-": 29291, "527": 45555, "\u0120laughs": 33350, "Your": 7093, "Document": 14500, "\u0120night": 2360, "Sources": 28752, "installed": 40539, "observer": 44094, "\u0120fled": 18436, "Rank": 34337, "\u0120511": 39041, "Notify": 48100, "\u0120reliably": 27340, "anything": 38185, "\u0120\"./": 49173, "erved": 4994, "\u0120residency": 37647, "\u00c3\u00a9ment": 38889, "\u0120comport": 48414, "\u0120modulus": 28380, "\u0120photoc": 32934, "\u0120candy": 26996, "Gaussian": 44765, "\u0120Explorer": 29904, "\u0120Nag": 21987, "\u0120unaffected": 30195, "sort": 15227, "enn": 2477, "yna": 45955, "\u0120rom": 10102, "\u0120teaching": 9551, "\u00e7\u00a8\u012d": 31949, "ivariable": 39366, "\u0120stat": 1098, "GW": 31663, "imgur": 48370, "pntd": 23125, "\u0120sacrifices": 38558, "\u0120trich": 50163, "uration": 2742, "\u0120Benson": 45004, "cipher": 42681, "avage": 16476, "inical": 9641, "\u0120remarks": 16157, "\u0120\u00c2\u00a3": 8157, "\u0120Prot": 37319, "ancers": 13342, "\u0120rotating": 17387, "\u0120predetermined": 17095, "\u0120AD": 5446, "Widget": 17393, "Foo": 34296, "\u0120unfortunate": 23293, "\u0120SEE": 36079, "\u0120Tool": 16235, "Natural": 39441, "tag": 7784, "\u00ce\u00bb": 5776, "\u0120isso": 31812, "\u0120decreases": 12075, "\u0120,$$": 26325, "\u0120choke": 45266, "prisingly": 28761, "\u0120pinpoint": 45661, "(/": 33692, "897": 34284, "\u0120Surviv": 49693, ")}(": 14411, "\u0120blind": 9645, ")):": 49751, "\u0120CIT": 46226, "mount": 16285, "0035": 32559, "\u0120fossil": 22852, "447": 28943, "\u0120faculty": 14953, "SIM": 32847, "\u0120East": 5791, "ochem": 7776, "\u0120tou": 3912, "rb": 13041, "\u00d1\u0125\u00d1\u0130": 26199, "erguson": 28210, "\u0120Carn": 33334, "\u0120Cam": 6039, "\u00d1\u0128": 8961, "\u0120borderline": 45210, "buk": 41554, "aughlin": 44750, "\u0120distinguish": 12129, "1945": 36354, "\u0120Amazing": 46974, "\u0120furnish": 31538, "\u0120Pars": 32018, "\u0120filing": 12108, "ovir": 34088, "\u0120chemo": 44146, "Gs": 15121, "\u0120DHS": 45728, "\u0120Aires": 45561, "\u0120ist": 10863, "cache": 12985, "\u0120oun": 20796, "\u0120parental": 17087, "\u0120circular": 13765, "\u0120cough": 22626, "\u0120kidneys": 33193, "lene": 28740, "displaystyle": 15652, "\u0120consider": 1908, "\u0120greatly": 10260, "disk": 27236, "porters": 33187, "\u0120Governor": 15636, "mak": 45879, "STITUTE": 47259, "\u0120nucleotides": 31227, "GroupName": 48975, "score": 18891, "\u0120BMP": 37985, "\u0120restaurant": 10301, "istani": 30474, "erk": 9314, "\u0120seniors": 36710, "\u0120downstream": 15450, "\u0120roster": 22970, "wey": 41285, "\u0120due": 1955, "Captain": 31216, "\u0120incor": 5050, "\u0120Day": 6258, "Thread": 11589, "\u0120beneath": 11834, "\u0120publishing": 18051, "irections": 40357, "\u0120overwhelmingly": 42935, "\u0120clog": 43848, "Actually": 25179, "\u0120kinematics": 47266, "Tax": 26859, "\u0120reps": 47276, "Evaluation": 48640, "\u0120Provider": 49230, "\u0120elaborated": 50221, "istar": 43418, "ober": 2672, "\u0120correlation": 5921, "\u0120jquery": 39775, "grid": 15476, "\u0120Cran": 45374, "\u0120coordination": 19915, "\u0120interacts": 29290, "\u0120Ai": 49673, "CAC": 28348, "adapt": 26672, "\u0120Jeg": 42569, "\u0120Compared": 20901, "\u0120adjudication": 39791, "/>": 4357, "\u0120ACT": 21318, "\u0120slipping": 37032, "\u0120sco": 46254, "\u0120catalog": 20623, "icht": 11014, "\u0120mont": 24325, "\u0120tattoo": 31720, "\u0120LOS": 46898, "MAX": 11779, "\u0120are": 403, "\u0120FOR": 6651, "rous": 18437, "leigh": 34460, "line": 1282, "ceptor": 17516, "ittest": 44713, "imos": 29058, "\u0120brings": 10316, "Add": 4717, "\u0120diminished": 23028, "\u0120PAGE": 38465, "\u0120libertarian": 48845, "emis": 49245, "\u0120Gospel": 33283, "\u0120exited": 43788, "\u0120614": 48932, "\u0120Grace": 18966, "pher": 20640, "erville": 43382, "\u0120dw": 19858, "\u0120Incre": 16898, "packet": 28575, "\u0120monde": 38214, "andals": 45642, "\u00e5\u00b8": 15446, "\u0120Instagram": 19614, "\u0120healing": 13255, "\u0120confocal": 29478, "\u01201929": 29063, "\u0120Function": 12917, "\u0120Matthe": 14690, "\u0120retriev": 12802, "\u0120Warrior": 46191, "0059": 49180, "\u0120lar": 1236, "\u0120methodology": 16182, "oda": 17457, "\u0120socks": 33957, "\u0120Ent": 11198, "\u0120compos": 21515, "Weight": 25935, "\u0120interferon": 35229, "disc": 12722, "ncbi": 35301, "\u0120plated": 35610, "GENER": 39655, "sie": 48188, "\u00ce\u00b5\u00ce\u00b9": 11910, "mog": 44519, "AGE": 7669, "\u0120elbows": 46387, "\u0120Argent": 17794, "fin": 9750, "\u0120delight": 12725, "xiety": 9487, "168": 13851, "lip": 20844, "\u0120ellipt": 20194, "close": 10483, "\u0120NV": 24671, "icol": 20917, "\u0120adoption": 16253, "formal": 24873, "\u00e2\u0136\u0122\u00e2\u0136\u0122": 13526, "\u0120MAS": 48677, "Owner": 36762, "istant": 5567, "oelectric": 23432, "\u0120withstand": 32385, "\u0120L": 418, "\u0120MAKE": 49213, "exclude": 49309, "\u00d9\u012c\u00d8\u00b1": 44353, "byterian": 49945, "\u0120Confederate": 38540, "\u0120integers": 20935, "\u00e3\u0123\u0141": 6218, "process": 7404, "domain": 13517, "\u0120complimentary": 48301, "Anything": 38714, "\u0120peer": 14218, "Messages": 40245, "AMES": 37743, "zin": 38781, "\u0120shell": 8135, "tg": 32304, "\u0120myocardial": 17883, "\u0120Cotton": 39339, "ocial": 2142, "\u0120dehydrogenase": 28421, "\u0120320": 23349, "\u0120Besides": 15222, "\u0120rRNA": 30509, "irts": 14068, "USS": 24001, "\u0120inconsist": 27393, "\u0120Stanley": 20923, "\u0120Merkel": 44669, "\u00cf\u0123\u00cf\u0130": 49100, "\u00e0\u00ba": 34556, "\u0120reg": 810, "arden": 6702, "uality": 10982, "January": 22423, "George": 23108, "\u0120Touch": 31092, "IFY": 32066, "\u0120fuer": 36069, "\u0120starvation": 35351, "\u0120Festival": 14964, "WO": 20293, "Updated": 30760, "offer": 45422, "\u0120medicine": 9921, "hart": 23110, "\u0120moeten": 37876, "\u0120ridic": 41962, "\u0120Breakfast": 46798, "\u0120ducks": 46495, "\u0120Polit": 12766, "\u0120integr": 2899, "\u0120phosphorylated": 31232, "\u0120Behind": 33341, "\u0120Null": 34631, "\u0120Miller": 11418, "\u0120blocked": 13230, "\u0120dough": 17652, "WV": 34772, "rac": 8306, "\u0120Prim": 14140, "\u0120launches": 37048, "\u0120Pit": 31235, "\u0120ruby": 40110, "\u0120pleased": 13864, "umbled": 16630, "![\\[": 37982, "Statement": 25343, "fast": 7957, "slave": 39629, "\u0120advice": 7535, "Sol": 30428, "\u0120taxes": 10474, "growth": 25869, "\u0120evidence": 1941, "\u0120ongoing": 10800, "istrate": 20337, "\u0120Plants": 48525, "\u0120tactical": 31532, "\u0120339": 34509, "\u0120runtime": 20243, "\u0120268": 30783, "\u0120av": 1323, "\u0120cultural": 8928, "In": 688, "\u0120marine": 17787, "Congress": 39333, "\u0120cath": 22594, "\u0120instructive": 49664, "Down": 10854, "atase": 42694, "\u00e3\u0123\u0131": 14016, "\u0120sexually": 20512, "Respond": 41359, "Pages": 38496, "\u0120sw": 1863, "\u0120cereal": 42725, "\u0120classics": 42975, "\u0120NF": 14100, "ruck": 32068, "aphyl": 25570, "\u00e9\u0129\u012f": 34698, "063": 37253, "heet": 14934, "\u0120Father": 10956, "ohn": 2116, "conv": 13118, "\u0120Layout": 38870, "\u0120Cont": 3267, "ach": 607, "\u0120surge": 12061, "\u00d7\u013b\u00d7": 13963, "\u00e7\u00bb\u0135": 43799, "Academ": 42228, "\u00d0\u00a1": 22690, "\u0120touring": 36467, "\u0120galactic": 39668, "\u0120delegate": 24565, "\u0120natur": 42156, "\u0120opening": 5909, "oles": 3841, "undo": 16538, "\u0120noting": 15806, "dst": 19335, "Martin": 28448, ")/\\": 32615, "\u0120blots": 46543, "xp": 37755, "Photos": 46570, "\u0120idx": 27071, "\u0120presumption": 22797, "\u0120Est": 8464, "\u0120Yemen": 27412, "comit": 23770, "atie": 25630, "\u0120constraints": 10806, "\u0120Frances": 27522, "\u0120TP": 26029, "\u0120personality": 13216, "\u0120Bog": 27737, "\u0120231": 28804, "\u0120nella": 39814, "\u0120APC": 41003, "\u0120fingert": 41719, "\u0120Grow": 47739, "\u0120feel": 1928, "\u0120manufacturers": 16596, "\u0120indeterm": 44785, "\u0120Taj": 47858, "\u0120Aircraft": 50214, "\u0120astonishing": 35240, "Contact": 21056, "\u0120albumin": 24641, "\u010a\u0120\u0120\u0120\u0120\u0120\u0120\u0120\u0120\u0120\u0120\u0120\u0120\u0120\u0120\u0120\u0120\u0120\u0120\u0120\u0120\u0120\u0120\u0120\u0120\u0120\u0120\u0120\u0120\u0120\u0120\u0120\u0120\u0120\u0120\u0120\u0120\u0120\u0120\u0120\u0120\u0120\u0120\u0120\u0120": 39229, "erson": 3796, "\u0120ration": 42904, "\u0120fu": 15260, "\u0120naval": 25186, "fb": 15662, "\u0120LG": 28881, "Too": 25643, "ERV": 11710, "ceptions": 14233, "\u0120ai": 23105, "\u0120explorer": 46041, "\u0120inhibiting": 24468, "\u0120summ": 14568, "\u0120disclosure": 13911, "\u0120HCV": 22899, "[@": 683, "\u0120sergeant": 38798, "atus": 3144, "\u0120immunohistochemical": 39022, "agna": 43207, "ana": 3230, "\u0120179": 24062, "\u0120Single": 19757, "-------------------------------------------------------": 48151, "\u0120sulfur": 25524, "\u0120replicate": 25464, "\u0120contrasted": 48397, "SC": 4061, "\u0120operating": 6498, "\u0120briefs": 32852, "\u0120dp": 33234, "iet": 2880, "\u0120TW": 30694, "iques": 4624, "dest": 10812, "\u0120complainant": 47461, "\u0120flattened": 42394, "\u0120discharg": 14886, "\u0120187": 25165, "grass": 34495, "autom": 37771, "\u0120bud": 5524, "00001": 39197, "\u0120dod": 33413, "\u0120GF": 33952, "\u0120Probably": 27692, ";;;;": 32657, "\u0120learns": 33772, "tools": 16885, "CV": 8887, "830": 35400, "\u0120lava": 48343, "\u0120fol": 6305, "dings": 26935, "\u0120homeless": 20783, "\u0120Nazi": 21219, "\u0120providers": 11967, "\u0120Celt": 30065, ")\u00e2\u0122\u0136": 37011, "isan": 16870, "etitive": 19922, "\u0120echoed": 32457, "\u0120tension": 12415, "\u0120coordinate": 13249, "\u0120off": 745, "ulse": 15748, "\u0120Bros": 29906, "scriptsize": 42612, "\u0120Atlanta": 18267, "\u0120surprisingly": 19143, "\u0120benchmarks": 49602, "\u0120spirit": 5968, "\u0120foot": 3174, "\u0120Chancellor": 34641, "\u0120Programming": 43002, "~.": 20547, "\u0120Arabidopsis": 48665, "\u0120searched": 16113, "\u0120GeV": 22542, "\u0120Wal": 8178, "VERS": 15511, "\u0120_": 795, "\u0120municipality": 24530, "\u0120McCl": 33508, "\u0120kindness": 28426, "ublin": 21751, "\u0120Bre": 7528, "\u0120practically": 18236, "\u0120LV": 19713, "=\"_": 23604, "\u0120--------------": 16913, "particle": 25268, "\u0120cathode": 31672, "\u0120boson": 32438, "odor": 36155, "\u0120formatting": 33907, "\u0120Eight": 16244, "\u0120encrypt": 42347, "\u0120Jersey": 8911, "\u0120kw": 41291, "\u0120*);": 46083, "ures": 980, "horn": 27721, "\u0120Lenin": 49444, "\u0120unicode": 50058, "lem": 5616, "\u0120ceremony": 16730, "\u0120reservation": 28930, "\u0120est\u00c3\u00a1n": 46154, "ymb": 3445, "\u0120horse": 8815, "Tuple": 43554, "\u0120commenced": 24488, ")).": 5029, "\u0120\\!": 21846, "powers": 39969, "\u0120polymorphic": 45178, "ABILITY": 13845, "into": 14806, "DLL": 45468, "r\u00c3\u00a1": 40024, "early": 18579, "\u0120applicability": 30437, "exchange": 35757, "\u0120Ub": 43899, "uda": 14776, "\u0120Syrian": 17959, "\u0120sporting": 28802, "mable": 36426, "\u0120blacks": 26769, "\u00d0\u00b5\u00d0\u00b1": 32445, "2007": 8602, "burst": 28754, "\u0120link": 3048, "\u0120undergone": 29518, "\u0120nada": 35927, "\u0120NC": 11248, "331": 27385, "irector": 8152, "\u0120nucleus": 13787, "\u0120mutated": 31758, "\u0120usable": 31998, "\u010a\u0120\u0120\u0120\u0120\u0120\u0120\u0120\u0120\u0120\u0120\u0120\u0120\u0120\u0120\u0120\u0120\u0120\u0120\u0120\u0120\u0120\u0120\u0120\u0120\u0120\u0120\u0120\u0120\u0120\u0120\u0120\u0120\u0120\u0120\u0120\u0120\u0120\u0120\u0120\u0120": 33640, "veau": 37574, "\u0120warmed": 44494, "\u0120homologous": 30742, "\u0120abundance": 11921, "\u0120size": 1979, "\u00c3\u00a9r": 14064, "\u0120parse": 14390, "uly": 2988, "\u0120animation": 16904, "cm": 3591, "\u0120catalyst": 16803, "falls": 27366, "\u0120fell": 6497, "\u00d9\u0126\u00d9\u012b": 38033, "\u0120inquired": 39257, "\u0120Gates": 27982, "read": 1088, "\u0120([": 2470, "\u0120wash": 14841, "sembled": 14948, "\u0120intracellular": 14036, "\u0120285": 27360, "\u0120remnants": 38948, "Ross": 44018, "ties": 2890, "\u0120shoot": 5310, "\u0120articles": 7774, "\u0120CRE": 27176, "}=-": 39779, "\u0120futile": 42568, "\u0120mu": 12910, "\u0120accommodations": 45579, "\u0120scler": 49253, "\u010a\u010a\u0120\u0120\u0120\u0120\u0120\u0120\u0120\u0120\u0120\u0120\u0120\u0120\u0120\u0120\u0120\u0120\u0120\u0120\u0120\u0120\u0120\u0120\u0120\u0120\u0120\u0120\u0120\u0120\u0120\u0120\u0120\u0120": 8533, "\u0120cartridges": 49599, "GB": 6920, "\u00e3\u0123\u013c": 41581, "\u0120ammon": 21256, "\u0120Judaism": 43506, "Hop": 45954, "va": 6156, "565": 42164, "\u0120wherever": 20312, "\u0120relic": 34787, "DEFINE": 46914, "\u0120YOU": 8702, "\u0120override": 12970, "\u0120collector": 25389, "\u00d1\u0122\u00d0\u00b8": 34491, "\u0120takeover": 48896, "\u0120430": 34068, "aban": 23818, "aty": 37968, "\u0120Tehran": 35889, "\u0120radio": 5553, "Element": 7050, "\u0120english": 48087, "\u0120automotive": 33170, "ados": 8585, "\u0120bre": 1517, "adder": 14630, "PDATE": 19250, "election": 24508, "358": 26422, "\u0120solic": 26854, "\u0120EXPRESS": 31643, "Flu": 43493, "\u0120killed": 5339, "yor": 47196, "aliana": 48108, "\u0120regular": 3963, "\u0120electroly": 22281, "Simplify": 7657, "\u0120suggestion": 14876, "\u0120error": 2228, "ospital": 3494, "\u0120CYP": 27987, "\u0120\u00d1\u0129\u00d1\u0124\u00d0\u00be": 18716, "\u0120burns": 31594, "\u0120born": 5686, "\u0120crawling": 44922, "\u0120walking": 7824, "\u0120Miz": 45722, "ruly": 46072, "arios": 12416, "\u0119": 202, ")^[@": 42804, "\u0120da": 4204, "Black": 15383, "\u00e0\u00a4\u0124": 22143, "\u00c3\u00bcssen": 48067, "}}}}$": 35937, "ipro": 39552, "\u0120belonged": 20651, "\u0120ops": 38322, "debted": 36658, "ies": 447, "pcm": 35521, "\u0120apartment": 10230, "\u0120buckets": 47289, "qn": 47051, "\u0120musical": 12256, "way": 1106, "\u0120theorems": 39383, "\u0120({\\": 20886, "ishment": 8922, "\u0120assignment": 12714, "\u0120commem": 29461, "\u0120THEORY": 49212, "fully": 2920, "\u0120tack": 11463, "Discussion": 14146, "\u0120swear": 24156, "\u0120branching": 27213, "Program": 20053, "\u0120Mouse": 27319, "\u0120basics": 30486, "\u00e3\u0122\u0122": 19409, "Selector": 22215, "\u0120Upon": 15797, "\u0120rates": 4142, "\u0120singing": 16115, "talk": 26209, "\u0120Gross": 28362, "\u0120sentiments": 39236, "Foot": 20212, "ander": 5945, "\u0120aest": 18079, "\u0120forgive": 23697, "mime": 42155, "\u0120Shape": 42668, "\u00c3\u00a1rio": 28350, "\u0120DQ": 45184, "\u0120546": 43229, "lash": 36896, "finger": 37638, "$^{\\": 39885, "\"--": 49407, "inctions": 36520, "yset": 19518, "\u0120553": 45923, "\u0120Transaction": 43529, "\u0120HAND": 46683, "\u0120reconstruct": 17029, "\u0120Dim": 18025, "oplasm": 11690, "lyss": 47758, "\u0120compliant": 38147, "meth": 20912, "\u0120ing": 6446, "\u0120less": 1679, "Yeah": 6506, "\u0120awards": 16620, "\u0120\u00e2\u0122\u0137": 39611, "Bug": 45857, "\u0120scrape": 49939, "ubes": 31571, "=\"\\": 26303, "\u0120\u00c5\u0141i": 21067, "\u0120Without": 12414, "\u0120Catholic": 10503, "kil": 40408, "\u0120inflicted": 39723, "'^": 46628, "\u0120wins": 14896, "NEXT": 30425, "\u0120pronounce": 39640, "\u0120Flint": 42796, "\u0120Provincial": 49850, "\u0120zebrafish": 35836, "pure": 32669, "anyahu": 36640, ",~": 44322, "\u0120Seriously": 48587, "\u0120pamph": 41985, "\u00db\u0137": 37447, "idav": 13592, "\u0120cycle": 5880, "\u0120543": 43732, "Voice": 48900, "\u0120threatened": 13699, "osti": 28074, "\u0120(#": 33190, "$\u00e2\u0122\u013b": 29789, "ilio": 33364, "\u00e2\u0122\u0141": 42580, "onel": 14405, "\u0120IRS": 20484, "\u0120gastrointestinal": 22496, "\u0120Making": 24709, "\u0120pron": 11093, "\u0120recognizes": 25153, "\u0120fortunate": 27949, "\u0120stones": 17380, "552": 39338, "visory": 24236, "\u010a\u0120\u0120": 1772, "\u012025": 2030, "ungal": 29457, "microsoft": 22730, "Anth": 37701, "ruff": 43305, "\u0120bleed": 43662, "\u0120Ste": 2951, "}}_{{\\": 27790, "\u0120Isaiah": 48401, "\u0120abide": 41761, "\u0120vault": 28395, "\u00e5\u0122\u012d": 45256, "\u0120Exit": 40745, "\u0120stalled": 48283, "\u0120Dynamics": 37868, "\u0120Nich": 16982, "\u0120heterogeneous": 22766, "\u0120honesty": 33773, "\u0120associative": 42162, "\u0120chatter": 47580, "CCC": 39228, "\u0120mud": 16059, "\u00e6\u0138\u00b9\u00e6\u00b3\u0137": 44301, "odd": 13323, "\u0120equival": 5217, "amos": 13167, "\u0120transparency": 22107, "bbe": 49472, "filed": 47092, "ipple": 33687, "\u0120glycol": 22471, "\u0120estimation": 13418, "minimum": 35674, "\u0120conversation": 7827, "\u0120Bennett": 26853, "\u0120cardiomy": 28566, "\u0120submit": 11929, "\u0120neo": 28522, "\u0120348": 36859, "\u0120hoc": 26901, "\u0120topics": 12989, "\u0120reciproc": 33704, "\u0120fish": 6773, "Args": 16523, "\u0120fantasy": 16879, "\u0120\u00e2\u0122\u0135,": 22049, "\u0120src": 6740, "\u0120remaining": 5780, "\u0120Gardens": 33892, "\u0120Hog": 45998, "\u0120fois": 36783, "\u0120javascript": 25109, "['": 5013, "\u0120lean": 9644, ";&": 13309, "\u0120keeps": 11359, "\u0120sore": 25132, "\u0120expanding": 16122, "\u0120Jefferson": 19759, "Immun": 30458, "\u0120flaws": 32138, "\u0120endoscopic": 32709, "\u0120CONTRIBUTORS": 38623, "\u0120unpopular": 46807, "\u0120bosses": 39682, "\u0120adequ": 7825, "aurus": 32091, "\u0120FAM": 45638, "\u0120localities": 48630, "\u0120definite": 19040, "\u0120anesthetic": 50160, "Or": 3980, "\u0120undoubtedly": 25369, "\u0120borrowed": 29563, "\u0120Filip": 36935, "Film": 37160, "sil": 17525, "\u0120Atlantic": 14847, "\u0120opponents": 18062, "ident": 888, "below": 27490, "aced": 2575, "\u0120tor": 7263, "\u00e1\u0140": 18081, "\u0120tackle": 18915, "tml": 10842, "\u0120logistic": 21535, "\u00c2\u00b7\u00c2\u00b7\u00c2\u00b7": 37269, "\u0120we": 359, "\u0120-----------------------------": 42332, "\u0120hear": 4089, "inkling": 45252, "\u0120Fowler": 47574, "odont": 32430, "\u00e7\u012c": 36720, "lu": 7675, "doctor": 38272, "\u012072": 8187, "\u0120guards": 17269, "enton": 26947, "acho": 49072, "\u0120goose": 44165, "\u0120ended": 7402, "\u0120167": 22743, "\u0120Aw": 20352, "\u0120Baseball": 27141, "\u0120Gri": 42765, "Variable": 23807, "\u0120BUSINESS": 42113, "\u0120PORT": 49246, "\u0120Chev": 32762, "\u0120Defense": 14971, "onant": 43057, "1914": 50212, "\u0120stupid": 11339, "\u0120sob": 30323, "imental": 11471, "\u0120corrobor": 25092, "\u0120careg": 23063, "\u00c2\u00b9": 17583, "\u0120release": 3727, "guid": 38246, "\u0120testified": 7859, "\u0120states": 3054, "\u0120Bank": 6022, "\u0120s\u00c3\u00b3": 27884, "\u0120comforting": 45113, "\u0120longtime": 31156, "\u0120\u0120\u0120\u0120\u0120\u0120\u0120\u0120\u0120\u0120\u0120\u0120\u0120\u0120\u0120\u0120\u0120\u0120\u0120\u0120\u0120\u0120\u0120\u0120\u0120\u0120\u0120\u0120\u0120\u0120\u0120\u0120\u0120\u0120\u0120\u0120": 13095, "clic": 33783, "\u0120Inhib": 49512, "xymatrix": 38651, "\u00dd": 153, "pd": 19875, "atum": 18438, "\u0120Steele": 40592, "\u0120k\u00c3\u00b6nnen": 37241, "iston": 40729, "\u00e8\u012b\u00b2": 46461, "ynamics": 22517, "Loss": 43228, "\u0120Prior": 13036, "\u0120climax": 50068, "\u0120Salvador": 39351, "\u0120Boy": 12143, "\u0120Email": 21726, "\u0120Hil": 17539, "\u0120Iraq": 9256, "\u0120Acc": 8874, "\u0120Words": 36671, "\u0120\u0120\u0120\u0120\u0120\u0120\u0120\u010a\u0120": 47245, "\u0120terminal": 8351, "\u0120stri": 3521, "\u0120poet": 17502, "rotation": 43151, "\u0120Mitt": 32726, "errno": 39386, "\u0120gallon": 46740, "Flow": 20671, "bies": 47272, "\u0120[\\": 24430, "\u0120Point": 11149, "079": 41040, "\u0120Edmonton": 45053, "\u0120markings": 46547, "\u0120Near": 27922, "igan": 8541, "\u0120Dw": 36113, "\u0120log": 2412, "\u0120Matt": 12429, "\u0120Emma": 25975, "\u0120celebrities": 36856, "l\u00c4\u00b1": 41189, "\u0120sand": 7537, "\u0120corporation": 13739, "anging": 5610, "liest": 15717, "\u0120battles": 20303, "indle": 19909, "\u00ef\u00ac": 46992, "bourne": 17722, "\u0120Kill": 26464, "\u0120Amsterdam": 26653, "\u0120Administrator": 36370, "\u0120dissimilar": 43110, "\u0120tightly": 18996, "\u0120streak": 29642, "\u0120sinking": 34352, "\u0120finder": 47135, "\u0120704": 48798, "\u0120Com": 1176, "372": 29412, "\u0120extraordinary": 15423, "mounted": 35758, "\u0120Let": 1281, "Did": 8917, "\u0120engra": 38683, "oreal": 43549, "decoder": 48759, "\u0120'{": 39846, "uno": 26162, "\u0120coconut": 26770, "\u0120conserv": 6405, "^-$": 33026, "\u0120colonies": 19665, "\u0120Stokes": 39634, "\u0120Fant": 23428, "\u0120240": 16918, "\u0120Authors": 26940, "\u0120Docker": 40050, "\u0120repeating": 24385, "\u0120whipped": 37914, "Certificate": 41169, "public": 4387, "\u0120mature": 14242, "272": 25121, "\u0120symplectic": 35637, "\u0120think": 1158, "ider": 1334, "\u0120Other": 5131, "268": 22913, "\u0120Ivan": 27443, "\u0120Setup": 40852, "\u00e3": 159, "\u0120clocks": 38620, "\u0120Byron": 43634, "\u0120Boeh": 50061, "geries": 34527, "SP": 4350, "raining": 26208, "Destroy": 42881, "1955": 38460, "nih": 24645, "eu": 16427, "\u00e5\u00a6\u0124\u00e6\u0140\u013e": 42055, "\u0120breathed": 39085, "\u00c3\u00b8r": 21796, "\u0120invocation": 45781, "\u0120Olivia": 45790, "Com": 2115, "\u0120E": 444, "\u0120behavioral": 14613, "\u0120Od": 18668, "\u0120else": 2010, "\u0120Laura": 21960, "pix": 30061, "\u0120plac": 21927, "fav": 34281, "Political": 41526, "\u0120cocoa": 41621, "noop": 27607, "\u0120likelihood": 12177, "ako": 18956, "usi": 28954, "\u0120appro": 1192, "\u0120friction": 20636, "ensely": 42373, "\u0120meter": 21623, "\u0120Thor": 23077, "prompt": 43274, "\u0120corps": 23493, "isu": 37364, "Glu": 37513, "\u0120outpatient": 29964, "\u0120Turkish": 18416, "\u0120trains": 18784, "\u00d5\u00a1": 31047, "\u0120purported": 28751, "ollah": 37740, "r\u00c3\u00a4": 44093, "\u0120scaffold": 32973, "virt": 42446, "Moving": 46081, "Msg": 21611, "\u0120ramp": 18556, "ack": 471, "\u0120glycer": 26831, "\u0120Cook": 11980, "arrow": 2501, "\u0120Active": 20049, "\u0120Pursuant": 37368, "electronic": 47333, "\u0120Rehabilitation": 49251, "\u0120overexpression": 19911, "aient": 35493, "\u0120Birds": 43328, "\\!": 6476, "\u0120Julian": 28798, "6666": 40263, "\u0120newborn": 23066, "\u0120trypt": 46055, "rief": 3624, "\u0120sponge": 39088, "odel": 49797, "PPORT": 27425, "contin": 8190, "abo": 40826, "\u0120hypothetical": 27710, "\u0120maxim": 11903, "orting": 12655, "\u0120preview": 25044, "428": 37170, "\u0120aerial": 31319, "\u0120concentrated": 16761, "``": 5190, "NFTA": 44988, "\u0120dyes": 36348, "wt": 17118, "Prote": 19710, "Sal": 15426, "\u0120chiefly": 40699, "\u0120thrive": 34298, "STS": 42950, "avoid": 27635, "\u00e5\u0135": 20833, "araoh": 50200, "\u0120capacitor": 23596, "bread": 31212, "aternity": 33040, "\u0120Im": 3173, "EventListener": 33329, "\u0120BMW": 33399, "emos": 20789, "\u00e8\u00b7": 31811, "\u00d0\u00bb\u00d0\u00b5\u00d0\u00bc": 46120, "agen": 6533, "Validation": 31780, "\u0120juror": 32519, "agment": 15349, "\",": 995, "\u0120vent": 5698, "()));": 30652, "\u0120Crow": 22211, "\u0120ajax": 40080, "\u0120Mets": 44526, "NOS": 22398, "ij": 1944, "\u0120consumers": 11349, "\u0120radius": 9941, "\u0120Dictionary": 26372, "\u0120precipitation": 26611, "Expl": 29795, "bru": 42077, "ocese": 32143, "\u0120physic": 26289, "manuel": 29506, "\u0120Net": 5357, "\u0120moins": 36463, "\u0120LN": 40850, "\u0120\u00e2\u0136": 22760, "sov": 46508, "\u0120antioxidants": 40536, "\u0120permitted": 11460, "\u0120MT": 15964, "98": 4185, "\\],": 5290, "\\^[-": 47686, "\u0120ln": 43321, "\u00e6\u00b0": 17289, "ician": 6876, "icides": 26685, "\u0120churn": 43132, "\u0120ventures": 50018, "              ": 50264, "\\*": 3458, "\u0120BB": 22819, "\u0120Veh": 28493, "\u0120Pres": 3327, "beit": 15932, "\u0120Dream": 20909, "\u0120miserable": 28714, "391": 30072, "\u0120CNS": 27102, "\u0120116": 12472, "\u0120370": 32002, "ening": 2980, "\\$": 35153, "\u0120THEY": 35460, "\u0120door": 3369, "\u0120violently": 39843, "\u0120ANOVA": 18929, "\u0120\u00cf\u0125\u00cf\u0127": 26855, "\u0120Brigade": 34412, "\u0120Hale": 40019, ">=": 30189, "OMA": 40356, "\u0120Many": 6676, "\u0120Jennings": 48408, "\u0120rescued": 28187, "\u0120reluct": 18249, "aces": 1951, "ceed": 2638, "\u0120binaries": 36198, "\u0120fans": 7458, "\u0120appellant": 7048, "\u0120142": 21669, "\u0120liberals": 36025, "\u0120Conservative": 23222, "\u0120adrenal": 33903, "uggling": 37706, "\u0120chick": 8734, "\u00cf\u0125\u00ce\u00b7\u00cf\u0124": 38444, "nez": 41648, "ylation": 16499, "Mic": 28184, "\u0120Brighton": 46559, "\u0120footer": 50083, "\u0120nomin": 32085, "\u0120logar": 21953, "\u0120web": 4384, "\u0120mast": 20971, "\u0120psycho": 30543, "\u0120Antonio": 18089, "\u0120Sing": 7712, "shoot": 40719, "\u0120grand": 4936, "\u0120freed": 21517, "apat": 43448, "\u0120attacks": 8104, "\u00c3\u00b6n": 17685, "adas": 15333, "plication": 17192, "\u0120Tier": 41721, "\u0120acknowledges": 26785, "\u0120triv": 35820, "lg": 21619, "\u0120reliance": 22095, "\u0120shipped": 24610, "628": 49758, "\u0120populate": 41614, "SPE": 22395, "\u0120destroying": 25473, "ICA": 23296, "ara": 4595, "\u0120reconstruction": 14433, "\u0120expecting": 16764, "\u0120(\\[": 3891, "\u0120reward": 10921, "\u0120bilateral": 19379, "Statistical": 21214, "\u0120fe": 704, "yler": 19482, "ectomy": 28857, "\u0120escapes": 44716, "\u0120grows": 17202, "Files": 19284, "\u0120TC": 19171, "\u0120rush": 16949, "\u0120Personal": 23307, "tele": 29777, "\u0120Dev": 8397, "\u0120chemok": 32038, "ronic": 3462, "\u0120plural": 25540, "\u0120unle": 33243, "\u0120governor": 14176, "\u0120spear": 31636, "Batch": 34561, "\u0120lettuce": 43170, "intervention": 43198, "belt": 47349, "\u0120um": 5111, "ellee": 10889, "pper": 3803, "\\*\\*\\*": 35593, "\u0120semiconduct": 49985, "\u0120586": 50114, "\u0120550": 28564, "\u0120weapons": 8914, "\u00e2\u0122\u0136.": 34624, "\u0120Operator": 48710, "rant": 4991, "feit": 44684, "\u0120have": 452, "\u0120LSD": 47803, ".....": 20340, "designed": 38061, "\u0120\u00cf\u0122\u00ce\u00b1": 35691, "grade": 7698, "xb": 17296, "Les": 24139, "\u0120!=": 3613, "\u0120locate": 19912, "\u0120counterclaim": 48066, "\u0120Korean": 13247, "ocal": 3100, "\u0120suggested": 5125, "ffic": 1330, "oston": 8735, "nh": 23713, ".(": 14517, "\u0120screened": 22546, "\u0120shelves": 30058, "\u0120dumped": 35611, "\u00ac": 107, "\u0120collect": 4822, "\u0120Gib": 14786, "\u0120ML": 13993, "\u0120siblings": 26379, "\u0120Kamp": 46882, "\u0120Neither": 17106, "\u0120Thread": 22553, "mid": 7893, "\u010a\u010a\u0120\u0120\u0120\u0120\u0120\u0120\u0120\u0120\u0120\u0120": 36209, "\u0120obstructive": 37534, "\u0120Exec": 12138, "\u00e3\u0125\u00bc\u00e3\u0124\u00b8": 49030, "\u0120Speaker": 26587, "\u0120unofficial": 49562, "\u0120immunization": 33145, "\u0120graded": 25082, "\u0120mechanisms": 6297, "\u0120initialized": 31260, "igroup": 37259, "\u0120Rod": 11064, "\u0120Tub": 39942, "\u0120chang": 1683, "\u00e3\u0124\u00bb": 41662, "Dem": 13641, "D": 37, "itional": 16097, "\u00e7": 163, "aged": 2961, "OK": 10249, "ivir": 43365, "nem": 25476, "azu": 48285, "\u0120optimized": 18325, "\u0118": 201, "\u0120degrad": 9579, "idade": 16444, "\u0120Once": 7243, "Delta": 3442, "ERN": 18174, "roelectric": 47943, "otherwise": 32240, "\u0120499": 42160, "Bigg": 31467, "\u0120bedside": 46922, "overed": 3111, "\u0120schem": 12199, "Spe": 12923, "\u0120Mercedes": 35512, "\u0120Daniel": 10213, "\u0120knights": 44773, "ances": 1972, "casters": 47107, "\u0120destination": 12095, "\u0120collagen": 15546, "anc": 1377, "TIM": 25490, "\u0120judic": 33348, "\u0120bath": 8158, "\u0120res": 501, "\u0120histor": 5153, "vidia": 30766, "olecule": 44014, "ext": 2068, "\u0120descend": 36672, "\u0120hypocr": 44016, "\u0120pictures": 7968, "provider": 33008, "gluc": 20522, "zm": 40565, "\u0120prey": 21794, "lung": 40205, "statements": 48639, "\u0120Texas": 6112, "\u0120Funding": 44303, "\u0120endemic": 31401, "Northern": 49107, "\u0120return": 1091, "\u012056": 8026, "\u0120oxidative": 14746, "Custom": 13510, "\u0120PDF": 19415, "inea": 20444, "COMM": 31264, "\u00e3\u0124\u00a6": 35643, "\u0120wrestling": 28508, "trust": 32993, "\u0120legs": 9246, "\u0120herbal": 34952, "\u0120Invest": 11401, "\u0120193": 26138, "\u0120platform": 5147, "ilor": 32128, "\u0120Medicine": 13715, "\u0120Far": 10351, "\u0120YouTube": 15167, "processing": 21678, "\u0120Pakistani": 34538, "agmatic": 36773, "\u0120IOException": 33638, "\u0120polynomials": 21783, "\u0120Allan": 38266, "\u0120biopsy": 18323, "\u0120emerging": 14149, "\u0120includes": 3797, "February": 24099, "\u0120\\{\\": 32080, "nament": 10749, "\u0120hospitality": 34598, "enzie": 32560, "1005": 38723, "\u0120449": 40201, "\u00e4\u00b8\u0122\u00e4\u00b8\u00aa": 27896, "\u0120armies": 29894, "Money": 42066, "ITEM": 45129, "\u0120naj": 45520, "TW": 36584, "\u0120668": 47633, "\u0120Stats": 48522, "\u0120colored": 18010, "Okay": 9281, "\u0120touchdown": 22443, "comings": 33689, "\u0120Objects": 44844, "wordpress": 40317, "\u0120reunion": 45591, "\u00e6\u0143": 14486, "\u0120Pete": 26411, "\u0120those": 1110, "\u0120Sox": 27705, "\"></": 6750, "\u0120aber": 30562, "\u0120Perfect": 31960, "\u0120rounding": 46551, "Defaults": 49447, "\u0120dipl": 11833, "\u0120Baltic": 48477, "************************": 49691, "\u0120established": 4232, "access": 10773, "orr": 39667, "\u0120Er": 8024, "\u0120subscription": 21729, "pie": 10448, "\u0120Jess": 18827, "\u0120Performance": 21856, "\u0120Clean": 24373, "\u0120try": 1611, "Go": 6826, "\u0120Really": 24744, "cli": 31010, "AM": 2300, "\u0120Lys": 31300, "\u0120uniforms": 36137, "096": 36539, "nip": 40298, "dream": 44266, "\u0120chars": 47647, "ergus": 26163, "\u01202016": 4022, "\u0120disclose": 17611, "\u0120CX": 20732, "commend": 27167, "Invitrogen": 29166, "\u0120257": 30092, "\u0120foci": 37057, "\u0120GAPDH": 41610, "\u0120conspir": 11882, "ized": 1025, "unge": 20787, "external": 22108, "\u0120Consistent": 32384, "\u0120swept": 22007, "orm": 526, "\u0120init": 2012, "orph": 4048, "State": 5443, "product": 7509, "\u0120engines": 14917, "LICENSE": 17821, "\u00d1\u0125\u00d0\u00b4": 23038, "\u0120Ign": 25619, "\u0120Boris": 35665, "\u0120vegg": 43697, "\u0120cobalt": 46456, "KING": 47339, "aven": 7603, "\u0120Northwestern": 47624, "\u0120Partner": 46411, "\u0120interrupt": 11606, "Rose": 37070, "\u0120depiction": 48528, "imet": 33256, "\u012076": 10909, "apolis": 17924, "\u0120Religion": 34959, "525": 37219, "\u0120Schwe": 49552, "\u0120length": 2978, "\u0120Yorkshire": 34421, "\u0120widening": 50050, "Sigma": 6199, "\u0120hig": 1725, "\u0120departments": 20036, "\u0120Idaho": 27756, "\u0120108": 13278, "\u0120inject": 14888, "107": 12224, "ducers": 41590, "ource": 1505, "ony": 2421, "\u0120\u00d0\u00b7": 8793, "living": 22763, "\u0120Assessment": 23868, "minster": 29345, "Ts": 27415, "\u0120attr": 27617, "quiry": 44917, "\u0120bien": 15923, "\u0120championship": 15730, "\u0120ET": 17464, "ithmic": 29229, "\u0120Beauty": 36974, "arate": 33573, "take": 21528, "];": 2194, "\u0120compact": 8566, "\u0120upper": 5170, "Letter": 47953, "\u0120wells": 21443, "................................": 21770, "unda": 25581, "\u0120obliged": 26337, "habil": 14676, "\u0120regret": 14938, "\u0120entirety": 25983, "\u0120multiplic": 30840, "\u0120bridge": 9729, "\u01201800": 29316, "uy": 7352, "leg": 1851, "\u0120237": 27332, "\u0120saliva": 37074, "\u0120date": 3522, "\u0120contours": 33183, "\u0120Into": 40688, "****************************************************************************": 38868, "\u0120backlash": 43343, "free": 4924, "\u0120Psych": 13219, "\u0120doubts": 24626, "bh": 26576, "\u0120record": 1924, "drive": 27190, "ultan": 34049, "\u0120stimulates": 38197, "\u0120comrades": 40032, "\u0120peered": 43517, "\u0120\u00ce\u013c": 43666, "0006": 19035, "Counter": 27077, "\u0120Reader": 33123, "\u0120purple": 19445, "\u0120\u00d0\u00ba\u00d0\u00b0\u00d0\u00ba": 25043, "\u0120lent": 21685, "\u0120Baby": 25707, "egin": 1956, "GTH": 29818, "\u0120Pharmac": 37120, "\u0120Davidson": 38310, "\u0120Lafayette": 43889, "\":\"\",": 45281, "\u0120Changing": 45464, "ocrat": 46029, "{'": 46912, "ped": 9357, "\u0120AM": 5208, "\u0120confidence": 7162, "\u0120sender": 22647, "ittal": 26490, "\u0120stealing": 27980, "\u0120said": 753, "\u0120publishers": 28329, "\u0120phage": 35966, "oning": 12777, "\u0120nv": 39151, "\u0120184": 25921, "(\\": 1035, "\u0120Colonial": 44435, "\u00e3\u0123\u00a7\u00e3\u0124\u0124": 45776, "\u0120apprehens": 36792, "Jam": 40695, "raisal": 33434, "\u0120copy": 3491, "\u0120GOT": 48983, "sett": 12569, "jk": 17443, "\u0120socket": 17498, "\u0120Opportunity": 46437, "378": 25139, "\u0120miscar": 43725, "\u0120Zn": 19740, "NAT": 35649, "\u0120medium": 4646, "\u0120installations": 36774, "\u0120planting": 31761, "\u0120ze": 14756, "\u0120plus": 5043, "hab": 8621, "\u0120APPEALS": 24730, "lament": 19029, "\u0120PAS": 42300, "\u0120Preparation": 45221, "it\u00c3\u00a9": 11272, "\u0120recal": 42545, "\u0120Nep": 26121, "\u0120boring": 22258, "enso": 49200, "\u0120Shi": 31645, "loop": 14075, "'$.": 30916, "135": 13743, "\u0120\u00e2\u0122\u00a2": 10983, "\u0120KIND": 19329, "rfloor": 30266, "boldsymbol": 5664, "\u0120wanted": 3078, "\u01201958": 23084, "\u0120speedy": 39103, "\u0120feedback": 8680, "\u00cf\u0123\u00ce\u0143": 41620, "\u0120Muslims": 16492, "\u0120and": 285, "pcbi": 18381, "}-": 5960, "\u0120obsess": 37562, "\u0120interconnect": 34661, "graphics": 40718, "\u0120disagreed": 41030, "\u00e3\u0124\u012e": 9345, "thereum": 36376, "\u0120endpoints": 29959, "\u0120appoint": 6544, "\u0120repository": 18491, "\u0120approving": 43815, "\u0120Sep": 16925, "\u0120re": 294, "'$": 9805, "\u0120ib": 18890, "expand": 28834, "quo": 21343, "slide": 35045, "76": 3121, "\u0120discovered": 6888, "ges": 2510, "\u0120publicly": 13644, "secret": 22882, "camp": 23485, "\u0120municipalities": 34039, "\u0120supernatural": 34612, "\u0120\u00d1\u0123\u00d0\u00b5": 38366, "\u0120May": 2552, "bling": 8036, "\u0120fails": 10224, "\u0120considerations": 15711, "quez": 27680, "}}\\\\": 40437, "\u0120deco": 47188, "\u0120Welt": 47679, "\u0120limbs": 24601, "\u0120superiority": 34385, "Olymp": 33264, "DD": 11927, "\u0120Quran": 49970, "center": 9229, "sand": 40728, "\u0120awhile": 36521, "\u0120top": 1755, "\u0120autonomous": 26279, "\u0120defaults": 30470, "erm": 693, "SO": 8683, "yson": 28533, "\u0120jan": 44118, "132": 14783, "oresis": 25609, "\u0120cute": 20295, "\u0120MOD": 39823, "Nobody": 30213, "\u0120findViewById": 48687, "\u0120Brazil": 10869, "IRST": 26627, "aphr": 24596, "\u0120WL": 18972, "\u0120Simpson": 29480, "kubuntu": 34400, "AC": 1934, "\u0120women": 2255, "\u0120interstellar": 47751, "Por": 30641, "\u0120integral": 9909, "Quick": 28782, "\u0120stolen": 15661, "382": 31110, "\u0120Foods": 36215, "uch": 976, "dom": 3335, "L": 45, "\u0120Under": 6166, "\u0120Lawrence": 18682, "\u0120lev": 20978, "Robert": 21309, "CTL": 25156, "\u0120sensed": 32041, "\u0120survey": 6630, "\u0120Loading": 32784, "avirus": 16963, "IOR": 34354, "\u0120suddenly": 8423, "\u0120blob": 37905, "\u0120supplementation": 25943, "\u0120Learn": 26779, "\u0120report": 1304, "\u0120floated": 40092, "Scient": 40268, "\u0120CT": 7403, "anchester": 16071, "\u0120mens": 34939, "\u0120accusing": 37781, "rypted": 20814, "prom": 13382, "\u0120encounters": 25767, "\u0120Street": 5720, "\u0120radios": 40908, "\u0120analytically": 41398, "\u0120LEDs": 41712, "\u0120hue": 43192, "\u0120Theatre": 19670, "\u0120preaching": 43560, "Virgin": 45761, "fly": 16247, "\u0120tat": 21504, "\u00e1\u00be": 49113, "quantum": 46320, "cal": 1179, "KH": 17768, "\u0120soybean": 38810, "\u0120definitely": 7964, "Sets": 46238, "\u0120d\u00c3\u00a4r": 42666, "\u0120Golgi": 49308, "\u0120awesome": 13103, "\u0120intensive": 17193, "\u0120UND": 43675, "\u0120Keller": 44172, "\u0120google": 17899, "\u0120Pos": 19353, "\\|^": 33354, "parency": 19318, "\u0120Rac": 33005, "\u0120materials": 4753, "\u0120Beyond": 23626, "drv": 35805, "\u0120worn": 16332, "\u0120breeding": 19050, "\u0120rental": 19272, "CREATE": 25875, "mentation": 16977, "mix": 24706, "\u0120aggress": 27562, "\u0120derivation": 28529, "\u0120gh": 32798, "\u0120Those": 9240, "oby": 33664, "\u0120Answer": 37741, "\u0120prefer": 4510, "\u0120families": 5870, "\u0120density": 4038, "\u0120Cost": 12805, "\u0120couple": 4564, "\u0120le": 458, "seek": 32179, "\u0120Lund": 38899, "\u0120->": 5204, "\u0120rodent": 40815, "\u0120nombre": 31168, "\u0120Washington": 5041, "crib": 6559, "\u0120lists": 10894, "Exit": 34108, "\u0120shortening": 39243, "eba": 43937, "\u0120noct": 44970, "\u0120\u00d8\u00ae": 45232, "\u0120609": 45370, "\u0120colonic": 46024, "\u0120Students": 21696, "iley": 11416, "QUE": 18100, "obal": 3051, "\u0120touches": 26847, "\u0120listings": 32985, "N": 47, "\u0120Band": 16804, "\u0120sta": 21513, "\u0120]": 5032, "547": 48793, "\u0120cle": 1391, "kinson": 31299, "\u0120embeddings": 46234, "OU": 2185, "lements": 9115, "bc": 12847, "\u0120finance": 15065, "\u0120equivalent": 6425, "[(": 15830, "affirm": 37307, "JB": 35941, "\u0120rebounds": 41531, "\u0120calves": 43173, "ricanes": 47263, "\u0120lease": 16959, "FLAGS": 19499, "\u0120helical": 40493, "\u0120Braun": 47907, "\u00d9\u0128\u00d8\u00af": 47951, "puted": 19280, "\u0120jacket": 18553, "iang": 22589, "akes": 1582, "\u0120Lou": 6100, "imore": 17286, "gc": 23654, "ophila": 25400, "quisition": 34961, "Behavior": 38066, "KEN": 39373, "\u0120anche": 32239, "abi": 18754, "ks": 661, "sects": 33009, "]$.": 20481, "imals": 21185, "raz": 5744, "\u0120juice": 14709, "\u0120Figure": 5317, "\u0120Swiss": 19962, "368": 23926, "onte": 25599, "\u0120github": 40477, "\u0120Mais": 29164, "\u0120Zur": 41397, "737": 46525, "ri": 363, "transport": 33788, "cra": 33205, "\u0120Meeting": 30194, "\u0120bitterly": 49483, "\u0120Earth": 7565, "&": 7, "\u0120sqrt": 8084, "\u01201987": 12034, "Active": 16754, "\u00e2\u012a\u0134/\u00e2\u012a\u0134": 43226, "\u0120join": 6604, "APTER": 14879, "3000": 26990, "\u00e7\u013e": 20827, "rieved": 35571, "avez": 45836, "hou": 14451, "bee": 28700, "\u0120{(": 48469, "\u0120nominations": 41487, "\u0120optically": 37006, "\u0120Liter": 18756, "\u0120reckless": 32397, "\u0120garant": 35834, "osity": 11108, "ophil": 15019, "\u0120doesn": 2506, "\u0120observers": 25226, "untu": 4573, "\u0120closer": 8003, "\u0120According": 4794, "\u0120skip": 17049, "\u0120properties": 3607, "\u0120creature": 15906, "ainties": 19260, "nings": 38045, "Ay": 42829, "amon": 19451, "ailable": 10407, "\u0120crystalline": 28138, "acted": 33019, "shock": 35492, "\u0120formation": 4702, "*=": 13912, "\u00d1\u0125\u00d0\u00bf": 42901, "enna": 13685, "\u0120pilot": 11572, "\u0120dump": 13725, "\u0120pend": 32752, "\u0120Gren": 34450, "\u0120finals": 34482, "\u0120hangs": 37778, "\u0120ventricular": 17604, "\u0120Abrams": 49665, "\u0120Kingdom": 11491, "\u0120Sun": 4146, "      ": 50272, "\u0120couch": 21985, "\u0120sim": 948, "\u0120Now": 3954, "\u0120sharing": 9628, "\u0120grace": 14426, "icles": 3741, "rapper": 15875, "oat": 4875, "022": 12582, "085": 41532, "orbit": 30339, "\u0120chitosan": 49206, "\u0120regarded": 12258, "\u0120taxable": 39195, "\u0120mur": 4682, "\u0120Perkins": 41235, "\u0120absol": 4847, "Coord": 32876, "\u0120invisible": 20624, "\u0120protested": 36790, "autions": 36336, "\u00c3\u00a5": 2768, "\u0120Lanc": 26763, "\u0120geb": 30722, "\u0120Differences": 33968, "VOL": 36755, "\u00d0\u00b5\u00d0\u00bd\u00d0\u00b8\u00d1\u0131": 22625, "pointer": 25078, "Border": 29694, "Bu": 9263, "\u0120sixth": 15515, "commutative": 42253, "\u0120struggle": 11182, "\u0120Fa": 15404, "\u0120thermally": 44408, "\u0120kont": 36109, "\u0120naive": 27785, "\u0120transfusion": 34190, "\u0120pleasure": 11284, "\u0120duplicates": 40430, "\u0120hundred": 4289, "\u0120Oriental": 45817, "alar": 45825, "EMA": 44983, "\u0120TEXT": 46434, "eri": 25933, "\u0120Kok": 47653, "PCs": 30632, "\u0120Flood": 48613, "driver": 17440, "\u0120Prospect": 49540, "]{}": 1181, "                      ": 50256, "marshal": 34767, "\u0120Employees": 41166, "\u0120fibre": 27065, "\u01201972": 15750, "\u0120ASP": 27548, "\u0120sockets": 47611, "\u0120herein": 11249, "\u0120neglect": 18369, "\u0120escort": 33352, "notin": 31469, "${\\": 29152, "\u0120outcome": 6454, "\u0120memorable": 27795, ",\u00e2\u0122\u0136": 47359, "\u0120hoping": 11525, "ivirus": 41525, "Tom": 15883, "\u0120[$": 16731, "\u0120irony": 33740, "\u0120floor": 5254, "\u0120Jay": 16246, "\u0120farmers": 14768, "Wil": 21892, "ammad": 20136, "\u0120proteins": 4324, "hp": 28368, "\u0120portraits": 38317, "tee": 4532, "\u0120damaged": 13572, "AD": 2350, "vant": 3179, "\u0120sampled": 19958, "Individual": 38861, "levels": 43836, "\u0120Gonzales": 50112, "297": 23185, "\u0120fin": 1442, "\u0120Apollo": 34197, "\u0120Feed": 34600, "\u0120564": 45421, "\u0120responding": 19392, "forcement": 19503, "\u0120MeV": 28970, "\u0120starving": 44487, "facing": 33681, "\u0120save": 5321, "calendar": 36913, "\u0120dorm": 23574, "lichen": 27986, "00000000": 4226, "\u0120*": 475, "ael": 4696, "\u0120Perl": 33515, "\u0120delicious": 17319, "\u0120Meet": 35404, "TRUE": 26501, "\u00e6\u0130": 17598, "\u0120antagon": 13878, "\u0120161": 22761, "answered": 42195, "\u0120ranks": 17210, "\u0120Hell": 17358, "abol": 22386, "\u0120cylind": 17704, "\u0120imposition": 34178, "\u0120interface": 5673, "\u0120adjustment": 14000, "\u0120respondents": 15102, "\u0120pistol": 25288, "ima": 8032, "\u0120conceptual": 20178, "mediately": 26639, "infrared": 43030, "Language": 26170, "azine": 7841, "extended": 43315, "\u0120rhe": 23404, "float": 9599, "\u0120XL": 35974, "\u012074": 10677, "uchi": 26550, "\u0120CMOS": 47088, "\u0120enf": 31310, "irubin": 42833, "\u0120thrilling": 47330, "\u0120depressed": 23201, "\u0120assays": 12277, "\u0120allowed": 4136, "\u0120\u00c2\u00bb,": 28599, "\u0120Lipschitz": 46646, "aur": 4411, "\u00d0\u00b0\u00d1\u0124": 7065, "ied": 728, "\u0120biased": 23539, "\u0120conveniently": 34090, "\u0120\u00c5\u00a1": 23933, "\u0120Fas": 38777, "elligent": 46207, "Critical": 42993, "======": 4738, "Obviously": 32102, "1301": 39677, "####": 1835, "373": 29546, "\u0120muttered": 30807, "\u0120charter": 26801, "\u0120routines": 33255, "\u0120adhere": 29534, "\u0120polishing": 35952, "\u0120HIM": 49526, "\u0120Fold": 46806, "\u0120mitt": 50075, "accessible": 36462, "\u0120challenges": 7881, "\u00eb\u0131\u0126": 48240, "ocard": 10676, "247": 18392, "\u0120${": 7224, "\u0120needle": 15460, "dale": 22604, "\u0120121": 16493, "\u00a9": 104, "\u0120duct": 17451, "uen": 31526, "itty": 38491, "BYTE": 40231, "\u0120mysteries": 40710, "ocene": 41738, "\u0120countable": 43998, "\u0120posing": 42501, "fore": 922, "\u0120fab": 6969, "\u0120Sand": 7889, "Token": 11200, "\u0120detain": 30054, "informed": 38967, "adv": 24301, "\u0120kpc": 42746, "DW": 14279, "\u0120KP": 49012, "born": 6448, "\u0120pooled": 24462, "pression": 10862, "loader": 27564, "\u0120fer": 8388, "\u0120examiner": 37981, "\u0120ensuing": 40409, "\u0120Hal": 14449, "\u00e7\u0131": 35801, "ires": 2731, "Region": 26330, "\u0120printer": 19736, "ANY": 22026, "Inside": 32277, "\u0120backend": 31446, "\u0120fermion": 35530, "Payment": 45412, "\u0120feces": 49131, "$^": 18333, "Email": 17835, "\u0120cutoff": 23046, "\u0120basil": 40683, "\u0120Eleven": 49075, "integr": 13897, "\u0120Boeing": 35251, "ucks": 9984, "\u0120refresh": 22906, "mered": 38086, "\u0120complain": 17805, "528": 42949, "ulating": 8287, "\u0120multi": 4471, "Photo": 16227, "\u0120\u00ce\u0137": 29830, "'": 8, "\u0120def": 809, "\u0120Capitol": 27314, "Python": 27363, "\u0120renamed": 27624, "\u0120depicts": 31444, "ubottu": 32334, "\u0120world": 1533, "uns": 4539, "[,": 34993, "Ten": 27788, "\u0120Company": 6487, "\u0120knew": 3260, "\u0120interpol": 20670, "\u0120Mant": 39785, "ENTRY": 31626, "\u0120deceive": 49768, "\u0120Union": 6398, "\u0120attachment": 14170, "\u0120reasoning": 14720, "\u0120easier": 6927, "\u0120seedlings": 37002, "aped": 7760, "Hum": 40320, "agher": 41710, "cosystem": 16654, "allows": 42905, "\u0120Veter": 19694, "690": 31055, "\u0120Coal": 23194, "\u0120roar": 40257, "\u0120tidal": 32238, "\u0120isn": 3548, "Inflater": 45951, "\u0120cruiser": 50148, "\u0120diagnosed": 11245, "CFG": 34949, "\u0120Construct": 35806, "\u0120cycl": 6776, "emporary": 32596, "NBC": 37257, "\u0120support": 1329, "\u0120corpor": 5944, "VR": 18601, "\u0120knocked": 19336, "\u0120clay": 24272, "\u0120cultivars": 41919, "\"</": 43781, "\u0120forbid": 45035, "\u00e0\u00b8\u00b5\u00e0\u00b9\u012a": 48016, "\u0120emp": 41534, "\u0120acquittal": 49207, "\u0120evangelical": 49430, "acic": 23220, "\u0120terms": 2426, "\u0120oils": 24201, "Fer": 48563, "\u0120drawing": 10263, "\u0120obstruction": 22080, "\u0120Gideon": 49119, "\u0120\u00d8\u00b4": 37715, "\u0120proceeded": 20311, "\u0120movements": 11438, "ijan": 42598, "\u0120parenting": 31104, "\u0120Clause": 26377, "\u0120Gene": 15763, "\u0120award": 5722, "zzle": 12610, "\u0120hover": 26445, "\"}:": 28479, "protective": 39925, "\u0120Sto": 32081, "TS": 6901, "Alert": 33388, "})}": 22613, "\u0120avian": 47874, "\u0120flat": 6507, "\u0120asthma": 17002, "\u0120Nash": 20627, "for": 1542, "\u0120bree": 20831, "tikz": 31839, "\u0120carcinoma": 12382, "roll": 1811, "heets": 37586, "\u0120Abdul": 39509, "ICs": 43128, "ont": 834, "\u0120BAR": 43793, "\u00c3\u00a7o": 31277, "\u0120peasants": 43401, "\u0120\\_": 23577, "\u0120Columbus": 27899, "\u0120diffraction": 25505, "\u0120perhaps": 4931, "|$": 23116, "\u0120avoid": 3693, "\u0120466": 34536, "\u0120riches": 45092, "\u0120fis": 14654, "yond": 4091, "\u0120historical": 9493, "hospital": 32649, "\u0120nylon": 48543, "\u0120Dix": 47572, "\u0120locals": 25108, "\u0120ESP": 21905, "\u0120climbing": 21266, "\u0120binary": 8985, "\u0120Willie": 38916, "\u0120Bristol": 29912, "OME": 14519, "exc": 36688, "\u0120Slav": 50168, "\u0120endothelium": 43427, "\u0120pr\u00c3\u00a9": 19856, "iod": 1970, "~\\]": 47389, "\u0120drone": 28141, "\u0120cb": 34795, "\u0120differential": 8967, "ounding": 13802, "\u0120hep": 14618, "\u0120similarly": 12014, "\u0120arguments": 7125, "\u0120\u00e0\u00a4": 6280, "\u0120highlight": 6780, "\u0120Kentucky": 18370, "png": 8567, "\u0120deposit": 18831, "\u0120\u0120\u0120\u0120\u0120\u0120\u0120\u0120\u0120\u0120\u0120\u0120\u0120\u0120\u0120\u0120\u0120\u0120\u0120\u0120\u0120\u0120\u0120\u0120\u0120\u0120\u0120\u0120\u0120\u0120\u0120\u0120\u0120\u0120\u0120\u0120\u0120\u0120\u0120\u0120\u0120\u0120\u0120\u0120\u0120": 16085, "\u0120unions": 21324, "\u0120solubility": 35051, "\u0120vacated": 35617, "Patent": 40504, "\u0120COP": 14055, "\u0120bundle": 13204, "\u0120Mathemat": 16215, "\u0120joke": 16391, "\u0120tubular": 25784, "\u0120stole": 26044, "ubert": 34762, "\u0120uncor": 41656, "orer": 14071, "\u0120guinea": 40315, "\u0120Mission": 22368, "\u0120Intra": 39836, "gebras": 16343, "\u0120huge": 5699, "\u0120attribute": 11104, "\u0120denomin": 11558, "\u012004": 16703, "\u0120Ubuntu": 14425, "),(": 27003, "\u0120\u00e2\u0122\u0135": 1108, "\u0120).": 13441, ").$": 34488, "\u0120Anonymous": 43099, "iamo": 46161, "olesterol": 12050, "\u0120vein": 17716, "\u0120insight": 12288, "light": 3243, "Priority": 36933, "\u0120contrasting": 42455, "086": 44675, "\u0120S\u00c3\u00a3o": 34215, "\u0120fat": 4688, "To": 1992, "OutputStream": 35722, "acting": 20594, "\u0120energy": 2341, "reme": 4190, "\u0120supervision": 20446, "\u0120\u00c3\u00a8": 12187, "reams": 9779, "\u00e5\u00ae\u013c": 17576, "\u0120Conclusions": 35329, "\u0120chiral": 22926, "KES": 46009, "Anal": 31280, "^*_": 32156, "\u0120FILE": 15691, "Es": 15168, "\u0120idea": 2934, "rob": 18848, "\u0120pare": 22865, "\u0120mono": 23783, "\u0120composer": 25375, "\u0120tart": 33381, "\u0120Malcolm": 34409, "\u0120psori": 38573, "\u0120tagged": 31480, "\u0120[_": 42989, "\u0120help": 1361, "ynom": 9822, "belie": 21002, "\u0120laun": 8748, "agles": 23044, "\u0120beginnings": 46325, "\u0120parsley": 38955, "\u0120Engineers": 37349, "\u0120CDs": 45444, "TextField": 47379, "national": 25736, "\u0120preserved": 15296, "\u0120lam": 16519, ")--": 32186, "\u0120suction": 34907, "\u0120pitching": 36456, "\u0120typing": 23629, "ched": 2147, "\u0120NSString": 31681, "\u0120Host": 19005, "ptides": 28735, "\u0120robots": 25497, "Signal": 32136, "\u010a\u0120\u0120\u0120\u0120": 1760, "\u0120consultants": 40576, "\u0120preval": 7488, "\u0120Plate": 31773, "\u0120BSD": 32327, "Fri": 33228, "\u0120childhood": 11948, "ul": 335, "\u0120distinction": 13812, "\u0120Daniels": 38488, "})-": 44564, "\u0120KL": 47669, "\u0120caries": 48226, "iments": 3825, "ial": 451, "\u0120smell": 13624, "uric": 44107, "\u0120Organisation": 44115, "phan": 15671, "\u0120renal": 10919, "\u0120Xml": 43209, "\u0120spices": 37484, "Course": 49522, "\u0120_{\\": 20940, "Ar": 2906, ".*,": 20011, "($_": 32966, "\u0120craft": 11072, "Trigger": 33744, "\u0120dictators": 39710, "\u0120Are": 6272, "Execution": 35449, "\u013e": 239, "\u0120cracks": 30611, "Heat": 40866, "\u0120autosomal": 48981, "casts": 44358, "ws": 8819, "\u0120473": 38961, "inae": 35841, "\u0120VER": 46833, "\u0120am": 717, "\u0120Clerk": 28568, "\u0120prevents": 16897, "Available": 31130, "\u0120migrant": 35816, "{},": 37237, "optical": 45058, "\u0120tenure": 28135, "\u0120winter": 8986, "imits": 27368, "\u0120dispersed": 27667, "\u0120dictator": 48177, "\u0120Trump": 3778, "enezuel": 20656, "cyclopedia": 34132, "Term": 18919, "Corn": 43755, "\u010a\u010a\u0120\u0120\u0120\u0120\u0120": 5814, "\u0120membrane": 6384, "\u0120kitchen": 8576, "kit": 11554, "\u0120Ontario": 17367, "\u00e1\u00bd": 10623, "ificates": 23994, "textwidth": 35673, "\u0120cons": 772, "github": 7280, "\u0120warranty": 17529, "\u0120Commod": 46018, "\u0120vibration": 22634, "\u0120conced": 17225, "\u0120engineered": 28136, "\u0120concentrating": 45012, "\u0120JE": 48597, "ORM": 25201, "\u0120ensembles": 49328, "sections": 21454, "\u0120windows": 8323, "\u00e8\u00bf\u013d": 36778, "\u0120mour": 23679, "Based": 15545, "\\": 61, "typically": 42623, "\u0120baff": 38393, "\u0120heparin": 36327, "\u0120inverse": 13737, "\u0120unpleasant": 28637, "\u0120Release": 20002, "\u0120Ast": 15123, "\u0120sincere": 33842, "\u0120Doing": 38733, "upgrade": 47573, "]{}\\": 12159, "\u0120Ah": 15344, "\u0120hydroxy": 30824, "greater": 46274, "\u0120\u00c3\u0123": 36201, "\u0120annoying": 24659, "ZE": 9339, "Bul": 36068, "District": 31711, "\u0120volley": 39767, "Sho": 49498, "\u0120359": 34205, "broken": 30229, "('',": 41771, "\u0120recently": 4102, "\u0120translation": 10234, "onomy": 13646, "\u0120cave": 15985, "separ": 16806, "\u0120pastor": 30654, "\u0120Grove": 32431, "\"/": 36561, "cket": 45337, "\u0120LT": 26124, "\u0120throm": 13344, "\u0120ligands": 22056, "\u0120Kai": 41903, "\u0120protector": 47398, "\u0120deprived": 25979, "\u0120Suit": 48426, "ision": 1297, "Inf": 20067, "++){": 41812, "\u0120summar": 10405, "iving": 2179, "\u0120Jason": 16553, "-------------------------": 24702, "\u0120misf": 30181, "}": 94, "stream": 4963, "ju": 7589, "\u0120location": 4328, "\u0120Atl": 8628, "\u0120Circuit": 6817, "icular": 8070, "\u0120IMPLIED": 25900, "\u0120logically": 40452, "\u0120bet": 701, "rokee": 46195, "sweet": 46896, "\u0120bom": 13962, "\u0120destiny": 31776, "\u0120distance": 4181, "\u0120Deg": 30114, "\u0120joints": 22136, "supset": 44188, "\u0120Dragon": 22371, "\u0120Peng": 26482, "\u0120sunlight": 23993, "\u0120tiles": 28390, "Minimum": 44831, "trees": 45670, "\u00e6\u00a9": 37794, "uries": 6465, "\u0120Weather": 28323, "vable": 17254, "\u0120dropping": 18752, "\u0120GMT": 25386, "Career": 29431, "\u0120forehead": 22977, "\u0120412": 35771, "\u0120companions": 24835, "\u0120united": 25536, "itory": 6708, "\u0120moral": 9447, "\u0120indices": 14452, "\u0120expectation": 15355, "\u0120forb": 17163, "ository": 21212, "\u00e5\u013b": 32053, "\u0120Anything": 33571, "assen": 38740, "Anonymous": 45545, "\u0120197": 25336, "\u0120shakes": 41482, "JO": 26461, "\u0120transaction": 9996, "ially": 1365, "Mobile": 29279, "\u0120este": 12368, "tech": 17556, "catch": 28293, "Aw": 27031, "\u0120whom": 5207, "\u0120Bosnia": 46795, "\u01204000": 35059, "\u0120rays": 23154, "roid": 2631, "otype": 5174, "\u0120perturbations": 26309, "rate": 4427, "\u0120following": 1563, "tre": 5643, "\u0120compares": 26662, "ligt": 29545, "\u0120displacement": 16837, "\u0120deux": 23156, "\u0120Ariz": 33570, "\u0120Ped": 16868, "\u013b\u0124": 18713, "username": 19721, "\u0120profession": 8761, "236": 21358, "\u0120Plasma": 32904, "\u0120annealing": 35375, "Fly": 43104, "tests": 19453, "\u0120underground": 19076, "Events": 24121, "olly": 10378, "ietzsche": 37483, "sole": 6538, "630": 38280, "\u0120Fans": 47472, "\u0120gente": 41171, "\u0120entirely": 7094, "ele": 11177, "\u0120Walmart": 41414, "\u0120393": 39474, "\u0120At": 2058, "\u0120horm": 10101, "\u0120Lif": 27230, "\u0120trips": 19055, "\u0120periodically": 28557, "\u0120concluded": 7945, "Entries": 46030, "\u0120integrates": 49661, "\u0120vengeance": 44625, "cpu": 19411, "\u0120metals": 18494, "\u0120Vietnamese": 30907, "\u0120Shipping": 42855, "Setup": 37632, "\u0120531": 46916, "\u0120wre": 39137, "\u0120bureaucracy": 48356, "\u0120UN": 7379, "awa": 11415, "\u0120pollen": 31371, "therefore": 45230, "\u00d8\u00b7": 29937, "\u0120Tre": 9847, "fers": 15618, "\u00e1\u0122": 7183, "\u0120values": 2193, "\u0120n": 295, "\u0120fractures": 22877, "PROP": 32969, "\u0120subtracted": 42426, "\u0120enrichment": 19133, "\u0120opener": 37835, "\u0120bless": 11736, "NS": 4883, "\u0120logged": 24917, "osome": 10217, "\u00e3\u0124\u0125": 47343, "\u0120observation": 8310, "******": 27591, "ionization": 46844, "\u00e3\u0124\u00a4\u00e3\u0125\u00b3": 41781, "\u0120leverage": 25057, "672": 31436, "ols": 3017, "\u0120mammals": 25045, "\u0120princess": 28806, "\u0120$\\|\\": 47183, "\u0120oral": 7946, "oustic": 16623, "\u0120518": 43111, "\u0120waved": 27194, "online": 27381, "ODUCTION": 30523, "written": 15720, "\u0120\u00ce\u00b3\u00ce\u00b9\u00ce\u00b1": 30175, "\u0120scree": 48675, "\u0120hrs": 39112, "\u0120Sup": 5887, "cd": 2428, "\u0120(@": 12626, "\u0120gew": 34381, "\u0120worthless": 40790, "\u0120Holt": 44842, "Account": 18091, "\u0120choosing": 13887, "ar\u00c3\u00a9": 35023, "'),": 11470, "675": 41309, "\u0120monument": 25754, "\u0120antitrust": 42067, "\u0120LED": 15862, "\u0120stitch": 40532, "\u0120570": 39615, "\u0120Co": 2434, "!--": 8145, "\u0120hunting": 16121, "aram": 29982, "\u0120traditional": 5899, "\u0120sepsis": 28464, "\u0120territories": 26949, "\u00d6": 146, "worked": 45260, "\u0120standardized": 19817, "\u0120Brennan": 45572, "WKH": 32400, "\u0120LDL": 24219, "\u0120behold": 38189, "emi": 35381, "\u0120Term": 13302, "\u0120Champions": 27557, "Grand": 29532, "Town": 37261, "gradle": 38423, "\u0120vulgar": 36015, "\u0120sav": 5745, ")))": 10689, "\u0120shel": 9200, "\u0120purs": 8796, "\u0120Massachusetts": 14070, "ielsen": 37172, "contro": 43961, "tu": 16853, "\u01201901": 40488, "\u0120against": 1411, "\u0120traveling": 15153, "Bill": 25310, "\u0120brushed": 35273, "\u0120WHO": 18896, "vary": 39381, "iflu": 35536, "\u0120Spa": 45340, "Total": 12481, "\u0120Shapiro": 44934, "Diff": 27732, "ota": 5503, "oplast": 43040, "\u0120autres": 43379, "\u0120perform": 1347, "\u0120Alternative": 37757, "\u0120plotting": 38542, "\u0120nervous": 11219, "SD": 3871, "414": 32631, "loan": 37810, "\u0120gave": 3534, "\u0120hypertension": 14300, "\u0120boycott": 42760, "releases": 49399, "flow": 5449, "\u00d1\u012b": 11514, "ACH": 16319, "089": 38823, "\u0120tempt": 16031, "\u0120uncomfortable": 20032, "\u00c3\u00a7\u00c3\u00b5es": 17041, "ICC": 48856, "\u0120Putin": 22404, "\u0120eluted": 48443, "\u0120rotated": 27272, "\u0120identity": 6489, "mL": 8316, "ieu": 19683, "\u00e8\u00af": 11894, "\u0120mankind": 28473, "Working": 32197, "Ratio": 44700, "\u0120Den": 7682, "\u0120stro": 16953, "\u0120ambiguous": 23851, "\u0120abortion": 16403, "\u0120permutation": 29391, "\u0120cone": 19400, "ortunity": 32268, "\u0120tipped": 40414, ")+": 8744, "\u0120contraction": 22170, "\u00da\u00a9": 18775, "\u01201943": 23430, "threads": 41042, "culos": 36828, "\u0120deadlines": 50123, "                     ": 50257, "\u0120undert": 10832, "classical": 37347, "Lean": 46959, "\u0120purpos": 46060, "---------------------------": 28388, "\u0120\u00d1\u0123\u00d0\u00be": 35150, "Seg": 23083, "413": 37012, "\u0120336": 34128, "\u0120needed": 3058, "Customer": 30298, "\u0120Legacy": 41091, "\u0120neg": 2297, "\u0120ech": 21509, "\u00d0\u013e": 35474, "punk": 42246, "\u00e3\u0123\u00be\u00e3\u0123\u0139\u00e3\u0123\u0141": 35550, "posium": 35835, "\u0120Downtown": 46827, "\u0120clonal": 47957, "\u0120ruthless": 49543, "cad": 21192, "riot": 49851, "\u0120lag": 16653, "\u0120despite": 5747, "\u0120DP": 25891, "\u0120sharks": 44470, "mosp": 8074, "\u0120Marc": 22662, "harmonic": 38474, "iousness": 35715, "ribute": 3337, "\u0120seats": 13512, "\u0120midst": 22654, "\u0120PDE": 36780, "\u0120advising": 44083, "\u0120feat": 8151, "\u0120m\u00c3\u00a5": 20880, "\u0120asserting": 29208, "key": 2364, "\u00e7\u00b1\u00bb": 35498, "\u0120hits": 12830, "\u0120obtains": 31326, "\u0120extrinsic": 38988, "\u0120deport": 44581, "\u0120enhancer": 48060, "bject": 3412, "ube": 4338, "\u0120Late": 26502, "\u0120retrieval": 25064, "\u0120seemingly": 16907, "lying": 2943, "ince": 1090, "\u0120shelf": 22826, "range": 6324, "\u0120Jed": 45490, "Eh": 47733, "\u0120anastom": 39475, "Draw": 14410, "\u00e4\u00bd\u0128": 43300, "\u0120psychiatrist": 39738, "\u0120library": 6335, "Wolf": 46691, "\u0120paragraph": 12494, "insured": 35170, "\u00d0\u00be\u00d0\u00b2": 5790, "\u0120emission": 8295, "aky": 22560, "ISING": 31476, "\u0120Companies": 32705, "\u00e3\u0124\u00aa": 35482, "\u0120tx": 28951, "\u0120glycerol": 34071, "\u0120Edinburgh": 25990, "Hide": 29834, "ranging": 41814, "[]$": 27618, "Fuck": 30368, "Admin": 30000, "\u0120afterward": 28279, "ylan": 24107, "\u00d0\u00b8\u00d0\u00b4": 24368, "\u0120disturbances": 30992, "Structure": 34359, "\u0120vanishing": 29199, ")));": 23090, "\u0120notation": 14951, "\u0120curves": 9191, "potent": 35741, "Riddell": 46428, "\u0120Occup": 29314, "\u0120new": 747, "izumab": 32756, "\u0120growing": 5675, "limited": 15870, "closing": 49209, "\u0120950": 49305, "\u0120finish": 8416, "\u0103": 180, "\u0120provide": 2085, "layer": 12026, "Care": 17784, "jackson": 26318, "\u0120\u010a\u0120\u0120\u0120\u0120\u0120\u0120\u0120\u0120\u0120\u0120\u0120": 21024, "\u0120primes": 42740, "tap": 37056, "\u0120barely": 12345, "\u0120Anyone": 26013, "toxins": 28838, "\u0120Window": 30660, "iale": 40367, "\u0120petrol": 46181, "1963": 30488, "olars": 10731, "048": 27244, "False": 5653, "\u0120breakthrough": 29709, "\u0120members": 2758, "Compar": 31968, "opinion": 45157, "\u0120[****,": 23734, "Being": 26143, "\u0120Honorable": 37067, "\u0120monsters": 29652, "Be": 4678, "\u0120convert": 6455, "\u0120Officer": 12743, "\u0120healed": 38596, "rodu": 2466, ".),": 11507, "omology": 26929, "\u0120righteous": 28867, "inear": 48971, "\u0120Rog": 11445, "\u0120shells": 24383, "factory": 20907, "\u0120drummer": 43982, "\u0120stop": 3523, "\u0120colonel": 41513, "\u0120youtube": 49683, "itten": 2937, "\u0120printed": 11462, "\u0120Manning": 33665, "del": 7555, "anova": 45388, "ency": 1371, "\u0120puzz": 21843, "\u0120Minn": 12498, "\u0120shut": 6294, "igation": 5538, "tiny": 24290, "\u0120GCC": 42777, "\u0120exploits": 40725, "\u0120emphasis": 15075, "\u0120god": 7122, "xit": 19706, "\u0120Labs": 40840, "scal": 24606, "\u0120distortions": 46598, "\u0120bat": 10464, "sets": 19598, "\u0120achie": 3143, "leading": 16378, "\u0120realize": 8968, "kas": 39903, "EC": 4625, "rug": 2371, "MAN": 15157, "uated": 11634, "rench": 4099, "FUNCTION": 30306, "------------------------------": 28693, "adition": 30718, "ertation": 40574, "\u0120expectancy": 36082, "\u0120smash": 45905, "attention": 42959, "attribute": 15810, "mathop": 20999, "\u0120desires": 21044, "\u0120horiz": 7627, "and": 395, "\u00c2\u00b7\u00c2\u00b7": 22677, "\u0120solids": 33785, "\u0120eliminates": 35580, "\u0120leukocytes": 42521, "yon": 22267, ").$$": 11127, "\u0120sensation": 22135, "\u0120Version": 11099, "\u0120Treasury": 24209, "\u0120anomalies": 31101, "\u0120sear": 10594, "\u00d8\u00aa": 8181, "grey": 35579, "\u0120international": 5213, "master": 11717, "\u0120Width": 39569, "\u0120\u010a\u0120\u0120\u0120": 8129, "\u0120\".": 22746, "\u0120NG": 41744, "\u0120humiliation": 45244, "gray": 27250, "620": 38447, "skirts": 44747, "poral": 23702, "aton": 13078, "Studio": 39701, "\u0120Parent": 21190, "LE": 1843, "\u0120nov": 22458, "\u00c3\u0143o": 40759, "emo": 43208, "\u0120STE": 45740, "\u0120ignored": 12841, "\u0120dia": 30409, "\u0120exclus": 46853, "\u0120prompts": 49887, "\u0120Brownian": 45123, "\u0120Ju": 19120, "\u0120vegetables": 15737, "ionic": 17135, "\u0120Elizabeth": 12694, "HAVE": 41821, "\u01201000": 9098, "\u0120Polish": 19701, "\u01201900": 24810, "\u0120RSA": 42097, "\u0120Sales": 22344, "\u0120Commissioner": 15605, "\u0120ie": 26332, "\u0120paralle": 29736, "\u0120gastro": 16971, "\u0120La": 3905, "\u0120Getty": 21902, "\u0120Force": 10627, "umat": 21154, "10": 740, "(-": 1490, "\u0120high": 1029, "aintiff": 2481, "\u0120buds": 43141, "1471": 44389, "\u0120controversy": 16305, "\u0120Definition": 23709, "\u0120corre": 2643, "Push": 37331, "\u0120Typical": 40445, "nets": 47301, "\u0120clusters": 9959, "\u0120Evan": 37144, "\u0120coincide": 28588, "\u0120traditionally": 21533, "\u0120/**<": 37944, "aign": 4126, "ixel": 16145, "\u0120iter": 10040, "Little": 25392, "\u0120fixed": 4229, "\u0120cleavage": 21725, "\u0120Theater": 32286, "\u0120complex": 2570, "\u0120CD": 3437, "\u0120illegally": 30060, "olid": 9528, "\u0120Alcohol": 38376, "\u0120skim": 43816, "\u0120operators": 9158, "\u0120endorsement": 32116, "\u0120wand": 18021, "\u0120Cory": 48038, "oret": 7262, "\u0120reform": 8460, "\u0120Sql": 39542, "\u0120NEGLIGENCE": 49505, "\u0120sc": 660, "are": 609, "closed": 13784, "\u0120ladies": 16901, "\u0120coat": 11959, "\u0120occasional": 19322, "\u00c3\u00a9es": 14330, "\u0120analges": 28728, "PRE": 14364, "\u0120commemor": 42628, "\u0120navig": 43564, "SRC": 31694, "Pixel": 36273, "\u0120multiplier": 39199, "\u0120PHP": 14741, "\u00e4\u00bb\u00a3": 29440, "MQ": 41488, "\u0120dogs": 9097, "ENN": 47791, "separated": 49741, "\u0120Russell": 17410, "\u0120Higher": 23230, "andin": 35508, "esota": 14058, "\u0120Elliot": 49867, "\u0120simulations": 9938, "kan": 17369, "\u0120preferentially": 36498, "\u0120infection": 5066, "\"}": 986, "doc": 7152, "697": 29790, "\u0120congenital": 28296, "\u0120fre": 4107, "\u0120ownership": 12851, "\u0120Bios": 21160, "fficients": 9923, "\u0120traced": 26098, "\u0120foremost": 31971, "Cath": 43146, "babel": 46998, "centered": 34872, "\u010a\u0120\u010a": 19668, "cy": 951, "\u0120suitcase": 46872, "\u0120Julie": 31340, "\u0120dividing": 23534, "unde": 41408, "\u0120helium": 38244, "\u0120Renew": 50235, "\u0120Arn": 21155, "\u0120sensations": 41868, "\u0120Athlet": 26327, "\u0120clustering": 17524, "\u0120contributor": 24938, "Psych": 36831, "odon": 49222, "gl": 3129, "\u0120executing": 24364, "\u0120Forum": 24703, "\u00d0\u00b8\u00d1\u0123": 17307, "\u0120logistics": 38238, "\u0120lateral": 11884, "hog": 44855, "\u0120Oregon": 15427, "\u0120Prayer": 45358, "1946": 43970, "ivers": 1564, "\u0120endings": 47834, "\u0120bait": 35352, "\u0120353": 35829, "aker": 4584, "\u010a\u0120\u0120\u0120\u0120\u0120\u0120\u0120\u0120\u0120\u0120\u0120\u0120\u0120\u0120\u0120\u0120\u0120\u0120\u0120\u0120\u0120\u0120\u0120\u0120\u0120\u0120\u0120\u0120\u0120": 18774, "Pat": 9147, "*}": 33029, "\u0120delegates": 30679, "\u0120rulers": 36491, "\u0120hect": 46173, "'.": 5983, "\u0120cha": 11450, "\u00d0\u00be\u00d0\u00bc": 8496, "yman": 22493, "Cycl": 48314, "\u0120quest": 1437, "\u00e3\u0123\u0124\u00e3\u0124\u012d": 27098, "\u0120prevention": 12212, "\u00e3\u0125\u00a5": 41344, "dro": 3002, "atsu": 34055, "\u0120ky": 44996, "\u0120PAL": 47175, "\u0120Neural": 48349, "\u0120trade": 5454, "\u0120Jacques": 36063, "\u0120reversal": 21080, "\u0120radiotherapy": 26773, "agging": 29191, "necessarily": 37967, "\u0120moet": 42397, "\u0120softer": 44108, "earch": 3849, "\u00c3\u00aancia": 22091, "\u0120Aber": 29677, "England": 45353, "\u0120watches": 28654, "\u0120Mom": 13541, "pex": 24293, "\u0120125": 11140, "Encoder": 37854, "\u0120wra": 9342, "eye": 30978, "focus": 16651, "\u0120uns": 5061, "\u0120osteoporosis": 39292, "Donald": 16008, "\u0120intu": 16875, "\u0120supporter": 31409, "451": 30592, "allas": 14250, "\u0120lesson": 16507, "\u0120Err": 9717, "\u0120quote": 14430, "Boston": 39392, "ocyan": 26632, "\u0120conjug": 12993, "\u0120theme": 10014, "\u0120revis": 27694, "\u0120fidelity": 32422, "lections": 9889, "\u0120Photo": 15837, "\u0120Newman": 35403, "\u0120lex": 26752, "\\-": 23671, "394": 27463, "\u0120filled": 6898, "\u0120gladly": 46107, "\u0120Ep": 10643, "]);": 9259, "Vari": 28105, "\u0120Khal": 35667, "\u0120Hills": 21706, "\u0120wrists": 45015, "\u0120boolean": 12419, "\u0120Glen": 30484, "\u0120hyd": 21435, "\u00bc": 122, "\u0120ideological": 31002, "Adam": 33467, "\u0120lib": 5135, "\u0120datetime": 36743, "\u0120collateral": 20506, "\u0120microscopic": 22973, "\u0120Paradise": 40577, "\u0120cauc": 42775, "\u0120symmetry": 10377, "prog": 48052, "\u0120Capt": 9426, "help": 13070, "157": 15882, "\u0120chin": 22239, "\u0120resigned": 25036, "\u0120gour": 49992, "\u0120hierarchy": 19868, "ue": 489, "\u0120Lee": 8652, "\u0120lattice": 10979, "earth": 29500, "\u0120Random": 20221, "asionally": 40650, "\u0120Postal": 46574, "\u0120sense": 3282, "^*(\\": 47942, "haus": 25531, "\u0120Spanish": 9883, "\u00d0\u00bb": 3415, "\u0120army": 8544, "\u0120shoulders": 13574, "\u0120navigate": 24171, "dam": 11747, "\u010a\u010a\u010a\u010a\u010a\u010a\u010a": 35451, "nature": 36791, "\u012064": 6705, "neg": 8265, "vironments": 11986, "\u0120jewel": 22812, "\u0120It": 733, "\u0120maximum": 4869, "\u0120talents": 28621, "\u0120Bone": 34257, "\u0120freely": 15744, "\u0120Kin": 24574, "rike": 24087, "\u0120his": 521, "\u0120operational": 15942, ";&#": 34194, "lint": 41857, "\u0120vacc": 7062, "\u0120Estado": 43188, "\u0120200": 1052, "Serial": 17299, "etically": 17859, "\u0120spectrophot": 40147, "\u0120fruits": 18098, "\u0120cyclists": 42094, "\u0120ville": 43887, "\u0120arrested": 9833, "bund": 45268, "\u0120differentiable": 46350, "elong": 29756, "\u0120mainly": 7194, "\u0120apoptosis": 10596, "opher": 12679, "\u0120stub": 19542, "gas": 22228, "\u0120groom": 32083, "\u0120wastewater": 41021, "\u0120unsatisfactory": 49770, "\u0120154": 21603, "\u0120supplements": 26434, "etts": 12513, "\u0120unexpl": 35021, "\u0120trim": 13970, "opic": 6361, "Func": 19774, "estinal": 11278, "solid": 23706, "Cut": 28512, "\u0120Anyway": 28814, "icia": 29583, "\u0120NYC": 32880, "\u0120privat": 35641, "Testing": 38571, "carb": 41293, "\u0120depl": 48593, "literal": 34943, "raiser": 40902, "CDATA": 45312, "\u0120RPG": 38068, "proc": 21299, "\u0120crash": 13035, "iox": 9399, "orts": 8707, "\u0120charset": 29308, "Unless": 28645, "\u0120p\u00c3\u00a5": 9636, "ifa": 38139, "\u0120appended": 42873, "\u0120WILL": 22268, "Tel": 43017, "\u0120leadership": 9550, "\u0120\u00c3\u0142": 4057, "49": 2537, "lang": 8700, "om": 297, "\u0120od": 7687, "\u0120Eu": 41921, "\u0120equivalents": 42826, "\u0120drunken": 37863, "Kilos": 48622, "\u0120Collection": 17078, "\u0120neopl": 34177, "these": 20513, "\u010a\u0120\u0120\u0120\u0120\u0120\u0120\u0120\u0120\u0120": 2463, "aste": 4740, "ideo": 2842, "akis": 30441, "decoration": 43101, "\u0120Dead": 16631, "two": 9389, "\u0120formul": 17075, "\u0120pull": 3785, "\u0120carried": 4824, "\u0120suppose": 9428, "\u0120upstream": 17934, "\u0120motive": 23778, "\u0120jur": 5099, "Vo": 28201, "\u0120Link": 13829, "\u0120riders": 26825, "ATIONS": 32663, "\u0120obligated": 37782, "\u00e0\u00b8\u00b4": 39251, "timely": 38764, "\u0120Paula": 42006, "\u0120privacy": 11068, "\u0120Cricket": 42579, "radiol": 36257, "\u0120assail": 49198, "obt": 49845, "\u0120across": 2439, "\u0120docket": 47145, "\u0120MPs": 26058, "\u0120Or": 2207, "Context": 5856, "\u0120126": 17574, "\u0120Regional": 19804, "`)": 27362, "uar": 37502, "His": 8389, "\u0120BC": 12895, "Director": 29150, "\u00e7\u00b7": 38675, "\u0120Theory": 15977, "\u0120bans": 44464, "\u0120spectroscopy": 19638, "\u0120unbounded": 45515, "\u0120percussion": 49298, "\u0120Sag": 43509, "\u0120August": 4223, "instead": 34235, "\u0120Bench": 41576, "\u0120reversible": 24048, "MAG": 46492, "sec": 1704, "\u0120explore": 8338, "Sound": 31189, "Ord": 45435, "\u0120desk": 8597, "COUNT": 28784, "\u0120Potential": 38473, "ermann": 39968, "091": 44238, "\u0120mak": 47657, "liga": 30137, "\u00d0\u00b0\u00d1\u0123\u00d1\u0124": 29685, "frame": 6301, "\u0120palms": 38101, "\u0120characterize": 17710, "\u0120spinning": 24428, "\u0120eV": 26748, "\u0120withheld": 40492, "Country": 32351, "lining": 30927, "\u0120Religious": 41079, "\u0120applicants": 26828, "\u0120rook": 25405, "\u0120\u00d8\u00b1": 39410, "\u0120suppresses": 41033, "ampa": 24079, "\u0120S": 322, "Lou": 24525, "\u0120Pharm": 18033, "\u0120reve": 3195, "ideos": 31686, "\u0120actuator": 33774, "Delay": 41026, "\u0120requires": 4419, "ION": 2449, "umbs": 28134, "levard": 33446, "\u0120doi": 28076, "\u0120lifeless": 49825, "\u0120asylum": 23717, "\u0120Richardson": 28345, "\u0120machinery": 20949, "Within": 26190, "ochemical": 10888, "\u0120window": 3497, "\u0120borders": 18275, "\u0120CM": 12280, ".&": 40551, "\u0120novel": 4460, "issors": 43842, "\u0120loves": 14528, "\u0120percentages": 26026, "\u0120lodged": 45678, "\u0120Hut": 46799, "\u0120/><": 19884, "\u0120https": 5987, "\u0120colors": 9830, "isen": 11889,
[...]
