{"\u2581options": 2877, "\u2581stad": 13410, "\u3084": 30696, "MF": 24721, "dai": 26862, "\u2581puzzle": 28071, "\u2581desert": 13453, "\u2581modest": 23676, "\u2581psychology": 23782, "\u2581momento": 19131, "\u2581talking": 4434, "\u2581threats": 19843, "\u2581only": 865, "Tests": 17136, "\u2581chrom": 24448, "\u2581contributing": 25885, "Hint": 18175, "\u2581Find": 8769, "\u2581Var": 12760, "\u2581els\u0151": 28248, "\u2581transm": 27179, "\u2581believing": 23935, "Chat": 18165, "States": 25096, "rais": 26305, "KEN": 21802, "\u62e5": 31855, "\u2581Rain": 17774, "\u092f": 29896, "++;": 5732, "\u2581dici": 23241, "\u2581loads": 22560, "frak": 7917, "\u2581temporarily": 25359, "\u2581cris": 8578, "\u2581Adv": 10822, "ome": 525, "FAULT": 6864, "I": 28737, "\u2581%.": 23301, "}}{\\": 12887, "\u2581fal": 15780, "\u2581scientists": 15067, "\u2581accordance": 20147, "[\\": 7535, "\u2581\u0428": 6606, "Preview": 22398, "\u2581words": 3085, "tooltip": 23866, "\u5f8c": 30134, "\u0ca8": 31066, "\u2581computed": 16860, "<0xB7>": 186, "\u2581Mock": 16093, "\u2581\u043e\u0441\u043d\u043e\u0432": 16810, "Collections": 10211, "\u2581cub": 13563, "\u578b": 29173, "\u0578": 29837, "\u2581glass": 5252, "\u2581escort": 25514, "syn": 25690, "\u2581highest": 7881, "\u2581modes": 14855, "\u0117": 29325, "Exper": 26011, "refer": 16769, "\u2581Post": 5112, "CLO": 22132, "\u00b5": 29514, "\u2581stri": 4216, "\uac19": 30836, "IEW": 19212, "\u5403": 31182, "{})": 21914, "Spe": 24812, "usher": 9905, "\u010dn\u00ed": 26166, "REG": 5216, "\u2581Contact": 12603, "\u8d4b": 30823, "\u2581MD": 15834, "\u1789": 31901, "SW": 9854, "sync": 8959, "Mapper": 15760, "\u2581management": 5411, "\u2581pol": 1160, "iente": 8783, "ii": 2773, "\u2581wur": 2826, "\u2581hex": 19703, "\u2581ties": 20748, "\u2581\u043d": 24595, "ateur": 10229, "BG": 25015, "\u2581steel": 9445, "\u2581popular": 4387, "\u2581befindet": 26454, "Origin": 15443, "\u2581questioning": 27203, "\u2581Peak": 27416, "\u0442\u0435\u043b\u0438": 17526, "\u7d71": 31607, "\u987b": 30037, "Inputs": 28681, "\u2581Controller": 25677, "again": 27159, "hre": 27056, "\ub420": 31705, "\u2581modern": 4638, "\u2581threads": 17807, "\u2581tor": 5063, "\u2581warehouse": 27954, "urch": 1826, "\u2581exclus": 16574, "\u2581'-": 16763, "\u2581quite": 3448, "Boolean": 9925, "n\u00e1": 20946, "\u2581reviewed": 23282, "\u2581trim": 13893, "\u043e\u043b\u043e\u0433\u0438": 27100, "\u5efa": 29193, "\u2581code": 2696, "\u2581dove": 15622, "\u2581hat": 4613, "\u2581supporters": 18909, "TRA": 22057, "\u2581Gener": 2766, "<0x4D>": 80, "\u2581assembly": 15077, "bros": 25851, "LE": 1180, ".<": 26364, "izza": 13983, "\u2581Ko": 14020, "\u2581traditional": 7062, "\u2581Eval": 24223, "}\\\\": 13085, "\u2581sake": 14408, "\u0433\u0456": 10217, "\u0436\u0443": 14477, "\u043e\u0440": 3135, "\u7684": 28914, "com": 675, "$),": 27517, "\u2581\u043f\u0440\u043e\u0438\u0437": 15393, "found": 9016, "\u2581semi": 12574, "\u2581ing": 4155, "\u017b": 29060, "\u2581redu": 3230, "\uc911": 30027, "olate": 19807, "cover": 3649, "\u2581hur": 7033, "\u5207": 29961, "\u2581prim": 2413, "Top": 6228, "\u2581vacation": 16829, "\u2581insights": 20715, "\u94f6": 30661, "\u2581bere": 14325, "\u2581Writing": 19920, "\u8207": 31138, "\u2581politicians": 18594, "\u2581cow": 12072, "\u7d93": 31139, "\u0441\u043b\u0438": 16799, "LIB": 26604, "\u2581menu": 8514, "Drag": 18383, "\u2581Cons": 5504, "\u2581tail": 8675, "\u2581Duke": 15619, "\u2581Used": 17477, "\u2581hor": 3292, "real": 6487, "}_{\\": 6198, "him": 24669, "\u2581cracked": 24734, "hest": 6426, "\u2581neglect": 26902, "^{+": 24206, "\u2581convenience": 20185, "Resize": 27714, "\u2581contrary": 19909, "\u2581obj": 4584, "\u6027": 29261, "\u65e2": 31643, "Fin": 11491, "\u2581sop": 16766, "evin": 12278, "move": 7125, "\u885b": 31899, "\u00e1tica": 26410, "\u2581tit": 5114, "\u2581STR": 17235, "]{\\": 23854, "\u0440\u0438\u0441\u0442\u0438": 23406, "\u2581&=&": 17481, "\u2581does": 1235, "\u0442\u044c\u0441\u044f": 6877, "\u2581Console": 19518, "\u2581purs": 7900, "\u2581fell": 5970, "+\\_\\": 25471, "way": 1128, "\u2581dar": 8448, "\u2581shooting": 11743, "\u2581Netflix": 25606, "\u2581Gas": 17439, "email": 6604, "\u2581movies": 10615, "nement": 14482, "\u6cb3": 30143, "\u2581ugly": 19279, "\u2581Suz": 25432, "decor": 21042, "\u2581spe": 1886, "istributed": 25625, "\u2581shopping": 11157, "\u2581aj": 23371, "<0x37>": 58, "\u2581calculations": 19051, "\u2581bullshit": 20210, "\u2581aest": 20429, "\u2581Parent": 18712, "\u9644": 30560, "\u2581Result": 6760, "\u2581angle": 10417, "\u2581largest": 7639, ">?": 23911, "ku": 3907, "itect": 5588, ".\u201d": 2435, "urd": 12725, "\u2581governor": 17116, "+": 28806, "REQUEST": 16396, "\u2581Oz": 28321, "\u2581Above": 28301, "\u8bad": 31154, "\u2581OP": 8997, "\u2581subjects": 14575, "\u2581rapp": 21779, "\u2581radio": 6480, "\u2581\u043f\u0440\u043e\u0442\u0438": 25373, "USH": 23896, "\u05d9": 29005, "iso": 12419, "\u2581disabled": 11426, "\u2581crim": 8404, "\u1fe6": 30622, "$;": 24912, "CONNE": 20064, "sts": 21514, "\u2581BT": 23126, "VAL": 3668, "Context": 2083, "\u2581discrim": 14256, "\u2581officially": 16783, "\u2581'$": 22373, "opath": 23461, "\u2581They": 1306, "\u2581turns": 8617, "\u2581analysis": 5643, "\u2581FBI": 18622, "][<": 20411, "\u2581beskrevs": 12755, "\u2581adapter": 19865, "Ro": 23909, "<0xD7>": 218, "<0x83>": 134, "\u2581necessarily": 11867, "\u2581among": 3352, "walt": 21459, "\u2581acquis": 17369, "\u2581\u043f\u0430\u0440\u0430": 28370, "\u0446\u0456\u044f": 17263, "\");\r": 6913, "printk": 18548, "stderr": 17270, "\u2581potatoes": 24753, "\u2581Eva": 27258, "\u2581Nat": 9736, "\u2581jag": 15584, "me": 1127, "\u2581simple": 3588, "\u2581\u044e": 11531, "\u2581outfit": 24842, "\u2581inaug": 17946, "\u2581GEN": 25778, "\u2660": 30736, "Quick": 24463, "\u2581Alliance": 20966, "encia": 5983, "ban": 3627, "Library": 17183, "\u2581scar": 13356, "iores": 22530, "Policy": 7755, "\u2581Bear": 21425, "WID": 19335, "\";": 1599, "\u2581ensuring": 20083, "Than": 23721, "\u963b": 31542, "FORM": 9357, "angu": 2374, "\u2581fund": 3360, "ASSERT": 10232, "ford": 4401, "\u2581asp": 15577, "\uc62c": 31519, "\u2581abuse": 12476, "\u2581Farm": 15420, "\u2581labeled": 25430, "ke": 405, "\u2581andere": 17258, "\u2581ling": 17826, "copyright": 28608, "ove": 751, "\u2581plate": 9703, "\u2581Queen": 10224, "\u2581M\u00e9": 16786, "hi": 5365, "\u2581\u0420\u0430": 7543, "\u2581Join": 18465, "owed": 10552, "\u2581Decl": 19066, "\u2581pointed": 8563, "alom": 25759, "\u2581subst": 11381, "\u2581mars": 13247, "\u2581beating": 18801, "\u2581Bur": 6815, "\u9ec4": 30658, "\u2581Annie": 21780, "PER": 6512, "\u2581stride": 23623, "UG": 12894, "adas": 5959, "\u2581Is": 1691, "dynamic": 18691, "\u2581containers": 25399, "\u2581Pass": 8201, "\u2581nerve": 23284, "&#": 27440, "\ud83d\udc95": 31551, "\u2581Russian": 8098, "fen": 16926, "^-": 18092, "\u2581\u0441\u043f\u0435": 16201, "\u2581yelled": 22884, "\u2581dining": 14129, "\ud83d\udd34": 31928, "\u2581costs": 6966, "\u2581temporary": 13415, "\u2581Puerto": 22549, "\u2581identifier": 16375, "\u2581bor": 24863, "\u2581cav": 25553, "ogether": 11553, "no\u015bci": 20951, "faced": 28678, "\u2581shop": 5126, "\u2002": 31184, "ego": 6221, "\u2581Volume": 21219, "\u0433\u043e\u0432": 25873, "\u2581stress": 6727, "Question": 24994, "Step": 9977, "\u2581gaming": 17767, "\u2581Available": 18260, "erei": 26158, "\u2581${": 6051, "\u2581neg": 3444, "\u2581scope": 8593, "\u2581nature": 4735, "tri": 13862, "\u2581Freud": 24729, "\u2581ob": 818, "\u2581sixty": 20739, "\u2581Cle": 12132, "cel": 4070, "\u2581lists": 13751, "flag": 7914, "screen": 8555, "\u2581Standard": 12623, "int": 501, "}\",": 13394, "){\\": 11544, "\u51fb": 29698, "\u2581dans": 2422, "\u2581argument": 5270, "\u2581wisdom": 16679, "\u2581rs": 19292, "\u0bc8": 30576, "ital": 1803, "\u0444\u043e\u0440\u043c\u0430": 22131, "\u2581Stay": 20066, "moz": 24601, "itute": 5817, "typen": 25835, "\u5916": 29638, "ible": 1070, "cell": 4860, "usa": 15477, "pgfqpoint": 10765, "UnityEngine": 24658, "Boot": 21270, "elf": 599, "\u2581corner": 6581, "\u2581justify": 16205, "oton": 20993, "threads": 26202, "otherapy": 27843, "\u2581visa": 28307, "ratio": 22287, "\u2581height": 5110, "rides": 20009, "\u2581identified": 10248, "\u6bcf": 29513, "fre": 19575, ":\\": 9941, "\u2581font": 6205, "\u00f3n": 3203, "\u2581Guide": 14555, "\u2581printer": 25546, "\u2581GPU": 28475, "\u042b": 30584, "\u2581UEFA": 26837, "\u2581fig": 2994, "\u2581Gall": 14225, "\u2581unsigned": 5479, "\u2581aliment": 27863, "\u602a": 31042, "\u2581Mull": 27647, "\u2581recru": 17372, "\u2581Bag": 17699, "\u2581rib": 13147, "\u2581stub": 14601, "\u2581\u043e": 853, "\u2581Jan": 2997, "\u2581('": 8272, "\u2581zip": 17955, "gender": 24024, "\u2581Portland": 23732, "\u30e7": 29964, "\u2581Add": 3301, "\u2581Tel": 18358, "\u179a": 29995, "\u2581airport": 14400, "WN": 7866, "\u8d5e": 31829, "\u2581warriors": 26510, "\u00edcul": 12639, "\u4e4c": 31854, "ICAL": 21497, "\u2581Wes": 19860, "DTO": 17549, "\u2581girls": 6093, "ateurs": 19371, "etics": 24142, "\u2581donde": 12943, "\u2581dru": 4415, "\u2581Pract": 15961, "\u2581\u0441\u0442\u0430\u043d\u043e\u0432": 16141, "\u2581obtaining": 21402, "unst": 12134, "aimed": 26495, "\u2581cm": 8372, "\u0434\u0438\u043d": 10173, "\u6d0b": 31434, "delta": 3973, "buffer": 4260, "commerce": 24008, "enu": 4265, "<0x8D>": 144, "\u2581reform": 9861, "\u2581periodo": 26959, "\u2581Licensed": 10515, "\u2581ones": 4413, "\u2581crown": 22718, "\u2581Lat": 7402, "Equ": 2702, "Uri": 13530, "iling": 5708, "\u8d64": 31398, "\u79cd": 29824, "\u2581intend": 22722, "\u2581ga": 17041, ".}": 8089, "\u2581account": 2708, "\u2581trial": 9070, "\ubaa9": 30222, "SP": 3701, "\u2581andra": 26622, "\u2581personality": 13355, "\u0442\u043e\u043d": 21347, "AE": 12600, "\u2581affiliate": 24933, "\u2581lines": 4715, "aze": 7273, "\u2581ease": 12801, "\u2581contributors": 26091, "atrice": 23097, "PK": 15234, "\u2581update": 4009, "\u2581realizing": 27494, "tpl": 21279, "\u05b8": 29997, "\u6c7a": 31515, "\u2581public": 798, "court": 28129, "\u2581implies": 12150, "IL": 2234, "\u2581NULL": 1952, "Sal": 18461, "indi": 24097, "\u30a2": 29322, "\u2581cuts": 15981, "\u2581bitter": 16493, "Events": 11208, "\u2581dictionary": 19443, "<0xD8>": 219, "\u09ad": 31819, "\u2581Lyn": 15975, "otion": 5318, "\u2581seit": 13959, "Stud": 18262, "-.": 15376, "\u5f69": 30902, "\u2581\u0441": 698, "\u2581tro": 4056, "\u2581Mary": 5480, "sup": 10809, "\u0442\u0435\u043b\u044f": 17371, "\u2581DO": 9317, "\u2581literary": 16956, "\u2581them": 706, "oise": 21985, "\u2581Abu": 24712, "\u2581Forum": 23525, "\u1ef9": 31458, "STRU": 19199, "NOT": 7536, "\u2581Along": 20211, "\u8868": 29024, "\u2581maar": 19101, "\u2581Hot": 6895, "\u2581SOFTWARE": 14891, "\u2581McG": 18407, "\u2581Balt": 17111, "\u0131": 28953, "ached": 2694, "ctions": 1308, "onto": 10533, "\u2581brought": 4248, "\u2581creativity": 22317, "a\u0142o": 27189, "\u8f6c": 29357, "\u2581lif": 5678, "ANT": 12738, "loading": 16792, "\u2581pictures": 8310, "\u2581Update": 8980, "\u2581wallet": 12837, "\u6295": 30189, "Options": 4018, "icken": 9373, "\u2581byl": 15722, "Iss": 21525, "\u2581junio": 25942, "\u2581eng": 2536, "bre": 2152, "\u2581ser": 1201, "\u2581Sm": 3539, "\u2581girl": 2746, "\u2581Cole": 15128, "\u2581agreement": 8704, "bullet": 18129, "nej": 10719, "\u2581Package": 25949, "\u2581Model": 8871, "\u2581\u0435\u0451": 19487, "\u2581whe": 2277, "\u2581triple": 22212, "\u2581AUT": 18453, "\u2581Greece": 20438, "<0x13>": 22, "\u2581asshole": 25676, "nice": 22515, "\u2581convergence": 23662, "Billboard": 26889, "**)": 12885, "\u2581CNN": 26656, "\u2581apply": 5580, "\u2301": 30413, "\u2581procedures": 15251, "\u0646": 28955, "matches": 17990, "\u2581sets": 6491, "\u2581little": 1628, "bp": 12005, "\u2581abandoned": 14818, "An": 2820, "products": 20042, "\u2581Denmark": 26486, "one": 538, "\u2581vet": 22116, "election": 9082, "\u5bfa": 30799, "intern": 14705, "\u2581operators": 12765, "\u2581Dru": 17799, "hent": 5577, "\u2581Disc": 23294, "\u2581\u0432\u0438\u043a\u043e": 20572, "Threading": 24631, "poly": 20788, "\u2581meth": 24992, "wahl": 26944, "ess": 409, "Bi": 27405, "\u043b\u043e\u0432\u0435": 13587, "\u2581poured": 20508, "\u2581clinical": 15193, "Marshal": 24374, "\u2581Bring": 24786, "\u2581ens": 3956, "\u2581final": 1480, "Account": 7820, "\u2581ol": 10370, "\u2581season": 3302, "\u2581stru": 4500, "\u2581Nash": 20888, "won": 17959, "\u2581Naj": 26293, "\u53f2": 30214, "\u2581movements": 15071, "\u2581extern": 7784, "rolog": 22068, "EA": 18772, "\u2581Chi": 17792, "dy": 4689, "sensor": 15017, "Accept": 17589, "fon": 27544, "\u6a94": 30652, "Managed": 26215, "\u2581documentary": 22054, "future": 22589, "udge": 24763, "\u2581kilometres": 26005, "\u2581Id": 6318, "\u2581Fig": 4826, "nn": 9472, "\u2581poster": 12712, "}$)": 28511, "\u2581brand": 5804, "\u2581strugg": 6040, "Car": 11799, "arse": 8143, "\u2581cleanup": 22005, "oke": 2656, "\u2581spr": 7378, "autres": 21240, "\u0455": 30273, "\u01e7": 31682, "\u2581worry": 7980, "\u2581anybody": 15159, "exports": 10126, "\u2581reaches": 18710, "\u2581Ltd": 14374, "\u2581current": 1868, "\u2581avoid": 4461, "\u0448\u0438\u0445": 15994, "ided": 1932, "\u8cc7": 30232, "osten": 17074, "\u00f3w": 3872, "lets": 7835, "ieden": 20664, "()->": 4330, "\u8fd9": 29176, "\u2581Ak": 9532, "vere": 10888, "\u2581outbreak": 26030, "\u2581remem": 26450, "\u2581entrance": 12675, "Comparison": 27869, "\u6a4b": 31730, "uk": 2950, "\u2581boys": 8066, "bbra": 25866, "\u2581Band": 10521, "\u2581ye": 14764, "\u00f6d": 14697, "Mart": 21787, "\u2581permit": 12748, "\u2581blacks": 28101, "\u2581although": 5432, "\u2581preserved": 23910, "rtc": 17485, "\u2581strongest": 27686, "\u0c4d": 30865, "fp": 8808, "lauf": 27997, "Company": 24673, "\u2581Sull": 25519, "\u2581video": 3798, "De": 3337, "Oh": 6155, "blem": 11706, "\u2581Dol": 15052, "\u2581Harrison": 23323, "\u2581tooth": 17961, "anos": 19813, "\u2581torn": 9390, "\u0441\u0442\u043e\u0432": 27321, "}>": 8699, "ier": 749, "\u2581\u0432\u044b\u0441\u043e": 24471, "\u2581waves": 13295, "\u043d\u0438\u0446\u0438": 16370, "alis": 11556, "le": 291, "\u2581Technical": 25930, "Log": 2763, "\u2581prevent": 5297, "\u2581Cort": 22949, "cip": 22169, "\u0653": 31994, "\u2581saved": 8686, "\u2581d\u00e9velopp": 26601, "\u2581comp": 623, "ampionship": 6893, "\u2581zusammen": 20467, "\u2581contest": 13968, "\u2581jer": 22752, "\u2581able": 2358, "done": 10381, "\u2581Label": 15437, "\u2581praise": 20707, "\u2581pension": 26395, "ala": 4575, "\u2581act": 960, "\u2581secretary": 16916, "\u043b\u043e": 1120, "ulated": 6432, "\u2581dup": 22669, "\u2581passenger": 18990, "\u2581energy": 3408, "\u00c9tat": 25384, "inese": 5965, "bold": 12161, "\u2581Lau": 28128, "\u2581BR": 19721, "\u2581foi": 7644, "\u2581anticipated": 25024, "\u2581interrog": 28197, "FIX": 13286, "\u04c0": 31731, "idental": 27124, "gren": 27526, "\u5ea6": 29184, "\u00e8de": 24272, "ocks": 7712, "\u2581poker": 25346, "jk": 24397, "\u2581introduce": 13097, "\u2581tropical": 21257, "\u2581Swedish": 22677, "\u2581fair": 4968, "\u2581cuatro": 27429, "\u2581letters": 9181, "igan": 9264, "\u2581trained": 10898, "usions": 12378, "\u2581mysql": 24976, "\u2581Mannschaft": 26241, "\u2581Secret": 9233, "\u2581shru": 13922, "raz": 5237, "\u0308": 30814, "\u2581infinite": 16538, "create": 2578, "\u0641": 29057, "\u2581lambda": 24398, "\u2581suspicious": 25175, "plications": 12909, "\u2581skilled": 20799, "directory": 17509, "\u2581protests": 24740, "\u2581}).": 24371, "\u2581defines": 18791, "\u8907": 31119, "\u0441\u043a\u0438\u043c": 17810, "istas": 13501, "\uc2e0": 30126, "ski": 5253, "\u2581doorway": 20702, "las": 11215, "\u2581\u0438\u044e\u043d\u044f": 26825, "\u2581Display": 20121, "prepare": 16180, "\u2581\u043f\u0430\u0440": 11894, "\u0e09": 31338, "\u2581Would": 11312, "\u623f": 30376, "\u2581scent": 21535, "\u2581grain": 18663, "\uad8c": 31579, "\u2581Lond": 17681, "\u2581Indep": 13487, "bn": 13591, "\u0432\u0435\u043d": 16227, "\u2581Zel": 28614, "\u6b7b": 30435, "\u043b\u043e\u043c": 14253, "\u7b26": 29252, "REL": 27089, "\u2581travelling": 25007, "\u2581shoe": 24023, "inde": 8355, "\u0440\u0430\u044f": 26487, "\u2581resident": 11468, "BOX": 27536, "\u2581nodded": 7313, "\u00fcr": 2355, "quant": 13896, "PO": 3402, "\u2581AC": 11949, "size": 1428, "\u2581fu": 6649, "\u2581homeless": 22354, "\u2581Meter": 26673, "\u2581ID": 4519, "emos": 24852, "\u2581Alexander": 11055, "\u2581yet": 2783, "\u00edv": 21022, "\u2581shit": 5492, "|^": 16404, "\u2581Hier": 20722, "\u2581observed": 7975, "\u2581sched": 22245, "\u2581decorated": 24616, "\u2581limitation": 26775, "\u59d3": 30747, "\u2581Element": 11490, "rol": 1438, "\u7f16": 29402, "Results": 12220, "\u5dee": 30397, "\u2581Christians": 17209, "\u2581\u0445\u0443\u0434\u043e\u0436": 27095, "\u2581Conf": 10007, "CAN": 25798, "\u2581lat": 4039, "iger": 4886, "\u2581dollar": 16996, "nek": 11593, "ades": 2550, "Port": 6411, "\u2581son": 1966, "State": 2028, "vision": 9824, "\uc6d0": 29816, "Friend": 22412, "\u2581Const": 7791, "\u2581post": 1704, "\u2581renew": 13293, "\u2581trusted": 16437, "\u2581Sau": 23707, "SYSTEM": 27842, "\u2581coach": 7786, "\u2581dropping": 19183, "\u2581(\u2020": 19143, "eqnarray": 5743, "\u2581pa": 5881, "\u2581process": 1759, "\u2581temporada": 20030, "iba": 26365, "Min": 5805, "inals": 15658, "\u2581tub": 11988, "hidden": 9748, "endent": 11255, "\u2581restaurant": 9926, "\u2581_{": 9518, "Null": 4238, "ajo": 10125, "\u2581evaluate": 15627, "ght": 1026, "\u2581\u043e\u0442": 2433, "\u2581salv": 18292, "aky": 20996, "<0x48>": 75, "\u043e\u0433\u0440\u0430\u0444\u0438\u044f": 18168, "\u2581elect": 3206, "\u0437\u0443\u043b\u044c\u0442\u0430": 17674, "first": 4478, "ulle": 17040, "velt": 16920, "\u6539": 29220, "Bitmap": 20623, "WR": 7210, "\u2581awake": 20875, "\u03cc": 29212, "\u2581ft": 12608, "body": 2680, "\u0622": 29748, "\u2581Cut": 18514, "\u2581numero": 25899, "Tur": 28348, "ionen": 23613, "\u2581edition": 12065, "\u2581\u0445\u0430": 19539, "++++": 17501, "\u7ec4": 29205, "\u2581strategies": 12108, "\u2581kole": 21840, "ismiss": 28177, "\u2581Mike": 9360, "tle": 12834, "\u70b9": 29085, "\u00f6ff": 14505, "collection": 15432, "\u2581Pictures": 26887, "\u2581breat": 13105, "\u2581Aleks": 27877, "\u2581grid": 10541, "it\u00e9s": 13782, "kins": 8298, "stra\u00dfe": 20134, "UT": 1765, "\u2581Git": 27903, "\u2581November": 4349, "uated": 25473, "\u4e50": 30488, "\u0441\u0442\u0430": 1621, "\u2581absorbed": 26996, "\u2581manufacturer": 17746, "faces": 9288, "\uc838": 30942, "HOUT": 7912, "\u2581TL": 24783, "\u2581\u043a\u0438": 12902, "\u2581corre": 7952, "\u2581devices": 8309, "\u2581Cross": 10464, "ipe": 3985, "rl": 3200, "\u2581grow": 2333, "\u2581wounded": 17084, "hl": 7529, "\u2581advertising": 12896, "\u2581lessons": 14785, "\u2581Term": 10764, "asing": 3706, "\u2581environment": 4466, "Tok": 14563, "\uae30": 29164, "VID": 6800, "\u2581gele": 22933, "<0xA7>": 170, "_": 28730, "\u2581\u2020": 12175, "\u2581co": 1001, "\u2581weakness": 18288, "et": 299, "\u2581layout": 9866, "\u2581Leop": 26872, "\u2581Steven": 20257, "arna": 10903, "\u2581Kind": 13848, "grav": 25849, "\u2581mud": 13459, "\u2581Comp": 3880, "\u028c": 31313, "\u7d0d": 31824, "\u1e93": 31905, "NEL": 19014, "\u2581launch": 8817, "\u2581')": 27890, "ober": 2510, "proxy": 13764, "\u5e2e": 31186, "\u9910": 31243, "\u2581vid": 10954, "\u2581Icon": 26269, "\u91d1": 29452, "\u2581\u2198": 25506, "unlock": 8161, "Scroll": 9889, "\\]": 25188, "dule": 5898, "\u2581times": 2421, "\u2581Chuck": 27599, "\u2581verw": 14125, "\u2581esc": 3431, "\u2581truth": 5307, "\u2581Woman": 20010, "\u2581exerc": 6535, "\u2581Bast": 27241, "\u2581klass": 27898, "\u2581Mail": 19227, "\u0f62": 31185, "TA": 6106, "\u2581From": 3672, "\ud45c": 30191, "\u2581driv": 4980, "Be": 3574, "\u2581go": 576, "isp": 10391, "\u2581via": 4213, "Health": 18470, "\u2581terminal": 17598, "\u2581MB": 18609, "\u2581WE": 21026, "\u2581troubles": 21477, "\u2581Earth": 8599, "riage": 6161, "\u2581Current": 10929, "\u2581matching": 11623, "\u811a": 30646, "\u2581environments": 20031, "\u2581European": 6392, "\u2581publications": 23311, "\u0433\u0430\u0440": 17260, "PREFIX": 21321, "\u2581consume": 23327, "arante": 7203, "othy": 18478, "\u2581\u0447\u0430\u0441": 21358, "du": 670, "osoph": 7008, "course": 11987, "\u2581climbed": 17070, "poser": 25155, "\u2581Hills": 19069, "\u300c": 29579, "\u2581disp": 15285, "plan": 11009, "\u2581\u0430\u0432\u0442\u043e": 14460, "\u2581distress": 25669, "\u2581panel": 8357, "<0x59>": 92, "cup": 6663, "\u2581staat": 24617, "\u2581cat": 5255, "\u2581Race": 20056, "seed": 17498, "Plus": 22886, "\u2581hunt": 20021, "\u2581Theme": 22888, "\u2581mejor": 23209, "\u2581Header": 24286, "una": 5892, "\u7b2c": 29353, "else": 2013, "\u2581Perfect": 24443, "\u0432\u0435\u0442\u0430": 17835, "Hal": 26924, "\u2581hosting": 19117, "\u2581cho": 2183, "just": 4022, "Choice": 28456, "\u2581SU": 13319, "obile": 4414, "\u0432\u0435\u0440\u043e": 27489, "\u2581confront": 12773, "<0x7B>": 126, "\u2581equ": 1734, "rho": 4132, "\u043a\u0442\u0438": 11856, "\u057e": 30907, "ore": 431, "\u52bf": 31728, "\u2581Es": 6177, "\u2581Biden": 21377, "gro": 25344, "\u2581gang": 13071, "ITE": 6142, "\u00f7": 29582, "auto": 6415, "\"\"": 2539, "\u2581n\u00e3o": 11622, "\u2581Kot": 27209, "olo": 5053, "\u2581told": 2240, "\u2581payload": 13988, "\u2581let": 1346, "\u0964": 31151, "\u2581AV": 13190, "yar": 17073, "tra": 1947, "\u2581shown": 4894, "\u2581Anti": 23331, "\u2581Dar": 8220, "\u5bfe": 30881, "<0xF9>": 252, "\u2581audience": 7938, "\u2581shipping": 13369, "\u2581Practice": 25508, "listen": 20246, "Rich": 24447, "\u2581Cent": 2906, "achine": 3675, "\u2581Nicholas": 22676, "\u2581": 28705, "\u2581voce": 27802, "\u2581accent": 19440, "\u2581SSL": 20669, "\u2581corrections": 27956, "\u2581rode": 17265, "\u2581profitable": 27822, "\u2581safe": 5023, "\u2581Rio": 15707, "filename": 9639, "folder": 18676, "\u2581announcement": 20990, "\u266f": 30905, "gar": 4749, "<0x30>": 51, "Hide": 23309, "WAIT": 23808, "\u2581lately": 22628, "\u2581Barcel": 15371, "\u2581attract": 6842, "\u2581forma": 10997, "romise": 6187, "\u0f60": 31989, "\u2581conver": 9105, "\u2581per\u00f2": 19005, "isc": 8286, "\u2581voegen": 15652, "\u6751": 30071, "interval": 15344, "\u4e94": 30108, "\u2581mort": 5461, "\u2581unlock": 15430, "Sch": 9979, "\u5f39": 30409, "\u2581\u0430\u043b\u044c": 20462, "uw": 12841, "hentication": 9767, "<0x40>": 67, "\u2581flowers": 11888, "Emp": 25225, "\u2581Beijing": 27112, "\u5fc5": 29593, "\u2581Mount": 7612, "\u2581Dort": 27238, "\u540e": 29120, "Pse": 28391, "\u2581Century": 22649, "\u2581episode": 9560, "\u2581exception": 5851, "\u7b49": 29414, "\u2581ciudad": 14879, "brief": 17281, "\u2581Mama": 25579, "\u2581Phase": 26306, "await": 13513, "\b": 31129, "\u2581emotionally": 26358, "vid": 14410, "\u7d42": 30899, "\u2581comport": 27492, "\u2581Veg": 15408, "\u2581Kill": 25262, "\u2581silently": 24435, "beit": 10943, "\u2581Argentina": 16540, "gp": 8399, "Rank": 24347, "\u7531": 29590, "anon": 20931, "GroupName": 16477, "\u1e37": 31774, "\u2581suicide": 16240, "omo": 14016, "\u0995": 29982, "\u2581dt": 16599, "Root": 7983, "\u2581cle": 1544, "\u2581scared": 14541, "\u2581allocate": 21637, "\u0394": 29475, "\u0444\u0456": 11206, "\u043a\u0440\u0438": 17072, "itched": 14209, "\u2581\\": 414, "\u9006": 31770, "\u2581RAM": 27850, "\u2581Egy": 9074, "\u5f15": 29544, "\u2581\u0440\u0430\u0441\u043f\u043e": 21168, "\u2581pl": 549, "{}{": 23265, "uber": 17739, "\u2581boats": 19706, "\u2581career": 4835, "\u2581Television": 22730, "fur": 26711, "\u2581{\\": 2532, "\u2581Jerusalem": 20092, "\u0442\u0456": 8240, "\u2581Deep": 14972, "\u2581stops": 15892, "\u17a2": 31379, "akes": 1593, "eres": 12343, "\u2581redd": 15512, "insert": 6889, "\u2581colleges": 26819, "\u2581ceiling": 15273, "initialize": 19106, "\u2581supplied": 16584, "\u00af": 29948, "\u2581out": 575, "\u2581fairly": 11735, "\u2581thirty": 9418, "\u2581Kat": 14294, "\u2581trends": 17869, "VIS": 20178, "\u5c45": 31055, "\u0936": 30432, "ando": 2567, "mar": 3479, "\u9801": 31693, "\u2581Most": 4822, "clear": 6206, "wiki": 15941, "\u2581around": 1401, "rog": 9617, "\u2581goodness": 27624, "utes": 2907, "\u2581neck": 7215, "\u2581Wis": 14100, "ften": 14073, "\u515a": 31562, "\u2581bald": 26128, "osexual": 20823, "\u2581emotional": 10526, "\uc784": 30520, "\u2581stabil": 16888, "aph": 2366, "\u2581begin": 2839, "\u2581Jew": 5808, "ishop": 12019, "\u5e01": 30735, "prot": 16930, "lung": 13005, "~~~~~~~~": 22770, "\u2581land": 2533, "\u0086": 31038, "RV": 19578, "\u2581glob": 15737, "\u7d9a": 31309, "\u2581Starting": 25503, "\u2581Clar": 20225, ";;": 19406, "\u5272": 31105, "\u2581stupid": 8710, "\u2581\u043e\u043a": 10525, "\u2581whenever": 11326, "\u2581raising": 15851, "\u2581Patri": 22755, "\u25bc": 30088, "ilians": 24959, "\u2581Unter": 10952, "\u2581crypto": 21066, "<>();": 15840, "\u2581<": 523, "iu": 7509, "llvm": 17978, "\u2581durant": 21105, "\u2581sad": 7456, "\u2581pentru": 19493, "\u2581gaps": 27612, "iii": 19747, "\u2581membr": 25983, "LES": 20335, "\u2084": 31598, "urb": 5354, "\u043c\u0438": 1563, "atten": 11110, "\u2581rise": 8418, "\u2581introduction": 14300, "\u2581\u0431\u0443\u043b\u0430": 26342, "\uc18d": 30573, "lyn": 12998, "\u2581cups": 19646, "fly": 16210, "\u0280": 30764, "olves": 18725, "\u2581shifted": 16618, "\u2581net": 2512, "profile": 9247, "\u2581Should": 10934, "\u2581theft": 27119, "\u2581Cha": 23330, "mathbf": 3505, "\u2581\u0441\u0435\u043b\u0430": 28667, "\u2581amely": 27894, "\u2581reactions": 21319, "Blo": 28107, "\u2581fres": 28582, "Na": 17552, "\u2581negl": 24540, "Release": 17327, "\u2581Ref": 6360, "iman": 27153, "\u2581unfortunately": 22014, "\u2609": 31670, "Hidden": 25460, "perp": 21280, "bottom": 10450, "\u2581sciences": 23824, "\ubc30": 30403, "\u0090": 30101, "ause": 869, "\u2581Ta": 14247, "Comb": 22865, "\u2581latter": 9827, "\u2581secondary": 13461, "\u2581Back": 6795, "\u2581verd": 18070, "k\u00f6": 17986, "a\u0142a": 23234, "ril": 9085, "ov\u00e9": 20208, "\u2581occurring": 28265, "Extract": 24958, "chnitt": 28644, "\u2581fish": 8006, "\u2581Fortunately": 26642, "tty": 3003, "\u2581data": 1178, "usc": 15229, "legt": 28661, "cius": 27212, "\u2581gloves": 25570, "Tables": 22776, "\u2581pr\u00e9sent": 23428, "\u2581Tommy": 20893, "\u9669": 31413, "\u2581studies": 7193, "\u2581magic": 9693, "\u2581samples": 11714, "Dem": 16989, "\u2581democracy": 17548, "\u2581Hud": 20247, "hub": 21230, "\u2581closet": 23622, "<0xB1>": 180, "\u2581Char": 4348, "lichen": 7246, "stroke": 14844, "\u2581\u043e\u0441\u0456\u0431": 19145, "\u2581\";": 15404, "jax": 15797, "\u2581experiencing": 20998, "\u2581tell": 1912, "Ah": 17114, "\u2581tier": 24488, "n\u00fd": 24160, "\u2581expected": 3349, "protected": 11384, "estly": 19067, "\u2581sele": 25019, "olly": 11394, "\u2581&&": 1208, "VERT": 24149, "\u2581Luis": 16945, "\u2581freak": 20334, "\u2581skin": 4759, "av": 494, "\u5473": 31170, "og": 476, "\u2581IR": 14149, "switch": 7252, "ifik": 19758, "\u2581Pad": 17390, "\u2581\u0441\u0435\u0440\u0435\u0434": 28200, "FLAGS": 16751, "yme": 23389, "ocur": 28457, "\u2581Krieg": 19020, "\u2581apr": 8601, "\u2581residents": 11305, "\u2581silly": 18715, "\u2581ion": 19464, "Engine": 7003, "\u2581lied": 26984, "\uc2ec": 31987, "sig": 13743, "\u5237": 30426, "\u2581cre": 1317, "QU": 7855, "\u2581bleeding": 25352, "ycl": 9591, "\u2581sizes": 13282, "\u2581\u0438\u0445": 18028, "\u2581fresh": 6138, "ary": 628, "\u2581healthy": 7783, "Tra": 14839, "\u2581contribute": 14951, "\u2581stag": 19399, "east": 24294, "\u0434\u043e": 2054, "\u2581param": 2095, "\u2581\u0444\u0435\u0432\u0440\u0430": 25224, "hooks": 25142, "\u2581MERCHANTABILITY": 14105, "\u2581miss": 3178, "entry": 3991, "\u2581tragedy": 25466, "\u031e": 31327, "\u2581Instead": 8162, "best": 13521, "izio": 19650, "Void": 17732, "\ub8e8": 31602, "\u2581culture": 5679, "\u2581contact": 3754, "\u2581Object": 4625, "\u03c2": 29013, "\u25cf": 29393, "\u1793": 30078, "Figure": 25665, "\u2581proportion": 19938, "\u2581Law": 5802, "\u2581cater": 22250, "elcome": 23079, "SEE": 27670, "ail": 614, "Getter": 26270, "\u6c38": 30507, "\u2581influence": 8015, "\u2581challenge": 8035, "\u2581twisted": 18337, "\u2581detect": 6705, "\u2581covered": 6823, "emark": 21819, "aken": 2589, "\u2581liber": 7172, "Alias": 20766, "\u2581conflicts": 24129, "\u2581Stalin": 24068, "Seq": 25441, "\u2581triangle": 24411, "\u2581Jer": 5505, "pgfpath": 11370, "\u2581discipline": 18714, "\u2581ego": 24630, "iche": 5680, "vest": 6281, "\u4e58": 31389, "\u2581could": 829, "\u2581criticism": 17584, "\u2581est": 934, "\u5f37": 31280, "odigd": 15630, "\u2581Psy": 13020, "\u898b": 30599, "notify": 15413, "\u2581Nag": 17482, "\u2581classe": 20351, "\u2581achieved": 12011, "\u2581commune": 11564, "\u2581rubber": 20452, "\u5e73": 29549, "\u2581cover": 2796, "\u2581York": 2726, "\u2581hyp": 8178, "\u2581bombs": 26084, "\u2581diff\u00e9rent": 23749, "call": 2845, "\u2581mixing": 18942, "\u2581Inst": 3133, "\u2581implied": 7668, "\u2581orientation": 18159, "God": 17189, "\u2581Sh": 1295, "\u2581rock": 4463, "cloud": 8180, "ippi": 17609, "\u2581patron": 20367, "\u2581pushing": 13884, "agger": 7109, "a": 28708, "DF": 6071, "\u2581warnings": 24052, "\u2581represented": 10483, "\u2581loading": 14617, "\u2581visiting": 13726, "Black": 15060, "\u2581cert": 5813, "footer": 18743, "cord": 19056, "\u2581This": 851, "\u2581Charl": 7439, "kar": 13600, "metric": 13997, "VA": 18330, "\u2581Operations": 24892, "\u2581hosted": 18822, "oga": 10491, "\u2581duration": 11964, "\u2581Republic": 6090, "\u2581teacher": 8626, "\u2581Chain": 28454, "\u2581Appro": 20047, "Priority": 21076, "WARE": 12508, "\u00cc": 30359, "\u2581Count": 4165, "\u2581mut": 4548, "UTF": 14106, "\u2581rifle": 19427, "demo": 25652, "Shell": 15718, "Asset": 16328, "n\u00e9es": 25012, "\u2581bucket": 15552, "\u2581momentum": 14019, "\u0e30": 29877, "\u0ab0": 31427, "\u2581penalty": 19140, "\u2581air": 2423, "amer": 6962, "\u2581pos": 977, "util": 1858, "\u2581SH": 8604, "achel": 14047, "\u2581Working": 18847, "\u2581flaw": 22904, "\u2581shallow": 21660, "\u2581Jeremy": 24251, "TOKEN": 25478, "\u2581gown": 26736, "\u2039": 29922, "\u2581ann\u00e9es": 16010, "rooms": 14520, "\u2581Victoria": 13682, "\u2581CEO": 13117, "\u2581numer": 5539, "\u2581att": 998, "\ub839": 31514, "\u02c7": 31721, "<0x55>": 88, "<0xB0>": 179, "\u2581schools": 7373, "\u2581fran\u00e7ais": 14299, "oline": 20252, "\u2581CIA": 22721, "\u2581asc": 13294, "\u2581Son": 7179, "\u2581ville": 13526, "\u2581di": 890, "AX": 15385, "\u30da": 30534, "none": 8607, "\u0434\u044f": 10926, "Mgr": 22109, "\u2581Campeonato": 24965, "Labels": 21239, "\u2581lawyers": 19731, "\u2581Arabia": 27264, "\u2581died": 4847, "\ud83d\ude4c": 31326, "\u2581hearts": 17758, "chg": 18689, "ea": 11062, "\u2581second": 1676, "\u2581lights": 9416, "girl": 25404, "\u2581Isa": 17578, "\u2012": 30998, "\u2581artist": 7325, "\u2581Italia": 16995, "\u4e32": 29523, "\u1ee7": 30190, "'''": 25135, "rieben": 25077, "eno": 11174, "pcm": 20610, "\u2581Context": 14268, "\u2581developers": 17892, "isEmpty": 13331, "\u2581five": 3359, "DAY": 24841, "prov": 11951, "\u2581\u043a\u043e\u0442\u043e": 6543, "\u043f\u0440\u0430\u0432": 12959, "\u2581stepped": 9593, "CLUDING": 16634, "\u2581bin": 10708, "{": 28751, "\u2581dialogue": 19198, "\u1019": 31218, "\u2581activities": 6290, "\ube14": 30502, "Down": 6810, "ificates": 23575, "\u2581curt": 22372, "\u2581curl": 28306, "hash": 5700, "\u544a": 29915, "\u043f\u043e\u0437\u0438": 24326, "\u2581Og": 26826, "\u2581Normal": 23325, "\u8272": 29395, "\u2581flag": 6673, "\u2581lingu": 24017, "mee": 26665, "ipt": 14345, "\ud83d\udc4c": 31156, "\u2581gebru": 23257, "ensing": 18130, "\u2581Mar": 1471, "\u8c61": 29254, "<0xC1>": 196, "en": 269, "\u2581ano": 28125, "\u2581Reg": 2678, "irable": 19821, "\u0447\u043d\u043e\u0433\u043e": 19957, "gra": 24045, "Properties": 6509, "antry": 23379, "rera": 20729, "\u67d0": 30301, "iere": 16302, "\u2581alumin": 22894, "\u2581moy": 19802, "rif": 10786, "rence": 8462, "canvas": 19670, "\u2581dict": 8826, "\u2581Bark": 27542, "infl": 21255, "\u2581Famil": 14288, "\u2581period": 3216, "\u2581tip": 7230, "\u2581\u0446\u0438": 18950, "\u2581ha": 3631, "\u2581Charlotte": 16461, "\u2581ale": 12121, "orous": 15138, "\u2581Resources": 20114, "\u2581v\u00e1l": 19892, "ceive": 11642, "\u2581Neg": 12165, "andy": 10087, "\u2581hung": 7342, "\u0441\u0443\u0434\u0430\u0440": 16747, "pon": 766, "\u5fae": 30091, "\u043d\u0456\u0457": 24506, "network": 9482, "\u2581Coast": 13340, "\u2581circul": 15092, "\u0e4f": 30546, "olation": 21570, "\u00e1t": 4566, "auge": 25793, "\u2581commanded": 27288, "\u2581heeft": 21006, "\u2581exhibit": 22620, "\u2581processes": 9537, "\u2581Personen": 25480, "\u2581Prec": 28386, "\u2581Febru": 4846, "\u2581New": 1450, "Unmar": 20630, "\u2581\u041c\u0435": 8749, "\u0e28": 30859, "\u798f": 30511, "filer": 27992, "archive": 23682, "\u043d\u043e\u0441\u0442": 12757, "SL": 6255, "quick": 27263, "student": 22523, "Contin": 22610, "\u2581En": 1618, "covery": 8841, "\u2581isolated": 18545, "\u7d20": 29555, "\u2581\u2116": 15778, "\u2581guerre": 20301, "\u2581founder": 18291, "Interval": 14484, "jQuery": 15442, "azor": 18426, "\u2581pair": 5964, "\u2581Honor": 19939, "\u2581Kitchen": 21376, "\u5782": 31660, "\u2581rescue": 16011, "\u2581merch": 18724, "ipping": 10206, "\u2581twe": 9394, "\ucc98": 30201, "wx": 15711, "Type": 1005, "\u6362": 29479, "onso": 24291, "\u5ba2": 29763, "\u2581\u043f\u043e\u043b\u0438": 16426, "\u2581sal": 3823, "\u2581strat": 27857, "aka": 8389, "writing": 19061, "\u0437\u0432\u043e": 22392, "\u2581\u043e\u043a\u0442\u044f\u0431\u0440\u044f": 26490, "\u043c\u043e": 2200, "acent": 15352, "\u2581Dopo": 28170, "\u2581treasure": 25496, "\u06be": 31052, "trim": 13484, "\u2581staring": 13144, "suit": 21232, "\u2581dispute": 22299, "\u2581background": 5414, "itational": 25674, "\u2581overwhelmed": 28186, "ECT": 9344, "\u05c1": 31039, "\u2581especial": 17686, "\u2581expose": 26411, "Secret": 17657, "\u2581phil": 6862, "\u2581sovere": 24819, "\u2581\u0441\u0430\u043c\u043e": 12510, "\u2581eigen": 11060, "\u2581bride": 25248, "\u09a4": 30393, "pping": 7319, "Control": 5452, "password": 7349, "\u2581qu": 526, "Phone": 11181, "issenschaft": 16440, "\u2581Archives": 28477, "effective": 23562, "\u2581muj": 20397, "\u2581execution": 12068, "\u2581improve": 4916, "\u2581Sea": 11759, "\u2581Baron": 23152, "\u2581absorb": 28311, "\u2581finance": 15978, "\u2581jack": 17527, "\u2581varieties": 27610, "\u2581\u0432\u0435\u0440": 12946, "\u2581likewise": 24963, "yo": 12141, "\u2581entered": 8426, "|---": 24823, "\u2581Iran": 10942, "\u2581rod": 16439, "\u0440\u0443": 1728, "LD": 12093, "\u2581Document": 14873, "\u2581Para": 19562, "\u2581symmetric": 21030, "\u2581Living": 16303, "\u2581boyfriend": 18173, "\u2581types": 4514, "\u2581sacrific": 22074, "awn": 11646, "\u2581sandwich": 28267, "Obj": 7017, "CKET": 26474, "\u2581\u015bwi": 21200, "\u0441\u043c\u043e": 27231, "\u6a02": 31918, "\u2581paused": 14623, "\u2581incred": 8329, "answer": 24115, "otal": 5834, "\u2581ritual": 21078, "CFG": 14590, "ryption": 14071, "\u2581gods": 16578, "\u2581clarity": 25312, "\u00ff": 30281, "<0x43>": 70, "\u2581classes": 6709, "\u2581Register": 10397, "\u2581Temple": 16099, "\u2581balanced": 19971, "\u2581mapping": 13152, "\u2581physical": 5277, "dated": 5218, "\u2581joined": 7298, "\u2581nv": 25962, "\u2581\u0412\u0430\u0441\u0438": 26099, "\u2581vulner": 12985, "\u2581iron": 8075, "\u2581gesture": 19313, "Monitor": 19606, "Inline": 19034, "\u2581\u0414\u0436": 16046, "\u2581far": 2082, "\u2581capable": 10637, "impl": 9252, "\u2581wa": 7078, "\u2581lu": 16899, "\u2581propaganda": 24010, "\u2581painter": 24372, "\u96c6": 29451, "CG": 19354, "\u1021": 31995, "\u9752": 30377, "\"]": 2242, "board": 3516, "\u2581gaz": 14961, "\u2581Fast": 17539, "\u2581Bay": 6644, "plugins": 16142, "ifica": 20750, "\u2581geometry": 17639, "Ray": 25109, "Cart": 17057, "\u2581hanging": 12445, "INDEX": 16358, "rieb": 14945, "\u2581clause": 23994, "</": 700, "\u2581wrapped": 12691, "endpoint": 15153, "oving": 8259, "\u2581stood": 4857, "\u2581Enter": 9810, "\u0686": 30066, "\u0580": 29702, "ure": 482, "\u2581kur": 20532, "\u2581\u0441\u0432\u044f": 15520, "\u2581vamp": 21505, "\u2581WC": 27825, "\u2581upward": 25246, "\u2581julio": 26018, "\uad70": 31672, "main": 5389, "Bucket": 21215, "EXIT": 28344, "<0xDA>": 221, "\u2581Dan": 4294, "NL": 16717, "\u2581retire": 26033, "\u2581conj": 11365, "\u0448\u0435\u043d\u0438\u0435": 27372, "\u2581cant": 8752, "\u8baf": 31316, "burgh": 20818, "\u2581Free": 5228, "Remote": 15478, "osc": 17815, "\u2581Whether": 9989, "pret": 5520, "\u2581proport": 12687, "staw": 24225, "\u2581Esc": 13731, "\u2581Chamber": 21752, "Rele": 14768, "\u62e9": 29608, "\u2581render": 7188, "\u635f": 31867, "nio": 22943, "\ubc1b": 30605, "mitted": 10286, "\u2581found": 1419, "\u2581Comment": 19479, "Enumerable": 25303, "\u2581County": 5068, "\u2581commod": 25794, "\u2581takes": 4347, "\u2581neces": 24101, "www": 2849, "\u00ean": 26841, "\u0144sk": 12447, "ugar": 18195, "atra": 21909, "expression": 15848, "\u2581P": 367, "\u2581wird": 7534, "ist": 392, "cou": 20172, "\u2581battles": 20469, "WORD": 10993, "\u2581grade": 12146, "\u2581moral": 10986, "\u2581Conserv": 12200, "\u2581g\u00e9": 19134, "\u2581inherit": 22492, "\u2581briefly": 15643, "uur": 18287, "\u2581d\u00eda": 22062, "ervation": 23587, "\u5bf6": 31683, "\u0ba3": 31748, "\u2581established": 6740, "\u2581canvas": 14499, "olence": 26063, "\u2581Deutschland": 19030, "\u2581inhib": 22358, "\u5f00": 29177, "\u2581hom": 3153, "\u8389": 31806, "\u2581usage": 11753, "angs": 23766, "STR": 4572, "\u0454\u044e": 23667, "\\[": 16927, "ether": 8962, "\u2581imag": 3809, "\u2581ers": 15920, "\u2581drank": 22934, "\u2581animation": 15733, "\u2581curiosity": 22953, "CAP": 13706, "\u0440\u043e\u043d": 11197, "\u2581Hern": 28521, "\u6761": 29391, "\u52dd": 31400, "\u2581dv": 21272, "\uc635": 31629, "Ge": 5909, "per": 487, "codec": 10989, "\u2581Of": 4529, "tar": 14689, "\u2581Pen": 9756, "\u2581Nature": 19013, "adores": 10591, "\u96fb": 30939, "\u2581Spect": 22636, "ashing": 4245, "prec": 9805, "'\\": 9620, "BU": 3470, "\u2581ip": 8465, "encing": 10695, "Long": 7468, "\u2581Ax": 24749, "Cur": 4432, "itation": 5174, "\u2581hits": 14121, "\u2581\u0438\u044e\u043b\u044f": 26076, "\u2581switched": 21187, "ibrary": 4129, "\u2581Colonel": 18464, "\u2581Brew": 23280, "Ke": 7238, "\u2581bru": 16575, "\u2581mundo": 18654, "\ud2bc": 31285, "\u0446\u0438\u044e": 20483, "\u2581obt": 3182, "msg": 3932, "\u2581forest": 8613, "\u2581Camb": 10597, "\u2581crushed": 25358, "love": 26232, "\u2581dri": 2768, "solete": 28273, "\u8bc6": 30093, "lad": 9963, "rik": 8129, "}}(": 12900, "\u2581PM": 9632, "\u2581loans": 15556, "zeug": 19152, "\u2581\u00e8": 3473, "\u9694": 30451, "\ubc95": 30979, "\u2581ele": 5939, "priv": 6214, "\u2581insight": 16164, "zeichnung": 27448, "\u090f": 31014, "\u2581locks": 25347, "osi": 12681, "\u53ef": 29052, "ggreg": 16798, "arance": 13705, "<0x1E>": 33, "\u2581pleasure": 10736, "\u2581\u0434\u0435\u043a\u0430": 21871, "\u821e": 31622, "\u2581\\\"": 11779, "\u2581generally": 6741, "RAN": 4943, "initions": 22909, "\ud0c0": 30304, "cular": 12723, "\u2581Steam": 27543, "\u2581canon": 28585, ":\r": 8230, "Se": 1980, "ra": 520, "\u2581usually": 4312, "warn": 13039, "\u2581queue": 10159, "\u2581feelings": 9388, "\u2581equipment": 7108, "\u2581risks": 14679, "\u2581silver": 9746, "ler": 1523, "record": 9724, "\u2581Jack": 4299, "Di": 8874, "\u2581.\"": 15192, "\u2581technique": 11108, "\u2581\u0444\u043e\u0440": 13939, "\u2581wom": 1615, "\u2581Examples": 26268, "orable": 26274, "of": 1009, "\u2581rel": 1016, "<0x5F>": 98, "\u2581procedure": 10722, "prit": 25450, "\u00e4tt": 13013, "\u2581Nas": 22012, "components": 9048, "\u2581planted": 24571, "///": 3312, "umps": 10575, "\u2581prow": 23920, "aaaaaaaa": 25332, "\u2581diary": 25284, "uj\u0105": 20606, "\u2581Opera": 24795, "\u2581\u0434\u0443": 13664, "changed": 11247, "\u2581formally": 25491, "\u00fcll": 19165, "collapse": 25936, "\u2581Fame": 26675, "\u043d\u0430\u043b\u044c": 28029, "<0x44>": 71, "active": 4140, "itude": 4484, "...\"": 7508, "\u2581accuracy": 13252, "\u2581bears": 25051, "\u2581CBS": 28233, "\u2581parti": 28403, "mv": 23366, "rior": 6654, "LY": 9880, "also": 18033, "club": 25169, "\u2581ere": 15699, "SIZE": 5145, "\u2581Cancer": 25437, "Keys": 10492, "\u2581r\u00e9alis": 21090, "istrict": 7486, "um": 383, "\u2581August": 3628, "bag": 19001, "urers": 13505, "\u2581ahead": 6280, "gather": 24136, "\u2581absent": 20311, "\u2581heads": 10478, "\u2581sost": 27498, "\u2581\u043d\u0430\u043b\u0430\u0437\u0438": 27108, "library": 16228, "\u4e0d": 28988, "\u2581Karl": 10648, "\u2581\u0421\u0438": 12430, "IAL": 11104, "i\u00e8me": 17803, "matched": 28206, "Packet": 13598, "\u2581supply": 8002, "\u2581ren": 6419, "Fun": 3369, "\u2581Drive": 16857, "\u4e39": 31618, "\u2581origin": 5016, "\u2581\u043e\u0431\u043e": 17430, "\u4e14": 29958, "\u2581toget": 2551, "/(": 20974, "\u0563": 31305, "\u2581Tech": 19649, "Linear": 22044, "bear": 25114, "get": 527, "\u2581bite": 18082, "\u2581`": 1552, "\u2581sunlight": 22950, "\u2581streak": 23210, "\u2581logical": 16441, "anten": 23601, "\u2581durable": 26200, "\u2581Stud": 4906, "\u043b\u0430\u0441\u044c": 12147, "bourne": 16187, "\u2581order": 1745, "\ub3d9": 29714, "\u2581bord": 22183, "\u2581Ober": 13119, "\u2581powerful": 6787, "\u2581UV": 25231, "\u2581due": 2940, "ederal": 5717, "\u2581\u0421\u0443": 13656, "atter": 2466, "onder": 9816, "ensitive": 16420, "AIL": 26763, "cleanup": 23642, "delete": 6067, "\u2581corps": 16214, "\u2581Better": 18862, "\u043d\u0430\u0440\u043e\u0434": 19388, "\u2581perd": 17266, "(": 28732, "\u2581utf": 26238, "Detail": 14525, "\u2581feder": 27006, "\u2581valid": 3716, "\u00ad": 28927, "\u2581belie": 1989, "REEN": 25755, "\u2581foul": 27650, "sum": 1801, "\u2581Kom": 9227, "opl": 13317, "Abstract": 16384, "\u2581Va": 18786, "\u2581\u0441\u0442\u0432\u043e": 28490, "\u4ecd": 31971, "bh": 13141, "\u2581sin": 5450, "\u2581Mur": 7423, "\u2581Democratic": 12821, "\u2581Mix": 19630, "\u2581poblaci\u00f3n": 20004, "vert": 2035, "\u2581none": 6547, "\u2581Miguel": 20963, "<0x4F>": 82, "\u2581Society": 8522, "\u2581Ask": 19500, "\u2581\u043a\u043e\u043b\u0438": 19519, "\u2581Anders": 24930, "Creat": 14001, "\u2581motivation": 21594, "\u2581puts": 12345, "\uc874": 31025, "\u2581$|": 17429, "\u2581appear": 4305, "ioni": 6579, "<0x65>": 104, "\u2581recycl": 20115, "\u2581rim": 16264, "iable": 6109, "ague": 3512, "\u2581answers": 11194, "\u0654": 31865, "TIMEOUT": 21911, "\u2581please": 4665, "\u0439\u043e": 7328, "CHANGE": 27005, "\u2581associ": 3509, "ographic": 12293, "\u2581teil": 22442, "\u2581opposed": 13970, "\u2581discret": 22683, "\u044e\u0442\u044c\u0441\u044f": 25582, "\u2581\u0411\u0438\u043e\u0433\u0440\u0430\u0444\u0438\u044f": 25097, "\u2581catch": 3547, "\u2581}{": 26528, "\u2581sky": 7212, "eron": 13618, "\u2581b": 287, "\u0447\u0435\u043d\u0438\u0435": 18326, "scroll": 10334, "\u2581Size": 13909, "\u2581gr\u00f6\u00df": 22707, "\u00e1nak": 25452, "Pool": 9022, "\u2581cmd": 8651, "azy": 13478, "\u89c4": 29946, "<0x93>": 150, "\u2581scary": 23957, "minecraft": 22875, "\u2581*\u00ab": 26811, "MAIN": 19039, "\u2581dom": 2853, "ggi": 24816, "\u2581strateg": 7432, "\u89a7": 31722, "\u2581Contribut": 26015, "omas": 23856, "\u0438\u043c": 14624, "\u2581role": 3905, "\u2581structural": 21431, "\u2581teas": 24789, "\u2581reconstruction": 27419, "Bad": 14580, "\u2581anonymous": 23267, "\u5200": 31516, "ISO": 27324, "\u25fc": 30806, "\u2581wp": 18495, "\ud0a4": 30649, "\u043a\u043e\u043d\u043e": 20911, "\u2581specialists": 28375, "\u0442\u0435\u043c": 18988, "\u2581PR": 10517, "\u043b\u0435\u043a\u0441": 13019, "\u2581march": 11853, "kw": 8486, "adr": 23677, "Hen": 26116, "\u2581visual": 8809, "\u2581pes": 13169, "ZZ": 26212, "Confirm": 22205, "\u2581Orange": 21853, "\u2581controller": 11792, "\u2581Intern": 3560, "\u2581flo": 2175, "\ub958": 30810, "\u9488": 30373, "\u5360": 30825, "cap": 4996, "\u2581Hun": 10570, "\u2581overview": 23094, "ep": 615, "\u5199": 29503, "\u2581het": 3010, "\u2581brain": 6387, "mals": 26449, "\u2581acqu": 5579, "igma": 2898, "brew": 22540, "\u2581decent": 12564, "\u2581Marcus": 22194, "\u2581demo": 23969, "\u2581entertainment": 15175, "\u2581lanz": 26682, "\u2581Howard": 14907, "\u2581recomm": 4626, "fun": 1755, "LED": 15319, "\u2581quella": 26818, "after": 7792, "\uc744": 29189, "ERE": 20923, "\u2581laund": 21796, "\u2581Sem": 9897, "io": 691, "\u2581salt": 9685, "\u2581between": 1444, "vens": 14081, "\u00fcss": 18394, "HANDLE": 24292, "AN": 1251, "\u2581helmet": 26371, "ref": 1013, "\u2581switching": 25439, "aim": 2371, "\u2581exclude": 25482, "\u2581materials": 7069, "\u2581celebration": 20744, "bras": 21420, "\u2581enh": 8050, "\u2581invoke": 23071, "osen": 6148, "hood": 5079, "\u2581Sn": 10881, "cov": 25199, "CH": 2305, "\u2581Le": 1337, "\u2581vague": 25285, "\u2581Engine": 9387, "\u2581tickets": 15551, "\u2581reminds": 25639, "\u001a": 30759, "\u2581Gent": 22980, "\u0e38": 29903, "\u2581importantly": 21485, "\u2581Obama": 11764, "\u2581DIS": 15601, "\u2581Theatre": 15209, "\u52a9": 30278, "\u2581Churchill": 23142, "\u2581comments": 7616, "\u6bdb": 31187, "\u2581drives": 19085, "\u000f": 30698, "shops": 21673, "DOM": 15421, "\u2581reddit": 22003, "Many": 15492, "\u2581userId": 23836, "\u2581Canadian": 10435, "title": 3901, "\u2581\u00f6": 6204, "berg": 4146, "\u2581generate": 8270, "roc": 11697, "\u2581extent": 11125, "\u2581occurs": 12022, "\u043a\u0430\u0437\u0430": 13258, "\u2581ded": 5589, "\u2581awarded": 14059, "\u2581Delhi": 21548, "\ud83d\ude09": 29814, "emed": 17239, "<<": 5275, "\u2581Eight": 24182, "FALSE": 12817, "hin": 15176, "\u2581sog": 26255, "\u2581Oct": 3879, "pixel": 22078, "\u2581Shanghai": 28410, "\u2581Copyright": 5259, "\u2581Sometimes": 9738, "\u2581Hitler": 14856, "serialize": 18704, "\u2581Collect": 26272, "\u2581part": 744, "\u2581theories": 17234, "avity": 16012, "\u2581Spain": 12567, "\u2581Dark": 12361, "u\u00df": 23016, "\u0441\u0442\u0440\u0430": 8088, "\u6e2c": 31940, "\u2581#!": 20025, "\u2581capacity": 8444, "\u2581friendly": 10131, "\u0442\u0435\u0440\u0430": 15252, "\u2581el\u0151": 23367, "\u2581implement": 4808, "\u2581impact": 5088, "\u2581Houston": 16904, "\u2581preserve": 18018, "\u2581traders": 28226, "\ub530": 31359, "cor": 4754, "IS": 1851, ">\".": 19593, "px": 4125, "hdd": 21330, "iginal": 11608, "ansk": 18269, "\u2581AS": 8128, "\u2581fd": 18111, "\u2581principale": 25147, "\u2581diplom": 13527, "fish": 16483, "\u9519": 29403, "HY": 27334, "down": 3254, "und": 915, "\u2581displ": 13420, "CD": 5072, "\u2581yy": 17139, "\u2581num": 2075, "\u2581MIT": 17156, "\u2581developments": 22310, "ald": 3165, "akers": 8774, "\u2581Pop": 7259, "\u2581High": 4556, "cert": 8422, "\u2581atr": 21857, "\u2581arena": 24059, "\u2581primera": 14422, "\u2581mil": 2120, "\u2581ampl": 16401, "fore": 994, "\u2581Energy": 14270, "\u4e13": 30424, "\u2581[`": 27875, "\u0440\u043e\u043c": 7407, "\u2581Jess": 14216, "})\\": 11972, "\u2581above": 2747, "placeholder": 24553, "\u2581\u043f\u043e\u043b\u0443": 10772, "\u2581sees": 12477, "\u2581meer": 24691, "country": 16912, "HAL": 19287, "staff": 27943, "insula": 27155, "\u2581dog": 3914, "\u0441\u043a\u0430": 3948, "\u2581vain": 23204, "\u2581fis": 18445, "Title": 7522, "\u2581Blake": 23450, "\u2581Military": 19844, "\u2581damp": 19151, "\u2581well": 1162, "\u2581arrested": 14206, "\u2581encounter": 10301, "itud": 14534, "resize": 16138, "\u2581ti": 17061, "\u2581Image": 9833, "\u5219": 29310, "\u2021": 30053, "license": 16576, "inherit": 19778, "notes": 18787, ")\");": 18490, "bler": 22413, "\u2581Con": 1325, "\u2581pid": 21654, "\u2581Holy": 12830, "\u2581physics": 16173, "\u2581compet": 3440, "\ud615": 30498, "Retry": 23298, "\u2581controlling": 24148, "asket": 8173, "ting": 1157, "\u4e5f": 29537, "\u2581+": 648, "atin": 12844, "\u50b3": 31036, "\u2581couples": 18576, "\u2581le": 462, "\u592a": 29975, "\u2581sending": 10313, "\u2581innoc": 12686, "\u94fa": 31471, "\u2581talent": 9234, "EP": 11253, "\u2581stats": 14269, "\u00e4m": 18483, "\u2776": 31739, "\u2581Rap": 15544, "GROUP": 17597, "\u2581christ": 22735, "\u2581Champions": 24470, "poch": 17698, "Height": 5814, "\u0437\u044b": 7763, "bind": 5893, "oti": 9469, "\u2581Jos\u00e9": 12369, "\u0144ski": 20939, "\u2581Navy": 12796, "hpp": 20567, "thal": 21361, "\u2581eg": 14486, "\u0456\u043d": 15326, "\u2581read": 1220, "\u30ca": 30081, "tee": 6267, "\u2581virtual": 8252, "\u251c": 29635, "<0x00>": 3, "LEN": 8880, "KE": 4457, "\u9633": 30230, "\u2581franz\u00f6s": 24869, "\u0430": 28763, "amber": 9649, "HERE": 11724, "\u2581flour": 14826, "Aut": 3967, "\u2581WITHOUT": 8292, "\u2581Fred": 11317, "K": 28796, "\u0457\u0432": 24299, "Sem": 21565, "gfx": 27604, "\u2581td": 28272, "atisf": 27846, "\u7fa9": 30673, "\u2581on": 356, "\u2581neighb": 13869, "\u2581Rum": 23170, "\u2581permanently": 26815, "clk": 9061, "\u0449\u0443": 23904, "berries": 28363, "\u2581Bruce": 16668, "rab": 27385, "LINE": 9581, "\u2581paying": 9960, "\u2581(__": 27534, "ho": 2124, "\u2581\u043e\u043a\u0440\u0443": 15119, "\u2581Events": 20370, "\u0940": 29735, "ern": 1173, "\u2581\u0432\u043a\u043b\u044e": 19291, "cht": 5862, "ronic": 7624, "\u2581photographer": 24159, "\u2581Per": 2744, "ud": 554, "\u2581Valentine": 28495, "\u56fe": 29183, "\u2581Singles": 24922, "\u2581AP": 10502, "\u2581GA": 24083, "\u7a0d": 31425, "eh": 10069, "\u2581highlights": 23089, "\u043a\u043e\u043b\u043e": 17191, "\u05d4": 29047, "\u2581December": 4925, "ia": 515, "\u2581config": 2703, "n\u00e9": 8269, "rea": 10458, "\u95f4": 29117, "Hz": 12659, "<0x94>": 151, "\u0435\u0432": 7331, "TextField": 25781, "\u2581tattoo": 28105, "\u2581investigate": 17214, "FROM": 21335, "mys": 14576, "\u263a": 30601, "\u2581opposition": 14218, "\u2581Coffee": 27275, "ester": 7933, "inent": 10742, "wr": 7067, "Are": 5985, "\u2581DE": 4562, "facebook": 23744, "derive": 21303, "\u7edf": 29531, "\u2581Poss": 19796, "\u2581farms": 27228, "\u2581blew": 21798, "\u2581\u041f\u0440\u0438": 11824, "\u6e2f": 30913, "respect": 27281, "\u2081": 31552, "\u2581\u044f\u043a": 15143, "\u0126": 31992, "'(": 22382, "\u0259": 29108, "specific": 15590, "\u2581\"*": 12406, "\u2581near": 3065, "LONG": 20138, "\u2581alcohol": 11070, "\u2581If": 1047, "\u2581portable": 26337, "\u2581Bar": 3011, "\u2581zones": 19913, "\u30ba": 30238, "folio": 14132, "Initial": 14230, "\u2581Business": 7711, "css": 5753, "\u2581IllegalArgument": 23731, "bed": 3101, "\u2581featuring": 16312, "\u2581combine": 17470, "\u043c\u0438\u043d\u0430": 17622, "percent": 18799, "act": 572, "\u2581spent": 5223, "\u2581administration": 10298, "\u2581protection": 8147, "itive": 2468, "\u2581we": 478, "\u2581zwei": 12229, "\u0c30": 31190, "oj": 6054, "\u2581express": 4072, "\u2581ir": 4139, "Camp": 23268, "\u2581adults": 12111, "\u179c": 31412, "\u2581incident": 10824, "\u2581allocated": 19979, "\u2581spl": 8154, "\u2581responded": 15249, "\u2581scholars": 22981, "\u0173": 30102, "\u2581\u041a\u0443": 11467, "\u1e6d": 29835, "\u226f": 31645, "\uce58": 30159, "\u043d\u044c\u043e": 21738, "\u2581Bh": 18811, "\u2581READ": 24805, "_-": 26428, "Den": 18039, "HP": 22106, "ivil": 4617, "FILTER": 24139, "otimes": 8794, "\u2581passion": 8773, "\u2581satisfy": 15836, "\u30c8": 29123, "\u2581kingdom": 17782, "uning": 25522, "\u2581BA": 27971, "\u2581Andy": 16514, "Over": 2675, "pson": 12353, "\u2581foods": 14082, "\u2581m\u00e5n": 24481, "\u2581Altern": 16677, "RT": 7042, "\u2581accord": 13246, "\uc77d": 31815, "\u25b8": 31939, "\u2581'/": 7377, "Diff": 18331, "\u2581trouve": 25171, "\u2581chr": 27515, "\u2581write": 3324, "\u2581arbitrary": 16711, "):": 1329, "\u2581discrete": 24788, "\u2581\u043e\u0442\u043d\u043e": 18616, "\u2581utter": 14870, "\u2581jeans": 21576, "\u2581polar": 14955, "]))": 11922, "\u2581Sir": 8351, "bul": 9258, "\u2581Pom": 19015, "detect": 22036, "\u2581faithful": 26073, "\u2510": 31175, "\u8b66": 30348, "\u3060": 29883, "\u2581suppress": 22555, "\u2581Others": 19038, "Primitive": 24549, "mock": 8903, "minister": 26085, "~~": 4836, "\u2581ter": 3636, "kov": 12577, "alph": 18089, "\u2581Session": 18824, "\u0017": 30841, "erv": 784, "\u2581kann": 15557, "\u2581brothers": 12646, "\u2581labor": 7579, "\u2581fo": 12459, "regex": 19782, "\u2581diam": 10748, "/**": 1922, "\u2581locals": 23237, "ritz": 24855, "\u043a\u043e\u0439": 13108, "names": 5889, "\u0442\u0430\u0445": 27747, "\u2581greatest": 9932, "header": 4983, "\u2581Mans": 24800, "istically": 26588, "cil": 4872, "\u2581concert": 14560, "overline": 7595, "\"`": 8312, "\u2581pin": 9550, "\u2581Conference": 13115, "\u0441\u0441\u0438\u0439": 24416, "lab": 16847, "\u2581sidewalk": 27430, "\u016b": 28985, "\u17bb": 31061, "Tex": 17476, "\u2581getting": 2719, "Save": 11343, "Rev": 11165, "\u2581ke": 945, "esty": 16944, "\u5177": 29737, "\u2581Durch": 21915, "VT": 10098, "\u2581alike": 21892, "\u2581Color": 7831, "ston": 6549, "\u0445\u0440\u0430": 23163, "\u2581keep": 1840, "Mat": 6873, "\u2581beautifully": 27088, "stud": 13082, "\u5b8b": 31403, "\u2581Tor": 5727, "\u2581magnitude": 18658, "\u2581client": 3698, "\u2581guidelines": 18392, "\u2642": 29979, "\u2581listening": 9857, "irth": 4633, "\u2581hate": 7665, "Registry": 11494, "\u2581Pur": 13673, "\u2581Lo": 7300, "\u2581Amsterdam": 20970, "onte": 14266, "\u2581anxious": 19695, "\u2581factory": 10563, "\u2581countries": 5780, "MetaData": 26620, "abilities": 7773, "\u2581Hof": 24557, "\u2581fluid": 15144, "\u2581inspire": 26649, "gery": 10557, "\u2581\u00e2": 22506, "\u2581accessible": 14494, "reich": 10055, "\u2581skirt": 24784, "\u2581que": 955, "\u01c0": 31870, "SPE": 13607, "\u2581decrease": 17889, "sol": 22501, "\u2581ju": 5666, "\ud83d\ude05": 30379, "\u2581right": 1103, "\u2581inflation": 20613, "\u2581dam": 3207, "\u2581Bra": 11830, "refresh": 18968, "abc": 16612, "Horizontal": 22841, "ILD": 14010, "aye": 24195, "owski": 16987, "uki": 17299, "\u2581illustrated": 24210, "\u2581Israel": 6532, "total": 6828, "\u2581representative": 15312, "nh": 25011, "\u4f46": 29926, "reply": 16054, "\">\r": 14980, "hum": 18500, "\uc544": 29536, "\u12e8": 31737, "ako": 7050, "\u2581auss": 10471, "\u2581\\{": 12541, "\u10d0": 29134, "OPT": 17954, "\u2581drew": 11547, "\u2581equality": 17605, "ike": 2474, "\u2581intimate": 22772, "ITY": 4966, "ening": 3250, "\u2581however": 3545, "\u2581Ng": 27652, "\u2581tens": 19391, "\ud560": 29723, "\u2581synt": 13606, "\u5b9e": 29247, "\u2581Geb": 11848, "object": 2814, "()]": 21183, "\u2581Despite": 10191, "\u2581exec": 19626, "\u2581gioc": 27491, "ifts": 9037, "ientes": 17459, "tenant": 27423, "\u2581reviews": 10237, "\u2581Authors": 23088, "\u2581amongst": 18640, "cean": 8983, "Static": 13232, "\u2581arrest": 8431, "\u2581txt": 23027, "olver": 8867, "agy": 11644, "\u2581defaults": 20932, "\u2581struck": 11378, "\u2581acknowledge": 20199, "After": 9169, "\u2581Mi": 13609, "\u2581irq": 23747, "\u2581poi": 19325, "ype": 571, "\u2581cannab": 25761, "\u2581BUT": 16482, "\u1ec5": 30386, "INGS": 26559, "\u2581pulls": 25484, "\u2581twenty": 5969, "\u2581wo": 14277, "\u2581Rou": 17257, "\u2581author": 3227, "\u2581\u0434\u0435\u044f": 20720, "\u2581manufactured": 27516, "\u2581Client": 13522, "configure": 19425, "play": 1674, "Instance": 4005, "inate": 4296, "\u014d": 28934, "\u2581spread": 6049, "\u2581borrow": 14219, "\u2581Mend": 28683, "\u2581Las": 9134, "\";\r": 11880, "\u2581Identity": 28399, "no": 1510, "_)": 14479, "\u2581Incl": 18384, "\u2581Until": 17703, "\u2581shocked": 18809, "pgfset": 19107, "Linq": 25235, "Other": 15681, "TH": 3151, "\u2581Miche": 27891, "\u2581leave": 3530, "\u2581D\u00e9": 18833, "\u2581initiatives": 25060, "\u3068": 29316, "\u2581license": 6801, "ink": 655, "\u2581cheap": 9650, "bi": 6309, "\u2581Bon": 8500, "\u90ae": 30182, "\u2581\u0432\u0430": 13524, "ELL": 25035, "STOP": 26599, "MODE": 7227, "\u2581jak": 19755, "TLS": 20140, "Generator": 11453, "lst": 26816, "ijd": 15169, "\u2581Dublin": 22263, "\u2581arrays": 25532, "\u2581seems": 3969, "trm": 17800, "\u2581suspend": 14551, "\u2581dic": 19184, "ose": 645, "\u043e\u043b\u043e": 7208, "\u2581manifest": 11052, "\u2581delta": 14823, "isset": 11582, "\u0438": 28772, "\u2581unlike": 15343, "Points": 15628, "lean": 7962, "TagHelpers": 21399, "\u5929": 29354, "\u2581expression": 5782, "\u2581moder": 11323, "dl": 9778, "Threshold": 26436, "\u2581l\u00e9g": 19416, "except": 19603, "Connect": 16644, "\u2581sits": 19050, "\u2581utterly": 24354, "\uc99d": 30713, "\u2581woke": 19157, "\ub9c8": 30103, "\u2581ny": 13576, "\u2581Bre": 8285, "\u2581intended": 8926, "LOC": 9668, "\u2581approaching": 19940, "\u2581fitted": 21163, "\u2581sequence": 7768, "\u2581junk": 23690, "\u0151l": 15930, "].": 1592, "\u045b\u0435": 25464, "\u2581alg": 16814, "\u2581til": 9757, "\u2581sha": 23671, "\u2581HP": 22379, "\u2581Cop": 9321, "Environment": 15827, "\u2581gear": 13133, "\u2581O": 451, "\u534a": 30458, "structure": 18048, "\u00ebl": 25879, "\u2581kilom": 22230, "volume": 15392, ".).": 15745, "vb": 26875, "shell": 21678, "\u2581Festival": 10113, "\u2581ignore": 9303, "kim": 23159, "layout": 7630, "\u2581disappe": 8620, "\u2581left": 1749, "\u2581exped": 15575, "__.": 21149, "\u2581leather": 13508, "\u2020": 28932, "renderer": 20522, "\uc9d1": 31056, "\u2581Republican": 12294, "\u2581kter": 12904, "\u6e38": 30239, "\u2581hub": 14546, "\u2581vin": 18146, "\u7247": 29369, "\u2581prem": 5146, "vis": 3225, "FW": 18254, "\u2581internacional": 27025, "\u2581resolve": 11024, "alg": 12394, "\u2581environ": 14453, "ak": 491, "\u043a\u0432\u0430": 23476, "\u2581lev": 16100, "VENDOR": 24762, "\u2581Due": 16043, "\u2581put": 1658, "benfalls": 25780, "\u30c1": 29973, "\u2581{}\",": 26695, "\u2581Unfortunately": 13445, "\u2581Hospital": 12754, "Cell": 7740, "\u2581alle": 8477, "\u2581laws": 8427, "\u2581&(": 27029, "\u00e1ch": 28633, "\u2581deal": 3215, "Ab": 6570, "ifferent": 15791, "\u2581ris": 6599, "shire": 10359, "\u2581parad": 15904, "ound": 687, "::<": 23015, "\u2581landing": 14378, "\u2581pare": 13103, "\u0112": 31767, "spell": 26060, "\u266a": 31020, "weet": 12523, "\u9032": 30801, "yr": 4369, "\u2581Poor": 27970, "\u2581nails": 26539, "rics": 6720, "\u2581remarks": 24370, "\u25c6": 31237, "\u96e2": 31846, "\u7070": 31951, "\u2581coaches": 25360, "\u2581array": 2293, "types": 5630, "\u2581Leip": 26417, "uan": 6882, "\u2581Hel": 5424, "\u2581prepare": 10221, "\u2581Cry": 20254, "wallet": 23673, "\u2581bull": 10386, "\u2581XVIII": 23984, "\u2581suspension": 26542, "\u2581lazy": 17898, "uture": 8649, "\u2581Clean": 14510, "ated": 601, "\u2581EC": 21405, "FIN": 23178, "\u2581f\u00f6rst": 23722, "\u043c\u043e\u0432": 19264, "\u2581CHAPTER": 16399, "\u2581systematic": 26224, "Week": 21812, "',": 647, "ublice": 17185, "\u2581Das": 7029, "Compat": 7789, "imation": 8258, "\u2581Defense": 20774, "\u2581ve": 1773, "\u2581eliminated": 27546, "ifer": 7627, "\u2581vs": 7709, "sterreich": 17844, "\u2581Ill": 7942, "\u2581\u0434\u0435\u0440\u0435": 15902, "\u2581Alabama": 20339, "cut": 7886, "\u2581crazy": 9280, "\u2581contribut": 4913, "\u2581meets": 18487, "story": 18387, "adata": 3826, "uros": 22751, "Commands": 27458, "\u17b8": 31015, "\u2581PyObject": 18074, "onde": 13985, "\u2581colleg": 15955, "\u8fde": 29641, "\u2581educational": 14165, "\u2581chem": 7462, "\u901a": 29217, "OwnProperty": 22760, "\u2581och": 2634, "nbsp": 14089, "unct": 18181, "oking": 8992, "\u2581hospitals": 21737, "\u2581criteria": 15117, "\u2581Sax": 26974, "None": 5364, "Complex": 28274, "\ud2b9": 31684, "\u2581charm": 22533, "\u7fbd": 31475, "\u2581Detroit": 19784, "\u2581bout": 21726, "TING": 16567, "itate": 9647, "\u00f3ria": 21645, "\u00e4hr": 15072, "rsp": 25341, "\u2581jazz": 19460, "\u2581overse": 20319, "amerikan": 21788, "vin": 8830, "\u2581tokens": 16246, "\u2581perspective": 10403, "rend": 5082, "\u2581country": 2939, "\u2581prayers": 26742, "ctrl": 8022, "rown": 3329, "\ud604": 30205, "around": 20886, "TEXT": 9219, "\u7eb3": 31536, "\u2581formed": 8723, "\u2581aircraft": 11475, "\u2581'{": 22930, "<0x27>": 42, "\u2581Luft": 26821, "\u2581group": 2071, "ify": 1575, "\u00f1o": 6987, "\uc7ac": 30014, "Miss": 14252, "\u2581quad": 12618, "\u2581lamp": 21157, "\u2581Des": 2535, "\u2581writer": 6953, "\u0437\u0434\u0430": 10393, "\u2581universal": 14598, "\u2581captured": 13382, "\u7bb1": 30262, "\u2581Fellow": 23783, "atever": 4651, "\uce74": 30693, "\u614b": 31094, "yna": 22335, "\u2581tends": 21747, "\u2581structure": 4693, "\u2581nick": 17663, "BIN": 27576, "\u2581eggs": 14636, "----": 502, "\u2581pic": 11936, "\u0435\u0439": 5649, "\u2581therefore": 6166, "\u2581Albums": 28476, "\u2581imm": 4493, "\u4ef6": 29011, "ej": 15808, "izable": 11552, "ERCHANT": 12977, "Str": 3490, "\u2581Program": 7347, "remove": 4653, "izz": 5769, "\u2581rendering": 24921, "ennis": 7480, "\u2026]": 21888, "\u2581Gary": 18162, "orough": 11376, "\u2581Liter": 12870, "\u2581Barb": 25223, "\u2581Layout": 23479, "\u0422": 28875, "tocol": 4851, "\u2581\u044f\u043d\u0432\u0430": 22697, "\u2581autumn": 24818, "agle": 17968, "symbol": 11535, "\u2581regia": 19009, "\u2581STAT": 20824, "\u2581lesser": 26767, "ab": 375, "\u2581\u010d": 6612, "\u0432\u044b\u0435": 16072, "\u6ee4": 30489, "\u2581technologies": 14880, "\u2581sheets": 18763, "Stream": 3902, "\u5247": 31919, "Home": 14265, "\u2581cad": 13150, "\u2581cosm": 22482, "les": 867, "opol": 13376, "ielt": 14022, "\u2581Moses": 26625, "\u2581range": 2819, "\u2581JSON": 9292, "\u2581scripts": 26304, "\u2581\u0440\u0430": 2101, "\u2581kont": 21674, "\u2581sponsored": 28332, "messages": 16167, "VL": 23537, "\u2581leak": 24798, "\u2581shirt": 11480, "\u2581grabbed": 13300, "\u2581illustr": 8740, "\u2581keeps": 11478, "\u2581trem": 11248, "denly": 20357, "Lambda": 8023, "\u2581Gulf": 22622, "\u2581noting": 25222, "\u2581Raymond": 23540, "\u2581upset": 13265, "\u0447\u043a\u0438": 16333, "\u2581Craw": 27580, "\u2581\u00e1": 8533, "false": 3952, "gnu": 19588, "mo": 5326, "\u2581directions": 14278, "\u2581Australia": 6664, "\u2581stored": 11141, "En": 1608, "\u00eate": 14583, "END": 5000, "itar": 5098, "\u2581apart": 7413, "\u2581Nick": 10480, "\u0089": 31198, "\u2581p": 284, "\u2581trigger": 8366, "\u2581mal": 6125, "\u2581colleagues": 15137, "alter": 19831, "\u0250": 30469, "\u2581Julia": 19526, "\u2581wsp": 26114, "\u2581extensions": 18739, "does": 23727, "changing": 26181, "omr\u00e5": 24287, "jours": 22200, "\u66fe": 31676, "\u2581filed": 16691, "orm": 552, "\u2581Felix": 26463, "\u30a8": 29795, "\u2581beans": 21886, "\u2581establishment": 18413, "\u516b": 30440, "\u2581equipped": 17042, "ixa": 27375, "\u2581allow": 1914, "\u2581issue": 4291, "\u2581Cur": 6119, "\u2581That": 1725, "\u2581\u0441\u0442\u0438": 21626, "\u044b": 28829, "\u2581\u00e4r": 3554, "\u2581chocolate": 14403, "workers": 28256, "\u2581stated": 9256, "\u2581Viet": 11224, "\u2581fam\u00edlia": 25338, "Mut": 11874, "amt": 13805, "\u2581involvement": 20447, "GIN": 20856, "\u00b0": 28902, "ICES": 22285, "\u2581flesh": 14063, "HOME": 28547, "\u2581ops": 23002, "Headers": 11871, "\u2581setup": 9520, "\u8bfb": 29678, "\u06c6": 31252, "\u2581us": 592, "\u2581championship": 16928, "\u2581redirect": 16219, "PHY": 21852, "\u2581reject": 9198, "rying": 5125, "pe": 386, "\u2581participating": 22727, "Location": 6319, "writer": 11660, "frica": 23398, "\u2581commut": 24659, "\u2581behavior": 6174, "asure": 3275, "<0x8A>": 141, "\u2581s\u0103": 14377, "\u2581erh": 15455, "unregister": 28535, "\u2581model": 2229, "\u2581hommes": 27678, "\u2581fellow": 8828, "\u2581ric": 14037, "\u2581giugno": 25442, "\u2581/**": 2067, "\u2581layers": 13083, "\u2581worlds": 20742, "\u2581taught": 9621, "\u00edm": 9619, "joint": 16858, "\u043c\u0438\u0440\u0430": 23797, "\u2581scenarios": 22141, "Under": 16778, "guard": 16191, "Component": 3621, "UX": 12641, "\u2581\u0414": 2375, "ations": 697, "bool": 5416, "\u2581legit": 12700, "dtype": 18921, "sty": 22958, "\u2581\u0408": 22892, "\u2581chances": 14562, "\u2581\u043f\u043e\u043b\u044c": 27904, "position": 3640, "\u2581twin": 21809, "MAN": 16357, "idal": 17594, "\u0437\u0435\u0440": 20450, "imet": 21526, "\u2581Touch": 25086, "\u2581blond": 28506, "env": 4227, "\u2581involves": 14657, "\u0447\u0430": 1956, "issa": 13723, "\u2581p\u0159\u00ed": 23582, "\u2581Cambridge": 14751, "\u2581squeez": 19559, "\u2581list": 1274, "=\"../": 7704, "ettes": 26316, "\u2581recip": 14273, "\u2581teaches": 28488, "\u2581altri": 22861, "\u2581breast": 13886, "mail": 6645, "ROW": 19989, "pet": 6193, "selector": 15438, "\u2581COPY": 18517, "gan": 1262, "\u2581!=": 1283, "outh": 1881, "Hard": 23226, "\u2581protagon": 18521, "\u2581thesis": 23412, "\u2581Taylor": 11285, "\u2581Windows": 8955, "anged": 4185, "\u04a3": 31000, "\uc5ec": 29827, "atory": 5377, "\u2581floating": 15689, "\u2581Party": 6636, "\u2581rocks": 15599, "\u2581Aub": 27084, "\u2581\u041d\u0438\u043a\u043e\u043b\u0430": 23979, "IMAGE": 24947, "\u2581associations": 25963, "\u2581grows": 20382, "RANGE": 25632, "\u2581Williams": 10606, "\u2581searching": 12869, "built": 12747, "upid": 8064, "\u2581\u0431\u044b\u043b\u0430": 13342, "\u2581sit": 1943, "\u2581liqu": 9491, "for": 1392, "\\|_{": 26978, "\u7279": 29631, "common": 5348, "\u2581the": 272, "^{(": 6680, "dess": 15821, "\u1e24": 30231, "ecause": 4383, "\u2581Dun": 11578, "\u2581FOR": 6907, "\u2581currently": 5489, "\u2581spir": 14652, "Ip": 18917, "\u2581deploy": 15258, "\u2581ainsi": 13255, "\u2581autres": 17729, "\u2581GPS": 27571, "\u2581vil": 16767, "\u2581cough": 26245, "\u2581AND": 5771, "\u2581Billy": 14532, "\u2581Cool": 21359, "amine": 21928, "\u2581hands": 3038, "direct": 9423, "\u2581prospects": 26140, "Union": 20981, "\u2581farmers": 17130, "\u30ef": 30455, "\u2581likelihood": 24277, "rodu": 3399, "\u2581exper": 1469, "\u2581thus": 5884, "Appearance": 17977, "\u82cf": 30985, "\u2581\u0431\u0440\u043e": 19567, "\u2581cached": 19970, "\u968a": 31534, "\u00f3d": 9666, "\u2581remarkable": 16959, "etes": 10072, "ht": 407, "\u6784": 29612, "\u05d2": 29632, "\u0e10": 31348, "\u2581evolution": 10195, "\u2581ought": 13683, "\u2581realm": 18745, "wi\u0119": 24938, "holder": 8229, "\u0432\u043e": 1175, "Ids": 11307, "\u09b9": 31245, "glich": 21379, "avia": 16281, "\u2581pul": 10021, "\u2581extens": 22996, "ases": 2018, "ynchron": 14938, "\u2581graphics": 19347, "\u2581rhythm": 19834, "\u2581revenge": 25824, "\u2581calcul": 4900, "zm": 22432, "Columns": 15468, "\u2581throws": 4965, "\u2581m\u00e9": 13138, "commit": 14118, "\u2581memcpy": 27398, "STER": 23194, "/#": 27581, "omes": 28548, "\u2581bl": 843, "\u2581});": 2776, "\u6f14": 31010, "\u2581Vol": 5400, "ija": 10579, "LANG": 21482, "\u7387": 29886, "\u0448\u0435": 3647, "mediate": 12597, "\u2581Holly": 11512, "prod": 13135, "\u2581pandemic": 15749, "\u2581ate": 15732, "}_": 2427, "\u2581\"--": 19052, "\u0255": 30621, "\u2581rely": 15187, "\u0441\u043b\u0435\u0434\u043e\u0432\u0430": 23050, "\u2581vita": 23629, "\u2581territo": 26372, "\u2581correl": 22489, "\u2581ses": 6737, "strip": 18184, "\u2581Andr\u00e9": 24046, "orp": 16027, "\ud83d\udd25": 30590, "\u0645": 28954, "register": 5724, "\u2581frustrated": 25511, "\u2581Saud": 20605, "\u2581Roberto": 27996, "rm": 1737, "itch": 1986, "\u2581Agency": 18498, "\u7b11": 31364, "extract": 21685, "yp": 1416, "\u2581Ent": 6662, "person": 9701, "\u2581pr\u00f3": 22045, "icity": 25130, "auch": 21300, "\u2581effectively": 11466, "\u2581HTML": 13987, "\u2581clin": 8837, "\u2581Java": 11639, "\u2581heating": 20256, "\u0268": 30200, "\u2581Mine": 21134, "\u2581fet": 16685, "\u2581lead": 1736, "\u2581furono": 27403, "\u0624": 31456, "\u2581ethnic": 18433, "<0xDF>": 226, "ennial": 28339, "cout": 16429, "projects": 21080, "\u2581alla": 6625, "\u2581\u041d\u0430\u0441\u0435\u043b\u0435\u043d\u0438\u0435": 25089, "isson": 20947, "\u2581newer": 26259, "*}": 4237, "<0xE3>": 230, "\u2581widely": 12575, "Mir": 23925, "\uc678": 31132, "\u2581ii": 23302, "***": 16623, "Initialize": 22719, "\u2581\u00een": 5554, "<0x87>": 138, "\u2581Less": 11385, "\u2581\u0436\u0435": 9438, "\u0171": 28931, "\u2581funded": 25178, "\u0445\u043e\u0434": 16363, "\u2581promotion": 16771, "\u2581winner": 13842, "\u2581Brigade": 27861, "\u0447\u043e": 17795, "strcmp": 17789, "\u2581\u0417": 3940, "\u2581prototype": 25192, "<0xE9>": 236, "\u2581development": 4099, "illes": 11619, "\u2581fashion": 8844, "\u2581Assume": 28024, "arte": 16313, "\u2581Equipment": 26025, "\u2581BE": 10368, "\u2581Buch": 17680, "pul": 27818, "views": 13064, "Data": 1333, "created": 13574, "\u2581radi": 16893, "\u2581Mel": 6522, "\u2010": 29558, "\u2581habitants": 19414, "\u0456\u0434": 3319, "\u2581posting": 18448, "\u2581speed": 4975, "aglia": 25413, "\u2581appointment": 14351, "notation": 11627, "ustral": 16472, "Donald": 18379, "\u52d9": 31503, "\u043d\u043e\u043b\u043e\u0433\u0438": 25544, "\u2581Broad": 12807, "oe": 3679, "\u2581burden": 18396, "\u2193": 30036, "\u2581\u0441\u0442\u043e\u0440\u043e": 28392, "\u2581Bund": 12583, "\u2581\u0441\u0442\u0440\u0443": 27471, "\u2581complex": 4630, "\u2581inclined": 27115, "EEE": 20381, "Const": 8151, ",{\\": 26225, "PU": 7903, "\u2581DB": 11664, "\u2581Roh": 27224, "imi": 13840, "XXXX": 26550, "\u2581glimpse": 26754, "\u5f3a": 30283, "\u0456": 28813, "\u043f\u0443": 4873, "frequency": 27902, "\u00e8res": 9603, "\u2581shelves": 28201, "\u2581pref": 27718, "\u7565": 30223, "duct": 2478, "write": 3035, "\u2581cru": 5337, "<0x8B>": 142, "sys": 6609, "\u2581'./": 7283, "complete": 11192, "\u2581Oliver": 17979, "gy": 1495, "\u2581Raf": 21926, "\u2581fran\u00e7": 10530, "chat": 12932, "\u2581Geoff": 25136, "\u2581\u043e\u0441\u0442": 27635, "\u2581bek": 20691, "\u2581live": 2943, "\u0432\u044b\u043c": 24114, "Yeah": 12204, "Game": 8965, "where": 2956, "\u0447\u0435\u0441\u043a\u0438\u0439": 22681, "Fac": 20286, "\u2581realization": 27565, "EQUAL": 23296, "\u2581Just": 3194, "\u2581David": 4417, "tre": 4110, "\u2581\u0443\u0447\u0438": 22102, "oute": 3241, "\u2581\u043c\u0435\u0436\u0434\u0443": 16360, "\u2581decom": 18626, "Tile": 19379, ")--": 20560, "\u8fb9": 29860, "\u2581driven": 12215, "PH": 7209, "ensor": 4037, "\u2581container": 7640, "\u2581Clear": 16676, "underline": 15031, "ake": 621, "ingle": 5810, "\u2581Container": 25204, "\u2581educated": 20579, "\u2581(\\": 3566, "\u2581touched": 12527, "\u2581cul": 13463, "ieck": 27578, "\u2581Sort": 24822, "\ud50c": 31286, "\u2581virtually": 17626, "ted": 17850, "vue": 19732, "\u2581tv\u00e5": 22364, "\u2581Abraham": 22384, "\u2581Pet": 6728, "White": 18729, "\u2581magn": 9027, "\u2581Indian": 6735, "\u2581tried": 3851, "izing": 3864, "eur": 7093, "uspend": 16547, "\u967d": 31354, "bres": 13243, "\u2581break": 1721, "constructor": 18245, "amazonaws": 26919, "allel": 7802, "\u2581shell": 10043, "\u2581runtime": 16183, "\u2581Ship": 23168, "\u2581Romans": 28282, "('\\": 21421, "\u2581Sel": 11361, "\u2581Web": 6353, "Canvas": 20573, "\u2581regener": 26319, "Supported": 19306, "\u2581simply": 3768, "Even": 20520, "\u0e07": 29285, "\u529b": 29588, "\u00fcl": 8889, "Star": 14765, "\u2581Grid": 23255, "\u2581\",": 7717, "although": 27847, "andid": 4225, "bahn": 20125, "\u2581controlled": 12888, "\u2581Berg": 14813, "unate": 26655, "\u2581optimal": 15399, "\u2581M\u00fcn": 17308, "\u2581Python": 21366, "\u2581simplicity": 25233, "FLOAT": 22695, "icion": 26357, "\u01d2": 30896, "\u662d": 31844, "beans": 22672, "\u2581trump": 22945, "\u5171": 30055, "plement": 3793, "\u2581ep": 3769, "mc": 12961, "\u2581Memory": 19153, "\u0192": 30753, "\u2581Afghan": 16320, "\u2581pg": 23245, "\u0bbf": 29983, "\u2581dip": 14217, "\u4e01": 31577, "\u2581pie": 3447, "omp": 23947, "NOP": 26389, "\u986f": 30851, "`)": 25920, "\u2581listened": 15112, "\u2581inside": 3416, "made": 15248, "\u0442\u0438\u044f": 14207, "={()": 26931, "ned": 12097, "CCESS": 9476, "\u5e72": 30901, "\u2581box": 3890, "\u05de": 29112, "Cmd": 10490, "\u2581perpet": 18313, "\u2581Arena": 19433, "\u2581measurement": 15921, "ascade": 28134, "\u2581\u201e": 3018, "bing": 7551, "oot": 1541, "CONNECT": 27482, "ve": 333, "sym": 11001, "\u2581Beth": 17822, "\u2581mp": 18419, "\u2581univers": 5137, "\u2581Pier": 9101, "ixon": 17572, "\u2581Handle": 16736, "Delete": 6585, "\u2581unfair": 25340, "\u2581neighbors": 17014, "\u2581wrest": 17619, "\u2581trees": 7099, "argo": 8473, "lb": 16934, "\u2581Bulgar": 22390, "atform": 3272, "rq": 11916, "ship": 4760, "emph": 7883, "ech": 5295, "\u2581pt": 16533, "Build": 9458, "\u2581hero": 10725, "umped": 19999, "\u2581\u0404": 22514, "nd": 292, "ff": 496, "Not": 2601, "\u2581produ": 1219, "\u2581double": 3579, "\u6d41": 29642, "CHANNEL": 23299, "\u2581improving": 16752, "\u0434\u043e\u0432": 10410, "Sk": 9150, "Members": 23020, "PI": 3110, "\u2581goods": 11282, "\u043d\u044e": 17585, "aur": 3507, "\u2581Gemeinde": 15496, "confirm": 19928, "ascular": 28140, "\u8d39": 29919, "\u2581galaxies": 18072, "\u2581scenes": 14380, "riz": 8354, "\u2581dai": 22073, "\u2581Sim": 3563, "\u05d0": 29127, "\u2581Action": 9624, "<0x03>": 6, "\u2581power": 1982, "\u2581fourth": 10036, "\u2581logging": 15703, "\u2581User": 1247, "Pal": 14394, "\u2581interaction": 11186, "Alignment": 18307, "overn": 5794, "ByName": 23177, "---------": 25635, "\u2581Since": 4577, "\u2581hips": 25760, "\u2581unless": 6417, "\u53ca": 29965, "\u2581alias": 18960, "\u2581marine": 22983, "Handle": 6028, "ongo": 16964, "\u7dda": 30501, "\u2581Driver": 24420, ".'\"": 26773, "\u9053": 29432, "\u2581Null": 21238, "\u2581heated": 26853, "\u1e6f": 31610, "Contents": 18045, "alue": 672, "\u2581committed": 10252, ";\"": 24626, "esc": 8714, "\u2581searched": 22671, "\u2581Grad": 17252, "\u2581recorded": 9364, "\u2581extensive": 13571, "\u2581a\u00f1os": 11048, "LECT": 8785, "\u0432\u0435\u0434": 20183, "eries": 12865, "\u2581Magazine": 18238, "\u0119p": 21655, "Oper": 3935, "\u2581bom": 12793, "\u2581insisted": 16222, "itter": 4706, "hemal": 22678, "ashes": 14650, "od": 350, "je": 2099, "\u2581Stre": 4589, "\u2581cleaned": 23003, "\u2581qui": 3025, "\u2581Pear": 16397, "\u041a\u0430": 22117, "\u2581Rein": 24541, "\u2581beliefs": 16415, "\u2581Dallas": 19041, "\u2581enhancement": 27764, "\u8d8a": 30619, "\u6808": 30980, "\u5e93": 29581, "\u2581prejud": 27425, "Stage": 20783, "\u2581\u0430\u0431\u043e": 22860, "\u2581Van": 7647, "\u65ad": 29396, "unately": 21944, "\u2581Ident": 15220, "\u6226": 30842, "\u2581God": 2499, "\u2581Frame": 17624, "\u2581level": 2184, "configuration": 13925, "\u2581aqu": 11018, "\u008f": 29658, "ule": 1390, "bl": 1231, "\u2581rising": 11862, "servers": 21032, "BUFFER": 16406, "\u2581internet": 7865, "\u0254": 29410, "BPACK": 15947, "\ud83c\udffb": 30084, "\u2581clone": 17993, "\u1799": 31100, "\u2581Validate": 26768, "\u2581famous": 8376, "\u2581services": 3345, "\u2581Active": 15838, "n\u00edm": 21038, "\u84dd": 31084, "\u2581sectors": 23014, "ici": 2650, "\u2581courses": 12318, "\u2581signals": 15972, "becca": 24696, "\u0436\u0435\u043d\u0438\u044f": 17373, "mr": 17886, "\u0433": 28810, "show": 4888, "\u2581\u043f\u043e\u043b": 13577, "\u2581ot": 6957, "\u64c7": 31509, "Bet": 17044, "Fast": 23252, "Equal": 4283, "\u2581\u0442\u0438": 11002, "eding": 13917, "\u2581Template": 23469, "ExecutionContext": 20808, "gmail": 23769, "\u0418": 28892, "\u0152": 29504, "={'": 28309, "\u0443\u0442\u0431\u043e": 18953, "\u2581reserv": 6047, "\u2581Theater": 19725, "ered": 2092, "\u2581\u0430\u043f\u0440\u0435": 23242, "\u2714": 29772, "\u2581consent": 15134, "REAM": 18607, "insic": 16119, "ISD": 24375, "\u96c5": 31178, "nehmen": 22839, "\u2581victims": 13980, "\u2581interested": 6348, "\u2581Three": 9673, "\u2581variable": 7860, "sent": 16788, "\u2581increasing": 6488, "ilo": 10630, "\u2581scen": 6460, "\u2581module": 4597, "MI": 5877, ">',": 26161, "\u043a\u043e\u0457": 26962, "\u043c\u0435\u0440\u0438\u043a\u0430\u043d": 16503, "\u2581focusing": 18319, "handed": 27008, "DESC": 14085, "--;": 16850, "platform": 10470, "\u2581prost": 16306, "\uac12": 29755, "emon": 7884, "\u2581Effect": 16782, "plica": 15354, "\u2581bacter": 17884, "Reply": 23805, "\u2581frustr": 10856, "\u2581houses": 9626, "><?": 24787, "\u2581concrete": 12230, "\u2581numpy": 25637, "\u2581wholes": 25911, "isation": 5463, "opf": 24955, "\u2581prefer": 5273, "\u5f85": 29876, "dating": 19196, "options": 3538, "\u2581flex": 7584, "\u306b": 29174, "\u2581Rep\u00fablica": 26621, "large": 16962, "\u2581Ide": 14017, "\u2581DEF": 18899, "\u2581mechanisms": 23400, "\u2581cele": 5207, "\u0e36": 31211, "\u2581lub": 20157, "\u2581not": 459, "\u2581fixing": 28341, "\u2581continuous": 12734, "\u2581load": 3442, "\u2581Kingdom": 11508, "iggers": 21102, "\u2581zaj": 28193, "\u6846": 29861, "settings": 6465, "crypto": 23614, "\u2581tourists": 25313, "reset": 7159, "\u2581voted": 17420, "\u2581life": 1411, "\u2581moment": 2470, "\u2581Names": 27909, "orts": 15587, "<0x96>": 153, "\u2581scoring": 20310, "yers": 15624, "\u2581closest": 16424, "\u2581suggesting": 20223, "\u2581flav": 15637, "zas": 26613, "MB": 5953, "erie": 15519, "\u2581dabei": 28395, "\u5947": 30786, "\u2581Om": 17852, "\u2581waste": 9396, "\u2581receives": 21415, "icus": 20792, "\u25c4": 29643, "\u2581court": 5484, "\u63a5": 29076, "\u7532": 31272, "\u2581\u0421\u0435\u0440": 20547, "\u2581dla": 22056, "\u2581Initialized": 25728, "oring": 4590, "\u2581flights": 22447, "||": 9173, "tc": 8282, "etta": 16631, "\u2581rack": 24942, "\u2581cloth": 17673, "wc": 20894, "\u2581minutes": 3486, "<0x3F>": 66, "\u0bc7": 31641, "\u2581Fem": 18375, "\u2581its": 871, "amples": 9874, "\u2581Refer": 25958, "\u2581\u0441\u0442\u0430\u0440": 22235, "\u2581kg": 11455, "aking": 1288, "\ub9bc": 31165, "\u2581texture": 14024, "win": 5162, "\u2581Hash": 11300, "rim": 6413, "<0x5B>": 94, "ERR": 2986, "\u2581sou": 5271, "\u2581gran": 8494, "\u2581eth": 7511, "irk": 7316, "\u00f3g": 14376, "LOBAL": 18898, "\u2581poorly": 24122, "cn": 9832, "inely": 16297, "ULT": 4874, "\u2581flash": 10745, "\u2581style": 3238, "\u0150": 30265, "ecute": 5570, "\uadfc": 31341, "\u2581helps": 7263, "<0x6E>": 113, "Required": 10135, "adow": 5547, "nals": 25813, "\u2581book": 1820, "\u0f72": 31375, "vent": 1071, "Arg": 4637, "Rx": 27557, "\u2581overl": 27086, "\u2581doctor": 6676, "\u2581Bron": 8303, "j\u0119": 16898, "\u2581\u0456\u043d": 12109, "\u2581sue": 17423, "\u2581ass": 1155, "enz": 7322, "terior": 11476, "\u2581Lord": 6208, "\u2581\u00e0": 1289, "\u2581lots": 8532, "tip": 8451, "\u2581pou": 8631, "\u2581Pra": 16997, "newcommand": 20570, "\u79fb": 29553, "\u2581prices": 8506, "\u2581cameras": 18713, "\u2581remains": 7520, "\u2581gesch": 15781, "\u03bb": 29027, "\u2581perfect": 3659, "\u2581h\u00e4": 22800, "\u2581owner": 7162, "\u2581mild": 16583, "\u2581appropri": 6582, "\u2581vec": 13080, "\u2581Except": 20956, "chte": 24176, "\u2581estimate": 11679, "\u2581hundred": 4682, "\u2581ant": 2725, "\u2581supported": 6615, "\u2581blogs": 27855, "strument": 15549, "\u2581Fran\u00e7ois": 21976, "\u0088": 30463, "type": 1123, "<0xAB>": 174, "\u30cb": 30297, "\u2581completing": 23789, "xFC": 19507, "\u0432\u0430\u043d\u043d\u044f": 12267, "uffy": 23892, "\u2581toutes": 25386, "Xamarin": 27206, "King": 28262, "Validator": 16738, "kh": 15887, "\u2581disk": 11295, "erten": 28645, "CODE": 8233, "\u2581graduated": 19215, "\u2581indul": 24155, "\ub77c": 29700, ")$": 2322, "\ufffc": 31491, "\u2581voices": 14549, "\u2581sensation": 23413, "features": 14663, "\u2581\u0440\u0456": 15629, "tcx": 25931, "ush": 1426, "\u0dca": 31004, "\u1fd6": 30886, "gue": 19302, "sey": 7353, "\u2581parking": 12128, "\u514b": 30329, "NAME": 4833, "\u2581compat": 10794, "\u2581\u041f\u0440\u043e": 12119, "\u2581ain": 17523, "\u2581FL": 13675, "\u2581Ny": 20268, "\u2581differential": 21813, "\u2581recall": 8596, "\u2581Mode": 21748, "Pr": 3393, "\u2581Hamilton": 10904, "social": 22698, "\u0440\u0435\u0439": 16874, "\u2581Planning": 23542, ">@": 24406, "WAR": 9272, "soap": 19516, "hy": 5942, ")^{\\": 23022, "\u2581th": 306, "tim": 7452, "\u2581OTHER": 16897, "\u2581beloved": 21708, "\u5f62": 29711, "\u2581hire": 15270, "\u0142aw": 17225, "nia": 6232, "\u2581\u0443\u0447\u0435": 28472, "\u2581viol": 4107, "\u2581foundation": 13865, "\u2581exit": 7790, "\u2581nell": 16484, "\u2581suggestions": 17278, "}}$": 8112, "erek": 21499, "\u2581ecc": 27080, "\u2581Ji": 20155, "elect": 17960, "thlet": 10016, "\u2581\u0441\u0432\u0456": 25271, "Reason": 19801, "\u2581Shaw": 24489, "\u2581dei": 6511, "ering": 2131, "\u2581Punk": 24413, "hill": 19156, "\u2581danger": 6015, "\u2581employer": 18646, "\u2581cryst": 26148, "rale": 19289, "\u2581Thailand": 23561, "MED": 25428, "OFF": 9770, "\u2581distingu": 11731, "\u0444\u0435": 8633, "\u2581ub": 16179, "\u4f18": 30077, "iki": 7137, "\u2581conviction": 24594, "\u2581\u2581\u2581\u2581\u2581\u2581\u2581\u2581\u2581\u2581\u2581\u2581": 558, "\u2581gest": 7165, "\u2581bug": 10079, "\u2581consider": 1917, "_\\": 2801, "?,": 24542, "\u272a": 31667, "\u2581meditation": 23976, "ulin": 24726, "\u2581chain": 7650, "override": 23754, "\u2581blo": 3449, "P": 28753, "\u2581Match": 15127, "\u2581NAS": 18064, "UInt": 20103, "\u00b8": 30433, "\u521b": 29349, "\u2581\u043f\u043e\u043b\u043e": 17996, "\u2581junto": 21396, "bor": 3622, "ented": 12713, "\u9019": 30367, "\u2581players": 5117, "\u6e96": 31646, "Navigation": 17896, "\ubc88": 29756, "adel": 11156, "surface": 20942, "\u2581nit": 22292, "erc": 3773, "List": 1245, "\u2581candidates": 12179, "\u2581equals": 21588, "\ue934": 30597, "\u6768": 31617, "\u2581bub": 22723, "inement": 28012, "\u2581hass": 27017, "\u05bc": 29912, "\u03c3": 29016, "\u2581attack": 3517, "\u2581shouldn": 8869, "\u2581\u0412\u0435": 10854, "walk": 11287, "\u9057": 31889, "\u2581grinned": 21489, "akte": 22496, "ialized": 7271, "numer": 13372, "\u2581passive": 24246, "\u2581Bart": 14603, "\u2581SND": 27126, "ce": 358, "phas": 9722, "\u2581Yang": 23845, "schen": 12417, "iffs": 17820, "\u2581Roosevelt": 18043, "\u2581escrit": 21362, "\u2581defined": 4057, "\u2581violent": 14643, "Modules": 28377, "\u2581Can": 2418, "\u2581crop": 21948, "lia": 7261, "\u2581Par": 2316, "amiento": 15090, "\u2581quantity": 15069, "arc": 6527, "ws": 6420, "\u2581magaz": 21262, "\u0448\u043e": 9334, "??": 8908, "(\"<": 21784, "Term": 11579, "\u043d\u043e\u0457": 10625, "\u043d\u0456": 2077, "\u6982": 31137, "\u201c,": 15304, "\u9501": 30448, "\u2581Namen": 24333, "ctxt": 27567, "eled": 19691, "\u2581subur": 24832, "\u2581innovation": 16863, "\u021b": 28905, "\u2581available": 2632, "\u2581desc": 2283, "\u2581import": 726, "\u0441\u0442\u0443": 6777, "\u2581moins": 17775, "tn": 6888, "nim": 25106, "Criteria": 20719, "\u2581chunks": 28632, "\u2581trip": 6596, "\u2581higher": 4337, "grad": 6336, "\u2581\"/": 6938, "halten": 17397, "Dataset": 23941, "\u2581tak\u017ce": 25717, "\u2581aber": 11554, "\u0926": 30046, "\u2581della": 3503, "\u2581member": 4292, "\u2581fine": 4433, "\u044e\u0442": 7311, "\u2581hook": 8825, "rn": 27094, "\u2581marked": 10727, "\u2581appreciation": 26020, "eph": 27140, "\u2581sensor": 16082, "\u044f\u0432": 24548, "\u2581shiver": 25564, "\u2581extension": 8223, "\u2581INT": 13289, "\u864e": 31578, "\u2581Script": 15548, "\u80dc": 31830, "\u03be": 29956, "\u2581shorts": 27365, "\u2581Cloud": 13832, "heart": 14754, "\u2581Canal": 25772, "uction": 15029, "Rem": 5139, "\u2581Shar": 20071, "\u2581Come": 12578, "\u2581plays": 8928, "\u2581compliance": 9044, "Transport": 20036, "alse": 1048, "\u2581cir": 2761, "door": 9405, "far": 15057, "\u590d": 29284, "\u2581Bes": 8393, "\u2581touches": 28208, "\u2581reply": 10071, "\u2581))": 27302, "\u2581Evans": 22103, "nm": 14946, "\u2581minimize": 26518, "\u2581Figure": 9240, "\u2581juice": 18342, "assy": 21957, "\u2581UTC": 21811, ",$": 13948, ")--(": 24135, "listener": 21904, "STEM": 22526, "\u2581servers": 18515, "Ready": 18818, "\u2581crack": 9551, "\u2581Math": 6960, "ng": 817, "subscribe": 19128, "\u2581parish": 23539, ")>": 27364, "TIM": 16636, "rir": 28441, "\u2581areas": 5020, "\u2581Window": 7539, "\uff1a": 28994, "\u2581tr": 467, "rand": 12219, "\u0a3e": 31714, "craft": 6006, "\u2581partie": 13861, "\u2581accompanying": 23761, "OPEN": 20778, "\u2581opinions": 15028, "\u2581feel": 1601, "\u2581\u043c\u0435": 4055, "Station": 23558, "\u2581ath": 20238, "\u2581\u043c\u0435\u0441\u0442\u043e": 20674, "\u2581forum": 21516, "\u2581\u0432\u0435\u043a\u0430": 25960, "\u7f29": 30250, "\u2581reasoning": 24685, "\u2581laughter": 18211, "\u2581PRO": 7497, "){\r": 18055, "\u914d": 29253, "\u2581monitoring": 16882, "\u2581WH": 14897, "\u0e40": 29301, "\u2581buildings": 9702, "\u2581Com": 1124, "Colors": 25651, "off": 1769, "\u2581west": 7635, "igs": 11878, "\u2581fourteen": 25275, "zec": 24005, "\u2581wieder": 13125, "\u091c": 30196, "ei": 17392, "\u5ca9": 31581, "\u2581Glass": 23026, "mbre": 7979, "SERVER": 18299, "\u2581House": 4594, "\u2581hanno": 23618, "\u2581commented": 22191, "\u2581digest": 18922, "iska": 13475, "\u2581arts": 13480, "\u2581documentation": 12905, "\u2581pint": 20453, "CACHE": 22060, "\uba54": 29828, "\u2581demon": 5762, "airs": 3379, "]]": 7700, "ener": 790, "don": 11112, "icket": 10106, "\u2581Lim": 10609, "leg": 1946, "MARK": 27466, "\u2581giornata": 23362, "\uc120": 29900, "runtime": 8863, "\u2581whether": 3161, "cember": 4354, "\u2581memory": 4733, "\u2581Equip": 18141, "western": 22274, "\u5468": 29874, "\u666e": 30571, "ales": 2230, "vals": 13175, "osed": 2352, "\u2581allowed": 4670, "\u2581neutral": 14214, "sets": 6591, "lor": 5638, "igten": 27598, "\u00fdch": 8739, "\u2581agree": 5861, "\u2581Cow": 19283, "unches": 28625, "\u2581Het": 10172, "Report": 10493, "Empty": 6027, "\u2581refres": 24343, "\u2581membership": 14796, "\u2581spending": 9981, "\u2581\u043c\u0456\u0441\u0446\u0435": 26972, "Append": 13028, "\u6001": 29283, "ops": 2599, "\u2581unsafe": 15426, "\u2581Default": 9707, "\u2581partially": 19966, "FR": 9790, "\u2581creature": 15287, "Instruction": 18066, "\u2581Bass": 19730, "bil": 26702, "idade": 8669, "\u2581rem": 1003, "refix": 5770, "usage": 16052, "Bot": 25288, "\u6279": 30335, "\u2581motivated": 22403, "\u2581..": 8072, ")_": 14080, "\u2581company": 2496, "\u2581faded": 23716, "\u606f": 29069, "<0xE4>": 231, "\u2581Assistant": 21631, "\u2581scientific": 10469, "\u2581meters": 18776, "lez": 19557, "\u5712": 31299, "\u2581sheet": 12173, "der": 826, "\u2581fort": 5922, "artment": 4502, "science": 17819, "\u201d": 28838, "\u2581pr": 724, "\u2581Cab": 11357, "\u2581Referee": 17641, "textrm": 18118, "\u2581lifted": 11942, "\u2581Brow": 19332, "\u0540": 31638, "\u4e22": 31883, "ungle": 22082, "MEM": 9210, "EY": 17306, "\u2581bugs": 25454, "\u2581museum": 13041, "oirs": 27986, "\u2581clip": 13061, "ie": 412, "\u2581UN": 7922, "ena": 3594, "\u2581spot": 6297, "\u2581klub": 22782, "\u0446\u044f": 16407, "\u2581Anyone": 21012, "osh": 6643, "\u2581URL": 9066, "able": 522, "\u2581navigation": 18132, "Vers": 25423, "\u2581machine": 5599, "CI": 5726, "\u2581f\u00fcnf": 27373, "\u2581nort": 27737, "\u2581throwing": 15832, "\u63a8": 30063, "\u2581bridge": 9850, "Column": 4115, "\u2581PARTIC": 12942, "\u01ce": 29788, "\uc57c": 30263, "\u516d": 30467, "\u2581emergency": 11843, "iny": 4279, "\u2581generates": 26396, "\u00f6tt": 14521, "eti": 26834, "\u2581moving": 5272, "icker": 9253, "sun": 19875, "arto": 25969, "\u2581cast": 4815, "\u7e41": 31839, "\u2581Cash": 23439, "\u4f59": 30248, "payment": 18589, "\u2581Wilhelm": 19328, "\u0640": 29791, "ADDRESS": 25100, "\u03ad": 29271, "ident": 1129, "\u2581Im": 2236, "\u2581Dr": 2985, "\u2581resid": 12899, "irmingham": 24467, "\u2581gem": 15037, "\u0448\u0435\u0439": 22728, "\u2581sehr": 24188, "\u2665": 29664, "\u2581a": 264, "\u2581bored": 19739, "\u2581bush": 25516, "\u2581dramatic": 17296, "Net": 4428, "\u2581demanding": 21427, "\u2581cout": 19324, "<0xA6>": 169, "\u2581sure": 1864, "\u2581prosper": 20814, "\u2581details": 4162, "inda": 16224, "\u2581Iter": 20436, "units": 24653, "\u2581covering": 13974, "ensity": 5454, "\u2581Pull": 28440, "\u2581cult": 3056, "\u2581epis": 6030, "anta": 9092, "\u9b3c": 31435, "amin": 8255, "\u2581sem": 3546, "\u043d\u0435": 1185, "\u2581belief": 12519, "\u2581m": 290, "\u2581history": 3340, "wp": 9359, "\u2581Io": 25445, "\u2581pleased": 12846, "steps": 16005, "\u2581poz": 22571, "\u2581patches": 26961, "Global": 8985, "SOURCE": 17426, "anchor": 22222, "\u91cc": 29400, "\u2581booking": 23492, "allen": 24878, "\u2581contracts": 19178, "\u2581Didn": 27326, "\u2581Behind": 23779, "VI": 17102, "SU": 4711, "\u2581patri": 17668, "\u2581Ros": 8550, "\u2581scrub": 25429, "\u5ba4": 30763, "\u2581\u200b": 15758, "\u2581simpl": 9878, "\u2581wyd": 28225, "\u2581rac": 6567, "\u2581Durante": 20680, "eves": 22915, "\u2581Cache": 25103, "\u2581const": 779, "\u2581Ph": 1972, "\u5408": 29234, "Tab": 7560, "\u2550\u2550": 27743, "\u00a3": 28922, "ann": 830, "ube": 4276, "\u2581champion": 12264, "Un": 1733, "\u2581Nintendo": 27784, "\u2581published": 4775, "}]": 10157, "ITS": 20688, "\u2581Delta": 25220, "\u2581Attendance": 17741, "Walk": 25228, "\u2581http": 3550, "wide": 5734, "\u2581dort": 19187, "un": 370, "\u2581profess": 3778, "\u2581rif": 12950, "\u2581dual": 13350, "\u2581endl": 20604, "usch": 26628, "typ": 23306, "\u2581YO": 10834, "\u2581Coff": 22967, "\u2581\u00c1": 10415, "\u2581politique": 19885, "partial": 4364, "collect": 16077, "\u2581rais": 4471, "\u0e35": 29560, "elly": 9985, "\u0c41": 31335, "Receiver": 26591, "\u2581civ": 13269, "\u4f1d": 31884, "istration": 8585, "psilon": 6000, "ness": 1467, "\u2581Les": 4573, "Flow": 13444, "\u2581Shir": 25959, "\u2581prote": 2096, "peat": 15882, "\u2581buff": 4325, "</s>": 2, "\u2581Thanks": 8868, "\u2581p\u00e8re": 25210, "\u2581purch": 4744, "\ud83c\udf0d": 31057, "stat": 5975, "\u2581moist": 17261, "\u2581district": 7181, "\u2581BM": 20179, "ablo": 22866, "\u2581intent": 8284, "\u2581Admiral": 23895, "\u044e\u0442\u044c": 14611, "\u2581abort": 13515, "ailing": 16615, "\u2581translated": 19004, "\u2581cr\u00edt": 27965, "\u2581depicted": 28264, "\uc801": 30151, "\u27e9": 30216, "\u627f": 30761, "\u2581Ale": 9766, "\u012a": 31322, "\u2581)": 1143, "Sum": 9881, "5": 28782, "\u2581activate": 27854, "Mix": 26388, "\u0445\u0456": 25664, "xD": 18915, "mm": 3221, "\u2581stone": 7253, "ahl": 7010, "\u2581Monte": 14706, "\u2581Drop": 22732, "rightarrow": 6951, "\u2581easy": 3411, "\u2581journey": 8123, "\u2581imprison": 23711, "\u2581across": 2673, "bs": 1816, "\u2581chemicals": 24920, "\u7981": 30415, "\u2581intel": 9568, "\u2581makeup": 19781, "\u2581Hy": 10540, "=": 28746, "\u05da": 30245, "\u2581usb": 17075, "\u0493": 31023, "\u2581enormous": 15322, "\u2581PP": 27051, "ua": 3772, "\u0458": 28855, "\u0564": 31344, "extra": 13539, "\u2581Czech": 19857, "FS": 6934, "\u2581Origin": 19093, "pag": 19383, "\u0437\u0438": 3020, "\u2581straightforward": 20361, "\u043c\u0438\u0440": 20549, "LIST": 11155, "ISTER": 22633, "\u2581placeholder": 17455, "\u2581harsh": 18138, "\u2581sentences": 23748, "\u2581((": 2743, "\ub9ad": 31318, "CLUD": 16613, "\u0432\u0435\u0434\u0435": 14398, "\u2581PropTypes": 28602, "\u2581peut": 12122, "\u00e5g": 17843, "\u2581pipeline": 16892, "\u2581Reserved": 23182, "ries": 2040, "\u2581dude": 16924, "\u2581families": 6812, "iting": 4328, "\u2581pressure": 6403, "Omega": 6326, "\u2581ba": 15771, "CEPT": 19951, "\u00e5": 28851, "\u2581sigu": 19846, "\u2581forcing": 20504, "\u2581Drupal": 22580, "\u2581packets": 26443, "km": 8251, "wire": 20934, "\u2581obvious": 5444, "Lim": 24241, "\u2581Hub": 15969, "\u00e4nger": 22436, "\u2581li": 635, "\u2581Shel": 18601, "\u200d": 29274, "illance": 22740, "\u2581assure": 25510, "\u2581Thought": 26142, "\u2581decid": 26208, "\u2581sung": 27173, "\u2581press": 2944, "\u2581assembled": 26309, "\u501f": 31626, "\u4fdd": 29321, "\u2581Generate": 26075, "asury": 26440, "\u2581corrid": 17518, "ienen": 20597, "\u2581sum": 2648, "\u2581performs": 25597, "ival": 3098, "ellschaft": 20250, "\u2581h": 295, "tb": 14238, "\u2581einem": 7026, "\u2581lb": 23441, "\u2581Ba": 9236, "\u2581paint": 6192, "\u2581Mountain": 15228, "\u2581devient": 23125, "\u2581Home": 6434, "\u2581recent": 5391, "\\+\\_\\": 26382, "\u2581\u00c0": 13193, "scriptions": 18673, "ograf\u00eda": 18687, "\u2581\u0448": 5486, "\u2581Jun": 6641, "\u2581excl": 5420, "\u2581gri": 15854, "anda": 5904, "\u2581\u043b\u0435\u0442": 17761, "Available": 18949, "\u2581indent": 23567, "urope": 2989, "\u2581votes": 12768, "ev": 828, "\u2581pocket": 10585, "gly": 13127, "iddleware": 16952, "\u2581surv": 5231, "\u2581hel": 1172, "\u2581pian": 21624, "isms": 10821, "\u2581passengers": 18796, "\uf0b7": 30659, "\u98a8": 30803, "\u2581\u041e\u0431": 22744, "\u2581retained": 25764, "\u2581digit": 21656, "\u2581\u0447\u0435\u0440": 21592, "checkbox": 22173, "awt": 17402, "\u2581dish": 14523, "ovie": 12347, "\u6771": 30366, "yk": 27816, "CAM": 21480, "LOAD": 10614, "\u2581\u0433\u043e\u0440\u043e\u0434": 22123, "\u2581noble": 19343, "\u2581Properties": 23774, "ogle": 2721, "\u955c": 31555, "\u2581{\r": 1969, ">:]<": 15880, "\u2581influenced": 19927, "\u2581subsequently": 18410, "\uc788": 29604, "\u2581BSD": 26409, "eking": 25447, "runner": 22065, "unused": 20961, "\u2581d\u00e9velop": 21226, "ermo": 27252, "-------": 25702, "\u2581mountain": 10660, "\u2581Win": 11035, "\u2581doubts": 28687, "orney": 10899, "\u7f13": 29843, "template": 7488, "\u2581Pedro": 18444, "\u2581blow": 9716, "\u2581resc": 11532, "\u2581\u043f\u0440\u043e\u0444\u0435": 21818, "\u2581$.": 10884, "Handler": 4189, "retry": 23608, "}\\,\\": 26758, "\u2581naval": 23850, "<0x18>": 27, "\u2581Shakespeare": 19155, "\u62cd": 30860, "hline": 9208, "GU": 25459, "\u2581orders": 8636, "\u2581billion": 8737, "ares": 4585, "ovi\u0107": 22006, "visor": 16529, "\u7cbe": 30170, "\\|": 10729, "\u2581territory": 14293, "perm": 13781, "t\u00f3": 9709, "\u0441\u0442\u0438": 2266, "ifies": 8961, "Bind": 12741, "\u2581kter\u00fd": 28162, "bably": 14472, "\u0445\u0430": 5327, "IST": 8048, "\u2581pounds": 14090, "\u0e39": 29976, "\u2581leur": 10441, "wald": 26246, "\u2581\u2581\u2581\u2581\u2581\u2581\u2581\u2581\u2581": 2600, "\u2581gle": 13123, "\u2581stadium": 24096, "\u2581mism": 25279, "\u2581install": 4430, "\u0306": 31651, "\u2581eligible": 18711, "Le": 3514, "cca": 14698, "ension": 2585, "\u0e18": 30057, "\u018f": 31557, "raft": 2869, "lected": 2344, "\u2014": 28821, "\u2581jealous": 21176, "\u2581Hi": 15359, "\u2581Azure": 24769, "\u2581ok": 3614, "\u2581Call": 5529, "\u255d": 30494, "ellan": 22661, "uri": 6395, "\u2581coastal": 27809, "\u2581Agent": 23393, "tyard": 27463, "\u5065": 30945, "\u2581Donald": 14696, "\u6069": 31866, "\u0301": 28949, "loor": 9527, "UNKNOWN": 24652, "\u2581circuit": 15306, "F": 28765, "\u836f": 31793, "\u2581\u0430\u0432": 8664, "members": 20672, "\u043d\u0438\u0435": 2676, "Tool": 6778, "Sm": 10259, "iph": 16030, "\u2581f\u0151": 25486, "\u77e9": 30679, "poses": 9339, "serts": 27339, "abor": 3226, "\u2581concentration": 15987, "\u2581Br": 1896, "\u2581practical": 11118, "\u2581Natal": 23675, "attachment": 28150, "\u2581during": 1938, "Listen": 17705, "\u2581attendance": 25269, "\u00e9g": 4970, "HEADER": 23685, "\u2581portion": 11580, "without": 20795, "FAIL": 12546, "\u2581stor": 20945, "\u2581Tower": 19895, "center": 5316, "output": 4050, "\u99c5": 31018, "\u2581obligations": 26405, "isk": 2606, "ribe": 5748, "angel": 10621, "Rad": 9771, "<0xCD>": 208, "cido": 20234, "\u2581loudly": 28003, "\u2581acquisition": 23011, "yd": 3389, "\u2581diz": 28014, "\u2581September": 4074, "\u2581Hughes": 26419, "\u2581Inc": 5671, "pin": 10002, "\u2581Ly": 10319, "\u2581reducing": 17032, "Analy": 27554, "\u2581**\"": 24079, "\u2581Records": 10704, "\u2581rate": 4338, "\u00f6rt": 26105, "\u2581Jackie": 28057, "panic": 19771, "Allowed": 23278, "\u2581donc": 19477, "\u2581thou": 28112, "\u2581smart": 7455, "\u2581basically": 10321, "\u2581lock": 4344, "\u2581september": 25494, "\u2581Insp": 27401, "\u2581composition": 15460, "\u2581Hampshire": 27616, "\u2581beat": 8239, "\u0014": 30721, "\u0421\u0421\u0420": 18140, "\u2581Astr": 25433, "\u2581achieve": 6619, "\u2581hack": 14413, "\u8b8a": 31518, "claimed": 19223, "ilia": 16712, "\u2581swing": 14088, "innings": 21543, "\u8f09": 31362, "Rend": 21544, "Framework": 15456, "\u2581Clark": 15006, "\u2581gl": 1272, "\u2581McK": 18346, "\u2581wars": 19270, "bidden": 20350, "\u2581believe": 3091, "\u2581lapt": 16925, "\u2581neutr": 25296, "oven": 8722, "\u604b": 31472, "\u2581\u00b1": 22768, "\u2581ident": 2562, "\u2581breeze": 24284, "<0x5D>": 96, "\u6d4f": 30796, "secut": 8765, "GENER": 26010, "\u2581Hur": 15697, "\u2581tort": 12703, "feld": 15727, "\u00e1n\u00ed": 16345, "acyj": 24063, "AMP": 17558, "\u09a1": 31388, "\uc785": 29429, "iju": 17411, "\u2581economy": 8725, "environment": 21680, "\u2581raises": 26721, "\u2581apr\u00e8s": 12986, "\u2581slowly": 7160, "\u30e4": 31234, "\u2581printf": 11566, "\u0432\u0430\u0432": 14215, "\u2581CP": 16571, "\u0396": 31879, "Ign": 12934, "Ms": 16023, "\u2581skip": 8583, "Cl": 1199, "\u2581HT": 7260, "cmd": 4458, "\u2581hon": 3243, "\u2581Mal": 4380, "\u2581moved": 4142, "otto": 15034, "\u2581encour": 6191, "IDE": 15087, "\u2581knock": 13476, "Transform": 10143, "\u2581nose": 9948, "\u2581Vien": 21136, "\u2581\u043f\u043e": 1051, "\u2581try": 1464, "im": 321, "\u2581Wood": 8010, "\u2581expl": 1949, "\u2581landed": 16787, "\u043a\u0440\u0430\u0457": 11292, "td": 2447, "Limit": 13063, "getContext": 26947, "\u2581\u0424": 4111, "ank": 978, "\u2581adoption": 24056, "\u2581trait": 10610, "\u0161": 28873, "\u043f\u0438": 2749, "ceived": 9110, "\u2581survival": 16856, "\u2581situ\u00e9e": 27250, "integr": 16273, "\u2581browser": 11806, "You": 1976, "iedad": 26446, "igious": 25390, "\u0c02": 31548, "?(": 21185, "aton": 14434, "Two": 13849, "invalid": 10702, "jj": 23659, "\u2581refresh": 19070, "<0xD1>": 212, "\u0432\u0456": 4093, "\u2581finger": 9728, "tokens": 20228, "ambda": 2566, "\u00e7o": 15309, "ww": 1566, "\u2581BBC": 16309, "\u7d00": 31614, "\u2581kindness": 27404, "copy": 6541, "Extra": 18982, "\u2581Molly": 28006, "))\r": 14668, "ih": 4371, "\u2581Marcatori": 27916, "imit": 8381, "Category": 9633, "rav": 20524, "\u2581Next": 8580, "fund": 23158, "\u96e8": 31115, "isValid": 28390, "\u1e29": 31913, "\u2581Plan": 9116, "\u043e\u0432": 14592, "\u2581appropriate": 7658, "rente": 17228, "\u2581smile": 6458, "lished": 2926, "\u2581honor": 9512, "icating": 27623, "hew": 10345, "\u2581fighter": 23865, "DateTime": 11632, "\ufb02": 31473, "\u2581\u043d\u0435\u0437\u0430": 27476, "SCAN": 27849, "ETH": 21138, "\u2581courts": 18025, "\u2581spaces": 10599, "alloc": 4924, "\u2581tir": 24532, "\u0408": 29033, "\u2581\u00bf": 18297, "\u2581inspired": 11971, "\u2581polit": 2419, "\u5185": 29188, "\u2581nor": 4678, "etr": 12182, "Timestamp": 15948, "\u2581prince": 20180, "cke": 18727, "\u2581image": 3469, "circ": 9565, "\u2581end": 948, "\u2581Ark": 17965, "\u53d1": 29099, "oter": 26511, "\u2581\u0435": 2385, "\u011bl": 27447, "ond": 1089, "Family": 17170, "\u2581elsewhere": 14816, "ceptions": 13346, "Field": 2297, "\u2581tree": 4718, "\u2581Leg": 5993, "atti": 16708, "\u2581atmosphere": 13789, "\u2581indu": 10420, "NonNull": 22247, "wall": 11653, "scription": 6811, "'.$": 19613, "icking": 16402, "\uc22b": 31330, "\u2581stopping": 17203, "\u043d\u0438\u043c": 8895, "fin": 3013, "RATE": 23996, "PM": 8597, "distance": 18122, "\u2581auth": 7565, "\u2581compared": 6731, "\u2581female": 7742, "\u2581roots": 14766, "\u0098": 29941, "\u2581Director": 9298, "ACE": 6116, "\u2581dass": 8595, "prevent": 21129, "\ud83c\uddf8": 31818, "\u2581translate": 17824, "\u2581mother": 3057, "\u2581murder": 6832, "\u2581Stan": 9034, "\u2581thats": 26748, "\u2581\u043f\u0440\u043e\u0433\u0440\u0430": 23462, "stan": 13511, "\u2581Stream": 15915, "\u25b2": 29760, "\u2581intelligence": 10895, "sv": 6437, "\u2581dismissed": 23231, "ically": 1944, "(@": 10680, "\u2581Bod": 18555, "\u2581\"</": 23616, "\u00fc": 28837, "Group": 3094, "\u9c7c": 31681, "\u2581fluct": 19363, "\u0419": 28996, "asia": 28038, "kernel": 11694, "isto": 19074, "Mad": 22762, "\u2581princess": 28313, "pool": 6474, "\u2581SPE": 16758, "\u2581scholar": 14566, "VED": 27198, "\u2581COMP": 22093, "\u2581Por": 12401, "\u0440\u0438\u0439": 16278, "\u2581gets": 4739, "\u8d1d": 31124, "\\!": 24835, "\u2581\u0444\u0443\u043d\u043a": 28668, "roid": 2938, "cken": 18422, "make": 6539, "\u2581kat": 25345, "replace": 6954, "async": 10869, "\u2581seguito": 21613, "werk": 16817, "\u2581Thor": 20516, "\u2581bund": 22978, "\u2581phase": 6896, "\u2581boots": 15674, "umper": 26089, "\u2581python": 21966, "ig": 326, "\u2581separately": 22264, "awk": 22527, "ching": 11097, "idents": 6640, "ulas": 21541, "\u2581focus": 3232, "hf": 26990, "\u2581anth": 20019, "\u2581\u0441\u0442\u043e": 11212, "\u2581stepping": 25719, "\u2581leads": 8681, "<0xCA>": 205, "\u2581pending": 15466, "\u2581fier": 16307, "\u2581n": 307, "\u2581perm": 4069, "\u2581Car": 2364, "\u2581rever": 21704, "\u2581elite": 20278, "Pattern": 11372, "\u2581\u00e9s": 4275, "\u2581\u0430\u043b\u0435": 28497, "ske": 26254, "\u2581techniques": 9804, "IM": 4019, "\u2581\u043d\u0438\u0445": 25071, "\u2581ligne": 21043, "HT": 3671, "scriptstyle": 26715, "\u2581hard": 1856, "tha": 15716, "ious": 925, "\u2581siendo": 27012, "\u73b0": 29419, "\u2581Kay": 17399, "\u2581Plant": 18044, "clusive": 21981, "\u8861": 31632, "\u2581Kan": 14748, "esk": 19657, "Simple": 13256, "OL": 3064, "\u6740": 31168, "\u2581Round": 15042, "\u2581\u0441\u0435": 2310, "}}(\\": 20960, "\u2581origins": 26081, "\u2581operations": 6933, "\u2581urb": 26243, "<0x29>": 44, "\u2581VII": 20983, "INVAL": 7049, "\u2581pi": 5548, "uty": 14998, "\u2581cluster": 9194, "\u2581Interest": 20059, "\u2581vill": 4314, "\u2581Hat": 23792, "\u2581runs": 7825, "rez": 11223, "Backend": 21378, "\u2581//\r": 26083, "\u0101": 28930, "Ten": 22415, "\u2581copper": 21569, "\u0159i": 28180, "\u1798": 30264, "\u2581Ga": 11131, "dup": 20267, "strict": 17354, "\u2581desire": 8646, "esto": 10631, "\u2581*/,": 26349, "\uc73c": 29583, "\u2581entre": 3913, "\u2581Street": 5383, "dm": 10855, "ohn": 1953, "chie": 3960, "\u2581Gal": 6639, "\u2581profound": 19327, "\u1ec3": 29910, "\u2581nearest": 17403, "\u2581keeping": 7603, "ahr": 8775, "\u2581opening": 7032, "\u2581juillet": 18458, "\u2581Prime": 13321, "\u2581attitudes": 27044, "\u2581urg": 13839, "\u2581ice": 7515, "/\"": 17713, "\u2581Sri": 23167, "\u2581stiff": 16516, "|": 28766, "\u786c": 31483, "\u2581JS": 16315, "\u2581producing": 15345, "erves": 20433, "Parse": 9961, "\u2581wondered": 10662, "It": 1313, "\u2581Qual": 9480, "\u2581Pu": 23078, "ORT": 2934, "\u2581buffer": 5496, "\u2581Go": 3187, "\u2581nat": 3044, "\u00e9ra": 18924, "\u2581CA": 9461, "\u2581Francia": 19852, "\u3067": 29230, "\u2581presentation": 14909, "ulates": 26885, "\u0b95": 29856, "\u202c": 30587, "\u2581Singh": 24442, "\u2581bars": 13529, "ici\u00f3": 23840, "Section": 11268, "\u2581institut": 9557, ">)": 12970, "\u7956": 31499, "\u2581pret": 9525, "n\u00edch": 21331, "fw": 13655, "\u672c": 29119, "i": 28710, "\u2581m\u011b": 18076, "\u2581Hope": 12297, "\u043d\u0430\u043b\u0438": 24229, "\u2581kill": 4015, "\u2581reminder": 25563, "\u2581bags": 14616, "ney": 2705, "\u2581speak": 4085, "\u2581Cre": 19271, "\u2581Apr\u00e8s": 21630, "rees": 7803, "\u2581interest": 2145, "gon": 28684, "occ": 21450, "\u2581long": 1043, "[_": 24655, "Lang": 22323, "\u2581Natural": 16725, "market": 15594, "\u2581royal": 13753, "\u2581took": 2056, "ifact": 17634, "\u2581engineer": 18112, "\u0407": 29879, "\u00fcg": 24381, "\u2581Pas": 12184, "\u21a9": 30954, "comb": 17305, "i\u00e9n": 8603, "Errorf": 12460, "chestra": 18357, "\u0c3f": 31227, ".\"]": 28659, "\u2581responsibility": 9680, "\u2581\u043e\u0431\u0449\u0435": 18556, "lev": 2303, "\u2581skull": 21181, "\u2581sometimes": 4662, "XFF": 19881, "\u2581desires": 23545, "mobile": 19022, "\u770c": 31432, "\u2581Arn": 17385, ">(": 3323, "atem": 24359, "<0xAA>": 173, "\u0432\u0438\u0434": 27190, "\u2581Profess": 8029, "\u0002": 30551, "reen": 1915, "\u2581gold": 5014, "\u2581veh": 5639, "<0x6A>": 109, "elled": 6099, "\u2581attacks": 10813, "conv": 13338, "\u2581aveva": 22405, "\u2581South": 3658, "Upper": 22225, "\u756a": 30815, "long": 4353, "\u2581\u043f\u0440\u043e\u0446\u0435": 23146, "\u2581Nie": 27805, "avax": 6598, "\u2581\u043f\u0440\u043e": 2127, "Prim": 18888, "Exec": 20002, "lane": 25124, "\u2581\u00e1rea": 26707, "YN": 26687, "\u2581Focus": 24408, "irts": 9338, "\u2581green": 5344, "Mark": 8157, "bie": 12868, "iative": 26938, "\u2581sand": 6830, "\u2581(\u201c": 27156, "ns": 2925, "socket": 14210, "\u2581Loren": 23658, "\u2581rugby": 27437, "oll": 793, "preter": 21345, "\u2581(\"": 4734, "\u0e1c": 30416, "\u2581Re": 1298, "\u2581\u0434\u043e\u043b\u0436": 27952, "Life": 21329, "wt": 13845, "feed": 16454, "<0xC4>": 199, "\u2581comes": 3435, "Tim": 9834, "\u2581blocking": 22538, "\u2581-\\": 12300, "\u0091": 29792, "abil": 6572, "uz": 3533, "\u2581responses": 14915, "\u2581*\"": 20694, "iss": 815, "\u2581Pac": 9682, "\u2581Fat": 20373, "\u2581loader": 27417, "\u2581\u043a\u043c": 12400, "ilar": 3052, "\u0434\u0435\u0439": 17650, "transaction": 14556, "dt": 7051, "ajor": 2577, "assign": 12895, "}({\\": 22845, "\u00e9r": 3160, "\u2581student": 5716, "\u2581mind": 2273, "\u2581shake": 17138, "\u2581nest": 17875, "ixel": 7797, "Est": 14644, "\u2581Wars": 12096, "\u2581since": 1854, "\u2581Hoff": 26171, "\u2581Grey": 22064, "\u4e03": 30733, "\u2581fun": 746, "estern": 5190, "\u2581Yu": 26424, "\u2581genre": 15926, "):\r": 20358, "propri": 23232, "\u2581home": 1611, "eu": 15810, "\u2581hide": 9123, "\u101b": 31808, "\u2581sight": 7739, "ivia": 19278, "\u2581contained": 10932, "\u2581consideration": 15301, "ands": 2351, "\u2581dr": 1605, "\u0e1b": 29718, "Sub": 3540, "gomery": 27327, "\u6c60": 30647, "\u2581jo": 5821, "efined": 4761, "\u2581cum": 14931, "menu": 6729, "smithy": 23512, "\u2581Maine": 23579, "polit": 20424, "\u2581compris": 25093, "\u2581forming": 20345, "\u2581zero": 6129, "Capacity": 28004, "\u2581Peru": 28230, "\u2581bench": 11984, "\u2581Summer": 13211, "\u2581shade": 19759, "ace": 561, "\u2581vm": 13337, "\u2581contempl": 23010, "\u00e1b": 25657, "\u9662": 30370, "osing": 8461, "\u2581Rev": 4375, "<0x79>": 124, "\u2581Valley": 10509, "\u2581inventory": 19930, "\u2581Meeting": 25961, "\u2581pri": 3061, "\u2581moon": 11375, "\u9806": 31717, "Tracker": 21682, "HashMap": 20352, "\u2581puzz": 15386, "Graph": 8380, "\u2581Mag": 4642, "CPU": 16102, "\u0434\u043e\u043c": 13503, "\u2581director": 6859, "\u2581target": 2718, "\u2581Gust": 18662, "ders": 10802, "\u2581l": 305, "pliers": 18403, "\u2581DA": 13060, "ris": 3665, "\u2581dragged": 20212, "\u679c": 29098, "\u2581ging": 21534, "\u2581Gol": 27085, "Struct": 10753, "DEBUG": 8297, "\u2581any": 707, "\u043c\u043e\u043c": 27646, "\u30b0": 29654, "\u2581sound": 2622, "\u2581unconscious": 21580, "never": 8174, "neo": 17462, "\u2581original": 3493, "BLOCK": 15768, "\u2581sib": 18866, "\u2581Survey": 24004, "\u2581Self": 8916, "stances": 8732, "\u2581commonly": 14473, "\u045b\u0438": 25213, "\u0432\u043e\u0434": 9798, "!*": 24240, "\ub429": 31367, "\u2581Esp": 10576, "\u2581rob": 7006, "\u0441\u0442\u0443\u043f": 15796, "emic": 10771, "andra": 13773, "\u2581derive": 24058, "\u2581scratch": 15147, "\u805a": 31897, "\u2581sought": 13033, "\u2581circa": 23607, "\u2581income": 7904, "\u2581laid": 10535, "king": 8328, "\u2581Tools": 26258, "tol": 20181, "\u10dc": 29701, "\u2581gym": 14310, "pd": 9885, "\u0413": 28872, "\u2581Will": 2875, "\u2581transl": 7254, "ulse": 17494, "\u5426": 29140, "\u00d8": 29287, "enable": 7235, "\u2581digital": 7153, "\u2581jako": 10128, "\u2581Northern": 12781, "\u043d\u043e\u043c\u0443": 13878, "\u2581\u0434\u0435\u043a\u0430\u0431\u0440\u044f": 26317, "\u2581denomin": 27876, "\u2581Study": 18463, "\u2581chips": 21968, "\u53f3": 29909, "update": 3818, "\u2581Oscar": 18650, "\u0432\u0438\u0447\u0430": 26785, "part": 1732, "\u2581chemical": 10845, "\u2581embed": 11271, "\u675f": 29790, "ability": 2437, "wise": 3578, "\u2581fruit": 10607, "\u2581Performance": 19859, "\u2581consumer": 12077, "\u4e86": 29105, "Usage": 16200, "\u2581Football": 13474, "\u2581Queensland": 28536, "\u0ba4": 30100, "\u2581mic": 15644, "\u2581LOG": 13930, "\u2581temperatures": 17991, "\u2581Individ": 19992, "Symbol": 9996, "MOVE": 23521, "\u2581World": 3304, "prototype": 6633, "\u2503": 30663, "ese": 3368, "\u8aad": 31109, "plied": 3002, "Alt": 19980, "\u2581technical": 10067, "\u2581Second": 7052, "\u8ba9": 30447, "\u2581Kor": 17872, "functions": 19659, "\u00e9ro": 18285, "\u2581ut": 3734, "\u2581Query": 16580, "timeout": 9761, "DATA": 7954, "\u2581Tow": 21906, "\u2581call": 1034, "ute": 1723, "ety": 4703, "\u2581hurt": 7350, "acia": 12990, "\u2581spraw": 24364, "Include": 26438, "\uff0e": 31181, "\u2581recruit": 20396, "\u2581tegen": 26602, "usammen": 14533, "\u58c1": 31797, "php": 2842, "\u2581clar": 16066, "\u2581Ku": 19698, "\u2581elegant": 20583, "Sche": 11960, "learn": 27082, "\u0435\u0432\u0438\u0447": 24792, ")]": 4753, "ARY": 10713, "analysis": 23206, "\u2581stroke": 14684, "clean": 11484, "LEAN": 26925, "\u2581goes": 4859, "\u8001": 30209, "\u2581calories": 24336, "neath": 20316, "\u2581Related": 23432, "\u2581wip": 16542, "\u2581sixteen": 24453, "\u2581education": 5362, "rupt": 4272, "\u2581anymore": 9229, "\u2581complaining": 26509, "Hel": 3733, "arb": 28343, "important": 24754, "\u2581htt": 2336, "\u2581promising": 22449, "\u2581philosophy": 13795, "\u2581ehemal": 24156, "\u2581Prim": 16059, "})}": 27276, "riter": 4178, "\u0218": 29344, "\u2581manner": 8717, "nal": 2340, "\u2581Heart": 14552, "\u2581\u043e\u0442\u0440\u0438": 27538, "ATE": 3148, "\u2581kennis": 15389, "neum": 28051, "Right": 7552, "\u2581delivered": 11448, "Spring": 24314, "\u2581recuper": 28109, "\u2581intr": 7677, "\u6b64": 29320, "}}^": 21308, "\u2581trust": 4893, "attrs": 15215, "component": 7451, "usqu": 13559, "\u0441\u043a\u0438\u0445": 7878, "CTRL": 14419, "\u3055": 29422, "ammed": 13555, "\u1ecf": 31233, "\u2581knows": 5960, "\u2581Sport": 11093, "WARN": 11865, "\u2581differently": 16841, "\u2581capital": 5565, "}^": 2381, "\u010e": 31461, "\u2581vector": 7206, "\u2581Bever": 28526, "\u2581Lit": 25003, "Login": 12611, "bum": 3237, "np": 8535, "=(": 9463, "\u2581racist": 19139, "\u2581way": 1069, "\u2581depends": 9618, "\u2581Pa": 8144, "pred": 10477, "\u2581Cris": 23523, "\u0130": 29336, "ago": 4567, "\u2581media": 4077, "HC": 16573, "\u2581Scottish": 17717, "estr": 25926, "\u2581Cyr": 26832, "\u2581\"\";": 11993, "PROPERTY": 28575, "\u0304": 30778, "\u2581childhood": 13159, "\u4f24": 31546, "\u2581benefit": 7949, "\u2581spo": 14444, "\u2581souvent": 28120, ">;": 10225, "\u041c": 28856, "AV": 9024, "ale": 883, "\u0e37": 30008, "\u2581Marvel": 26696, "\u2581Ts": 17718, "\u2518": 31652, "\u2581stare": 19696, "theta": 4280, "iti": 8236, "\u2581Crit": 16773, "bits": 7669, "\u0440\u0456\u0432": 18941, "\u2581shoot": 6041, "\u2581h\u00e1": 22176, "\u2581iOS": 23487, "\u2581\u0431\u0435\u0440\u0435": 19945, "\u2581Parameter": 26059, "\u7f8e": 29817, "abs": 4737, "release": 11023, "\u2581jul": 17521, "round": 888, "GLOBAL": 21742, "ending": 2570, "Query": 3294, "\u5668": 29180, "\u2581castle": 19007, "tot": 3183, "\u2581naam": 14276, "ief": 3417, "Destination": 23485, "\u620f": 30727, "\u2581absolutely": 7771, "\u00f5": 28925, "\u2581requires": 6948, "\"),": 3548, "\u2581Junior": 17876, "\u30ad": 29753, "+-": 22805, "\u2581templ": 5752, "ploy": 2193, "\u0275": 29102, "Index": 2359, "Allow": 20230, "\u2581tiles": 24903, "ERO": 20574, "ono": 5875, "ULE": 7857, "r\u00e8s": 22217, "could": 25327, "SK": 6754, "forms": 14367, "cheduler": 17474, "states": 17631, "\u6301": 29569, "INT": 2945, "\u2198": 29091, "\u2581muscle": 14540, "ental": 7540, "riet": 13769, "\u2581architecture": 13811, "\u2581s\u00e3o": 19947, "iero": 23419, "\uff5e": 30328, "\u2581ost": 19862, "\u2581\u2022": 3700, "\u2581snapped": 18190, "ay": 339, "\u041a": 28852, "\u2581em": 877, "\u60f3": 30023, "iral": 10097, "Job": 9610, "\u2581Haupt": 16730, "itarian": 17463, "\u2603": 31666, "\u2581Arc": 19733, "\u2581Gun": 20655, "\u2581\u0445": 6457, "\u2581Mark": 3655, "\u2581copyright": 9934, "\u2581lett": 9077, "\u2581Olympics": 21351, "\u2581collecting": 22852, "\u2581balcon": 26472, "\u2581\"%": 7919, "ulation": 2677, "\u2581vic": 13051, "\u2581Team": 6867, "\u2581surge": 24048, "\">&": 25260, "\u043a\u0440\u0435": 15113, "\u1ee5": 30268, "\u9675": 31593, "\u5979": 30715, "\u2581sons": 15103, "\u0105z": 24426, "\u2581resting": 25280, "\u0441\u043a\u043e\u0435": 12988, "\u2581src": 5069, "\u2581Bowl": 21484, "\u0432\u0430": 870, "\u2581n\u00famero": 20472, ")$,": 7927, "\u2581scient": 6269, "\u2581niveau": 26706, "\u2581cos\u00ec": 26052, "\u2581XII": 27811, "\u2581dell": 6332, "ILED": 17094, "\u2581negoti": 12060, "\u521a": 31319, "dispatch": 16202, "\u2581League": 6165, "\u2581Americans": 8165, "\u2581Sou": 9171, "aires": 10024, "\u2581\u0433\u0440\u0443": 9891, "\u2581Histor": 10236, "xtures": 23049, "varepsilon": 6490, "ite": 570, "\u2581ste": 2710, "\u2581bem": 28111, "\u6e90": 29512, "\u2581Catholic": 11377, "\u2581youngest": 25806, "\u2581independently": 22973, "\u2581manus": 17935, "\u2581Bush": 13668, "\u2581Boot": 20775, "\u2581verl": 24255, "\u2581minister": 10170, "linewidth": 17685, "\u2581tools": 7040, "\u2581'</": 20182, "ic": 294, "Will": 12695, "\u2581Leonard": 25298, "bert": 4555, "\u043c\u0435\u0440\u0438": 11883, "=\"-": 23013, "pective": 8524, "adelphia": 14690, "ml": 1653, "\u2581ul": 9271, "\u2581courage": 15276, "\u2581Marco": 21069, "\u2581cooked": 22067, "equation": 2160, "ll": 584, "\u2581gardens": 22461, "\u0440\u043e\u043a": 26531, "\u0127": 30830, "\u2581carries": 21277, "inal": 1475, "\u2581Fill": 25518, "ero": 2036, "\u2581tracks": 11637, "\u2581Turk": 16911, "\u2581biological": 21549, "ieren": 11958, "\u2581marg": 15003, "\u2581comprom": 21882, "\u2581departments": 25626, "\u2581gas": 5135, "\u2581arrange": 23503, "\u2581Once": 5713, "\u2581Lear": 9496, "/*!": 19994, "draft": 27490, "\u2581officials": 10755, "\u2581narr": 9819, "\u2581touch": 4814, "\u2581Usually": 23617, "\u2581father": 3140, "erd": 5517, "\u121d": 31798, "\u2581stand": 1876, "player": 7449, "\u2581persu": 14861, "\"%": 28413, "\u308a": 29516, "\u8ba4": 29262, "\u2581mistaken": 26236, "idential": 27357, "\u2581\u0441\u0435\u043d\u0442": 22283, "\ud83d\ude42": 29340, "est": 374, "\u2581les": 1514, "\u2581effort": 4261, "\u2581furn": 8556, "\u2581Switch": 20666, "RW": 28592, "\u2581integrated": 15647, "AU": 18228, "Leave": 26639, "\u2581=>": 953, "cu": 7340, "\u0435\u0440": 1226, "\u039b": 30043, "\u2581birds": 12780, "\u2581\u0433\u043e\u0434\u0443": 5521, "uth": 2657, "\u2581sistema": 16410, "\u0643": 29171, "\u043a\u0435": 4026, "\u2581BO": 12070, "\u2581stages": 15360, "Review": 25861, "\u2581wage": 21062, "\uacbd": 29653, "\u2581equal": 6530, "\u2581Nom": 13055, "\ud83d\ude33": 31208, "pr\u00e9s": 12180, "\u2581ans": 8804, "\u6750": 31239, "\u2581interrupted": 21640, "\u2581ap": 979, "\ub864": 31953, "\u2581deutschen": 25996, "cmp": 8093, "\u0107": 28900, "\u00eat": 18774, "\u2581lod": 19506, "\uc5c8": 30591, "\u2581Cann": 25535, "Before": 11273, "\u2581Kings": 19188, "isti": 20589, "\u2581answering": 24402, "Container": 5738, "aa": 4474, "gage": 11332, "\u2581there": 736, "ino": 2164, "rie": 3552, "\u2581further": 3629, "neur": 11571, "\u2581Jen": 11654, "tests": 16735, "\u66f4": 29250, "\u2591": 29782, "multicol": 18223, "\u2581Ye": 22702, "eng": 980, "pite": 4995, "\u2581Asian": 13464, "\u2581ar": 597, "addle": 14539, "\f": 29683, "CLIENT": 23155, "\u2581serious": 4592, "\u2581reduce": 7643, "\u0440\u0430\u0437": 24440, "\u2581otros": 17731, "\u2581meeting": 5283, "\u2581Date": 5491, "\u2581Ivan": 18559, "\u2581Uncle": 20189, "\u2581Napoleon": 27819, "\u2581coord": 6618, "pfn": 28074, "\u2581Saf": 12512, "\u2581\u0423\u043a\u0440\u0430\u0457\u043d\u0438": 22224, "\u2581prima": 12030, "\u6389": 30527, "ialize": 4448, "req": 3644, "OM": 4341, "vf": 25817, "\u1f50": 30760, "\\_": 14048, "\u2581console": 5921, "\u2581tan": 12222, "\u2581emot": 6983, "acio": 19867, "\u2581affecting": 27817, "rile": 20747, "iglia": 22616, "\u2581heritage": 22597, "stein": 6559, "\",\"": 5988, "\u2581\u043e\u0431\u043b\u0430\u0441\u0442\u0438": 14973, "download": 17359, "\u2581\u0433\u043b\u0430\u0432": 21269, "\u2581disagree": 18189, "\u2581works": 3791, "\u2581speeds": 27480, "\u771f": 29974, "\u2581Virtual": 19032, "side": 2205, "anny": 9036, "cls": 16723, "\u2581merchant": 23818, "Then": 11341, "\u2581:=": 2137, "expand": 20994, "\u2581differ": 1299, "Battle": 24747, "\u2581Grow": 18456, "\u2581Buffer": 21495, "\u2581fucked": 20251, "\u2581schedule": 9442, "\u2581Selection": 26909, "\u0102": 30148, "INVALID": 13562, "\u2581bei": 5617, "Variables": 27192, "\u2581online": 3270, "\u2581Rob": 5776, "too": 24979, "viv": 26430, "\u0e21": 29373, "\u2581\u043f\u043e\u0441\u043b\u0435\u0434": 25354, "\u2581lever": 22599, "\u2581commander": 15719, "ych": 7702, "\u975e": 29764, "independ": 26982, "ocz": 27282, "HAS": 27889, "\u2581colle": 11140, "\u0437\u043e\u0432\u0430": 10603, "\u2581Ped": 11943, "\u2581Joshua": 28302, "\u2581format": 5032, "\u2581sc": 752, "<0x20>": 35, "aint": 1690, "okes": 9486, "\u2581dere": 20705, "\u2581clutch": 27883, "\u1ee3": 29908, "\ub974": 31091, "https": 3887, "unit": 5306, "Res": 1146, "\u2581[[": 8070, "avis": 19677, "parameter": 14490, "tw": 7307, "\u2581King": 4041, "\u2581\u042f": 10019, "Alert": 18852, "\u2581Lee": 8181, "\u2581dess": 9625, "\u51cf": 30608, "\u2581ult": 7479, "month": 10976, "\u2581seized": 24564, "info": 1817, "Integr": 23636, "auses": 23829, "\u2581luglio": 27059, "\u2581more": 680, "serve": 7688, "ente": 3639, "\u2581Har": 3407, "oda": 10769, "ib": 593, "\u2581Relig": 18877, "\u2581vis": 1717, "import": 7841, "\u0432\u0435\u0440\u0441\u0438\u0442\u0435": 17375, "\u2581dopo": 14752, "tabular": 10972, "bo": 1798, "\u2581Mun": 15818, "eken": 23715, "olic": 7437, "\u2581!": 918, "\u2581Sac": 17219, "\u2581Gate": 19986, "criptors": 22766, "\u043c\u044f": 8104, "')).": 27662, "omen": 4361, "cf": 10037, "\u2581jaar": 22714, "Api": 7119, "\u2581discussion": 8387, "bol": 2329, "\u2581Return": 4571, "\u2581await": 4293, "\u2581enabling": 25748, "\u50a8": 30180, "iento": 7652, "\u043b\u044c\u043d\u043e\u0433\u043e": 22821, "MAT": 25412, "ulsion": 24032, "\u2581deny": 19685, "\u00f6s": 12548, "imer": 4156, "\u2501": 29239, "verage": 4064, "\u2581president": 4951, "dv": 16546, "\u2581garbage": 20170, "zens": 18218, "\u2581\"\\": 5448, "\u2581Sen": 5355, "\u2581Cath": 8746, "\u2581luck": 6576, "Resolve": 28487, "\u8d1f": 30685, "clipse": 11458, "\u2581tonight": 11402, "\u2581older": 6402, "\u2581sole": 11150, "Rep": 4781, "Errors": 16958, "usal": 13396, "\u2581\u201d": 23264, "\u2581curriculum": 25763, "\u2581\u0433\u0440\u0430": 8032, "\u2581Od": 11424, "Watch": 15602, "\u2581lifting": 22853, "miss": 7924, "Cancel": 15204, "mero": 18056, "\u2581Klein": 26526, "\u2581\u2581\u2581\u2581": 260, "\u0939": 29972, "Segment": 17437, "issant": 28438, "\u4ed6": 29440, "\u2581done": 2203, "\u2581environmental": 12507, "anal": 11267, "\u2581sounded": 13219, "jem": 21608, "\u2581\u043d\u0430\u0437\u0432\u0430": 17370, "\u2581Sever": 12120, "\u2581\u0425\u043e": 18797, "layer": 10204, "\ubc14": 30140, "\u2581talk": 1985, "pick": 22685, "arity": 11910, "ournal": 7116, "ators": 3117, "adio": 24745, "\u0163": 29360, "\u0434\u0435\u043b\u044c": 21054, "ises": 3900, "\u2581ox": 18229, "wan": 10074, "App": 3114, "pel": 14605, "\u043d\u043e\u0435": 8848, "\u2581chop": 16811, "ape": 1748, "\u2581screens": 18794, "\u2581crist": 24897, "MODULE": 10820, "===": 14203, ")\\,": 23115, "udes": 5887, "bar": 1822, "\u2581fucking": 7714, "prefix": 8713, "\u2581Foot": 10372, "\u0440\u0442": 12491, "\u2581unit": 5028, "\u2581\u0431\u043e\u043b\u044c": 15735, "ENTIAL": 26567, "\u0435\u0442\u0441\u044f": 7357, "\u2581CH": 6523, "Attrib": 28133, "\u2581breasts": 24356, "\u4e09": 29492, "\u05b5": 30794, "\u2581someone": 2493, "\u2581soc": 1859, "NT": 8124, "\u0430\u043b\u044c": 8067, "\u2581lemon": 23598, "\u2581Malays": 21050, "ources": 2685, "\u2581instrumental": 28166, "\u2581\\\\": 2987, "slice": 11485, "spot": 20269, "\u2581Shah": 23452, "\u2581Gl": 3651, "\u2581grandmother": 19023, "locale": 19237, "\u2581z": 686, "toolbar": 23465, "\u2581articles": 10437, "\u2581promised": 13272, "MAG": 16271, "\u2581Break": 15102, "\u2581SA": 14188, "\u2581Chem": 18199, "\u2581shar": 18370, "\u0436\u0434\u0430": 12979, "\u2581Sing": 7572, "rition": 17791, "\u2581Ronald": 28173, "Components": 16966, "\u2581Dem": 4267, "batch": 11283, "\u2581Marie": 12963, "\u2581trauma": 24815, "\u122d": 31522, "\u2581At": 1794, "\u2581settled": 11591, "\u2581snapshot": 20304, "\u2581eleg": 12999, "Foot": 22043, "\u2581inher": 9677, "\u2581defe": 8464, "\u2581Sam": 4157, "Warn": 17291, "\u5c97": 31983, "\u2581sto": 21651, "\u2581floors": 21264, "^{[": 13009, "\u2581probe": 21227, "\u0928": 29540, "fragment": 23499, "contract": 22135, "\u8d26": 29918, "\u2581qual": 4109, "ward": 1050, "anter": 27513, "\u4e5d": 30807, "\u2581restr": 6134, "\u09c0": 31406, "\u2581golden": 13863, "igg": 24706, "\u2581Dig": 10104, "\u2581Mann": 12187, "Method": 3942, "contrib": 25577, "\u2581brut": 16147, "\u2581judgment": 16548, "irmed": 8945, "\"}": 17395, "\u2581reprezent": 28188, "\u0e23": 29167, "\u2581stock": 5756, "PATH": 9759, "\u2581burning": 13136, "b": 28726, "\u2581manip": 13313, "Stub": 19823, "\u2581CC": 16900, "\u2581medio": 27912, "ched": 1572, "\uc9c0": 29161, "Batch": 14713, "\u2581verse": 20016, "\u2581Notes": 16254, "Total": 10240, "\u2581Dylan": 24288, "\u2581repr\u00e9s": 18880, "ga": 2504, "\u2581trabaj": 23017, "\u2581Fu\u00dfball": 24836, "\u8881": 31979, "typename": 27318, "BE": 7657, "\u2581presum": 17834, "\u2581mor": 2544, "\u0433\u0434\u0430": 13872, "\u2581intens": 16698, "\u0402": 29278, "\u2581begg": 28195, "\u67b6": 30614, "\u2581offered": 6373, "\u2581Toy": 20944, "\u2581exist": 2588, "\u2581Roy": 12809, "\u4f5b": 31136, "\u2581authentic": 18250, "\u53c9": 31304, "\u2581uuid": 26886, "\u2581geldig": 19088, "\u2581sau": 10241, "DE": 1336, "arily": 5164, "Let": 8779, "\u2581a\u00f1o": 13680, "ord": 556, "indices": 20390, "\u2581hotels": 21739, "\u2581closely": 11640, "\u043d\u0430\u0440": 28019, "\u8bb0": 29442, "\u2581bomb": 9914, "\u2581envelope": 23631, "\u2581Em": 2929, "\u67d3": 30623, "\ubb38": 29710, "\u2581Philadelphia": 15804, "\u17c1": 31396, "\u2581construction": 6380, "\u2581Institut": 20929, "\u2581place": 1633, "\u2581weeks": 4587, "\u2581Partido": 26595, "OD": 2896, "y": 28724, "\u4e2a": 28995, "\u2581rice": 13825, "\u2581seed": 11057, "}-": 8767, "\u2581Polit": 8953, ">:": 9670, "lower": 13441, "ables": 2561, "Received": 25411, "\u0dbb": 31532, "\u2581Equ": 8391, "\u2581Richmond": 26182, "pose": 3896, "\u0436\u0434\u0443": 13273, "ativ": 9290, "\u00f3l": 9185, "\u2581measure": 5266, "\u2581increases": 12095, "\u2581el": 639, "TCP": 22331, "ock": 629, "\u2581prom": 2157, "IGHT": 7614, "\u2581text": 2245, "\u2581developing": 10423, "\u2581pulling": 13672, "rivate": 1266, "Prov": 18325, "\u2581cultures": 19826, "\u05e2": 29295, "\u2581Albert": 12560, "dhd": 27957, "ively": 2260, "\u2581Bu": 10944, "\u2581FO": 18417, "ocratic": 26184, "\u2581Bald": 24794, "irq": 7417, "\u00e9qu": 14177, "bst": 14370, "\u2581decay": 15224, "\u2581px": 22844, "wei": 25257, "\u2581cf": 24211, "\u2581Din": 20325, "\u2581peque": 25104, "UMN": 24495, "Animation": 13960, "\u2581Ar": 1010, "rup": 7064, "'])": 8757, "Ann": 23894, "Al": 2707, "\u0e0c": 31894, "gs": 2626, "\u2581skill": 10346, "Cloud": 13113, "uchar": 21298, "USA": 22254, "\u2581sque": 11322, "zech": 14627, "\u2581intro": 24671, "\ud83d\ude2d": 29985, "elson": 14814, "\u2581aunque": 23510, "\u10d4": 29286, "phone": 6690, "nf": 23644, "\u2581twelve": 13153, "\u2581hash": 7135, "\u2581\u0442\u0440\u0430\u043d": 24407, "\u2581deck": 11388, "\u2581particular": 2830, "\u2581expans": 28235, "\u2581producers": 22862, "\u2581minist": 15910, "\ud53c": 31306, "\u2581friends": 3282, "\u2581\u0421\u0430": 9177, "IMPORTED": 16846, "\u2581punto": 22791, "pletion": 14621, "Annotation": 17087, "\u2581against": 1835, "\u2581residence": 18016, "arium": 26207, "\u201c.": 14771, "\u2581mathematical": 27240, "\u2581splitting": 28578, "\u2581peaceful": 21229, "chor": 10951, "\u2581Range": 18593, "\u2581trash": 17466, "\u2581sigh": 19553, "\u2581Feature": 22114, "apes": 7722, "Why": 7638, "ender": 2341, "\u2581de": 340, "oked": 8641, "D": 28757, "\u8449": 31513, "\u2581Bibli": 19380, "<0x73>": 118, "\u2581obten": 26685, "ents": 788, "\u2581espec": 3343, "\u2581shiny": 27348, "\u2581hearing": 9788, "Tag": 4450, "<0x0F>": 18, "\u2581x": 1318, "ielen": 19127, "\u2581Privacy": 25184, "ynamic": 5706, "\u2581queries": 23681, "Processing": 27619, "\u2581Freder": 15411, "\u2581According": 6586, "gd": 26211, "\u2581avait": 13212, "\u2581irrit": 16418, "\u2581provoc": 27249, "\u2581ent": 936, "\u2581colors": 9304, "ILE": 9316, "ste": 2453, "acci": 28127, "\u2d53": 31922, "\u2581outside": 3536, "ensuremath": 9104, "\u2581Produ": 8730, "ilst": 15078, "\u66ff": 30552, "\u2581spirit": 5838, "\u2581k\u00f6z": 13271, "\u2581vulnerable": 17508, "\u2581\u0447\u0438": 9069, "\"?": 27257, "\u2581Creek": 15480, ":`": 21502, "\u2581py": 8242, "Final": 17500, "owner": 10349, "?\"": 1110, "\u2581shitty": 23933, "\u2581type": 1212, "\u2581Tests": 25810, "\u2581\u0441\u0442\u0430\u043d": 21479, "\u2581prevented": 26492, "\u2581dir": 5262, "sleep": 16650, "RED": 12466, "\u2581sentiment": 21790, "ports": 2729, "rok": 27644, "\u2581din": 6766, "\u2581gal": 7514, "\u2581affirm": 25758, "\u2581stom": 10442, "\u2581intern": 3875, "\u2581IMP": 15347, "\u2581d\u00e5": 19774, "\u2581centered": 25904, "\u00e4st": 28068, "\u0437\u0430\u043d": 17478, "index": 2033, "iences": 12923, "bitro": 18829, "\u043d\u043e\u0439": 3596, "rd": 5240, "\u2581synd": 18690, "\u2581store": 4143, "TestCase": 18268, "\u2581LIMIT": 17871, "Roll": 22849, "\u2581filling": 15990, "\u56fd": 29453, "\u2581str": 1117, "ences": 2119, "\u2581mean": 2072, "UINT": 13215, "\u2581\u0431\u0435\u0437": 15907, "\u5b59": 31206, "\u04e9": 30340, "\u2581EM": 22679, "udi": 11091, "len": 2004, "\u30c6": 29610, "\u2581interpreted": 24108, "ccess": 1518, "\u043d\u0438\u0442\u0435": 11568, "resume": 24166, "\u2581licenses": 19984, "\u1275": 31506, "\u2581pace": 13681, "uls": 7550, "arts": 8060, "\u2581snake": 24342, "\u2581Wald": 24050, "FilePath": 22367, "\u2581Mall": 20098, "\u2581Facebook": 8488, "\u2550": 29090, "\u2581Kong": 12544, "\u2581literally": 8350, "\u4e07": 30568, "ps": 782, "\u2581damn": 9741, "\u2581May": 2246, "\u2581references": 14145, "\u2581RES": 20308, "arin": 26327, "\u2581Jahre": 12552, "\u2581Theod": 22704, "\u53d7": 30154, "\u8fd4": 29139, "\u2581regret": 18369, "\u2581sang": 15166, "\u2581Francis": 6617, "tiny": 25149, "\u2581afin": 28389, "\u2581z\u00e1": 19269, "\u2581presidential": 19268, "\u2581aston": 21011, "\u2581van": 1697, "\u2581clever": 19345, "{$": 13637, "unched": 9814, "\u2581float": 4932, "\u2581constructor": 11429, "cart": 14040, "\u2581managing": 16097, "\ud06c": 30056, "\u2581uses": 6098, "\u2581Dragon": 19444, "\u043f\u043e\u0440": 27593, "\u2581Bi": 6345, "\uc2ed": 31202, "\u95f2": 31929, "jed": 17413, "\u00eet": 21155, "ovo": 10356, "Local": 6154, "\u0080": 29133, "\u2581dz": 14732, "\u2581activated": 27024, "rb": 9312, "\u2581Phillips": 27703, "\u2581Londres": 26432, "OF": 10907, "MIT": 24791, "\u2581\u00bb": 3488, "\u2581Version": 7155, "Done": 19524, "\u7ebf": 29437, "\u17be": 31394, "ifndef": 17981, "\u6b66": 30183, "\u5faa": 30484, "\u65bd": 31360, "\u8499": 31631, "\u89c1": 30237, "quer": 10376, "tain": 12092, "\u2581excitement": 17163, "Conf": 10193, "\u2581\u043f": 610, "Tags": 14283, "\u2581counsel": 14625, "\u2581Transaction": 26524, "\u2581Wa": 24867, "[]": 2002, "\u2581eleven": 19806, "iffe": 27007, "\u021a": 29749, "\u2581crowd": 8954, "\u706f": 31961, "arly": 1617, "parameters": 11438, "\u2581Soci": 26008, "{{": 6652, "\u2581Times": 8359, "\u2581Communications": 26141, "cas": 11768, "Unknown": 12324, "\u0434\u044b": 7390, "\u2581beneath": 10042, "eqref": 5103, "\u2581Cleveland": 21920, "mov": 18057, "yl": 2951, "\\/": 23674, "\ud37c": 31902, "every": 19662, "\u2581mens": 24644, "\u2581asked": 2261, "\u2581tech": 14130, "\u2581cinema": 22905, "\u2581Rang": 24237, "\u6bcd": 30518, "\u2581Chap": 14381, "agnost": 8277, "Dot": 25520, "Scope": 9152, "\u2581Lux": 18194, "\u7533": 30360, "\u2581subscription": 15400, "\u2581collections": 18430, "NUM": 9818, "\u2581finds": 12397, "\u2581pag": 10913, "\u2581Techn": 6772, "\u5a01": 31349, "aus": 1899, "ira": 4807, "\u627e": 29648, "ento": 12673, "\u2581Safety": 19412, "\u2581*=": 22040, "uni": 10810, "Changes": 19249, "\u2581king": 6779, "\u2581improvement": 14204, "\u3092": 29078, "\u2581novembre": 13183, "\u2581Created": 22982, "django": 19326, "define": 3380, "ows": 3611, "izont": 8927, "\u0441\u044c\u043a\u043e": 5205, "sbi": 28334, "\u2581aud": 4786, "\u2581\u0438\u043d": 8257, "\u2581monument": 17772, "\u6ed1": 31062, "Capture": 22663, "anners": 24681, "amic": 21039, "lv": 21055, "sources": 26155, "go": 1644, "\u2581\u0441\u043b\u0443\u0436": 26683, "\u2581\u043e\u0441\u0442\u0430": 18889, "Mon": 7115, "nik": 8491, "\u2581determin": 16710, "ming": 4082, "Distance": 20701, "\u0e42": 29368, "Area": 12026, "\u2581hill": 12254, ")}{\\": 23045, "\u2581efforts": 8280, "\u2581Bat": 13003, "\u2581examples": 9254, "\u2581mainly": 11464, "rel": 3045, "\u2581investigated": 25481, "ort": 419, "\u5c40": 29978, "\u00d0": 30305, ".</": 4698, "\u2581transmission": 16209, "\u2581Hannah": 24124, "\u0431\u0440\u0430": 8345, "gt": 3606, "ying": 2983, "\u2581CB": 25600, "\u2581Speed": 19586, "\u2581limiting": 27931, "$('#": 24546, "\u2581rece": 2080, "\uadf8": 29614, "\u2581fat": 6370, "lio": 11126, "frame": 3413, "\u2581chose": 10008, "\u2581PROVID": 25118, "\u2581cz": 8726, "Less": 28360, "\u2581ago": 3584, "\u2581command": 3445, "\u2581\u0413\u043e": 10142, "translate": 18094, "\u2581\u0433\u0438": 25316, "chs": 21100, "\u2581na": 1879, "anne": 13002, "\u0e0b": 31049, "\u2581settembre": 24864, "\u2581Terms": 23222, "\u2083": 31358, "Ne": 6947, "\u2581willing": 7813, "there": 15325, "\u2581By": 2463, "gres": 20697, "\u2581shares": 13308, "\u2581callback": 6425, "interrupt": 23801, "\u2581immigration": 21715, "\u2581Haven": 24077, "\u2581activation": 25159, "\u2581bottles": 20353, "dash": 24917, "\u2581Days": 19503, "oad": 2091, "\u2581ImGui": 21316, "Insert": 13851, "Music": 24778, "ONG": 10962, "\u2581ann": 2232, "\u2581slip": 13070, "\u9605": 30738, "graph": 4133, "\u2581He": 650, "PECT": 5519, "\u2581grew": 8108, "\u2581pract": 2844, "\u2581lux": 11967, "words": 10366, "oose": 12470, "\u2581tunnel": 17377, "\u2581\u0438\u043c\u0430": 19120, "ienst": 19239, "\u2581Microsoft": 7902, "iale": 9712, "\u2581releases": 21446, "\u2581intelligent": 18926, "MAGES": 24441, "\u0441\u0438\u044f": 27782, "\u2581monster": 18251, "\u2581essentially": 13315, "\u2581posterior": 20862, "\u2581Cat": 10758, "\u2581Frankfurt": 26858, "\u2581gave": 3395, "\u2581Dutch": 14738, "\u0ba8": 31393, "\uc5f4": 30243, "\u0435\u0442\u043e": 24525, "\u6b63": 29302, "\u2211": 31384, "st": 303, "elia": 21657, "\u2581avril": 19330, "\u045d": 29498, "\u2581with": 395, "!\");": 22896, "Mvc": 18261, "\u2581fa": 3586, "\u7559": 30210, "\u2581Hollywood": 14057, "\u2581artistic": 20925, "\u538b": 30563, "\u2581\u0440\u0430\u0439\u043e\u043d": 20656, "null": 3576, "\u2581username": 14412, "\u2581m\u00e5naden": 27432, "\u2581Me": 2597, "\u00e7": 28857, "\u2581fp": 16108, "\u2581extracted": 25081, "zk": 14109, "\u2581Deputy": 27694, "\u2581resp": 10840, "\u2581s\u00fcd": 24625, "\u2581ways": 4342, "\u2581cents": 27337, "<0x80>": 131, "\u2581users": 5443, "citep": 10371, "\u2581agrees": 28175, "\u2581rural": 13359, "\u2581label": 3870, "\u2581Philipp": 15105, "Enc": 7570, "slash": 25779, "Program": 14352, "\u2581shadows": 17207, "skiego": 17983, "sembled": 20221, "\u4ee3": 29314, "commands": 22738, "\ud658": 30391, "iego": 8956, "\u2581Android": 12654, "PIN": 18104, "lemagne": 27477, "_,": 6930, "\u2581destruct": 25274, "\u2581overwhelming": 18894, "\u0432\u0430\u043b\u0430": 18846, "\u0441\u0442\u0440\u0443": 17405, "\u2581belongs": 17827, "xy": 4263, "\u0448\u0438": 3107, "\u30bb": 29932, "\u00a0": 29000, "\u5fc3": 29574, "\u2581Member": 15178, "\u043b\u0451": 21814, "\u2581Jet": 28252, "\u2581\u0432\u044a": 17051, "\u00c2": 29053, "issue": 11681, "\u2581iv": 19900, "NET": 11698, "icago": 7707, "rier": 5118, "acon": 10364, "\u2581baking": 22411, "luss": 25500, "\u2581investments": 20855, "urg": 2821, "\u2581M\u00e9xico": 24602, "%%%%": 11032, "\u2581economics": 25426, "online": 20154, "Produ": 17448, "ska": 9883, "\ud655": 30270, "cury": 25812, "yll": 19530, "\u2581picked": 7715, "argument": 14635, "\u2581intellect": 11612, "\u2581hurried": 21893, "\u2581quand": 27462, "\u7cca": 31984, "\u0432\u044f": 8281, "\u2581Peace": 18864, "\u2581bronze": 20067, "\u2581Yet": 8516, "\u2581fle": 6742, "backs": 19076, "reject": 26394, "\u2581Pars": 25281, "Keyboard": 27418, "\u2581depressed": 27696, "\u2581forgotten": 13652, "\u2581earth": 6340, "\u7a76": 31011, "Tick": 22812, "material": 10595, "sh": 811, "\u03ac": 29201, "ilda": 27834, "\u0c35": 31976, "werken": 14639, "Open": 6493, "indow": 1511, "\u2581podcast": 21736, "\u2581diagonal": 25202, "ceptor": 18933, "ERNAL": 23734, "\u0433\u0440\u0430\u0444\u0456": 23006, "\u2581patterns": 11533, "Material": 12976, "\u2581Friedrich": 17277, "\u2581Bev": 23344, "\u300b": 30028, "\u2581magnet": 9386, "emperaturen": 26292, "c\u00f3w": 24325, "\u25b6": 30577, "\u03cd": 29459, "\u6559": 30166, "\u00e9ric": 13165, "utt": 7538, "\u2581attach": 16366, "\u2581\u00dcber": 19265, "inis": 24479, "\u8f66": 30062, "\u2581Spec": 5583, "\u2581transition": 8265, "\u2581\u00e4ven": 28065, "xi": 4997, "\u2581Lor": 28009, "bour": 6814, "\u2581Ash": 10973, "\u6709": 28998, "TextBox": 27828, "\u2581Tig": 26222, "iji": 17062, "{-": 9817, "\ub204": 31596, "ota": 4752, "\u2581Kam": 15346, "\u2581curr": 19494, "\u2581meta": 11678, "\u2581Merc": 27934, "SIGN": 20506, "\u2581Ice": 19587, "Without": 21469, "ray": 919, "ining": 4038, "\u2581placing": 20632, "stride": 23665, "\u0442\u0438\u0432": 5868, "<0xE6>": 233, "\u2581Moore": 16616, "\u2581Guerra": 21913, "\u2581For": 1263, "\u2581elections": 15517, "\u2581dev": 1847, "\u2581\u0434\u0440\u0443\u0433\u0438": 14365, "\u2581Kentucky": 21509, "\u2581todas": 24209, "\u2581bibli": 22426, "includegraphics": 7621, "\u2581War": 3273, "dirname": 21336, "\u2581Masters": 24522, "\u2581meetings": 13251, "<0x7D>": 128, "\u2581Nacional": 14659, "VOL": 25387, "\u2581parse": 6846, "crete": 7916, "href": 16558, "Abs": 15521, "\u043a\u043e\u043b\u0430": 14222, "\u2581miejsce": 22307, "\u2581Much": 15465, "\u2581Dad": 11641, "\u2581Si": 8693, ".\");": 10927, "\u2581Giovanni": 21114, "\u2581naj": 14110, "\u2581Connect": 21873, "utf": 13366, "\u2581Door": 26519, "\u2581\u0440\u043e\u043a\u0443": 7339, "PT": 6316, "Routing": 28654, "ptions": 1720, "ICE": 6061, "acc": 4373, "\u043f\u0435\u0440": 10890, "USB": 16323, "\u2581NAT": 24599, "\u9078": 30045, "\u1005": 31708, "ikes": 14853, "(\"/": 9933, "enh": 25449, "\u0441\u044c\u043a\u043e\u0457": 11443, "Arm": 26610, "\u10e2": 30119, "\u2581swe": 4017, "ioctl": 26478, "count": 2114, "\u0446\u0435\u0432": 21766, "\u2581syndrome": 27481, "clam": 21453, "\u0433\u0435\u043d": 18814, "\u2581peint": 27520, "\u2581likes": 12672, "\u2581unused": 25105, "\u7075": 31310, "\u2581trick": 10777, "\u2581selfish": 26206, "\u2581discour": 27314, "\u099f": 30579, "\u2581deliberately": 24177, "\ud83d\ude24": 31955, ")&": 22743, "\u0282": 30728, "select": 5033, "\u2581ang": 3720, "onic": 9011, "HW": 16352, "\u2581quelques": 22789, "Alpha": 19510, "\u2581guerra": 15328, "\u2581Portal": 22314, "school": 19185, "\u2581shapes": 17187, "bit": 2581, "/**\r": 14756, "\u2581Aw": 21960, "\u2581mk": 25145, "\u2581il": 1521, "\u2581unset": 22353, "\u2581actual": 4695, "aris": 17971, "\u2581genetic": 19869, "scale": 5705, "\u043a\u043e\u043c": 7830, "\u3059": 29126, "rop": 1506, "\u2581humans": 10589, "\u2581naz": 11728, "\u2581am": 837, "CPP": 18954, "theorem": 16196, "\u2581bou": 16720, "\u2581segundo": 22667, "\u2581string": 1423, "mart": 20665, "\u0432\u043d\u044f": 15398, "\u2581otto": 24127, "\ud83d\udfe2": 30832, "iesa": 22133, "offset": 3783, "\u2581threshold": 14053, "\u043b\u0438\u0437\u0430": 26594, "\u2581entity": 9040, "\u2581Scott": 7636, "\u4f1a": 29179, "\u2581capture": 11319, "\u2581NL": 19561, "\u0437\u0432\u0430": 10246, "naments": 27233, "\u2581Float": 27914, "\u0261": 30105, "\u98de": 31259, "\u2581Point": 8571, "Optional": 15115, "sis": 15412, "MAC": 13037, "\u2581ubic": 25727, "\u2581ask": 1460, "\u0e1f": 30725, "\ubc29": 30240, "ART": 4520, "\u2581brief": 6817, "\u2581stories": 5979, "\u2581blink": 16759, "\u2581\u0432\u044b\u043f\u0443": 26262, "\u2581Cont": 2999, "co": 1115, "\u00e9c": 6915, ".": 28723, "sat": 23258, "<0x0C>": 15, "aced": 2701, "zahl": 27483, "imedia": 21861, "\u2581stove": 28479, "\u65cb": 31027, "\u2581skb": 22076, "azz": 7130, "ansas": 12288, "oct": 22008, "\u2581h\u00f6": 14404, "\u2581organize": 25425, "EMP": 15290, "especially": 26160, "\u2581earned": 12839, "\u2581homework": 26284, "\u2581suitable": 11633, "\u2581sometime": 28088, "\u2581Lin": 6678, "formation": 1517, "\u2581carb": 24167, "\u2581analyzed": 28649, "\u2581enemy": 8454, "\u00e9v": 8507, "\u2581\u00fa": 6149, "<0xA0>": 163, "\u0440\u0430\u043b\u044c": 13906, "arr": 2654, "umbling": 23491, "\u2581attention": 4501, "Perm": 10199, "\u20a6": 31809, "GR": 8369, "ibli": 10798, "\u2581towel": 27138, "\uc758": 29187, "\u7edd": 30981, "control": 5476, "\u2581alto": 28077, "\u2502": 29032, "\u2581Ho": 10488, "\u2581funding": 12131, "\u0e14": 29488, "iod": 2563, "mod": 1398, "\u2581\u0441\u043b\u0443": 12276, "\u2581builds": 24030, "peer": 14720, "otos": 26064, "Well": 6824, "----------": 16417, "::_": 21312, "NEW": 19917, "\u2581anime": 25708, "FC": 5417, "\u2581diagnostic": 23360, "\u2581moisture": 28224, "Execute": 17715, "\u2581marker": 18844, "\u2581Generic": 26348, "ifacts": 24639, "Definition": 7753, "\\,\\": 15877, "\u2581vectors": 20419, "agr": 13947, "\u2581household": 13634, "istro": 24307, "construct": 15607, "\u2581\u0420\u043e\u0441\u0441\u0438\u0438": 19180, "\u2581Electric": 20459, "\u2581conduct": 9086, "family": 12483, "\u2581banda": 21838, "\u2581teenager": 28001, "multi": 13102, "\u2581determination": 20051, "^+": 12803, "ouses": 16807, "\u2581hecho": 27722, "\u2581squ": 4524, "\u2581tong": 12166, "\u2581Ca": 11013, "it\u00e4t": 12890, "atu": 22608, ">{@": 22084, "\u0437\u043d\u0430": 6973, "Profile": 8721, "prof": 18212, "\u2581laundry": 25907, "stre": 12776, "neurs": 24283, "\u2581Vall": 26997, "\u30df": 30285, "\u2581tra": 5455, "\u2581Oracle": 24698, "isle": 24468, "ill": 425, "\u2581characteristics": 15559, "\u2581acknowledged": 23253, "(\"%": 6996, "Sync": 10567, "\u2581Pour": 15540, "\u2581sea": 6163, "nil": 9454, "\u2581AI": 16107, "h\u00f6": 21017, "dag": 22997, "\u2581embedded": 20007, "\u2581friendship": 17511, "ASE": 11257, "\u2581needing": 25559, "\u2581Tr": 1319, "riors": 18152, "\u0441\u0442\u0430\u0432": 6126, "\u2581simulations": 19918, "abi": 16075, "elo": 11979, "\u2581cuenta": 27947, "\u2581sind": 6822, "ilibrium": 21092, "\u2581VI": 15476, "getValue": 12448, "quiry": 18831, "\u2581Born": 20109, "\u2581university": 10539, "\u2581Olymp": 8562, "\u0449\u0430": 6770, "p": 28720, "\u2581hasta": 11539, "NF": 23000, "through": 14968, "\u043a\u0430\u0440": 22688, "ills": 2767, "\u2581SS": 13823, "andidate": 14154, "issent": 27400, "\u2581Muham": 24323, "\u2581silk": 21233, "\u2581Gym": 28673, "pisode": 15635, "\u2581se": 427, "\u2581drove": 11496, "\u0442\u0435\u043b\u0435\u0439": 16871, "\u2581program": 2007, "\u2581our": 813, "[": 28792, "\u80fd": 29084, "ials": 11974, "\u2581prov": 1130, "Records": 27129, "\u2581happy": 4610, "\u56db": 29882, "\u2581marketing": 7080, "elasticsearch": 28350, "\u2581woman": 2971, "\u0ca0": 31604, "\u76df": 31778, "\u2581Pic": 17321, "\u2581lookup": 21275, "\u2581Seit": 21761, "\u2581utilis": 25090, "\u0447\u0438\u043d": 23156, "Mode": 4173, "\u2581ban": 8743, "Buffer": 4182, "\u2581s\u00f3n": 28155, "hen": 540, "\u5b88": 30992, "\u2581Pil": 16025, "icense": 1823, "asts": 10617, "\u2581charts": 23332, "\u6cf0": 31361, "sched": 20615, "innen": 17190, "aments": 22987, "\u2581The": 415, "\u3057": 29111, "\u2581walking": 7312, "\u2581backed": 17753, "lessness": 28015, "\u2581destruction": 15788, "\u2581Bah": 20057, "che": 631, "EINVAL": 10902, "orent": 21958, "\u2581\u0441\u043e\u0432": 23777, "\u2581button": 6261, "olean": 2481, "Suite": 25138, "\u2581coming": 3524, "\u2581).": 11505, "\u0441\u0442\u0435\u0440": 16487, "Verify": 20847, "\u2581implicit": 21628, "\u2581accept": 3458, "\u2581Herm": 14741, "nick": 22554, "\u2581guides": 25146, "oji": 27813, "\u2581Organization": 21919, "umbing": 27010, "How": 5660, "\u2581lake": 14411, "anto": 7733, "\u2581Bug": 27431, "\ud134": 31167, "\u2581conve": 18301, "\u2581wheels": 19876, "\u2581Eine": 21144, "javax": 27184, "YP": 26058, "\u2581Ver": 2927, "\u2581Mach": 16290, "keeping": 26840, "pression": 2670, "\u2581\u041e\u043d": 25507, "\u2581stem": 17854, "xFF": 4570, "\u2581Hold": 15960, "\u2581Nigeria": 22072, "\u2581prend": 16086, "oston": 8410, "\u2581mark": 1716, "undle": 6776, "ktop": 13439, "\u2581google": 15682, "\u2581Doctor": 16505, "bus": 6383, "\u2581Buff": 15163, "nen": 4588, "Dit": 15324, "ttes": 21067, "\u2581Sandy": 27925, "\u2581med": 1342, "\u2581werden": 6446, "\u2581heard": 3364, "\u2581seem": 1709, "\u2581tu": 8582, "\u2581deep": 3534, "\u2581pueden": 27791, "Listener": 5031, "rys": 24957, "\u2581sinc": 19025, "\u2581twice": 8660, "\u2581waren": 10744, "\u6240": 29163, "\u2581luxury": 17211, "lik": 4634, "Generate": 23342, "\u2581sticks": 25762, "\u9928": 31595, "\u2581fetch": 11702, "\u2581Penn": 11710, "\u4ec5": 30472, "\u043f\u0440\u0435": 8971, "DT": 13203, "\u2581variant": 15944, "\u2581Keep": 10339, "h": 28716, "\u2581arms": 5574, "\u2581nucle": 17336, "\u10da": 29617, "\u2581I": 315, "\u2581restrict": 8336, "hattan": 20425, "\u2581tiem": 16365, "\u2581ancora": 28078, "\u6848": 30002, "\u5047": 30826, "Bul": 18775, "\u2581success": 2288, "\u2581determine": 7655, "=%": 9017, "\u043c\u0438\u044f": 24684, "\u2581needle": 25710, "\u2581inject": 16453, "\u2581rev": 4497, "\u2581pregnancy": 18974, "acker": 21172, "\u65f6": 29007, "\u2581according": 4771, "\u2581evil": 10875, "\u2581appl": 14933, "peonato": 19687, "\ucee8": 31885, "\u2581damages": 25547, "\u2581miracle": 27569, "asma": 21299, "\u2581baby": 5982, "\u00e9l\u00e9": 18310, "\u2581Health": 6377, "\u2581manual": 15561, "\u2581supplement": 12982, "\u2581dirt": 15040, "\u2581afraid": 8526, "\u2581Ul": 12063, "raph": 1875, "\u2581method": 2038, "\u2581PH": 11063, "@@": 15168, "HED": 22035, "onders": 18758, "aphor": 27041, "\u2581compress": 25595, "atting": 14758, "\u2581holder": 21496, "\u2581normalized": 24814, "\u2581_\"": 14780, "Js": 23595, "SF": 23710, "\u2581Santiago": 24421, "\u2581encryption": 27591, "<0xF5>": 248, "well": 5458, "\u2581aver": 13363, "\u2581participation": 17002, "\u2581readily": 22058, "\u2581Fro": 18760, "ilers": 27693, "\u2581pharm": 16074, "\u2581capabilities": 16585, "bss": 26727, "zia\u0142": 27320, "\u2581VM": 18803, "\u2581saddle": 27343, "\u2581Ire": 9910, "\u2581Platz": 14822, "Clean": 22139, "\u2581De": 1343, "\u00d2": 30565, "\u2581bytes": 7597, "\u00e4re": 26963, "aw": 1067, "\u2581\u00c9t": 14011, "\u2581electrical": 17828, "FUNCTION": 16368, "Byte": 8150, "\u2581residential": 18350, "\u2581Welcome": 19417, "\u2581dp": 21492, "\u2581kwargs": 23197, "imil": 25568, "\u2581productive": 22779, "utter": 10112, "\u2581Stars": 22444, "igo": 9567, "\u2581Into": 27121, "\u8a3c": 31592, "\u2581bought": 7620, "\u0442\u043e\u0433\u043e": 20725, "\u2581gob": 21768, "\u2014\u2014\u2014\u2014": 27920, "merge": 13180, "\u2581agency": 11344, "exc": 25768, "\u2581cous": 13146, "Poly": 28299, "\u2581ejempl": 28324, "\u0565": 29849, "\u539f": 29493, "\u2581aren": 5405, "\u2581announ": 4898, "\u2581too": 1368, "Leg": 14537, "\u2581\u0438\u043b\u0438": 10476, "\u00b3": 29203, "\u2581ground": 3414, "smart": 19914, "\u0441\u0442\u0432\u0438": 12505, "\u2581auction": 25029, "VERSION": 10147, "\u2581hyd": 24483, "\u2581Nether": 18841, "Attachment": 27079, "valueOf": 19822, "\u2581commercial": 7380, "\u2581\u0441\u043e\u0441\u0442\u0430\u0432\u043b\u044f": 19990, "\u2581conqu": 17095, "nem": 22890, "\u00e9rt": 27076, "\u2581Hey": 17162, "Grid": 8625, "Notification": 13756, "iblical": 26896, "($_": 14076, "\u043b\u0435\u043d\u0438\u044f": 9324, "(){": 8881, "imb": 18931, "SYNC": 23871, "\u2581Western": 8307, "uzz": 9046, "anqu": 20668, "\u2581descent": 24871, "\u2581feas": 25953, "\u5b78": 30923, "\u2581beg": 2049, "otta": 21839, "\u1e62": 30871, "olds": 4858, "\u2581laptop": 19891, "\u2581occupied": 16512, "font": 6102, "\u2581Against": 27506, "\u2581newspapers": 19466, "\u266d": 30420, "\u2581ab": 534, "\u2581wherever": 20517, "lo": 731, "peated": 27367, "Information": 16257, "\u2581\u043a\u043e\u0440\u043e": 16673, "\u2581Craig": 21260, "\u2581wolf": 24100, "\u2581rub": 7294, "\u2581rag": 13017, "inery": 17171, "amy": 27313, "Package": 11079, "\u2581Ez": 23963, "\u2581mid": 4725, "PARAM": 13786, "\u2581University": 2900, "kreis": 22717, "\u2581suff": 3510, "Autow": 25789, "ledge": 3829, "by": 1403, "buch": 22699, "rias": 23603, "route": 11833, "ach": 595, "\u8865": 31029, "\u2581Short": 11530, "\u2581continue": 3688, "\u2581relationship": 3758, "\u2581/******/": 19250, "\u2581garden": 8759, "\u2581Initial": 20015, "istance": 4632, "\u2581Brian": 12569, "rating": 28599, "selection": 15856, "\u2581antes": 17567, "EV": 7321, "\u2581fitting": 20068, "\u2581exp": 2365, "\u2581glad": 8200, "\u2581limitations": 9658, "\u2581Elizabeth": 11289, "\u0417\u0430": 20530, "ta": 1100, "upper": 17687, "arel": 24104, "(?:": 26733, "\u043f\u0435": 3703, "uniform": 26786, "\u2581\u0440\u0435\u043a\u0438": 27935, "\ucd94": 30153, "\u2581kissed": 18792, "abama": 19006, "\u2581slightly": 7191, "\u2581summer": 5561, "\u2581demands": 15047, "\u2581DAG": 24821, "\u2581mamm": 27454, "\u2581Provinc": 27600, "\u2581ball": 4374, "\u00e8tres": 21412, "\u2581look": 913, "\u2026\u2026": 22917, "\u2581nation": 5878, "\u2581Parl": 27550, "cript": 2489, "\u2581\u043c\u043e\u043b\u043e": 23529, "\u2581retail": 11603, "\u2581reporter": 19044, "\u2581Town": 8897, "\u2581kitchen": 6132, "\u2581adding": 8833, "site": 10041, "\u2581greatly": 15702, "\u043d\u0435\u0433\u043e": 27575, "Bal": 13450, "\u2581Ibid": 14847, "\u2581barr": 20427, "\u2581individually": 28570, "\u2581lleg": 15546, "\u2666": 29706, "Angle": 17917, "\uac15": 30967, "\u2581cer": 6942, "\u2581ess": 3150, "phi": 3163, "\u2581Sof": 21918, "\u2581lyrics": 22583, "From": 3400, "\u2581entonces": 26451, "mon": 2640, "rant": 6804, "\u2581Sav": 11210, "\u2581va": 4536, "Ag": 13859, "\u2581storm": 9735, "\u9080": 31825, "\u21d2": 30757, "--------------": 23633, "word": 2186, "\u094b": 30003, "\u2581artists": 10611, "\u2581collected": 12469, "\u2581IF": 14184, "\u0437\u043e\u043c": 19359, "\u0441\u043a\u043e\u0433\u043e": 4809, "itat": 11116, "\u0627\u0644": 14312, "\u2581presc": 20791, "\u2581modules": 15901, "\u2581loaded": 10773, "\u2581incidents": 27102, "\u2581Zag": 28145, "\u2581respon": 2603, "\u2581pillow": 25896, "\u2581warrant": 9775, "\u2581Una": 19472, "aj\u0105": 12152, "\u2581Campaign": 27003, "\u2581aspect": 6563, "na": 1520, "car": 6602, "CIAL": 22150, "EventHandler": 23273, "\u2581fro": 8169, "\u2581seller": 26824, "Main": 9000, "\u2581eyebrows": 27469, "\u2581Message": 11350, "\u2581guide": 8327, "adget": 18142, "Constructor": 15940, "\u092e": 29672, "generic": 19105, "rated": 27210, "product": 5646, "\u62d2": 31792, "called": 11565, "Warnings": 24708, "\u2581oper": 1764, "\u2581|\\": 17446, "\ud83e\udd21": 31370, "\u2581screen": 4921, "\u2581Rating": 25181, "\u2581cash": 7877, "\u2581confirm": 8735, "\u9635": 30909, "\u2581Init": 6829, "\u0932": 29759, "\u2581batch": 11386, "\u2581navigate": 22689, "\ub2e4": 29043, "\u2581pens": 12811, "\u2581Coll": 9215, "\u2581agent": 8073, "ady": 4425, "Interface": 6450, "\u2581planning": 7394, "\u2581Atl": 7751, "\u2581trab": 11968, "\u2581philos": 28039, "\u1eeb": 30965, "ogram": 11777, "\u2581blame": 13128, "icip": 4363, "\u2581claiming": 20188, "\u2581\u0424\u0438": 18187, "\u02d0": 29240, "\u2581NC": 14343, "Word": 15170, "decode": 13761, "metry": 16641, "\u2581corporations": 24171, "\u2581qu\u00e9": 25648, "\u5f8b": 31424, "\u2581assault": 13349, "\u2581eb": 19049, "Gateway": 22479, "enter": 7262, "Normal": 13303, "({": 2882, "ML": 3827, "nah": 14354, "Password": 9414, "ata": 563, "DIS": 9385, "stru": 14664, "\u2581assh": 19922, "\u2581palace": 20695, "\u2581'#": 12252, "enta": 11849, "Ops": 24172, "\u2581\u0442\u043e\u0440": 27964, "Some": 11600, "Register": 7832, "diff": 11836, "\u00edl": 25448, "col": 1396, "amo": 14156, "\u2581evident": 14885, "('./": 21093, "IVER": 27169, "\ud3ec": 30387, "Current": 6086, "hetic": 8696, "\u2581advis": 14309, "\u2581Did": 7164, "<0x24>": 39, "\u2581Deutsch": 14157, "produ": 7309, "DP": 10485, "\u0142a": 6905, "\u2581bottom": 5859, "\u2581own": 1216, "\u2581fest": 12649, "virt": 27590, "\u00cf": 31210, "transition": 19655, "elij": 6796, "\u2581dialect": 26228, "\u2581discover": 5191, "\u2581Miles": 25264, "idget": 3812, "pository": 12530, "\u0083": 30477, "\u8f69": 31943, "\u2581regions": 10542, "\u2581Crim": 24849, "\u2581triggered": 22192, "\u0441\u0442\u0440\u0435": 18160, "\u51fd": 29297, "\u632f": 31960, "\u0263": 31013, "\u2581US": 2223, "aupt": 12099, "\u2581stellar": 21523, "\u2581Kl": 7211, "\u2581Hann": 14390, "Y": 28802, "\u2581Imperial": 22032, "\u2581idle": 25282, "plicate": 13112, "panel": 10726, "\u2581dep": 5179, "\u2581Wer": 12153, "\u2581onto": 5380, "\u5750": 30150, "UNIT": 22587, "ony": 2557, "ested": 7848, "\u2581Bog": 19925, "\u2581Average": 27701, "\u2581Storage": 18857, "portun": 3766, "istes": 15099, "\u2581spirits": 20394, "\u0459": 28918, "\u2581occas": 11383, "*/": 1075, "ALSE": 7241, "\u013d": 30833, "olent": 26346, "Http": 5775, "\u2581alleged": 22362, "\u2581suspended": 21342, "agra": 16208, "\u9805": 30829, "\u53cb": 30060, "\u2581Expect": 28468, "usement": 24862, "\u2581Vlad": 20551, "\u043c\u0435": 2084, "ERROR": 4732, "\u2581Sc": 2522, "\u2581gennaio": 25540, "\u2581GL": 8537, "\u2581Films": 28243, "Sy": 13403, "\u2581piano": 13221, "olve": 5303, "arguments": 16684, "\u2581changed": 4648, "\ub9d0": 31253, "\u2581designers": 24518, "\u0446\u0443": 15357, "OO": 17409, "\u2581purchases": 25596, "\u2581Xbox": 26631, "valid": 2398, "What": 3195, "\u2581Happy": 19094, "endar": 7629, "\u0456\u0432": 2813, "ao": 5044, "ardless": 26343, "Username": 22281, "\u2581Try": 11442, "\u2581oven": 19126, "resent": 2044, "WO": 20463, "\u2581membres": 28356, "'+": 18660, "resp": 12002, "====": 965, "\u2581swallow": 25993, "ativo": 20937, "\u2581mail": 9636, "\u2581buried": 14228, "\u2212": 28923, "asticsearch": 19616, "\u2581thoroughly": 19877, "\u2581VAR": 27913, "\u2581um": 3205, "\u2581Nations": 16419, "\u2581conflict": 10318, "uilder": 2866, "\u2581Info": 19790, "\u5fdc": 31914, "\u2581Sophie": 22223, "\u2581Pool": 23702, "']);": 13932, "\u6298": 31201, "\u2581future": 3437, "\u2581t\u00e9": 20659, "\ud83c\udffc": 30558, "\u2581deciding": 24568, "\u2581conditions": 4331, "\u00f6r": 2024, "\u2581!==": 5352, "\u2581Alf": 11050, "\u0441\u0438\u0442\u0435": 15327, "\u2581Real": 7960, "ihood": 17531, "\u2581f\u00fcr": 3446, "\u5907": 29613, "imeq": 21876, "oriented": 28113, "plaat": 14369, "\u2581chairs": 17538, "\u2581club": 4489, "phan": 19058, "+(": 24993, "(['": 18706, "erialize": 12145, "\u2581turn": 1527, "\u2581Robert": 5606, "ott": 1562, "\u2581Visual": 24497, "\u2581Venezuela": 25307, "\u2581case": 1222, "plant": 18071, "ITION": 8262, "\u2581Soft": 6001, "(\"\");": 28361, "odi": 16267, "\u2581esp": 7581, "\u2581combinations": 26350, "caption": 7150, "\u2581Portug": 11211, "\u2581surfaces": 19454, "\u2581iterator": 24119, "\u043b\u0435\u0439": 9641, "\u2581enumer": 25988, "\u2581consulting": 27303, "\u5de5": 29487, "\u8bae": 30361, "\u043d\u0438\u043c\u0430": 12629, "\u2581fond": 8987, "OK": 4903, "\u2581fifty": 12320, "\u2581particip": 4105, "gov": 13933, "entieth": 22606, "iana": 5127, "\u2581tendency": 24516, "\u2581said": 773, "'],": 5807, "\u2581obtained": 7365, "\u2581maintaining": 17877, "\u2581HA": 16450, "Appro": 27885, "raction": 18296, "\u2581hid": 18750, "\u2581Ant": 3821, "were": 27609, "obby": 11551, "\u0449\u0435\u043d": 17612, "READ": 8172, "isions": 5662, "som": 15415, "\u2581Area": 14488, "\u2581Bei": 17457, "\u2581gouver": 20401, "\u2581volunt": 21522, "\u2581circ": 4713, "%)": 11526, "\u2581argv": 21863, "\u2581guessed": 26415, "lington": 26183, "\u2581improvements": 19664, "\u5f0f": 29122, "\ub2f4": 31569, "\u2581\"[": 14264, "\u2581failures": 25394, "\u2581Below": 20811, "vised": 23313, "\u2581ME": 13835, "\u0441\u043f\u0430": 28531, "inz": 12461, "\u2581Fac": 13924, "\u2581files": 5373, "pection": 16455, "vir": 28114, "\u2581algo": 25682, "Da": 27672, "\u0433\u0440\u0430": 3634, "agnostics": 14127, "ais": 1555, "\u2581cone": 22880, "\u77f3": 29942, "\u0440\u0435\u0437": 15369, "\u2581aug": 11146, "\u2581search": 3472, "\u2581dice": 22544, "\u2581websites": 13486, "\u2581disgu": 27409, "Bay": 26663, "\u2581Abs": 12709, "\u2581transform": 5516, "\u2581m\u00e9t": 21065, "\u2581drei": 15898, "\u2581health": 2528, "\u2581protein": 14311, "\u2581Serv": 15541, "v\u00e9": 15221, "\u5bab": 31785, "\u6d6e": 31171, "ently": 2250, "TEST": 9552, "\u2581hood": 21224, "\u2581Num": 15755, "\u2581events": 3926, "WEBPACK": 16524, "\u2581Lauren": 23119, "rh": 28352, "efficient": 28627, "\u2581\u0421\u043e": 7447, "\u2581DS": 25840, "lg": 10950, "KS": 23143, "\u2581Arbe": 24355, "\uff08": 29186, "},{": 23897, "\u0434\u0456": 5777, "\u2581Group": 5926, "\u2581zam": 23884, "\u2581invol": 3303, "UI": 5057, "\u2581folg": 15280, "gun": 7429, "less": 1503, "illas": 21917, "\u8089": 31736, "\u2581\u0432\u0456\u0439": 18997, "\u2581accepting": 22368, "\u2581TV": 5046, "oder": 5722, "lc": 24228, "fl": 1134, "aration": 9477, "\u2581anticip": 12595, "\u2581Juni": 17099, "\u2581framework": 10782, "Assign": 23572, "cle": 1812, "\u2581secret": 5169, "hens": 7533, "';\r": 18759, "\u00e1n": 2892, ".(": 21057, "\u2581probability": 10966, "\u2581communes": 24657, "\u2581mobility": 27218, "\u092a": 29794, "\u2581Doc": 18402, "Info": 1895, "controls": 23664, "Subscription": 19590, "\u2581Col": 1888, "\u2581stars": 7448, "\u2581toll": 24910, "\u2581w\u00e4hrend": 20885, "W": 28780, "\u5922": 31494, "\u2581Sugar": 27333, "\u2581Warner": 25533, "\u2581Kr": 7787, "Gl": 6197, "]\",": 23772, "\u2581face": 2105, "btn": 8226, "\u2581components": 8076, "\u2581neighbour": 18583, ")}(": 20089, "WIDTH": 24278, "%,": 16036, "\u2581cognitive": 25746, "\u0081": 29766, "points": 8362, "\u2581d\u00e9but": 19693, "\u0948": 30950, "\u2581ry": 24780, "\u2581nost": 19098, "\u02d9": 29776, "\u2581Pict": 22262, "\u2581emer": 5177, "\u2581task": 3638, "\ub108": 30933, "\u2581impressive": 14714, "\u2581soup": 18851, "SC": 3315, "lement": 1044, "\u2581cannot": 3573, "ibil": 14820, "\u2581restrictions": 17204, "\u2581practically": 20119, "\u2581satisfaction": 16456, "\u2581Eddie": 19768, "\u2581nam": 10673, "angles": 21744, "exist": 22871, "\u2581DL": 23478, "\u0448\u043a\u0438": 23858, "\u2581new": 633, "STRING": 10505, "\u2581y": 337, "\u2581imported": 26659, "\u2581Detect": 25158, "\u2581characters": 6128, "\u2581Vice": 17224, "prote": 8716, "\u2581Bis": 23764, "Worker": 18155, "\u5510": 31423, "ayout": 2633, "\u2581sing": 1923, "\u3079": 31148, "Cent": 18503, "\u2581Spr": 15946, "\u0442\u0435\u0439": 22635, "\u2581champ": 22942, "\u2581pont": 20687, "<0xB6>": 185, "\u2581rope": 19818, "\u2581poder": 20500, "\u2581admin": 11173, "\u2581What": 1824, "west": 7471, "protocol": 12787, "Lib": 15640, "cx": 14415, "oux": 20149, "\u2581Edge": 22472, "\u2581designated": 20444, "PCI": 24271, "\u2581wel": 5661, "\u2581increasingly": 13107, "\u2581cyber": 23449, "\u2581nuc": 8523, "\u2581Pers": 10407, "\u2581Mit": 6684, "istrz": 20061, "\u2581nutrition": 25986, "\u00ea": 28876, "ics": 1063, "Av": 9269, "\u2581datasets": 26882, "\u2581Prize": 19751, "\u2581germ": 23157, "\u2581putting": 8190, "pectives": 26859, ">(\"": 10622, "\u5386": 29868, "\u2581disappointment": 26820, "\u2581phr": 23660, "\u0531": 30953, "Comput": 21293, "Inter": 3355, "\u2581v\u00fd": 15173, "\u2581profes": 20078, "\u2581broken": 7098, "\u2581totally": 8913, "udder": 24646, "\u2581JavaScript": 26281, "Pan": 22922, "\u0435\u0442": 2734, "\u2581dernier": 26592, "Forms": 8917, "\u2581Glasgow": 27402, "\u2581Rivers": 28574, "\u223c": 30567, "\u2581taste": 9230, "\u2581excess": 11454, "\u2581Oil": 16181, "\u2581Moscow": 17293, "\u2581vaccine": 21250, ")\r": 3174, "\u0441\u0442\u0440\u0438": 27342, "\u5377": 31089, "\u2581ya": 10129, "\u2581larger": 6084, "\u2581fmt": 9755, "Request": 2212, "\u2581Debug": 18536, "with": 3415, "iors": 13771, "\u2581Der": 4823, "asha": 17497, "TRANS": 24941, "activate": 21452, "\u2581Spe": 8819, "\u2581Hunt": 25438, "\u2581ANY": 5788, "\u2581binding": 15662, "\u2581Justin": 21252, "\u2581releasing": 28364, "\u2581compelling": 26295, "'.": 4135, "\u2581organic": 15897, "\u00dd": 31113, "\u2581(": 325, "\u4e8e": 29160, "\u2581Cam": 5487, "\u2581sheer": 23339, "though": 3128, "Public": 14140, "\u2581ERROR": 16383, "did": 18568, "\u2581Meet": 23859, "\ub610": 31292, "idas": 12563, "\u00e9t": 2959, "\ud83d\udc4d": 30195, "\u2581exh": 26112, "\u2581\u0431\u0435": 8907, "\u2581besk": 11899, "\u2581pol\u00edtica": 26854, "appings": 21044, "<0xE2>": 229, "\u2581Max": 5824, "\u2581ds": 18099, "Strings": 24567, "aba": 5544, "\u0938": 29671, "Very": 26119, "\u6545": 31063, "\u2581Caroline": 23217, "\u2581stating": 23630, "uso": 14103, "\u2581blocks": 9478, "\u2581ki": 12883, "\u2581signature": 12561, "\u2581LIMITED": 20881, "\u2581bias": 16117, "\u2581Kids": 21186, "\u2581most": 1080, "\u2581restriction": 21724, "Fill": 16946, "\u2581Este": 20586, "\u2581sources": 7291, "\u2581years": 1267, "bud": 16445, "Decimal": 16682, "\u120d": 31741, "\u2581expressions": 16948, "\u2581lum": 17709, "BC": 4738, "ainted": 21169, "\u0635": 29308, "\u2581uit": 5478, "\u2581exemple": 26260, "\u2581\u0443\u0431\u0438": 28174, "\u0569": 31502, "\u2581debug": 10183, "\u2581Section": 8397, "\u5176": 29450, "\u2581orbit": 18547, "neut": 23806, "\u589e": 29660, "idding": 18790, "istic": 3320, "\u2581institutions": 12638, "\u044f\u0442": 13793, "\u2581argc": 24905, "\u2581embar": 12261, "\u2581nas": 12472, "dem": 8343, "bery": 26666, "\u2581Federation": 22520, "ison": 2350, "anth": 12344, "\u2581Palestinian": 28591, "AT": 962, "grade": 7844, "(/": 16552, "\u2581welfare": 21607, "\u2581taxi": 24550, "\u2581Pul": 26134, "\u2581machines": 12155, "igue": 12216, "\u5411": 29478, "\u2581pointer": 10300, "\u2581fl": 972, "mg": 11897, "\u2581Che": 4537, "iers": 3378, "sprintf": 27292, ">=": 23343, "\u0443\u0440": 8339, "tta": 19016, "\u2581Papa": 27091, "\u2581facing": 11981, "kl": 4784, "visit": 19090, "\u2581governing": 10569, "\u2581Eq": 9692, "\u2581chim": 21367, "Cat": 19962, "illa": 4534, "\u2581relaxed": 18788, "\u2581mixture": 16232, "(`": 11045, "\u2581view": 2204, ";\r": 1271, "\u2581instead": 3519, "standing": 8509, "\u00eatre": 8437, "\u2581FM": 23586, "\u2581bekan": 21989, "cite": 1935, "\u6307": 29223, "\u2581central": 5971, "\u2581likely": 3917, "span": 3721, "\u2581Finland": 19186, "\u2581crushing": 21456, "React": 18096, "ount": 696, "thumb": 20152, "gesch": 12386, "\u00f8": 28911, "\u2581affairs": 17313, "\u2581instructor": 27679, "\u2581THE": 3799, "\u2581urgent": 25976, "\u2581Avoid": 27038, "\u2581fits": 16395, "\u2581vary": 11204, "\u2581curve": 11903, "\u2581Help": 15576, "umm": 17068, "\u2581Ian": 17311, "verse": 4177, "za": 2166, "Det": 5155, "\u2581April": 3999, "\u2581Fe": 4615, "\u2581Stock": 11548, "\u2581transportation": 17408, "\u2581bark": 19976, "\u2581temps": 12974, "\u2581Jama": 26152, "hbar": 22559, "NA": 3384, "gram": 1596, "\u0121": 31173, "lings": 15073, "\u2581init": 2339, "\u2581Deg": 24866, "Operator": 13583, "\u2581teens": 27995, "\u2581scores": 14428, "\u62db": 31654, "\u2581Zone": 20312, "\u0437\u0434": 16671, "\u2581v\u00e9g": 28486, "\u2581temp": 7222, "\u2581Pays": 26828, "\u2581Q": 1186, "\u2581\u0442\u0440\u0438": 15397, "\u2581om": 3422, "\u2581s\u00e9": 7553, "\u2581Blue": 8836, "bey": 23815, "\u2581\u044d\u0442\u043e\u043c": 26512, "reach": 18932, "azu": 22960, "als": 973, "dist": 10295, "\u2581Build": 8245, "i\u00f3n": 1762, "\u77ed": 30132, "xim": 5152, "\ud83d\udcb0": 31697, "bles": 9343, ">%": 24801, "mi": 3589, "\u2581naar": 12547, "\u2581Guard": 12391, "INTE": 28421, "olk": 27227, "\u2581Senator": 22927, "\u2581#####": 5609, "\ud83d\ude01": 30707, "Inf": 20417, "imal": 3048, "alling": 20441, "\u2581'\\": 8846, "Len": 9408, "ett": 2973, "AC": 1645, "\u2581succeed": 9481, "ounced": 14271, "\u2581Besch": 26231, "has": 3537, "print": 2031, "DRV": 24664, "\u2581wake": 11088, "\u2581Tre": 9485, "\u00bb,": 6279, "\u2581Saturday": 8513, "\u2581medal": 16338, "enger": 9243, "\u2581six": 3522, "\u2581Rule": 19712, "Qt": 20193, "\u5217": 29150, "\u9589": 31964, "iek": 18627, "\u2581shaking": 17030, "ise": 864, "\u2581Champion": 17229, "ugno": 24099, "\u516c": 29443, "\u0cb5": 31802, "asset": 17702, "\u2581men": 1683, "\u5434": 31812, "ces": 1377, "\u00fb": 28951, "ethod": 1301, "\u2581Austria": 19219, "\u2581Dy": 25685, "\u2581diciembre": 26921, "\u2581even": 1019, "\u2581Secretary": 14051, "\u2581stick": 6906, "\u2581(&": 17535, "\u0b9f": 30251, "c": 28717, "TMP": 15916, "Test": 1963, "plit": 3255, "itted": 3309, "\u2581IE": 20244, "\u2581Diana": 24728, "\u00be": 29867, "\u2581apparent": 7566, "gray": 17645, "\u5e55": 30911, "\u2581Anna": 11106, "\u2581experiments": 14107, "\u2581participated": 21510, "\u2581hoof": 28376, "Analysis": 22039, "\u0626": 29690, "Period": 18749, "\u2581Lip": 24137, "\u2581cens": 19983, "worker": 18205, "\u03b4": 29158, "\u9012": 30380, "\u2581wall": 3500, "chi": 4416, "umi": 12965, "\u2581infrastructure": 14461, "NG": 17167, "\u2581opponent": 20364, "\u0abe": 31290, "Touch": 16839, "rypto": 10690, "\u2581Ever": 12763, "\u2581Attribute": 24216, "\ub3c5": 31930, "asted": 13072, "\u0431\u0435": 5744, "\u2581resign": 22883, "\u2581railway": 18051, "\u2581SQL": 13208, "\u2581corruption": 21363, "ears": 5940, "\u2581Pearl": 25895, "\u2581specify": 15759, "\u2581capit": 16809, "oint": 804, "fields": 7434, "\u2581Schema": 24051, "\u2581constr": 8130, "\u0e20": 31034, "\u2581technological": 26515, "cret": 3927, "ople": 845, "ert": 930, "asp": 10124, "\u60c5": 29418, "\u53d8": 29389, "\u2581complete": 4160, "\u0433\u0430": 2618, "\u2581Owen": 24352, "\u2581must": 1580, "\u2581receiving": 11864, "\u2581Oktober": 17721, "\u2581Ki": 22485, "VS": 23999, "\u2581jewelry": 25528, "\u043c\u0438\u043d\u0438\u0441\u0442\u0440\u0430\u0442\u0438\u0432": 26332, "\u2581expr": 19609, "\u2581stream": 4454, "\u2581solve": 12049, "hex": 17524, "plication": 2459, "conduct": 27835, "\u8457": 30878, "\u2581rehe": 25562, "T": 28738, "ouch": 3204, "ams": 5322, "\u2581women": 2525, "\u2581eu": 19932, "\u2581fram": 23426, "\u30a4": 29157, "ela": 4403, "\u2581Were": 25020, "emplate": 3949, "\u2581and": 304, "=>": 4929, "\u2581implemented": 13492, "ieu": 14021, "\u3078": 30667, "\u0445\u043e": 2593, "\u2581Avenue": 13994, "\u2581namely": 19902, "\u2581coeff": 12626, "\u2581sei": 18578, "\u2581Caption": 6534, "\u667a": 30882, "\u043e\u0433\u0440\u0430\u0444\u0438": 14784, "\u2581Gest": 25417, "esser": 25711, "\u2581\u0414\u0438": 16189, "rupted": 17488, "training": 25714, "bro": 5601, "(!": 6469, "errors": 9705, "\u2581holiday": 12010, "\u2581Corporation": 12377, "ulty": 13739, "dn": 13984, "\u2581GR": 19348, "\u2581GC": 22278, "amon": 22686, "\u2581feed": 5575, "\u2581Hero": 20827, "\u2581force": 4274, "\u4e25": 31871, "__,": 8934, "\u2581annoying": 22069, "\u2581abundance": 25468, "\u884c": 29037, "================": 3047, "\u2581Ernest": 27915, "\u2581[...": 21089, "\u76ee": 29222, "ember": 1314, "coord": 17213, "DUCT": 27074, "\u8aa4": 31323, "\u2581drinks": 16195, "\u2581Sad": 16750, "\uac80": 30437, "\u2581conspir": 19728, "\u2581Franz": 17672, "frag": 19221, "\u2581Published": 22837, "short": 10046, "\u2581teeth": 9033, "rection": 19445, "onymous": 12928, "\u0447\u0435\u0441\u043a\u0438\u0445": 20678, "sen": 6448, "inta": 20926, "\u2581sender": 17560, "\u2581closing": 12984, "\u2581kn": 747, "RIGHT": 14166, "\u2581tt": 28652, "\u2581Tennessee": 19793, "\u2581wish": 5138, "Argument": 8949, "\u00b4": 29204, "\u064a": 28972, "%.": 13210, "igung": 19089, "\u2581lined": 21161, "xff": 5600, "\u0411": 28861, "gress": 2736, "inet": 7752, "\u2581Quant": 22655, "require": 6351, "\u0444\u0438": 4981, "cher": 6113, "otic": 7839, "\u2581Convert": 16186, "apers": 6410, "\u2581declined": 23043, "\u2581drain": 18946, "arely": 6672, "\u5939": 30900, "\u2581Res": 1992, "\u2581destro": 22089, "\u2581magazines": 22916, "\u2581Mason": 21507, "\u2581R\u00fcck": 25539, "\u2581\u0422\u0443": 24519, "\u2581revolution": 11029, "ner": 1079, "Scene": 17781, "jas": 20490, "Pop": 10022, "umen": 20341, "\u2581hig": 3259, "\u2581launched": 11087, "entials": 10633, "yg": 9690, "\u2581libraries": 24133, "\u2581\u0414\u0430": 13608, "\u8def": 29361, "bio": 20699, "ch": 338, "pref": 16697, "\u040a": 29715, "\u2581abroad": 18836, "IMIT": 12315, "\u2581propri": 25681, "\u2581government": 3058, "uel": 3009, "\u2581Olympic": 19403, "nown": 3676, "\u2581\u043f\u0440\u043e\u0442\u0438\u0432": 19636, "\u75c5": 30962, "\u2581Luck": 22781, "sil": 22585, "\u2581Too": 16601, "err": 694, "\u2581enter": 5870, "sylvania": 14790, "Les": 15685, "\u2581assuming": 16347, "\u2581design": 2621, "\u2581tracking": 15271, "\u2581competing": 23183, "\u2581\u0434\u0435\u044f\u0442\u0435\u043b\u044c": 26787, "Day": 12422, "\u2581yoga": 21615, "\u2581dessen": 23092, "\u2581aster": 28693, "\u865f": 30809, "\u0415": 28907, "\u2581\u043e\u0444\u0438": 28266, "\u2581hal": 10846, "\u2581\"-": 11645, "\u2581Schaus": 26693, "\u2581caut": 13831, "\u2581)\r": 14619, "ey": 1437, "omorphic": 22631, "ysz": 27713, "\u2581reasonable": 11301, "\u8f91": 29815, "\u2581Minister": 8241, "\u043a\u0441": 7351, "ared": 1327, "pb": 11497, "JS": 11121, "\u1ed3": 30241, "lie": 5715, "\u2581experiment": 6878, "\u2581Kas": 22965, "rets": 18716, "\u2581dark": 3199, "\u010de": 27351, "\u2581Europ": 10122, "otype": 21475, "\u0442\u043e\u0432": 7660, "success": 7910, "\u2581rather": 3210, "Arrays": 23739, "\u2581Craft": 27310, "Router": 16907, "\u2581OK": 12206, "\u2581Bro": 4168, "linux": 8502, "\u2581writes": 13883, "\u2581internal": 5757, "anti": 7764, "\u2581participate": 14092, "PY": 11519, "\u2581guilty": 14227, "\u5f02": 29761, "-----": 13918, "\u2581un": 521, "\u2581\u0421\u0442\u0430\u043d\u043e\u0432": 20896, "\u043f\u043b\u043e": 23563, "\u2190": 29787, "detail": 16017, "Arguments": 19024, "\u2581abilities": 17866, "\u2581Lu": 4960, "\u2581fixture": 20284, "\u2581organis": 14658, "\u2581zm": 19523, "\u2581sac": 6923, "'):": 18591, "Io": 26086, "\u00dfer": 28028, "\u793e": 30115, "\u2581pist": 16034, "ilon": 3451, "pawn": 25378, "\u2581assets": 12858, "ung": 969, "uj": 5872, "\u2581Pretty": 24111, "\u2581appearing": 19711, "ont": 677, "\u2581Buck": 16577, "\u2581cookie": 17661, "\u2581\u00a7": 25585, "\u2581Lam": 17018, "\u2581seg": 3979, "\u221e": 29725, "ELD": 11709, "\u3044": 29132, "\ubc18": 30192, "\u09aa": 30381, "\u0432\u0430\u0442\u0430": 28478, "\u2581dello": 23864, "\u5168": 29374, "\u2581Jahr": 6621, "\u2581inclu": 25712, "\u2581URI": 22356, "acy": 2426, "\u9996": 29993, "\u2581django": 24848, "\u2581\u0444\u0435\u0432\u0440\u0430\u043b\u044f": 28240, "\u2581Must": 14242, "\u2581crypt": 18649, "\u2581CBD": 21108, "setText": 15206, "\u2581Tay": 10347, "wl": 13982, "own": 656, "\u2581selector": 14607, "\u0427": 28909, "JSON": 8438, "Did": 10277, "otti": 22703, "\u2581correction": 22561, "\u2581Ext": 10145, "\u2581habitantes": 22575, "Alloc": 14072, "\u9ad4": 31155, "GetString": 26331, "\u2581boy": 4531, "Lines": 21837, "\u2581inter": 791, "EventListener": 14101, "\u80b2": 31350, "\u2581learned": 5996, "\u2581Ins": 9513, "\u2581century": 5445, "getString": 14077, "\u2581standard": 4787, "\u2581Dead": 14292, "bourg": 20461, "\u2581happily": 24693, "\u2581Found": 5196, "\u043d\u0438": 669, "\u2581Fut": 27280, "inte": 15883, "\u043b\u0430": 1000, "\u00cd": 29107, "left": 1828, "apply": 10877, "\u2581Park": 4120, "\u012b": 29001, "\u80cc": 30402, "notification": 20476, "aux": 4601, "\u2581standing": 6328, "\u03a8": 31374, "\u2581Rah": 20398, "\uc0c8": 30993, "\u2581thanks": 8196, "\u2581GET": 15439, "\u2581walks": 16830, "\u0e1e": 29786, "\u2581sans": 12062, "\u2581ske": 11749, "\ud83c\udffe": 31541, "\u2581submitted": 16726, "\u2581distinction": 20677, "\u0649": 29591, "same": 21317, "\u2581kr": 11175, "Response": 2963, "vp": 15968, "\u2581Internal": 18939, "\u2581Nobody": 19816, "\u2581rated": 25101, "\u2581registration": 14409, "load": 1768, "onda": 13946, "sz": 5027, "\u9986": 31418, "\u2581preferred": 11719, "?:": 4394, "\u2581Live": 11635, "\u258c": 30073, "\u2581Taking": 20648, "St": 718, "\u2581exchange": 8877, "ued": 2465, "\u2581regulations": 15885, "National": 24939, "inea": 21406, "uge": 3683, "\u2581Fol": 12543, "\u056f": 30476, "\u2581Singapore": 17366, "\u2581approved": 12879, "\u2581assist": 6031, "\u2581vegetables": 19045, "cules": 21649, "\u2581Psych": 17221, "\u021b\u0103": 25055, "\u2581explain": 7282, "\ub9bd": 31751, "\u2581Look": 6412, "\u8db3": 30303, "\u2581Sep": 15493, "\u2581alternatives": 24524, "\u2581Village": 19243, "\u2581elements": 5176, "\u2581species": 7018, "orse": 14202, "wick": 9462, "$.": 1715, "rich": 6408, "ivo": 5462, "cases": 14418, "\u2581coron": 18167, "Reflection": 24633, "ERCHANTABILITY": 13078, "\u2581sout": 17465, "\u2581Burg": 17646, "\u2581much": 1188, "xis": 12658, "RL": 5419, "\u2581Apparently": 24098, "Converter": 18670, "\u2581sorry": 7371, "\u2581session": 5313, "')\r": 22186, "driver": 8565, "\u2581Exper": 11135, "lic": 577, "engono": 26964, "\u2581\u0444\u0438": 8456, "concat": 16781, "\u0307": 31635, "\u17c4": 31956, "Ob": 1445, "categories": 24888, "\u2581hunger": 24358, "\u2581Amanda": 26413, "\u2581festival": 14416, "\u2581SHA": 18970, "ALL": 4945, "\u2581Pol": 2538, "<0xC9>": 204, "\u2581joining": 15508, "\u2581edit": 10659, "Band": 23852, "ivalent": 27524, "uvud": 17279, "\u2581valuable": 12302, "],": 1181, "zu": 13581, "Items": 7816, "Gener": 3602, "wake": 20001, "\ubbf8": 29967, "\u2581tur": 8586, "oud": 2456, "\u2581mood": 12247, "\u2581Manager": 13111, "Texture": 10761, "\u2581Now": 2961, "linked": 27465, "\u547d": 29598, "\u2581cyl": 20218, "ard": 488, "\u2581Ort": 14878, "\ub3c4": 29599, "\u2581Files": 27435, "\u2581Austral": 4351, "\u661f": 29950, "\u2581cfg": 16135, "\u2581unfortunate": 27245, "\u83dc": 30038, "NON": 20232, "\u2581\u0448\u0438": 20964, "=$": 8991, "\u0457": 28869, "\u043d\u044f": 1971, "\u2581carrying": 10839, "\u2581Diet": 17894, "esota": 17231, "\u2581Runtime": 14046, "\u0442\u0440\u043e": 14162, "\u2581\u041f\u0443": 25636, "Utility": 26481, "ath": 498, "annotation": 10066, "\u2581logo": 16388, "\u2581exam": 4174, "\u2581padre": 19866, "ienia": 24817, "\u8c03": 29231, "\u5b9f": 30513, "json": 3371, "em": 366, "\u2581Court": 6924, "\u2581narrow": 8484, "charge": 14978, "rollment": 27518, "\u2581breaks": 15667, "\u2581multiple": 5166, "por": 2006, "\u2581understand": 2380, "Stat": 6181, "\u2581designs": 13580, "\u2581Mad": 5311, "hund": 13101, "\u2581Sic": 22664, "\u2581Johann": 12381, "\u8c46": 31368, "IOException": 15211, "\u2581affair": 19179, "\u2581Sally": 27034, "\u2581bad": 2607, "\u2581Following": 13407, "\u2581fer": 7724, "\u2581ED": 15687, "iful": 3982, "\u2581Execut": 11663, "\u2581satisfying": 18558, "uve": 22322, "\u2581formerly": 26422, "\u2581\u0432\u0456\u0434": 6233, "__(/*!": 25351, "\u2581champions": 27345, "major": 20065, "\u2581advance": 8670, "\u2581vest": 16568, "oric": 16891, "\u2581accur": 6464, "OP": 2759, "\u2581dismiss": 12983, "\u2581ihr": 11893, "\u2581*)": 4491, "\u2581Dor": 10707, "\u2581employees": 7896, "ole": 1254, "\u2581anom": 24561, "\u2581Sr": 25854, "Int": 2571, "BF": 15696, "ings": 742, "\u2581clo": 23390, "\u2581bitch": 20006, "\u2581$\\": 878, "\u2581traged": 21389, "\u2581province": 14707, "esen": 23668, "eny": 20552, "\u2581Fisher": 22174, "\u2581obs": 14848, "ator": 1028, "\u2581James": 4797, "acle": 7338, "\u0438\u0441": 15333, "\u2581_.": 17309, "\u2581collar": 24018, "\u2581assumes": 27460, "\u2581Ken": 8885, ">'": 14117, "Sc": 3224, "\u88ab": 29458, "\u3042": 29674, "compass": 24975, "\u2581dimension": 9711, "\u0292": 30299, "ique": 1651, "\u2581hw": 23953, "yard": 10892, "Extension": 10430, "ervice": 1898, "\u2581Tamb": 17432, "\u2581analyze": 20765, "\u2581commands": 15380, "\u2581plat": 24474, "(:": 7306, "groups": 12420, "\u2581pa\u00eds": 18976, "\u2581tries": 14744, "rake": 21868, "oid": 806, "PIO": 11727, "oly": 20055, "\u2581\u041f\u0440\u0435": 10164, "\u4e45": 30642, "uct": 3699, "\u2581congress": 22692, "Air": 22764, "\u641c": 30125, "\u2581awareness": 13619, "\u5948": 31869, "\u2581\u043c\u0443": 6597, "stad": 10862, "\u2581statue": 22594, "ims": 7805, "yy": 8772, "parse": 5071, "\u2581Those": 8827, "\u2581Jewish": 9952, "[])": 21577, "\u2581McDonald": 25999, "texttt": 19206, "':": 1869, "<0xA8>": 171, "\u2581\u0436\u0435\u043d": 21741, "ATA": 5854, "\u4e91": 30121, "<0xC2>": 197, "\u1d1c": 31892, "lib": 4472, "\u2581comment": 4517, "\u2014\"": 6816, "Du": 17379, "\u2581assertTrue": 21923, "\u2581m\u00f6": 21461, ")**": 10095, "TAG": 12137, "\u2581\u041c\u0438": 8082, "\u2581continually": 27388, "\u5c4b": 31229, "\u2581datetime": 23916, "\u2581producer": 13876, "\u2581Trans": 4335, "\u2581bar": 2843, "\u2581Pam": 22238, "\u2581seiz": 25368, "\u2581Abstract": 14372, "\u2581Insert": 27234, "\u09cb": 30818, "\u2581acres": 20647, "JO": 24714, "Cookie": 22519, "\u2581dit": 8052, "\u2581garage": 16699, "sa": 3820, "\u2581made": 1269, "\u2581\u0433\u0435\u043d\u0435": 20831, "\u2581er": 1234, "\u2581joke": 13015, "amp": 1057, "PDF": 28484, "nab": 7563, "\u2581miles": 6052, "Pipeline": 20190, "Direction": 14757, "\u2581lors": 11989, "\u2581attending": 19735, "\u2581initialized": 24121, "});\r": 26636, "Common": 12081, "\u2581Dialog": 27304, "\u0303": 30039, "\u2581'\"": 14503, "owi": 24810, "\u7b56": 30777, "weak": 25668, "\u2581inspir": 22547, "\u0440\u0456": 4278, "ov": 626, "\u2581prevents": 27878, "\u2581compl": 3852, "\u0103r": 24703, "\u2581they": 590, "idity": 21545, "\u6c49": 30688, "channels": 16335, "Tele": 21468, "\u2581Georg": 7505, "\u2581links": 9136, "\u2581droit": 28031, "But": 2438, "unicip": 6724, "\u2581removed": 6747, "\u2581Ram": 8839, "COL": 9600, "referto": 28557, "\ud638": 29730, "\u2581concept": 5935, "\u2581slave": 13890, "\u2581overall": 7544, "\u51b5": 30181, "rp": 16638, "\u2581\u043b\u0438": 5952, "\u2581Hass": 27340, "\u2581members": 3338, "\u2581Vis": 6908, "\u2581marry": 16586, "elfare": 18029, "cep": 18316, "pit": 19594, "\u2581invested": 24161, "\u7d30": 31451, "._": 1573, "\u2581frowned": 21442, "deserialize": 25689, "ehicle": 21282, "ely": 723, "ym": 1082, "\u2581Cal": 2984, "\uff1b": 29743, "\u2581homem": 28431, "\u2581missed": 10012, "\u00edr": 19236, "\u2581BB": 19942, "\u2581Bill": 6502, "\u2581understands": 27422, "*>(": 19011, "\u2581interesting": 5853, "tz": 19540, "\u8bf7": 29067, "sid": 17554, "\u2581sword": 13443, "\u2581tops": 27259, "ript": 6473, "\u2581crying": 15671, "\u2581rt": 22435, "\u2581deadly": 23950, "\u2581Young": 9465, "amination": 25914, "iq": 26325, "\u2581seat": 7278, "\u2581philosoph": 8829, "reverse": 24389, "\u2581charity": 20598, "\u307f": 29921, "attan": 18244, "mesh": 18372, "\u4f73": 31255, "KEY": 6478, "yout": 16478, "\u2581Full": 11439, "\u2581fiction": 14344, "ULAR": 12103, "\u2581Spring": 9199, "\u2581Haz": 23990, "\u2581thickness": 28032, "rawn": 7936, "COMMAND": 26829, "\u2581unemployment": 28634, "\u2581g\u0142": 24245, "URI": 12464, "\u2581lips": 8852, "raw": 1507, "\u2581discussing": 20633, "\u2581Dit": 24395, "\u2581Jim": 6715, "console": 14124, "^^": 13958, "\u0440\u043e\u0439": 11835, "\u2581\u0438\u0441\u043f\u043e\u043b\u044c\u0437\u043e\u0432\u0430": 28658, "dst": 8529, "dom": 2920, "aller": 7590, "\u2581glo": 19720, "\u2581Gel": 23704, "zip": 13249, "\u00d7": 28946, "acket": 9170, "ici\u00f3n": 10910, "\u2581today": 3154, "\u0421\u0420": 12402, "impse": 26612, "\u2581cares": 22338, "\u2581reflect": 7967, "Queue": 9583, "\u0425": 28904, "Schedule": 22818, "\u653e": 29441, "\u2581slic": 17341, "olf": 5209, "\u2581[\\": 26239, "\u0410": 28858, "\u2581cha": 10355, "setValue": 26532, "\u0448\u043b\u0430": 28095, "ician": 8247, "\u2581Heaven": 22830, "\u2581prior": 4681, "enn": 2180, "\u2581Dream": 14031, "\u2581shots": 14487, "dbc": 24369, "user": 1838, "arlier": 5265, "amount": 12922, "\u2581subset": 19804, "Overflow": 24181, "an": 276, "\u2581national": 4282, "\u2581Bal": 9573, "\u2581confusing": 26744, "\u2581Going": 25659, "ENT": 2431, "z\u0105": 10412, "mania": 25771, "\u2581\u00bb.": 13423, "\u102c": 30853, "rypted": 16632, "\u2581third": 4008, "icles": 4992, "itory": 4560, "\u2581divorce": 17714, "toBe": 12521, "Supp": 15653, "imes": 1198, "Force": 19714, "\u2581wreck": 22293, "disk": 17460, "ponse": 1405, "\u2581emperor": 25948, "Check": 3828, "\u0448\u0443": 16672, "\u2581There": 1387, "\u2581\u00b0": 8793, "\u2581sat": 2495, "Eval": 16627, "\u2581reass": 18126, "\u2581Alan": 15444, "\u0441\u0442\u0456": 8709, "Pet": 24234, "\u27a4": 31695, "\u2581Mand": 14572, "\u2581Afghanistan": 19756, "camera": 19779, "\u2581artic": 22187, "\u2581Est": 3978, "nitt": 20845, "\u2581handsome": 22215, "\u2581migrations": 27052, "\u0c82": 31966, "category": 8684, "\u2581measures": 10582, "\u2581devoted": 19312, "l\u00e9": 19838, "<0x17>": 26, "height": 4880, "\u044f": 28811, "Rot": 13722, "\u5ba3": 31587, "\u2581hiding": 16622, "\u2581stra": 4512, "\u043c\u0430\u0442\u0438": 15481, "some": 11183, "Trigger": 16140, "iments": 8447, "Integer": 7396, "lando": 23728, "irteen": 22490, "pragma": 20812, "\u2581Greg": 10920, "\u2581EL": 22630, "Book": 10670, "\u2581Saudi": 24613, "\u2581Island": 7633, "works": 17107, "\u2581\u0440\u0430\u0437": 5234, "Vector": 6162, "\u043b\u043e\u0432": 8865, "\u2581Pay": 9260, "\u2581Bitcoin": 22438, "\u6236": 31747, "Pixel": 17318, "\u1d1b": 31083, "\u2581Vert": 21970, "\u9700": 29259, "config": 2241, "\u2581physician": 21765, "idae": 7305, "\u2581SP": 14600, "\u0441\u043b\u0443": 16467, "\u2581SW": 13322, "\u2581developed": 6202, "\u2581campo": 23346, "\uacc4": 30106, "\u2581Training": 15394, "\u6df7": 31493, "\u2581{{": 13949, "urer": 8792, "erson": 1084, "\u2581cs": 7428, "\u2581\u0433\u043e\u0440\u043e\u0434\u0430": 22316, "\u2581used": 1307, "umber": 1031, "\u2581plug": 16605, "Units": 26437, "\u2581Crime": 25126, "ibly": 4912, "BB": 8923, "routing": 17975, "\u2581Public": 4271, "\u2581\u0440\u0430\u0439\u043e": 14159, "\u2581several": 2856, "The": 1014, "SHA": 18577, "was": 9380, "kv": 23546, "\u2581ah": 27069, "\u2581dispos": 12761, "istribution": 12074, "ime": 545, "\u2581considering": 9868, "\u2581d\u00e9cembre": 19344, "\u2581slavery": 21727, "dims": 25056, "Find": 10779, "Algorithm": 25302, "()))": 9859, "\u2581EV": 10752, "ipedia": 13189, "!\\!\\": 18378, "Ptr": 5094, "\u2581concer": 14055, "\u2581changes": 4435, "\u2581gegr\u00fcnd": 28222, "Cond": 8822, "\u2581minut": 28270, "\u2581Being": 12960, "Gre": 25656, "\u014b": 29930, "\u72ec": 30843, "\u2581Nevertheless": 18828, "\u2581Museum": 8770, "codes": 22019, "\u2581send": 4080, "aret": 8644, "k\u00e9": 10641, "\u2581bc": 27547, "ingo": 20837, "\u5bfc": 29773, "\u2581These": 2957, "\u2581modify": 9239, "Invoke": 21764, "\u7537": 30353, "mode": 4046, "\u2581wants": 5659, "\u0987": 31342, "iker": 9225, "\u2581mig": 16089, "\u2581washed": 21243, "Disk": 23308, "\u00f1": 28877, "\u2581impress": 7895, "\u2581Butler": 28070, "\u2581Ham": 5058, "aws": 6195, "\u2581sel": 7530, "ighter": 8918, "l": 28714, "\u2581genuinely": 22448, "idos": 7037, "\u6df1": 30330, "Object": 1713, "otted": 9752, "\u2581consisted": 24711, "\uc790": 29294, "\u2581pione": 21235, "\u2581amaz": 5818, "\u6309": 29518, "\u2581Kate": 14976, "\u30d8": 31760, "is": 278, "\uc9c8": 31959, "\u0446": 28833, "\u2581dressed": 12452, "\u2581adventures": 28005, "Jo": 22387, "\u26a0": 31433, "warning": 15845, "\u2581\u0433\u043e\u0440\u043e": 14896, "\u2581governments": 17475, "Met": 4680, "Primary": 17766, "\u2581altre": 28027, "\u00eb": 28919, "method": 4350, "Bel": 20548, "\u008a": 31009, "Luc": 27921, "\u2581barriers": 27222, "over": 1483, "\u2581coalition": 28131, "foreach": 15160, "ovi": 17694, "\u2581integral": 15558, "\u2581strlen": 19817, "\u2581submit": 13914, "IDS": 19954, "tex": 4690, "<0x6D>": 112, "aud": 5675, "\u2581presented": 7567, "\u2581blessed": 24141, "\u00e4chst": 22342, "Jack": 26803, "\u2581aut": 1206, "tax": 16019, "ependant": 26574, "\u0441\u0442\u0432\u0435": 13748, "bf": 1884, "\uacb0": 30075, "ific": 921, "\u2581Sher": 10511, "\u2581rip": 21832, "pie": 9053, "retval": 15063, "zej": 18871, "\u2581tray": 22517, "\u2581c": 277, "Resources": 13257, "\u2581sampling": 23230, "arth": 3616, "\u2581convers": 5315, "iano": 4728, "\u2581Roma": 17246, "\u5165": 29048, "\u2208": 30751, "\u00e5r": 5981, "\u2581turb": 18549, "totype": 5428, "\u2581Always": 17484, "\u2581flying": 11470, "\u2581Cra": 17129, "\u2581melod": 27043, "qq": 22736, "urations": 16963, "\u8bc4": 30252, "\u2581midst": 25165, "\u2581Us": 4547, "zza": 16802, "Ut": 20448, "}+": 9969, "Bits": 14721, "\u2581enhanced": 21733, "\u2581Schl": 21983, "\u043b\u0438\u0447\u0438": 25843, "\u6708": 29376, "serial": 12355, "\u2581\u044d\u0442\u043e\u0433\u043e": 26347, "\u2581ja": 10987, "\u2581du": 1415, "\u2581faz": 25406, "\u2581returning": 11585, "\u2581require": 2699, "\u2581sounds": 7258, "\u2581dimin": 17724, "PN": 12812, "\u2581\u2013,": 20120, "\u8fc7": 29202, "\u2581experiences": 9021, "\u2581Zen": 25153, "\u2581printed": 15180, "\u2581pent": 15094, "VB": 28576, "\u2581bits": 9356, "FLO": 20072, "\u2581Liberal": 18736, "elle": 3222, "Safe": 22147, "\u2581Hunter": 18476, "\u2581copies": 12221, "\u2581\u0432\u0443": 27983, "Logger": 9998, "\u2581filters": 17123, "\u2581lightning": 25456, "\u2581Coach": 24847, "\u2581rele": 4444, "entially": 7346, "aches": 5131, "\u2581horrible": 16826, "includes": 19459, "\u0435\u0440\u0435": 2850, "\u2581legacy": 17424, "\u2581camera": 7555, "ance": 617, "HR": 16197, "\u0436\u0438": 3139, "\u2581Episode": 24772, "\u2581retry": 21370, "\u2581losses": 16275, "generated": 12169, "\u2581Host": 15511, "chars": 23392, "\u7518": 31687, "},": 881, "cie": 9041, "\u2581leadership": 9802, "\u2581item": 2515, "\u2581sed": 9178, "\u2581provincia": 24180, "=[": 12303, "Task": 4818, "sep": 21571, "Ext": 5338, "iva": 5092, "\u2581rendered": 21795, "\u2581cells": 8894, "\u2581tele": 6584, "\u2581Good": 5801, "CP": 4100, "\u2581valor": 23666, "\uc81c": 29526, "equals": 7013, "\u2581foster": 27560, "\u2581perceived": 21887, "uch": 903, "\u2581Unless": 9954, "floor": 15261, "ket": 10304, "\u2581manufact": 6298, "counter": 12520, "Spell": 20130, "<0x99>": 156, "\u66f2": 30580, "\u2581corridor": 21550, "uras": 13798, "INSTANCE": 25956, "\u2581orig": 2172, "ocr": 3804, "\u2581Wal": 6418, "neg": 12415, "ika": 6012, "\u2581compatible": 17696, "\u2581\u00e9galement": 13417, "\u2581rapport": 18778, "ren": 951, "imen": 21538, "\u2581category": 8011, "\u2030": 30412, "\u2581WIT": 6626, "\u043a\u0456\u0432": 10180, "\u2581just": 776, "\u2581nuts": 21204, "\u4f7f": 29154, "\u2581\u00d7": 15770, "asures": 20139, "\u2581Mon": 3217, "\u0459\u0430": 21284, "six": 20410, "\u0430\u043d\u0434": 13435, ":\"": 4825, "\u2581TX": 17679, "\u2581Begin": 15152, "\u2581singer": 15307, "\u2581\u0414\u0436\u0435": 24690, "\u2581Norweg": 25067, "\u2581complic": 9768, "\u2581liberty": 26740, "\u2581To": 1791, "\u2581sophistic": 20327, "implement": 26922, "\u2015": 29370, "\u2581checks": 13804, "<0xAF>": 178, "minus": 15530, "Sink": 25512, "\u2581sequ": 5331, "\u2581blev": 12861, "atherine": 14468, "\u2581under": 916, "AGE": 6130, "\u2581Dest": 14466, "\uc804": 29600, "\u2581SHALL": 27287, "secondary": 26373, "\u2581Multi": 18317, "\u2581refugees": 25611, "\u2581seats": 13885, "\u2581communications": 16300, "\u2581Simply": 26497, "<0xA1>": 164, "ways": 1504, "\u2581reaching": 13323, "\ud83d\ude0f": 31574, "opt": 1642, "\u2581officers": 9164, "\u2581Nin": 24845, "\u2581hallway": 23655, "pha": 2019, "\u2581cream": 10558, "ug": 786, "Help": 17302, "fection": 11264, "\u2581Place": 11851, "\u2581disg": 18026, "azine": 7868, "pc": 3280, "\u2581Economic": 20451, "Ord": 22788, "iseconds": 24589, "\u2581Glad": 28692, "GRO": 14234, "\u2581WM": 27704, "\u2581inv": 1304, "VALUE": 10015, "NEXT": 14026, "URCE": 15375, "]));": 20568, "\u2581imagination": 16842, "days": 13298, "\u2581driver": 6303, "\u2581purely": 21690, "\u2581segments": 20105, "\u2581week": 1819, "lap": 15578, "fol": 5880, "\u043d\u044c": 7934, "EQ": 5692, "\u2581saf": 4972, "\u2581smiled": 7970, "...'": 22984, "\u2581couple": 4308, "\u2581mare": 25420, "\u0695": 30983, "\u2581tanks": 20274, "ark": 719, "\u53f7": 29170, "Sign": 7384, "\u2581para": 2646, "\u2581Hong": 12966, "LOW": 9630, "\u2581municipal": 15539, "\u2581supportive": 27729, "\u2581recommended": 11572, "\u2581Code": 7596, "\u2581Gh": 15526, "\u2581\u0410": 2182, "\u064b": 30743, "\u2581Motor": 17933, "=\"{{": 21686, "\u00e4hlt": 25409, "'\r": 27732, "\u2581None": 3635, "\u0447\u043a\u0430": 19247, "\u2581e": 317, "\u2581minds": 14898, "\u2581pob": 9492, "src": 3478, "\u2581conventional": 17215, "Id": 1018, "\u2581prop": 3313, "\u2581something": 1545, "Show": 8398, "\u2581encouraged": 15863, "obal": 1995, "onden": 27353, "\u2581drunk": 12731, "\u2581\u0433\u043e": 1695, "oni": 7997, "\u2581PL": 17980, "Does": 20510, "trfs": 26969, "third": 16507, "\u2581watches": 26066, "\u2581baseline": 26605, "\u2581elevator": 26445, "\u2581visits": 17217, "Random": 14735, "\u2581Salt": 21943, "CodeAttribute": 23583, "\u2581\u041b": 3218, "\u2581Several": 15223, "\u2581ps": 12384, "\u2581numbers": 5551, "\u2581sucks": 25033, "shit": 16371, "\u2581Finally": 8126, "\u2581Ministry": 17036, "\u2581Matt": 7149, "\u2581drops": 17472, "Ha": 26135, "angular": 8685, "\u2581screw": 14693, "\u2581apparently": 10596, "\u2581buzz": 21242, "\u2581mothers": 21574, "iar": 9043, "\u2581publi": 25918, "\u03ce": 29803, "\u2581quantum": 10915, "ahren": 18657, "\u2581Chicago": 8449, "border": 11941, "\u2581possible": 2572, "\u2581core": 6421, "\u2581television": 8575, "\u2581turned": 2897, "INSERT": 26587, "hung": 25934, "idth": 1634, "registry": 22464, "\u2581married": 6368, "\u2581bind": 12365, "wort": 28577, "iko": 13370, "\u00db": 31530, "\u179b": 30964, "\u2581expand": 6710, "attr": 3457, "\u2581betting": 22567, "finity": 19104, "\u0160": 28966, "enumerate": 14783, "\u2581belly": 19146, "jev": 24896, "chn": 1818, "\u738b": 29825, "xC": 9075, "\u2581bacteria": 24038, "\u4e95": 30729, "\u2581picking": 16029, "chied": 26881, "),\\": 19908, "\u0433\u0443": 5378, "\u0446\u0456\u0457": 11071, "cock": 25588, "\u2581apro": 18883, "\u2581hacia": 21675, "\u0294": 30317, "ischen": 3096, "ended": 2508, "ORD": 6276, "Wrapper": 10843, "\u2581Ess": 11299, "probe": 20369, "ammen": 13076, "emen": 15295, "\u057a": 31881, "akespe": 17274, "\u2581Sak": 24586, "\u2581firms": 18253, "\u2581Excell": 22369, "\u2581Specific": 23518, "\u2581Kol": 15018, "mixer": 17728, "\u2581SL": 20375, "\u2581pd": 17479, "\u2581After": 2530, "Search": 7009, "ma": 705, "matrix": 8054, "\u2581'../": 13285, "xt": 510, ";/": 16663, "\u2581instruments": 17937, "\u2581isset": 20050, "\u0219": 28903, "\u2581verschied": 24360, "\u1010": 31624, "nan": 15713, "\u0441\u043e": 2688, "\u10d2": 30218, "\u2581Cert": 12089, "tt": 781, "\u2581symmet": 10003, "\u0442\u0438\u0438": 28430, "\u2581\u0443\u043f\u0440\u0430\u0432": 26263, "\u0388": 31586, "\u2581ADD": 26827, "\u30d5": 29412, "commons": 26527, "\u2581injury": 11254, "\u2581prove": 7674, "nod": 26177, "\u2581ABC": 22673, "ENABLE": 12050, "\u2581conc": 3078, "\u2581vale": 28210, "\u2581\");": 14588, "\u2581SC": 9730, "\u2581Black": 4777, "\u0441\u043a": 8283, "generate": 15001, "ultur": 18604, "\u014f": 29869, "\u1014": 31226, "\u2581intermediate": 22602, "\u2581clusters": 20501, "\u6c47": 31768, "olving": 18390, "\u0441\u0442\u0432\u0435\u043d\u043d\u043e\u0439": 25166, "\u2581kt\u00f3re": 26320, "news": 14290, "\u2581scattering": 21635, "\u2581<<": 2087, "\u2581proposed": 8278, "noindent": 14458, "\u2581texts": 19337, "\u2581@": 802, "\u2581zona": 21193, "\u2581immer": 23030, "zym": 17304, "\u2581split": 7925, "\u0431\u0443": 5512, "ogo": 13944, "\u2581Tony": 12040, "\u2581Reich": 16091, "r\u00e9": 9946, "\u2581Append": 20206, "\u2581Jour": 26074, "\u2581notes": 8321, "\u2581agenda": 20758, "\u670d": 29430, "isha": 22674, "\u2581Texas": 7826, "\u2581Lad": 20542, "\u000b": 30638, "\u2581declar": 18227, "\u2581strange": 8708, "\u0446\u044b": 17851, "\u2581Cup": 7440, "\u043b\u044f": 1941, "icro": 3130, "\u2581negotiations": 24146, "\u59cb": 29197, "\u2581hollow": 25052, "\u042a": 31045, "Cam": 11658, "\u2581drama": 13792, "\u2581Jordan": 14151, "\u2581surprisingly": 23107, "\u2581\u0444\u043e\u043d": 19968, "xic": 14443, "\u011d": 31720, "\u2581male": 7862, "\u2581legs": 7969, "Ship": 24946, "\u2581\u043b\u0430": 16064, "\u2581tot": 2209, "cont": 1399, "\u2581\u0432\u043e\u0435\u043d": 20641, "ampions": 5624, "\u2581secolo": 24748, "terday": 10479, "\u2581Mario": 20564, "uster": 3863, "\u2581Turkish": 23612, "\u2581\u0422": 2775, "\u2581inclusion": 23454, "\u0440\u043e\u043c\u0430": 25867, "\u2581upright": 27525, "\u2581operated": 16985, "\u043b\u043b\u0435": 16832, "\u2581conten": 26513, "G": 28777, "bw": 22304, "kn": 13223, "\u5de6": 29907, "\u043a\u0442": 6299, "H": 28769, "\u0441\u0435\u0440": 22269, "Break": 17240, "\u2581otro": 22441, "\u2581policies": 10086, "\u0099": 29380, "\u2581chamber": 16115, "mul": 18176, "\u015e": 29528, "\u2581Creates": 20518, "\u2581Qt": 20975, "\ucee4": 31582, "\u2581rigid": 25323, "\u2581ultimately": 12665, "\u2581Tur": 6372, "$)": 11996, "Fat": 24076, "inking": 10593, "\u2581Indiana": 19665, "Eng": 5871, "eed": 11196, "\u2581Each": 7066, "\u2581eyeb": 17659, "ografia": 13437, "serde": 19554, "\u2581Friends": 22371, "\u09a6": 30870, "Parameters": 7405, "\u2581struggle": 11371, "\u2581gradually": 17885, "\u2581gmin": 19079, "\u2581Stanford": 28116, "fect": 2793, "\u2581kall": 26608, "cci\u00f3n": 9699, "\u2581architect": 7821, "think": 24036, "\u2581chat": 10706, "\u2581Nederland": 20347, "\u2581\u044f\u043a\u0438\u0439": 25140, "ca": 2591, "\u4e2d": 28991, "\u2581elementary": 24267, "\u2581pregnant": 15446, "\u2581realized": 7185, "\u2581pronounced": 28232, "\u2581can": 541, "\u2581tide": 27860, "\u2581encontr": 17100, "\u2581sex": 3142, "eva": 13237, "\u2581farther": 20936, "\u099a": 31531, "<0x57>": 90, "\u2581embod": 21322, "athol": 23593, "\u0e22": 29448, "\u2581Fif": 16296, "\u7f51": 29533, "\u2581reduced": 9397, "good": 12684, "\u00e4ch": 12319, "\u2581Prin": 14495, "\u62e6": 31549, "noon": 8122, "ject": 664, "Template": 6937, "etry": 27533, "Ma": 20494, "\u6d1b": 31591, "${": 3996, "\u2581liver": 24824, "\u2581yesterday": 12091, "vious": 2123, "ersion": 3240, "\u252c": 30884, "\u6570\u636e": 21642, "\u5747": 30637, "\u7f85": 31749, "\uff01": 29267, "Return": 6168, "\u2581Perhaps": 9447, "\u2581assistance": 11611, "install": 10432, "\u2581domestic": 12866, "unkt": 13518, "fu": 21278, "date": 1408, "ugg": 23065, "\u2581sophisticated": 23213, "\u2581Mitglied": 20977, "\u2581copied": 23773, "Dam": 18312, "\u2581Mittel": 27026, "\u043c\u0435\u043d\u0442": 18664, "\u2581arrangement": 19705, "IsNull": 25230, "\u2581certain": 2552, "\u2581Fund": 11051, "respon": 3664, "Loc": 2871, "\u2581Mut": 16969, "sb": 4513, "moment": 26471, "reed": 2816, "\u3046": 29620, "ct": 310, "\u2581expecting": 15550, "UK": 22757, "nob": 25552, "\u2581\u0420\u043e\u0441\u0441\u0438": 13325, "\u2581cricket": 26023, "\u2581Posted": 17317, "args": 3087, "\u0441\u043a\u043e\u0439": 4683, "hn": 10721, "\u2581voll": 28353, "\u2581\u0441\u0440\u0435\u0434": 18203, "\u2581TO": 6991, "\u0e44": 29962, "\u2581vehicles": 11999, "Props": 7314, "\u2581derived": 11236, "\u0432\u0435\u0440": 4942, "ueblo": 27393, "C": 28743, "\u2581training": 4154, "\u2581Store": 13229, "\u2581DMA": 23173, "IGH": 18145, "\u2581interviewed": 28178, ")^": 7981, "\uc601": 30478, "lar": 15027, "harm": 24418, "\u2581sweat": 13898, "\u2581solar": 13024, "\u2581befind": 19856, "\u2581Lub": 25115, "\u2581structured": 28429, "\u2581FE": 21121, "upt": 20413, "kill": 20430, "\u2581argue": 13391, "DIP": 24090, "essions": 8642, "ikk": 28169, "\u2581person": 1338, "\u2581js": 14034, "\u2581ta": 14223, "\u2581wis": 14729, "cancel": 14883, "OG": 21112, "\u5df1": 29957, "spector": 21087, "\u2581\u0440\u043e\u0446\u0456": 13554, "album": 16068, "\u2581surve": 14989, "repo": 21150, "\u2581\u043b\u0435": 7622, "\u00fch": 11472, "\u2581Around": 22166, "\u2581elev": 9896, "\u2581colours": 22137, "\u2581Sand": 7512, "\u2581Ord": 22404, "mother": 13710, "number": 4810, "\u2581Isabel": 21274, "\u0440\u043e\u0434\u0438": 21145, "\u2581tamb\u00e9m": 17591, "\u2581toast": 26312, "\u2581recovered": 19471, "\u2581Stad": 4988, "Pat": 8243, "\u2581My": 1984, "\"\r": 11525, "\u2581symbols": 16212, "\u2581affects": 20777, "sWith": 23594, "}{\\": 3803, "\u2581Mechan": 27164, "\u529f": 29206, "\u2581tremend": 20555, "arch": 1161, "\u2581daughters": 19244, "cohol": 9725, "bild": 17086, "getOperand": 27862, "big": 4040, "\u2581photo": 8428, "\u2581observations": 13875, "\u2019,": 17906, "slug": 23983, "\u2581Ira": 11721, "\ubcc4": 31044, "point": 2275, "dk": 10885, "\u5f84": 29729, "Repository": 8813, "\u2581fueron": 18482, "em\u00e1s": 20540, "intel": 26876, "\u6bc1": 31699, "\u2581props": 11177, "\u2581confer": 26992, ",": 28725, "\u2581ay": 15250, "')->": 18364, "\u2581tucked": 26391, "\u03bd": 28976, "\u2581nur": 7475, "\u2581Fal": 16651, "\u2581drap": 26093, "kol": 16592, "\u2581f\u00f6": 14000, "\u2581demonstrated": 17793, "Service": 2328, "\u2581Tar": 14740, "\u2581learning": 5168, "\u2581rig": 10536, "\u2581Pak": 12044, "oard": 20446, "\u2581opp": 3562, "ucker": 20380, "py": 2834, "\u2581harmon": 26739, "gh": 591, "\u2581plasma": 28141, "\u2581Sales": 16377, "R": 28754, "\u2581AM": 10401, "\u2581from": 477, "setup": 11324, "\u2581endless": 18284, "\u2581contract": 5001, "icia": 17708, "\u2581Ren": 8734, "ponential": 25723, "\u043b\u044c\u043a\u043e": 14451, "Customer": 18477, "Was": 22648, "ical": 745, "Active": 8051, "dap": 24260, "\u70ed": 30898, "\u0437\u044b\u0432\u0430": 18084, "\u2581homosexual": 28035, "\u2581garlic": 25795, "\u00e9ben": 23825, "\u2581Food": 11435, "pty": 2046, "ever": 1548, "ased": 1293, "filter": 4650, "\u2581street": 5948, "\u5224": 29485, "i\u0105": 18424, "\u043b\u0451\u043d": 24731, "\u2581Amazon": 8701, "bes": 10354, "\u2581CS": 16594, "\u00e4": 28830, "\u2581stat": 765, "\u2581nou": 9276, "Up": 2738, "Images": 25322, "\u0431\u044b": 10092, "\u2581sitting": 6398, "return": 807, "\u2581struggled": 19274, "Toggle": 20464, "\u0637": 29330, "\u30e2": 30177, "andon": 7256, "\u2581Throw": 20277, "oli": 7320, "onal": 13921, "let": 895, "\u2581values": 3069, "\u2581Amaz": 7730, "\u1ecb": 29765, "\u2581succeeded": 17751, "aid": 3439, "CY": 26940, "\u2581noted": 8659, "\u10e4": 30880, "\u2581necessary": 4892, "uset": 13222, "\u00dc": 28961, "uple": 7723, "\u2581Kelly": 15282, "\u2581sym": 4297, "^\\": 4217, "rome": 7421, "\u653f": 30378, "\u2581appeal": 13650, "\u2581Jar": 20069, "ouse": 1284, "\u2581loan": 9976, "lat": 7387, "\u2581library": 7607, "Ang": 10201, "\u2581listener": 14078, "kir": 20741, "will": 13185, "\u2581lets": 16143, "\u2581Ensure": 25217, "\u2581modeling": 27472, "`);": 28682, "ensive": 4097, "\u2581Gebiet": 26240, "Multiple": 26905, "ifiers": 11980, "\u2581\u043e\u0431\u043b\u0430\u0441\u0442\u044c": 27216, "\u30bc": 31998, "\u2581mois": 27019, "\u01d4": 30466, "\u2581nic": 15750, "\u4f3c": 30694, "\u2581extends": 4976, "*/\r": 9823, "chester": 11841, "\u2581dirig": 16263, "kers": 21003, "\u2581execut": 4546, "\u2581start": 1149, "band": 3785, "INPUT": 20309, "weight": 7019, "<0x81>": 132, "\u2581alt": 5054, "\u2581lane": 19398, "\u2581Cruz": 20399, "\u2581EDIT": 24645, "\u2581fifteen": 13956, "iler": 5809, "\u2581masters": 26981, "\u2581actor": 10964, "\u5143": 29352, "\u0629": 29141, "nabla": 9190, "Updated": 21833, "\u2581forecast": 19912, "\u2581Creative": 23626, "\u2581Currently": 21520, "},\\": 7472, "ieurs": 14544, "\u2581Connection": 20117, "\u2581stable": 11311, "\u2581avoiding": 23329, "\u2581Jac": 7129, "lock": 1607, "sequence": 16705, "\u2581ott": 19137, "ficie": 26817, "\u0442\u0443": 2509, "\u2581jar": 22578, "\u2581\u0441\u0435\u043c": 28533, "roll": 1584, "\u2581convey": 18887, "LABEL": 22592, "\u2581Poland": 17812, "\u2581finishing": 19564, "\u2581disability": 25822, "\u2581Recently": 27186, "\u043e\u043d\u0430\u043b\u044c": 11954, "jar": 13036, "agma": 18102, "<0x0A>": 13, "\u2581strengthen": 15974, "\u2581\u043a\u043e\u043b\u043e": 28242, "\u30ea": 29306, "\u2581Class": 4950, "Pl": 2249, "\u2581contrast": 9349, "engine": 11358, "polation": 24145, "EM": 8940, "kb": 21799, "M": 28755, "kem": 28281, "\u2581factors": 8612, "hm": 16913, "\u2581decre": 8512, "stats": 8751, "\u2581cc": 18535, "\u2581memorial": 27945, "aci": 13114, "\\%": 10857, "FACE": 24956, "yle": 1487, "\u2581address": 2962, "\u2581\u043f\u0456\u0434": 11103, "\u0431": 28817, "itage": 13979, "\u2581caracter": 23574, "\u2581periods": 15772, "\u2581Crusher": 21879, "\u2581descriptions": 25308, "rons": 13455, "adjust": 22562, "quate": 16780, "\u2581marijuana": 28192, "\u2581Sl": 4764, "Pay": 9602, "\":\"": 10549, "imary": 7754, "\u2581\u0440\u0430\u0439\u043e\u043d\u0430": 22243, "}=": 6429, "appen": 25150, "\ucd9c": 29858, "\\\",": 22334, "\u2581Trust": 13149, "\u2581heavy": 5917, "\u2581north": 6120, "ium": 1962, "\u0443\u0434\u043e": 16978, "jquery": 21126, "porte": 24095, "\u2581Catalogue": 12325, "\u00e9t\u00e9": 12329, "\u2581sar": 24393, "\u2581despair": 25477, "\u2581tm": 25476, "\u2581sir": 10116, "\u2581extend": 11696, "icians": 8019, "\u2581mounted": 18543, "jal": 21939, "\u2581cheese": 13628, "\u2581Emer": 16762, "iller": 8878, "\u2581pressing": 20902, "multiple": 27772, "uetooth": 19437, "\u9879": 29541, "\u2581beside": 9439, "\u2581\u0160": 13688, "Encode": 22806, "\u2581Po": 5464, "water": 9175, "Prote": 22543, "\u2581Eg": 22684, "\u2013": 28816, "ificaci\u00f3n": 28369, "nc": 14770, "\u2581line": 1407, "\u043a\u043e\u0432": 5669, "ual": 840, "mind": 15471, "\u2581%": 1239, "\u2581\u0443\u043a\u0440\u0430\u0457\u043d": 28075, "boys": 27589, "\u7167": 30131, "\u2581Vec": 17513, "\u96f6": 30922, "\u2581thous": 5003, "\u1785": 31032, "IGN": 8656, "\u723e": 31827, "istribut": 7880, "Filename": 24773, "ped": 1973,
[...]
