{"<0xEC>": 239, "estamp": 7039, "\u2581betray": 26580, "\u300b": 30028, "\u2581tried": 3851, "onso": 24291, "\u2581Ple": 23436, "\u043f": 28807, "\u2581Aw": 21960, "uals": 13073, "\u2581eyebrows": 27469, "assembly": 16476, "\u2581glasses": 16014, "\u043c\u0438\u043d\u0430": 17622, "uit": 4405, "\u2581Melbourne": 19611, "win": 5162, "\u2581Dit": 24395, "IZ": 12889, "\u2581rain": 7296, "\u2581environment": 4466, "usk": 14948, "\u2581maxim": 15350, "\u2581jel": 21776, "Pay": 9602, "\u2581Coffee": 27275, "\u2581Bryan": 27919, "bb": 1754, "CREATE": 21005, "\u2581quotes": 20759, "\u1ec3": 29910, "\u2581Lav": 26469, "Ge": 5909, "zek": 16178, "goto": 5257, "n\u00ed": 3771, "LT": 24913, "\u2581Jose": 6282, "\u2581Jackson": 9955, "\u2581knock": 13476, "logo": 17506, "ospital": 4998, "\u2581\u041e\u0431": 22744, "\u2581Princess": 21408, "<0x4C>": 79, "[:": 7720, "plication": 2459, "\u2581customers": 5688, "\u2581mapping": 13152, "\u2581Activity": 24066, "\u2581Main": 8105, "\u2581or": 442, "\u2581particular": 2830, "\u2581Micro": 20171, "hel": 2805, "\u0434\u0435\u043b\u0430": 19656, "\u2581nineteenth": 24078, "\u2581Rena": 25102, "\uc2b5": 29570, "\u2581Gar": 7721, "\u2581domestic": 12866, "\u2581\u043e\u0431\u0435": 26949, "\u2581industrial": 10663, "\u2581torch": 12441, "\u2581thunder": 25752, "\u17bc": 31441, "\u2581ak": 13067, "\u6557": 30903, "chez": 25062, "asci": 25436, "\u2581Available": 18260, "ed": 286, "\u2581confirmed": 11367, "\u9577": 30531, "\ub428": 31399, "\u043b\u044f": 1941, "aker": 4776, "\u0427": 28909, "\u6b21": 29245, "\u2581Februar": 21341, "than": 23018, "\u2581quella": 26818, "mber": 2343, "pload": 5739, "\u2581Leop": 26872, "\u2581maps": 11745, "Js": 23595, "\u2581slip": 13070, "WISE": 26251, "cription": 2342, "itten": 3149, "\u2581expand": 6710, "skb": 9509, "\u2581biological": 21549, "\u2581parser": 12457, "Raw": 11822, "ez": 5620, "adora": 20916, "asticsearch": 19616, "Into": 20184, "\u2581Easter": 26402, "\u2581utilized": 28061, "ici": 2650, "opes": 14336, "\u524a": 30975, "Peer": 22163, "\u2581Council": 7457, "\u2581Virtual": 19032, "\"><": 10123, "\u2581Parse": 19468, "\u2581sitting": 6398, "\u2581tug": 24197, "\u2581Berlin": 8430, "\u2581Plant": 18044, "\u2581Grad": 17252, "\u2581paths": 12924, "\u2581voted": 17420, "OutputStream": 20667, "\u2581candy": 26004, "\u2581BB": 19942, "\u2581}": 443, "\u2581changed": 4648, "ibration": 21383, "\u2581Mount": 7612, "fields": 7434, "\u2581BSD": 26409, "\u2581Liverpool": 20834, "<0xF3>": 246, "\u2581moderate": 22651, "\u2581difference": 5133, "\u2581variant": 15944, "\u0442\u0442\u044f": 21074, "\u3051": 30033, "\u0437\u0430\u043d": 17478, "osen": 6148, "hus": 9710, "ators": 3117, "\u043d\u0438\u043c": 8895, "Fragment": 13132, "rer": 17749, "\u2581answ": 2965, "\u2581documentary": 22054, "\u2581Rather": 19919, "\u2581Fut": 27280, "\u2581Cru": 11549, ">>": 4060, "|---": 24823, "oric": 16891, "\u2581deployed": 26694, "ctx": 3077, "\u2581begun": 13724, "\u2581GF": 25348, "\u2581Bos": 13541, "\u2581persu": 14861, "\u2581television": 8575, "\u2581fet": 16685, "serialize": 18704, "files": 7048, "()),": 11168, "\u05db": 29463, "gener": 4506, "\u2581rub": 7294, "CP": 4100, "\u5b9a": 29018, "\u2581Context": 14268, "\u2581amazing": 6821, "\u2581TYPE": 18143, "\u2581football": 6569, "imet": 21526, "\u2581unple": 28331, "\u043a\u043e\u043d": 10676, "\u2581\u2019": 24978, "\u2581bras": 20493, "-)": 27346, "bben": 28322, "\u3092": 29078, "absolute": 26022, "\u2581possibility": 10065, "\u043e\u0431": 13549, "bum": 3237, "\u2581Ach": 26067, "\u2581explo": 12573, "\u2581europ": 22028, "\u2581ton": 6339, "\u2581Script": 15548, "\u2581Jack": 4299, "Backend": 21378, "<0x2E>": 49, "\u2581bits": 9356, "<0xE5>": 232, "\u2581bibli": 22426, "\u2581Ensure": 25217, "castle": 25305, "\u1ee9": 30422, "\u0926": 30046, "alg": 12394, "Debug": 7156, "\u2581d\u00e9m": 25504, "\u2581pills": 19436, "\u6742": 31122, "################": 6668, "\u2581Carolina": 11434, "ician": 8247, "\u2581paused": 14623, "Absolute": 28117, "\u2581Collins": 21191, "\u2581Juli": 17570, "\u2581tx": 11046, "\u2581ihrer": 19320, "anned": 5928, "<>();": 15840, "lambda": 3266, "boxes": 26498, "\u2581applications": 8429, "engono": 26964, "\u2581CSS": 17922, "\u2581allocate": 21637, "<0xDC>": 223, "avel": 3177, "deleg": 19941, "\u2581desired": 11785, "wei": 25257, "\u2581Within": 15621, "uning": 25522, "\u3046": 29620, "<0x91>": 148, "acji": 13586, "\u2581Kir": 8806, "\u2581shape": 5843, "\u2581challenged": 24730, "ugu": 26213, "tyard": 27463, "\u014f": 29869, "\u1ea9": 30677, "\u2581innovation": 16863, "\u2581sost": 27498, "Example": 20275, "\u2581ocup": 20903, "\u0399": 29864, "\u4f73": 31255, "\u2581February": 5353, "\u2581Assert": 7360, "\u52b1": 31613, "\u7d0d": 31824, "ipes": 9103, "isi\u00f3n": 13386, "\u2581slot": 10544, "ule": 1390, "\u2581mounted": 18543, "arius": 23989, "\u2581wound": 10063, "\u2581Blue": 8836, "had": 16449, "\u2581beyond": 5298, "CUR": 13336, "\u2581foods": 14082, "\u2581AMD": 27837, "cosystem": 25706, "rolling": 14342, "\u5019": 30054, "agnost": 8277, "BIN": 27576, "\u2581OPT": 28406, "\u2581argc": 24905, "\u2581til": 9757, "Bu": 21221, "vern": 28045, "\u2581symbols": 16212, "agent": 14702, "KE": 4457, "uario": 25335, "\u2581frances": 17923, "kat": 22332, "Level": 6268, "j": 28768, "Symbol": 9996, "\u2581Sher": 10511, "inde": 8355, "\u2581signing": 18525, "HashMap": 20352, "\u2581I": 315, "\u2581Chall": 15239, "{}{": 23265, "\u2581familjen": 11847, "\u2581reduction": 13388, "\u0442\u044c": 2289, "\u2581anymore": 9229, "\u2581Sean": 20468, "\u5411": 29478, "\ud14c": 30566, "\uc5d4": 31821, "\u2581refriger": 23641, "\u2581delle": 8419, "\u2581people": 905, "STRU": 19199, "\u2581IOException": 13557, "\u2581USS": 22961, "\u2581\u0447\u0435\u043c\u043f\u0438\u043e\u043d\u0430": 24230, "\u5854": 31166, "\u2581requ": 1085, "\u2581adj": 11433, "\u2581Apparently": 24098, "\u2581\u043f\u0440\u0435": 3184, "nan": 15713, "\u2581momento": 19131, "\u2581encoding": 16087, "\u043d\u043e\u0432\u0430": 9662, "urt": 3525, "engine": 11358, "\u2581parking": 12128, "\u2581Wel": 10699, "\u2581ces": 11844, "\u2581inspect": 16279, "FIG": 6390, "\u2581\"\\": 5448, "NER": 26864, "\u2581prevented": 26492, "\u2581dans": 2422, "vs": 10296, "\u2581ret": 1699, "\u2581date": 3608, "anto": 7733, "\u2581explained": 7955, "\u2581belonging": 23921, "maz": 3492, "\u0436\u0435\u043d\u043d\u044f": 19195, "\u2581typical": 10842, "mers": 14448, "\u2581medal": 16338, "PHY": 21852, "\u043a\u0442\u0438\u0432": 13418, "\u2581dere": 20705, "\u2581behavi": 10205, "\u2581jeans": 21576, "\u0173": 30102, "quin": 26611, "\u904e": 30699, "\u2581sido": 15933, "\u2581war": 1496, "\u04b3": 31856, "aux": 4601, "LEASE": 25634, "\u2581GA": 24083, "\u2581\u0438\u0441\u0442\u043e": 13196, "\u2581}{": 26528, "gesch": 12386, "\u2581hence": 12211, "lica": 24534, "virt": 27590, "\u95dc": 31085, "ria": 3931, "\u2581outdoor": 15382, "\u2581Assume": 28024, "\u2581League": 6165, "\ub4dc": 29470, "\u21d4": 31559, "GER": 11832, "lem": 2933, "\u7834": 31163, "halt": 18274, "\u0439": 28819, "\u2581sync": 14012, "ancouver": 22000, "\u2581absurd": 22976, "lo": 731, "Pers": 13603, "\u2581Gra": 19095, "data": 1056, "BER": 16819, "\u2581assertTrue": 21923, "\u2581Bulgar": 22390, "\u6233": 31448, "\u2581Engineering": 17202, "ron": 1689, "../../": 4290, "\u2581\u010c": 13525, "\u2581Mississ": 19294, "\u043c\u0430": 1530, "\u2581actor": 10964, "\u2581migrations": 27052, "\u2581deployment": 23039, "\u2581Refer": 25958, "Group": 3094, "\u2581representative": 15312, "ph": 721, "\u2581realise": 27457, "\u2581luego": 26899, "\u2581cottage": 27270, "mod": 1398, "\u2581fuck": 4159, "LS": 6687, "\u5feb": 30059, "\u30da": 30534, "\u2581von": 1808, "\u2581SY": 17121, "\u2581vintage": 28465, "\u8d70": 30585, "sy": 3467, "PREFIX": 21321, "asset": 17702, "ucked": 15636, "\u2581corridor": 21550, "####": 2000, "parameter": 14490, "always": 22108, "surface": 20942, "\u2581controversial": 24720, "\u2581speakers": 20872, "\u2581can": 541, "aj\u0105c": 28565, "Cancel": 15204, "\u2581fitting": 20068, "\u2581illness": 13214, "eyed": 20732, "Listen": 17705, "\u2581stalk": 25073, "\u5207": 29961, "\ufe0e": 31954, "uma": 10089, "set": 673, "aat": 7748, "\u2581selected": 5937, "\u2581tone": 10294, "\u2581dla": 22056, "\u2581Anything": 27985, "\u5584": 31580, "orte": 8938, "\u2581dreams": 12232, "gamma": 3933, "Health": 18470, "cref": 27742, "\u2581fe": 701, "tr": 434, "translation": 1694, "\u2581Doug": 27256, "Font": 7168, "\u2581ion": 19464, "\u2581Hitler": 14856, "\u2581&(": 27029, "\u2581Blog": 21095, "\u2581prepar": 7892, "esto": 10631, "handed": 27008, "Failed": 9523, "\u2581kall": 26608, "\u541b": 31097, "\u00e4l": 8146, "\u2581premi": 9869, "\u2581producing": 15345, "\u2581\u043f\u043e": 1051, "\u0448\u0435": 3647, "\u2581caution": 26769, "\u897f": 29633, "\u6c7a": 31515, "adv": 10925, "Routing": 28654, "UES": 23873, "cls": 16723, "\u2581thats": 26748, "Pen": 26950, "Tuple": 19481, "\u2581Quinn": 27944, "\u2581variables": 8925, "plac": 28525, "aught": 4016, "\u2581arranged": 15945, "\u2581Pierre": 13639, "\u2581ad": 616, "ikes": 14853, "\u2581grave": 14272, "\u8f74": 30788, "\u2581posit": 14139, "\u2581CONDITIONS": 12231, "\u2581Aqu": 16979, "\u2581nouveau": 19341, "\u2581tires": 25966, "ob": 598, "]);": 3759, "\u2581\u0431\u0440\u0438": 23145, "rief": 4667, "\u2581harvest": 20040, "\u2581Bour": 16078, "gz": 23746, "\u9669": 31413, "\u2581destroy": 6665, "\u961f": 30031, "alls": 6629, "\u2581concer": 14055, "groups": 12420, "\u2581puts": 12345, "\u2581Hu": 16168, "\u2581Wi": 16494, "\u2581wyst": 23196, "\u2581Gast": 28505, "allel": 7802, "\u00e1g": 8043, "ouble": 1965, "FS": 6934, "\u2581atoms": 24221, "\u2581:": 714, "\u2581coc": 14609, "\u2581sex": 3142, "estro": 21843, "\u2581h\u00f6": 14404, "\u2581mostly": 7444, "\u2581resign": 22883, "\u2581enjoyed": 10306, "\u2083": 31358, "\u2581lies": 10427, "\u89c1": 30237, "neut": 23806, "\u2581Auto": 12191, "Element": 2357, "\u2581successful": 6053, "etic": 10362, "\u2581comprehens": 12957, "\")\r": 16949, "keit": 11231, "\u2581DAG": 24821, "\u2581Vari": 14794, "\u6709": 28998, "\u6cbb": 30137, "\u2581Buy": 14824, "\u2581limits": 11656, "\u2581gray": 11870, "\u2581built": 4429, "\u2581Set": 3286, "\u2581paid": 5907, "intel": 26876, "\u7ec4": 29205, "ONE": 6349, "Iss": 21525, "urs": 1726, "\u2581jak": 19755, "amas": 22425, "\u2581diagonal": 25202, "\u2581utility": 18936, "\u2581marginal": 25286, "\u2581vis": 1717, "\u2581arguing": 21440, "Slice": 21202, "\u2581within": 2373, "\u2581chocolate": 14403, "\u017d": 29022, "check": 2888, "\u2581opinions": 15028, "elta": 2392, "dit": 8924, "\u2581foram": 23084, "<s>": 1, "phas": 9722, "\u2581Feb": 18198, "\u2581Layout": 23479, "eron": 13618, "\u0442\u0435\u043b\u0435\u0439": 16871, "Product": 7840, "\u2581Really": 19393, "\u2581troubles": 21477, "\u2581entropy": 25753, "\u7247": 29369, "ol": 328, "ECT": 9344, "\u1796": 31196, "\u9500": 30286, "agh": 25189, "\u2506": 31172, "\u2581speed": 4975, "\u2581haz": 17617, "\u2581anal": 2880, "\u9759": 30709, "\u0636": 29623, "pt": 447, "appen": 25150, "ogr\u00e1": 21315, "Tx": 12593, "Tax": 27537, "\u043a\u043e\u043d\u043e\u043c\u0438": 28189, "\u2581si\u00e8": 10878, "\u2581yes": 5081, "\u2581overlook": 24890, "enson": 26205, "itect": 5588, "\u2581\u0440\u0435\u0436\u0438": 23903, "\u2581phases": 23105, "aterial": 2471, "f": 28722, "\u0e40": 29301, "\u2581sei": 18578, "\u2581operation": 5225, "DECL": 24826, "cup": 6663, "\u2581repeated": 9332, "PRESS": 21060, "\u2581befindet": 26454, "VID": 6800, "\u2581Gym": 28673, "\u2581Vor": 11975, "\u093c": 31609, "\u76ee": 29222, "\u2581cancer": 8875, "\u2581votes": 12768, "\u2581lattice": 19124, "<0xDE>": 225, "\u7559": 30210, "DATE": 13495, "\u2581Racing": 22024, "Unlock": 26175, "arian": 9459, "\u7d20": 29555, "\u2581subject": 3817, "\u2581ord": 4574, "\u2581Bull": 16998, "\u2581aud": 4786, "\u6298": 31201, "\u2581crowded": 22558, "\u578b": 29173, "\u53f6": 31634, "\u2581nucle": 17336, "\u2581spotted": 20958, "orio": 26794, "Man": 2356, "\u4ed8": 29628, "inition": 3775, "\u2581});": 2776, "\u2581alert": 10977, "\u2581featured": 12526, "usb": 13990, "\ud83e\udd23": 29650, "\u641c": 30125, "emb": 20603, "\u2581bounded": 17443, "\u2581Min": 3197, "\u2581selon": 23851, "\u2581LI": 12149, "\u2581proves": 25832, "\u2581excuse": 16803, "at\u0103": 20426, "\u2581m\u00f6": 21461, "kernel": 11694, "\u2581told": 2240, "\u2581wheat": 28135, "\u2581Mol": 16387, "\u2581cos": 6841, "\u2581Pictures": 26887, "\u2581ohne": 24986, "\u2581Joe": 7833, "\u2581liv": 9678, "\u2581utilis": 25090, "\u2581arriv": 4266, "lets": 7835, "\u2581corruption": 21363, "\ud37c": 31902, "\u2581na": 1879, "\u2581hop": 4654, "\u2581reality": 6940, "\u2581sports": 8657, "orno": 13312, "\u2581Whether": 9989, "\u2581fold": 10068, "?(": 21185, "igation": 4821, "\u2581propag": 11166, "loader": 12831, "\u2581corre": 7952, "\u2581Coast": 13340, "\u2581assured": 17903, "\u2581ped": 8235, "\u2581Norweg": 25067, "MAGE": 15269, "ability": 2437, "setAttribute": 20675, "lor": 5638, "acious": 17292, "\u2581Nelson": 18685, "\u2581event": 1951, "\u00f3ria": 21645, "stick": 23277, "\u2581bush": 25516, "\u2581Vern": 26801, "\u2581favour": 10392, "\u2581Inga": 12806, "over": 1483, "\u2581corn": 16869, "ulu": 20366, "\u2581Sk": 3891, "Air": 22764, "\u2581gradient": 21135, "\u2581beautifully": 27088, "\u2581\u044d\u0442\u043e\u0433\u043e": 26347, "\u2581unre": 27011, "\u2581Ocean": 18608, "ATTRIB": 27502, "weet": 12523, "\u00e7a": 10456, "\u2581Simple": 13888, "\u2581Barcelona": 16835, "ber": 537, "izioni": 24011, "pected": 3732, "},\r": 17695, "ent": 308, "\u2581Jeff": 8678, "\u00fbt": 15452, "\u2581Month": 19026, "\u2581Suz": 25432, "sek": 25933, "\u044f\u043d": 15247, "\u2581Ha": 7737, "\u2581tract": 25180, "\u2581DES": 22840, "\u30ad": 29753, "ANCE": 11823, "\u2581chopped": 28393, "\u2581launch": 8817, "\u8de8": 31864, "\u2581\u043d\u0430\u0445\u043e\u0434\u0438": 20772, "\u2581masks": 22724, "IST": 8048, "\u0634": 29083, "\u5f88": 30111, "amp": 1057, "\u2581n\u00e9cess": 25881, "\u2581libraries": 24133, "Skip": 24322, "olutely": 25244, "\u2581mitt": 27150, "Life": 21329, "\u2581Core": 12197, "\u5bf8": 31222, "\u2581drive": 5009, "EN": 1020, "\u2581intelligence": 10895, "QUE": 20749, "\u2581Georges": 28161, "shaller": 21771, "\u2581eq": 12084, "\u2581expos": 10594, "\u2581definition": 7526, "\u2581noble": 19343, "mor": 21621, "\u10eb": 31464, "\u2581glory": 20756, "\u2581conviction": 24594, "\u0261": 30105, "ih": 4371, "\u2581Energy": 14270, "vier": 14895, "hedral": 19749, "\u2581\u0423\u043a\u0440\u0430": 26226, "\u2581\u00c1": 10415, "\u099f": 30579, "\u0c32": 31848, "\u2581\u0431\u0440\u043e": 19567, "\u2581URL": 9066, "\u2581c\u00e9l": 28596, "\u2581acc": 932, "ui": 1724, "Src": 15886, "hand": 2625, "\u2581shift": 6139, "\u2581Gon": 15929, "\u2581furniture": 12389, "\u2581Leben": 16517, "\u2581hammer": 20712, "\u2581vig": 15068, "\u2581Expression": 25031, "rying": 5125, "...'": 22984, "\u2581don": 949, "\u2581activate": 27854, "\u2581Clar": 20225, "\uac12": 29755, "\u0d4d": 30691, "\u2581PR": 10517, "sized": 20838, "itu": 6454, "\u2581norm": 6552, "\u2581fool": 10776, "\u2581specifically": 10107, "\u2581epis": 6030, "}$": 1211, "\u2581fingers": 7856, "foo": 8014, "umes": 9743, "\u63cf": 29697, "Droid": 21618, "\u2581plant": 5100, "overflow": 24709, "\u2581Dear": 22143, "ect": 530, "register": 5724, "MAT": 25412, "\u2581tastes": 26918, "recogn": 28007, "\u2581attachment": 22417, "\u2581Gew": 21188, "\u0432\u0430": 870, "marks": 17181, "\u2581born": 5381, "\u0441\u043e\u0432": 16581, "false": 3952, "\u2581wide": 5335, "\u2581families": 6812, "\u2581gathered": 13398, "soc": 10267, "apos": 17936, "\u2581cheese": 13628, "\u2581Opp": 22396, "\u2581Texas": 7826, "\u2581wise": 16446, "\u2581imperial": 20118, "\u2581compiler": 23198, "\u91c7": 30398, "\u0f7a": 31858, "\u2581vil": 16767, "\u2581central": 5971, "Port": 6411, "\u2581\u0456\u043d": 12109, "samples": 23977, "\u2581settled": 11591, "\u2581enhance": 11976, "isch": 3143, "\u2581suggests": 12308, "includes": 19459, "\u629b": 31584, "\u2581City": 3805, "uffed": 27559, "ICE": 6061, "denly": 20357, "\u2581decor": 8059, "Sigma": 9806, "subset": 9501, "\u2581FT": 23289, "arium": 26207, "Opt": 14205, "\u2581threat": 5483, "\u2581assum": 4936, "gold": 27783, "\u2581vent": 8061, "ogether": 11553, "\u2581Xbox": 26631, "\u2581Sandy": 27925, "\u2581submit": 13914, "\u0b95": 29856, "\u00e9ge": 24981, "\u2581connected": 7391, "\u2581lit": 8724, "\u2581La": 1700, "bitmap": 20090, "+\\_\\": 25471, "r\u00e8s": 22217, "\ud134": 31167, "\u0001": 29534, "\u2581PT": 22612, ";": 28745, "\u2581f": 285, "imal": 3048, "\u2581deter": 19211, "\u2581contin": 1710, "\u043c\u0435\u043d\u0442": 18664, "ENDOR": 23669, "arn": 1331, "Route": 9858, "\u2581col": 990, "\u2581scholars": 22981, "UA": 25099, "\u0431\u0443\u0440\u0433": 21439, "\u03ad": 29271, "\u2581candidates": 12179, "\u542b": 29872, "static": 5616, "toLowerCase": 21241, "equal": 7318, "uty": 14998, "\u2581Dub": 11037, "\u2581influence": 8015, "\u865f": 30809, "\u2581carefully": 9547, "\u2581governed": 22175, "\u2581\u041f\u0440\u0438": 11824, "\u2581invol": 3303, "\u2581typeof": 10498, "\u2581tf": 14618, "*,": 1561, "\u2581orden": 23179, "());": 1657, "MI": 5877, "\u2581Valley": 10509, "\u2581modification": 19574, "\u2581Mediterranean": 26848, "R": 28754, "\u0928": 29540, "\u660c": 31265, "\u4e9b": 29904, "\u2581\u0434\u0435\u044f\u0442\u0435\u043b\u044c": 26787, "\u2581List": 3231, "\u2581\u0442\u0440\u0443": 26235, "\u2581E": 413, "\u2581Ruby": 27127, "<0x18>": 27, "ou": 280, "IDENT": 20734, "dec": 6669, "\u2581lost": 3654, "\u2581border": 6765, "payment": 18589, "three": 16480, "David": 28396, "\u2581sick": 7946, "\u2581Bak": 23515, "ision": 1522, "\u2581Lewis": 13131, "\u2581Braz": 11863, "blank": 15387, "modified": 25123, "\u2581reaches": 18710, "Jack": 26803, "\u2581locks": 25347, "Activity": 8559, "wan": 10074, "\u2581questions": 4224, "\u2581Napole": 22204, "})$,": 25744, "\u2581\u0437\u043d\u0430": 9812, "\u2581regulations": 15885, "\u2581Someone": 16124, "\u2581matching": 11623, "Host": 7287, "bone": 15600, "\u2581Resource": 12013, "\u2581ru": 6869, "\u2581ave": 14257, "\u2581lett": 9077, "ZERO": 28303, "it": 279, "\u8fd8": 29751, "\u2581comparison": 10367, "sten": 6062, "rsp": 25341, "\u2518": 31652, "\u2581Let": 3169, "\u2581WA": 26279, "\u2581lean": 6115, "\u2581&": 567, "\u2581deals": 14685, "\u2581Configuration": 20058, "hent": 5577, "\u2581tek": 27107, "ul": 353, "\u2581sp": 668, "Dit": 15324, "\u2581rhet": 25905, "\u00e9vrier": 20158, "Slider": 26952, "\u7cca": 31984, "\u2581sd": 19515, "\u2581restaurants": 14666, "\u2581famil": 3923, "TRACE": 14985, "\u2620": 31840, "sat": 23258, "projects": 21080, "\u2581raises": 26721, "<0xB6>": 185, "machine": 19569, "eller": 5371, "major": 20065, "?\"": 1110, "Codec": 23186, "Sir": 25994, "<0x31>": 52, "\u2581surround": 6525, "\u2581Jackie": 28057, "\u2581investig": 6694, "^+": 12803, "\ud83e\udd21": 31370, "\u2581Hampshire": 27616, "\u2581films": 9922, "\u2581jeho": 25769, "\u2581economy": 8725, "\u2581\u0432\u0435\u043a\u0430": 25960, "w": 28727, "\u2581Ern": 13829, "Hook": 16033, "\u0d3f": 31526, "dh": 22410, "cm": 4200, "Amount": 13276, "dsi": 26416, "\u5712": 31299, "Collection": 7587, "ensor": 4037, "\u2581copies": 12221, "\u2581context": 2758, "gd": 26211, "\u2581male": 7862, "\u2581Thread": 16286, "usion": 3623, "\u2581syn": 7071, "See": 7992, "\u2581threads": 17807, "\u2581ago": 3584, "\u2581meaning": 5746, "float": 4910, "WF": 27553, "\u2581Wes": 19860, "atable": 18671, "\u2581touch": 4814, "\u2581tattoo": 28105, "\u2581\u0441\u0430\u0432\u0435": 28563, "\u2581rested": 26916, "\u6790": 30007, "\u2581Burg": 17646, "\u2581possibilities": 18053, "\u2581upgrade": 16518, "\uc784": 30520, "anks": 3750, "\u2581contract": 5001, "olog": 1165, "\u2581Testament": 26870, "dots": 10234, "\u2581shower": 13164, "\u2581Benjamin": 18258, "\u2581pat": 1908, "\u5a92": 31838, "\u2581employed": 14675, "\u2581vice": 12465, "\u00e9ho": 12689, "ORM": 14851, "scar": 14723, "Complete": 14928, "HD": 12591, "\u043d\u0438\u0446\u0438": 16370, "agle": 17968, "Username": 22281, "ibile": 24109, "\u0434": 28799, "\u10e6": 31278, "\u2581Using": 9616, "jpg": 11692, "\u2581Player": 13684, "\u2581esp": 7581, "\u2581choose": 4987, "idx": 5251, "\u2581tc": 23686, "\u2581Leg": 5993, "\u2581Console": 19518, "}}{\\": 12887, "\u2581Iron": 15531, "<0x1A>": 29, "\u2581calm": 10325, "()))": 9859, "lav": 12453, "ender": 2341, "}},": 10781, "versation": 25422, "\u9006": 31770, "\u0441\u043a": 8283, "sound": 13752, "\u9910": 31243, "\u2581Boh": 28298, "\u6bb5": 29390, "\u0e01": 29256, "\uf0b7": 30659, "\u2581provisions": 22321, "ots": 1649, "ioctl": 26478, "\u2581eff": 1397, "\u2581length": 3575, "ane": 1564, "\u2581Books": 13540, "\u2581java": 3070, "\u2581Dou": 9108, "odigd": 15630, "\u2581Brad": 12906, "<!--": 18449, "\u30e6": 30775, "\u2581Christopher": 17561, "afi": 27312, "\u2192": 28982, "vis": 3225, "\u2581Bloom": 23451, "stan": 13511, "Output": 4792, "\u2581altern": 5720, "bd": 8492, "\u2581helps": 7263, "\u2581Luther": 22370, "\u2581Late": 23948, "\u2581increasing": 6488, "requency": 17400, "\u2581additional": 4870, "rah": 21174, "\u0419": 28996, "SR": 9787, "ick": 681, "\u2581\u0431\u0443\u043b\u043e": 18395, "Executor": 21382, "\\\"": 4883, "PRE": 6314, "Modifier": 25266, "gie": 10955, "\u6c47": 31768, "\u2581granted": 12295, "Microsoft": 10052, "fect": 2793, "\u2581levels": 6157, "\u2581climbing": 20873, "\u0093": 29331, "\u0445\u0435": 21207, "As": 2198, "<0x4D>": 80, "inator": 10049, "\u2581stress": 6727, "\u2581fot": 16111, "ucky": 11791, "\u2581protect": 5321, "\u2581arrange": 23503, "\u2581Mar": 1471, "die": 16305, "textit": 10162, "\u2581Jew": 5808, "interest": 20835, "ord": 556, "\u03ce": 29803, "Z": 28828, "\u2581remembered": 10216, "\u2581treated": 9852, "inho": 25041, "\u2581Ave": 27170, "\u5747": 30637, "\u0c3e": 31282, "\u2581dorm": 22598, "\u2581Hon": 7673, "amiento": 15090, "\u2581ui": 12842, "rag": 14806, "\u2581parti": 28403, "\u2581powder": 14761, "your": 19262, "Sorry": 23166, "Tor": 22059, "\u2581London": 4222, "\u0e38": 29903, "<0x23>": 38, "\u2581En": 1618, "\u2581consult": 7731, "\u2581curves": 18469, "\u8272": 29395, "\u2581straightforward": 20361, "\u2581bleeding": 25352, "\u2581ACTION": 28509, "\u2581pubblic": 17303, "\u092b": 31570, "\ud83d\udc4c": 31156, "\u53f7": 29170, "\u2581th": 306, "kit": 11153, "\u2581inequality": 17522, "\u2581\u043e\u0440\u0433\u0430\u043d\u0438\u0437\u0430": 26266, "\u2581frequ": 5059, "\u2581kinda": 17670, "\u2581Later": 11680, "){": 3311, "sizeof": 9936, "\u2581rival": 16564, "\u4e94": 30108, "\u2581implements": 10538, "\u2581Chairman": 25294, "\u2581exclusive": 14359, "\u2581mistakes": 17179, "ates": 1002, "\u2581empty": 4606, "SYSTEM": 27842, "\u2581toggle": 23635, "\u043b\u0435": 1125, "\u2581targeted": 20279, "\u2581asc": 13294, "\u2581SB": 28520, "mile": 23881, "\u2581Network": 9488, "Account": 7820, "\u2581Vic": 17862, "\u2581racial": 18450, "\u2581wings": 15615, "BC": 4738, ")--(": 24135, "\u2581py": 8242, "ENTIAL": 26567, "EE": 6367, "Austral": 28108, "\u2581Boy": 11036, "ULL": 1625, "\u05e0": 29246, "\u2581unc": 9967, "\u2063": 31212, "\u266a": 31020, "active": 4140, "asma": 21299, "\u2581diesem": 21756, "\u2581Michel": 12622, "UV": 21326, "imag": 25069, "duct": 2478, "\u2581innoc": 12686, "\u2581radical": 14358, "\u2581prey": 27911, "\u2581#{": 22465, "\u2581Bar": 3011, "\u0441\u043a\u0430\u0442\u0430": 19537, "ainte": 24243, "\u2581The": 415, "\uac1d": 30411, "\u76ae": 31279, "getString": 14077, "\u2581packed": 14703, "stop": 6898, "\u2581singles": 16975, "ck": 606, "\u2581rubbed": 25333, "\u0178": 30322, "\u0446\u0456\u0432": 22151, "atre": 7195, "\u2581Ros": 8550, "\u2581mask": 5934, "back": 1435, "igi": 15495, "\u2581revolutionary": 24444, "\u2581anderem": 28656, "pres": 11861, "\u2581changing": 8634, "\u2581sexy": 23110, "\u2581User": 1247, "\u3048": 30145, "\u2581corps": 16214, "riority": 11673, "\u2581Initialize": 18737, "\u2581pero": 9841, "\uc544": 29536, "\u2581p\u0159": 6910, "So": 5142, "\u2581Trust": 13149, "\u2581temple": 14842, "\u2581blo": 3449, "\\_": 14048, "terior": 11476, "\u2581identification": 19451, "\u2581Walker": 17734, "LD": 12093, "<0xD4>": 215, "pgfset": 19107, "v": 28728, "\u9635": 30909, "\u2581Denmark": 26486, "\u00e1z": 8905, "IMAGE": 24947, "\u2581facts": 11412, "ank": 978, "\u2581nas": 12472, "\u2581bru": 16575, "\u2581withd": 23055, "ough": 900, "\u2581importante": 19538, "\u2581suppose": 10361, "vector": 6296, "\u2581FI": 16148, "\u2581Os": 9449, "\u0441\u0435": 2313, "\u2581Pope": 21633, "Snapshot": 16587, "\u2581\u2581\u2581\u2581": 260, "()]": 21183, "is\u00e9": 17218, "\u2581bab": 13225, "film": 16116, "\u2581nam": 10673, "\u2581\u0421\u0435": 10329, "\u2581caval": 23481, "\uff5e": 30328, "\u2581crypt": 18649, "\u2581MO": 9875, "\u2581Society": 8522, "\u2581aircraft": 11475, "\u2581ptr": 13814, "\u2581almost": 2779, "\u2581Down": 8560, "owner": 10349, "\u2581Durante": 20680, "\u2581Es": 6177, "Lang": 22323, "<0x96>": 153, "\u2581sugg": 3353, "amar": 11369, "\u2581Movie": 23208, "\u2581\u0441\u043c\u0435\u0440": 28271, "<0x45>": 72, "\u2581novembre": 13183, "\u2581\"{": 25002, "\u5ff5": 31329, "\u2581goto": 10510, "ynam": 3792, "Sprite": 22473, "ancell": 13759, "\u2581Art": 3951, "\u2581cmd": 8651, "\u9060": 31764, "ipping": 10206, "\u2581tick": 6484, "$}": 15489, "dv": 16546, "respond": 27092, "igu": 8499, "\u2581You": 995, "cow": 14450, "\u5f20": 30162, "\u2581c\u00f4": 22434, "erson": 1084, "\u2581Site": 15156, "Fl": 3188, "\u2581etern": 16701, "\u2581wreck": 22293, "C": 28743, "\u2581plot": 9242, "\u2581Since": 4577, "unique": 10561, "\u2581uncomfort": 16285, "\u2581ambit": 25297, "SD": 5309, "\u2581continue": 3688, "\u2581overs": 13775, "\u2581TX": 17679, "\u2581Allow": 26012, "\u2581Paper": 20038, "pieler": 24854, "\u2581infect": 16991, "strong": 9849, "rypt": 4509, "material": 10595, "\u2581\u0444\u0443\u043d\u043a": 28668, "Import": 11944, "\u2581compatible": 17696, "\u2581Json": 17750, "\u2581possess": 14612, "include": 1631, "\u043b\u043b\u0438": 22623, "}{": 1400, "\u2581aspir": 26985, "\u2581extending": 25765, "\u96c4": 30875, "\u2581Gun": 20655, "\u2581Beautiful": 26547, "Login": 12611, "RIP": 16373, "\u2581Additional": 20460, "ze": 1374, "acci": 28127, "External": 17756, "footnote": 19129, "\u2581neural": 25726, ")\\": 2681, "\u2581solo": 8375, "\u2581computer": 6074, ")->": 6952, "ney": 2705, "\u2581page": 2884, "\u2581lig": 18985, "enz": 7322, "\u2581\u043d\u0430\u0437\u0432\u0430": 17370, "\u2581nn": 26699, "\u2581\u0443\u0431\u0438": 28174, "\u2581s\u00fcd": 24625, "EqualTo": 24680, "\u2581Coupe": 28650, "\u2581Light": 9531, "ANY": 20601, "\u2581productivity": 24504, "\u2581\u0433\u0438": 25316, "<0xA7>": 170, "net": 1687, "pread": 22129, "\u2581stream": 4454, "\u2581ham": 11218, "width": 2617, "iat": 9348, "\u2581Global": 9970, "ialog": 3723, "ppo": 17652, "\u2581demand": 5637, "\u00e2tre": 25238, "<0xC2>": 197, "NC": 9419, "Seg": 11560, "Locale": 17637, "tv": 9791, "Shape": 11124, "\u2581boats": 19706, "tc": 8282, "\u5e1d": 30607, "\u2581Capital": 17053, "ischen": 3096, "BL": 8152, "\u2581evaluate": 15627, "\u03a7": 30438, "\u2581announcement": 20990, "\u2581CNN": 26656, "\u2581\u041d\u0438\u043a\u043e\u043b\u0430": 23979, "\u2581mes": 5972, "\ud574": 29426, "\u043d\u0456\u0439": 13238, "lagen": 21463, "\u2581campaign": 5774, "Touch": 16839, "\u2581tob": 24089, "\u2581Cup": 7440, "ylv": 10685, "\u2581advocate": 25320, "finished": 6159, "\u2581actively": 18639, "\u2581fortunate": 28595, "\uc77c": 29415, "\u2581gr": 847, "SG": 18656, "\u2581Lind": 10100, "\u2581devast": 19358, "\u2581k\u00f6nnen": 19766, "\u5965": 31761, "ning": 971, "\u2581phase": 6896, "\u2581bekannt": 24239, "\u2581\u0442\u0430\u043a\u043e": 16629, "\u2581sniff": 27098, "\u00bd": 29039, "curr": 14032, "<0x7E>": 129, "\u2581All": 1682, "\u2581input": 2787, "\u2581Matthew": 15305, "\u043e\u043d\u0435": 23703, "ummy": 9440, "\u50a8": 30180, "\u2581Cub": 12537, "\u2581rx": 21451, "\u2581INFO": 22977, "\u2581moral": 10986, "\u2581Du": 6335, "\u1038": 30773, "\u2581giant": 12351, "\u2581comun": 18166, "\u2581vide": 8414, "\u2581Just": 3194, "\u2581really": 1528, "aise": 5395, "\u2581rad": 2847, "\u2581roll": 4595, "\u05e3": 31016, "\u200b": 28935, "\u2581heav": 9425, "\u2581unnecessary": 22376, "program": 13329, "istas": 13501, "Hz": 12659, "paper": 19521, "\u2581Ma": 6068, "udo": 9297, "\u2581\u0431\u0456": 23112, "Day": 12422, "\u0443\u043d": 9511, "double": 6324, "\u2581Gem": 18131, "isco": 23364, "\u2581Quebec": 27798, "\u2581\u043e": 853, "\u2581fran\u00e7": 10530, "\u2581depend": 3289, "\u0441\u043f\u0435": 14220, "\u2581accur": 6464, "inos": 7905, "................": 22207, "\u2581arm": 3648, "\u2581uma": 5912, "\u2581Kelly": 15282, "\u2581Nations": 16419, "\u2581germ": 23157, "\u2581remainder": 23317, "\ucd9c": 29858, "olence": 26063, "a\u00e7\u00e3o": 9424, "\u2581allem": 16637, "\u2581Juan": 12029, "\u9054": 31246, "\u039d": 29966, "were": 27609, "\u2581styled": 23138, "ashboard": 13569, "\u015f": 28987, "django": 19326, "\u2581smile": 6458, "\u2581Johnny": 18354, "Variable": 10516, "oxy": 22428, "\u2581population": 4889, "\u2581conducting": 28698, "aku": 17103, "\u2581scent": 21535, "\u2581stretch": 14742, "\u2581photograph": 9180, "<0x94>": 151, "ennis": 7480, "\u2581Function": 11347, "\u2581Johnson": 9370, "\u2581edition": 12065, "calls": 28622, "\u2581Lond": 17681, "\ud3ec": 30387, "own": 656, "\u2581Sor": 21476, "\u0d15": 31611, "\u2581_\"": 14780, "best": 13521, "^*": 7304, "unknown": 16047, "teenth": 20941, "\u2581interactive": 22969, "\u2581Instead": 8162, "BUF": 17206, "\u2581Natural": 16725, "\u1f74": 31675, "\u2581Australian": 9972, "sequently": 23321, "xFE": 19601, "number": 4810, "\u2581relatives": 21668, "overlay": 27163, "\u025b": 29328, "\u2581ac": 1183, "\u2581Government": 9714, "\u2581Cath": 8746, ");\r": 1761, "\u2581inv\u00e5nare": 27158, "\u2581relationships": 9391, "\u2581Entry": 23256, "\u2581cases": 4469, "\u2581\u043f\u043e\u0434": 6008, "eti": 26834, "\u9aa8": 31081, "\u2581Some": 2909, "\u2581closest": 16424, "ilty": 13021, "\u2581ep": 3769, "\u2581unw": 12692, "\u2581option": 3551, "\u2666": 29706, "mail": 6645, "\u2581More": 3764, "InputStream": 16026, "\u0448": 28841, "\u2581magazine": 11059, "\u2581development": 4099, "\u2581pol\u00edt": 14429, "\u2581'/": 7377, "\u2581Jud": 7404, "Range": 6289, "\u2581unter": 7014, "\u00e9rie": 10326, "\u2581\"%": 7919, "\u2581manifest": 11052, "\u2581Um": 12514, "\\\":": 17357, "\u2581Mong": 23640, "\u7cbe": 30170, "\u30db": 31240, "\u2581pig": 18958, "ked": 13602, "collect": 16077, "compatible": 23719, "ff": 496, "\u2581MC": 16416, "')": 1481, "TREE": 26522, "\u2581fileName": 25865, "tty": 3003, "\u2581manufact": 6298, "bootstrap": 19453, "\u2581investing": 22445, "\u0090": 30101, "etry": 27533, "\u9664": 29153, "[": 28792, "zi": 4295, "oman": 8322, "\u2581Nad": 18973, "\u0441\u043a\u0438\u044f": 25827, "athon": 19653, "\u2581#[": 9002, "\u2581decisions": 9549, "<0x68>": 107, "cod": 19114, "TRANS": 24941, "into": 9635, "\u00e9s": 1442, "\u2581Pand": 24802, "\u2581stamp": 22665, "Added": 27706, "\u2581battle": 6651, "pent": 21557, "\u043a\u0430\u0442\u0430": 24648, "\u2581Cir": 10460, "Java": 15473, "DF": 6071, "istence": 10070, "\u2581explan": 10928, "image": 4075, "uated": 25473, "\u00fdm": 15690, "bl": 1231, "\u2581hip": 12323, "ide": 547, "\u2581groups": 4938, "\u2581elections": 15517, "\u2581ignorant": 27972, "\u2581be": 347, "visit": 19090, "ospher": 27552, "\u2581bil": 16037, "\u2581vin": 18146, "\u2581garlic": 25795, "/%": 22237, "\u2581succeed": 9481, "\u5341": 29927, "\u2581He": 650, "dest": 5356, "Input": 3104, "\u8a71": 31145, "\u05b4": 30225, "gens": 21410, "Camp": 23268, "Per": 4712, "\u2581underneath": 21901, "\u2581NOT": 5457, "ache": 1344, "\u2581\u0410\u043d": 15498, "lington": 26183, "\u0446": 28833, "\u2581sends": 20980, "\ufb01": 30160, "Ph": 3330, "\u2581Harvard": 17553, "\u7167": 30131, "\u2581been": 750, "match": 5644, "ativo": 20937, "\u2581Natal": 23675, "\u2581enum": 10873, "\u2581coeff": 12626, "\u2581blanc": 28609, "books": 17297, "Launch": 27514, "idea": 28366, "\u2581ideal": 8184, "\u017ce": 10564, "\u2581Everything": 13090, "vari": 13018, "\u2581managed": 6900, "\u2581gran": 8494, "\u2581Round": 15042, "\u2581Mais": 16549, "\u2581Missouri": 20611, "\u5168": 29374, "\u2581ubic": 25727, "uler": 19640, "can": 4230, "\u2581uitgen": 15641, "Pyx": 20585, "\u2581max": 2666, "Component": 3621, "alue": 672, "link": 2403, "pack": 2860, "elling": 3572, "activ": 10375, "\u2581testim": 16620, "\u2581BS": 28691, "\u2581Thursday": 10983, "lace": 22918, "\u2581Aaron": 20486, "\u2581],": 12052, "xic": 14443, "\u2581hero": 10725, "\u2581\u0411\u0440\u0430": 25701, "\u2581ll": 8814, "\u2581\u044f\u043a": 15143, "\u2581screening": 23191, "\u2581surge": 24048, "~": 28845, "Qt": 20193, "\u10ec": 30937, "\u2581Prin": 14495, "\u2581soap": 15668, "\u2581Abd": 18386, "\u2581reports": 7959, "NOWN": 21016, "\u2581Commerce": 27535, "gers": 7850, "\u2581Illinois": 15632, "Without": 21469, "\u2581ben": 2798, "\u2581bamb": 27048, "\u2581cone": 22880, "\u2581});\r": 26392, "\u2581characters": 6128, "\u2581order": 1745, "_,": 6930, "\u2581silver": 9746, "\u2581descriptions": 25308, "Col": 1577, "classes": 13347, "\u2581osc": 16221, "allo": 23914, "atisf": 27846, "\u2581crucial": 13040, "'=>'": 24262, "\u2581journey": 8123, "\u2581facilities": 11675, "od": 350, "\u2581census": 21254, "comed": 25004, "\u2581Privacy": 25184, "\u91cf": 29195, "\u2581Follow": 9822, "\u2581thought": 1654, "cons": 6524, "\u2581library": 7607, "defer": 17112, "reach": 18932, "\u2581venne": 20952, "\u0490": 29559, "\u5f35": 31241, "fail": 9267, "\u2581frequent": 16153, "a\u0142o": 27189, "kes": 10774, "\u2581galaxy": 20539, "\u0441\u044c\u043a\u043e": 5205, "\uccad": 30594, "\u2581Deutschland": 19030, "\u2581Ut": 13830, "\u3053": 29543, "\u2581ArrayList": 11534, "cias": 26633, "\u2581y": 337, "cin": 20243, "\u2581*/\r": 7608, "\u2581Bog": 19925, "\u2581primarily": 13395, "\u2581reluct": 19238, "\u2581looked": 2382, "\u092f": 29896, "\u2581lady": 10271, "\u2581criminal": 11392, "\u2581XV": 9561, "teger": 4440, "\u2581Raf": 21926, "very": 646, "ingle": 5810, "\uc635": 31629, "idel": 8891, "\u2581nothing": 2511, "\u2581exchange": 8877, "et": 299, "\u2581damages": 25547, "\u2581terrorist": 25891, ">();": 7100, "\u3072": 31274, "enburg": 22381, "\u2581Harbor": 28700, "away": 12154, "pressed": 12041, "\u2581Wu": 28660, "\u2581suiv": 15434, "olk": 27227, "\u0268": 30200, "\u2581\"${": 12833, "INVALID": 13562, "\u2581By": 2463, "mux": 27884, "estival": 6805, "\ucee8": 31885, "\u2581schol": 17733, "anni": 15054, "known": 4717, "\u2581Namen": 24333, "inis": 24479, "\u043d\u0438\u0445": 5109, "sheet": 19623, "\u30b0": 29654, "\u725b": 30857, "\u2581vous": 16906, "\u043a\u0432\u0438": 24531, "\u0947": 29586, "\u2581sides": 8480, "\u2581Oh": 5434, "\u2581rand": 27586, "outer": 6753, "\u2581smiles": 24733, "\u2581Dam": 8474, "\uad8c": 31579, "tor": 6909, "\u2581TF": 23260, "\u2581medications": 28050, "Lo": 18679, "ea": 11062, "\u2581cash": 7877, "wt": 13845, "price": 11020, "bery": 26666, "\u2581OF": 4033, "TL": 11521, "\u6162": 31480, "ola": 4362, "\u2581wear": 7656, "\u2581Shel": 18601, "ab": 375, "tags": 12586, "backup": 27078, "reak": 1196, "\u2581labor": 7579, "feat": 28310, "\u0336": 31107, "encia": 5983, "\u2581endl": 20604, "\u5929": 29354, "\u2581clock": 9917, "ools": 20498, "\u2581Andr\u00e9": 24046, "\u2581meeting": 5283, "\u2581Returns": 6699, "\u2581BY": 11732, "lower": 13441, "hens": 7533, "\u2581rhythm": 19834, "\u2581\u043e\u043f\u0435\u0440\u0430": 24889, "params": 3831, "itori": 27237, "),": 557, "fe": 1512, "\u2581separ": 3939, "\u2581urg": 13839, "\u0e39": 29976, "\u2581valued": 25309, "\u2581subur": 24832, "ORK": 13351, "\u60f3": 30023, "\u2581\u0431\u044b\u043b\u0438": 13698, "\u2581IX": 22343, "\u2581beam": 16647, "Land": 22971, "\u308c": 29387, "However": 27955, "[@": 27978, "\u2581jealous": 21176, "\u2581flights": 22447, "ler": 1523, "erei": 26158, "\u2581Answer": 26307, "\u2581Crusher": 21879, "\u2581k\u00f6r": 28059, "zer": 3506, "semb": 5650, "\u2581general": 2952, "\u2581nationale": 22296, "\u2581edit": 10659, "UNIT": 22587, "\u2581surprisingly": 23107, "\u2581perf": 16385, "neh": 12667, "\u2581ingred": 10887, "\u2581something": 1545, "\u2581<<": 2087, "Cred": 15453, "}_\\": 12225, "\u2581toutes": 25386, "ha": 2799, "\u2581Brand": 14135, "eria": 10171, "\u2581intervals": 24405, "impse": 26612, "\u2581delivery": 9562, "\u2581hood": 21224, "\u2581play": 1156, "\u2581anten": 25940, "\u2581matrix": 7111, "\u2581Joshua": 28302, "RESET": 22867, "Gen": 9872, "\u2581gentle": 10434, "\u2581\u043f\u0456\u0434": 11103, "\u901f": 30029, "\u2581muttered": 22600, "\u2581filling": 15990, "\u304d": 29552, "western": 22274, "send": 5221, "HL": 11758, "\u092c": 30188, "\u2581Ferr": 16073, "lle": 20703, "\u2581numpy": 25637, "\u2581substance": 18677, "\u2581companion": 19377, "poque": 25576, "\u2581Cele": 24779, "\u2581Agreement": 23377, "\u2581statement": 6251, "\u202a": 31791, "\u2581\u0441\u043b\u043e": 25255, "\u8303": 30135, "\u2581threats": 19843, "\u0459": 28918, "\u2581urgent": 25976, "atting": 14758, "\u2581certain": 2552, "\u2581ta": 14223, "\u2581subm": 24301, "\u2581decides": 24928, "\u2581Emb": 18065, "wq": 23519, "\u2581parliament": 20848, "\u2581paintings": 19572, "\uad00": 30224, "*).": 12619, "parency": 23767, "Emp": 25225, "\u2581insurance": 6919, "Flow": 13444, "\u2581Parameter": 26059, "align": 3737, "\u2581WC": 27825, "\u2581Lesser": 19570, "\u2581energy": 3408, "ice": 535, "\u2581election": 7537, "\u2581protests": 24740, "\u2581setup": 9520, "\u2581Kyle": 25363, "bas": 8452, "\u2581board": 5113, "\u0e10": 31348, "\u00c8": 29029, "pez": 19033, "\u2581digital": 7153, "\u2581Process": 10705, "ursor": 12558, "POWER": 23453, "\u5f39": 30409, "ives": 1771, "wd": 9747, "\u2581gambling": 20696, "bahn": 20125, "\u0169": 30562, "\u2581Gen": 6242, "\u2581remarks": 24370, "DUCT": 27074, "\u7531": 29590, "\u2581\u0433\u0440\u0430": 8032, "ovan": 13704, "\u2581via": 4213, "\u2581Ein": 6004, "Execution": 11244, "\u2581principle": 12814, "equ": 958, "iley": 13891, "\u2581parties": 8209, "\u2581hopes": 15721, "\u2581positioned": 28184, "resolved": 22634, "\u2581improvements": 19664, "\u2581humans": 10589, "\u2581wallet": 12837, "\u2581\u0441\u0432\u044f": 15520, "\u2581pam": 26362, "\u2581signal": 7528, "itive": 2468, "\u0442\u044b": 5555, "\u2581'';": 13235, "HC": 16573, "\u2581Industrial": 22302, "\u043c\u0438\u044f": 24684, "breaking": 25924, "CHAN": 7295, "lit": 18600, "amerikan": 21788, "\u2194": 30375, "\u2581Nina": 27664, "\u2581slightly": 7191, "\u2581guides": 25146, "\u6703": 30332, "tele": 18720, "enario": 22786, "\u2581Pf": 17458, "uego": 14734, "mina": 28085, "pect": 822, "\u2581nost": 19098, "acs": 23416, "\u2581income": 7904, "\u2581\u043d\u0430\u0434": 12399, "itals": 14427, "\u043e\u043d": 3463, "\u2581Eg": 22684, "\u2581Pir": 19346, "servers": 21032, "VM": 8572, "\u2581accuracy": 13252, "\u2581Cin": 17133, "undial": 18507, "bia": 20565, "Order": 6022, "\u2581terms": 3471, "ilarly": 12367, "\u2581doub": 19686, "Keep": 24205, "Hel": 3733, "\u2581consultant": 28459, "operations": 25488, "\u8f6c": 29357, "adu": 28082, "address": 5540, "exp": 5128, "wand": 27358, "\u2581bean": 24853, "NP": 24257, "\u2581mut": 4548, "\u2581Murphy": 23940, "eous": 25818, "\u2581Veg": 15408, "\u2581ber": 10831, "ter": 360, "\u2581financial": 5593, "ACTIVE": 17740, "\u2581Package": 25949, "ocolate": 11959, "\u2581Gam": 24383, "amil": 8551, "\ud558": 29136, "Servlet": 13588, "big": 4040, "\u2581\u0418\u0437": 17838, "iverse": 8834, "\u2581indeed": 8166, "\u0441\u0442\u0443\u043f": 15796, "fang": 17907, "eper": 7928, "\u2581crush": 21987, "MD": 4915, "\u2581dimensional": 25369, "n": 28711, "adata": 3826, "kin": 7510, "\u2581losing": 10121, "\u043f\u043e\u043b": 14004, "h": 28716, "working": 20867, "\u2581enjoying": 16269, "Runtime": 8408, "\u00f6r": 2024, "\u2581anywhere": 9530, "\u2581Typ": 15633, "orb": 19894, "\u2581print": 2682, "\u2581civ": 13269, "\u26a0": 31433, "<0x60>": 99, "CODE": 8233, "\u2581Illuminate": 22652, "\u2581lors": 11989, "=${": 22765, "\u7530": 29944, "\u2581installed": 11540, "zd": 13335, "prob": 22083, "Contains": 17576, "IND": 6733, "ordered": 17029, "\u2581flowers": 11888, "\u602a": 31042, "\u2581quasi": 19339, "rose": 16965, "ath": 498, "\u2581rental": 18808, "\u2581dx": 18733, "\u2581cheeks": 19764, "\u0446\u0438\u043e\u043d": 15815, "\u2581>>>": 18343, "uniform": 26786, "clean": 11484, "\u2581Put": 10331, "\u2581ours": 22911, "\u2581db": 7594, "\u2581elif": 16422, "\u2581Display": 20121, "inburgh": 24464, "\u2581laying": 27587, "oko": 18890, "\u2581temporada": 20030, "\u2581\u015bwi": 21200, "<0x8E>": 145, "POSE": 12053, "\u2581Load": 11924, "asta": 7788, "\u2581per": 660, "ends": 2827, "\u2581\u00e1l": 19461, "\u2581focus": 3232, "Pool": 9022, "ecycle": 22832, "zten": 24021, "\u2581str": 1117, "uar": 11042, "cca": 14698, "Criteria": 20719, "asy": 5826, "uesday": 10684, "\u2581inform": 5227, "icular": 18114, "textsc": 22564, "\u2581conflict": 10318, "<0x7C>": 127, "\u2581seems": 3969, "example": 7476, "\u2581Poz": 25392, "=(": 9463, "\u2581\u0421\u0443": 13656, "<0xB9>": 188, "Seconds": 20852, "strument": 15549, "\u0bbe": 30419, "\u0432\u0440\u043e": 13032, ">\";": 20160, "(\"-": 24751, "\u2581camb": 15700, "\u2581p\u00e9riode": 28546, "\u2581cri": 21040, "\u2581forehead": 18522, "\u2581fellow": 8828, "awn": 11646, "\u2581jumped": 14949, "T": 28738, "\u2581++": 6537, "Her": 18078, "\u00ef": 28920, "`": 28832, "will": 13185, "\u2581p": 284, "\u2581Collection": 13079, "\uccb4": 29823, "\ud2b8": 29404, "\u2581capt": 4286, "\u2581hundred": 4682, "\u043b\u0435\u043d": 3997, "acter": 2441, "\u2581elem": 10550, "low": 9381, "Zone": 13962, "ese": 3368, "Lat": 17119, "::~": 27893, "\u2581Bun": 28199, "\u2581underground": 21059, "\u0440\u0456": 4278, "\u2581exagger": 25945, "\u2581JS": 16315, "\u2581Property": 13059, "help": 11538, "\u2581dedic": 21810, "\u2581Audio": 16957, "\u73a9": 30656, "fers": 17556, "\u2581rounded": 19372, "\u2581achieving": 25122, "Suppress": 22229, "Kind": 6660, "\u2581{}": 4729, "\u2581posts": 10005, "\u2581characteristic": 17845, "\u2581numero": 25899, "ados": 3482, "\u2581slide": 16513, "\u2581powered": 26006, "king": 8328, "rodu": 3399, "\u753a": 30988, "\u2581others": 2663, "\u2581Cool": 21359, "\u011f": 29088, "\u2581=>": 953, "\u2581swimming": 16862, "\u2581Mul": 21691, "enez": 14936, "\u2581passed": 4568, "\u2581preview": 25203, "\u2581depress": 28285, "\u2581Craig": 21260, "\uc640": 30275, "\u2581absorbed": 26996, "raph": 1875, "Received": 25411, "\u2581Good": 5801, "\u5bb6": 29490, "\u2581herself": 4746, "\u9886": 30610, "\u0440\u044c": 13168, "\u2581mild": 16583, ")?": 11840, ",,,,": 20863, "UD": 8115, "aille": 14286, "\u2581plane": 8573, "\u2581constitution": 22120, "\u0441\u044c\u043a\u043e\u0433\u043e": 10120, "\u2581secre": 15038, "ep": 615, "\u25b8": 31939, "\u0441\u0443\u0434\u0430\u0440": 16747, "\u2581murm": 17683, "\u2581resources": 5823, "\u2581\u0440\u043e\u0437": 9355, ":}": 26657, "\u2581fall": 2949, "\u2581mens": 24644, "\u2581safe": 5023, "\u2581zaw": 24300, "product": 5646, "\u2581fru": 15925, "\u2581Feature": 22114, "iblical": 26896, "ude": 987, "VIS": 20178, "Blob": 22388, "artment": 4502, "\u2581militar": 26190, "hl": 7529, "\u2581awkward": 17450, "\u2581\u0440\u0435\u0433\u0438": 24514, "aha": 12980, "\u2581sla": 19734, "\u9898": 29264, "\u0442\u043e": 914, "\u2581cut": 3119, "uetooth": 19437, "\u2581empt": 28534, "AM": 2854, "\u2581summon": 21720, "\u2581approximate": 27132, "////////////////": 5172, "\u2581-=": 10546, "\u2581loads": 22560, "\u2581Bez": 22627, "eral": 9785, "\u2581Convention": 23717, "agine": 16816, "\u2581Chem": 18199, "\u2581ki": 12883, "\u2581US": 2223, "\u2581{\\": 2532, "\u2581vert": 7175, "\u2581rib": 13147, "\u2581economics": 25426, "\u6b66": 30183, "\u2581anchor": 19042, "\u2581familie": 14875, "\u2581observer": 21854, "\u2581arrang": 11887, "\u2581survivors": 25741, "\u2581proposals": 26054, "nier": 16408, "\u2581slope": 20912, "pred": 10477, "uced": 22333, "\u2581avait": 13212, "\u2581Klein": 26526, "othes": 6317, "\u2581vendor": 24578, ".__": 9320, "rac": 21182, "\u2581\u0440\u0435\u0437\u0443\u043b\u044c\u0442\u0430": 20959, "ara": 2923, "illery": 19431, "\u0441\u0442\u043e\u0432": 27321, "Such": 25738, "ation": 352, "\u00e1sz": 27592, "\u2581Champions": 24470, "\u2581\u0411\u043e": 8736, "\u2581crushing": 21456, "\u672c": 29119, "<0x5F>": 98, "\u697c": 30309, "\u2581Ko": 14020, "orry": 11998, "\u78bc": 30946, "\u2581fon": 15775, "products": 20042, "\u2581Parl": 27550, "tings": 2549, "\u2581Sex": 14213, "\u0433\u0440\u0435": 21634, "Ratio": 24064, "\u0446\u0435": 3876, "\u2581ability": 5537, "eping": 11734, "vy": 12246, "\u2581cu": 4014, "\u10e2": 30119, "\u2581lleg": 15546, "\u2581Boston": 9143, "\u2581Live": 11635, "ded": 3802, "\u7b26": 29252, "\"></": 5828, "\u2581equally": 13387, "\u2581\u0414\u0435": 11720, "string": 1427, "Mat": 6873, "\u2581pt": 16533, "\u79d8": 31544, "\u2581btn": 11898, "update": 3818, "\u2581Career": 18050, "\u2581forgotten": 13652, "close": 5336, "\u2581Love": 7481, "Original": 20582, "\u2581always": 1743, "copyright": 28608, "run": 3220, ">\"": 11333, "\u2581observ": 3977, ")=\\": 11148, "nr": 11477, "ILD": 14010, "SELECT": 10696, "transition": 19655, "\u2581facilitate": 25729, "\u2581mercy": 25856, "\u542f": 29625, "dtype": 18921, "\u2581embedded": 20007, "\u4eac": 29936, "nut": 17964, "\u0432\u0456\u0442": 19505, "raft": 2869, "append": 3308, "emplate": 3949, "\u2581opts": 13069, ")}_{": 26585, "\u2581another": 1698, "ertain": 2029, "\u7121": 30113, "\u2581HO": 12203, "decode": 13761, "\u0441\u043f\u043e": 5761, "\u2581predict": 6782, "bread": 28090, "#": 28771, "izz": 5769, "\u2581producers": 22862, "door": 9405, "\u2581commerce": 21806, "\u2581delta": 14823, "\ub418": 29848, "stance": 2410, "linear": 13548, "\u2581d\u00e9": 2306, "itz": 4334, "\u2581neu": 21194, "\u2581Yam": 24510, "uve": 22322, "\u2581Ridge": 25440, "pattern": 12392, "variant": 9974, "\u2581further": 3629, "plugins": 16142, "\u6d0b": 31434, "\u2581[\u2026]": 22819, "\u2581attacking": 23627, "ington": 14066, "itionally": 14586, "\u2581\\]": 8425, "\u2581latach": 20102, "i\u00e9": 26420, "\u044a\u043d": 26561, "\u2581Sof": 21918, "\u2581Todd": 24201, "\u90a3": 29793, "\u2581kap": 16056, "\u2581Vin": 12670, "GPIO": 18563, "osph": 24512, "\u2776": 31739, "\u0936": 30432, "buffer": 4260, "\u2581handle": 4269, "\u2581Intel": 20276, "}))": 21999, "ferred": 9497, "\u2581liked": 8232, "\u2581Web": 6353, "pdev": 14337, "First": 7489, "\u2581pel": 6704, "wall": 11653, "\u2581\u043f\u043b\u0430": 12454, "swap": 18206, "\u2581COMP": 22093, "TERN": 26503, "\u2581among": 3352, "\u2581bod": 7646, "\u2581frozen": 15199, "St": 718, "ueto": 19261, "\u2581sc": 752, "\u2581Welcome": 19417, "isk": 2606, "\u0436\u0430": 4483, "Match": 6892, "\u8ddd": 30369, "\u2581\u041c\u0456": 26267, "\u2581ske": 11749, "\u2581polit": 2419, "}&": 22601, "\u2581danger": 6015, "\u2581whis": 8037, "\u2581embar": 12261, "directory": 17509, "stra\u00dfe": 20134, "\ud83d\ude02": 29196, "consum": 17125, "\ubd80": 29775, "ima": 4250, "\u2581boy": 4531, "\u7372": 31805, "\u2581eight": 5435, "Syntax": 19529, "conne": 3824, "\u2581voyage": 21982, ";\r": 1271, "buch": 22699, "\u2581t\u00e9": 20659, "\u2581rest": 1846, "\u2581instruction": 13126, "\u65af": 30320, "\u0f0b": 29801, "lections": 4488, "quot": 12792, "\u2581restart": 20733, "\u2581Miss": 5586, "\u597d": 29530, "\u2581diversity": 18644, "\u2581vul": 10320, "\u2581Friedrich": 17277, "\u2581dun": 27421, "pur": 14692, "pliers": 18403, "\u2581trailing": 27166, "\u2581texts": 19337, "\u2581ISO": 23052, "\u0137": 31511, "Content": 3929, "\u2581nonetheless": 28214, "\u8bb2": 31952, "<0x3B>": 62, "\u2581injury": 11254, "feed": 16454, "\u2581Bo": 3268, "ella": 1994, "\u2581lanz": 26682, "\u0baf": 30687, "\u2581Hope": 12297, "\u056c": 30834, "ometry": 8289, "\u2581BE": 10368, "\ucc3d": 31476, "\u2581circuit": 15306, "ngth": 24575, "release": 11023, "\u2581\u042e": 11396, "\u2581Morris": 18865, "\u2581wherever": 20517, "\u2581chains": 20496, "EX": 2335, "\"))": 4948, "\u2581Italy": 10828, "ReadOnly": 25700, "\u2581Finale": 27721, "\u2581Hamb": 18540, "Pref": 18108, "isions": 5662, "\u2581monthly": 14890, "falls": 16768, "\u2581...": 3850, "\u2581Rosa": 25649, "\u018f": 31557, "\u2581initiatives": 25060, "\u0ab0": 31427, "\u05d0": 29127, "\u2581policy": 4920, "commands": 22738, "\u2581\u0442\u043e": 3846, "\ud83c\udffb": 30084, "\u09c1": 30408, "\u7ed3": 29218, "\ub09c": 31876, "\u5167": 31157, "\u2581View": 7022, "\u2581press": 2944, "\u2581Americans": 8165, "<0xE1>": 228, "\u2581shaft": 25534, "\u0644": 28933, "\u00e9ral": 12036, "\u2581Food": 11435, "\u2581proved": 10984, "\u2581\u00da": 28046, "\u0117": 29325, "rior": 6654, "liche": 8518, "Ag": 13859, "gly": 13127, "\u043a\u0443": 2201, "\u2581invalid": 9109, "\ud3b8": 31630, "wo": 809, "<?": 5357, "\u2581Eric": 12867, "\u2581ridic": 12882, "\u7ebf": 29437, "APP": 16364, "strlen": 26192, "you": 7020, "aqu": 19424, "\u2581multiple": 5166, "\u0451\u0442": 14687, "\u2581purs": 7900, "formed": 12914, "\u0081": 29766, "\u2581medium": 10312, "\u2581(*": 2253, "secret": 16727, "\u2581\u041d\u0438": 11504, "itas": 21131, "eve": 21111, "emit": 12265, "\u2581niet": 14654, "\u5e0c": 30655, "\ub178": 30525, "\uc758": 29187, "\u2581relationship": 3758, "\u2581generated": 7138, "\u2581as\u00ed": 18237, "\u2581Fail": 28278, "\u5347": 30401, "imp": 10750, "\u2581peculiar": 25876, "Extension": 10430, "\u2581cl": 533, "\u8d23": 31377, "\u2581electronic": 13176, "iah": 14475, "UTC": 18117, "\u2581punk": 22900, "\u2581VM": 18803, "\u00e9ro": 18285, "\u015b": 28884, "\u0080": 29133, "\ud83d\ude04": 31525, "\u2581Tour": 7113, "\u2581demands": 15047, "former": 20700, "\u2581Suppose": 21212, "\u2581ran": 5591, "ctor": 1810, "\u2581husband": 5581, "\u2581seva": 16931, "\u0631": 28947, "\u2581advance": 8670, "\u2581Elle": 9801, "}}$,": 25133, "ifica": 20750, "\u2581\u041c\u043e\u0441\u043a": 22288, "mult": 5409, "\u2581useless": 19209, "ale": 883, "\u2581funeral": 18979, "\u2581elseif": 25026, "team": 15075, "\u2581balanced": 19971, "\u010de": 27351, "\u2581keeps": 11478, "black": 10323, "\u043a\u0442\u0443": 19456, "\u2581un": 521, "who": 12938, "gem": 20898, "\u2581soldiers": 8996, "DEBUG": 8297, "dyn": 23076, "\u043c\u0435\u0439": 20488, "\u2581mult": 2531, "\u2581invention": 21823, "abel": 1088, "\u2581fifteen": 13956, "HY": 27334, "\u2581Jenn": 15824, "\u057e": 30907, "\u2581promising": 22449, "Application": 7951, ":%.*]]": 27456, "asc": 4486, "\u2581dig": 3968, "Hol": 28584, "ilar": 3052, "\u2581Central": 7993, "arch": 1161, "\u2581cum": 14931, "\u2581turned": 2897, "imo": 6872, "\u2581\u0443\u0441\u043f\u0435": 28205, "go": 1644, "EQUAL": 23296, "\u2581direction": 5007, "\u2581code": 2696, "EL": 2980, "\u2581pela": 16649, "ov": 626, "\u2581offers": 5751, "\u2581checked": 9681, "\u2581painful": 17340, "request": 3134, "--------": 709, "\u2581flames": 24677, ".[": 20011, "\u2581throughout": 5473, "rizona": 15943, "\u2581TABLE": 23740, "ool": 796, "\u2581municipal": 15539, "ederal": 5717, "\u2581Ball": 11828, "Walk": 25228, "\u2581determining": 23689, "cancel": 14883, "picker": 19794, "configure": 19425, "\u30b8": 29545, "writ": 10253, "offset": 3783, "\u2581organized": 12425, "fixed": 15145, "Rule": 7693, "\u2581heap": 22340, "um": 383, "non": 4581, "\u2581Radio": 12038, "\u2581stove": 28479, "\u2581Blake": 23450, "else": 2013, "\u2581pl": 549, "\u0459\u0443": 19743, "insn": 22113, "SION": 8439, "werp": 25978, "Expected": 17015, "<0xB8>": 187, "ample": 1662, "\u2581particip": 4105, "\u0437\u0438": 3020, "\u2581concluded": 16489, "dog": 17693, "<0x47>": 74, "CCESS": 9476, "\u2581Hung": 15171, "otta": 21839, "\u76ca": 30914, "\u2581sop": 16766, "\u2581boat": 9088, "\u2581deep": 3534, "\u2581fran\u00e7aise": 21801, "\u2581Val": 3474, "\u56db": 29882, "security": 10165, "oline": 20252, "\u2581\u0444\u0440\u0430\u043d": 26186, "\u2581\u0441\u0435\u0440\u0435\u0434": 28200, "\u0434\u044f": 10926, "\u2581Zag": 28145, "st\u00e4nd": 21591, "\u2581Phys": 12051, "cleanup": 23642, "paths": 19366, "\u2581retr": 17895, "\u0442\u0435\u043d": 17010, "phones": 18624, "\u2581derni": 23551, "\u2581Theorem": 11335, "\uff1b": 29743, "\ub300": 29634, "\u2581oh": 11621, "elseif": 27636, "properties": 10723, "\u2581gri": 15854, "\u2581Link": 9351, "calendar": 28258, "pro": 729, "ving": 3844, "toEqual": 18665, "\u2581afraid": 8526, "\u1f50": 30760, "\u2581wherein": 27271, "\u010den": 28616, "prevent": 21129, "\u2581actual": 4695, "m\u00eame": 26333, "Wallet": 22209, "\\%": 10857, "\u2581modifications": 26470, "olved": 7060, "\u09aa": 30381, "\u2581juillet": 18458, "\u865a": 31415, "urg": 2821, "Agent": 14829, "\u0430\u043d\u0433\u043b": 18058, "\u8d35": 31465, "i\u00f3n": 1762, "ays": 748, "upport": 3650, "\u2581nicht": 6227, "BU": 3470, "\u2581__(": 25185, "\u2581classes": 6709, "\u2581Cle": 12132, "\u2581Henri": 20374, "aints": 6520, "\u2581Input": 11232, "}\")": 24984, "\u045f": 28989, "\u2581Tit": 9495, "ARK": 17155, "unned": 25704, "\u2581tags": 12944, "\u2581NGC": 24486, "\u2581\u0432\u0435\u0440": 12946, "Over": 2675, "aude": 18188, "\u2581stellar": 21523, "\u2581Incl": 18384, "\u2581\u2198": 25506, "\u0430\u043d": 2239, "\u2581Charles": 6427, "\u2581annually": 27359, "\u2581Dur": 8420, "\u0448\u0435\u0433\u043e": 26459, "issen": 20740, "\u8bdd": 29456, "det": 4701, "\u2581oil": 5503, "integr": 16273, "\u2581Bishop": 19683, "orum": 25965, "\u0e49": 29318, "ookie": 10235, "\u2581zap": 19060, "atal": 3196, "\u2581related": 5202, "\u0441\u0442\u043e": 2276, "Border": 14943, "emor": 28704, "\u5708": 31328, "\u2581v\u00e9": 20249, "type": 1123, "\u2581refer": 3295, "\u2581lemon": 23598, "WITH": 21646, "ma": 705, "\u0441\u043a\u043e": 1789, "\u2581harass": 22280, "\uc8fc": 29557, "\u1021": 31995, "\u2581improvement": 14204, "\u2581jQuery": 12257, "\u2581Ris": 25054, "cli": 18008, "\u2581llam": 17620, "\u2581wildlife": 28043, "\u2581threw": 11915, "\u8996": 31077, "\u4e13": 30424, "Friend": 22412, "\u00e1r": 5856, "icial": 5867, "(-": 6422, "obil": 20087, "\u2581scient": 6269, "\u2581asshole": 25676, "\u2581confront": 12773, "\u2191": 29597, "points": 8362, "\u2581unit": 5028, "\u2581Inf": 18399, "\u2581when": 739, "\u2581stood": 4857, "\u2581Jefferson": 18513, "Ops": 24172, "ments": 1339, "\u2581het": 3010, "ban": 3627, "b": 28726, "\u2581\u043d\u0435": 2409, "\u0441\u043e\u043c": 21323, "\u2581holiday": 12010, "\u2581rivers": 24582, "\u2581iPad": 28696, "Title": 7522, "\u2581racism": 22409, "GC": 9389, "\u2581palace": 20695, "alled": 17987, "\u2581make": 1038, "ray": 919, "\u2581classification": 16776, "\u2581extracted": 25081, "ggreg": 16798, "\u2581\");": 14588, "\u0441\u043c\u043e": 27231, "):": 1329, "\u03bc": 29017, "\u2581Hart": 13796, "\u2581s\u0105": 23435, "\u2581jar": 22578, "reat": 836, "\u2581shout": 11428, "\u2581Facebook": 8488, "or": 271, "\u2581MOD": 18471, "\u7389": 30927, "new": 1095, "\u00f3r": 11240, "\u2581Talk": 15849, "kr": 6175, "omsnitt": 22847, "\u2581broke": 8845, ">>>": 21705, "sq": 4791, "\u2581painting": 11514, "HasColumnType": 18239, "\u2581\u043e\u0442": 2433, "uter": 20073, "\u2581Bobby": 20507, "*": 28736, "\u5e72": 30901, "\u0011": 30557, "########": 3590, "\u2581spoke": 7310, "\u2581Sw": 3904, "\u2581enthus": 12374, "\u2581legally": 24025, "\u2581Dep": 3995, "\u2581centro": 19905, "\u2581streng": 5261, "rott": 20332, "\u2581behav": 4569, "gin": 6207, "Properties": 6509, "Should": 15035, "\u2581oven": 19126, "wald": 26246, "\u4e95": 30729, "\u2581escort": 25514, "forming": 23738, "\u0280": 30764, "oli": 7320, "\u2581spectra": 23102, "\u2581shots": 14487, "awi": 28498, "\u00e9l": 5560, "\u2581aster": 28693, "\u2581Chief": 11762, "\u2581Material": 15210, "Try": 17666, "resize": 16138, "iov": 18762, "Session": 6554, "Geometry": 20052, "\u2581confirm": 8735, "\u2581notification": 14901, "ead": 1109, "\u2581\u00bb,": 13231, "\u2581Introduction": 23628, "\u2581ry": 24780, "\u2581\u0411\u0443": 15195, "\u2581free": 1933, "\u2581Prim": 16059, "\u9488": 30373, "char": 3040, "\u2581faced": 12565, "\u2581activities": 6290, "ulates": 26885, "raj": 15694, "\u2581bright": 6833, "\u2581biologie": 17149, "\u7687": 30645, "\u2581laser": 19605, "\u2581progressive": 20458, "\u2581closing": 12984, "returns": 7617, "\u2581drug": 7876, "resume": 24166, "akh": 17212, "\u2581compare": 9584, "rc": 1718, "\u2581settings": 6472, "erst": 25742, "\u2581uniqu": 20988, "\u9875": 29238, "\u2581actress": 18334, "\u2581Sim": 3563, "tik": 21573, "\u2581Portug": 11211, "iona": 17647, "Allow": 20230, "\u2581Electric": 20459, "\u2581ought": 13683, "\u2581Wed": 7842, "\u2581claim": 3452, "Down": 6810, "\u2581Product": 9068, "\u2581Price": 11589, "PyObject": 21554, "\u2581\"(": 21816, "\u2581ide": 1872, "\u2581consist": 4817, "attery": 18286, "\u60a8": 29689, "disp": 28223, "\u2581remarkable": 16959, "itories": 27799, "\u635f": 31867, "IBUT": 23148, "\u2581repeat": 13750, "clam": 21453, "\u064b": 30743, "\u2581thanks": 8196, "\u2581nob": 7169, "Uniform": 23472, "\u2581gam": 11129, "\u043d\u0438\u043c\u0430": 12629, "Running": 23802, "Reset": 13709, "nice": 22515, "\u0435\u0442": 2734, "boldsymbol": 8033, "\u2581AR": 6108, "\u2581Death": 13611, "\u2581kur": 20532, "\u3042": 29674, "\u2581technological": 26515, "WW": 22240, "windows": 12113, "\u2581arts": 13480, "AT": 962, "ATH": 7145, "\u2581sehr": 24188, "AUT": 11489, "lymp": 7184, "\u2581volunte": 10917, "ric": 1491, "neum": 28051, "\u2581secret": 5169, "\u2581autre": 20638, "\u2581nj": 28572, "\u2581Average": 27701, "\u2581\u0420\u0430": 7543, "\u0439\u043e": 7328, "\u2581Jake": 18742, "\u2581available": 2632, "\u2581encuentra": 22877, "\u2581creator": 25365, "\u89d2": 29679, "\u2581also": 835, "\u2581Express": 16722, "\u2581perman": 8706, "structure": 18048, "\u2581cabinet": 18266, "naissance": 24944, "l": 28714, "\u2581adm": 5055, "LINE": 9581, "Adjust": 23442, "\u00f6d": 14697, "\u2581d\u00e9s": 16018, "\u2581faithful": 26073, "\u044e\u0449\u0438\u0435": 27615, "lli": 25137, "\ud83d\udcaf": 31685, "\uc2ec": 31987, "\u2581hover": 18848, "\u043a\u0430\u0440": 22688, "olin": 27545, "essen": 21951, "\u0f56": 31207, "yc": 27831, "\u2581vegetables": 19045, "\u2581deren": 25283, "ograf": 5285, "dirname": 21336, "\u5217": 29150, "\u2581March": 4117, "\u2581Kennedy": 15288, "gra": 24045, "\u03c7": 29342, "although": 27847, "\u2581bureau": 20145, "isting": 10137, "doors": 25261, "\u00e1st": 14637, "\u2581reached": 5048, "\u2581disappointed": 18913, "ulative": 20851, "\u2581arom": 26835, "\u043a\u043b\u043e": 24034, "\u1edf": 30849, "\u2581era": 4204, "3": 28770, "\u2581Head": 9655, "\u2581Airlines": 28415, "\u2581wanted": 2613, "ajor": 2577, "Resource": 3794, "\u2581\u0447\u0435\u043b\u043e\u0432\u0435": 15811, "\u2581origins": 26081, "\u0448\u0442\u0430": 26960, "\u2581knees": 13431, "\u2581hade": 14996, "\u0447\u0435": 1696, "Where": 9607, "datetime": 16058, "\u2581excell": 7154, "\u2581Fra": 12699, "abl": 13747, "mathbb": 2916, "Response": 2963, "\u2581language": 3842, "thread": 6101, "\u2581bour": 25715, "\u5f84": 29729, "\u2581>>": 6122, "\u5176": 29450, "<0x9D>": 160, "Server": 5334, "Authorization": 26369, "\u2581hon": 3243, "\u2581between": 1444, "\u2581Born": 20109, "\u2581repository": 21177, "shell": 21678, "rob": 18443, "<0x93>": 150, "\u2581Grow": 18456, ")\",": 10647, "\u2581Twitter": 11690, "operator": 8655, "\u09a4": 30393, "peat": 15882, "ISH": 26571, "\u2581bands": 15608, "\u2581uit": 5478, "opath": 23461, "\u1004": 31284, "\u017b": 29060, "\u2581judgment": 16548, "\u2581Advis": 28460, "inden": 20440, "day": 1466, "keyword": 22345, "\u6027": 29261, "\u7576": 31332, "\").": 4145, "\u0307": 31635, "erde": 19161, "\u7f57": 30767, "TRA": 22057, "\u2581invest": 2631, "onte": 14266, "\u2581teach": 3453, "yna": 22335, "tml": 7684, "\u2581absorption": 26923, "linewidth": 17685, "\u6b8a": 31267, "erve": 5803, "\u2581pushed": 9012, "\u2581necess": 3527, "\u2581spel": 28501, "la": 2220, "\u2581disaster": 17273, "embed": 18320, "coming": 4343, "sin": 8791, "\u2581earliest": 21864, "\u2581Legisl": 26216, "\u2581vend": 13479, "\u2581helpless": 25240, "astically": 27674, "\u2581Tips": 26406, "\u043b\u043e\u0436\u0435": 28489, "Jo": 22387, "added": 17447, "\u2581crime": 9311, "\u2581ciudad": 14879, "\u2581Zel": 28614, "\u2581Kenn": 10960, "\u2581supers": 25666, "ock": 629, "\u2581coord": 6618, "\u514b": 30329, "\u2581Mayor": 20671, "\u2581dav": 21696, "\u2581configuration": 7427, "\u2581Fifth": 23359, "/_": 23762, "\u2581Mess": 13976, "gu": 2851, "\u00e4ck": 27841, "\u2581Region": 13365, "SPI": 23483, "\u2581hast": 25017, "quier": 22253, "\u2581\u0442\u043e\u0440": 27964, "rency": 7492, "\u2581indoor": 24990, "\u2581\u0433\u043e\u0434\u0443": 5521, "hspace": 13368, "\u2581({\\": 28699, "\u2581Jos": 9574, "\u2581earning": 25290, "period": 14977, "olver": 8867, "\u2581Reference": 22386, "\\+": 11100, "\u2581wounded": 17084, "\u2581references": 14145, "\u2581app": 954, "\"><?": 26109, "hadoop": 28158, "\u00a8": 30312, "\u2581Provinc": 27600, "\u2581kernel": 13653, "\u2581USB": 11588, "\u2581sell": 6112, "\u2581\u00e9": 1233, "\u2581electrical": 17828, "\u2581Politics": 25894, "\u2581brace": 27856, "Locked": 28554, "\u2581Av": 6505, "\u2581am": 837, "\u2581invite": 19411, "saved": 21428, "\u2581\u201e": 3018, "\u2581varying": 22312, "cards": 24073, "S": 28735, "\u2581Kam": 15346, "\u2581julio": 26018, "\u64ad": 30018, "\u2581core": 6421, "eries": 12865, "\u666e": 30571, "\u2581provider": 9782, "\u2581alpha": 15927, "\u2581cinq": 28300, "Install": 25868, "target": 3731, "\u0c97": 31789, "erm": 858, "\u3080": 31449, "\u2581pes": 13169, "\u2581none": 6547, "\u2581afternoon": 8635, "\u2581wis": 14729, "\u2581transportation": 17408, "\uff08": 29186, "\u4e14": 29958, "\u2581soccer": 22642, "\u2581campo": 23346, "\u2581Hindu": 25974, "\u2581rt": 22435, "\u4e92": 30989, "\u0575": 30428, "\u0446\u0456\u0439": 16680, "LowerCase": 19855, "\u043a\u0443\u043f": 26414, "\u2581school": 2052, "\u2581Access": 11559, "SYMBOL": 17248, ".\r": 5488, "inst": 4138, "\u2581Alice": 14003, "\u2581executive": 12212, "we": 769, "\u2581handler": 9694, "\u2581revol": 14251, "ynchron": 14938, "\u2581independently": 22973, "\u0442\u0435\u043b\u044f": 17371, "\u2581placement": 21783, "\u2581Polit": 8953, "\u4e8e": 29160, "span": 3721, "\u2581servers": 18515, "\u2581THE": 3799, "\u2581\u0434\u0456": 15754, "\u2581Salv": 17857, "\u2581Stalin": 24068, "\u01d2": 30896, "\u2581eyes": 2282, "\u2581Department": 6946, "\u2581grinding": 23847, "aye": 24195, "\u2581oz": 24400, "ad": 316, "ADDR": 12617, "\u2581intel": 9568, "illet": 13309, "yrics": 19591, "\u2581grow": 2333, "\u2581Under": 6605, "\u2581committee": 13414, "\u00e1ra": 24570, "\u2581starts": 8383, "orney": 10899, "\u00fa": 28863, "Formatter": 23533, "\u2581bundle": 15484, "arily": 5164, "\u0437\u0435": 8700, "ategor": 21800, "\u2581generates": 26396, "\u2661": 31104, "delegate": 24028, "\u2581incident": 10824, "DESCRIP": 25205, "\u2581pg": 23245, "\u0dc3": 31963, "\",\r": 10939, "\u0456\u0431": 16821, "rem": 1569, "evt": 20457, "i\u0107": 10029, "\u2581torn": 9390, "\u2581into": 778, "\u2581kar": 14504, "\u2581witnessed": 24385, "ulle": 17040, "\u2581your": 574, "\u2581\u0434\u0430\u043d": 19170, "\u0003": 30662, "WARE": 12508, "\u2581Nam": 16908, "\u2581username": 14412, "\u2581witness": 9149, "\u2581Techn": 6772, "bean": 16504, "\u2581\u00e9taient": 24572, "\u2581journalist": 19226, "\u2581gall": 15724, "\u2581permanently": 26815, "refix": 5770, "\u2581elect": 3206, "\u2581novel": 7092, "\u2581Power": 8442, "\u2581Ill": 7942, "pkg": 13636, "\u008d": 29987, "\u2581\u0434\u0435\u0440\u0435\u0432\u043d\u044f": 28398, "\u2581cf": 24211, "\u2581automatic": 16337, "\u2581Instance": 26662, "\u2581Los": 5729, "\u2581visual": 8809, "\u2581\u0431\u043b\u0438": 22228, "\u2581Anyway": 20129, "\u2581upp": 21343, "\u2581limited": 6516, "\u2581handful": 18303, "\u2581public": 798, "\u6839": 29521, "TMP": 15916, "\u2581folks": 13157, "lease": 1919, "Volume": 12936, "\u2581jazz": 19460, "ums": 7610, "\u2581Jed": 24987, "aph": 2366, "SEC": 18172, "ask": 1152, "\u2581adding": 8833, "itivity": 16868, "\u2581CM": 24268, "\u2581simplicity": 25233, "<0x78>": 123, "\u2581AP": 10502, "\u2581Plot": 27171, "Language": 13843, "\u76df": 31778, "\u1ef9": 31458, "\u2581Assistant": 21631, "Android": 15225, "relative": 19814, "cel": 4070, "Condition": 12862, "mu": 2390, "||": 9173, ";;": 19406, "literal": 25853, "wait": 6901, "\u0456\u0441\u043b\u044f": 20607, "\u2581accessible": 14494, "\u2581\u00e9c": 24688, "\u2581imagin": 26671, "\u2581Sus": 9167, "route": 11833, "\u2581Ce": 12494, "\u2019,": 17906, "\u2581Philippines": 21937, "\u2581attempts": 13199, "bounds": 22048, "bee": 28255, "\u0e28": 30859, "app": 763, "code": 1409, "\u2581dr": 1605, "tabular": 10972, "(((": 11133, "\u2581hr": 15384, "\u0142ug": 19194, "\u2581Buffer": 21495, "\u2581wished": 15534, "\u2581proposition": 26201, "\u2581Mal": 4380, "\u2581Covid": 27461, "\u2581lips": 8852, "\u2581Vict": 6968, "\u2581userId": 23836, "uj\u0105": 20606, "\u2581See": 3868, "HTML": 9986, "\u2581readers": 12076, "\u2581elaborate": 24340, "\u2581exercises": 20858, "\u2581close": 2848, "well": 5458, "\u043b\u0430": 1000, "\u0433\u043e\u0432": 25873, "getMessage": 18219, "Created": 18598, "\u2581known": 2651, "ake": 621, "\ub85c": 29143, "ierre": 22874, "pars": 16490, "\u014b": 29930, "deleted": 8020, "\u2581nursing": 20693, "\u2581because": 1096, "\u5374": 31621, "\u2581Party": 6636, "\u06d2": 30522, "\u2581Kirk": 21746, "\u0447\u0451\u0442": 27380, "ork": 580, "\u2581subjects": 14575, "\u2581After": 2530, "pin": 10002, "Warning": 16185, "\u2581spe": 1886, "\u2581idx": 12372, "\u2581bark": 19976, "\u2581Alexander": 11055, "itol": 24250, "\u2581thirty": 9418, "\u040f": 29473, "\u9646": 30941, "valid": 2398, "attributes": 11855, "odes": 2804, "\u2581horrible": 16826, "\u2581placed": 6838, "\u2581pens": 12811, "<0x69>": 108, "\u2581Province": 23004, "\u2581designing": 26989, "\u2581mont": 11895, "eln": 12228, "\u05d7": 29358, "\u2581cook": 4600, "ger": 1097, "esota": 17231, "\u067e": 29483, "iten": 6329, "\u2581manage": 8594, "\u2581fo": 12459, "\u2581onto": 5380, "\uadf8": 29614, "\u2581\u2581\u2581\u2581\u2581\u2581": 428, "\u2581predicted": 17931, "Client": 3166, "---------": 25635, "\u2581delicious": 15992, "\u2581amb": 4358, "\u2581\u043f\u0440\u043e\u0446\u0435": 23146, "_;": 11446, "govern": 26447, "\u2581\u0442\u043e\u0439": 28653, "\u2581ritual": 21078, "Switch": 16354, "\u2581Louise": 23928, "\u5efa": 29193, "\u015e": 29528, "\uc57c": 30263, "\u8bd1": 30883, "\u001e": 31150, "\u52a0": 29058, "Distance": 20701, "\u2581happen": 4804, "\u2581Brazil": 13250, "aus": 1899, "console": 14124, "heast": 13784, "\u2581Conse": 26300, "\u2581vertical": 13519, "\u00edv": 21022, "\uc5c8": 30591, "\u2581aut": 1206, "John": 14964, "\u8f7d": 29435, "\u2581=": 327, "\u2581nonsense": 27077, "}}(\\": 20960, "\u2581aggregate": 25273, "opl": 13317, "\u00eam": 26288, "\u0404": 29035, "\u2581Graf": 23654, "\u2581IO": 8795, "\u2581kan": 10353, "\u2581LOG": 13930, "\u2581\u0442\u0443\u0440": 18247, "Reg": 2861, "tech": 13429, "oton": 20993, "Cert": 12584, "\u62bd": 30885, ")},": 14810, "\u2581Sta": 23019, "7": 28787, "select": 5033, "amaz": 13676, "\u2581`${": 22468, "\u2581UnityEngine": 14677, "\ud2bc": 31285, "\u2581Lieutenant": 18510, "resent": 2044, "\u2581believing": 23935, "\u2581Lap": 23760, "\u2581donde": 12943, "\u2581og": 6050, "our": 423, "){\r": 18055, "dis": 2021, "\u2581writers": 12488, "\u2581neuen": 28319, "earing": 12385, "\u570b": 30499, "\u2581gaining": 25221, "ut": 329, "\u2581Louisiana": 24269, "\u2581synthetic": 26735, "\u2581Bh": 18811, "\u2581flood": 17268, "iami": 14581, "\u2581scored": 13969, "Declaration": 19429, "\u2581Harold": 24315, "\ud83d\ude2c": 31387, "<0xF6>": 249, ")).": 8698, "oday": 19761, "\u89a7": 31722, "Book": 10670, "Game": 8965, "\u2581Nevertheless": 18828, "\u2581demanded": 16084, "\u6982": 31137, "gage": 11332, "\u2581Phillips": 27703, "\u2581\u0441\u0442\u0430\u043d": 21479, "\u6765": 29263, "\u2581cel": 9645, "\u2581activation": 25159, "unal": 24764, "\u8ffd": 30346, "\u201c,": 15304, "hre": 27056, "\u2581homem": 28431, "works": 17107, "pragma": 20812, "\u2581Sports": 13184, "imiento": 13121, "\u00e8se": 26289, "\u2581Again": 9706, "\u2581_(": 22753, "\u7070": 31951, "\u2581dependency": 26473, "\u2581Irish": 11340, "\u2581passes": 15167, "\u2581Stud": 4906, "\u653b": 30666, "\u043c\u0435": 2084, "\ub124": 30959, "\u2581ill": 3784, "job": 9524, "gui": 14316, "\u2581erfolg": 25066, "\u2581je": 2218, "\u2581classroom": 19729, "\u2581cooper": 18468, "\u2581abrupt": 21735, "Gold": 25675, "irling": 26692, "\u2581n\u00e3o": 11622, "\u2581they": 590, "\");": 1041, "=\"+": 6744, "\u2581permissions": 9774, "\u2581Anti": 23331, "\u2581asking": 7201, "\u2581dismiss": 12983, "ogo": 13944, "student": 22523, "\u2581cigarette": 19819, "\u1eb1": 31642, "strict": 17354, "\u2581sim": 1290, "\u2581Finally": 8126, "\u4f5c": 29089, "\u2581share": 4098, "norm": 10767, "\u2581excessive": 24213, "\u82d7": 31927, "\ubcf4": 29477, "\u25b6": 30577, "\ud2f0": 31409, "domain": 8692, ");": 344, "arb": 28343, "\u2581DEBUG": 15383, "\u2581spaces": 10599, "\u2581builder": 9346, "int": 501, "\u02d0": 29240, "\u0432\u0430\u0442": 14423, "iture": 8861, "\u2581liter": 3937, "\u2581turning": 8528, "\u2581Reg": 2678, "\u2581toe": 11329, "={{": 14039, "\u2581stata": 20879, "\u045b": 28926, "\u2581Sara": 23365, "\u2581(\u2020": 19143, "entin": 23149, "\u2581Sur": 6021, "\u2581yours": 13010, "aming": 6133, "\u2581opacity": 26355, "\u2581Hy": 10540, "\u0e1b": 29718, "\u2581ast": 9597, "ick\u00e9": 26169, "\u2581tested": 13143, "\u2581Crist": 17564, "\u2581reign": 21539, "\u2581tiempo": 17925, "\u2581filter": 5531, "\u2581monument": 17772, "\u2581Ess": 11299, "\u2581feeling": 4622, "\u2581defending": 23638, ",&": 17610, "hund": 13101, "\u0302": 30633, "\u2581obs": 14848, "\u2581healthy": 7783, "\u2581modo": 20273, "\u2581Scottish": 17717, "\u2581shall": 4579, "\u2581\u0423": 3375, "REE": 8472, "\u2581partir": 12599, "\u2581acceptance": 19871, "\u2581shade": 19759, "\u2581suspended": 21342, "zerw": 23244, "\uc88b": 31807, "\u2581trucks": 22988, "\u2581Olymp": 8562, "\u2581Mediterr": 23611, "\u2581chase": 26129, "\u2581Nep": 22127, "\u2581Until": 17703, "\u2581scholarship": 25620, "BOOL": 27781, "between": 24829, "\u2581\",\"": 28685, "\u2581MVT": 26525, "\u2581Does": 9377, "ologia": 16241, "Checker": 27229, "\u0447\u0435\u0441\u043a\u043e\u0433\u043e": 21697, "PCI": 24271, "itar": 5098, "oning": 20392, "\u2581acceptable": 18636, "\u2581crashed": 27795, "Ac": 9475, "meta": 8301, "\u2581Ident": 15220, "autom": 23033, "\u3075": 31896, "\u305a": 31019, "\u2581sect": 23863, "logging": 18732, "\uba54": 29828, "\u2581ate": 15732, "\u2581der": 891, "\u2581gates": 21625, "($_": 14076, "\u2581Prec": 28386, "while": 5413, "\u2581wool": 25943, "\u2581jokes": 23872, "Cat": 19962, "\u2581cannot": 3573, "\u2581hidden": 7918, "\u2581educated": 20579, "Che": 21124, "ee": 2443, "\u2581Kirche": 19978, "\u2581shel": 8816, "\u2581depos": 11199, "\u2581economic": 6638, "pa": 4083, "esa": 11207, "\u2581Cel": 17233, "SUCCESS": 10497, "n\u00edm": 21038, "\u2581regex": 22899, "\u2581Specific": 23518, "SIG": 26956, "\u2581women": 2525, "\u0444\u0430": 13460, "Vol": 9503, "\u2581indul": 24155, "\u2581flowing": 25757, "\u0303": 30039, "\u2581clutch": 27883, "Details": 9515, "tober": 12955, "\u2581wird": 7534, "\u2581reasoning": 24685, "\u05e7": 29347, "\u6362": 29479, "\u2581revealed": 10924, "\u2581angl": 23340, "\u6728": 30308, "\u2581fork": 24143, "\u2581pets": 24642, "\u2581Met": 5522, "six": 20410, "\u2581believed": 7761, "chs": 21100, "\u2581inches": 13352, "\u2581\u043e\u043d\u0430": 24312, "\u2581$(\"#": 27549, "btn": 8226, "_**": 28703, "\u2581Bev": 23344, "\u2581Springs": 24846, "\u2581\u0439\u043e\u0433\u043e": 18136, "ugg": 23065, "ulent": 21834, "\u6eaa": 31490, "\u2581xml": 14502, "\u2581\u0430\u0440": 8691, "\u00e2nd": 16801, "\u2581ind": 1176, "\u2581formation": 11515, "**)": 12885, "\u2581combine": 17470, "ennessee": 18895, "ionato": 24238, "\u2581rail": 8314, "}$,": 5070, "ogeneous": 23239, "\u2581taxes": 13027, "\u2581chick": 25424, "business": 25443, "\u2581influences": 26386, "Connect": 16644, "\u0647": 29004, "\u2581DEFAULT": 17537, "move": 7125, "\u2581From": 3672, "eu": 15810, "\u04e9": 30340, "\u2581Entre": 19361, "isti": 20589, "Du": 17379, "hes": 2053, "issue": 11681, "\u2581fundament": 9676, "\u2581profiles": 19727, "('<": 23880, "\u6bbf": 31742, "iji": 17062, "fections": 23498, "\u7dda": 30501, "\u2581custody": 28103, "istrz": 20061, "<0xB2>": 181, "Virtual": 14884, "\u2581comprom": 21882, "\u0cb5": 31802, "reed": 2816, "\u2581parallel": 12635, "Before": 11273, "\u2581Brew": 23280, "\u091c": 30196, "\u2581ter": 3636, "soft": 4179, "\u2581Watson": 22603, "wa": 4985, "\u2581Intern": 3560, "\u2581contacted": 28330, "\u2726": 31709, "Results": 12220, "\u2581properties": 5508, "\u2581stare": 19696, "malloc": 24320, "\u2581scrut": 27352, "\u2581wyd": 28225, "\u2581comune": 25845, "\u91ce": 30337, "rices": 17783, "\u2581offer": 2405, "\u30cf": 30483, "\u2581Remove": 13908, "\u03c2": 29013, "\u2581chall": 4233, "\u2581theories": 17234, "\u2581vor": 6876, "REAM": 18607, "\u2581Container": 25204, "ubernetes": 20563, "oj": 6054, "cursor": 12601, "\u2581Code": 7596, "Ret": 8637, "\u2581visits": 17217, "\u2581arqu": 28368, "cu": 7340, "mathscr": 15445, "\u0e06": 31383, "\u2581often": 2608, "\u2581\u043c\u0430\u0440": 13427, "\u2581Arch": 6573, "getClass": 21661, "fico": 24465, "\u2581embarrassed": 26100, "\u2581foo": 19222, "\u2581appetite": 28081, "\u2581imag": 3809, "\u2581differ": 1299, "illy": 7915, "\u06ba": 30695, "quote": 14307, "\u2581Pra": 16997, "\u7ffb": 31051, "\u2581Swiss": 22255, "\u00f6\u00df": 19037, "\u2581Equip": 18141, "cri": 1381, "\u2581sport": 8198, "\u2581parameter": 5621, "TS": 7996, "\u2581earned": 12839, "\u2581Generic": 26348, "\u2581pet": 5408, "\u0454\u0442\u044c\u0441\u044f": 13137, "\u2581melt": 19542, "\u2581Lear": 9496, "\u2581stagione": 24248, "\u2581archae": 28426, "\u2581imped": 27988, "\u6a5f": 30672, "\u2581packing": 26894, "\u2581dys": 20840, "\u2581\u0441\u043f\u043e": 11275, "\u2581styles": 12078, "\u4e86": 29105, "\u0dbb": 31532, "\u2581interview": 5927, "\u2581Cooper": 17247, "\u2581wax": 26627, "ribe": 5748, "\u2581racist": 19139, "\u2581traces": 26354, "\u2581pron": 12704, "\u2581Logger": 22414, "\u2581ADD": 26827, "\ud83d\udd34": 31928, "\u2581nearby": 10396, "\">\r": 14980, "\u2581appointment": 14351, "\u2581'$": 22373, "\u00b0": 28902, "\u2581child": 1502, "\u2581spoken": 14382, "\u554a": 31308, "\u0c30": 31190, "eden": 11245, "\u2581gewann": 26778, "\u2581eer": 10034, "\u2581aff": 2211, "arm": 1785, "\u2581concern": 4368, "\u0440\u044e": 23434, "\u2581cage": 25807, "\u2581\u043e\u043d\u0438": 26150, "\u2581\u0432\u0440\u0435\u043c\u0435": 25396, "oubtedly": 27136, "i\u00eb": 17510, "\u2581varied": 20331, "\u2581exceed": 12436, "\u308b": 29116, "ws": 6420, "\u2581jet": 14471, "\u0442\u043e\u0432": 7660, "\u2581\u0437\u0456": 26883, "\u2581smiled": 7970, "\u7a76": 31011, "\u2581firm": 5799, "\u0927": 31080, "\u2581Lub": 25115, "\u2581Martin": 7204, "iw": 11889, "\u2581pink": 12937, "bing": 7551, "\u3073": 31050, "\",": 548, "\u2581ag": 717, "\u2581\u043e\u0441\u0456\u0431": 19145, "\u2581Kum": 25694, "being": 15823, "\u2581mass": 3042, "\u2581YO": 10834, "plaatst": 14801, "obi": 16204, "\u2581expense": 19475, "\u2581pulls": 25484, "\u8fdb": 29258, "\u2581harder": 11783, "ww": 1566, "\u2581subscription": 15400, "\u2581Dop": 15967, "Shift": 23328, "Ha": 26135, "\u2581Mind": 14683, "cep": 18316, "\u2581cloth": 17673, "\u2581seventy": 26632, "iros": 26788, "\u5b9d": 30172, "DISABLE": 21927, "upper": 17687, "\u2581aliment": 27863, "nih": 19836, "\ud83d\ude43": 31794, "\u2581swallowed": 23946, "\u2581speaks": 19203, "\u2581halfway": 23169, "\u2581gel": 12694, "\u2581bear": 9135, "\u2581Catalogue": 12325, "\u2581\u0434\u0435\u043a\u0430\u0431\u0440\u044f": 26317, "\u2581Francesco": 27758, "\u2581maybe": 4357, "\u98de": 31259, "\u2581rif": 12950, "\u2581Mont": 5684, "Linq": 25235, "\u2581property": 3321, "\u66fe": 31676, "\u0441\u0442\u0443\u043f\u0430": 19651, "olve": 5303, "\u2581Sche": 11142, "{{\\": 11610, "\u2581problems": 4418, "\u2581deeper": 13551, "VD": 10293, "hh": 12653, "\u2581Sleep": 24027, "redit": 10709, "five": 12340, "\u30d3": 30385, "\u2581contributing": 25885, "colored": 28508, "\u9ebb": 31701, "\u2581amely": 27894, "ished": 1497, "frastr": 10512, "\u2581estimates": 16438, "GF": 24390, "\u6e32": 30850, "clusive": 21981, "\u2581my": 586, "mask": 5274, "\u2581stab": 21670, "\u03bd": 28976, "\u2581possessed": 26132, "\u0459\u0430": 21284, "\u2581Way": 9168, "\u2581elle": 8273, "\u2581Mc": 3283, "\u30bd": 30383, "\u2581\u0441\u043e\u0432": 23777, "\\|_{": 26978, "Family": 17170, "jan": 12517, "stairs": 13477, "\u5403": 31182, "\u2581leaving": 6285, "utdown": 18967, "emy": 6200, "rund": 9265, "\u2581Hom": 11537, "\ud589": 30094, "\u2581se": 427, "\u2581Canadian": 10435, "ido": 2750, "\u2581drag": 8211, "\u00edl": 25448, "\u2581Const": 7791, "\u2581passengers": 18796, "\u2581loyalty": 22295, "UMN": 24495, "<0x9F>": 162, "Normal": 13303, "\u2581Generation": 26802, "\u2581Coach": 24847, "\u52d5": 29842, "\u2581devient": 23125, "\u534e": 30430, "\u2581precise": 17008, "\u6559": 30166, "\u2581Julian": 23566, "\u2581battery": 12609, "\u2581\u043f\u0440\u0430": 6386, "\u2581Slow": 22272, "pectives": 26859, "\u2581render": 7188, "\u2581Sh": 1295, "\u043b\u0456\u0432": 23279, "\u2581supports": 11562, "phere": 8800, "\u2581claiming": 20188, "\uc5f4": 30243, "\u2581harm": 6241, "\u2581jsou": 25954, "\u2581Liberty": 27370, "\u2581featuring": 16312, "pdata": 19890, "PM": 8597, "\u2113": 31442, "\uc158": 30457, "posite": 18439, "\u00a0": 29000, "\uccab": 31745, "\u06cc": 28975, "\u2581\u0432\u0440\u0435\u043c\u044f": 13493, "here": 7750, "Ins": 17621, "\u2581EX": 4175, "\u2581MA": 6540, "\u2581Eye": 26861, "POINT": 21085, "\uff0c": 28924, "\u2581sag": 19350, "Buffer": 4182, "\u2581Best": 5470, "\u2581pos": 977, "\u7f85": 31749, "ono": 5875, "iore": 27868, "(\"#": 11082, "ielte": 22360, "\u2581Zero": 23697, "ence": 636, "unnel": 11925, "\u2581struggling": 15829, "\u2581Soci": 26008, "\u2581telephone": 15429, "<0x70>": 115, "English": 27871, "\u2581essay": 10360, "\u2581stairs": 12997, "Music": 24778, "skin": 24208, "\uc785": 29429, "ploy": 2193, "Index": 2359, "\u0096": 29636, "idents": 6640, "\u2581timeout": 11965, "\u2581practical": 11118, "colo": 17382, "\u2581ring": 6791, "\u2581excitement": 17163, "lect": 844, "ON": 832, "File": 2171, "\u2581summary": 14060, "\u2581')": 27890, "\u2581structures": 11294, "\u2581\u0440": 13318, "\u2581\u0442\u043e\u043c": 21817, "\\]": 25188, "\u2581Fellow": 23783, "plain": 19457, "\u2581signals": 15972, "\u2581mai": 8212, "\u2581rendered": 21795, "\u2581sway": 26249, "Space": 10571, "\u2581Nob": 11189, "\ub0a0": 31033, "Trans": 3131, "\u2581flags": 6809, "\u2581lowest": 15341, "Status": 3138, "\u2581cuts": 15981, "Tree": 7147, "ibles": 15300, "\u2581Fi": 24061, "\u9053": 29432, "ales": 2230, "\u2581premi\u00e8re": 14102, "\u2581certification": 24781, "uros": 22751, "\u63a7": 29712, "\u2581Success": 16557, "\u2581recognition": 13828, "\u2581peint": 27520, "...</": 23032, "\u2581awareness": 13619, "WI": 14745, "spi": 17456, "\u2581goals": 7661, "vr": 11277, "\u2581puzzle": 28071, "\u2581basis": 6451, "\u2581volunteer": 21311, "nem": 22890, "iam": 2643, "akter": 24282, "cou": 20172, "\u2581viewers": 24886, "\u4f4e": 30456, "\u2581formal": 9907, "iliation": 22758, "\u2581ghost": 12975, "ate": 380, "\u2581Happy": 19094, "\u2581despair": 25477, "\u2581loose": 12945, "\u2581consume": 23327, "Report": 10493, "\u2581calling": 6852, "uations": 22190, "Manager": 3106, "\u2581texture": 14024, "\u0435\u0440\u0435": 2850, "iel": 755, "Cent": 18503, "\u2581\u043f\u043e\u0434\u0430": 21152, "\u2581artic": 22187, "cook": 27177, "<0xF8>": 251, "vens": 14081, "\u2581Frame": 17624, "\u2581chamber": 16115, "inson": 11827, "\u2581cub": 13563, "\u6a4b": 31730, "\u2581supposed": 6495, "var": 1122, "\u2581mission": 7023, "ny": 1780, "lings": 15073, "adores": 10591, "\u2581ranks": 19334, "aby": 4541, "\u2581\u043f\u0440\u0430\u0432\u043e": 21723, "\u2581activity": 6355, "\u2581surface": 5439, "\u2581Lauren": 23119, "Matcher": 28466, "inery": 17171, "ilon": 3451, "\u2081": 31552, "\u2581\u043d\u0438": 11413, "collapse": 25936, "Tracker": 21682, "\u548c": 29131, "TA": 6106, "Algorithm": 25302, "\u2581Roosevelt": 18043, "RR": 8274, "\u00e9rica": 21698, "\u8d22": 31779, "\u2581represented": 10483, "\u09af": 30365, "oder": 5722, "\u0446\u0438\u0438": 5991, "\u2581Times": 8359, "\u2581kinds": 10698, "\u2581oder": 7765, "closure": 14774, "\u2581financing": 27438, "\u2581Driver": 24420, "\u2581cond": 2076, "by": 1403, "\u2581\u0438\u0441\u043f\u043e": 13783, "arms": 18466, "\u2581promises": 20626, "itime": 26843, "\u5b57": 29031, "\u5148": 29596, "asket": 8173, "\u2581traits": 24214, "STRUCT": 25010, "\u2581indust": 3346, "Go": 7580, "\u2581wy": 8501, "\u2581Ground": 22455, "\u042c": 30683, "\ud83c\udffe": 31541, "ionale": 12898, "jek": 24233, "\u2581How": 1602, "\u2581immer": 23030, "\u2581influenced": 19927, "Rich": 24447, "\u2581annoying": 22069, "seh": 22001, "\u2581Fore": 7257, "issa": 13723, "urent": 17178, "\u2581octubre": 25154, "\u2581Journal": 9983, "\u2581strengthen": 15974, "\u00e9c": 6915, "\u2581announce": 12411, "\u30bb": 29932, "\u2581corrupt": 24106, "Show": 8398, "\u2581cher": 18707, "\u0441\u0442\u0435": 6825, "\u2581tang": 15362, "\u2581joining": 15508, "\u73e0": 31845, "\u044e\u0449\u0435": 19374, "\u2581Mens": 20562, "\u7b2c": 29353, "\u2581correspondence": 24911, "avier": 18695, "\u524d": 29087, "atu": 22608, "\u2581lucky": 11977, "\u2581combination": 9470, "icrosoft": 5002, "\u2581closer": 7887, "mo": 5326, "\u2581len": 3919, "\u2581made": 1269, "\u2581begins": 10658, "\u4e49": 29476, "\u2581expedition": 24350, "\u0435\u0432\u0438\u0447": 24792, "\u00e9al": 28245, "\u2581strugg": 6040, "\u2581partition": 13916, "\u2581miss": 3178, "boat": 25343, "\ub824": 30710, "\u2581quale": 22553, "space": 3603, "\u2581$('#": 23927, "fall": 9197, "<0x40>": 67, "$$": 10811, "\u2581Clark": 15006, "\u043d\u044b\u043c\u0438": 13981, "ITER": 25784, "\u2581medieval": 23223, "\u2581pain": 3358, "Activ": 18127, "\u2026\u2026": 22917, "isen": 10555, "array": 2165, "riven": 21694, "\u2581Ke": 4702, "aci\u00f3": 7094, "\u2581Scotland": 14322, "size": 1428, "Contract": 16742, "\u2581pear": 26847, "\u10dc": 29701, "teen": 6498, "padding": 13712, "\u2581lazy": 17898, "\u2581diamond": 24621, "\u2581ci": 7366, "\u2581nue": 12467, "ht": 407, "'$": 15023, "rito": 15076, "Http": 5775, "\u64cd": 29371, "\u2581focusing": 18319, "\u2581gardens": 22461, "\u2581Quality": 20612, "\u2581gegen": 12039, "\u2581cursor": 14622, "\u2581quiet": 5883, "\u2581dri": 2768, "activate": 21452, "\u2581teens": 27995, "ITEM": 19977, "\u2581purple": 19435, "\u2581dropping": 19183, "\u2581ram": 15355, "\u2581Document": 14873, ":\\": 9941, "aci": 13114, "\u2581entre": 3913, "proto": 5346, "\u2581Mem": 6011, "\u2581spo": 14444, "]\\": 11695, "tem": 20515, "\u2581kissed": 18792, "gres": 20697, "!(\"": 19228, "\u2581flies": 28030, "\u2581scenes": 14380, "\u2581lower": 3889, "\u2581Rank": 15938, "Detail": 14525, "\u2581Newton": 20281, "\u2581differential": 21813, "Helpers": 15506, "itably": 25470, "\u2581bou": 16720, "\u2581)": 1143, "folg": 17090, ":\r": 8230, "stroke": 14844, "\u2581blowing": 26168, "xit": 28619, "osing": 8461, "ativa": 15618, "owa": 8253, "Comparator": 18249, "\u2581\u0424": 4111, "\u2581Lin": 6678, "\u2581earthqu": 27719, "DS": 7277, "Version": 4841, "\u62e6": 31549, "\u2581tarde": 24562, "\u2581fascinating": 23069, "Matrix": 10701, "\u2581affirm": 25758, "\u2581anyone": 3637, "cept": 1358, "appa": 7436, "attach": 16689, "\u2581El": 1744, "ords": 4318, "\u2581Steph": 27316, "irlines": 22201, "infl": 21255, "\u2581Orts": 28402, "\u2581appropri": 6582, "\u2581backup": 17503, "DR": 4232, "ocratic": 26184, "Board": 25561, "\u2581Out": 4655, "\u2581\u0442\u0435\u043c": 20245, "\u2581says": 2627, "ften": 14073, "\u2581capac": 17025, "GBT": 26647, "TYPE": 3657, "\u2581indicating": 17888, "\u041f\u043e": 19469, "isha": 22674, "ner": 1079, "hover": 20635, "rapper": 6131, "\u2581FM": 23586, "\u2581end": 948, "\u2581Object": 4625, "\u2581Rah": 20398, "arono": 20321, "\u2581Grace": 15281, "use": 1730, "Settings": 5546, "\u2581values": 3069, "(\r": 17334, "\u09b0": 29646, "mero": 18056, "\u2581Customer": 16648, "lie\u00df": 13920, "seek": 18694, "\u2581lim": 2132, "Resolve": 28487, "result": 2440, "\u2581Ca": 11013, "hire": 20685, "\u2581somet": 4378, "essment": 23386, "algorithm": 22211, "\u2217": 31088, "\u2581dic": 19184, "\u2581guest": 11683, "\u2581septembre": 18599, "cript": 2489, "\u2581Gl": 3651, "\u2581Import": 15747, "{'": 18437, "Dict": 16840, "\u2581gratitude": 26485, "ollar": 20588, "\u2581aus": 3642, "\u2581\u0443\u043f\u0440\u0430\u0432": 26263, "\uc561": 30916, "\u2581consistency": 23074, "\u2581radi": 16893, "nown": 3676, "<0x2D>": 48, "\u2581tend": 6273, "\u2581Summer": 13211, "\u2581Define": 27350, "\u00e8mes": 27973, "\u0438\u043d": 10400, "\u2581kennis": 15389, "Download": 20454, "Cost": 18032, "\u2581Group": 5926, "\u2581twelve": 13153, "glob": 23670, "Leave": 26639, "\u2581janu": 19173, "Amer": 8820, "BA": 4844, "\u2581remain": 6344, "\u2581feared": 21820, "\u2581Results": 17412, "\u2581upward": 25246, "aje": 11237, "\u0446\u0435\u0440": 26654, "\u2581manner": 8717, "'}": 14491, "\u2581Eve": 19421, "\u2581standing": 6328, "\u2581strain": 20842, "\u2581environments": 20031, "\u2581Not": 2280, "uras": 13798, "\u8350": 30944, "\u2581FILE": 21004, "project": 6231, "\u2581transactions": 15852, "\u9891": 30030, "\u2581gegr\u00fcnd": 28222, "\u2581opin": 5693, "ientos": 19883, "anner": 7041, "rous": 20162, "avelength": 26795, "\u2581recovery": 12106, "\u30ec": 29491, "\u2581tot": 2209, ":'": 14243, "}',": 23930, "\u2581trunc": 23832, "\u8bb8": 30048, "\u5931": 29268, "how": 5845, "toBe": 12521, "panel": 10726, "tern": 974, "nodes": 12333, "\u00edo": 13826, "fif": 20773, "\u2581cat": 5255, "\u66f8": 30481, "\u043b\u043b\u0435": 16832, "\u2581Francisco": 9686, "\u2581likes": 12672, "\u00e1k": 9001, "hs": 6270, "Sche": 11960, "\u675f": 29790, "content": 3789, "\":\"": 10549, "\u2581Write": 12018, "atore": 11437, "\u2581dyn": 16150, "\u2581EP": 16828, "\u2581mint": 20512, "ultane": 14133, "hon": 21133, "care": 8001, "________": 8320, "icus": 20792, "\u2581decis": 23286, "\u2581champions": 27345, "\u0433\u0440\u0430\u0444\u0456": 23006, "eks": 23810, "\u2581specialized": 23427, "\u0444": 28846, "ey": 1437, "story": 18387, "\u0441\u0441": 13847, "leans": 20803, "No": 2501, "domin": 22624, "\u2581arrived": 6792, "atrice": 23097, "\u2581\u0433\u0435": 16247, "j\u00e0": 23796, "\u2581directions": 14278, "\u2581nerves": 28686, "\u043b\u0441\u044f": 7659, "\u2581poorly": 24122, "\u2581Rud": 15010, "\u2581haul": 20743, "walt": 21459, "incipal": 15934, "\u2581Austria": 19219, "spieler": 25591, "\u266d": 30420, "\u2581tune": 21337, "\u8bad": 31154, "\u2581His": 2354, "z\u0151": 13765, "\u2581Interior": 28646, "\u2581TODO": 9420, "nat": 9569, "sec": 3249, "inge": 22503, "\u2581Near": 17602, "ango": 8458, "\u2581LIMITED": 20881, "\u0c28": 31674, "TT": 16235, "\u0441\u043b\u0443": 16467, "hend": 12669, "\u2581played": 4226, "UTF": 14106, "stone": 9966, "\u2581Kom": 9227, "\u2581molto": 25680, "\u2581Carl": 6675, "\u2581report": 2264, "\u2581controller": 11792, "\u2581Jar": 20069, "\u30a3": 29707, "\u2581Nintendo": 27784, "\u2581effectiveness": 23798, "\u2581Director": 9298, "\u65e9": 31121, "\u2581outcome": 14120, "\u2581figured": 14775, "Which": 26703, "\u2581Self": 8916, "Success": 11034, "\u2581proven": 12598, "\u2640": 30155, "\u2581Products": 21061, "\u2581\u0434\u0440\u0436\u0430": 25776, "\u2581possible": 2572, "pression": 2670, "BF": 15696, "\u2581reste": 26124, "\u03af": 29121, "Password": 9414, "ink": 655, "\u2581therapist": 26558, "\u2581already": 2141, "\u2581password": 7908, "\u2581aggress": 12788, "\u2581sulla": 20987, "\u2581feelings": 9388, "Require": 22975, "\u2581die": 1202, "\u2581pas": 3557, "\u2206": 31037, "\u2581control": 2602, "\u2581peoples": 22529, "\u0398": 30394, "\u2581Bre": 8285, "mys": 14576, "\u2581presum": 17834, "Cookie": 22519, "\u2581Spec": 5583, "\u54e1": 30925, "\u0444\u0456": 11206, "Add": 1991, "\u2581fixed": 6321, "\u2581Trump": 6932, "\u2581grip": 16593, "Turn": 23429, "Sv": 26046, "\u043a\u043e\u043d\u043e": 20911, "\u2581Fill": 25518, "\u2581reconstruction": 27419, "\u00a3": 28922, "mas": 4876, "\u751f": 29128, "\u2581centre": 8802, "\u53cb": 30060, "\u2581\u0406": 9341, "wi\u0119": 24938, "\u2581equip": 4731, "\u2581Handle": 16736, "\u2581file": 1729, "\u2581sixty": 20739, "*;": 13732, "\u2581illegal": 12701, "\u2581kg": 11455, "\u2581Beg": 25572, "pending": 12718, "\u2581Nederland": 20347, "argument": 14635, "\u2581Then": 2479, "\u2581Eug": 18234, "\u90ce": 30682, "\u2581majority": 7757, "ADD": 10868, "omp": 23947, "\u2581Football": 13474, "\u2581goog": 25671, "\u2581Men": 7670, "\u2581kle": 14602, "\u2581unders": 23759, "Ui": 24509, "xE": 9695, "gg": 1576, "\u2581\u0433\u0435\u043d\u0435": 20831, "unden": 16436, "\u2581quant": 4664, "ovo": 10356, "Conn": 14459, "\u2581\u2192": 15672, "\u2581disappeared": 14746, "ual": 840, "\u2581Rules": 24759, "roups": 3515, "vid": 14410, "\u2581CB": 25600, "\u2581know": 873, "Connection": 6406, "pyx": 9004, "character": 19933, "\u2581byla": 23070, "statement": 22910, "\u2581Marcatori": 27916, "\u3063": 29699, "encial": 27285, "\u2581DC": 12606, "\u4e00": 28969, "\u88fd": 31533, "\u2581intu": 21141, "face": 1797, "\u2581''": 9842, "\u6e56": 30480, "\u2581UP": 23128, "\u2581kept": 4558, "\u2581ob": 818, "\u2581wins": 15236, "\u2581Bahn": 25774, "\u2581\u00e9l": 10760, "\u7063": 31521, "inating": 11251, "\u2581Jay": 14407, "umeric": 23504, "\u2581Edition": 20356, "ames": 1145, "made": 15248, "\u2581occur": 5264, "\u2581circumstances": 10139, "\u00edst": 10154, "\u2581\u0411\u0435": 11543, "<|pad_0|>": 32001, "\u2581initiated": 28086, "\u0621": 30052, "frequency": 27902, "orial": 8525, "thers": 2199, "\u2581requires": 6948, "also": 18033, "\u2581scientist": 24480, "\u2581operated": 16985, "\u2581Portland": 23732, "\ud0dd": 30442, "Task": 4818, "ipped": 5885, "\u2581disabled": 11426, "before": 12098, "cong": 25923, "username": 10671, "ged": 2560, "\u2581insect": 16918, "\u2581depicted": 28264, "tta": 19016, "\u2581fighting": 8552, "\u2581loss": 4320, "\u2581aside": 10276, "\u2581Pal": 4187, "Consum": 16277, "ways": 1504, "respons": 23120, "\u2581story": 2838, "\u2581washed": 21243, "\u2581dessen": 23092, "\u2581PDF": 18520, "\u0420": 28860, "\u2581qu": 526, "[(": 15626, "\u2581jusqu": 14850, "\u2581peaceful": 21229, "\u2581PART": 11355, "fas": 17284, "\u2581Marvel": 26696, "\u5012": 31146, "blem": 11706, "\u062e": 29199, "lia": 7261, "Zoom": 24573, "\u2581heart": 3031, "\u2581abortion": 22907, "\u0e20": 31034, "sterdam": 18928, "\u2581node": 3179, "ahu": 26113, "hist": 6575, "enses": 4839, "\u2581m\u00e9": 13138, "\u2581hub": 14546, "nika": 19996, "ost": 504, "\u2581bug": 10079, "\u2581wash": 14338, "hattan": 20425, "\u2581CT": 22023, "\ub9ad": 31318, "\u2581\u0431\u0435": 8907, "eth": 761, "\u0441\u043a\u0443": 11249, "analysis": 23206, "\u2581Imp": 15182, "\u2581caring": 22153, "\u505c": 30152, "Oper": 3935, "\u2581Horn": 19514, "\u2581reporting": 14438, "\u6b65": 29783, "\u2581perception": 20968, "rest": 3290, "\u4e22": 31883, "won": 17959, "\u2581internacional": 27025, "\ud588": 30676, "\u2581Michael": 5459, "Is": 2301, "\u2581['": 5936, "\u2581fifty": 12320, "\u2581dressed": 12452, "\u2581accurately": 24329, "\u2581persistent": 24777, "r": 28712, "\u2581succeeded": 17751, "onds": 15779, "\u2581stepping": 25719, "noon": 8122, "\u2581Palace": 20637, "\u5408": 29234, "esar": 22221, "\u308d": 31149, "\u2581cha": 10355, "\u2581tom": 6679, "\u2581Cot": 25025, "RET": 12388, "\u0406": 28929, "accur": 25318, "\u2581Leip": 26417, "SSL": 14330, "\u2581Nel": 10985, "\u2581carries": 21277, "\u008f": 29658, "\u2581\u043e\u043d": 10640, ".-": 14902, "\u2581extension": 8223, "\u2581su": 519, "?!": 18023, "\u2581synchronized": 25339, "\u2581\u0427\u0438": 26603, "vement": 10894, "\u6750": 31239, "\u2581Thailand": 23561, "<<<<": 17192, "\u2581\u043c\u0456": 7864, "instr": 25725, "\u2581Herbert": 24112, "\u2581Supreme": 14887, "\u2581optical": 19028, "\u2581Game": 8279, "ERS": 10291, "\u0e4c": 29923, "\u2581Villa": 21192, "school": 19185, "\u2581sweet": 7221, "UN": 2168, "\u2581isset": 20050, "post": 3192, "\"\\": 16646, "\u2581Tem": 9166, "\u8986": 31079, "sWith": 23594, "\u2581torture": 26026, "\u2581faculty": 18938, "\u2581diff": 2800, "\u2581\u0442": 3265, "\u2581contains": 5876, "column": 5571, "Make": 13806, "\u2581worse": 6871, "\uacf5": 30010, "session": 5594, "\u2581ott": 19137, "\u2581FA": 13353, "\u0cbe": 31026, "\u2581alike": 21892, "\u2581travelling": 25007, "\u2581smooth": 7898, "must": 19959, "<0xD8>": 219, "\u2581modes": 14855, "\u2581compliance": 9044, "oti": 9469, "{\r": 4441, "\u8499": 31631, "\u2581isol": 9777, "\u2581capture": 11319, "undo": 8569, "bad": 11436, "\u03c3": 29016, "\u91cc": 29400, "alpha": 2307, "sky": 10919, "\u2581improved": 11957, "\u2581transl": 7254, "\u011bt": 16610, "\u2581shouting": 23861, "acker": 21172, "\u2581Hir": 24384, "\u2581being": 1250, "n\u00e9": 8269, "rivate": 1266, "\u2581routes": 16425, "\u73b0": 29419, "\u2581motor": 8609, "\u2581compens": 12613, "wahl": 26944, "\u2581PE": 21025, "pd": 9885, "\u2581\u0433\u043e\u0440\u043e\u0434": 22123, "\u2581cere": 23730, "cost": 14174, "\u2581indic": 4073, "RAY": 12661, "\u2581considers": 28325, "\u2581cent": 1595, "\u2581Cu": 12753, "\u2581drift": 18101, "Real": 12995, "\u2581Heat": 24191, "jas": 20490, "\u6743": 29520, "shit": 16371, "Notify": 22596, "\u2581barrier": 19644, "published": 27414, "Suite": 25138, "\u1edd": 30092, "\u300d": 29577, "):\r": 20358, "\u2581T": 320, "\u2581Test": 3735, "\u2581daily": 6790, "\u2581spat": 13166, "\u2581wasn": 2723, "agn": 3450, "\u2581skull": 21181, "\u2581Family": 10712, "\u2581hommes": 27678, "\u2581facing": 11981, "ull": 678, "'.": 4135, "<0x81>": 132, "\u2581Cam": 5487, "\u2581nominated": 27242, "\u2581December": 4925, "}^{": 3041, "\u8d1d": 31124, "\ubaa8": 29820, "\u2581missions": 23225, "\u2581especially": 4012, "\u2581uint": 3869, "DP": 10485, "\u2581Http": 11161, "\u2581leather": 13508, "\u2581ampl": 16401, "paid": 26283, "\u2581ceremon": 24840, "\u2581trail": 8005, "\u2581\u0441\u0435\u0437\u043e": 21394, "\u2581raw": 8435, "argv": 14241, "\u2581Eval": 24223, "\u2581**": 619, "Script": 6786, "ourt": 17007, "\u2581degli": 13810, "\u2581del": 882, "getProperty": 27030, "[]": 2002, "bury": 12272, "mediate": 12597, "\u2581Architect": 19608, "\u0e13": 30526, "\u2581Bund": 12583, "\u0454": 28893, "dup": 20267, "aller": 7590, "\u2581pierws": 28448, "\u2581przez": 12534, "\u2581Related": 23432, "__,": 8934, "\u2581summar": 18062, "\u2581Impro": 21831, "\u2581inevitable": 21924, "kim": 23159, "RX": 9847, "\u2581dirt": 15040, "\u2581EXPRESS": 27711, "escape": 19027, "ille": 2457, "\u2581GEN": 25778, "\u2581start": 1149, "unch": 3050, "\u2581new": 633, "vere": 10888, "\u2581Bob": 7409, "`.": 9429, "listed": 23526, "\u2581Bened": 23391, "\u2581constraint": 17656, "cookie": 19087, "orne": 13528, "\u2581Ellen": 22799, "cols": 23692, "\u043e\u0431\u0440\u0430": 17942, "\u90e8": 29237, "\u2581rock": 4463, "\u2581wants": 5659, "\u2581score": 7420, "\u8be6": 29852, "ss": 819, "\u2581Mom": 9870, "sect": 8261, "cci\u00f3n": 9699, "\u2581Second": 7052, "\u2581hi": 12014, "\u2581cb": 15623, "\u2581wishes": 18907, "\u2581Billy": 14532, "pipeline": 22365, "\u2581zomb": 28437, "\u5e8f": 29313, "Backup": 27449, "\u09c7": 29914, "().": 1546, "oring": 4590, "\u00e9k": 9640, "\u00e4ft": 21084, "\u0e2b": 29601, "ichten": 20850, "\u2581unemployment": 28634, "\u9b4f": 31766, "\u2581membership": 14796, "agers": 9535, "\u2581Scient": 20645, "\u2581shiver": 25564, "ful": 1007, "\u2581Mobile": 16430, "arl": 1977, "\u2581heard": 3364, "\u2581\u043d\u0430\u043b\u0430\u0437\u0438": 27108, "\u2581\u043a\u0430": 2790, "nv": 16885, "\u2581\u0448\u0442\u0430": 21584, "\u010c": 28965, "aper": 2610, "\u2581ice": 7515, "\u2581focuses": 21165, "emente": 16475, "\u2581batter": 7994, "\u2581deliver": 5663, "OPEN": 20778, "\u2581\u0432\u043e\u043b\u043e": 28229, "\u2581ensuring": 20083, "stream": 3888, "eah": 4629, "\u2581sticks": 25762, "\u2581ent": 936, "\u2581ba": 15771, "sleep": 16650, "\u2581phys": 3256, "\u1ecb": 29765, "langle": 8214, "\u2581proportion": 19938, "\u2581\u0441\u0435\u043c": 28533, "ratio": 22287, "add": 988, "\u2581Arena": 19433, "LECT": 8785, "\u2581Portugal": 16160, "\uc911": 30027, "\u2b50": 30130, "uzz": 9046, "lyn": 12998, "\u2581vale": 28210, "}^{\\": 6928, "\u2581Lock": 17582, "\u2581pse": 14808, "\u592b": 30936, "\u2581baseline": 26605, "\u2581Cost": 9319, "\u2581Anna": 11106, "\u2581burning": 13136, "\u2581Gordon": 15937, "training": 25714, "\u2581cannab": 25761, "\u2581Manufact": 19663, "aire": 5731, "LOC": 9668, "\u2581mor": 2544, "\u0c82": 31966, "\u2581capital": 5565, "\u2581EV": 10752, "\u2581scientists": 15067, "\u2581fem": 4141, "\u2581them": 706, "div": 1538, "className": 17220, "niej": 20386, "\u2581WP": 26764, "\uac15": 30967, "\u2581hes": 10816, "\u2581Mu": 10495, "\u2581dest": 2620, "$_{": 28037, "\u2581drei": 15898, "\u2581do": 511, "\u2581Sid": 20315, "\u2581\u00e1": 8533, "\u2581Sil": 6044, "\u2581Ram": 8839, "dummy": 24757, "Framework": 15456, "terra": 26138, "\u2581sink": 12967, "Repository": 8813, "Structure": 20897, "spector": 21087, "bank": 13719, "yp": 1416, "=[": 12303, "\u2581contracts": 19178, "\u2581scandal": 28569, "\u2581Luft": 26821, "\u2581alone": 4411, "\u2581couldn": 3481, "ningen": 18870, "\u2581Histor": 10236, "tool": 6462, "\u00e9ny": 19600, "\u2581\u0430\u043d\u0433": 21639, "\u2581es": 1037, "\u2581Jac": 7129, "]));": 20568, "\u2581towns": 17579, "\u2501": 29239, "\u2581De": 1343, "CONFIG": 9835, "via": 15828, "anked": 27527, "\u2581police": 4758, "\u2581Buch": 17680, "\u2581click": 6046, "\u25c4": 29643, "db": 2684, "owners": 24689, "\u2581strategic": 16055, "\u2581Observable": 27572, "\u2581streak": 23210, "\u1e63": 29606, "\ufe0f": 29096, "\u2581Curt": 22050, "\u2581den": 1457, "\u2581covering": 13974, "\u2581Ivan": 18559, "uh": 8884, "\u2581Word": 10918, "\u2581decre": 8512, "\u2581then": 868, "\u2581mehr": 11152, "\u2581Denver": 24060, "intent": 28559, "reen": 1915, "\u2581\u0448\u043a\u043e": 19671, "println": 7561, "\u062f": 28968, "Layout": 4359, "\u5b50": 29169, "ologist": 12418, "Clean": 22139, "\u2581rod": 16439, "\u2581performances": 17487, "ooth": 6771, "FIELD": 13452, "\u2581lookup": 21275, "\u2581lux": 11967, "\u53ca": 29965, "\u0441\u0442\u0435\u0440": 16487, "\u2581getting": 2719, "ctic": 11798, "Scroll": 9889, "compute": 16753, "\u884c": 29037, "\u82e5": 30233, "GLOBAL": 21742, "\u2581blob": 25828, "v\u00e9": 15221, "Cal": 7618, "assen": 16044, "ungs": 6571, "ength": 1340, "\u2581developer": 21782, "oper": 3015, "isecond": 20086, "making": 14727, "chod": 22219, "\u043a\u0430\u043c\u0438": 21237, "\u2581responsible": 7332, "itch": 1986, "\u2581SM": 14212, "\u2581Character": 23471, "\u2581\u043c\u0435\u0434\u0430": 28165, "\u2581cpu": 12021, "\u2581Hunter": 18476, "\u2581giv": 1498, "\u2581esper": 22498, "\u2581objective": 13640, "dispatch": 16202, "\u00f3g": 14376, "\u2581denote": 14543, "\u2581Neither": 19100, "\u2581way": 1069, "\u06af": 29461, "\u0432\u0435\u0441\u0442": 15339, "iembre": 15522, "\u2581series": 3518, "fr": 898, "\u2581encode": 20887, "eq": 1673, "\u2581x": 1318, "\u2581divor": 12800, "\u0433\u043b\u0430": 12929, "unci": 14281, "Millis": 26106, "\u2581\u017ee": 23374, "\u2581referring": 18723, "\u2581Def": 4367, "jen": 6956, "\u2581crowd": 8954, "\uc704": 29744, "igs": 11878, "\u2581becoming": 7888, "Plus": 22886, "cers": 15148, "\u2581Examples": 26268, "\u0440\u0435\u0437": 15369, "\u6e21": 31512, "\u9996": 29993, "r\u00e5": 16348, "igt": 8335, "\u2581\u043d\u0435\u0433\u043e": 22510, "\u2581woods": 16748, "utton": 26028, "\u2581Wahl": 26421, "\u96c6": 29451, "\u2581folder": 14249, "\u2581revolution": 11029, "\u2581either": 2477, "\u2581color": 3181, "alias": 16469, "\u2581Dead": 14292, "rogen": 25502, "series": 17384, "PP": 8415, "\u2581bij": 10826, "\u2581businesses": 8689, "\u2581relay": 24517, "\u2581r": 408, "\u2581glob": 15737, "\ub123": 31550, "exception": 7703, "\u2581Community": 11027, "Warnings": 24708, "\u2581stud": 1362, "Operation": 6972, "\u2581Listen": 26756, "\u2581withdraw": 14393, "allow": 5618, "\uc6b4": 30553, "\u2581road": 3878, "\u2581\u041f\u0443": 25636, "\u2581Individ": 19992, "\u2581EVENT": 18693, "nail": 21418, "heads": 25372, "\u2581NBC": 28316, "\u0103r": 24703, "\u2581\u0435\u0433\u043e": 9333, "ugs": 19882, "ange": 909, "\u2581rep": 1558, "ailed": 2384, "\u2581avoir": 18837, "\u2581vez": 10053, "id": 313, "unicip": 6724, "\u2581porch": 22252, "ovi": 17694, "CHANNEL": 23299, "\\}$": 17006, "\u2581febbraio": 26833, "\u2581Asia": 11065, "\u8aaa": 31566, "\u2581off": 805, "5": 28782, "shape": 7015, "\u2581\u00e1lbum": 21231, "\u2581PRO": 7497, "\u2581Thanks": 8868, "Doc": 9441, "X": 28814, "\u2581measurement": 15921, "dao": 28218, "\u2581growing": 6485, "\u2581Nation": 14317, "\u30ef": 30455, "\u2581ARM": 23544, "Name": 952, "\u2581Control": 10336, "iago": 21555, "rial": 6144, "MR": 16226, "\u2581propaganda": 24010, "Colors": 25651, "\u2581Leon": 11615, "oci": 2139, "\u2581McK": 18346, "Star": 14765, "HOME": 28547, "Special": 20763, "Points": 15628, "\u2581pandemic": 15749, "\u043d\u0435\u043d\u0438\u0435": 23480, "\u0d3e": 31784, "\u2581Ign": 15923, "activity": 15996, "beat": 16890, "\u0446\u0435\u0432": 21766, "kir": 20741, "\u2581visit": 3251, "mand": 20478, "utch": 9244, "\u2581Diam": 19235, "\u2581Wo": 20093, "INSERT": 26587, "\u2581competition": 8995, "\u263a": 30601, "\u2581grid": 10541, "\u552f": 30443, "\u2581speeds": 27480, "respon": 3664, "each": 8365, "\u2581recording": 12740, "\u2581H\u00f6": 18137, "\u2581Arbe": 24355, "hex": 17524, "\u2581Greece": 20438, "iving": 2449, "<0xCC>": 207, "aling": 4726, "isl": 8069, "\u2581Company": 6452, "\u043e\u0433\u0440\u0430\u0444\u0438\u044f": 18168, "\u2581Cop": 9321, "\u2581booking": 23492, "join": 5906, "\u2581Fen": 24950, "JSON": 8438, "Workspace": 27474, "\u2581\u0442\u0440\u0438": 15397, "\u30ab": 29645, "\u2581decline": 17468, "\u2581wheels": 19876, "ENUM": 26697, "\u2581back": 852, "\u2581aller": 23803, "\u2581furono": 27403, "\u2581understood": 8988, "\u2581Travel": 17823, "Occ": 22451, "pleted": 14258, "DEC": 23763, "\u2581thrown": 12046, "\u2581\u0444\u0435\u0432": 21851, "\u2581genius": 22027, "\u2581survive": 13145, "\u0142a": 6905, "\\}": 18800, "<0x92>": 149, "\u2581seu": 7987, "URI": 12464, "Pt": 26326, "Connector": 27563, "\u2581performance": 4397, "imation": 8258, "\u2581infinite": 16538, "\u2581stark": 20753, "assador": 19536, "\u2581sec": 5267, "amen": 9519, "amento": 6566, "anson": 21140, "iour": 27290, "oria": 4684, "\u2581statue": 22594, "exec": 12479, "','": 6078, "\u2581pa\u00eds": 18976, "\u2581sore": 23176, "\u662d": 31844, "\u2581soil": 14315, "\u2581partie": 13861, "\u5ea6": 29184, "citep": 10371, "bundle": 25023, "\u0624": 31456, "\u2581Soviet": 9971, "\u2581grim": 17837, "\u2581\u0419": 20100, "It": 1313, "OK": 4903, "eni": 17914, "redirect": 19123, "\u2581Sugar": 27333, "\u043b\u044c": 1049, "uk": 2950, "\u0650": 29421, "mat": 3076, "\u043e\u043b\u043e": 7208, "rm": 1737, "\u2581sch": 1543, "\u2581province": 14707, "\u0f42": 31035, "\u2581cont": 679, "\u2581breast": 13886, "ript": 6473, "\u0643": 29171, "\u2581heat": 6601, "<0x42>": 69, "\u2581comprehensive": 15313, "\u2581dos": 4882, "\u2581concentrated": 25088, "\u2581float": 4932, "\u2581Ernest": 27915, "\u2581);": 1936, "\u2581going": 1404, "\u0442\u0443\u0440": 9939, "Mask": 10982, "\u2581actors": 16760, "\u2581sche": 4803, "\u2581Ref": 6360, "\ubc31": 31250, "ronic": 7624, "\u2581hearing": 9788, "ommen": 18902, "\u2581frowned": 21442, "yers": 15624, "itude": 4484, "NY": 24743, "\u3001": 29041, "checkbox": 22173, "abort": 28209, "\u2581Russia": 8433, "\\,": 5568, "\u2581experts": 11725, "ussen": 18682, "shine": 22121, "\u2581%,": 28590, "\u2581Trib": 18911, "\u2804": 30897, "\u2581*)": 4491, "\u2581Tuesday": 11187, "\u2581\u0434\u0432\u0430": 17489, "\u2581Herr": 17127, "orn": 1334, "\u2581algebra": 13397, "setminus": 19847, "\u2581Mad": 5311, "\u3054": 31193, "\u2581accident": 8318, "Mapping": 10643, "\u2581container": 7640, "\u2581equival": 7907, "=\"<?": 16294, "\u2581gut": 16492, "ical": 745, "Ut": 20448, "havior": 13625, "\u2581tube": 17735, "pmatrix": 22469, "\u2581menu": 8514, "\uff01": 29267, "\u5bf6": 31683, "\u2581Indonesia": 24450, "\u2581pepper": 19082, "xa": 8705, "\u2581celebrate": 16895, "\u2581l\u00ed": 16101, "\u2581mo": 3418, "\u2581marry": 16586, "\u2581pretty": 3468, "ln": 4778, "ile": 546, "\u2581panels": 18771, "\u2581newspaper": 12442, "i\u00e7\u00e3o": 18992, "Verify": 20847, "\u2581capability": 21368, "\u2581amaz": 5818, "\u2581Apply": 23160, "\u2581\u017c": 24579, "Scalar": 18420, "tenance": 9944, "\uba85": 29955, "stud": 13082, "avis": 19677, "elij": 6796, "\u2581bad": 2607, "\u2581enero": 26291, "\u60e0": 30919, "ENTRY": 19839, "\u21a9": 30954, "\u2581patterns": 11533, "\u674e": 30548, "\u2581projected": 25638, "lic": 577, "\u2581Dav": 3476, "rait": 10613, "ihood": 17531, "\u723e": 31827, "\u2581relaxing": 28411, "\u2581constructed": 13379, "ver": 343, "\u2581ridiculous": 16706, "\u2581Rein": 24541, "\u2581First": 4205, "]),": 11501, "\u2581\u0410": 2182, "''": 5437, "\u2581Our": 3489, "\u201c.": 14771, "+(": 24993, "\u2581stating": 23630, "\u2581DA": 13060, "\u2581farm": 6354, "n\u011b": 9176, "\u2581le": 462, "\u2581opposite": 9089, "\u2581dust": 9188, "\u2581mole": 12160, "quant": 13896, "teil": 14084, "Best": 19112, ")>": 27364, "\u0e02": 29871, "\u2581landing": 14378, "\u043a\u043e\u043b\u0430": 14222, "\u2581disse": 23437, "\u2581silently": 24435, "\u2581Aut": 3745, "\u2581Nah": 28603, "enge": 5451, "\u2581applicable": 8807, "\u2581perspective": 10403, ",*": 17205, "scriptstyle": 26715, "\u2581doubt": 6217, "\u2581Tur": 6372, "\u2581sunlight": 22950, "angled": 21086, "\u2581Glass": 23026, "\u00e9t\u00e9": 12329, "\u2581Russians": 27232, "\u2581mong": 28011, "\u2581tasks": 9796, "Round": 22483, "\u2581dialect": 26228, "\u021a": 29749, "resa": 17677, "\u2581judg": 11866, "\u2581gain": 8356, "\u2581ble": 8012, "\u2581Learning": 17504, "\u2581Bad": 9734, "vet": 10056, "\u2581stra": 4512, "photo": 25903, "\u2581f\u00f6rst": 23722, "\u2581//!": 19497, "\u2581romance": 21695, "\u0dca": 31004, "Folder": 14550, "\u2550\u2550": 27743, "\u2581beginnetje": 15739, "ascular": 28140, "\u2581\":": 20299, "\u670d": 29430, "\u2581depart": 5280, "\u2581Filip": 19991, "\u2581Gren": 18347, "\u2581relig": 4422, "bind": 5893, "\u2581fought": 12589, "iii": 19747, "iores": 22530, "\u2581scheduled": 13873, "\u2581dwell": 28034, "\u2581End": 5764, "\u2581\u0434\u0440": 19448, "\u2581court": 5484, "\u043a\u0440\u0435": 15113, "\u2581jail": 16215, "\u2581separated": 14700, "\u2581Wood": 8010, "\u17d2": 29732, "\u2581\u0422\u0430": 8788, "\u2581matched": 16933, "nder": 2520, "igg": 24706, "rian": 6260, "urop": 6917, "\u2581Universit\u00e4t": 24290, "max": 2416, "us": 381, "V": 28790, "\u2581indicated": 14075, "arth": 3616, "\u2581infection": 18197, "\u2581\u043a\u044a": 21340, "I": 28737, "\u2581wat": 4940, "esch": 5289, "\u2581Cat": 10758, "ado": 1452, "recht": 26429, "owed": 10552, "n\u00e1": 20946, "\u2581pun": 5704, "\u2581kom": 5626, "\u2581agencies": 15467, "UInt": 20103, "serde": 19554, "fed": 27880, "\u2581um": 3205, "\u00b9": 30047, "\u2581integer": 11584, "tenant": 27423, "\u2581cattle": 23137, "qquad": 12088, "\u2581ye": 14764, "irtschaft": 17020, "Clone": 18991, "\u2581Teil": 13422, "AF": 8116, "\u00cf": 31210, "\u2581restaurant": 9926, "inand": 24858, "\u2581ASSERT": 9196, "ExecutionContext": 20808, "Registration": 25569, "vee": 27579, "\u2581hum": 1997, "**,": 4789, "har": 10327, "rooms": 14520, "Im": 2012, "\u2581category": 8011, "etheless": 19159, "\u2581realized": 7185, "uss": 1349, "ustr": 4937, "\u7259": 31300, "']))": 16433, "\u2581caused": 7334, "remark": 22569, "\u2581Chain": 28454, "\u2581introdu": 4180, "\u2581Sophie": 22223, "Compar": 11481, "\u2581Address": 13046, "\u2581sauce": 16042, "\u2581Beck": 16596, "\u2581bodies": 9401, "White": 18729, "\u2581privile": 13182, "kte": 17028, ".~(\\": 21622, "\u2581remains": 7520, "\ubcc0": 29901, "NET": 11698, "rika": 19462, "\u00edcula": 19858, "\u2581\u0441\u0435\u043d\u0442": 22283, "\u8868": 29024, "\u2581mouse": 12733, "\u043f\u0443\u0431\u043b\u0438": 17188, "+-": 22805, "\u2581reported": 5745, "\u2581commands": 15380, "zone": 7795, "\uc6b0": 29687, "elfare": 18029, "\u2581tax": 3947, "\u2581mixing": 18942, "\u091a": 30671, "\u5356": 31337, "EC": 8619, "aid": 3439, "gal": 7846, "\u2581diver": 19002, "\u2581cual": 13023, "\u2581'''": 23713, "$": 28776, "\u2581Franklin": 15181, "\u2581asym": 15659, "\u2581example": 2757, "overline": 7595, "\u0437\u0435\u0440": 20450, "\u5757": 29739, "ch\u00e9": 17825, "rb": 9312, "\u5fae": 30091, "\u2581look": 913, "\u4e89": 31727, "\u2581Because": 5518, "\u2581champion": 12264, "Constructor": 15940, "Th": 1227, "chr": 18853, "mong": 27443, "\u2581blacks": 28101, "\u2581htt": 2336, "\u2581tra": 5455, ",-": 7667, "\u2581s\u00e9rie": 16834, "\u043b\u0435\u043a\u0442": 18981, "\u2581triumph": 20306, "\u2581alliance": 26162, "iane": 18861, "\u2581fuel": 10624, "\u2581vot": 10454, "SN": 15024, "Public": 14140, "some": 11183, "\u2581Things": 15573, "\u2581Su": 2674, "signal": 16530, "\u2581exclus": 16574, "\u2581alternatives": 24524, "Saint": 26273, "\u2581Area": 14488, "\u0448\u043b\u0438": 28480, "\u2581essentially": 13315, "\u2705": 30129, "authorized": 26646, "ion": 296, "\u2581Parliament": 15490, "\u2581Bra": 11830, "\u2581jedoch": 16154, "MSM": 21430, "inc": 1814, "\u89e6": 29937, "\u2581SSL": 20669, "ORY": 10602, "\u2581Maybe": 5833, "getOperand": 27862, "\u0005": 30550, "TEST": 9552, "\u2581Chelsea": 27106, "\u5f1f": 31478, "order": 2274, "rat": 5308, "\u2581Job": 14633, "\u2581weren": 8658, "\u2581Episode": 24772, "STEM": 22526, "deprecated": 27083, "\u2581optional": 11284, "\u2581IM": 17593, "\u80a1": 30889, "\u2581Short": 11530, "\u2581Fo": 27020, "itle": 1887, "\u2581heeft": 21006, "ous": 607, "\u2581HT": 7260, "\u2581politician": 17587, "Image": 4176, "\u2581tu": 8582, "\u2581critique": 27306, "\u2299": 30669, "\u2581Ted": 15268, "\u001d": 31236, "<0xA8>": 171, "\u00e1s": 2507, "\u00dc": 28961, "verso": 27484, "\ud305": 31589, "Margin": 21938, "\u2581Authority": 20653, "Reb": 26934, "\u2581dual": 13350, "FAIL": 12546, "\u043e\u043b\u043e\u0433\u0438": 27100, "ade": 770, "\u0442\u0430\u043d": 12680, "\u2581threatened": 17351, "\u2581Len": 16216, "\u96f7": 31047, "Missing": 22647, "icates": 23860, "degree": 27027, "\u2581whisk": 26898, "shared": 9622, "conscious": 13787, "structor": 8621, "SPACE": 18893, "\u2581ligger": 18230, "\u2581convin": 13058, "\u0baa": 30074, "\u2581esta": 12404, "\u2581patent": 23445, "IN": 775, "\u2581heal": 21385, "\u2581Championships": 19763, "\u2581Wing": 26523, "medi": 3277, "ieren": 11958, "pot": 14676, "production": 24900, "\u2581SK": 16915, "\u2581TE": 21031, "rub": 22213, "idget": 3812, "package": 7573, "\u2581Louis": 6698, "\u2581andra": 26622, "encoded": 27208, "autres": 21240, "\u2581Online": 10634, "\u2581\u0444": 2638, "Dark": 25732, "\u05de": 29112, "\u2581build": 1813, "\u2581sudden": 5302, "\u2581mistake": 11990, "map": 2022, "\u2581blink": 16759, "\u2581ende": 22834, "\u2581Diff": 28450, "qual": 14033, "\u2581congress": 22692, "\u2581acres": 20647, "\u2581\u00b0": 8793, "\u2581sandwich": 28267, "\u2581//\r": 26083, "\u2581Desc": 18869, "\u95f2": 31929, "ording": 3059, "\u06c6": 31252, "\u2581territor": 12550, "<0x00>": 3, "\u2581versus": 17063, "\u2581two": 989, "\u2581infant": 23116, "\u2581destro": 22089, "\u2581\u043f\u0440\u043e\u0435": 23249, "\u2581lungs": 25195, "\u2581hol": 5636, "\u2581charg": 5441, "skim": 21444, "/,": 25574, "\u2581honest": 6858, "je": 2099, "ichte": 9382, "\u2581farther": 20936, "\u00e1d": 11751, "commerce": 24008, "\u30e4": 31234, "referto": 28557, "\u2581Cor": 3198, "compass": 24975, "dr": 2922, "\uc774": 29015, "\u0ba9": 30804, "hof": 14193, "\u2581hybrid": 22091, "download": 17359, "\u7de8": 30689, "ting": 1157, "\u2581accus": 21786, "opol": 13376, "Open": 6493, "\u2581minut": 28270, "\u2581~=": 28515, "\u2581CD": 8204, "onel": 12006, "\u2581shopping": 11157, "\u2581dot": 12253, "ITE": 6142, "\u00e1nd": 12849, "\u2581rush": 16002, "assertEqual": 11073, "\u2581creating": 6818, "\u2581pale": 12805, "\u2581licensed": 17045, "akespeare": 17864, "atel": 19256, "\u2581Lab": 10076, "\u2581MIN": 21049, "\u2581\u0411\u0435\u0440": 23161, "IM": 4019, "Rem": 5139, "\u2581logged": 27036, "\u5de5": 29487, "\u2581\u041c\u0435": 8749, "\u2581killing": 10935, "\u2581analyst": 22275, "\u2581mark": 1716, "\u2581gep": 14152, "\u2581\u0441\u0440\u0435\u0434": 18203, "Bin": 19478, "\u2581mattress": 20186, "\u2581stere": 19541, "\u2581\u0427\u0435": 23543, "uel": 3009, "\u2581Broadway": 24331, "\u10d3": 29878, "\u2581ALL": 17565, "\u2581policies": 10086, "owy": 13344, "inated": 5499, "\u2581disorder": 17404, "nym": 15416, "\u2581befind": 19856, "\u2581drm": 23200, "days": 13298, "Auto": 10014, "Ste": 6732, "omot": 19614, "SP": 3701, "\u2581System": 2135, "\u2581Lu": 4960, "\u2581When": 1684, "\u2581Atlantic": 16343, "\u2581Ost": 18220, "sort": 7653, "\u00c1": 28939, "\u0e33": 30032, "\u2581married": 6368, "remove": 4653, "\u2581mob": 10886, "\u2581Story": 13689, "\u2581concentration": 15987, "\u0cc1": 31143, "\ub79c": 31256, "olic": 7437, "diction": 24737, "Modules": 28377, "\u2581dep": 5179, "eding": 13917, "\u2581Fisher": 22174, "\u04c0": 31731, "\u2581tribe": 25315, "\u2581practically": 20119, "eds": 5947, "\u2581Vi": 11004, "\u2581design": 2621, "vp": 15968, ">\",": 20018, "ahoma": 19972, "okrat": 27765, "\u2581clean": 3587, "onto": 10533, "ClickListener": 24623, "Non": 7525, "\u2581Tall": 24901, "ules": 2464, "\u2581Pittsburgh": 25536, "\u0082": 30015, "edit": 7128, "\u2581Tw": 5852, "\u2581distinctive": 26194, "\u2581ed": 1382, "START": 12241, "\u2581hang": 9644, "\u2581breeze": 24284, "\ud65c": 31273, "\u2581Nar": 16392, "\u2581Jan": 2997, "\u2581cancel": 11351, "\u2581conducted": 12816, "\u2581thus": 5884, "\u2581subst": 11381, "wig": 14759, "\u2581tens": 19391, "\u987a": 30626, "\u2581Karl": 10648, "rule": 7937, "<0x2B>": 46, "\u2581Hub": 15969, "\u2581Progress": 19310, "\u2581protein": 14311, "cases": 14418, "RT": 7042, "los": 17314, "\u2581Germans": 18121, "ylon": 22956, "none": 8607, "%%%%": 11032, "/:": 26387, "\u0438\u043b": 24962, "\u2581opens": 15706, "\u7528": 28963, "\u30e1": 29668, "\u5219": 29310, "unused": 20961, "\u2581rigid": 25323, "HI": 19394, "heimer": 24556, "\u2581analytics": 28669, "<<": 5275, "xt": 510, "omas": 23856, "xx": 5735, "\u2581override": 8013, "acional": 7055, "ighth": 16190, "chain": 9132, "merge": 13180, "\u85cf": 29895, "ICENSE": 7941, "\u2581tous": 16065, "\u2581Statistics": 28091, "ston": 6549, "\u2581g\u00e9": 19134, "\u8bcd": 30352, "cc": 588, "\u2581Netflix": 25606, "\u8a3c": 31592, "Bool": 15571, "\u03b5": 28981, "subscribe": 19128, "unte": 8719, "<0x15>": 24, "American": 12188, "\u2581golf": 15485, "\u2581garden": 8759, "\u5b58": 29079, "\u1f30": 31144, "\u2581Andy": 16514, "\u2581popula": 20745, "gent": 6188, "\u2581functional": 14573, "\u2581nach": 4856, "\u043b\u0438": 922, "green": 13234, "NM": 25860, "oss": 2158, "\u2581Se": 1091, "\u2581Gas": 17439, "\u2581wanna": 24057, "ieck": 27578, "\u2581\u0425\u0430": 15741, "\u121d": 31798, "\u2581weitere": 24908, "ficie": 26817, "\u001f": 31217, "\u2581performed": 7885, "ancel": 8046, "\u2581bewerken": 15695, "\u2581increase": 5247, "\u043b\u0443": 2932, "\u6807": 29144, "\u2581deg": 3705, "\u2581wood": 4768, "innings": 21543, "built": 12747, "\u2581defensive": 18306, "\u2581African": 8623, "<0xFB>": 254, "\u02bb": 29595, "\u0445\u0430": 5327, "Basic": 15580, "Ps": 27246, "\u2581ins": 1488, "\u0441\u0456": 7758, "\u2581speaker": 17153, "();": 692, "zn": 7745, "\u2581programme": 14441, "\u2581talking": 4434, "rad": 4306, "\u2581reb": 14547, "\u2581hel": 1172, "uerto": 15964, "\u2581gennaio": 25540, "\u2581Fourth": 28185, "objects": 13721, "Appe": 16929, "tp": 8024, "\u2581Mitchell": 21072, "\u05e2": 29295, "\u2581Iran": 10942, "\u6bc1": 31699, "\u2581Rem": 4561, "\u2581green": 5344, "__": 860, "Be": 3574, "\u0435\u0440": 1226, "Target": 5332, "\u2581'_": 17671, "\u2581hav": 9993, "onen": 25893, "\u2581snake": 24342, "\u2581Vere": 15088, "\u2581q": 4256, "\u00f8r": 14750, "EA": 18772, "angles": 21744, "\u2581\u0433\u043e\u0440\u043e\u0434\u0430": 22316, "\u2581a": 264, "entric": 27053, "<0xEB>": 238, "center": 5316, "\u2581***": 17976, "\u2752": 31841, "ously": 5019, "\u5dde": 29719, "\u2581<": 523, "aut": 1228, "\u2581seal": 22700, "origine": 26003, "\u2581urb": 26243, "\u59d4": 31397, "\u043e\u0433\u0440\u0430\u0444\u0438": 14784, "\u2261": 30940, "ang": 602, "\u2581nella": 8360, "ele": 1643, "\u2581downtown": 18530, "\u2581distinction": 20677, "\u2581nice": 5171, "\u2581popul": 21751, "\u0448\u043a\u0430": 19544, "\u0630": 29609, "\u00b2": 28941, "Call": 3001, "\u2581seeking": 11246, "oad": 2091, "lined": 14445, "orer": 14465, "\u2581Safety": 19412, "current": 3022, "ivid": 2397, "\u2581professionals": 12749, "\u2581Salvador": 27785, "\uc21c": 30891, "Sh": 1981, "ulate": 6212, ";}": 26070, "\u2581count": 2113, "annotations": 20378, "\u7f51": 29533, "ensure": 7828, "\u0446\u044e": 23997, "\u2581marine": 22983, "uration": 2394, "\u2581sys": 11677, "\u6a19": 30530, "\u2581Mann": 12187, "\u2581compte": 24380, "\uff0e": 31181, "\u2581Sounds": 27067, "\u2581limitations": 9658, "ading": 7836, "HE": 1821, "})\\": 11972, "\u2581\u043a\u0430\u043a": 8600, "commun": 15976, "RESULT": 15132, "\u2581queue": 10159, "instance": 5241, "DESC": 14085, "\u2581ig": 12632, "\u2581PAR": 19055, "ena": 3594, "reated": 10322, "\u2581single": 2692, "auer": 10988, "\u6d3b": 29785, "\u5099": 31410, "state": 2027, "\u2581mis": 4052, "\u10de": 31053, "tol": 20181, "<0xCE>": 209, "ibe": 17193, "\u2581nutrition": 25986, "\u099a": 31531, "]],": 11789, "\u2581doctrine": 26846, "\u00edt": 4071, "\u2581arbitr": 12481, "\u2581Indians": 18161, "\u2581plays": 8928, "AMETER": 23281, "umbled": 12802, "zip": 13249, "\u00eas": 17194, "\u2581Neb": 21365, "\u2581device": 3895, "ici\u00f3": 23840, "Alt": 19980, "\u2581sixth": 20865, "abc": 16612, "Phi": 8106, "\u2581Hum": 17442, "\u0325": 30808, "Dat": 6121, "\u2581iron": 8075, "\u2581\u043c\u0430\u0442": 18850, "\u2581thoroughly": 19877, "\u2581\u0430\u0432\u0442\u043e": 14460, "imary": 7754, "\u2581Susan": 17569, "\u2581sorry": 7371, "tid": 18294, "\u2581floating": 15689, "\u2581evalu": 6548, ")',": 20735, "ided": 1932, "\u2581closure": 22746, "Left": 7549, "\u2581Attribute": 24216, "gp": 8399, "iments": 8447, "\u2581\u0432\u0443": 27983, "ql": 2981, "Diagnostics": 18174, "\u2581chapters": 25310, "\u2581cultures": 19826, "\u2581compre": 10715, "Ob": 1445, "irth": 4633, "\u2581(%": 14959, "resc": 25684, "ican": 1772, "\u2581\u0441\u0442\u0430\u0440": 22235, "##": 1064, "\u2581neutr": 25296, "\u2581trusted": 16437, "\u2581oppon": 13328, "eqnarray": 5743, "bor": 3622, "\u0433\u0443": 5378, "\u2581fruits": 21566, "\u2581Jesse": 26689, "\u2581Null": 21238, "\u2581dag": 20144, ".}": 8089, "\u2581AT": 9274, "\u2581Stop": 13560, "\u2581absor": 10612, "\u2581Dance": 21015, "\u2581picked": 7715, "ellschaft": 20250, "gender": 24024, "\u2581significance": 18309, "\u2581tier": 24488, "\u2581cal": 2300, "\u2581programming": 16292, "\u2581inherited": 22993, "\u2581autumn": 24818, "\u2581podcast": 21736, "Quick": 24463, "\u2581flow": 4699, "\u2581outfit": 24842, "ViewById": 21374, "\u2581cidade": 26560, "\u2581amid": 22574, "\u2581punch": 19018, "\u2581retreat": 18030, "Long": 7468, "\u2581Crow": 19543, "\u2581resc": 11532, "\u2581produced": 6763, "Description": 7301, "\u2581Wales": 14831, "bolds": 8004, "onymous": 12928, "\u2581Bang": 13261, "gorithm": 6433, "tu": 17512, "ialis": 28676, "Player": 7699, "\u2581Bir": 21562, "\u2581Dru": 17799, "\u2581Leonard": 25298, "\u5922": 31494, "springframework": 9484, "\u2581Abraham": 22384, "\u2581watches": 26066, "\u2581bills": 16843, "Journal": 24293, "\u0119\u017c": 28453, "\u09c0": 31406, "\u2581officer": 8119, "\u2581Raj": 16818, "GE": 4896, "apon": 13181, ".*;": 17362, "\u6258": 30955, "<0xDD>": 224, "suite": 15677, "'):": 18591, "\u5ffd": 31312, "\u2581Copyright": 5259, "\u2581weather": 8086, "\u2581dismissed": 23231, "\u914d": 29253, "\u17a2": 31379, "ems": 7940, "\u2581aspects": 10936, "\u2581hooks": 26901, "\u2581fit": 4646, "\u6389": 30527, "\u2581punct": 22195, "ierte": 8912, "\u2581relev": 26340, "\u2581James": 4797, "\u045a\u0438": 24860, "Kernel": 24988, "\u2581hans": 24401, "ious": 925, "\u2581loud": 9614, "\u0446\u044c": 10105, "\u2581leap": 26745, "\u2581factors": 8612, "lord": 22112, "\u0449\u0443": 23904, "\u2581corners": 19897, "\u5e03": 29802, "\u2581spite": 18879, "\u2581Crime": 25126, ">;": 10225, "HOW": 24001, "\u01a1": 29734, "\u2581inte": 3113, "\u017cy": 11604, "\u4ecd": 31971, "\u2581Tim": 7240, "rim": 6413, "icing": 9065, "strip": 18184, "\u2581sib": 18866, "FREE": 28137, "\u304c": 29309, "\u2581brave": 22257, "'>": 13874, "\ub4e0": 30615, "Quant": 19701, "\u9a8c": 29502, "wards": 2686, "\u2581(_": 9453, "company": 17998, "\u2581noviembre": 26634, "\u7bc4": 31974, "\u044e\u0449\u0438\u0445": 27120, "Imp": 19484, "\u2581Tamb": 17432, "ittel": 14538, "ources": 2685, "\u2581Ham": 5058, "ateur": 10229, "\u2581bzw": 26520, "\u2581Describe": 27984, "\u2581Abstract": 14372, "ilation": 11213, "opts": 11320, "\u2581pit": 11265, "nas": 16405, "\u2581damit": 23929, "\u2581els": 7698, "effective": 23562, "\u2581wie": 7220, "\u2581s\u00e9": 7553, "\u2581complained": 25057, "\u258c": 30073, "\u2581suit": 8040, "ografia": 13437, "aju": 24072, "stdout": 25080, "CK": 2889, "clusion": 16713, "\u2581Bey": 16015, "\u0531": 30953, "\u9690": 30356, "True": 4365, "ski": 5253, "\u2581dir": 5262, "istrict": 7486, "\ud544": 30427, "\u5bbd": 30236, "Instance": 4005, "rowning": 28496, "\u2581snow": 7899, "IE": 7453, "\u2581compon": 3867, "\u2581saved": 8686, "\u2581castle": 19007, "\u6539": 29220, "\u2581sp\u00e4ter": 15646, "\u2581\u0434\u0430": 5005, "stub": 21725, "\u2581metric": 12463, "Gre": 25656, "\u2581magnificent": 27574, "RO": 1594, "\u2581frustr": 10856, "\u2581behaviors": 23961, "\u0436\u0443": 14477, "bage": 14054, "Bag": 24204, "illo": 11151, "efe": 25922, "\u2581sister": 5668, "\u2581bre": 3412, "\u4e9a": 31103, "\u2581suits": 21553, "rence": 8462, "\u0437\u044f": 15876, "\u2581toes": 27504, "Present": 19618, "\u2581vel": 6592, "\u2581midnight": 22494, "\u2581recib": 25472, "vert": 2035, "\u2581kter\u00fd": 28162, "Body": 6982, "party": 14999, "\u2581mentre": 18280, "otte": 10803, "\u2581bott": 7718, "iring": 5549, "tha": 15716, "\u2581Stuart": 23733, "\u2581\u043c\u0430\u0439": 24827, "IA": 7408, "gas": 20404, "\u51e6": 30789, "\u2581Woman": 20010, "may": 12001, "IVER": 27169, "prite": 13757, "\u2581tou": 7400, "\u2581Jacob": 12615, "Li": 27566, "osc": 17815, "<0x9B>": 158, "het": 4103, "(\"[": 16848, "schedule": 20913, "\u5473": 31170, "\u2581planning": 7394, "\u2581originally": 10806, "LM": 27149, "bss": 26727, "\u590d": 29284, "setText": 15206, "\u2581depressed": 27696, "\u2581citiz": 7963, "\u043b\u044c\u0442\u0430": 16389, "\u2581ms": 14362, "\u2581tablet": 24296, "top": 3746, "\u2581className": 4899, "aring": 2302, "\u2581\u0440\u043e\u043a\u0456\u0432": 19057, "etch": 4455, "\u2581V": 550, "\u2581laughing": 14827, "\u2581Ju": 13697, "\u043a\u0430\u0437": 25672, "\u2581Jersey": 14007, "\u8bb0": 29442, "\u2581wp": 18495, "\u2581intermediate": 22602, "\u2581peas": 27649, "\u2581kitchen": 6132, "\u2581Buck": 16577, "\uc81c": 29526, "rise": 24035, "\u2581\u00e9t\u00e9": 7166, "orf": 7800, "\u2581knowledge": 4788, "\u2581drew": 11547, "\u00e4t": 5291, "\u2581unused": 25105, "rowned": 14335, "container": 6734, "\u0432\u0435\u043d": 16227, "\u2581solution": 5165, "\u2581Comb": 19422, "\u2581recipe": 13405, "\u2581\u0436": 8937, "dess": 15821, "ify": 1575, "\u2581hurt": 7350, "\u2581mineral": 25837, "\u2581dal": 7517, "\u2581M\u00fcnchen": 24362, "\u2581Big": 6375, "\u1fd6": 30886, "\u2581backed": 17753, "\u2581Kent": 13043, "\u5f37": 31280, "\u2581advanced": 10023, "\u2581According": 6586, "\u2581rate": 4338, "Length": 4645, "\u2581placing": 20632, "N": 28759, "After": 9169, "<0x12>": 21, "\u2581guns": 11460, "\u2581fram": 23426, "\u2581juin": 17784, "router": 15125, "\u2581rit": 9935, "rical": 11524, "\u0447\u0430\u0442": 22556, "inal": 1475, "\u2581jed": 6294, "\u2581Abs": 12709, "\u0dd2": 31355, "\u2581stores": 10858, "elihood": 18538, "nh": 25011, "\u2581psychological": 18835, "\ud83d\ude09": 29814, "istic": 3320, "addr": 3645, "\u2581private": 1597, "\u2581\u041f\u043e": 3787, "frame": 3413, "\u2581Emp": 10156, "\u2581allow": 1914, "comments": 16238, "\u2581blown": 24995, "\u2581arrog": 28327, "\u21d2": 30757, "\u2581Sac": 17219, "\u2581Club": 5933, "\u2581problem": 2700, "\u2581Cold": 19260, "\u2581Ward": 19512, "\u2581\u0442\u0438": 11002, "\u2581style": 3238, "\u2581Read": 4939, "leton": 9224, "\u2581\u0431\u0443\u043b\u0438": 24596, "\u540e": 29120, "mutex": 7686, "\u2581motivation": 21594, "\u2581works": 3791, "permission": 24654, ">/": 23211, "\u4e0d": 28988, "\u2581\u0447\u0435\u043c": 23345, "\u2581eines": 12531, "\u2581Stan": 9034, "\u043d\u043e\u0457": 10625, "jsp": 23559, "reedom": 6868, "enger": 9243, "ights": 3152, "\u80b2": 31350, "Len": 9408, "\u2581Download": 16220, "\u2581cru": 5337, "\u2581discount": 12711, "Theta": 16643, "\u2581\u0432\u0442\u043e": 19621, "\u2581GFP": 23577, "\u00e1ban": 17180, "udder": 24646, "\u2581go": 576, "\u2581nullptr": 7648, "\u2581recall": 8596, "\u2581pants": 16721, "eqref": 5103, "\u2581popularity": 20646, "\u2581validate": 13412, "NEL": 19014, "ceive": 11642, "Frame": 4122, "\u2581simpl": 9878, "\u2581personally": 10897, "\u2581eg": 14486, "ijd": 15169, "<0xE6>": 233, "\u2581rect": 9717, "stellung": 20509, "ril": 9085, "\u2581volta": 20877, "\u2581BA": 27971, "\u2581Dort": 27238, "\u0686": 30066, "\u2581Pacific": 12515, "\u2581Argument": 19189, "outing": 8892, "\u535a": 30284, "Arrow": 23874, "klahoma": 22097, "MESSAGE": 22391, "\u2581Kitchen": 21376, "\u0440\u0430\u043b": 18363, "Comment": 13617, "Vert": 10548, "\u2581Controller": 25677, "\u021ba": 25814, "\u2581Grey": 22064, "\u2581agricultural": 22815, "lad": 9963, "\uba70": 31718, "\u2581Zone": 20312, "\u2581grows": 20382, "\u2581discrete": 24788, "\u2581precision": 16021, "++++": 17501, "Processor": 17088, "\u2581\u043c\u0435\u0441\u0442\u043e": 20674, "\u2581expectation": 21859, "\u2581patches": 26961, "\u2581silence": 9296, "rien": 21184, "\u2581Adams": 17079, "\u2581asked": 2261, "\u2581Bridge": 15050, "\u2581Nat": 9736, "minded": 25117, "\u2581waar": 14995, "transaction": 14556, "Min": 5805, "\u2581Basic": 18267, "izia": 24536, "\u2581tuple": 21000, "\u0448\u0442\u0438": 21218, "\ud83e\udd70": 31510, "FI": 3124, "****": 565, "\u2581filled": 6774, "\u2581forget": 7120, "\u2581Larry": 19861, "\u2581wa": 7078, "manager": 9307, "\u2581entering": 15435, "\u2581Colorado": 15837, "\u2581\u044d": 4235, "\u2581gym": 14310, "Transform": 10143, "Now": 8479, "\u2581fixture": 20284, "\u2581bust": 20338, "\u2581heter": 23402, "=\"_": 28359, "\u2581morning": 3970, "\u2581together": 2553, "Property": 3093, "\u2581cam": 3730, "\u2581lose": 6788, "ora": 3428, "\u2581singing": 14493, "\u2581cand": 13931, "\u0432\u0438\u0445": 18095, "\u2581aj": 23371, "\u2581\u043f\u0435\u0440\u0435\u0434": 27844, "DM": 9286, "\u2581small": 1741, "\u2581test": 1369, "\u2581zones": 19913, "\u2581\u00falt": 15201, "\u2581blocking": 22538, "\u1eef": 30586, "uvo": 25075, "lemma": 13177, "\u2581ratings": 21381, "\u2581Compet": 17830, "\u2581allocated": 19979, "\u2581investors": 15104, "\u2581Railway": 22687, "\u5eab": 31605, "\u2581movie": 5994, "\u2581Events": 20370, "\u2581Jonathan": 16656, "eben": 8960, "\u2581effort": 4261, "\u2581suff": 3510, "\u2581guarantee": 12587, "\u2581Ald": 17545, "cciones": 24598, "EFF": 26772, "\u2581Kill": 25262, "\u89c4": 29946, "\u2581ordinary": 13207, "\u2581you": 368, "\u2581lum": 17709, "portal": 19395, "\u5047": 30826, ">(": 3323, "\u2581Moz": 20915, "\u2581Individual": 27739, "\u2581Baron": 23152, "\u1e25": 29624, "orneys": 27808, "\u2581abuse": 12476, "\u2581Andrea": 24009, "\u178e": 31803, "osp": 3382, "oms": 5185, "\u2581reference": 5633, "inen": 9284, "\u0e1c": 30416, "tl": 9563, "\u2581continued": 5317, "\u2581Mend": 28683, "oom": 8605, "\u307b": 31529, "\u2581windows": 8412, "\u2581Taiwan": 22463, "come": 4215, "jes": 16967, "\u2581wedding": 9200, "\u2581sau": 10241, "\u2581Sequ": 22716, "Sch": 9979, "\u00e9qu": 14177, "support": 6658, "istro": 24307, "gue": 19302, "\u0441\u0438": 2206, "ype": 571, "aned": 23336, "\u2581Michigan": 13642, "\u5bb9": 29329, "\u2581Default": 9707, "\u5b9c": 31917, "ors": 734, "uming": 21542, "Actions": 15826, "ec": 760, "umbling": 23491, "IsNull": 25230, "solid": 27344, "\u2581DateTime": 20917, "rhs": 25435, "ar": 283, "\u2581containing": 8707, "\u2581entered": 8426, "\u2581Country": 13008, "\u2581\u0432\u043a\u043b\u044e": 19291, "\u5982": 29118, "CLUD": 16613, "pel": 14605, "\u97f3": 29838, "\u2581Grab": 23924, "\u5ca9": 31581, "TV": 10639, "caps": 23438, "rice": 17566, "\u2581definitions": 20343, "\u2581protagon": 18521, "\u2581tart": 19373, "\u00e7": 28857, "\u2581passage": 12280, "\u1ea1": 29423, "dd": 1036, "ird": 1844, "->_": 9631, "\u2581priv": 5136, "\u2581presence": 6703, "\u2581cleanup": 22005, "\u2581wars": 19270, "ne": 485, "\u2581restricted": 19021, "\u2581expectations": 13879, "\u2581dense": 19319, "BITS": 27001, "\u2581cheaper": 20326, "\u2581Mart": 4437, "\u2581denied": 16703, "\u2581voy": 15545, "\u2581lover": 19568, "Subject": 22210, "\u2581detector": 25979, "\u2581Josef": 27622, "\u2581bless": 14389, "\u2581supplier": 25877, "*),": 9151, "heng": 28550, "\u2581Coal": 25243, "\u043f\u0440\u0435\u0434\u0435": 23569, "strcmp": 17789, "\u2581Pict": 22262, "\u2581v\u00ed": 22906, "\u2581\u041e\u043d": 25507, "ENCE": 15683, "\u2581caf\u00e9": 28345, "\u2581Popular": 22864, "\ub420": 31705, "wick": 9462, "\u2581Transport": 15096, "ls": 4911, "\u0443\u0440": 8339, "\u2581beliefs": 16415, "existing": 24049, "\u2581\u0430": 1622, "\u2581special": 2841, "\u5272": 31105, "\u2581thermal": 18966, "ARCH": 17046, "\u6d3e": 31006, "<0xBE>": 193, "ilers": 27693, "]=": 11868, "trl": 11276, "\u2581doctors": 13500, "descriptor": 17325, "\u2581started": 2774, "\u1ecd": 30097, "\u5141": 30253, "numeric": 23700, "encias": 19043, "\u2581\u00c4": 18912, "\u2581CV": 20639, "\u2581tent": 10268, "\u2581ade": 14921, "ske": 26254, "alling": 20441, "rib": 758, "social": 22698, "::<": 23015, "varepsilon": 6490, "\u2581poder": 20500, "(!": 6469, "rv": 9084, "\u2581LO": 6807, "\u2581squ": 4524, "<0x6B>": 110, "\u2581looking": 2526, "Up": 2738, "\u2581\u043d\u0430": 929, "Domain": 12075, "\u2581links": 9136, "MC": 7814, "\u2581credentials": 21429, "\u2581sein": 6578, "\u2581\u0412\u0435\u0440": 20908, "aine": 4262, "\u2581Config": 10566, "\u043f\u0438": 2749, "pe": 386, "EventHandler": 23273, "atch": 855, "Receiver": 26591, "\u6253": 29576, "Par": 3916, "grow": 20621, "va": 3026, "\u2581debut": 9928, "()": 470, "\u2581Final": 10222, "\u2581conventional": 17215, "bucket": 19599, "\u2581posting": 18448, "UnityEngine": 24658, "\u2581closet": 23622, "Operand": 14074, "\u2581detection": 15109, "esi": 17897, "ette": 3186, "\u2581Grand": 6607, "ategy": 5167, "\u7f6e": 29021, "strings": 16156, "\u2581Wis": 14100, "-%": 23962, "Items": 7816, "circ": 9565, "\u2581attraction": 24074, "\u2581founded": 11573, "____": 3990, "\u2581pr\u00e9": 12823, "\u2581dear": 13095, "\u2581Location": 14716, "\u88dd": 31937, "\u2581Democratic": 12821, "dbg": 14962, "\u4ec0": 30289, "\u2581product": 2093, "two": 10861, "\u2581Fund": 11051, "\u2581plat": 24474, "nd": 292, "izard": 14640, "\u2581severely": 28064, "\u2581seated": 24732, "\u2581caller": 18314, "\u2581customer": 6346, "\u2581this": 456, "\u2581which": 690, "sex": 12396, "\u2581heavily": 12759, "\u0449": 28853, "\u2581clin": 8837, "offs": 14567, "aration": 9477, "\u2581onder": 10971, "tn": 6888, "perm": 13781, "task": 5553, "browser": 13612, "Setup": 17707, "Mus": 16159, "iffs": 17820, "\u2581Mexico": 10242, "\u2581\u0627\u0644": 19078, "\u2581Proposition": 19697, "\u2581Jesus": 6466, "\u2581narr": 9819, "\u00e8ge": 24399, "\u2581fonction": 23473, "\u2581sucks": 25033, "\u0292": 30299, "SET": 4270, "\u2581vital": 12588, "\u2581killed": 5582, "\u00f3wn": 16213, "\u2581encryption": 27591, "\u0441\u0442\u0438": 2266, "\u2581arrival": 13758, "stats": 8751, "\u0449\u0435": 4087, "intern": 14705, "\u2581prince": 20180, "\uc2e4": 29991, "\u05f4": 31603, "\u2581hallway": 23655, "\u5948": 31869, "\u2581household": 13634, "icense": 1823, "\u2581\u041f\u0435\u0440": 14353, "\u2581expend": 27040, "\u2581fail": 3747, "\u2581si\u00e8cle": 13717, "\u2581Mini": 24785, "customer": 18523, "tery": 15527, "Sa": 14524, "\u2581nations": 14913, "\u2581ass": 1155, "\u2581Barry": 20393, "\u2581exotic": 27541, "\u2581gemeente": 28482, "jd": 28215, "\u2581Colonel": 18464, "\u00e4hrend": 14934, "\u2581Old": 7470, "\u043b\u0430\u0432": 9032, "\u2581CH": 6523, "hard": 8896, "\u2581Ped": 11943, "\u2581bucket": 15552, "\u2581\u0441\u043b\u0443\u0436": 26683, "nant": 19352, "\u2581Russian": 8098, "\u2581lot": 2055, "\u2581opportunities": 8812, "\u2581guilt": 19150, "\u2581\u043c\u0430\u0440\u0442\u0430": 24898, "ac": 323, "many": 24081, "\u2581shoulder": 7793, "metric": 13997, "\u6307": 29223, "\u2581occasions": 18323, "Omega": 6326, "itutional": 16820, "\u2581seasons": 15238, "\u2581based": 2818, "\u2581suggestion": 19368, "\u2581Bangl": 28695, "\u5df4": 30824, "\u2581IR": 14149, "\u2581operational": 21197, "\u7684": 28914, "\u2581provided": 3857, "aphor": 27041, "cy": 2706, "\u2581bones": 15262, "';\r": 18759, "\u2581Adult": 24765, "\u2581K\u00f6": 19253, "ancial": 14497, "\u2581collapsed": 22431, "\u2581Mond": 7672, "\u2581Marco": 21069, "functions": 19659, "\u2581recher": 26590, "\u2581Roma": 17246, "isme": 10425, "\u2581\u0433\u043e": 1695, "\u2581Tak": 18754, "\u30e2": 30177, "(%": 16256, "\u2581courage": 15276, "ardon": 25021, "\u2581To": 1791, "\u2581counting": 20014, "\u662f": 28971, "\u0434\u044b": 7390, "bc": 12286, "\u012a": 31322, "\u2581specialist": 19899, "\u2581angles": 22289, "\u2581Camera": 24361, "\u2581ids": 26214, "\u2581wand": 15533, "icity": 25130, "\u00c6": 29669, "\u2581Net": 5269, "binary": 18442, "\u2581Africa": 7710, "\u2581\u2116": 15778, "=%": 9017, "\u2581Watch": 11933, "\u00b6": 29662, "his": 16355, "\u2581rap": 5017, "\u2581parent": 2564, "\u2581praised": 28293, "theta": 4280, "\u2581Font": 15464, "\u8f91": 29815, "\u2581narrative": 15529, "\u61c9": 31508, "\\/": 23674, "\u2581Fu": 11857, "\u2581parad": 15904, "\u2581\u0440\u0430\u0437": 5234, "\u2581month": 2102, "\u2581coaching": 21464, "wik": 18509, "\u2581slammed": 27165, "\u2581bacteria": 24038, "inned": 10751, "ernel": 6453, "VC": 17832, "\u2581verse": 20016, "\u2581sighed": 16331, "ests": 5946, "ibr": 2792, "\u2581mid": 4725, "\u2581sl": 1135, "\u4ed6": 29440, "\u2581fal": 15780, "estr": 25926, "\u2581Made": 16970, "rift": 10255, "\u2581Style": 17338, "\u2581variation": 18423, "iction": 3033, "Environment": 15827, "\u2581breakdown": 26987, "\u2581note": 5039, "\u2581guarante": 7953, "elligence": 18827, "\u2581applied": 7589, "\u9879": 29541, "\u2581initially": 12735, "\u2581NEW": 24746, "god": 21416, "\u2581operator": 7906, "\u0251": 29813, "CH": 2305, "\u2581auch": 5370, "\u2581mutual": 19336, "\u2581FIT": 12630, "\u2581anybody": 15159, "ud": 554, "\u2581shares": 13308, "\u2581becomes": 6755, "riz": 8354, "\u2581apost": 26643, "\u2581yards": 11107, "\u2581tr\u00e8s": 15053, "\u2581\u20ac": 17416, "\u2581tam": 24914, "\u2581Les": 4573, "ifs": 12843, "\u2581\u0422\u0443": 24519, "SSION": 10946, "eny": 20552, "DOT": 24565, "ury": 2272, "\u2581sab": 14691, "\u2581Miles": 25264, "\u2581founder": 18291, "\u2581explicitly": 15956, "\u2581episode": 9560, "\u2581M\u00e4rz": 18035, "\u0c41": 31335, "actor": 6875, "\u2581dan": 11555, "Mart": 21787, "\u9501": 30448, "ca": 2591, "\u2581\u00ed": 23684, "odge": 13167, "hind": 15664, "\u2581cleaned": 23003, "\u2581Ther": 16481, "\u2581thorough": 13155, "limit": 9203, "loop": 9374, "igd": 12884, "\uce58": 30159, "\u2581countryside": 28594, "\u2581connect": 5789, "\u2581Pap": 16028, "BUS": 18680, "\u2581curl": 28306, "ioned": 21856, "met": 2243, "Thread": 6237, "\u2581falling": 10931, "Pod": 13740, "\u2581/******/": 19250, "\u5f52": 30588, "\u043d\u0438": 669, "hed": 887, "\u043d\u043e\u0441\u0442\u044c": 9468, "\u043f\u0440\u0430\u0432\u0438": 27730, "\u2581housing": 11821, "utf": 13366, "\u2581Ek": 27659, "\u584a": 31860, "ipeline": 8384, "\u2581Richard": 6359, "\u2581Memory": 19153, "nergy": 11918, "\u2581les": 1514, "ishment": 12243, "\u2581Rodr": 20368, "\u2581l\u00e4": 23855, "\u09ad": 31819, "\u2581nouve": 16421, "HECK": 5250, "\u6e2f": 30913, "\u2581convert": 6603, "EXT": 4036, "\u2581Identity": 28399, "\u2581Tat": 28087, "\ud83d\udcb0": 31697, "arning": 3570, "\u2581cv": 19342, "\u0447\u043d\u0430": 18541, "/)": 19840, "\ud68c": 29884, "cdot": 5468, "\u2581important": 2278, "\"\u2014": 17216, "\u2581screens": 18794, "bros": 25851, "\u00de": 30087, "bi": 6309, "************": 17328, "\u2581rushed": 19408, "\u6846": 29861, "\u2581Ar": 1010, "\u043c\u0438\u0438": 18551, "}\\": 1137, "Windows": 7984, "Read": 3390, "---": 7395, "\u043b\u0438\u043d": 14274, "\u2581engagement": 15613, "\u2581fleet": 17675, "\u2581box": 3890, "\u2581sampling": 23230, "\u2581Minn": 15179, "irm": 2780, "\u2581Normal": 23325, "<0x71>": 116, "\u2581Ever": 12763, "\u2581wal": 27928, "\u2581suggested": 8750, "\u2581processes": 9537, "ory": 695, "\u2581truck": 8388, "====": 965, "\u0432\u0438": 1451, "\u2581quest": 1825, "sl": 2181, "\u2581vill": 4314, "\u2581anti": 6891, "\u2581sending": 10313, "\u2581Sel": 11361, "-------------": 22843, "ories": 2420, "por": 2006, "\u2581cyl": 20218, "\u2581pixel": 18012, "\u2581\u0445\u0443\u0434\u043e": 21196, "bar": 1822, "\u2581stom": 10442, "\u2581COM": 15924, "\u2581support": 1760, "atched": 25925, "ific": 921, "\u2581Golden": 14739, "Based": 24207, "\u2581cycle": 10061, "=_": 27745, "\u2581coach": 7786, "\u0441\u043a\u0438\u043c": 17810, "\u2581saison": 20543, "Serialize": 23443, "ons": 1053, "\u2581quando": 15440, "fort": 2878, "\u2581nun": 17043, "\u2581worm": 25736, "\u2581mobil": 24622, "\u8a18": 30288, "\u2581ist": 3103, "\u2581info": 4931, "\u2581rac": 6567, "aders": 22199, "\u98df": 30716, "ructions": 8373, "Europe": 19298, "\u2581Struct": 27712, "\u2581Silva": 28655, "JECT": 11546, "\u62a4": 30641, "AC": 1645, "\u2581mientras": 22188, "\u042e": 28950, "\u0440\u043e\u0434": 6063, "\u272a": 31667, "SON": 4780, "\u2581\u043d\u043e\u044f\u0431\u0440\u044f": 27251, "rolled": 7780, "ng": 817, "\u2581however": 3545, "Red": 7516, "\u2581konnte": 19059, "\u2581\u0440\u043e\u0434\u0438": 23212, "\u3083": 31028, "\u2581endless": 18284, "ote": 1590, "eling": 9365, "\u2581Ord": 22404, "\u0433\u0440\u0430": 3634, "ibil": 14820, "imir": 20226, "san": 20297, "\u2581\u0440\u0443\u0441": 24379, "\u2581Mum": 25590, "\u010f": 29365, "\u78ba": 30504, "\u2581flav": 15637, "az": 941, "token": 5263, "\u2581ERROR": 16383, "AST": 12440, "wn": 880, "\u2581listade": 13129, "Miss": 14252, "\u2581ano": 28125, "ucket": 11191, "\u2581Steam": 27543, "\u2581finally": 4251, ".$": 5910, "dbc": 24369, "cohol": 9725, "\u2581Bruno": 24274, "Context": 2083, "itempty": 15500, "elte": 25278, "\u2581nail": 25592, "\u2581estate": 9490, "###": 27332, "\u2581sounded": 13219, "\u2581EN": 11929, "hole": 20265, "\u0572": 31565, "Lower": 12592, "LET": 25870, "\u2581fid": 28492, "\u2581reason": 2611, "\u2581Kurt": 24348, "\u2581society": 6190, "\u2581\u0439\u043e": 16394, "\u2581refund": 20106, "\u2581magnet": 9386, "Bro": 21404, "getContext": 26947, "\u2581clearly": 6315, "oston": 8410, "\u2581voltage": 24661, "\u2581negative": 7087, "<0xC9>": 204, "\u2581referenties": 13380, "\u2581entirely": 8134, "\u2581Musik": 20348, "\ud070": 31694, "\u2581Cav": 24577, "\u2581learned": 5996, "\u00f3l": 9185, "rides": 20009, "\u0434\u0435\u0440": 11078, "\u2581attack": 3517, "standard": 20587, "\u2581sig": 4819, "\u2581Foster": 28517, "CLO": 22132, "\u2581\u0434\u043b\u044f": 6286, "atus": 1589, "\u2581wisdom": 16679, "Catalog": 27937, "A": 28741, "fu": 21278, "\u00dfen": 9721, "aria": 6463, "\u2581Stevens": 23699, "ura": 2614, "\u2581Rat": 20876, "\u2581During": 6213, "\u2581gravity": 18428, "ina": 1380, "\u2581UK": 6194, "WER": 15684, "\u2581lun": 17999, "\u0432\u0430\u0442\u0430": 28478, "\u2581soon": 3403, "\u2581Montreal": 25645, "\u2581bin": 10708, "\u989d": 29880, "\u2581Veter": 25790, "OB": 8034, "EMP": 15290, "\u2581commence": 25599, "\u2581horizontal": 18116, "undred": 4381, "umi": 12965, "listener": 21904, "\u2581grandmother": 19023, "\u2581\u0434\u043e\u043b": 17483, "\u2581Oregon": 19301, "\u2581ultimately": 12665, "multip": 20317, "\u2581shit": 5492, "\u2581Biden": 21377, "LANG": 21482, "\u9f99": 30404, "\u2581execute": 12083, "\u2581worlds": 20742, "\u6574": 29681, "\u2581ownership": 13965, "position": 3640, "\u2581totally": 8913, "NI": 16457, "\u2581crown": 22718, "/#": 27581, "\u654f": 31703, "\u2581pueden": 27791, "\u2581specify": 15759, "\u2581pok": 16004, "\u2581Hug": 13287, "east": 24294, "\u7f72": 31340, "\u2581Burn": 13708, "auto": 6415, "Ten": 22415, "\u2581morph": 18087, "ylvania": 14194, "\u0434\u043d\u043e": 14368, "\u2581preventing": 26031, "ccess": 1518, "\u2581Hun": 10570, "\u25e6": 31583, "\u2581j": 461, "\u2581assistant": 13892, "\u2581belong": 6847, "\u2581jud": 4612, "\u2581profess": 3778, "\u2581versions": 11031, "\u2581brands": 15638, "\u6cd5": 29095, "\u0445\u0440\u0430": 23163, "\u043d\u044b": 1463, "!!": 3946, "\u2581thoughts": 7403, "\u2581abstract": 11576, "publish": 27296, "%)": 11526, "icion": 26357, "title": 3901, "elijke": 11718, "\u2581graduated": 19215, "\u2581officers": 9164, "ciples": 10411, "\u2581prediction": 19386, "\u2581mond": 12471, "Aud": 24761, "\u2581t\u00e9l\u00e9": 27961, "\ud50c": 31286, "ioc": 22038, "\u2581pick": 3088, "service": 5134, "custom": 6628, "\u2581\u0445\u043e": 10140, "\u65bd": 31360, "\u4e2d": 28991, "\u2581controlling": 24148, "\u2581communication": 8520, "ular": 1098, "\u2581PURPOSE": 12878, "\u0bbf": 29983, "GN": 28630, "\u2581trem": 11248, "\u2581cap": 2058, "md": 2037, "\u8a9e": 30321, "\u2581guy": 4649, "izers": 17916, "ro": 311, "\u2581decade": 12250, "\u2581geld": 17704, "minecraft": 22875, "\u2581dicembre": 25919, "\u2581\u0427\u0430": 24695, "hline": 9208, "\u2581Kr": 7787, "\u2581Almost": 20676, "\u2581pollution": 27702, "pu\u00e9s": 12873, "\u2581Linked": 22675, "\u2581Hudson": 25037, "**": 348, "\u2581issued": 11793, "enne": 9078, "\u2581pedest": 27475, "\u2581UV": 25231, "\u2581place": 1633, "orship": 9579, "\u2581genre": 15926, "plies": 7631, "kh": 15887, "CREF": 25627, "\u2581\u0438\u044e\u043b\u044f": 26076, "\ub7a8": 31965, "\u2581of": 302, "ances": 2233, "LEN": 8880, "\u2581corporate": 12258, "scalar": 27114, "rab": 27385, "\u2581individuals": 6992, "atin": 12844, "earch": 3625, "SOURCE": 17426, "\u2581tradition": 9097, "\u2581\u017ce": 22165, "\u2581inv\u00e5n": 26939, "Unknown": 12324, "\u2581duplicate": 27071, "\ud83d\udc96": 31912, "\u2581intro": 24671, "\u2581priority": 11801, "\u2581Che": 4537, "\u2581Native": 16024, "\u2581surve": 14989, "\u2581+": 648, "\u2581relevant": 8598, "\u2581mb": 20137, "\u2581Hem": 21942, "ivery": 7198, "<0x0E>": 17, "\u2581stays": 22361, "\u2581specific": 2948, "enschaft": 13553, "\u2581punt": 16875, "amine": 21928, "eso": 28485, "\u2581ceremony": 16172, "ket": 10304, "\u2581conse": 15188, "\u2581Kon": 8294, "dro": 23756, "\u2581Report": 7431, "\u2581FROM": 10657, "\u2581Tre": 9485, "Union": 20981, "\u2581threatening": 23041, "\u2581\u0445\u0440\u0430": 25453, "\u2581presidential": 19268, "\u2581Indiana": 19665, "\u2581\u0447\u0435\u043b\u043e\u0432\u0435\u043a": 22653, "\u2581numerical": 18125, "fica": 17643, "\u2581colon": 8039, "\u2581imposed": 24739, "xD": 18915, "\u00c3": 29364, "see": 3245, "\u5462": 31351, "\u2581Sach": 23447, "\u2581Policy": 13077, "\u2581\u0432\u0456": 7716, "Multi": 10889, "uren": 11239, "IFI": 21438, "\u2581Bi": 6345, "\u2581thesis": 23412, "pling": 8182, "ijo": 21409, "\u2581name": 1141, "\u2581rewards": 22989, "\u2581major": 3014, "ered": 2092, "riers": 14189, "loat": 3496, "eing": 21458, "amily": 5730, "args": 3087, "\u2581PROVID": 25118, "\u2581months": 3370, "ago": 4567, "\u0432\u044b\u043c": 24114, "\u30c0": 29977, "\u2581vibr": 13546, "\uc6cc": 31126, "\u2581Yet": 8516, "say": 21205, "weak": 25668, "\u2581Palestinian": 28591, "Hy": 21676, "oes": 6496, "ulous": 9504, "Case": 6160, "\u2581Tool": 12877, "\u3058": 30692, "lauf": 27997, "\u2581\u0434\u0432\u0443": 23053, "isher": 7827, "\u2581pr": 724, "\u2581Reddit": 22233, "\u2581magazines": 22916, "\u2581travels": 27651, "MAIL": 28297, "\u2581Oz": 28321, "\u2581ainsi": 13255, "ly": 346, "\u2581mortgage": 18222, "emen": 15295, "\u2581brown": 9060, "\u2581crist": 24897, "Sign": 7384, "\u2581fee": 10351, "\u2581A": 330, "Click": 5978, "\u30a1": 30000, "\u2581\u0411": 2216, "it\u00e0": 7327, "\u2581Ts": 17718, "\u2581shr": 12249, "<0x06>": 9, "\ud30c": 29806, "\u2581lou": 20280, "\u043f\u0440\u0435": 8971, "\u2581Una": 19472, "Sam": 19777, "\u2581trat": 17726, "peon": 18019, "atori": 13191, "\u2581iPhone": 17391, "\u2581\u0441\u043e\u0441\u0442\u0430\u0432\u043b\u044f": 19990, "lin": 2294, "|_{": 28221, "\u2581hasn": 11638, "amente": 3958, "\u2581Thompson": 19560, "\u2581Baltimore": 23349, "Pet": 24234, "\u2581\u0412\u0456": 23870, "ieties": 13998, "\u2581avant": 14221, "ims": 7805, "=>": 4929, "\u2581mere": 15315, "Factor": 20169, "oust": 18361, "\u2581Annual": 23647, "\u9f50": 31324, "spe": 14500, "\u2581Prof": 6235, "\u2581History": 6866, "\u2581Carter": 17326, "\u2581NOTICE": 27199, "\u2581tort": 12703, "anie": 8768, "\u2581Ken": 8885, "\u2581subsequently": 18410, "\u2581coast": 9437, "BUTTON": 25852, "\u2581\u0442\u0430": 2937, "mania": 25771, "\u2581orig": 2172, "\u017f": 30515, "window": 5147, "nia": 6232, "\u2581Bet": 6382, "\u2581Value": 8382, ":*": 15563, "\u2581guests": 11089, "\u2581pizza": 20727, "\u2581Federation": 22520, "urches": 18088, "\u2581equipped": 17042, "ographie": 12262, "()[": 19482, "\u2581vita": 23629, "links": 17052, "\u2581'</": 20182, "\u2581jou": 13087, "\u2581investigation": 11597, "\u2581Jahre": 12552, "elasticsearch": 28350, "\u6545": 31063, "\u2581Jen": 11654, "BASE": 11886, "achine": 3675, "pled": 9667, "ToString": 10152, "\u767c": 31046, "\u2581coll": 3495, "\u2581pref": 27718, "\u2581higher": 4337, "\u2581pentru": 19493, "~$\\": 24319, "QL": 5653, "quality": 14817, "\u2581initialization": 27620, "\u2581Schedule": 25874, "\u2581entr": 7142, "\u2581Sat": 10586, "\u2581Bapt": 22654, "Linked": 27975, "\u2581\u043f\u0435\u0440\u0438\u043e": 20292, "~\\": 2658, "\u2581f\u00f6": 14000, "\u2581\u0433\u043e\u0440\u043e": 14896, "\u5f62": 29711, "ERY": 19369, "\u2581tijd": 23898, "\u2581#!/": 23597, "asing": 3706, "\u0437\u043e\u043d": 24973, "\u2581Master": 9361, "so": 667, "_->": 8276, "\u2581luc": 22144, "nica": 14882, "read": 923, "value": 1431, "Op": 5018, "\u2581ends": 9675, "\u043b\u0435\u043d\u043d\u044f": 10507, "ases": 2018, "fem": 26857, "\u2609": 31670, "gh": 591, "\u043f\u0443": 4873, "\u2581\u0430\u0432\u0433\u0443": 18784, "\u2581inverse": 22668, "\u2581fert": 16559, "\u2581Erst": 28227, "\u2581genom": 25567, "\u2581locals": 23237, "\u2581Mar\u00eda": 20511, "\u2581discret": 22683, "\u5e08": 30581, "\u2581bt": 26933, "\u0006": 30314, "irl": 2156, "\u2581apr\u00e8s": 12986, "\u2581Ah": 10103, "\u2581Come": 12578, "\u2581Altern": 16677, "\u043d\u044c\u043e": 21738, "\u2581Side": 15256, "\u0437\u043d\u0430": 6973, "\u2581Chron": 23967, "\u603b": 29758, "results": 10463, "exports": 10126, "changed": 11247, "Validation": 14355, "\ud074": 30203, "\u523b": 30861, "\u00ba": 28936, "WE": 6631, "\u2581\u043a\u043c": 12400, "\u2581Casino": 26435, "\u0445\u043e\u0434\u0438\u0442": 21870, "\u2581Saison": 19031, "ices": 1214, "inted": 27700, "cfg": 6245, "ries": 2040, "PER": 6512, "\u2581dise": 6091, "semble": 11820, "\u2581realizing": 27494, "\u2581Dec": 6712, "apps": 23464, "\u2581auss": 10471, "\u2581|=": 6764, "\u7a31": 31599, "\u2581serve": 7031, "<0x51>": 84, "Option": 5425, "\u963f": 30564, "\u2581tan": 12222, "ms": 1033, "\u2581reduces": 21123, "orted": 10720, "Char": 5481, "\u2581tag": 5846, "\u2581terra": 25836, "proposition": 26904, "\u2581hosted": 18822, "\u2581mum": 27870, "\u2198": 29091, "\uc5b4": 29433, "ream": 1260, "cert": 8422, "\u2581($\\": 18157, "\u2581bg": 20239, "abulary": 24000, "\u2581Jerry": 19176, "\u2581Mama": 25579, "\u2581curiosity": 22953, "\u2581Indep": 13487, "have": 15378, "ERROR": 4732, "MON": 17349, "\u0441\u043b\u0456": 23588, "\u0695": 30983, "\u2581Mine": 21134, "\u2581\u0410\u043d\u0434": 22378, "\u2581depuis": 14661, "\u2581ERR": 12100, "\u2581parsed": 18151, "\u2581aggressive": 18925, "\u2581Kin": 26137, "\u2581by": 486, "\u2581complicated": 13140, "itched": 14209, "\u2581dispatch": 14323, "\u2581november": 24107, "\u517b": 31868, "\u2581Auf": 8914, "--;": 16850, "\u2581Delete": 15263, "\u2581abril": 20594, "\u2581fro": 8169, "\u2581Take": 8890, "\u2581seit": 13959, "ION": 1702, "\u2581significant": 5864, "uffs": 27355, "regs": 12604, "\u2581societ": 25749, "\u045a\u0430": 15857, "\u2581hills": 18553, "\u2581Pre": 4258, "prises": 19797, "#[": 8801, "\u2581tests": 8079, "\u2581Space": 13497, "\u2581import": 726, "FILE": 7317, "ite": 570, "\u2581signed": 7995, "fold": 13943, "Inv": 10188, "velope": 17173, "\u2581autor": 13254, "mary": 2754, "icted": 10937, "\u2581confidence": 9843, "\ubc0f": 31262, "DOUBLE": 25932, "\u2581quick": 2936, "lon": 15161, "\u2581Administration": 17186, "irect": 1297, "\u2581Lily": 25492, "nested": 28239, "\u2581Impact": 27803, "\u2581readily": 22058, "\u2581org": 2247, "\u2581canonical": 24600, "\u178a": 31238, "\u2581acquired": 14178, "Cart": 17057, "\u2581photographer": 24159, "\u2581\u043f\u0440\u043e": 2127, "\u2581width": 4850, "Decode": 23757, "\u2581\u0408": 22892, "\u2581f\u00fcn": 24070, "phony": 22326, "<0x8F>": 146, "LOT": 24198, "am": 314, "\u17b8": 31015, "opens": 23534, "\u53ea": 29405, "\u043d\u043e\u043a": 21143, "\u2581surprised": 8557, "\u2581accommod": 11810, "\u2581Performance": 19859, "\u2020": 28932, "\u2581gmin": 19079, "istration": 8585, "\u2581there": 736, "gle": 6277, "uilder": 2866, "\u2581Golf": 22932, "\u2581salv": 18292, "\u2581word": 1707, "\u2581marked": 10727, "\u2581locally": 17600, "\u2581Ki": 22485, "\u2581Students": 17091, "\u2581blend": 20521, "\u2581respon": 2603, "ABILITY": 9287, "\u898b": 30599, "sure": 17989, "\u2581professional": 5024, "\u2581throne": 24459, "itors": 9058, "antal": 25855, "typ": 23306, "\u2581crossing": 17076, "\u2581slower": 25642, "\u30a4": 29157, "where": 2956, "\u2581Baby": 18719, "at\u00f3": 23095, "Note": 12205, "\u2581clar": 16066, "claim": 7858, "reject": 26394, "\u2581lovely": 12393, "\u5ba4": 30763, "tools": 14091, "\u94a5": 30712, "czas": 22582, "\uc0c9": 30508, "atr": 9959, "\u0456": 28813, "\u0424": 28897, "\u2581seek": 5695, "\u06c1": 30235, "\u2581penal": 15572, "him": 24669, "bling": 6357, "\u2581argued": 14939, "\u2581psychiat": 26210, "\u8fdf": 31873, "=\"\"": 19164, "\u2581is": 349, "\u2581comment": 4517, "\u2581\u00e2": 22506, "rand": 12219, "\u7801": 29145, "\u2581Gro\u00df": 20146, "\u2581legitimate": 20954, "}'": 11339, "Mod": 1701, "\u2581merch": 18724, "\u2581pace": 13681, "izes": 5004, "\u30aa": 29866, "ards": 2178, "airy": 23421, "'];": 9153, "\u672f": 30485, "\u7f16": 29402, "appe": 6553, "\u2581pa": 5881, "Unis": 18524, "\u2581Output": 15985, "forall": 21524, "\uc601": 30478, "\u2581Union": 7085, "\u2581Egy": 9074, "\u2581determines": 25374, "fb": 10967, "\u2581Birmingham": 25613, "\u2581recent": 5391, "Pop": 10022, "\u043d\u0438\u043a\u0438": 16608, "agger": 7109, "\u6b0a": 31923, "\u2581\u041a\u0430": 5471, "ands": 2351, "\u2581United": 2969, "Le": 3514, "vol": 3871, "\u2581Polish": 20329, "\u2581healthcare": 15240, "<0x3E>": 65, "Controller": 5733, "\u2581bridge": 9850, "\u2581digest": 18922, "parseInt": 25249, "\u52a9": 30278, "\u2581fif": 5911, "\u2581rapp": 21779, "ieme": 24755, "Fr": 2642, "hom": 11966, "\u2581charges": 11040, "\u2581Looking": 14828, "\u2581prec": 4467, "hest": 6426, "mmc": 28648, "\u2581Michelle": 24970, "\u2581somebody": 12421, "\u2581Cameron": 23028, "\u2581nit": 22292, "\u2581tell": 1912, "{$": 13637, "sson": 14542, "lg": 10950, "\u2581moins": 17775, "vest": 6281, "4": 28781, "anche": 14455, "mathop": 27188, "\u2581Accept": 26953, "\u2581alla": 6625, "\u2581$|\\": 26308, "HOUT": 7912, "Provider": 5342, "ultur": 18604, "ently": 2250, "ulty": 13739, "opher": 12379, "\u2581want": 947, "\u2581prejud": 27425, "\u2581tendency": 24516, "conom": 2868, "\u2581Van": 7647, "color": 3456, "\u2581ES": 28151, "\u2581asset": 13458, "}\\,\\": 26758, "\u2713": 29952, "Loop": 14960, "\u2581Research": 7982, "\u2581passing": 9720, "annt": 13104, "\u2581approval": 15000, "\u2581men": 1683, "\u2581Project": 7759, "mobile": 19022, "\u2581gaming": 17767, "getType": 16053, "\u2581enemy": 8454, "erd": 5517, "\u2581Oil": 16181, "\u032a": 30956, "\u2581hand": 1021, "\u6bdb": 31187, "\u2581tren": 20704, "af": 2015, "tered": 8308, "\u2581togg": 21171, "media": 9660, "\u2581Krist": 16661, "\u2581Often": 24640, "Extract": 24958, "enties": 11586, "\u2581PP": 27051, "\u2581k\u00f6n": 14967, "Weight": 16310, "annel": 2756, "claimer": 20032, "\u96c5": 31178, "\u2581ek": 21730, "\u2581minimal": 13383, "Har": 23653, "\u2581otras": 23891, "\u2581reporters": 25875, "\u2581buddy": 26123, "HW": 16352, "\uad6c": 29779, "\u2581ao": 8468, "Bounds": 15833, "Separator": 28143, "\u2581intellig": 7808, "\u306a": 29270, "tasks": 21128, "ifier": 3591, "\u2581liberty": 26740, "\u5343": 30516, "Axis": 16272, "\u540c": 29338, "wide": 5734, "\u2581nearest": 17403, "\u2581Ges": 11461, "\u2581rose": 8536, "\u2581scared": 14541, "\u2581Consult": 20395, "pm": 3419, "\u2581effectively": 11466, "Library": 17183, "inking": 10593, "trigger": 11391, "()));": 8797, "\u2581today": 3154, "ieve": 18388, "\u2581Justin": 21252, "Extra": 18982, "Mut": 11874, "\u2581cinema": 22905, "of": 1009, "\u2581trash": 17466, "\u8c46": 31368, "\u2581Zen": 25153, "\u30d6": 29738, "\u09a6": 30870, "\u2581cell": 3601, "\u2581>=": 3966, "\u2581presumably": 27932, "\u2581answer": 4372, "oint": 804, "\u2581Sz": 8718, "usters": 12855, "\u2581dock": 20097, "yect": 23132, "\u2581wouldn": 4048, "\u2581veterans": 28041, "\u2581L": 393, "\u51b5": 30181, "\u2581wages": 24110, "\u2581cultural": 8932, "\u2581Apache": 8958, "ping": 2917, "zw": 12912, "\u8bf8": 31205, "\u043a\u043e\u0439": 13108, "LIMIT": 26722, "signature": 22938, "ference": 2103, "\u2581Perry": 24150, "hdd": 21330, "\u2581segments": 20105, "Ga": 25872, "\u2581possession": 18149, "\u2581whoever": 24793, "\u0cb2": 31648, "\u2581prayer": 15515, "\u2581graph": 5246, "jection": 7183, "__);": 13928, "\u2581template": 6897, "\u2581shorts": 27365, "original": 11802, "\u2581inclu": 25712, "\u2581Theme": 22888, "\u0440\u043e\u0432\u0438\u0447": 27217, "\u2581struggles": 25566, "\u2581WH": 14897, "GO": 11628, "GP": 15997, "Text": 1874, "\u2581weiter": 15298, "\\+\\_\\": 26382, "\u7d00": 31614, "ct": 310, "\u0441\u043a\u043e\u0433\u043e": 4809, "\u0440\u0435\u0434": 6918, "Me": 7121, "\u2581conversion": 13833, "\u2581break": 1721, "\u2581pleasant": 17364, "\u2581Luck": 22781, "\u2581select": 5339, "\u2581Overall": 21013, "\u2581revealing": 24593, "He": 2428, "\u2581bree": 18321, "aping": 13887, "\u2581Cleveland": 21920, "<0xA9>": 172, "\u0444\u043e\u0440": 11113, "\u2581Task": 10290, "ifa": 25622, "\u2581keywords": 28049, "\u5377": 31089, "\u2581younger": 9729, "Why": 7638, "The": 1014, "\u2581walk": 2338, "item": 1751, "nit": 28023, "\u5740": 29468, "\u2581collecting": 22852, "\u2581havia": 20561, "\u2581Feel": 27540, "\u0bcd": 29431, "ana": 2238, "\u00fablic": 11850, "cticut": 23188, "\u2581peace": 6405, "\u2581uniform": 8687, "idays": 16642, "\u2581Bring": 24786, "\u2581\u0441\u043e": 2573, "\u0441\u043a\u043e\u0439": 4683, "\u2581\u043f\u0440\u0435\u0434": 6978, "\u2581range": 2819, "\u2581Cre": 19271, "Cont": 1525, "\u2581vocals": 20789, "\u043f\u0435\u0439": 28216, "apply": 10877, "App": 3114, "\u2581propose": 19333, "chied": 26881, "emperature": 16561, "\u2581adds": 13633, "iken": 21417, "evel": 3443, "\u4ee4": 29752, "\u2581elev": 9896, "\u2581tank": 11459, "\u2581|": 342, "cular": 12723, "\u2581printf": 11566, "igible": 13538, "\u2581Physical": 27134, "}[": 5842, "CIAL": 22150, "not": 1478, "\u2581Wald": 24050, "\u2581iterator": 24119, "\u308a": 29516, "omb": 3865, "Mobile": 23090, "\u2581Gro": 8697, "UP": 3571, "\u2581som": 1113, "\u2581therm": 11594, "demo": 25652, "abad": 20882, "uild": 1678, "Pars": 26412, "\u2581sort": 3127, "Table": 3234, "\u7fa9": 30673, "future": 22589, "\u2581para": 2646, "antine": 24120, ")+\\": 25886, "\u2581\u0447\u0430\u0441": 21358, "\u2581provin": 24899, "\u0940": 29735, "\u2581vulnerable": 17508, "\u2581Their": 6723, "\u2581n\u00famero": 20472, "\u1f76": 30492, "\u0442\u0443\u0440\u0430": 15337, "abama": 19006, "filer": 27992, "\u4f46": 29926, "Yeah": 12204, "inese": 5965, "\u2581only": 865, "Intent": 18868, "\u2581alleg": 10150, "\u2581grinned": 21489, "\u2581Tree": 14653, "\u2581Double": 15233, "/${": 23820, "\u2581domin": 9241, "\u2581features": 4190, "\u2581roots": 14766, "\u2581\u0410\u043b\u044c": 27436, "partition": 18225, "\u2581\u043d\u0430\u0447\u0430": 11084, "detail": 16017, "\u2581huvud": 19295, "\u2581habits": 19305, "\u2581Branch": 26502, "anter": 27513, "\u2581unf": 10077, "acions": 20298, "SIGN": 20506, "\u6cb9": 31315, "\u2581silent": 10832, "\u2581exhibition": 18738, "\u2581magn": 9027, "\u0440\u043e\u0439": 11835, "\u2581franchise": 21014, "\u2581competitive": 13473, "\u2581Human": 10649, "\u2581gender": 11487, "Once": 16114, "INDEX": 16358, "\u2581\u0412\u043e": 9665, "\u2581established": 6740, "\u7ea7": 29486, "\u2581Sylv": 25987, "\u2581viol": 4107, "////": 1603, "\u2581blur": 19690, "\u2581tie": 14628, "\u2581Sar": 7663, "\u2581Priv": 15650, "))": 743, "\u2581bes": 3432, "aud": 5675, "\u2581territory": 14293, "\u2581largest": 7639, "t\u00f3": 9709, "\u2581extremely": 7625, "idades": 11520, "\u2581sword": 13443, "\u2581Coll": 9215, "\u0448\u0430": 7176, "\u2581STR": 17235, "Members": 23020, "\u2581jako": 10128, "\u2581Angela": 26991, "\u2581impl": 5475, "\u043a\u0442\u0430": 16702, "\u2581mu": 8453, "\u2581Dies": 11403, "boolean": 8490, "\u2581came": 1988, "\u2581Kingdom": 11508, "\u7aef": 29594, "\u2581Este": 20586, "\u2581Utah": 23672, "\u2581partido": 26993, "SAMP": 28610, "\u2581Ban": 14859, "CACHE": 22060, "Bul": 18775, "\u0458": 28855, "xs": 19381, "editor": 10692, "stri": 26229, "\u2581celle": 21401, "\u2581Pers": 10407, "\u2581steel": 9445, "bell": 10027, "\u2581\u0440\u0430\u0439\u043e\u043d\u0435": 23838, "Chat": 18165, "\u2581arrest": 8431, "\u2581century": 5445, "\u2581makes": 2870, "\u2581Champion": 17229, "uba": 19555, "sup": 10809, "\u2581Validate": 26768, "ismiss": 28177, "\u2581Anthony": 15089, "\u2581zur\u00fcck": 16460, "\u6269": 30708, "\u2581burst": 11700, "\u2581compatibility": 25419, "\u2581Bei": 17457, "ahn": 8745, "\u2581George": 5163, "pgfpathlineto": 12683, "ffic": 21533, "\u222a": 31916, "\u0440\u043e\u0438": 22518, "++": 1680, "\u2581\u0446\u0438": 18950, "\u2581side": 2081, "\u2581Ferd": 24768, "\u2581EU": 12181, "erme": 26230, "\u2581distant": 15569, "\u2581College": 6136, "\u201f": 31925, "\u2581assass": 16645, "\u7ad9": 29992, "\u2581maximum": 7228, "\u614b": 31094, "\u4f7f": 29154, "chip": 10168, "\u2581Ryan": 13194, "\u2581naj": 14110, "CLU": 28354, "(\"": 618, "\u2581coming": 3524, "\u2581\u043b\u0443": 24641, "enza": 11409, "\u2581organize": 25425, "\u2581Liber": 8592, "\u2581struck": 11378, "zs": 27896, "\u2581secondary": 13461, "imes": 1198, "\u2581Church": 6381, "Values": 7025, "\u2581bone": 14056, "cd": 2732, "ISD": 24375, "\u2581intact": 27248, "\u2581flying": 11470, "\u2581Au": 9779, "\u2581c": 277, "\u062c": 29156, "Sec": 6291, "n\u00e9e": 17969, "\u2d59": 31733, "_\\": 2801, "Fig": 10638, "\u2581associate": 18560, "\u2581namespace": 4772, "FER": 19627, "ose": 645, "dag": 22997, "\u2581brig": 20723, "\u2581Development": 10340, "LA": 8423, "\u2581gift": 7875, "\u2581coffee": 7045, "\u2581a\u00f1os": 11048, "\u2581songs": 9184, "ships": 14498, "\u1f41": 31528, "\u2581Transaction": 26524, "\u2581bonds": 22541, "Token": 3856, "\u2581et": 911, "\uac70": 30013, "\u2581Flash": 25164, "\u2581kam": 14899, "\u2581most": 1080, "questa": 23062, "controller": 11517, "auc": 14158, "\u2581sm": 991, "\u2581studied": 9604, "\u2581fed": 15441, "pref": 16697, "Del": 9489, "\u043a\u0435": 4026, "\u2581Nu": 17712, "my": 1916, "\u2581vom": 9322, "cp": 4743, "alph": 18089, "\u0432\u0435\u0440\u043e": 27489, "\u8d2d": 30207, "\u043f\u0430\u0440": 18265, "\u2581Kh": 11729, "isely": 11973, "zte": 14798, "\u2581Repub": 21441, "\u2581squeezed": 26131, "\u2581cents": 27337, "\u2581Mouse": 27873, "\u2581pros": 14138, "\u2581acknowledged": 23253, "ennial": 28339, "\u05d1": 29166, "Lif": 28461, "Default": 4158, "\u2581severe": 13645, "\u2581swallow": 25993, "){\\": 11544, "floor": 15261, "Sheet": 19565, "\u2581shared": 6431, "\u2581basement": 21466, "\u2581Bart": 14603, "Rend": 21544, "Prote": 22543, "\u2581farming": 25209, "\u9605": 30738, "\u2581intelligent": 18926, "\u2581Grade": 27073, "LOCK": 7588, "anches": 12655, "\u1eeb": 30965, "orters": 12283, "\u2581\u0447\u0435": 4640, "\u043d\u043e\u0432": 3568, "Variant": 21414, "orm": 552, "\u2581{'": 12012, "\u2581ao\u00fbt": 20402, "\u2581antib": 21679, "\u2581combinations": 26350, "\u2581grab": 7290, "\u2581quote": 13658, "skiej": 21603, "\u043e": 28761, "SUB": 16541, "ying": 2983, "cycl": 21369, "For": 2565, "Any": 9653, "real": 6487, "\u6302": 31431, "Price": 12304, ">';": 17021, "owe": 7443, "\u2581juris": 21716, "\u2581engaging": 19639, "lean": 7962, "ocks": 7712, "\u2581appearances": 21190, "pert": 2482, "book": 3521, "Method": 3942, "\u2581Pars": 25281, "\u552e": 30917, "Inject": 22079, "\u2581ar": 597, "obal": 1995, "YY": 16655, "\u2581preg": 25882, "\ub978": 30879, "Schedule": 22818, "\u62f7": 31850, "WriteLine": 23315, "VF": 27219, "\u0e18": 30057, "criptor": 5456, "\u2581par": 940, "\u2581Low": 13091, "\u2581finest": 21561, "\u00e1t": 4566, "h\u00f6r": 11730, "Partition": 20435, "\u2581Tun": 22756, "\u2581Liter": 12870, "\u2581Pretty": 24111, "\u2581Sum": 6927, "\u2581creative": 9811, "\ubb3c": 30895, "otic": 7839, "String": 1154, "\u2581Latin": 13729, "t\u00e9": 11414, "render": 6577, "aho": 24715, "\u2581ling": 17826, "\u2581batteries": 25267, "idade": 8669, "iterator": 11188, "\u2581buying": 9737, "\u2581\"#": 11441, "\u2581Memorial": 18506, "\u2581\u0441\u043e\u0441\u0442\u0430\u0432": 12281, "\u2581chosen": 8729, "\u2581creates": 12652, "BAD": 23787, "\u2581ignored": 11389, "date": 1408, "PI": 3110, "ikan": 13579, "horn": 26966, "seed": 17498, "MUL": 25586, "\u2581served": 6117, "\u2581fluctuations": 27951, "\u039f": 29865, "trm": 17800, "\u043a\u0440\u0430\u0457\u043d": 24226, "vals": 13175, "amples": 9874, "olf": 5209, "eting": 7323, "\u0448\u0438\u0445": 15994, "\u5c14": 30333, "constants": 23610, "\u2581warehouse": 27954, "\u2581Website": 17697, "\u2581simultaneously": 18134, "\u2581duration": 11964, "Argument": 8949, "\u2581\u0411\u0438\u043e\u0433\u0440\u0430\u0444\u0438\u044f": 25097, "\u2581associated": 5363, "\u2581wurden": 9031, "\u043a\u0442\u0438": 11856, "duration": 15458, "\u2581iteration": 23113, "\u2581download": 6726, "\u2581asp": 15577, "\u2581fears": 20142, "\u2581sevent": 11130, "\u2581bacter": 17884, "Export": 14975, "\u2581Campbell": 20760, "\u2581structured": 28429, "\u2581Holland": 23555, "\u2581Gru": 15296, "\u30c6": 29610, "BS": 8340, "Global": 8985, "\u2581finance": 15978, "\u2581households": 23755, "Sent": 26968, "retry": 23608, "ela": 4403, "ARY": 10713, "ographic": 12293, "\u2581sout": 17465, "\u2581CBS": 28233, "Autow": 25789, "ande": 5224, "mouth": 20123, "\u2581Sohn": 25364, "\u2581transfer": 5998, "\u01d0": 30372, "aj\u0105": 12152, "\u2581Conference": 13115, "pixel": 22078, "aky": 20996, "krieg": 21754, "\u2581generally": 6741, "dx": 12576, "\u2581\u0434\u0435": 3697, "unda": 12664, "\u2581Ni": 18001, "onders": 18758, "MOVE": 23521, "\u2581fast": 4102, "chan": 4298, "\u2581additionally": 26457, "\ub354": 30519, "\u2581Dr": 2985, "\u70b9": 29085, "Memory": 9820, "when": 11233, "uch": 903, "anted": 7266, "\u2581sous": 9886, "peror": 13910, "\u2581rage": 19490, "riculum": 21582, "Acc": 5604, "\u0161t": 14131, "\u2581est": 934, "\u6599": 29733, "\u2581schon": 26980, "\u2581lengths": 25458, "\u0447\u043e": 17795, "\u2581older": 6402, "\ub3d9": 29714, "\u2581abilities": 17866, "\uc554": 31436, "ency": 2090, "Paths": 23372, "\u0f58": 31606, "\u2581buzz": 21242, "\u2581selector": 14607, "\u2581excluded": 25751, "\u1f10": 30414, "\u2581backing": 21109, "\u2581consider": 1917, "\u2581\u043d\u0456": 24445, "\u94f6": 30661, "\u044e\u0449\u0438\u0439": 25036, "\u2581Cambridge": 14751, "\u2581likelihood": 24277, "zeug": 19152, "ills": 2767, "\u0432\u0456": 4093, "\u2581highest": 7881, "\u2581Cad": 21713, "opp": 25643, "\u2581rice": 13825, "xB": 18674, "\u017ee": 18765, "\u2581high": 1486, "\u2581genus": 24147, "iente": 8783, "hado": 25194, "\u0e43": 30096, "\u043c\u0435\u043d\u0442\u0430": 24455, "testing": 10163, "\u79cb": 31467, "\u2581JSON": 9292, "gt": 3606, "FP": 9564, "\u2581dod": 22216, "aa": 4474, "ashes": 14650, "\u2581showed": 6642, "DateTime": 11632, "\u2581highlighted": 27666, "\u2581worried": 10728, "\u00f4": 28906, "\u2581Caption": 6534, "igator": 17769, "\u2581ils": 19255, "\u2581machine": 5599, "AND": 5208, "\u2581\u043f\u0430\u0440\u0430": 28370, "\uc5c5": 30279, "cott": 27191, "\u2581dogs": 9540, "iler": 5809, "glas": 15611, "way": 1128, "\u2581Appendix": 26589, "\ubcf5": 30357, "\u2581song": 4034, "\u2581gold": 5014, "missing": 22324, "ruct": 866, "builder": 10151, "\u2581Auth": 15579, "\u2581\u0434\u0443": 13664, "ilo": 10630, "\u2581Trad": 17581, "DU": 11788, "Lookup": 19508, "\u2581nuevo": 23609, "inger": 4576, "\uc54c": 30976, "\u2581Friend": 13109, "\u2581Fort": 6963, "\u2581but": 562, "\u2581augment": 20836, "\u2581Joseph": 8218, "webpack": 9091, "asts": 10617, "\u0437\u0432\u0430": 10246, "\u2581accord": 13246, "\u2581borders": 22902, "\u2581marzo": 15230, "\u2581participants": 12850, "external": 18735, "Finder": 25121, "memset": 21253, "attan": 18244, "\ud83d\ude2d": 29985, "!=": 14379, "\u2581),": 6223, "imately": 9807, "Allowed": 23278, "elia": 21657, "eren": 9417, "\u2581chaque": 27424, "PECT": 5519, "\u2581resume": 17863, "\u2581dignity": 27182, "\u2581italien": 27709, "\u2581feedback": 12139, "ward": 1050, "\u2581likely": 3917, "\u2581Carlos": 13867, "\u2581instinct": 16823, "\u2581schools": 7373, "\u2581positive": 5278, "owej": 13433, "\u2581Ap": 4002, "\u2581royal": 13753, "\u2581Tru": 13799, "\u2581upstairs": 21855, ")=": 6706, "\u2581ser": 1201, "\u2581config": 2703, "codec": 10989, "\u2581spawn": 23131, "\u2581suspected": 18648, "fen": 16926, "scrib": 23418, "\u02bf": 29343, "\u2581nelle": 20663, "Criterion": 28336, "unfinished": 6921, "\u2581correspond": 10384, "otion": 5318, "\u2581comprend": 23913, "\u2581comes": 3435, "\u2581thick": 6931, "\u2581stopping": 17203, "pto": 25892, "\u2581random": 5509, "ze\u015b": 21902, "BM": 12871, "kov": 12577, "\u2581victims": 13980, "istribut": 7880, "\u2581testimony": 23648, "\u2581average": 5151, "memcpy": 19290, "?;": 25215, "\u2581Survey": 24004, "NOP": 26389, "\u2581burden": 18396, "\u2581\u00d7": 15770, "\u2581fins": 22339, "\u2581sympathy": 26453, "Hom": 25792, "\u81f4": 30176, "\u2581\u0442\u0440\u0430": 13854, "\u2581Dog": 13311, "\u2581Adm": 19426, "\u2581proceedings": 28096, "Mag": 14749, "History": 13266, "\u2581lists": 13751, "\u2581shoot": 6041, "isc": 8286, "\u2581vit": 11781, "isten": 13866, "\u2581Hur": 15697, "Sl": 5474, "\u2581inher": 9677, "\u2581accounting": 20595, "foreach": 15160, "white": 10635, "\u2581jew": 13564, "His": 21860, "\u2581waters": 15507, "\u2581impro": 3267, "\u2581ignorance": 27627, "\u2581voll": 28353, "\u2581performs": 25597, "RD": 15363, "\ud83d\ude80": 30012, "appy": 9813, "Hand": 2641, "icians": 8019, "tables": 22002, "\u2581tip": 7230, "\u2581\u0431\u044b\u043b\u0430": 13342, "efined": 4761, "\u2581Row": 14392, "outine": 22458, "ried": 1638, "components": 9048, "itan": 11374, "\u2581shipped": 27634, "assets": 14396, "\u2581\u0445": 6457, "\u620f": 30727, "\u2581portal": 21474, "erna": 17995, "xygen": 19303, "\u2581st": 341, "eqn": 5030, "\u2581USE": 13467, "\u2581chances": 14562, "\u2581Most": 4822, "rupted": 17488, "\u2581mixture": 16232, "\u0434\u0435\u043d": 6775, "\u2581strange": 8708, "\u2581review": 4058, "tm": 11099, "\u2581vehicle": 8114, "inputs": 17502, "iki": 7137, "quare": 9415, "\u2581amplitude": 24157, "ops": 2599, "arguments": 16684, "\u2581diss": 9792, "\u2581\u043f\u043e\u0441\u043b\u0435\u0434": 25354, "'_": 16314, "\u2581\u0434\u0438\u0432\u0438\u0437\u0438": 27728, "\uae30": 29164, "owa\u0142": 11406, "\u6bcd": 30518, "\u2581front": 2778, "\u2581president": 4951, "pgf": 5076, "\u2581classic": 11495, "\u2581Buffalo": 28100, "quis": 11225, "\u2581peque": 25104, "\u2581\u043f\u043e\u0431\u0435": 23136, "\u2581Bast": 27241, "\u2581roi": 23144, "\u2581\u0441\u0442": 4887, "\ud83d\udc4d": 30195, "\u2581pseudo": 26191, "\u2581lord": 18263, "\u2581alto": 28077, "\u2581Sen": 5355, "\u2581RT": 17059, "\u2581Exper": 11135, "Feature": 11636, "mal": 10009, "getInstance": 16413, "ehicle": 21282, "builtin": 24916, "\u793c": 31195, "\u2581citt\u00e0": 20377, "')\r": 22186, "\u2581Colin": 25380, "\u623f": 30376, "\u2581hyp": 8178, "\u2581``": 5008, "ions": 594, "wallet": 23673, "\u2581otto": 24127, "\u2581\u043f\u043e\u043b\u044c": 27904, "\uc131": 29465, "unted": 15227, "\u2581accomplished": 20141, "\u2581sold": 3910, "\u2581s\u00e5": 12428, "\u2581Daily": 16955, "\u2581comparing": 21400, "omen": 4361, "uggest": 16939, "\u2581\u043e\u0431\u044a": 18661, "\u2581demo": 23969, "INGS": 26559, "acja": 22218, "\u2581m\u00fasica": 23522, "cing": 4669, "\u0432\u043e": 1175, "\u2581gains": 21722, "\u671f": 29275, "omena": 26504, "processor": 24424, "\u62ec": 30574, "ByComparator": 23270, "\u2581Kenya": 28455, "REQUEST": 16396, "Been": 27927, "\u2581Ka": 16121, "Bound": 13100, "\u2581firing": 20076, "\u2581expertise": 14900, "inus": 22914, "\u2581injured": 15714, "\u2581ruled": 20080, "\u2581Kultur": 27929, "={()": 26931, "\u2581membr": 25983, "ijing": 25168, "ondo": 23743, "xf": 7542, "\u2581Queens": 19689, "\u2581services": 3345, "\u2581Break": 15102, "\u02dc": 30742, "ari": 1900, "\u2581Seattle": 18083, "\u2581otherwise": 5860, "\u2581blow": 9716, "Local": 6154, "\u2581drums": 25697, "\u6b4c": 30509, "ustom": 1635, "\u2581G": 420, "\u2581material": 3388, "\u2581\u043c\u043e\u0436\u0435": 16903, "\u2581Airport": 16795, "\u2581Hawai": 18839, "States": 25096, "\u2581company": 2496, "elve": 11047, "NUM": 9818, "\u2581fus": 26400, "\\\\": 2214, ".\")": 17169, "\u2581nom": 3334, "dataset": 18200, "\u2581aws": 20933, "toString": 7127, "RI": 8671, "\u2581Planning": 23542, "\u2581cr\u00edt": 27965, "\u2581electro": 22154, "\u2581jun": 6362, "\u2581Han": 8225, "symbol": 11535, "liga": 15314, "\u2581Member": 15178, "ockets": 18473, "\u0441\u0441\u0438": 6993, "\u2581independence": 17253, "reme": 6730, "\u274d": 31895, "VT": 10098, "\u064a": 28972, "timer": 10179, "\u2581offensive": 17381, "Str": 3490, "\u2581engineers": 22488, "\u2581Logan": 27072, "\u2581duty": 11193, "\u521b": 29349, "_);": 13400, "\u2581Sam": 4157, "\u2581Rain": 17774, "implement": 26922, "\u4e4e": 31981, "\u2581Battle": 13711, "\u2581anxiety": 12758, "ict": 848, "\u2581twisted": 18337, "___": 8485, "joy": 3258, "ussian": 12897, "\u2581\u00f6ver": 14509, "\u2581ball": 4374, "\u2581\"*": 12406, "\u2581shallow": 21660, "\u2581sens": 3564, "\u2581Tests": 25810, "worth": 11360, "\u2581assess": 8084, "EINVAL": 10902, "\u2581convers": 5315, "Follow": 28093, "ulp": 20784, "\u72c2": 31969, "\u2581refuge": 14815, "\u2581suoi": 22452, "\u529f": 29206, "$_": 11914, "\u2581inline": 12901, "GI": 22576, "\u02c8": 29097, "sys": 6609, "\u2581FIXME": 26842, "\u2581\u0431\u043e\u043b\u044c": 15735, "Prefix": 11330, "heck": 2543, "\".": 2586, "\u2581duties": 17401, "ki": 3430, "gebiet": 20794, "\u2581feel": 1601, "\u2581implement": 4808, "USE": 7943, "\u2581knocked": 18625, "\u2581up": 582, "\u2581requested": 11939, "\u2581\u0442\u0430\u043a\u043e\u0436": 20768, "\u2551": 30019, "home": 9029, "\u2581mit": 2367, "vin": 8830, "\u2581estab": 3582, "amment": 16602, "\u2581driv": 4980, "\u0443\u0442\u0431\u043e": 18953, "\u2581keine": 22712, "\u2581become": 2727, "\u2581volunt": 21522, "beck": 23698, "\u2581Rebecca": 26014, "trait": 27897, "\u2581extensive": 13571, "\u2581dabei": 28395, "verts": 24873, "\u2581Ep": 14710, "\u2581translated": 19004, "ancers": 25799, "aneous": 18834, "heit": 12307, "\u2581scientific": 10469, "\u2581\u043e\u043a\u0440\u0443": 15119, "\u0013": 30453, "\u2581say": 1315, "\u2581Temple": 16099, "\u2581toys": 22170, "\u0218": 29344, "translate": 18094, "li": 1144, "lst": 26816, "gy": 1495, "\u2581dici": 23241, "Region": 11518, "\u043e\u0440": 3135, "\u2581brain": 6387, "\u2581*(": 6902, "']);": 13932, "\u2581colors": 9304, "\u043d\u0435\u0435": 21083, "\u2581Th": 542, "\u2581America": 4352, "\u2581Git": 27903, "\u2581forever": 10739, "\u2581Schema": 24051, "\u2581background": 5414, "roy": 3674, "\u2581cloud": 6945, "\u2581bom": 12793, "\u2581THIS": 13624, "\u2581phrases": 27512, "\u25c6": 31237, "\u2581ocean": 13993, "\u2581must": 1580, "\u2581save": 4602, "\u2581abc": 18641, "\u2581Commercial": 24551, "\u0442\u0440\u0438": 11163, "\u2581Lion": 23236, "ad\u00e9m": 27382, "taient": 21035, "\u00edses": 27075, "Obj": 7017, "\u2581dar": 8448, "Diff": 18331, "\u2581Sto": 16774, "\u2581dens": 16687, "\u2581Anders": 24930, "\uc1a1": 30949, "igent": 21531, "\u2581ext": 1568, "\u2581online": 3270, "\u2581conclude": 18429, "\u2581revenue": 14008, "phant": 17953, "Links": 28416, "\u2581socks": 27987, "uart": 15499, "\u2581pobl": 12226, "\u2581flush": 19329, "wicklung": 25739, "oustic": 27621, "iors": 13771, "mut": 3244, "\u2581inside": 3416, "\u2581iz": 9345, "writing": 19061, "\u2581bail": 21010, "\u2581confess": 26920, "inas": 14321, "\u2581bitch": 20006, "\u2581Perhaps": 9447, "sta": 6514, "round": 888, "\u2581Nov": 8515, "\u2581clinic": 24629, "SHA": 18577, "\b": 31129, "\u672a": 29509, "\u2581\u00ee": 4591, "\u2581expl": 1949, "\u2581ded": 5589, "\u2581William": 4246, "iesz": 17944, "in": 262, "throw": 10847, "\ubc30": 30403, "*\r": 13667, "\u2581inflation": 20613, "Drag": 18383, "\u2581engaged": 13173, "eca": 19296, "\u2581Pav": 23333, "\u021bii": 24006, "\u2581id": 1910, "\u2581typ": 2514, "\u4e5d": 30807, "with": 3415, "\u2581Serie": 20807, "km": 8251, ".^{[": 22803, "\u2581Azure": 24769, "\u0386": 31392, "heart": 14754, "height": 4880, "\u2581Both": 7829, "\u2581Sud": 9099, "AA": 3598, "kar": 13600, "\u2581healing": 15932, "\u0442\u0430\u0440": 18613, "\u2581heated": 26853, "store": 5987, "\u2581\u041f\u0440\u043e": 12119, "frag": 19221, "\u2581uses": 6098, "\u8054": 29821, "\u2581uw": 14190, "\u2581ing\u00e5r": 11169, "\u03b1": 28948, "\u2581Butler": 28070, "\u2581miejsce": 22307, "\u2581Afghanistan": 19756, "\u0440\u0438\u0438": 10033, "\u2581Zach": 26926, "\u2581Lem": 10556, "\u2581attribute": 6836, "ira": 4807, "\u043f\u0440\u043e": 8378, "\u2581categor": 20577, "\u2581clim": 6423, "\u2581Yu": 26424, "prit": 25450, "\u6d32": 31564, "rez": 11223, "\u2581wrapper": 18491, "Build": 9458, "\u2581course": 2363, "\u2581coefficient": 23982, "DC": 6513, "\u2581exempl": 18688, "\u2581before": 1159, "organ": 8974, "\u2581fully": 5894, "\u2581embod": 21322, "\u2581banking": 22265, "\u2581Pearl": 25895, "\u03bf": 28958, "\u7f29": 30250, "ouri": 17337, "\u2581charts": 23332, "\u0921": 30792, "\u2581hers": 4257, "\u53e6": 31127, "\u4eea": 31842, "\u2581Pow": 14326, "\u2581bien": 9628, "mont": 15026, "\u2581rendering": 24921, "pon": 766, "\u2581cuando": 13447, "\u2581fis": 18445, "`);": 28682, "\u2581paint": 6192, "entes": 11829, "bs": 1816, "ears": 5940, "\u2581intense": 14373, "\u63d0": 29279, "Pi": 14240, "\u2581einer": 5984, "\u2581Poll": 19116, "try": 1553, "\u2581earth": 6340, "Because": 17098, "incing": 26455, "Tensor": 15705, "\u2581circulation": 27307, "\u2581shiny": 27348, "UTE": 13401, "\u2581alignment": 19492, "\u2581Nik": 11952, "yout": 16478, "\ud310": 31334, "\u2581pr\u00e9sent": 23428, "\u2581dimension": 9711, "wen": 10654, "citet": 15542, "\u0432\u044b\u0435": 16072, "Master": 16060, "\u2581z\u00e1": 19269, "holders": 15523, "\u0441": 28788, "kie": 23383, "uc": 1485, "smithy": 23512, "\u2581advis": 14309, "holder": 8229, "\u2581breed": 14559, "\u2581Around": 22166, "\u2581realize": 8168, "\ud83d\ude14": 31303, "izontal": 9727, "bit": 2581, "\u2581blade": 17743, "Partial": 25049, "lista": 26965, "iens": 12306, "adelph": 14255, "\u2581identical": 15792, "GroupName": 16477, "spl": 15213, "berg": 4146, "\ud83d\ude0d": 30819, "\u2581poss": 1672, "\u2581delicate": 21829, "\u2581waves": 13295, "a\u00f1a": 15568, "\u2581disability": 25822, "aro": 10281, "events": 10829, "\u2581AI": 16107, "\u2581CONDITION": 12016, "CV": 19667, "iv": 449, "\u0010": 30388, "\u2581arrangement": 19705, "\u2581fragment": 13693, "CSS": 19633, "etime": 6244, "\u2581selfish": 26206, "\u2581intimate": 22772, "\u56e2": 30756, "\ub974": 31091, "\u2581Sci": 6989, "\ud83d\ude0e": 30817, "\u2581located": 5651, "\u2581formerly": 26422, "ashion": 7106, "\u2581revenge": 25824, "inates": 10218, "\u2581lingu": 24017, "Icon": 7269, "\u2581flaw": 22904, "\u2581ferm": 17310, "BUG": 5506, "\u2581visitors": 12085, "sbur": 20891, "\u2581availability": 18858, "KERN": 14522, "abase": 3975, "ropolitan": 22159, "ata": 563, "\u2581agency": 11344, "\u2581\u0432\u0435\u043b\u0438": 18755, "\u0437\u044b": 7763, "errors": 9705, "}}_{": 16125, "\u2581Emperor": 20709, "\u804c": 31353, "\u2581\u2581\u2581\u2581\u2581\u2581\u2581": 5390, "\u2581ka": 18782, "\u043a\u043e\u043c": 7830, "\u043c\u043e\u0432": 19264, "\u2581n\u00e9": 8688, "ano": 2503, "Checked": 19154, "\u534a": 30458, "%": 28823, "\u2581intellectual": 15984, "block": 3356, "\ud83d\ude05": 30379, "\u2581amplit": 18505, "MAG": 16271, "mid": 8041, "\u2581{{": 13949, "\ud3c9": 31523, "\u2581Skip": 24419, "\u2581occasion": 8778, "\u2581Lau": 28128, "\u2581decision": 5161, "letter": 15867, "\u2581sound": 2622, "\u2581to": 298, "lv": 21055, "feature": 10453, "\u2581Medal": 21097, "\u2581sensor": 16082, "\u2581cooking": 13198, "\u2581perd": 17266, "\u2581ten": 3095, "\u2581Always": 17484, "\u02cc": 30636, "endant": 8090, "tan": 20999, "erten": 28645, "\u2581debug": 10183, "\u2581cycles": 23221, "\u2581ten\u00eda": 23396, "ifts": 9037, "\u2581scan": 12794, "\u2581Matrix": 22711, "destination": 20333, "\u2581\u0423\u043a\u0440\u0430\u0457": 15516, "\u0444\u0435": 8633, "\u2581overseas": 24102, "\u2581vari": 3090, "\u53d6": 29012, "\u2153": 31216, "\u5c97": 31983, "mel": 12625, "required": 10893, "\u2581soll": 15746, "bigg": 21117, "\u043b\u0451": 21814, "ingen": 10814, "\u2581predictions": 20596, "\u2581\u0430\u043a\u0442\u0438\u0432": 24735, "\u2581spot": 6297, "Arg": 4637, "\u2581\u0430\u043a\u0430\u0434\u0435": 27820, "tbl": 15316, "emi": 17957, "\u03a6": 30349, "\u2581prow": 23920, "\u2581holding": 6632, "\u2581Hor": 8221, "iliary": 27967, "Leg": 14537, "lock": 1607, "\u2581op": 931, "idd": 2558, "\u0441\u043b\u043e": 12309, "\u2581DCHECK": 22643, "\u589e": 29660, "\u2581Georgia": 13188, "\";\r": 11880, "independ": 26982, "\u2581giving": 5239, "\u2581exemple": 26260, "Test": 1963, "\u2581send": 4080, "Null": 4238, "\u2581entonces": 26451, "\u10d1": 29704, "\u2581lens": 19642, "\u0440\u0430\u044f": 26487, "\u2581///": 1954, "\u2581Partner": 28382, "\u2581fake": 11260, "\u2581Male": 23304, "\u2581dre": 21808, "\u2581address": 2962, "\u2581Studios": 24545, "\u2581Ster": 26103, "BYTE": 18290, "ANT": 12738, "eled": 19691, "\u2581dp": 21492, "\u2581Nom": 13055, "\u2581defines": 18791, "\u2581right": 1103, "\u2581frustration": 22802, "Mill": 14667, "covery": 8841, "reation": 14318, "\u2581techn": 2412, "\u2581peers": 21907, "War": 24378, "\u2581recognised": 28549, "Monitor": 19606, "\u2581d\u00e5": 19774, "<0xAB>": 174, "LP": 11661, "\u2581IN": 2693, "\u0435": 28773, "\u3082": 29778, "\u09b6": 31275, "\u2581enthusi": 18185, "\u05e4": 29467, "using": 8521, "\u2581missing": 6925, "ottage": 21881, "\u2581}\r": 3426, "\u2581Si": 8693, "\u9ed8": 29392, "\u2581Spencer": 27325, "\u2581coastal": 27809, "fd": 5534, "Page": 4068, "\u2581SET": 17638, "\u2581\u0416": 11000, "Random": 14735, "\u2581pow": 5323, "\u2581altri": 22861, "\u0442\u0435\u0440\u0438": 14187, "\u5f9e": 31517, "Met": 4680, "\u00e2": 28891, "tok": 11178, "\u2581fusion": 22104, "\u2581consultation": 24880, "\u2581sl\u00e4ktet": 12645, "riev": 10212, "signed": 2782, "MB": 5953, "\u0401": 30256, "andro": 20082, "Arm": 26610, "\u2581instant": 10990, "ribut": 1030, "\u2581platforms": 14926, "Warn": 17291, "img": 5422, "\u2581Lag": 20997, "\u2581tomorrow": 10759, "Branch": 21822, "\u2581Li": 11469, "\u2581Pays": 26828, "\u2581bur": 4564, "ier": 749, "\u2581defect": 18366, "']": 1421, "language": 11904, "\u2581around": 1401, "emark": 21819, "\u2581m\u00fas": 18855, "\u2581Alberto": 27185, "\u2581foot": 3331, "\u2581stomach": 11752, "\u2581abandon": 8941, "\u2581Living": 16303, "\u8d25": 29384, "crit": 12724, "ROOT": 20045, "oft": 24485, "YP": 26058, "\u2581Schaus": 26693, "\u2581not": 459, "\u2581executed": 15731, "<0x84>": 135, "\u2581appet": 22145, "\u2581camps": 18497, "\u2581nahm": 28196, "chem": 23164, "\u2581Roberto": 27996, "ktop": 13439, "rough": 996, "blog": 14275, "]]": 7700, "\u2581Extra": 26494, "Sync": 10567, "\u2581mental": 8057, "\u2581Pont": 19745, "\u2581convex": 26970, "ilibrium": 21092, "itable": 5379, "netdev": 25583, "enable": 7235, "\u2581\u0425\u043e": 18797, "oct": 22008, "\u2581Table": 7582, "\u2581Lars": 27305, "altern": 28604, "preventDefault": 24744, "reci": 6506, "ettes": 26316, "ises": 3900, "\u2581minist": 15910, "\u2581Team": 6867, "*/": 1075, "\u2581Ray": 8952, "\uc2e0": 30126, "\u2581characterized": 23100, "\u2581ex": 439, "\u4f1a": 29179, "izaci\u00f3n": 24469, "ilians": 24959, "'),": 4829, "\u2581vl": 14397, "\u2581Smart": 17285, "\u2581Quest": 11657, "igten": 27598, "\u064e": 29104, "\u75c5": 30962, "ymbol": 2709, "\u2581Hend": 18588, "urers": 13505, "Proxy": 11950, "raction": 18296, "\u2581junio": 25942, "\u2581Corporation": 12377, "\u2581Buc": 28053, "\u2581autom": 4607, "UT": 1765, "\u0446\u0438\u0430\u043b\u044c": 18878, "\u2581Rosen": 23368, "\u2581referred": 11449, "omorphic": 22631, "\u2581loans": 15556, "\u2581Castle": 17085, "folk": 25317, "\u2581immediately": 5347, "orable": 26274, "\u2581Air": 5085, "\u2581model": 2229, "\u2581Bas": 6827, "ClassName": 19452, "\ud83c\uddfa": 31637, "\u2581human": 2930, "uman": 6366, "usage": 16052, "oplus": 17744, "hid": 26096, "\u2581memory": 4733, "\u2581mix": 6750, "\u2581Pin": 17929, "fs": 2547, "\u2581probe": 21227, "yaml": 26121, "\u0448\u0438\u0439": 18702, "it\u00e9s": 13782, "en\u00ed": 16640, "\u2581\u0441\u0435": 2310, "\u2581tras": 11431, "cie": 9041, "\u2581seiner": 11366, "\u2581anni": 13512, "amon": 22686, "\u2581dub": 16050, "Private": 12455, "\u2581Players": 26500, "\u2581just": 776, "\u2581directory": 9118, "\u0577": 31801, "\u2581Und": 19870, "\u2581released": 5242, "fred": 24222, "\u2581\u041e\u0442": 18998, "\u2581Local": 9553, "\u2581Kel": 21564, "\u2581Franco": 28289, "chg": 18689, "\u2581survived": 16761, "\u2581naam": 14276, "\u2581supported": 6615, "osta\u0142": 10406, "(_": 4831, "inian": 19628, "\u2581enemies": 15139, "\u2581Tu": 16063, "\u2581helic": 19624, "\u2581ihre": 17080, "\u2581Milan": 23600, "\u2581Estados": 16737, "\u2581Who": 6526, "*)": 2523, "\u2581satisfy": 15836, "\u2581Mode": 21748, "\u6c60": 30647, "andid": 4225, "\u2581blocks": 9478, "hemal": 22678, "\u2581Unless": 9954, ")\");": 18490, "aty": 20721, "ktor": 22605, "ceed": 3988, "qs": 25065, "\u2581enable": 8234, "Ident": 8876, "\u2581mobile": 7578, "\u2581highlight": 12144, "State": 2028, "End": 3861, "\u2581Saf": 12512, "'));": 12941, "itzer": 13744, "\u2581bu": 957, "Prom": 19967, "angu": 2374, "\u2581equ": 1734, "\u2581Rog": 9214, "\u0437\u0432\u043e": 22392, "\u2581ihren": 24461, "_{-": 22729, "rick": 9450, "\u2581Haven": 24077, "\ub3c4": 29599, "(@": 10680, "\u2581vie": 11198, "\u2581pie": 3447, "\u2581peer": 13669, "prints": 25580, "bytes": 6845, "<0xD9>": 220, ")}(": 20089, "\u2581Ob": 2645, "\u2581sn": 2502, "\u2581casual": 13316, "Fatalf": 28423, "review": 22733, "chten": 23708, "prototype": 6633, "uple": 7723, "\u2581June": 4212, "Card": 9139, "\u2581quantities": 21709, "\u2581\u00dc": 13156, "\u2581Type": 5707, "\u2581modify": 9239, "\u2581worthy": 21220, "\u2581jan": 10060, "\u05d3": 29317, "\u2581Pe": 3242, "\u2581losses": 16275, "hui": 24281, "ori": 6519, "\u2581its": 871, ".....": 24694, "\u2581surg": 24130, "view": 1578, "rir": 28441, "\u2581cs": 7428, "\u2581B\u00fcr": 26122, "\u2581${": 6051, "CT": 1386, "\u2581Seven": 21283, "<0x41>": 68, "\u2581\u0438\u043b\u0438": 10476, "(\"<": 21784, "\u2581composer": 24983, "\u2581espa": 19674, "\u2581cin": 7132, "idan": 27966, "ografie": 16976, "\u2b1c": 31636, "amiliar": 27195, "DAY": 24841, "\u2581logo": 16388, "st": 303, "\u2581adopted": 13424, "\u2581belief": 12519, "schema": 10258, "\u2581mismo": 16511, "\u2581Madison": 20503, "\u2581&&": 1208, "\u2581implementing": 27068, "\u2581merchant": 23818, "\u2581Mod": 3813, "\u2581\u0422\u0430\u043a": 26897, "omes": 28548, "\u2581/*": 1385, "\u2581ot": 6957, "\u2581retail": 11603, "\u2581\u041a\u043e": 5779, "Strip": 18629, "\u2581titre": 20360, "\u0421": 28844, "\u2581unfair": 25340, "lev": 2303, "HEAD": 13404, "\u2581ignoring": 22484, "\u2581advised": 21020, "Label": 4565, "\u2581irq": 23747, "DATA": 7954, "\u2581Dob": 26737, "cov": 25199, "hop": 19463, "plic": 1256, "fa": 6024, "\u2581existe": 26766, "\"):": 21021, "\u04d9": 30141, "\u2581scoring": 20310, "formation": 1517, "\u2581milk": 10992, "\u2581src": 5069, "\u2581N": 418, "\u2581roles": 12426, "once": 11069, ".),": 14439, "HEADER": 23685, "\u1f70": 31235, "amount": 12922, "interface": 9326, "\u2581',": 15246, "\u2581\u0447\u0435\u0440\u0435\u0437": 20085, "\u2581drap": 26093, "\u2581Hel": 5424, "\u00e9v": 8507, "\u03c6": 29307, "\u2581form": 1221, "rd": 5240, "rip": 5386, "\u2581by\u0142": 18389, "\u2581copyright": 9934, "ke": 405, "\u2581pont": 20687, "\u2581phen": 11315, "\u2581neces": 24101, "\u2581graduate": 16174, "\u2581Won": 27611, "\u2581Science": 9323, "Phone": 11181, "rist": 1853, "\u0440\u0438": 892, "group": 3063, "<0x50>": 83, "plied": 3002, "\u2581renew": 13293, "ayout": 2633, "ittest": 27632, "kill": 20430, "\u2581Bronnen": 13228, "too": 24979, "\u2581theoret": 15007, "\u2581sacrific": 22074, "\u0440\u043e\u0434\u0438": 21145, "\u043c\u0438\u0440\u0430": 23797, "\u2581addressing": 24643, "form": 674, "\u2581Every": 4203, "\u2581carb": 24167, "\u2581sin": 5450, "isf": 4281, "\u2581roads": 15014, "\u05d9": 29005, "\u2581standards": 9890, "GS": 17580, "\u2581shot": 5180, "\u2581Lou": 5105, "\u2581slowly": 7160, "ebook": 16376, "\u65e2": 31643, "\u2581erhielt": 23203, "\u00c4": 28999, "\u2581\u041c\u0435\u043a\u0441\u0438": 27720, "ilen": 27748, "ami": 6449, "\u2581turns": 8617, "\u2581disappoint": 10734, "Requ": 1924, "MO": 4095, "FIX": 13286, "\u0440\u043e\u043d": 11197, "Request": 2212, "\u2581explosion": 22258, "\u2581Alt": 16589, "Spe": 24812, "\u2581thirteen": 26584, "\u2581But": 1092, "def": 1270, "arga": 26538, "\u2581Quick": 16652, "bo": 1798, "\u2581agreed": 5825, "mma": 19634, "\u2581volume": 7531, "\u2581reun": 22528, "\u2581\u0441\u0435\u043d\u0442\u044f\u0431\u0440\u044f": 25803, "\u2581occurred": 9894, "picture": 15847, "find": 3326, "\u0448\u0438": 3107, "\u2581Div": 5812, "riet": 13769, "iejsc": 18840, "alin": 18107, "\u2581athletes": 23403, "\u2581i": 613, "\u2581low": 2859, "\u0402": 29278, "zeich": 10738, "LOBAL": 18898, "\u00ce": 28992, "\u0441\u0442\u0440\u043e": 9571, "\u2581oraz": 13755, "\u2581+\\": 16473, "<0xBB>": 190, "\u5bb3": 31346, "\u4f24": 31546, "\u043c\u043e": 2200, "\u2581Mr": 2964, "Base": 4062, "\u2581Api": 23240, "ibli": 10798, "\u2581Ort": 14878, "\u2581if": 513, "\u2581doctor": 6676, "\u2581cast": 4815, "\u2581synchron": 14941, "est": 374, "\u2581peripher": 27707, "eless": 6199, "bourg": 20461, "\u5f69": 30902, "\u2581nasty": 26092, "\ud83d\udc8e": 31203, "\u2581appears": 8045, "swing": 11064, "\u2581detail": 8291, "\u2581Phot": 12719, "\u2581consequence": 17255, "\u2581visible": 9141, "\u2581informed": 12903, "\u2581early": 2935, "\u2581personas": 22796, "\u53cc": 30524, "let": 895, "\u2581message": 2928, "\u2581blocked": 18770, "\u179b": 30964, "\u1ed7": 30926, "Def": 2469, "\u2581Move": 13663, "De": 3337, "atern": 14516, "call": 2845, "\u0f66": 30996, "ainer": 2542, "\u2581disc": 2312, "\u2581Super": 6077, "\u2581Sure": 12875, "\u0148": 29026, "\u2581m\u011b": 18076, "DAI": 22715, "\u2581Januar": 17649, "ource": 780, "\u2581Expect": 28468, "olu": 17760, "\u0142": 28843, "Models": 13736, "Foreign": 23314, "\u2581truth": 5307, "\u2581larg": 3201, "IMPORT": 15101, "\u2581Integr": 18208, "\u2581Historical": 23625, "\u2581\u0443\u0447\u0435": 28472, "\u00fct": 11270, "\u2581bond": 9410, "export": 12707, "\u2581globe": 21889, "\u2581\u0412\u0438": 9451, "\u2593": 31024, "\u2581ign": 4303, "ells": 8855, "\u2581Bruce": 16668, "se": 331, "\u2581fmt": 9755, "\u2581ImGui": 21316, ",(": 20786, "\u2581environ": 14453, "\u2581till": 4861, "AspNet": 13205, "\u2581Services": 8074, "\u2581environmental": 12507, "_{{\\": 17541, "\u2581cement": 22701, "oks": 25808, "\u2581Edinburgh": 25970, "\u2581Result": 6760, "\u5c71": 29480, "eff": 6610, "tpl": 21279, "\u2581technology": 5514, "oirs": 27986, "\u2202": 31698, "\u00e1nak": 25452, "Headers": 11871, "\u2581Films": 28243, "\u2581Gir": 25560, "\u2581comfortable": 8450, "\u6a02": 31918, "TRUE": 9331, "Builder": 3686, "\u2581accompany": 17039, "\u2581term": 1850, "\u2581ale": 12121, "\u043f\u0435\u0440": 10890, "xim": 5152, ")):": 24770, "\u03cc": 29212, "\u0e09": 31338, "\u2581Murray": 19973, "\u2581$\\": 878, "addle": 14539, "\u2581restr": 6134, "Subscription": 19590, "\u2581scratch": 15147, "\u2581X": 1500, "}\r": 2519, "Mesh": 14952, "VR": 18240, "\u3068": 29316, "\u2581warm": 6100, "\u25a1": 30618, "localhost": 20816, "\u2581aest": 20429, "\u2581Voice": 25815, "\u7956": 31499, "\u2581enorm": 12151, "\u5de6": 29907, "\u266f": 30905, "get": 527, "INSTANCE": 25956, "\u2581temp": 7222, "\u2581Assembly": 12033, "odi": 16267, "\u0012": 30298, "Bot": 25288, "\u2581greed": 25173, "agues": 11723, "CN": 15126, "Site": 17606, "\u2581aren": 5405, "\u2581Vo": 15800, "pte": 25526, "\u8f38": 31164, "\u2581Phil": 4322, "\u1d00": 31093, "aze": 7273, "Vertical": 24647, "<0xF5>": 248, "\u2581neighborhood": 10501, "\u30ae": 31307, "oine": 21265, "tiny": 25149, "\u2581(__": 27534, "\u255a": 30706, "enda": 9279, "Views": 24252, "oth": 999, "\u2581outer": 12859, "\u4e07": 30568, "\u2581think": 1073, "\u2581crit": 3190, "\u2581Niger": 15501, "\u2581\u043f\u0456": 28442, "\u2581Spain": 12567, ":-": 18684, "\u0409": 30215, "How": 5660, "\u2581jam": 15219, "Node": 2259, "\u2581complement": 16696, "\u2581Course": 19688, "\u2581vaccine": 21250, "\u2581S\u00fc": 24365, "com": 675, "Simple": 13256, "\u2581inherit": 22492, "\u2581\u00e1ll": 21009, "\u8a08": 30629, "\u2581person": 1338, "rom": 436, "\u51fa": 29065, "\u2581Claude": 26836, "ucture": 8187, "\u00fcnd": 9744, "\u0432\u0430\u043d\u0438\u044f": 22588, "selector": 15438, "uti": 18123, "\u043a\u043b\u0430": 7847, "zing": 14508, "(`": 11045, "\u2581poc": 21688, "that": 6087, "\u2581\u0440\u0456": 15629, "Project": 8216, "rh": 28352, "\ub0a8": 31183, "\u82f1": 30193, "\u2581ella": 19880, "flex": 13971, "\u2581kingdom": 17782, "Source": 4220, "\u2581finger": 9728, "oren": 6736, "Prim": 18888, "\u2581scope": 8593, "\u2581Daniel": 8103, "\u2581ic": 19699, "Can": 6325, "\u2581everywhere": 11321, "Channel": 7766, "\u2581city": 2990, "encing": 10695, "\u2581illustr": 8740, "\u9589": 31964, "arry": 12255, "unge": 21614, "\u2581patch": 11780, "\u0e25": 29394, "CALL": 13741, "\u2581Entertainment": 20214, "\u2581liquid": 12213, "\u2581Vel": 14812, "\u2581ali": 19974, "\u2581Cr": 4603, "\u2581triple": 22212, "\u05b9": 30600, "\u2581Fil": 4059, "\u2581recur": 18901, "\u2581Roger": 14115, "\u2581inch": 17013, "\u2581Marcus": 22194, "\u2581distances": 24224, "\u043a\u0442\u043e": 13483, "\u2581degener": 24507, "ignment": 6151, "nl": 14476, "\u963b": 31542, "\u2581Produ": 8730, "\u2581constitutional": 25913, "\u8239": 31828, "\u2581\u043f\u0430": 6890, "\u043b\u0438\u0439": 17000, "\u2581aussi": 11631, "do": 2432, "stra": 6781, "\u2581messages": 8570, "azz": 7130, "\u2581dancing": 17319, "icon": 3790, "\u9c7c": 31681, "\u2581accounts": 9855, "\u2581\u043a\u043d\u0438": 21247, "imate": 3314, "gomery": 27327, "<0xC1>": 196, "\ubbfc": 31463, "\u2581compilation": 26383, "<0xCA>": 205, "\u2581Ori": 20698, ".).": 15745, "\u2581sched": 22245, "\u2581Moscow": 17293, "\u2581Magazine": 18238, "\u2581apps": 13421, "\u2581cached": 19970, "\u2581Computer": 20466, "\u2581normal": 4123, "\ud1b5": 30700, "\u2581circular": 20439, "\u30d5": 29412, "\u2581button": 6261, "children": 9342, "end": 416, "azine": 7868, "\u2581cig": 11595, "istribute": 15505, "only": 5041, "\u2581turno": 27200, "\u9280": 31890, "\u2581ras": 28104, "\u2581Storage": 18857, "\u2581Edward": 10785, "OPTION": 18180, "\u2581prayers": 26742, "\u2581ordin": 28058, "\u0438": 28772, "\u2581pdf": 26562, "\u2581pre": 710, "\ube44": 29859, "\u2581URI": 22356, "alloc": 4924, "\u0126": 31992, "\u2581regener": 26319, "worthy": 25336, "\ubcc4": 31044, "\u2581themselves": 3892, "\u2581flower": 14994, "\u2581Freder": 15411, "\u4ea7": 29818, "\u6731": 31947, "\u2581powerful": 6787, "\uc608": 30542, "\u2581nearly": 5597, "\u2581condition": 4644, "\u2581guide": 8327, "OBJECT": 17879, "\u2581encoded": 23174, "\u80fd": 29084, "\u2581interviews": 18209, "\u2581inspiration": 16463, "\u2581Looks": 27684, "\u2581courtesy": 25826, "\u2581freed": 21563, "sd": 5848, "\u2581above": 2747, "\u2581PropTypes": 28602, "\u2581hed": 23737, "grav": 25849, "k\u00f3w": 26701, "\u2581Block": 9063, "uther": 14425, "\u2581cool": 5106, "craft": 6006, "camp": 18405, "\u2581celui": 20948, "\u2581riding": 14557, "Transfer": 20708, "\u2581medio": 27912, "\u00e9rt": 27076, "\u223c": 30567, "\u2581nav": 5697, "Stop": 10543, "\u2581again": 1076, "\u2581Other": 5299, "actual": 15141, "\u2581\u043a\u043e\u0442\u043e\u0440\u044b\u0439": 19676, "AGE": 6130, "connection": 9719, "kee": 21612, "interrupt": 23801, "\u2581gem": 15037, "\u0641": 29057, "voice": 14199, "regation": 28260, "\u2581Ober": 13119, "\u8ba1": 29382, "\u2581episodes": 17142, "XFF": 19881, "\u2581penetr": 23828, "Tables": 22776, "\u2581Campeonato": 24965, "Fall": 28072, "={'": 28309, "$('#": 24546, "\u2581d\u00e9part": 17654, "\u2581wsp": 26114, "\u2581evening": 6856, "\u178f": 30460, "selling": 24943, "\u6279": 30335, "href": 16558, "\u2581crow": 6070, "\u2581lan\u00e7": 27394, "\u2581Buenos": 25862, "\u2581hundreds": 10524, "\u2581consistently": 18667, "\u2581emer": 5177, "\u2581deb": 5665, "\u2581/": 732, "\u2581oper": 1764, "Assert": 8715, "LC": 9162, "\u2581Image": 9833, "proc": 11274, "units": 24653, "\u0642": 29115, "\u2581\u0440\u0430\u0439": 12770, "td": 2447, "Cannot": 22193, "VAR": 13408, "MG": 26860, "\u2581recipes": 21116, "\u2581google": 15682, "\u2581bitmap": 28017, "\u6740": 31168, "\u2581non": 1843, "\u2581Gust": 18662, "\u2581Sierra": 26048, "\u2581\u043f\u0440\u0438\u043d\u044f": 27741, "\u2581reinforce": 25234, "oun": 1068, "\u2581musical": 9158, "schen": 12417, "\u2581shown": 4894, "\u2581union": 10784, "}}_": 14340, "getElementById": 14777, "ascript": 15367, "UND": 10933, "\"%": 28413, "\u2581metal": 7503, "\u2581\"'": 13006, "\u2581consumed": 23440, "\u2581prisoner": 24040, "gro": 25344, "\u2581perm": 4069, "idy": 26576, "Rules": 17315, "arently": 20728, "\u2581Therefore": 8469, "#{": 16775, "reduce": 21334, "layer": 10204, "',": 647, "ynamics": 25705, "\u5220": 29327, "\u7ba1": 29497, "ev": 828, "\u2581nombre": 8581, "\u2581SIG": 27061, "\u2581r\u00e9g": 10551, "\u2581same": 1348, "ocument": 2048, "\u2581warned": 16808, "stand": 1793, "\u2581Iter": 20436, "\u0440\u0430\u0431": 24462, "\u2581-----": 20041, "\u2581Fly": 20049, "ides": 1926, "\u2581Throw": 20277, "ibt": 15046, "anqu": 20668, "\u2581Women": 8206, "sert": 1121, "Address": 5049, "\u89c9": 31345, "\u2581\u043f\u043b\u043e": 17223, "\u2581web": 4686, "\u2581faint": 16603, "\ub144": 31479, "\u2581Harm": 26988, "\u2581engage": 14200, "\u2581[\\": 26239, "\uc0c1": 29578, "week": 14049, "\u0308": 30814, "Edge": 15310, "scal": 19040, "\u2581flame": 23570, "\u2581mari": 28555, "\u01ce": 29788, "\u043a\u0442": 6299, "\u2581repeatedly": 20253, "\u043b\u043e\u0432\u0435": 13587, "\u2581addition": 4518, "\u2581tro": 4056, "aret": 8644, "\u2581Ji": 20155, "\u2581Cruz": 20399, "\u2581explicit": 9629, "ucht": 19113, "\u2581o\u00f9": 11109, "ste": 2453, "\u2581Factory": 24264, "\u2581yield": 8109, "\u2581\u041a\u043e\u043d": 16954, "}:": 11290, "Encode": 22806, "\u2581imp": 2824, "conduct": 27835, "\u2581delet": 21750, "icture": 10358, "\u2581precip": 27640, "part": 1732, "Pr": 3393, "\u2581dop": 9275, "cf": 10037, "aci\u00f3n": 2895, "\u2581nah": 20330, "\u2581Partial": 24590, "\uc791": 29781, "\u043b\u0435\u043d\u0438\u044f": 9324, "Boolean": 9925, "\u2581tatto": 21941, "finish": 22471, "\u010d": 28862, "\u2581\u043b\u0430": 16064, "\u2581\u043e\u0431\u043b\u0430\u0441\u0442\u0438": 14973, "\u0437\u0456": 13566, "Vo": 22619, "\u2581forms": 6967, "ounge": 24346, "\u2581\u00a9": 18675, "\u2581Kan": 14748, "\u2581rated": 25101, "\ub4e4": 29939, "arante": 7203, "iem": 4006, "\u2581schedule": 9442, "m\u00e9": 12634, "\u2581Hill": 7442, "uly": 3089, "\u2581beloved": 21708, ".**": 9080, "<0xF0>": 243, "yt": 4475, "\u2581Secretary": 14051, "\u2581Ag": 3786, "\u2581meter": 14386, "\u2581thrust": 20600, "ains": 1606, "\u2581commer": 6002, "\u2581stagger": 25132, "services": 12451, "\u2581benefit": 7949, "\u9633": 30230, "ible": 1070, "\u2581spin": 7344, "usr": 16785, "\u2581consolid": 22968, "anti": 7764, "\u2581contemporary": 13621, "ifornia": 5999, "itt": 785, "\u2581sock": 13384, "\u2581increased": 7483, "istrzost": 25000, "\u0441\u044c\u043a\u043e\u0457": 11443, "vised": 23313, "\u2581attractive": 13999, "\u96e8": 31115, "ety": 4703,
[...]
