{"Aug": 21575, "Je": 19485, "\u2581germ": 23157, "\u2581potential": 4628, "\u2581decomposition": 28079, "\u2581Adams": 17079, "\u2581tops": 27259, "\u2581clause": 23994, "============": 22568, "getNode": 25908, "kes": 10774, "opens": 23534, "\u2581wasn": 2723, "FD": 11858, "Term": 11579, "Received": 25411, "\u2581gover": 2116, "\u2581integr": 4507, "undle": 6776, "ned": 12097, "zi": 4295, "\u2581lets": 16143, "oba": 18441, "\u00ad": 28927, "Star": 14765, "\u2581aer": 21717, "\u2581Laura": 16145, "\u2581excuse": 16803, "\u2581horm": 19115, "\u2581indust": 3346, "\u00e4h": 6533, "\u2581},": 1630, "\u2581America": 4352, "\u2581jet": 14471, "lage": 20537, "\u2581outputs": 21842, "\u2581Anders": 24930, "\u2581murmured": 24683, "]=": 11868, "sson": 14542, "specific": 15590, "\u2581Avenue": 13994, "\u2581},\r": 20692, "\u2581\u044f\u0437\u044b": 23980, "\u2581november": 24107, "\u2581accomplished": 20141, "\u2581Chief": 11762, "\ub0a0": 31033, "\u2581ban": 8743, "------": 18697, "\u2581mom": 1948, "\u2581Ted": 15268, "\u2581tram": 23536, "\u2581IllegalArgument": 23731, "\u2581\",\"": 28685, "Drag": 18383, "\u2581Suz": 25432, "|---": 24823, "\u2581gauge": 14470, "ation": 352, "\u043d\u043e\u0432\u0435": 23791, "\u0431\u0430": 4820, "\u2581section": 4211, "ibility": 3032, "ferred": 9497, "\u2581rental": 18808, "\u0446": 28833, "\u2581Amb": 12086, "\u2581around": 1401, "\u2581bord": 22183, "\u2581\u0438\u044e\u043d\u044f": 26825, "\u2581Theory": 27211, "sensor": 15017, "aving": 1652, "\u2581surrender": 25884, "\u521b": 29349, "\u2581mod": 968, "getValue": 12448, "\\+": 11100, "iNdEx": 25900, "\u2581infection": 18197, "\u0bc1": 29981, "\u2581through": 1059, "\u2581backup": 17503, "\u2581dispatch": 14323, "\u2581kinds": 10698, "ik": 849, "\u2581Gab": 10849, "riven": 21694, "\u2581any": 707, "ho": 2124, "iqu": 2741, "\u2581Core": 12197, "}+\\": 13582, ":{": 26856, "\uc788": 29604, "\u7b54": 30620, "\u2581isinstance": 17607, "\u2581'": 464, "Bin": 19478, "\u6392": 29720, "\u0004": 30724, "\u2581await": 4293, "when": 11233, "\u2581conclusions": 24242, "vs": 10296, "ASS": 4816, "ethe": 13334, "\u2581strictly": 19470, "c\u00f3w": 24325, "\u2581Season": 16887, "au": 581, "powered": 28435, "\u2581conventional": 17215, "\u8bbe": 29081, "Proc": 20662, "MF": 24721, "\u2581damned": 26442, "source": 1394, "\u043b\u0451": 21814, "serts": 27339, "\u2581irq": 23747, "Sources": 27105, "\u2581Max": 5824, "\u00ed": 28827, "\u2581profes": 20078, "\u5eb7": 30720, "HOUT": 7912, "yside": 24756, "\u0f53": 31847, "KERNEL": 19889, "i\u00df": 21395, "\u2581achieving": 25122, "SUCCESS": 10497, "\u2581_(": 22753, "\u2581illusion": 27812, "Java": 15473, "\u0441\u043a\u0438\u043c": 17810, "pret": 5520, "\u2581bridge": 9850, "\u2581tested": 13143, "Supp": 15653, "\ubcf8": 30535, "<0x6A>": 109, "h\u00f6r": 11730, "SCAN": 27849, "ze": 1374, "rant": 6804, "aim": 2371, "igd": 12884, "\u2581not": 459, "\u2581award": 7619, "\u2581excit": 14596, "EF": 16327, "\u2581ver": 1429, "Curve": 27777, "opher": 12379, "\u2581bru": 16575, "\u2581\u043e\u0441\u043d\u043e\u0432\u0430": 25621, "Neg": 21436, "\u767d": 29917, "\").": 4145, "\u2581Edinburgh": 25970, "inned": 10751, "\u2581Maur": 14728, "Expression": 8055, "<0x1D>": 32, "cb": 6145, "\u2581Norway": 23063, "ception": 1277, "high": 9301, "\u2581inspect": 16279, "\u0141": 29042, "\u2581voce": 27802, "\u8f7d": 29435, "\u2581Contin": 13718, "espec": 23082, "gly": 13127, "atinum": 28250, "stan": 13511, "ipe": 3985, "\u2581Particip": 21804, "bar": 1822, "\u2581videos": 10506, "\u2581sounded": 13219, "yers": 15624, "\u2581marriage": 7811, "\u2581Ende": 17166, "\u2581souls": 23804, "\u0442\u0430\u0445": 27747, "\u2581Media": 9347, "\u2581Anim": 27295, "Information": 16257, "\u2581\u043c\u0438": 6589, "\u2581pie": 3447, "\u2581stern": 26890, "\u1005": 31708, "\u2581protecting": 20533, "codegen": 20686, "rc": 1718, "late": 10020, "Arc": 26546, "\u2581uitgenodigd": 15649, "uck": 1384, "\u1ea1": 29423, "Details": 9515, "\u2581Fant": 19800, "levant": 7122, "*{": 21599, "\u04a3": 31000, "\u2581accent": 19440, "\u2581Palace": 20637, "or": 271, "....": 3406, "\u2581Daily": 16955, "ielle": 20857, "arl": 1977, "):\r": 20358, "\u2581acknowledge": 20199, "\u2581troubles": 21477, "ining": 4038, "Before": 11273, "ishop": 12019, "subject": 16566, "\u2581proxim": 23678, "sp": 886, "enson": 26205, "\u2581Care": 8000, "\u2581stadium": 24096, "Requ": 1924, "cel": 4070, "\u2581throwing": 15832, "final": 6560, "\u0430\u043b": 14993, "\u2581induced": 21327, "\u2581extr": 9237, "reed": 2816, "\u0964": 31151, "\u7387": 29886, "Writer": 9543, "\u2581Check": 4914, "\u2581moisture": 28224, "\u2581bout": 21726, "\u73e0": 31845, "eries": 12865, "\u2581Mort": 14789, "\u2581bride": 25248, "\u2581\u00b7": 1766, "\u5831": 30544, "writing": 19061, "\u2581Connect": 21873, "\u2581Pool": 23702, "People": 21794, "\u2581hierarchy": 25846, "oker": 11665, "ly": 346, "person": 9701, "\u2581or": 442, "\u2581meth": 24992, "\u2581rx": 21451, "\u9686": 31302, "GET": 5296, "\u2581yeah": 12176, "\u2581\u043f\u0440\u043e": 2127, "adelphia": 14690, "\u2581CL": 12296, "\u2581iron": 8075, "\u2581operated": 16985, "\u2581server": 5116, "\u2581Active": 15838, "DAT": 23775, "medi": 3277, "\u2581lose": 6788, "\u2581\u0440\u043e\u043a\u0456\u0432": 19057, "\u2581jQuery": 12257, "alt": 2304, "\u2581:)": 15108, "NOWN": 21016, "+-": 22805, "branch": 19175, "\u2581during": 1938, "\u2581tur": 8586, "\u2581partic": 1714, "\u2581Hope": 12297, "THER": 11948, "\u2581refugees": 25611, "\u045b\u0438": 25213, "\u2581\u0444\u043e\u0440": 13939, "\u2581Meter": 26673, "\u2581lingu": 24017, "Sun": 28524, "\u2581);": 1936, "\u2581undefined": 6176, "\u2581suffering": 11812, "\u2581vend": 13479, "prob": 22083, "\u0447\u0435\u0441\u043a\u0438\u0435": 24458, "Stmt": 20471, "\u2581pause": 17026, "\u2581witnesses": 26065, "picker": 19794, "\u2581liquid": 12213, "\u2581\u0441\u0432\u0435": 26250, "\u2581\u0431\u0443\u0432": 17623, "{},": 15691, "\u2581deeper": 13551, "Compare": 22095, "atore": 11437, "\u2581Geschichte": 16088, "yc": 27831, "\u2581speaking": 8711, "Logger": 9998, "\u2581belonged": 22232, "Pen": 26950, "\u2581Christians": 17209, "\u8a31": 31482, "iri": 16105, "\u2581wear": 7656, "\u9002": 30640, "avor": 3115, "ieron": 12721, "aff": 2146, "\u0442\u0430\u0440": 18613, "\u2581territor": 12550, "\u2581dyn": 16150, "uation": 10223, "\u2581distinctive": 26194, "\u00edt": 4071, "\u2581Auch": 23337, "iti": 8236, "\u2581bin": 10708, "subseteq": 18768, "\u2581streets": 10468, "\u2581ring": 6791, "\u2581Af": 8786, "\u2581hasta": 11539, "\u2581CT": 22023, "\u8bed": 29892, "\u2581Tat": 28087, "\u2581--": 1939, "\ube14": 30502, "sk": 1252, "\u2581FALSE": 11221, "itan": 11374, "\u2581privacy": 12917, "\u2581Dad": 11641, "\u2581traders": 28226, "\u2581stove": 28479, "\u2581flesh": 14063, "HH": 23834, "\u2581\u00bb,": 13231, "ULT": 4874, "\u2581EVENT": 18693, "\u2581nach": 4856, "\u2581PCI": 18854, "scription": 6811, "\u2581irr": 24559, "\u2581painted": 14641, "\u2581dise": 6091, "\u2581improvements": 19664, "\u52d9": 31503, "ICS": 24194, "layer": 10204, "material": 10595, "\u2581http": 3550, "\u2581fitted": 21163, "\u2581volta": 20877, "\u8fed": 31820, "\u2581modo": 20273, "Access": 6169, "\u2581Movie": 23208, "\u2581supplier": 25877, "\u2581Thursday": 10983, "\u2581declaration": 19827, "\u2581\"@": 14604, "wi": 7386, "\u5168": 29374, "\u2581Give": 16104, "\u2581premium": 16317, "itals": 14427, "\u2581Jahrhund": 14052, "uns": 13716, "ilst": 15078, "Does": 20510, "\u2581reset": 9627, "await": 13513, "\u2581Federation": 22520, "WINDO": 28126, "\u2581mast": 27529, "\u2581winter": 8539, "\u0144": 28908, "iber": 3858, "elasticsearch": 28350, "\u2581attractive": 13999, "ITE": 6142, "(\"[": 16848, "\u00f6ffentlicht": 28106, "IMPORT": 15101, "\u2581version": 2751, "\u2581encuent": 16611, "lets": 7835, "Sing": 25623, "\u2581socks": 27987, "\u30c7": 29644, "\u2581golf": 15485, "unc": 10474, "\u2581p\u00e8re": 25210, "\u2581bec": 838, "\u2581observ": 3977, "\u2581Department": 6946, "SERVER": 18299, "Hide": 23309, "bes": 10354, "exec": 12479, "\u2581\"./": 11171, "\u2581meets": 18487, "\u2581web": 4686, "\u2581Text": 7379, "orn": 1334, "\u2581vehicle": 8114, "\u2581website": 4400, "\u2581Von": 15025, "\u1798": 30264, "\u2581curriculum": 25763, "\u2581suit": 8040, "\u2581humanity": 17676, "cri": 1381, "ensis": 14320, "egr\u00fcnd": 25906, "\u2581advertising": 12896, "\u2581dim": 3987, "\u2581lp": 19956, "\u2581neighborhood": 10501, "\u0459\u0443": 19743, "wo": 809, "\u2581minimum": 7968, "IDS": 19954, "\u2581keeping": 7603, "\u2581Korea": 13544, "\u2581activate": 27854, "\u2581\u00c9tats": 17902, "\u2581cheek": 10863, "\u2581fist": 21952, "<0x2A>": 45, "rael": 5815, "Mix": 26388, "\u2581Sel": 11361, "\u2581estar": 27497, "notification": 20476, "\u2581undert": 16353, "\u2581kings": 27410, "National": 24939, "iro": 4812, "Av": 9269, "\u2581Dur": 8420, "\u2581Ok": 6504, "mot": 16322, "\u2581Gy": 18075, "Console": 19638, "\u9891": 30030, "\u05e0": 29246, "\u2581scientists": 15067, "Definition": 7753, "intent": 28559, "\u2581Name": 6620, "\u2581cancellation": 27918, "ola": 4362, "Loop": 14960, "\u2581cal": 2300, "conditions": 24952, "Formatter": 23533, "acity": 4806, "\ud5a5": 31460, "\u2581\u0431\u0435\u0440\u0435": 19945, "\u2581Madrid": 14334, "\u2581imported": 26659, "ministr": 4000, "STO": 24833, "\u2581\u00e9p": 12163, "filer": 27992, "\u2581tiem": 16365, "\u2581signed": 7995, "\u2581Har": 3407, "abs": 4737, "UBLE": 22873, "AG": 2377, "\u2581Total": 10711, "\u2581obtaining": 21402, "\u2581ey": 1746, "\u2581Cec": 22022, "{}{": 23265, "\u500b": 30070, "\u2581Naj": 26293, "________________": 17226, "\u2581Room": 14463, "\u2581authentic": 18250, "\u2581Bren": 28194, "\u56ed": 31180, "Pol": 5096, "\u30d8": 31760, "\u2581cinema": 22905, "\u2581ranch": 26678, "\u2581swallow": 25993, "Read": 3390, "\u2581retain": 16815, "istribut": 7880, "\u2581slid": 18457, "temp": 7123, "CHANNEL": 23299, "tyard": 27463, "\u2581politician": 17587, "\u2581minister": 10170, "\u2581public": 798, "\u2581kn": 747, "ES": 2255, "ystem": 906, "tain": 12092, "\u2581approved": 12879, "\u2581\u0411\u0438": 13864, "\u2581time": 727, "\u2581lighting": 15912, "Promise": 16853, "\\\\": 2214, "\u00edtulo": 18440, "\u2581templ": 5752, "\u2581invasion": 18793, "\u2581exploring": 21354, "Oct": 22955, "\u2581ecosystem": 27374, "TestCase": 18268, "\u2581STE": 26178, "\u2581\u0431\u043b\u0438": 22228, "\u0432\u0440\u0430": 27767, "\u2581FO": 18417, "sto": 12716, "\u4eca": 30316, "\u1ed5": 30686, "\u2581Finally": 8126, "\u2581Maria": 8866, "\u0435\u0442\u043e": 24525, "\u2581arguing": 21440, "Force": 19714, "\u2581mine": 6683, "\u2581opened": 4923, "\u2581wrapped": 12691, "\u2581partially": 19966, "\u2581gift": 7875, "oment": 19323, "dialog": 10565, "noc": 15979, "\u2581surprised": 8557, "\u2581elseif": 25026, "\u2581standards": 9890, "shore": 27562, "\u00e0": 28839, "texture": 20196, "\u2581silent": 10832, "His": 21860, "expr": 9803, "inary": 3239, "iku": 23550, "\"\r": 11525, "\u2581mel": 8970, "\u2581ecc": 27080, "\u533b": 31213, "itung": 24422, "\u2581periodic": 23404, "\u2581rab": 16479, "lica": 24534, "required": 10893, "achuset": 15581, "\u2581dump": 10332, "\u2581Ireland": 11170, "\u2581drinking": 11605, "\u2581Null": 21238, "\u2581tor": 5063, "\u5185": 29188, "Lines": 21837, "\ud83d\udcaf": 31685, "\u2581uncertainty": 18110, "\u2581chart": 10968, "\u0926": 30046, "forward": 11397, "\u2581Durante": 20680, "\u17c4": 31956, "\u2581odd": 6939, "\u2581tattoo": 28105, "\u2581sacrific": 22074, "\u2581chat": 10706, "ap": 377, "\u043a\u043e\u0432\u0430": 14069, "\u3053": 29543, "attrs": 15215, "\u8ff0": 29769, "\u0123": 31662, "<0x09>": 12, "\u2581buyers": 21872, ")),": 7218, "sq": 4791, "oine": 21265, "\u2581Detect": 25158, "\u040b": 30888, "\u2581poet": 8796, "Enum": 9758, "\u2581ends": 9675, "\u2581Clara": 27901, "\u00edses": 27075, "\u2581Rug": 21769, "\u2581volatile": 23632, "locale": 19237, "\u2581planned": 10233, "\u0430\u043d\u0433": 15528, "weet": 12523, "\u2581servant": 22075, "\u2581EU": 12181, "Elements": 10996, "\u2581suspended": 21342, "LD": 12093, "ulation": 2677, "cid": 20020, "LECT": 8785, "\u2581leading": 5374, "sen": 6448, "\u2581\u0440\u043e\u043a\u0443": 7339, "\u2581Side": 15256, "\u2581pse": 14808, "pr": 783, "\u0648": 28962, "\u2581Admiral": 23895, "\u2581conversations": 17256, "nico": 24280, "\u0440\u043e\u043c": 7407, "\u2581Het": 10172, "special": 14908, "\u2581Entertainment": 20214, "\u2581advoc": 11881, "eca": 19296, "\u2581essay": 10360, "\u5355": 29113, "\u2581\u041c\u0435": 8749, "\u2581\u0431\u0435": 8907, "iedad": 26446, "\u2581sit": 1943, "\u2581therapist": 26558, "\u2581Rhe": 23214, "\u2581wool": 25943, "ul": 353, "\u5bc6": 29385, "\u2581Pa": 8144, "done": 10381, "\u2581\u043e\u0431\u0440\u0430": 11061, "\u2581Penn": 11710, "\u2581imagination": 16842, "\u2581separated": 14700, "\u2581Staff": 13594, "\u2581Twitter": 11690, "\u2581Json": 17750, "clip": 8031, "\u2581eerste": 21328, "\u2581Eye": 26861, "\u2581dass": 8595, "mate": 15356, "review": 22733, "\u2581Imper": 15428, "bs": 1816, "ances": 2233, "\u2581terr": 4462, "\u2581fem": 4141, "\u2581Rat": 20876, "psz": 28701, "\u2581Site": 15156, "existing": 24049, "\u2581split": 7925, "\u2581miss": 3178, "\u2581gol": 20918, "aming": 6133, "\u2581\u0436\u0438\u0432\u043e": 25455, "\u2581install": 4430, "\u2581bem": 28111, "\u2581legacy": 17424, "\u2581Vlad": 20551, "cached": 22080, "\u2581civil": 6259, "<0x82>": 133, "=[": 12303, "\u2581contrad": 15235, "\u2581Ox": 11625, "\u2581Daniel": 8103, "over": 1483, "\u2581capit": 16809, "\u0434": 28799, "\u2581Henri": 20374, "\u2581Develop": 8587, "\u773c": 31112, "\u2581when": 739, "\u2581ghost": 12975, "ritz": 24855, "ipes": 9103, "lista": 26965, "\u2581Imperial": 22032, "\u2581providers": 14314, "attice": 16003, "\u2581Options": 19641, "<0xF8>": 251, "\u2581Pict": 22262, "\u2581:": 714, "\u2581Labor": 14160, "\u2581fon": 15775, "domain": 8692, "Padding": 18273, "\u0432\u043e\u0433\u043e": 11877, "ent": 308, "\u2581grim": 17837, "\u2581disgust": 21536, "\u2581Muslim": 11258, "OG": 21112, "\u2581Giovanni": 21114, "\u2581helpful": 10865, "pk": 16270, "\u2581producer": 13876, "\u2581prot": 18696, "\u201d": 28838, "\u0436\u0430": 4483, "ount": 696, "idel": 8891, "\u2581birds": 12780, "rd": 5240, "\u2581Stay": 20066, "\u2581suddenly": 6914, "\u2581contributing": 25885, "\u039f": 29865, "wid": 8727, "\u2581CONFIG": 12198, "Animation": 13960, "liver": 16342, "\u2581\"-": 11645, "\u2581rule": 5918, "roduction": 13632, "PLAY": 17003, "\u2581preview": 25203, "\u2581statt": 25183, "pre": 1779, "\u2581expedition": 24350, "<0x14>": 23, "Warnings": 24708, "\u0441\u0441\u0430": 19750, "\u2581n\u011b": 21500, "\u2581Frau": 27993, "\u2581Year": 7601, "\u2581Egypt": 10529, ")+": 10528, "\u2581bars": 13529, "\u2581deals": 14685, "\u2581sucked": 28436, "\u8d22": 31779, "CLUDING": 16634, "\u2581explore": 11418, "\u2581Commit": 9003, "\u2581\u043a\u043e": 1619, "MD": 4915, "include": 1631, "solete": 28273, "\u9646": 30941, "\u8ecd": 31501, "\u2581cameras": 18713, "\u2581BIT": 26234, "\u2581waiting": 5345, "Dem": 16989, "App": 3114, "\u2581Electric": 20459, "icts": 23955, "\u2581acceptable": 18636, "BC": 4738, "\u2581deb": 5665, "\u2581cer": 6942, "\u2581does": 1235, "]}": 9205, "erialize": 12145, "\u2581Asc": 28294, "\u2581ok": 3614, "\u2581hair": 3691, "\u2581History": 6866, "\u2581Their": 6723, "Con": 856, "\u2581Copyright": 5259, "quier": 22253, "\u0c97": 31789, "\u2581engagement": 15613, "ifornia": 5999, "\u2581ihm": 17934, "oter": 26511, "\u0442\u0435\u043b": 12516, "\u2581Ba": 9236, "\u2581Native": 16024, "\u2581Over": 5235, "Ab": 6570, "tk": 9808, "\u2581request": 2159, "\u2581Conf": 10007, "\u2581constitutional": 25913, "\u2261": 30940, "\u2581participating": 22727, "\u2581separation": 18838, "\ub2ec": 31082, "cript": 2489, "stra": 6781, "\u2581scent": 21535, "Class": 2472, "\u2581presentation": 14909, "\u2581Lot": 19409, "Ident": 8876, "VIS": 20178, "criptions": 17135, "\u2581switched": 21187, "\u2581Put": 10331, "\u2581proceed": 8864, "\u770c": 31432, "\u2581Impro": 21831, "igi": 15495, "eph": 27140, "\u2581movements": 15071, "CAL": 22591, "\u0440\u0443": 1728, "fill": 5806, "\u2581poly": 12371, "Loaded": 24368, "Inner": 18686, "\u2581flags": 6809, "(\"": 618, "ctions": 1308, "\u2581\u00e9d": 21710, "\u2581network": 3681, "kh": 15887, "ictions": 19351, "Over": 2675, "\u2581Dort": 27238, "ffff": 10756, "\u2581sd": 19515, "\u2581Console": 19518, "\u2581fiscal": 24937, "\u2581han": 6700, "\u2581scoring": 20310, "Std": 21975, "\u2581Kent": 13043, "\u2581Sal": 4902, "\u2581south": 6287, "\u2581Throw": 20277, "wood": 4871, "\u2581stage": 5430, "floor": 15261, "\u5272": 31105, "\u0447\u0435\u0441\u043a\u043e\u0439": 19349, "urch": 1826, "pie": 9053, "\u2581fir": 12621, "atti": 16708, "\u5b9e": 29247, "\u2581highest": 7881, "\u2581seriously": 10160, "\u2581Sky": 14852, "\u2581%": 1239, "cks": 8503, "\u2581recommended": 11572, "\u2581junio": 25942, "Built": 28002, "Value": 1462, "\u2581anc": 5930, "\u2581datasets": 26882, "cester": 27050, "\u2581madre": 26032, "\u2581congreg": 25324, "DTO": 17549, "unts": 25985, "\u2581roku": 6739, "etes": 10072, "instance": 5241, "Drop": 12475, "\u2581Alt": 16589, "strict": 17354, "adjust": 22562, "azioni": 13919, "\u2581spir": 14652, "\u2581vr": 22954, "apt": 1459, "\u2581ds": 18099, "\u2581chap": 11708, "ez": 5620, "ian": 753, "<0x56>": 89, "\u043d\u044b\u043c": 7490, "\u2581\u0438\u043c\u0430": 19120, "\u2581j": 461, "\u2581tong": 12166, "\u2581employment": 14087, "\u2581curr": 19494, "\u2581Deputy": 27694, "document": 7200, "jor": 9577, "High": 12822, "\u2581vehicles": 11999, "\u2581tum": 14284, "icity": 25130, "\ud83d\ude14": 31303, "\u2581watched": 6758, "\u2581Kennedy": 15288, "Percent": 19700, "amps": 10991, "ishi": 28499, "\u2581sixt": 17930, "\u2581requires": 6948, "\u2581vacation": 16829, "jsce": 19509, "pin": 10002, "\u2581enjoy": 3555, "anks": 3750, "AX": 15385, "\u2581measured": 12820, "\u2581\u20ac": 17416, "\u0f56": 31207, "parameter": 14490, "\u2581allowed": 4670, "\u2581$[": 19921, "\u2581pine": 23683, "\u2581Gilbert": 26774, "\u2581pes": 13169, "teenth": 20941, "\u2581mineral": 25837, "\u1275": 31506, "\u2581expecting": 15550, "\u2581helic": 19624, "\u2581names": 2955, "<0x07>": 10, "\u6027": 29261, "icer": 10408, "\u2581homeless": 22354, "\u2581legislation": 16837, "LEVEL": 18224, "\u2581collect": 5902, "\u2581bedroom": 9384, "ri\u00e8re": 14825, "GM": 16977, "\u2581Andy": 16514, "outs": 8508, "ibling": 25641, "\u2581Net": 5269, "\u2581break": 1721, "effect": 9846, "pas": 22328, "brace": 24256, "ruit": 6424, "appro": 9035, "\u2550": 29090, "\u0bc6": 31576, "\u2581slic": 17341, "\u2581prv": 24949, "Annotation": 17087, "\u2581Yu": 26424, "ems": 7940, "\u2581gotta": 22537, "ffen": 27022, "SAMP": 28610, "\u2581Cart": 13870, "ictionary": 8078, "\u2581CBS": 28233, "woman": 24132, "iesa": 22133, "fur": 26711, "Holder": 16560, "fn": 5642, "\u2581delta": 14823, "XT": 25078, "\u2581Dakota": 27266, "\u9501": 30448, "stood": 8231, "ato": 1827, "omorphism": 19906, "osity": 24879, "\u2581badly": 15494, "\u2581flush": 19329, "CACHE": 22060, "\u2581noon": 26873, "azi": 19597, "redirect": 19123, "auge": 25793, "ilor": 20323, "\u2581quatre": 19419, "\u2581day": 1370, "ash": 1029, "symbol": 11535, "ascript": 15367, "Convert": 16311, "ALE": 20336, "\u2581Most": 4822, "\u2581MON": 25259, "\u00d1": 29840, "\u2581families": 6812, "\u2581\u043f\u0440\u0438": 2683, "EL": 2980, "\u2581established": 6740, "ana": 2238, "\u2581\u041a\u0430": 5471, "\u2581skip": 8583, "sex": 12396, "\u2581\u0410\u043b": 25214, "\u2581Perfect": 24443, "avi": 17101, "\u2581handsome": 22215, "\u2581k\u00f6": 8392, "Encoding": 19077, "keiten": 23351, "Controller": 5733, "\u2581prost": 16306, "\u008b": 30474, "\u2581legal": 5648, "tb": 14238, "\u2581tf": 14618, "ift": 1795, "\u53eb": 31219, "\u62d6": 31454, "Col": 1577, "\u2581tried": 3851, "\u2581BS": 28691, "\u2581innov": 8403, "\u2581dun": 27421, "\u2581foreign": 7223, "\u2581Regular": 28187, ">;": 10225, "\u2581Champions": 24470, "folio": 14132, "\u10dd": 29627, "\u2581alternatives": 24524, "\u2581Authors": 23088, "\u2581Serv": 15541, "\u2581\u0441\u0432\u043e\u0438": 25589, ",": 28725, "uffle": 17752, "\u2581William": 4246, "LEMENT": 20255, "aved": 4393, "ctrl": 8022, "\u2581tons": 15995, "ategor": 21800, "\u2581opponents": 23293, "\u0440\u0430\u043c\u0438": 27142, "\u0dbb": 31532, "\u0e36": 31211, "\u5145": 30282, "ado": 1452, "\u2581Week": 10433, "\u0e1b": 29718, "\u009d": 29272, "\u2581Mull": 27647, "\u2581system": 1587, "\u2581\u0421\u0443": 13656, "\u2581hoping": 11114, "\u2581\u0432\u0440\u0435": 8614, "\u2581orders": 8636, "\u2581Lud": 13953, "\u2581settle": 17493, "\u2581space": 2764, "\u2581pizza": 20727, "INCLUDING": 27446, "ync": 2122, "\u2581here": 1236, "\u2581disable": 11522, "Sup": 22284, "\u2581march": 11853, "\u2581damage": 6544, "\u2581f\u00f6": 14000, "\u2581\u043c\u043e": 4025, "Air": 22764, "\u2581Creative": 23626, "entin": 23149, "\u2581Mathemat": 26698, "\u2581vaccine": 21250, "\u0433\u0440\u0430\u0444\u0438": 11075, "WORK": 17427, "xim": 5152, "\u2581Decl": 19066, "\u2581incorrect": 16390, "\u2581sacrifice": 19480, "\u2581strategy": 7213, "wor": 22493, "\u2581apt": 24932, "\u2581provider": 9782, "\u2581@": 802, "\u2581TEST": 9601, "pel": 14605, "gram": 1596, "separ": 17519, "rior": 6654, "\u2581M\u00e4rz": 18035, "state": 2027, "\u2581enjoyed": 10306, "<0x3F>": 66, "\u2581PAGE": 23509, "ras": 5895, "\u00f6t": 15809, "\u2581study": 3881, "\u2581grin": 17924, "\u2581Industry": 21268, "\u2581Hughes": 26419, "\u2581partial": 10473, "CTION": 5324, "Autow": 25789, "\u26a1": 31420, "\u2581Inter": 4287, "\u0437\u0430\u043d": 17478, "Ph": 3330, "\u2581M\u00e9": 16786, "\u2581rubbed": 25333, "\u2581comenz": 28084, "Compiler": 17771, "ancellationToken": 26217, "oured": 12991, "\u2581conv": 4221, "\u056c": 30834, "anca": 19205, "EXP": 22136, "pv": 26237, "\u2581appe": 2104, "\u2581symptoms": 12380, "\u2581Bet": 6382, "enter": 7262, "imation": 8258, "\u00e4s": 11227, "\u0092": 29068, "\u0cc1": 31143, "MEM": 9210, "aupt": 12099, "\u2581fract": 24632, "\u2581cake": 14833, "\u2581\u0219i": 6944, "\u2581east": 9005, "\u2581liberal": 14987, "aper": 2610, "stadt": 15999, "\u2581sm": 991, "\u2581relevant": 8598, "feed": 16454, "\u2581defence": 22763, "\u2581seiner": 11366, "\u2581padding": 12342, "\u2581Term": 10764, "\u2581threatened": 17351, "ALIGN": 26380, "alf": 2121, "izont": 8927, "\u2581Tests": 25810, "ream": 1260, "\u2581Nigeria": 22072, "\\%": 10857, "metrics": 20901, "\u2581entropy": 25753, "\u2581Current": 10929, "\":": 1264, "eless": 6199, "\u2581gap": 10467, "\u2581FIT": 12630, "]/": 22959, "\u2581admin": 11173, "\u044f\u043d": 15247, "portun": 3766, "\u2581Our": 3489, "umen": 20341, "\u2581Hockey": 27994, "\u6d77": 29726, "\u2581Natur": 21749, "\u2581lid": 16006, "\u7cca": 31984, "ingle": 5810, "\u2581provide": 3084, "\u2581matching": 11623, "\u2581Colombia": 23938, "\u2581vom": 9322, "TIES": 8741, "\u2581Load": 11924, "avorite": 28463, "\u043e\u043b\u043e\u0432\u0456": 27496, "\u0440\u044c": 13168, "\u2581ocean": 13993, "\u2581augment": 20836, "\u2581vote": 7893, "\u2581Official": 26356, "\u7fa9": 30673, "\u2581remarked": 28357, "\u2581dream": 4999, "consin": 18091, "\u2581next": 1679, "odes": 2804, "\u2581p\u0159\u00ed": 23582, "ampa": 20797, "iw": 11889, "CAST": 27196, "\u2581concrete": 12230, "uy": 4533, "\u2581inc": 2258, "\ud83d\udc95": 31551, "glied": 17283, "\u2581eye": 5421, "\u2581title": 3941, "\u2581ans": 8804, "\u2581Ferr": 16073, "Signature": 19299, "\u2581environmental": 12507, "\u2581possibility": 10065, "richt": 16598, "\u00e1s": 2507, "/\"": 17713, "\u2581reprezent": 28188, "twitter": 22747, "\"],": 8883, "Owner": 15431, "boldmath": 26080, "stick": 23277, "answer": 24115, "\u2581stake": 15790, "\u01d0": 30372, "\u0263": 31013, "\u2581Outside": 25116, "\u2581unpre": 26641, "}:": 11290, "BIT": 8170, "\u2581qu": 526, "izes": 5004, "\u2581mant": 14201, "Strategy": 16161, "Cond": 8822, "\u2581utils": 25834, "\u032a": 30956, "\u2581nei": 18986, "mes": 4137, "confirm": 19928, "framework": 6970, "\u6ed1": 31062, "\u2581odds": 18585, "oms": 5185, "\u2581bew": 20039, "\u0431": 28817, "prison": 20485, "\u2581measure": 5266, "feld": 15727, "\u2581targeted": 20279, "\u2581wheel": 10297, "oki": 23778, "\u2581\u0422": 2775, "Action": 3795, "\u2581contr": 4188, "nie": 4255, "OT": 2185, "\u2581zwischen": 13217, "\u2581Ned": 28504, "anes": 8782, "\u010de": 27351, "\u2581fits": 16395, "itte": 26055, "Just": 10202, "\u2581mer": 3051, "\u0446\u044e": 23997, "Lu": 26136, "\u2581loyal": 13457, "\u2581anderen": 19532, "OR": 1017, "can": 4230, "\u2581repeat": 13750, "iop": 19072, "\u0432\u0440\u0438": 21677, "ocus": 2497, "\u2581marks": 14191, "\u2581labour": 18995, "DATE": 13495, "occ": 21450, "shine": 22121, "\u043c\u0435\u0442": 17480, "\u2581Cameron": 23028, "\u2581Parad": 24493, "\u2581terra": 25836, "Sv": 26046, "inder": 5052, "\u2581frequent": 16153, "\u2581Land": 5062, "!(": 8213, "imately": 9807, "\u2581\u0414\u0443": 23520, "maker": 19963, "\u2581reduce": 7643, "rhs": 25435, "\u0431\u0440\u0438": 20940, "wicklung": 25739, "\u2581Floor": 23395, "Handle": 6028, "\u2581interviews": 18209, "''": 5437, "Change": 5500, "\u06af": 29461, "\u2581breat": 13105, "\u2581boundary": 10914, "\u2581Mak": 20046, "\u2581Cold": 19260, "oard": 20446, "\u2581WC": 27825, "Gener": 3602, "\u2581reject": 9198, "protocol": 12787, "\u2581legisl": 15405, "\u2581streams": 20972, "\u2581//\r": 26083, "\u2581oraz": 13755, "\u2581altre": 28027, "\u043d\u043e\u0442\u043e": 28337, "\u2581Captain": 11410, "\u2581lately": 22628, "stdout": 25080, "username": 10671, "Du": 17379, "cription": 2342, "\u2581Games": 12339, "\u2581Pas": 12184, "\u2581peaceful": 21229, "Blob": 22388, "rika": 19462, "\u2581WITHOUT": 8292, "%.": 13210, "\u2581Creek": 15480, "owany": 19035, "\u2581bast": 15776, "IS": 1851, "Using": 26021, "agles": 26664, "\ub864": 31953, "ove": 751, "apes": 7722, "natural": 17568, "\u2581\u0412\u0430\u0441\u0438": 26099, "Min": 5805, "\u2581Enterprise": 27018, "\u6025": 31653, "\u2581nasty": 26092, "uries": 8627, "\u0440\u0430\u043a": 15936, "cci\u00f3": 25357, "UST": 11080, "\u2581jap": 28663, "BUF": 17206, "phant": 17953, "\u2581backpack": 28217, "\u0087": 29924, "\u2581Ju": 13697, "\u0baa": 30074, "\u6a4b": 31730, "ised": 2458, "\u2581Data": 5284, "\u2581causing": 13098, "\u2581hunting": 16268, "\u2581Eg": 22684, "\u2581PARTICULAR": 13094, "\u2581abortion": 22907, "}-": 8767, "<0x13>": 22, "\u2581Wor": 22366, "\u2581mp": 18419, "apps": 23464, "een": 9995, "Less": 28360, "\u00d4": 30452, "\u9aa8": 31081, "LOBAL": 18898, "\u2581Wikipedia": 21740, "Radius": 19284, ".:": 12813, "\u2581Criteria": 26496, "\u00e8de": 24272, "etch": 4455, "\u2581type": 1212, "shared": 9622, "\u2581eing": 13262, "\u2581Justice": 13142, "\u2581Una": 19472, "\u2581cared": 21773, "\u2581its": 871, "\u2581telling": 7124, "\u00e1n\u00ed": 16345, "\u00e9l\u00e9": 18310, "\u2581l\u00e9g": 19416, "idental": 27124, "ea": 11062, "\u2581javax": 7385, "\u2581bother": 11026, "\u0441\u043a\u043e\u0435": 12988, "clam": 21453, "iero": 23419, "\u2581\u0430\u043b": 28351, "Tokens": 24839, "\u2581ALL": 17565, "\u2581Professional": 16081, "st": 303, "\u2581Emperor": 20709, "\u2581surrounding": 12028, "istes": 15099, "\u0434\u0435\u043b\u0430": 19656, "cursor": 12601, "\u5ea6": 29184, "VAL": 3668, "controller": 11517, "\u2581favorites": 28651, "riev": 10212, "]\\": 11695, "\u2581dealing": 12292, "\u2581Hand": 6322, "anya": 19791, "\u2581Present": 21073, "\u2581Saturday": 8513, "ographic": 12293, "\u2581Render": 23752, "alert": 14762, ".~": 10749, "EXEC": 28121, "\u2581J": 475, "pag": 19383, "bf": 1884, "\u2581terrorist": 25891, "\u2581\u044f": 3806, "\u2581Cor": 3198, "\u2581cost": 2434, "\u2581roof": 9145, "\u2581dataset": 13466, "\u2581quantities": 21709, "\u2581polynomial": 22879, "bot": 10093, "\u2581manual": 15561, "\u2581diagonal": 25202, "\u2581lunch": 9957, "blem": 11706, "\u0440\u0438\u043e": 15604, "\u2581certain": 2552, "oret": 11007, "\u514b": 30329, "ucht": 19113, "\u2581\u041e": 2807, "mode": 4046, "mother": 13710, "pectives": 26859, "ava": 1750, "\u2581particle": 14988, "\u2581Fly": 20049, "reach": 18932, "\u2581appearing": 19711, "Device": 6489, "\u2581Blood": 17143, "\u2581Jewish": 9952, "getAttribute": 20296, "\ud658": 30391, "\u2581\"${": 12833, "\u2581sweat": 13898, "\u2581hearts": 17758, "\ub144": 31479, "\uc21c": 30891, "hop": 19463, "h\u00f6": 21017, "\u2581player": 4385, "holder": 8229, "\u2581sword": 13443, "\u2581Apart": 20754, "izontal": 9727, "\u2581Nazi": 21217, "\u2581Aber": 25601, "udad": 12087, "\u2581storage": 7073, "extend": 14104, "arr": 2654, "uity": 25239, "\u2581girlfriend": 16391, "\u2581expansion": 11120, ">\";": 20160, "\u2581Similar": 24232, "\u2581line": 1407, "textit": 10162, "\u2581caution": 26769, "\u2581olymp": 27356, "\u2581Carr": 27639, "\u043e": 28761, "\u2581seasons": 15238, "\u2581tel": 18408, "None": 5364, "\u2581Hum": 17442, "\u2581Xbox": 26631, "\u2581pou": 8631, "\u2581M\u00e9xico": 24602, "\u2581VAR": 27913, "fixed": 15145, "Set": 1436, "find": 3326, "inf": 8879, "\u2581golden": 13863, "\u8d28": 30625, "\u2581Const": 7791, "PM": 8597, "sup": 10809, "log": 1582, "\u2581DB": 11664, "\u2581Crown": 24154, "choice": 23817, "ongo": 16964, "lg": 10950, "\u2581m\u011b": 18076, "\u203a": 29525, "\u2581redd": 15512, "\u9875": 29238, "\u2581allerg": 27451, "\u2581\u0433\u043e\u0434\u0443": 5521, "\u2581vast": 9555, "\u2581\u0412\u043e": 9665, "\u2581accord": 13246, "\u2581\u0440\u0430\u0439\u043e\u043d\u0430": 22243, "\u2581angel": 23190, "start": 2521, "egen": 5772, "ening": 3250, "theless": 13054, "\u2581serious": 4592, "Img": 24088, "\u2591": 29782, "\u304b": 29399, "\u2581sets": 6491, "\u2581\u0441\u043f\u0435": 16201, "\u2581juice": 18342, "ore": 431, "acht": 4755, "\u6469": 31978, "\u2581railway": 18051, "eren": 9417, "\u2581young": 2518, "\u2581Institut": 20929, "\u2581Speed": 19586, "\u2581Berg": 14813, "\u5251": 31945, "upid": 8064, "neys": 26983, "\u2581mog": 19841, "\u2581slavery": 21727, "\u2581parties": 8209, "\uc5c8": 30591, "\u0441\u0442\u0432\u0435\u043d": 7265, "\u2581prize": 17848, "\u1ecd": 30097, "\u2581l\u00ed": 16101, "\u2581Galaxy": 28228, "\u2581permanently": 26815, "acio": 19867, "\u2581kter\u00fd": 28162, "\u2581EN": 11929, "\u2581Chamber": 21752, "ield": 874, "\u2581insp": 5687, "amiento": 15090, "\u2581eer": 10034, "bind": 5893, "\u2581self": 1008, "\u2581yield": 8109, "uv": 5388, "amp": 1057, "\u010c": 28965, "\u2581invent": 9182, "\u2581Sue": 22516, "\u2581harvest": 20040, "\u2581\u2013,": 20120, "\u2581Bulgar": 22390, "\u2581stick": 6906, "\u2581ST": 5387, "\u2581ampl": 16401, "Culture": 24742, "\u2584": 30213, "Serialization": 21046, "\u2581elevator": 26445, "\u2581Arm": 9700, "\u2581Generation": 26802, "MSG": 11699, ".\r": 5488, "\u2581ut": 3734, "esch": 5289, "chair": 22189, "\u2581Sout": 25773, "\u2581nu": 6561, "\u2581device": 3895, "\u2581sue": 17423, "shell": 21678, "\u53d8": 29389, "ighbor": 21858, "ks": 2285, "ete": 3811, "\u2581Dat": 9888, "online": 20154, "\u2581unset": 22353, "Even": 20520, "\u2581credit": 6183, "\u2581blanket": 21434, "---------": 25635, "\u0441\u0442\u0432\u0430": 6238, "home": 9029, "\u2581deleted": 15185, "save": 6568, "\u2581tipo": 19054, "ambers": 25172, "\u0444\u0438": 4981, "\u25fc": 30806, "\u2581UTC": 21811, "\u5df4": 30824, "quality": 14817, "\u2581r\u00e9g": 10551, "gen": 2383, "\u2581definitions": 20343, "\u2581atm": 28446, "ischer": 6283, "}|": 12311, "oose": 12470, "\u0e44": 29962, "rop": 1506, "Hash": 6455, "\u2581gravity": 18428, "\u5de8": 31786, "ucked": 15636, "\u2581Field": 8246, "\u2581Authority": 20653, "\u2581difficult": 3796, "\u2581)\r": 14619, "former": 20700, "Room": 22185, "\u2581organic": 15897, "\u2581commissioned": 28296, "\u2581cz": 8726, "\u2581State": 3885, "\u2581stone": 7253, "\u0441\u044b": 20074, "coln": 13629, "\u2581ABC": 22673, "ponents": 6445, "\u2581midst": 25165, "\u2581radi": 16893, "\u2581sign": 1492, "\u2581Frame": 17624, "An": 2820, "\u2581Container": 25204, "Entities": 25050, "\u63a8": 30063, "Alex": 26189, "\u2581pandemic": 15749, "\u00f6r": 2024, "SESSION": 15373, "\uc870": 29841, "\u5357": 29680, "\u2581gran": 8494, "\u2581applic": 4598, "oon": 4973, "\u0444\u0430": 13460, "\u2581notation": 22499, "\u2581appl": 14933, "\u2581Can": 2418, "\u2581Techn": 6772, "lessly": 12298, "nder": 2520, "\u7522": 31657, "\u2581trans": 1203, "\u2581Getting": 19896, "arks": 7696, "some": 11183, "aku": 17103, "\u2581observation": 15379, "\u2581Foot": 10372, "\u2581\u0438\u0441\u043f\u043e": 13783, "\u2581\u0441\u0430": 4468, "-------": 25702, "%;": 26403, "mixer": 17728, "button": 4559, "leq": 4688, "loading": 16792, "invalid": 10702, "Done": 19524, "cuss": 12804, "\u2581straw": 18393, "PI": 3110, "\u2581FM": 23586, "\u2581batter": 7994, "[\"": 2221, "\u2581vista": 28263, "big": 4040, "ress": 638, "Ke": 7238, "\u2581strings": 11272, "\u2581Wer": 12153, "\u2581knife": 12579, "\u77e9": 30679, "\u2581llvm": 17629, "\u2581\u0446\u0435\u0440": 21276, "\u2581beyond": 5298, "\u2581tribes": 26296, "TLS": 20140, "toggle": 13615, "************": 17328, "SYMBOL": 17248, "\u2581gaze": 12438, "\u2581cryst": 26148, "\u2581Street": 5383, "\u2581gouver": 20401, "\u2581infer": 13701, "\u2581libert": 18655, "}}{": 9412, "abei": 20205, "RE": 896, "\u00fe": 29767, "validation": 16193, "fd": 5534, "\u2581Kon": 8294, "\u591c": 30755, "\u2581brig": 20723, "ervice": 1898, "rite": 1967, "PB": 27982, "urs": 1726, "\u2581unem": 20955, "ollow": 1257, "\u2581Woods": 28628, "\u2581televis": 25483, "cat": 6272, "osing": 8461, "Sprintf": 20625, "\u2581pad": 9010, "\u0e4c": 29923, "\u2581item": 2515, "urls": 25110, "\u043b\u044e": 4438, "\u2581Mike": 9360, "Direct": 7746, "pez": 19033, "\u2581al": 389, "Score": 18120, "\uae38": 31270, "\u0171": 28931, "\u2581Nom": 13055, "iffe": 27007, "Ill": 15497, "\u2581\u00c4": 18912, "<0x37>": 58, "\u2581woke": 19157, "\u2581oldest": 17690, "\u2581exit": 7790, "\u2581\u0438\u043c": 14122, "\u2581pages": 6718, "\u2581king": 6779, "\u2581Nord": 8402, "\u2581representation": 9283, "Encode": 22806, "\ud2bc": 31285, "\u0433\u043e\u043c": 26466, "\u2581tv\u00e5": 22364, "\u2581affect": 5197, "\u2581kan": 10353, "cember": 4354, "internal": 7047, "\u2581captain": 13565, "\u2581Miller": 13674, "drive": 26725, "\u2581Off": 3984, "MAGES": 24441, "uerte": 25395, "\u8ddf": 30848, "\u2581Neither": 19100, "\u2581thirteen": 26584, "Don": 6017, "is\u00e9": 17218, "\u2581Bro": 4168, "\u2581Fou": 22577, "Mod": 1701, "\uc5ec": 29827, "metric": 13997, "Occ": 22451, "\u2581fire": 3339, "\u6e90": 29512, "\u2581faded": 23716, "\u2581Kel": 21564, "\u2581('": 8272, "pu\u00e9s": 12873, "eur": 7093, "ngth": 24575, "\u0463": 30350, "\u2581IX": 22343, "ANT": 12738, "Extension": 10430, "Scheme": 23171, "\u2581hold": 2400, "\u2581\u0458\u0435": 4557, "\u00f3r": 11240, "\u2581The": 415, "\u2581frustration": 22802, "\u2581immedi": 4207, "\u2581Statistics": 28091, "[];": 20895, "MBOL": 16532, "\u2581Zw": 19678, "\u2581Situ": 28119, "DMA": 17632, "\u2581daughter": 5690, "\u2581python": 21966, "\uc11c": 29305, "/>": 2370, "\u00e1d": 11751, "ounter": 5415, "\u2581PC": 9596, "ait": 1022, "\u5178": 30465, "\u2581pr\u00e9c": 18308, "helper": 11937, "although": 27847, "avax": 6598, "\u2581bor": 24863, "\u2581Chapter": 7513, "\u2581k": 446, "\u5236": 29251, "\u2581\u043f\u043e\u043b\u0438\u0442\u0438": 22051, "\u2581num": 2075, "wait": 6901, "\u2581achievements": 27864, "Tables": 22776, "\u2581domestic": 12866, "\u2581\u0437": 1119, "\u9898": 29264, "zahl": 27483, "<0x5E>": 97, "_": 28730, "\u2581bills": 16843, "\u2581af": 3833, "\u2581Hor": 8221, "\u2581act": 960, "Met": 4680, "estro": 21843, "antes": 6682, "ille": 2457, "circle": 13392, "\u2581Cal": 2984, "Live": 18119, "\u2581multip": 17669, "INTE": 28421, "\u2581pipeline": 16892, "\u2581aud": 4786, "shit": 16371, "\u2581om": 3422, "Health": 18470, "\u2581Additional": 20460, "No": 2501, "\u2581fundamental": 11854, "\u2581\u0444\u0435\u0432": 21851, "vote": 22644, "BI": 8758, "\u2581Bey": 16015, "\u0436\u0434\u0435\u043d\u0438\u044f": 28253, "\u2581officials": 10755, "title": 3901, "\u308b": 29116, "\u2581trail": 8005, "\u2581narrative": 15529, "\u2581cette": 8821, "Operations": 23709, "\u2581Jin": 27794, "\u2581perd": 17266, "\u0448\u0438\u0439": 18702, "\u2581\u0440\u0435\u0436\u0438": 23903, "\u2581nerves": 28686, "?'": 3725, "ryption": 14071, "![": 25531, "\u95dc": 31085, "\u2581capt": 4286, "write": 3035, "\u2581blocks": 9478, "\u2581{\"": 9830, "bach": 11875, "\ub3c5": 31930, "\u2581\u042d": 8411, "\u043e\u0431": 13549, "\u2581vide": 8414, "\u2581acc": 932, "mt": 2630, "\u2581et": 911, "\u2581&=&": 17481, "unge": 21614, "ynom": 14863, "\u2581countless": 23387, "od": 350, "\u2581\u043c\u0435\u0434\u0430": 28165, "\u2581array": 2293, "\u2581barn": 18581, "\u2581mis": 4052, "\u2581Business": 7711, "\u2581Picture": 27872, "\u5f90": 31921, "\u2581absolute": 10287, "\u30d4": 30545, "\ub9bc": 31165, "\u2581deserve": 16133, "\u2581corpor": 7807, "\u2581Indeed": 12876, "green": 13234, "Bul": 18775, "ching": 11097, "generic": 19105, "-----": 13918, "\uc6cc": 31126, "console": 14124, "\u2581\u0421\u0428\u0410": 17195, "\u00e7": 28857, "\u2581hook": 8825, "\u0447\u0435\u0441\u0442\u0432\u043e": 26029, "\u2581przed": 22749, "ikan": 13579, "false": 3952, "\u2581pued": 11127, "\u2581Saud": 20605, "\u223c": 30567, "mans": 20661, "\u2581\u044f\u043d\u0432\u0430": 22697, "\u2581-->": 6998, "\u2581abundance": 25468, "\u00e9l": 5560, "P": 28753, "iten": 6329, "ei": 17392, "Branch": 21822, "\u2581\u0414\u043e": 9193, "\u2581upp": 21343, "\u2581byla": 23070, "\u2581vil": 16767, "\u2581Like": 5410, "\u2581mask": 5934, "ilities": 3780, "ifndef": 17981, "ifica": 20750, "\u203b": 31422, "\u2581Sony": 21360, "paths": 19366, "\u2581succeeded": 17751, "\u03a1": 30528, "Strings": 24567, "\u898b": 30599, "\u8ba1": 29382, "saved": 21428, "socket": 14210, "MED": 25428, "itzer": 13744, "\u2581Wang": 23024, "\u8d8a": 30619, "\u2581Sau": 23707, "using": 8521, "\u102f": 30987, "gun": 7429, "\uc6a9": 29424, "\u2581\u041f\u0430": 8588, "\u2581dil": 15872, "\u2581\u043f\u043e\u043b\u044c": 27904, "\u2581Stra": 12360, "\u03b3": 29101, "rule": 7937, "\u2581unable": 9638, "umeric": 23504, "\u2581swim": 10923, "\u2581suicide": 16240, "\u2581apare": 19931, "Prototype": 25196, "\u2581compte": 24380, "\u2581cours": 19780, "\u2581Dav": 3476, "\u2581attacks": 10813, "\u2581translation": 13846, "\u2581founder": 18291, "\u0441\u0442\u044c": 3954, "dp": 8805, "opsis": 22761, "\u8863": 31524, "\u2581Case": 12633, "\u2581jag": 15584, "\u2581pref": 27718, "\u2581modern": 4638, "\u2581gl": 1272, "\u2581habits": 19305, "Media": 9426, "iven": 5067, "\u2581alert": 10977, "adj": 26143, "lete": 2041, "minus": 15530, "\u2581\u0431\u0440\u043e": 19567, "\ub354": 30519, "\u2581fraction": 14005, "straint": 12024, "licht": 15761, "\u2581Copy": 18158, "\u1ee9": 30422, "tract": 2107, "\u2581Commercial": 24551, "\u2581pilots": 27109, "\u2581nar": 21119, "izable": 11552, "\u50b3": 31036, "\u2581custody": 28103, "ClassName": 19452, "\u989d": 29880, "ged": 2560, "xB": 18674, "inea": 21406, "\u2581sie": 4748, "Forms": 8917, "criptors": 22766, "\u2581museum": 13041, "\u0447": 28826, "\u2581actively": 18639, "\u2581generated": 7138, "\u62a5": 29845, "ase": 555, "\u2581{},": 12682, "\u2581\u0434\u0432\u0438": 24410, "\u2713": 29952, "dup": 20267, "\u2581Campaign": 27003, "\u2581Claud": 25630, "frac": 1655, "fb": 10967, "\u2581approached": 14709, "\u2581controversial": 24720, "utdown": 18967, "rcu": 28268, "\u05d9": 29005, "\u2581refuge": 14815, "directory": 17509, "\u0441\u0442\u0440\u0438": 27342, "\u2581pound": 15899, "enez": 14936, "adr": 23677, "\u9700": 29259, "\u2581Seg": 9594, "\u0107": 28900, "ault": 1118, "\u2581\u0414\u0436": 16046, "\u2581expl": 1949, "\u2581nicht": 6227, "\u2581probability": 10966, "icies": 22966, "\u30b7": 29527, "\u3058": 30692, "\u3081": 30110, "\u2581documentation": 12905, "\u2581Vern": 26801, "}{\\": 3803, "\u2581analyzed": 28649, "\u89aa": 31661, "\u2581nonetheless": 28214, "\u2581vig": 15068, "\u2581monument": 17772, "itsch": 22158, "ikk": 28169, "ucc": 20550, "\u2581Wonder": 21950, "\uc678": 31132, "(_": 4831, "irm": 2780, "\u2581grat": 15177, "\u2581unc": 9967, "\u2581hatte": 11427, "\u2581engl": 24670, "\u2581spending": 9981, "});\r": 26636, "\u2581talked": 9409, "reib": 20628, "\u0441\u0442\u0440\u0430\u0442\u0438\u0432": 21636, "\u2581Hol": 4170, "\u2581Mus": 3779, "\u0440\u0430\u0431": 24462, "\u2581rude": 26705, "ization": 1837, "\u2581miles": 6052, "setup": 11324, "ince": 1261, "ATED": 14371, "\u2581mens": 24644, ")\\": 2681, "rob": 18443, "\u2581gan": 15061, "atom": 16739, "\u0161t\u011b": 27832, "\u2581ImGui": 21316, "a\u0142o": 27189, "Write": 5238, "osta": 23363, "current": 3022, "\u2581Sugar": 27333, "\u2581instrument": 10623, "\u5e08": 30581, "\u2581wanted": 2613, "\u5141": 30253, "\u2581Rest": 9576, "\u00f3d": 9666, "\u2581embed": 11271, "\u2581\u0440\u0430\u0439\u043e": 14159, "CodeAttribute": 23583, "\u2581defense": 9968, "ctors": 6475, "\u2581cache": 7532, "ols": 13310, "\u7de8": 30689, "\u2581Syn": 18192, "\u2581fare": 19111, "Throw": 16519, "\u2581BC": 13779, "\u2581sent": 2662, "handle": 5123, "\u2581ger": 16447, "\u2581electro": 22154, "\u2b50": 30130, "ployed": 28246, "\u2581\u041b\u043e": 18806, "...'": 22984, "abases": 25716, "\u2581Kansas": 17778, "\u2581ya": 10129, "\u2581vor": 6876, "essages": 9251, "\u2581grabbed": 13300, "\u2581selector": 14607, "\u2581\u041e\u0441": 20203, "\u2581\u00f3": 27500, "\u2581Romans": 28282, "\u2581farm": 6354, "Append": 13028, "\u2581Appro": 20047, "semb": 5650, "SSION": 10946, "Xamarin": 27206, "\u2581Molly": 28006, "\u2581snow": 7899, "\u2581Identity": 28399, "WIN": 14655, "\u2581Bun": 28199, "\u0432": 28791, "\u2581panic": 15107, "\u2581quite": 3448, "\u2581sprintf": 22804, "Appro": 27885, "\u2581\u0447\u0438": 9069, "\u2581frag": 11334, "}(\\": 4824, "wd": 9747, "\u2581encore": 16921, "\u2581path": 2439, "\u2581spouse": 25740, "\u2581contemporary": 13621, "\u2581Liverpool": 20834, "OBJECT": 17879, "FF": 1831, "\u0441\u043b\u043e": 12309, "ically": 1944, "\u2581cop": 5029, "iform": 5719, "\u2581touched": 12527, "\u770b": 29466, "\u2581linear": 9270, "retval": 15063, "\u2581nast": 18904, "\u0395": 29563, "\u2581costs": 6966, "\u2581Pil": 16025, "Comm": 3912, "\u2581User": 1247, "\u0e99": 31904, "\u00e3o": 2069, "\u2581Ye": 22702, "\u2581Ter": 7163, "ood": 1004, "\u2581Assert": 7360, "low": 9381, "\u2581fost": 14096, "Layer": 10153, "\u0421\u0421\u0420": 18140, "l\u00e9": 19838, "\u2581elsewhere": 14816, "\u30ca": 30081, "\u2581rev": 4497, "\u6781": 31260, "jud": 14042, "\u2581multiple": 5166, "\u2581persons": 12920, "\u2581arbitrary": 16711, "math": 928, "Cast": 13502, "\u2581paper": 3830, "\u2581sz": 4301, "\u2581Irish": 11340, "coord": 17213, "iced": 5200, "ight": 454, "XX": 6135, "training": 25714, "\")]": 6564, "\u2581bored": 19739, "ienia": 24817, "\u2581ge": 2970, "\u2581elder": 15966, "\u0440\u043e\u0432": 5658, "sk\u00e9": 20079, "AST": 12440, "\uacbd": 29653, "\u679a": 31590, "\u2581SE": 5820, "\u2581Holly": 11512, "\u2581snap": 17433, "storm": 22239, "\u2581spraw": 24364, "\u2581unfair": 25340, "\u2581raz": 10717, "\ub2e8": 30315, "\u2581Area": 14488, "\u2581care": 1656, "\u2581czas": 23906, "HasColumnType": 18239, "\u2581companies": 4799, "\u2581ARISING": 28580, "\u2581Fox": 12407, "STER": 23194, "WriteLine": 23315, "Size": 2269, "\u178f": 30460, "ahl": 7010, "\u2581(!$": 23942, "\u2581guessed": 26415, "share": 16864, "rin": 19916, "\u654f": 31703, "ische": 3751, "=\"\"": 19164, "\u2581Soph": 15303, "\u2581west": 7635, "\u2581stare": 19696, "\u2581cash": 7877, "\u2581complaining": 26509, "\u2581h\u00e1": 22176, "gro": 25344, "\u2581rm": 24614, "\u2581\u043f\u043e\u0441": 18678, "it\u00e4t": 12890, "out": 406, "PHP": 24612, "\u2581stating": 23630, "\u04c0": 31731, "Objects": 15142, "virtual": 16604, "\u2581pipe": 13661, "\u2581afraid": 8526, "itect": 5588, "\u2581offered": 6373, "\u2581disaster": 17273, "\u2581permet": 14632, "ainer": 2542, "\u2581contrast": 9349, "Pages": 21261, "\u2581NAT": 24599, "\u2581strange": 8708, "\u2581unh": 20581, "efe": 25922, "iente": 8783, "\u96c4": 30875, "\u2581episode": 9560, "olid": 11128, "ije": 11119, "ora": 3428, "sqrt": 5840, "\u2581Doctor": 16505, "dark": 16770, "cip": 22169, "\u2581\u042f": 10019, "\u2581Uncle": 20189, "\u2581Tele": 9207, "\u2581Haz": 23990, "\u10e0": 29449, "-)": 27346, "sten": 6062, "bridge": 15401, "\u2581possession": 18149, "\u0303": 30039, "\u2581Mill": 6274, "\u2581contre": 13791, "\u6708": 29376, "\u2581fluct": 19363, "\u043f\u043e\u0432": 21897, "\u2581literature": 11354, "\u2581thickness": 28032, "\u2581voice": 3441, "UR": 1990, "\u2581Festival": 10113, "!)": 14280, "\u2581Target": 15255, "\u2581defens": 26479, "\u2581Kir": 8806, "\u2581criminal": 11392, "\u00e5": 28851, "While": 23475, "<0xF0>": 243, "timestamp": 15058, "\u2581Je": 3291, "\u2581temperatures": 17991, "filename": 9639, "DOT": 24565, "uld": 24782, "mac": 7502, "ISO": 27324, "\u2581Apple": 10244, "\u2581ant": 2725, "\u043b": 28794, "\u4e8c": 29482, "\u8fbc": 30974, "unsigned": 4447, "News": 25614, "fp": 8808, "\u2581infrastructure": 14461, "Authorization": 26369, "\u2581Sold": 20651, "ouses": 16807, "\u2581patri": 17668, "plicated": 23080, "ockey": 12277, "/:": 26387, "\u2581student": 5716, "xture": 8440, "wp": 9359, "ois": 5628, "\u2581opponent": 20364, "\u2581medicine": 12502, "\u0634": 29083, "\u0142a": 6905, "\u2581redu": 3230, "\u30c4": 30267, "umpy": 14196, "oute": 3241, "ORM": 14851, "\u2581Obama": 11764, "gs": 2626, "health": 14513, "\u2581communicate": 16287, "\u2581also": 835, "\u0432\u043e\u043c": 18653, "\u2581accepting": 22368, "\u2581Caroline": 23217, "\u5b66": 29500, "\u0442\u0440\u0438": 11163, "\u2581Diet": 17894, "\u2581Arabia": 27264, "\u2581blown": 24995, "Sam": 19777, "\u0440\u0438": 892, "\u0446\u0435": 3876, "\u2581pose": 15596, "\u2581Arist": 24259, "\u0698": 31114, "\u2581expression": 5782, "\u2581Argument": 19189, "\u2581input": 2787, "BL": 8152, "\u2581Past": 17860, "\u2581raid": 21962, "\u3093": 29585, "\u2581$|": 17429, "\u2581help": 1316, "\u2581Bruce": 16668, "\u2581M\u00e4r": 16851, "},\\": 7472, "\u2581FOR": 6907, "\u2581wake": 11088, "\u2581met": 1424, "\u2581nominated": 27242, "\u2581DEF": 18899, "aining": 1781, "citep": 10371, "\u2581accepted": 9008, "kap": 26738, "\u2581\u00c8": 22256, "\u2581cycl": 14211, "\u2581ethnic": 18433, "\u2581rodz": 27895, "\u4e2d": 28991, "\u0432\u0435\u0434": 20183, "\u2581bi": 4240, "\u2581facing": 11981, "\u2581cute": 17949, "backs": 19076, "eller": 5371, "\u2581$-": 24279, "\u5b50": 29169, "\u2581volumes": 20535, "\u044f\u0432\u0438": 20241, "images": 10341, "\u2581aspir": 26985, "ograf\u00eda": 18687, "\u0435\u0440\u0435\u0434": 23876, "Mgr": 22109, "yp": 1416, "crete": 7916, "\u2581planted": 24571, "ulf": 12981, "\u2581households": 23755, "oro": 8811, "\u2581armed": 14630, "\u2581kindness": 27404, "Red": 7516, "\u2581products": 4076, "\u2581Diam": 19235, "\u00c3": 29364, "\u2581fold": 10068, "ofs": 24103, "\u0016": 30935, "\u0441\u0442\u0440\u0443": 17405, "\u2581(\\": 3566, "isce": 26322, "VEL": 16414, "\u2581edific": 23680, "thy": 25917, "\u2581hit": 4067, "\u2581Ad": 1964, "\u2581found": 1419, "\u2581realization": 27565, "\u2581again": 1076, "\u0e19": 29178, "\u2581victims": 13980, "\u2581Colomb": 18276, "\">&": 25260, "inceton": 26797, "TY": 2752, "\u2581supers": 25666, "\u2581cancer": 8875, "\u2581Sara": 23365, "LEN": 8880, "refix": 5770, "rist": 1853, "\u2581exports": 10679, "deg": 13780, "provider": 14620, "\u2581consum": 6288, "\u2581Ross": 12124, "\u4f3c": 30694, "\u2581sheet": 12173, "Modal": 14025, "\u2581Commerce": 27535, "ViewById": 21374, "\u2581Charlie": 13195, "Equal": 4283, "\u2581expert": 7583, "\u2581Exchange": 21162, "\u2581comune": 25845, "7": 28787, "\u80fd": 29084, "mania": 25771, "Pos": 3529, "\u2581App": 3122, "\u5f20": 30162, "\u2581Sid": 20315, "\u2581Made": 16970, "\u4f4e": 30456, "\u2581pride": 14384, "ango": 8458, "\\{\\": 25951, "\u2581Kitchen": 21376, "ober": 2510, "aches": 5131, "\u6703": 30332, "\u2581profitable": 27822, "arp": 5882, "\u2581Into": 27121, "interval": 15344, "\u2581Lyn": 15975, "emy": 6200, "\u2581pieces": 7769, "\u2581dece": 23009, "let": 895, "\u2581invoked": 26377, "})\\": 11972, "\u00e4nde": 18919, "\u2581importante": 19538, "\u2581prevent": 5297, "\u2581opportunity": 5701, "Thread": 6237, "child": 4657, "\u2581\u043b\u0435": 7622, "\u26a0": 31433, "src": 3478, "FULL": 26318, "\u2581Cop": 9321, "\u2581Leon": 11615, "\u0441\u043a\u043e\u0432": 20060, "\u2581employer": 18646, "\u2581\u0435\u0433\u043e": 9333, "\u2640": 30155, "\u2581::": 6210, "\u2581Pol": 2538, "<0x88>": 139, "\u2581supporting": 11787, "\u2581sustained": 25859, "\u2581Bark": 27542, "las": 11215, "hire": 20685, "\u2581twist": 20746, "CF": 7065, "\u2581ho": 7463, "nate": 25134, "\u2581marg": 15003, "\u2581est": 934, "apis": 20716, "angles": 21744, "\u2581lot": 2055, "EN": 1020, "\u6682": 30547, "box": 2858, "\u2581plac": 20227, "\u043a\u0442\u0438\u0432": 13418, "\u02cc": 30636, "\u2581whole": 2894, "\u2581wind": 5535, ";\\": 8511, "\u2581Bra": 11830, "dropdown": 21898, "\u2581toute": 22611, "\u2581beginnetje": 15739, "\u2581comfort": 5034, "\u2581grant": 13154, "\u2581durant": 21105, "atern": 14516, "\uc9d1": 31056, "\u2581raised": 6333, "\u2581Classic": 21755, "atan": 23905, "\u2581vars": 27981, "ciples": 10411, "\u2581ships": 11296, "ony": 2557, "mem": 3271, "\u2581behav": 4569, "\u2581\u043a\u0443": 9997, "\u2581utter": 14870, "\uae08": 30331, "rou": 518, "\u2581provincial": 26019, "\u2581inj": 5891, "\u7b80": 30470, "\u0d3f": 31526, "\u2581\u043f\u043e": 1051, "inson": 11827, "\u2581claiming": 20188, "\u0445\u0440\u0430": 23163, "\u2581Behind": 23779, "SERVICE": 27087, "\u2581route": 7103, "\u7bc4": 31974, "\u2581wish": 5138, "\u2581eyes": 2282, "\u2581Hillary": 27584, "BE": 7657, "\u2581Tower": 19895, "\u2581ett": 9947, "NUM": 9818, "\u53f8": 29989, "poch": 17698, "\u2581NY": 11800, "\u2581relations": 3136, "\u2581Islam": 10251, "\u2581Ryan": 13194, "mente": 4379, "\u0442\u0438\u0435": 28198, "\u2581peque": 25104, "\u2581PROVIDED": 27104, "k\u00e9": 10641, "\u2581affected": 11180, "errors": 9705, "ec": 760, "azy": 13478, "\u2581bra": 12015, "\u2581feeling": 4622, "\u2581hanging": 12445, "\u53cd": 30004, "Pointer": 8638, "\u2581Online": 10634, "\u79d1": 30226, "Saint": 26273, "Tip": 19149, "\u2581facts": 11412, "\u2581intervention": 20288, "policy": 10970, "#[": 8801, "\u2581Zen": 25153, "Hist": 8690, "\u2581\u00d6": 10994, "USER": 11123, "\u0441\u043a\u043e\u0433\u043e": 4809, "\u2581significance": 18309, "\u2581Ho": 10488, "Spring": 24314, "\u2581Beyond": 21483, "\u2581lover": 19568, "\u2581Dean": 17378, "\u2581defines": 18791, "\u2581ordin": 28058, "|_{": 28221, "\u0290": 31702, "History": 13266, "\u2581Raf": 21926, "\u044e\u0442\u044c\u0441\u044f": 25582, "\u2581severely": 28064, "\u7fbd": 31475, "\u2581snapped": 18190, "threads": 26202, "\u884c": 29037, "\u2581\u043c\u0430\u0440\u0442\u0430": 24898, "\u2581altered": 25980, "Py": 6218, "Ship": 24946, "\u0442\u0435\u0440": 8900, "\u2581mal": 6125, "\u2581commod": 25794, "LICENSE": 10959, "\u25b6": 30577, "Styles": 17640, "\u2581Graham": 17963, "Android": 15225, "\u2581announce": 12411, "\u2581company": 2496, "\u2581adjacent": 20480, "iago": 21555, "asc": 4486, "orous": 15138, "\u2581c\u00f4": 22434, "\u2581Pays": 26828, "\u2581GM": 27299, "\u2581\u0438": 839, "dims": 25056, "l\u00e4": 15135, "]*": 16069, "\u0153uv": 20914, "\u2581\u041a": 1688, "a\u00f1": 15395, "\u2581cargo": 16666, "osi": 12681, "\u2581parl": 18435, "eton": 21064, "\u2581computation": 21728, "\u2581welcomed": 26097, "\u05d6": 29913, "century": 15900, "\u4e88": 31221, "of": 1009, "\";": 1599, "\u2581Switch": 20666, "\u2581Trump": 6932, "Router": 16907, "SD": 5309, "\u3061": 30173, "\u2581'#": 12252, "\u2581\u017c": 24579, "\u2581negative": 7087, "asper": 25177, "igan": 9264, "\u2581dismiss": 12983, "\u2581ind": 1176, "\u2194": 30375, "\u2581\u0434": 942, "\u2581slowed": 28636, "\u30c6": 29610, "\u6211": 29242, "]:": 9582, "nego": 12766, "\u0437\u043d\u0430": 6973, "\u2581supplied": 16584, "\u2581Hey": 17162, "ished": 1497, "\u2581enthus": 12374, "\u2581Var": 12760, "\u2581lane": 19398, "\u2581Quarter": 24391, "Lead": 24353, "\ub824": 30710, "mit": 2162, "suit": 21232, "\u2581Lol": 23118, "\u2581Niger": 15501, "\u00e9s": 1442, "ferences": 8831, "\u2581garlic": 25795, "\u2581operates": 24015, "\u2581resc": 11532, "\u2581regard": 4166, "\u016f": 28913, "\u2581calories": 24336, "\u2581musical": 9158, "\u7f13": 29843, "\u2581represented": 10483, "\u2581overl": 27086, "\u2581Fel": 11659, "\u2581Single": 16096, "gender": 24024, "\u2581Contact": 12603, "agg": 7058, "\u2581tract": 25180, "MM": 4962, "iker": 9225, "\u2581Order": 9006, "uu": 24173, "\u2581output": 3825, "\u2581zam": 23884, "\u5c04": 30554, "Gap": 26954, "\u2581Brian": 12569, "as": 293, "\u2581driven": 12215, "\u5207": 29961, "\u2581industry": 4779, "\u2581winning": 9821, "\u2581amaz": 5818, "\u2581\\;": 14695, "osph": 24512, "\u2581ruin": 21878, "\u2581progress": 5097, "\u2581header": 7735, "\u0432\u0438\u043d": 17840, "nab": 7563, "\u2581romance": 21695, "\u2581bul": 5778, "\u2581Prest": 24478, "\u2581verse": 20016, "\u2581engineering": 13320, "LET": 25870, "\u2581schol": 17733, "\u2581China": 5077, "\u2581essentially": 13315, "\u2581Spiel": 14755, "\u2581mundo": 18654, "<0xE5>": 232, "\u2581skb": 22076, "\u2581\u043f\u043e\u0431\u0435": 23136, "\u2581wet": 7569, "\u2581missions": 23225, "$(\"#": 26690, "igten": 27598, "\u179c": 31412, "ief": 3417, "\u2581Ele": 12450, "\u2581digest": 18922, "\u2581recher": 26590, "endet": 27522, "Intent": 18868, "\u2581Elle": 9801, "\u2581Nad": 18973, "porte": 24095, "\u2581scient": 6269, "xd": 10044, "py": 2834, "\u2581questo": 16709, "opic": 22773, "jel": 24457, "\u2581Plus": 11230, "undef": 25083, "\u2581pag": 10913, "\u2581regarding": 8217, "\u2581\u043f\u0438\u0441\u0430": 25216, "\u0421": 28844, "\u2581ancient": 9467, "LEFT": 20528, "Port": 6411, "\u2581dicembre": 25919, "\u2581Cool": 21359, "bss": 26727, "istant": 11143, "itary": 11969, "RESET": 22867, "\u2581Ensure": 25217, "TRA": 22057, "\u2581rugby": 27437, "\u2581exclus": 16574, "Colors": 25651, "ger": 1097, "ank": 978, "\u5165": 29048, "Errorf": 12460, "\u2581Lamb": 26247, "uum": 14388, "VA": 18330, "\u2581projet": 28146, "^{": 984, "\u2581comed": 26677, "START": 12241, "\u2581CBD": 21108, "View": 2086, "\u2581expected": 3349, "eqn": 5030, "\u2581fran\u00e7": 10530, "\u1eb1": 31642, "TT": 16235, "\u2581pronounced": 28232, "\u2581really": 1528, "\u0446\u0456\u0432": 22151, "\u2581Fig": 4826, "\u2581manner": 8717, "\u2581Sign": 9315, "\u2581shine": 27882, "HI": 19394, "\u2581autre": 20638, "urbed": 22306, "ny": 1780, "had": 16449, "\u2581veteran": 23960, "\u2581shock": 10382, "\u2581Regional": 18718, "atr": 9959, "\u2581club": 4489, "\u2581Bell": 11395, "udio": 3704, "eqref": 5103, "\u2581empower": 21757, "\u2581Edward": 10785, "\u2581rescue": 16011, "\u2581Lawrence": 16506, "\u2581lim": 2132, "Delta": 4773, "gy": 1495, "lst": 26816, "Params": 5385, "\u2581MB": 18609, "\u2581Oh": 5434, "\u0c28": 31674, "\u2581Ice": 19587, "\u2581wie": 7220, "ird": 1844, "\u9884": 30098, "\u2581anyway": 7799, "\u2581(_": 9453, "Bl": 4919, "acle": 7338, "\u2581Josef": 27622, "him": 24669, "\u2581km": 3535, "entity": 5584, "pro": 729, "\u2581repe": 5683, "\u3073": 31050, "\u2581baby": 5982, "ournal": 7116, "\u00e1g": 8043, "\u2581ved": 16986, "Normal": 13303, "Once": 16114, "\u2581desk": 9431, "Components": 16966, "\u2581breaking": 11313, "\u2581NC": 14343, "\ud3c9": 31523, "\u2581variable": 7860, "\u2581donde": 12943, "\u5343": 30516, "\u2581Foster": 28517, "ICE": 6061, "Gu": 9226, "*\\": 19008, "\u2581hay": 16664, "\u2581'@": 8319, "+(": 24993, "text": 772, "\u043b\u043e\u0432\u0435": 13587, "\u2581kilometres": 26005, "\u2581iter": 6854, "\u0a30": 31880, "\u2581{@": 4958, "CTRL": 14419, "\u2581retro": 24752, "\u2581\u0441\u043e\u0432": 23777, "\u2581sizes": 13282, "redit": 10709, "\u2581classified": 22260, "\u043d\u0438": 669, "lear": 5595, "\u2581outcomes": 18014, "\u0010": 30388, "\u0446\u0435\u043d": 20829, "\u00e9ri": 8909, "\u2581sog": 26255, "\u017d": 29022, "\u2581wife": 4285, "types": 5630, "sender": 21910, "ulator": 11094, "\u2581Ac": 4868, "change": 4078, "\u2581observer": 21854, "zenia": 19716, "\u2581no": 708, "\u2581lung": 14966, "cciones": 24598, "jas": 20490, "\u2581Whether": 9989, "amarin": 25174, "\u2581Trade": 17684, "refer": 16769, "gb": 15881, "\u0442\u0443\u0440\u0430": 15337, "\u2581Sem": 9897, "amily": 5730, "aat": 7748, "\u2581Partial": 24590, "\u2581Sc": 2522, "\u2581yours": 13010, "\u2581Eastern": 13827, "dump": 12927, "piece": 17152, "sun": 19875, ":</": 11423, "\u2581idi": 25927, "\u2581net": 2512, "\u2581\u0440\u043e\u0434\u0438": 23212, "\u017ee": 18765, "\u2581vel": 6592, "UAL": 14821, "\u2581\u00fc": 4675, "\u2581\u043f\u043e\u0441\u043b\u0435": 10444, "\u2581Lane": 19029, "account": 8132, "\u2581draft": 10449, "\u0544": 31863, "\u2581altri": 22861, "\u2581ikke": 28639, "p": 28720, "Than": 23721, "zeichnung": 27448, "\u2581identifying": 21653, "\u2581trips": 18885, "comm": 1805, "\u5bae": 31116, "rait": 10613, "igne": 9908, "\u2581t\u00e9l\u00e9": 27961, "HOW": 24001, "\u2581promoted": 19075, "slot": 12685, "rod": 9413, "ste": 2453, "cou": 20172, "vals": 13175, "(\"<": 21784, "pad": 9845, "\u2581density": 8353, "\u2581Coord": 23184, "\u2581Other": 5299, "\u2581hyp": 8178, "\\/": 23674, "zas": 26613, "\u30ce": 30561, "\u2581\u0441\u043e\u0441\u0442\u0430\u0432\u043b\u044f": 19990, "\u2581init": 2339, "Threshold": 26436, "arently": 20728, "\u2581espec": 3343, "\u2581libre": 27922, "chiat": 20307, "void": 2828, "\u2581exclusive": 14359, "currency": 16714, "True": 4365, "\u2581miser": 22172, "\u2581exemple": 26260, "ALL": 4945, "Fe": 5980, "\u2581add": 967, "Into": 20184, "fo": 902, "Pr": 3393, "\u2581followed": 4961, "\u2581outs": 19717, "\ud83d\ude4c": 31326, "\u2581fort": 5922, "\u2581mie": 15216, "iment": 2487, "\u5bfa": 30799, "stop": 6898, "\u2581draws": 25587, "\u2581Certain": 20828, "Boot": 21270, "LS": 6687, "halten": 17397, "\u2581oil": 5503, "pository": 12530, "\u2581cro": 7950, "\u0434\u0435\u0440": 11078, "guid": 26793, "\u2581od": 4321, "gets": 26176, "\u03a3": 29571, "\u8056": 31700, "\u2581artistic": 20925, "\u2581forward": 3814, "cen": 15698, "\u2581couch": 18602, "\u6587": 29019, "defer": 17112, "\u2581Edit": 12838, "\u2581twentieth": 26203, "\u72b6": 29334, "\u2581whites": 19719, "\u2581Configuration": 20058, "uction": 15029, "\u2581Brig": 15114, "\u2581akt": 17115, "eter": 1623, "\ud83d\udc40": 31232, "\u2581Liberal": 18736, "rw": 19741, "\u2581virus": 15022, "eau": 23524, "\u8fbe": 30079, "\u2581chairs": 17538, "\u2581Lucy": 18010, "\u2581says": 2627, "\u0441\u043a\u043e\u0458": 24736, "\u2581sadly": 28378, "Node": 2259, "LABEL": 22592, "\u2581\u0434\u0435\u0440\u0435\u0432\u043d\u044f": 28398, "iges": 21598, "\u6574": 29681, "github": 6222, "olar": 8330, "FOR": 6551, "\u2581Eff": 24584, "\u2581ang": 3720, "\u2581Bo": 3268, "\u2581sou": 5271, "agment": 6627, "\u2581compre": 10715, "\u2581Types": 25201, "\u2581contributors": 26091, "Student": 28514, "\u2581stay": 3079, "\u2581relie": 14267, "\u2581landing": 14378, "ength": 1340, "\u2581spe": 1886, "ends": 2827, "\u0dcf": 31627, "ATT": 18501, "\u2581sufficient": 9406, "midt": 26366, "\u30ef": 30455, "\u2581hon": 3243, ",&": 17610, "anto": 7733, "\u0432\u0438\u0445": 18095, "\u7d04": 31382, "\u2581minutes": 3486, "ishment": 12243, "\u2581King": 4041, "\u2581hole": 9697, "land": 1207, "\u2581promised": 13272, "\u2581giant": 12351, "\u2581Instagram": 18351, "ATOR": 16657, "\u2581toxic": 18882, "\u2581sind": 6822, "trm": 17800, "\u2026\u2026": 22917, "\u2581og": 6050, "aurus": 24308, "\u2581Daw": 26334, "\u2581infected": 26557, "\u5b9d": 30172, "\u0432\u043e": 1175, "local": 3959, "\u2581market": 2668, ".<": 26364, "\u2581!==": 5352, "che": 631, "\u2581breakdown": 26987, "\u7b7e": 29619, "WF": 27553, "\u2581uncomfort": 16285, "colm": 28425, "\u6c34": 29692, "\u2581valley": 17682, "\u2581gear": 13133, "\u2581wages": 24110, "\u7801": 29145, "\u0458\u0435": 3129, "checked": 12413, "TON": 17517, "\u2581Sir": 8351, "\u2581integrate": 28618, "\u2581An": 1094, "t\u00f3": 9709, "\ud654": 29731, "Template": 6937, "\u2581Bod": 18555, "\u2581places": 5563, "\u2581worse": 6871, "\u2581countryside": 28594, "Sym": 17065, "\u2581corrections": 27956, "Settings": 5546, "\u0441\u0430": 3281, "\u2581routine": 11935, "\u2581DR": 22437, "\u2581Miles": 25264, "\u2581\u00f6ver": 14509, "UM": 4171, "\u2581providing": 7501, "substring": 20854, "queue": 5874, "\u2581possibilities": 18053, "\u2581formats": 23468, "alpha": 2307, "\u2581requiring": 22579, "\u2581rain": 7296, "\u0437\u0434\u0430": 10393, "\u2581Hab": 15729, "\u2581toString": 26297, "\u2581Christopher": 17561, "\u043d\u0438\u0448": 17264, "\u2581McC": 10040, "\u2581anime": 25708, "ervices": 5914, "\u5c55": 29947, "\u2581tam": 24914, "\u2581Lock": 17582, "arroll": 20599, "Setup": 17707, "\u2581cheaper": 20326, "\u0130": 29336, "itute": 5817, "\u2581agrees": 28175, "\u2581Aw": 21960, "returns": 7617, "\u2581led": 4163, "Description": 7301, "\u8f93": 29226, "ife": 1027, "ership": 4445, "ilen": 27748, "velop": 1809, "\u2581messages": 8570, "\u2581conflict": 10318, "\u2581occasional": 20636, "\u2581upright": 27525, "\u2581pueden": 27791, "nbsp": 14089, "Async": 7289, "izon": 12764, "\u2581weed": 27151, "\u585e": 31411, "gamma": 3933, "Implement": 19661, "\u2581minimal": 13383, "\u96e2": 31846, "\u2581twin": 21809, "Install": 25868, "lemagne": 27477, "\u2581Disney": 14665, "\u2581agency": 11344, "\u2581station": 5086, "Optional": 15115, ")$.": 7239, "\u2581micro": 7817, "VT": 10098, "\u2581introduced": 8160, "\u2581markets": 11574, "\u2581victim": 12354, "lock": 1607, "\u2581AA": 24724, "\u05e7": 29347, "\u0432\u0430\u043d\u0430": 28358, "\u2581reducing": 17032, "omin": 15257, "\u2581width": 4850, "\u00edcula": 19858, "\u2581heaven": 14591, "\u2581congr": 25686, "\u2581whispered": 12916, "\u2581emotionally": 26358, "\u2581kicked": 17444, "/,": 25574, "\u2581Partner": 28382, "\u2581lucky": 11977, "/%": 22237, "\u0282": 30728, "feat": 28310, "\u5c1a": 31291, "Document": 7364, "arch": 1161, "\u043f\u043e\u0437\u0438": 24326, "chet": 24388, "\u2581scandal": 28569, "<0xEE>": 241, "ia": 515, "\u2581*\"": 20694, "\u2581straight": 4855, "\u2581suoi": 22452, "\u2581Gar": 7721, "\u2581nations": 14913, "ashing": 4245, "\u2581\u00e1": 8533, "\u2581bon": 7944, "\u0441\u0443\u0434\u0430\u0440": 16747, "\u2581sil": 2958, "will": 13185, "\u2581determining": 23689, "Modules": 28377, "\u2581hitting": 17692, "\u2581\"": 345, "\u30e6": 30775, "\u2581voltage": 24661, "nant": 19352, "master": 9548, "agu": 12736, "\u2581even": 1019, "idence": 3164, "Body": 6982, "widetilde": 10215, "\u2581exponent": 23869, "\u7528": 28963, "LETE": 14730, "\u2581dam": 3207, "\u2581temps": 12974, "hest": 6426, "\u2581LI": 12149, "\u2581Hannah": 24124, "AM": 2854, "Man": 2356, "\u2581heat": 6601, "\u0441\u0441\u0438": 6993, "\u2581nas": 12472, "\u2581groupe": 17559, "\u2581genom": 25567, "\u2581talents": 26719, "\u2581Palm": 28234, "\u2581lives": 4621, "ERCHANT": 12977, "\u2581disturb": 17199, "\u2581!(": 23059, "\u0432\u0435\u0440\u043e": 27489, "\u2581invest": 2631, "utils": 7284, "\u2581Jerusalem": 20092, "\u2581insights": 20715, "\u2581starts": 8383, "\u1e41": 31507, "\u2581suspicious": 25175, "\u2581convenient": 13767, "\u0300": 29891, "\u2581work": 771, "img": 5422, "allas": 14531, "\u0441\u043a\u043e": 1789, "orders": 10486, "multicolumn": 18474, "\u2581Nep": 22127, "\u2581queries": 23681, "\u0442\u0438\u043d": 14981, "adem": 4247, "\u2581stands": 10969, "\u2581Bomb": 25805, "\u99ac": 30831, "\u2581Turner": 22913, "OP": 2759, "Guid": 17893, "j\u0119": 16898, "\u2581overwhel": 12987, "\u2581wallet": 12837, "cite": 1935, "k\u00f3w": 26701, "\u2581Star": 7383, "\u2581til": 9757, "oriented": 28113, "bil": 26702, "\u2581clos": 3377, "\u2581introducing": 25618, "Flag": 10787, "\u2581Ukraine": 16654, "CKET": 26474, "icism": 26163, "\u2581Oscar": 18650, "oton": 20993, "argc": 28529, ")}(": 20089, "\u2581death": 3168, "f": 28722, "\u2581Liga": 19547, "\ubca4": 31852, "screen": 8555, "tiny": 25149, "\u2581\u0432\u0435\u043a\u0430": 25960, "\u2581referring": 18723, "\u2581extensive": 13571, "\u2581K\u00f6n": 15958, "\u2581dependencies": 24940, "\u2581Miche": 27891, "Time": 2098, "\u2581meer": 24691, "['": 1410, "\u2013": 28816, "TDM": 25950, "\u2581attempting": 18289, "\u2581rib": 13147, "Batch": 14713, "^{(": 6680, "soft": 4179, "bean": 16504, "\u2581exceptions": 20935, "\u2581entity": 9040, "\u30dc": 30342, ".....": 24694, "\uc810": 30589, "\u2581Kingdom": 11508, "NV": 16106, "\u2581consequ": 7872, "erne": 28665, "\u2581university": 10539, "\u2581$$": 5623, "RX": 9847, "NP": 24257, "(\"%": 6996, "\u2581cookie": 17661, "\u2581accessories": 25667, "\u2581diagram": 13735, "\u4f0a": 30873, "Uint": 19901, "\u2581Jeremy": 24251, "\u2581am": 837, "\uc77d": 31815, "qq": 22736, "\u2581\u043d\u0435\u0433\u043e": 22510, "AE": 12600, "\u2581de": 340, "ploy": 2193, "\u2581speaks": 19203, "uild": 1678, "Clip": 21271, "CORE": 22901, "\u7c89": 31851, "encoded": 27208, "pm": 3419, "som": 15415, "\u2581warriors": 26510, "\u03b1": 28948, "pkg": 13636, "riv": 814, "\u2581arrived": 6792, "\u2581consent": 15134, "\u2503": 30663, "Schema": 7435, "\u2581Begin": 15152, "\u2581Drive": 16857, "\u2581Comments": 25493, "Cor": 9903, "priority": 20762, "\u2581brut": 16147, "horn": 26966, "\u2581preference": 21448, "\u2581Grace": 15281, "\u2581Even": 4127, "\u0085": 31363, "fil": 2088, "\u2581Ag": 3786, "\u2581therefore": 6166, "\u2581mix": 6750, "\u2581Process": 10705, "nat": 9569, "condition": 12058, "\u2581stressed": 27415, "\u2581hommes": 27678, "\u2581Node": 10127, "\u547d": 29598, "\u2581throws": 4965, "\u2581Instead": 8162, "\u2581Wood": 8010, "\u2581m\u00e9d": 15454, "sr": 13489, "\u2581t\u00eate": 27687, "dated": 5218, "unknown": 16047, "ull": 678, "\ud788": 31909, "ieval": 19168, "\u28ff": 29934, "\u2581yes": 5081, "obe": 8898, "isto": 19074, "\u2581sin": 5450, "\u2581policies": 10086, "Cancel": 15204, "\u043a\u0430\u0437": 25672, "\u2581fed": 15441, "zt": 3903, "\u5927": 29050, "\u2581\u0430\u043d": 23706, "]<": 14626, "terra": 26138, "inct": 5654, "\u0448\u0435\u0439": 22728, "\u2581Website": 17697, "aty": 20721, "\ub85d": 29832, "\u2581mostly": 7444, "kind": 9186, "colo": 17382, "\u2581Freder": 15411, "\u2581conflicts": 24129, "\u2581Common": 10757, "\u2581Age": 14065, "\u987a": 30626, "\u2581Anything": 27985, "\u5e84": 31372, "TIME": 8197, "\u2581available": 2632, "\u2581dies": 5148, "izar": 12874, "\u2581Validate": 26768, "\u2581rend": 6884, "posed": 4481, "\u2581n\u00e4r": 23122, "ablish": 27753, "\u2581person": 1338, "\u2581Little": 9999, "arms": 18466, "routes": 26016, "\u2581researchers": 15334, "ERNAL": 23734, "Language": 13843, "\u2581you": 368, "\u2581nerv": 9434, "\u2581Cad": 21713, "\u2581Observable": 27572, "\u30ae": 31307, "\u2581Suddenly": 21455, "\u2581certainly": 5785, "Enabled": 7315, "\u2581ba": 15771, "';\r": 18759, "\u2581cage": 25807, "anter": 27513, "\u2581effectively": 11466, "\u2581footage": 26536, "\u2581challeng": 6327, "\u2581methods": 5562, "ovember": 4208, "nav": 7141, "\u2581resistance": 12568, "\u2581``": 5008, "\u2581ejempl": 28324, "rate": 6036, "bug": 3718, "arb": 28343, "\u4fee": 29289, "\u2581Lower": 21457, "\u2581determines": 25374, "dl": 9778, "\u2581Kor": 17872, "\u73ed": 30805, "\u045c": 30904, "LP": 11661, "y": 28724, "\u2581teaching": 9432, "\u042b": 30584, "\u0082": 30015, "<>(": 27315, "spot": 20269, "\u02b7": 30847, "\u5f15": 29544, "MC": 7814, "\u2581assess": 8084, "\u2581zur\u00fcck": 16460, "\ucc3d": 31476, "autre": 25538, "\u2581stom": 10442, "\u2581climate": 11259, "\u2581addressed": 16715, "RT": 7042, "\u2581thunder": 25752, "\u0d9a": 31910, "dyn": 23076, "\u2581forest": 8613, "LOT": 24198, "v\u00e4": 15751, "SUB": 16541, "\u2581lobby": 18891, "\u2581PARTIC": 12942, "liminary": 24605, "\u2581District": 8207, "\"><?": 26109, "\u2581December": 4925, "HED": 22035, "elseif": 27636, "Comparison": 27869, "\u043a\u0435": 4026, "\u0446\u0430": 5394, "main": 5389, "BP": 9399, "infty": 5065, "\u2581Mas": 9183, "\u2581\u0442\u0430": 2937, "illed": 2636, "\u2581sharing": 10681, "\u2581italien": 27709, "\u00ef": 28920, "\u2581accum": 14341, "\u62bd": 30885, "\u2581Dop": 15967, "\u2581Collect": 26272, "TCP": 22331, "\u0434\u0456\u0432": 25498, "\u2019": 28809, "\u2581employers": 22271, "\u2581Dor": 10707, "\u2581\u0442\u043e\u0439": 28653, "etic": 10362, "\u2581\u043e\u0434\u0438\u043d": 24193, "\u2581pred": 7871, "ania": 4877, "plex": 8899, "\u2581Advent": 19772, "ev": 828, "HTTP": 12528, "\u2581Indones": 16653, "\u2581licenses": 19984, "\u2581haz": 17617, "ursor": 12558, "\u2581Brother": 22513, "\u2581sans": 12062, "cin": 20243, "\u2581artificial": 18278, "USED": 17034, "\u2581statistics": 13110, "})$,": 25744, "\ub9d0": 31253, "\u0433\u0430\u0440": 17260, "\u2581honour": 23104, "angel": 10621, "VERY": 25928, "aus": 1899, "\u2581generally": 6741, "\u2581drei": 15898, "\u2581hurried": 21893, "\u2581modified": 11452, "\u2581Location": 14716, "\u2581subject": 3817, "ebug": 5986, "\u2581assault": 13349, "Si": 20809, "orne": 13528, "\u2581Bat": 13003, "idents": 6640, "\u2581tomorrow": 10759, "efined": 4761, "\u2581Sher": 10511, "\u2581green": 5344, "\u2581Werk": 26444, "\u2581bolt": 24610, "\uc9dc": 31405, "acks": 6507, "\u2581welfare": 21607, "\u2581regulation": 22470, "reak": 1196, "\u2581bowl": 13494, "sound": 13752, "iros": 26788, "\u5237": 30426, "\u2581petit": 27450, "aling": 4726, "\u2581\u0447\u0442\u043e": 7061, "\u2581height": 5110, "\u043b\u0430\u043d": 10328, "\u0083": 30477, "\u2581shops": 16177, "\u2581Jackie": 28057, "\u5382": 31228, "\u2581AF": 19577, "\u2581atr": 21857, "\u2581gives": 5212, "\u2581considering": 9868, "\u2581f\u00f6r": 4793, "AAAA": 11086, "\u53cb": 30060, "\u2581inv\u00e5n": 26939, "\u2581che": 997, "\u2581brothers": 12646, "ode": 573, "uge": 3683, "\u2581confusion": 16630, "rito": 15076, "\u043b\u0435\u043d": 3997, "\u2581tempor": 6613, "Sheet": 19565, "associ": 19704, "\u2581op": 931, "\u2581selection": 7495, "\u2581almost": 2779, "\u2581powered": 26006, "\u2581\u0441\u0442\u0440\u0443": 27471, "eron": 13618, "stderr": 17270, "\u05d3": 29317, "\u042d": 28921, "\u7956": 31499, "lia": 7261, "limited": 18376, "\u2581health": 2528, "Then": 11341, "}.": 2051, "\u2581invalid": 9109, "insky": 26979, "\u2581setTimeout": 28168, "\u2581listening": 9857, "UL": 1248, "\u2581rub": 7294, "gif": 27223, "\u03bd": 28976, "interpret": 16789, "\u2581spawn": 23131, "phys": 13432, "\u2581disc": 2312, "Chunk": 17124, "VF": 27219, "uli": 11815, "\u2581camp": 2791, "\u2581reality": 6940, "\u2581banned": 20420, "\u2581Center": 6064, "\u2581SH": 8604, "VB": 28576, "\u2581convert": 6603, "aux": 4601, "\u2581Stuart": 23733, "\u76d1": 29999, "\u2581enabled": 9651, "both": 22096, "mapsto": 24719, "tools": 14091, "\u2581chairman": 21572, "dro": 23756, "folk": 25317, "ication": 3696, "\u2581economics": 25426, "\u0abe": 31290, "\u2581Hav": 23780, "edge": 8424, "\u2581hire": 15270, "\u0917": 30167, "\u2581schon": 26980, "\u2581flight": 9314, "\u2581gmin": 19079, "\u2581plane": 8573, "\u2581obj": 4584, "\u2581mechanism": 14175, ",(": 20786, "\u2581\u0443\u0447\u0430\u0441\u0442\u0438": 25337, "arse": 8143, "kr": 6175, "\u2581surprising": 12285, "andra": 13773, "Shared": 15686, "\u06cc": 28975, "\u2581frustrated": 25511, "\u2581bo": 1359, "ondon": 3801, "\u2581SQL": 13208, "were": 27609, "\u8de8": 31864, "\u2581Bishop": 19683, "\u2581za": 6670, "\u2581sampling": 23230, "ows": 3611, "ellen": 8943, "plicate": 13112, "geben": 19166, "total": 6828, "Turn": 23429, "\u2581cler": 24727, "\u2581trained": 10898, "translate": 18094, "\u2581robust": 16458, "Subscription": 19590, "\u2581rem": 1003, "\u2581onClick": 17201, "sec": 3249, "\u2581melt": 19542, "\u2581Life": 5372, "\u6797": 30158, "\u2581un": 521, "\u2581remarks": 24370, "\u2581converted": 15514, "wake": 20001, "n\u00e9": 8269, "GG": 22422, "\u0441\u0435\u043d": 19709, "\u2581situation": 4620, "\u2581Self": 8916, "lineto": 12582, "\u2581Aug": 3219, "arity": 11910, "\u2581strateg": 7432, "\u2581requested": 11939, "\u2581spoon": 28662, "\ud070": 31694, "\u2581borders": 22902, "\u0433\u0438": 3171, "\u201e": 28887, "ILED": 17094, "conv": 13338, "cury": 25812, "\u8f69": 31943, "\u2581advance": 8670, "\u2581lips": 8852, "\u2581AV": 13190, "\u2581Fre": 5694, "Bound": 13100, "alous": 14990, "\u2581Oper": 6692, "\u2581bark": 19976, "\u00e4t": 5291, "\u2581gaps": 27612, "\u2581coefficient": 23982, "rys": 24957, "TX": 7956, "cean": 8983, "GB": 6903, "\u2581cups": 19646, "\u2581iv": 19900, "\u2581Initialized": 25728, "\u2581windows": 8412, "suite": 15677, "\u2581dv": 21272, "\u2581heter": 23402, "\u2581rivers": 24582, "ote": 1590, "\u2581my": 586, "elect": 17960, "\u2581German": 5567, "\u2581clinical": 15193, "\u2581blinked": 27800, "\u0402": 29278, "\u0e30": 29877, "\u2581k\u00f6z": 13271, "<0x41>": 68, "essions": 8642, "olin": 27545, "\u2581Rec": 3523, "\u6a02": 31918, "\u2581edition": 12065, "compat": 14097, "\u2581Bug": 27431, "\u8fc7": 29202, "\ubb34": 30449, "*-": 13725, "icking": 16402, "snapshot": 23932, "ailand": 21151, "spin": 9090, "\u2581Os": 9449, "thumb": 20152, "\u94ae": 30085, "\u2581Tour": 7113, "ux": 1554, "\u2581computed": 16860, "\u2581\u043e\u0441\u043e\u0431\u0438": 27953, "\u2581comparing": 21400, "\u2581journal": 7024, "GEN": 12835, "\u2581They": 1306, "Friend": 22412, "\u8d64": 31398, "\u2581kar": 14504, "\u307f": 29921, "initial": 12743, "\u2581Crim": 24849, "\u2581febru": 22632, "Gre": 25656, "vari": 13018, "\u2581Nether": 18841, "\u2581change": 2268, "\u2581slipped": 15841, "oge": 27695, "\u2581PHP": 20194, "\u2581Yam": 24510, "\u2581document": 3248, "\u2581\u043f\u043b\u043e": 17223, "ashes": 14650, "pton": 11648, "Alt": 19980, "\u2581uniqu": 20988, "\u00bc": 29472, "\u2581belong": 6847, "\u77ed": 30132, "NOT": 7536, "\u30ad": 29753, "\u2581######": 14432, "\"}": 17395, "Millis": 26106, "acc": 4373, "\u0435\u043c\u044b": 21663, "\u3000": 29351, "atta": 16374, "\u2581glanced": 11770, "\u2581settings": 6472, "\u2581improved": 11957, "predict": 23077, "\u2581DE": 4562, "\u2581important": 2278, "\u2581street": 5948, "setAttribute": 20675, "\u2581Files": 27435, "\u30b6": 30362, "\u2581poker": 25346, "\u2581affirm": 25758, "\u2581finish": 7446, "\u2581rhet": 25905, "\u2581glimpse": 26754, "\u00d2": 30565, "\u2581isolation": 25250, "ae": 4643, "\u2581Jacob": 12615, "\u2581dei": 6511, "\u2581Success": 16557, "\u2581develop": 1950, "\u0440\u0456\u0432": 18941, "ubre": 19773, "lesh": 12953, "\u2581Rather": 19919, "\u2581Vol": 5400, "\u2581clearing": 22639, "\u2581dar": 8448, "\u2581rush": 16002, "\u1031": 31152, "\u2581board": 5113, "\u2581fate": 16942, "\u2581philosoph": 8829, "\u73a9": 30656, "\u2581\u043f\u0440\u0435\u0434\u0441\u0442\u0430\u0432": 18006, "\u2581Bund": 12583, "Errors": 16958, "\u2581boards": 19434, "\u2581asks": 12373, "\u2581m\u00e9": 13138, "\u2581Como": 24428, "\u2581Lemma": 13584, "Asp": 12580, "\u2581\u0447\u0435\u0440": 21592, "hado": 25194, "\u2581EXPRESS": 27711, "\u6597": 31248, "\u2581Woman": 20010, "\u963f": 30564, "chester": 11841, "\u2581fais": 26035, "\u2581discuss": 3342, "\u2581downstairs": 26686, "\u043c\u0435\u0439": 20488, "\u2581navig": 27555, "Js": 23595, "\u2581Arch": 6573, "\u00edd": 21180, "\u2581SC": 9730, "\u2581educ": 3600, "\u2581tamb": 6922, "\u2581interesting": 5853, "\u2581chem": 7462, "voir": 18592, "\u043a\u043b\u044e": 12702, "\u2581countries": 5780, "Ma": 20494, "*)": 2523, "\u8a8d": 30697, "\u2581civilian": 25120, "\u2581singles": 16975, "\u2581download": 6726, "\u2581stre": 2811, "features": 14663, "\u2581\u043b\u0435\u0442": 17761, "\u2581Besch": 26231, "\u2581lieu": 18569, "cul": 2320, "\u2581spin": 7344, "nergy": 11918, "schen": 12417, "\u2581developer": 21782, "\u53ea": 29405, "Author": 11318, "\u2581Delta": 25220, "\u2581cities": 9245, "imet": 21526, "kreis": 22717, "\u091c": 30196, "\u0398": 30394, "igible": 13538, "gp": 8399, "\u2581lun": 17999, "\u2581FILE": 21004, "\u865f": 30809, "Not": 2601, "izi": 15323, "expected": 7398, "\u0441\u0442\u0443\u043f\u0438": 21008, "\uac10": 31402, "assem": 23154, "unes": 11056, "\u2581Stanley": 19805, "\u2581disco": 20962, "\u0490": 29559, "\u2581Remember": 13399, "\u2581divided": 13570, "\u03a4": 29777, "\u0569": 31502, "ival": 3098, "\u2581safely": 16367, "\u2581idea": 3028, "\u2581hier": 9654, "\u2581sizeof": 4619, "\u2581evident": 14885, "ebook": 16376, "\u2581convinced": 13746, "\ub7c9": 31314, "\u2581fights": 25186, "pipeline": 22365, "\u2728": 30816, "ache": 1344, "\u2581rich": 6708, "\u2581\u0432\u043e": 2890, "iple": 4191, "\u2581Leo": 19795, "\u4e13": 30424, "ca": 2591, "\u2581(\u2020": 19143, "\u2581convicted": 28553, "acom": 28635, "\u8282": 29312, "aka": 8389, "linear": 13548, "\u2581Later": 11680, "\u2581\u0441\u044b": 22395, "\u2581beh": 1833, "\u043d\u043d\u044f": 14704, "\u2581Monday": 9262, "Columns": 15468, "eny": 20552, "\u2581havia": 20561, "rv": 9084, "\u2581\u0431\u043e": 5536, "wort": 28577, "ockets": 18473, "ogen": 8371, "\u21d2": 30757, "\u2581pushing": 13884, "\u0160": 28966, "\u2581sacred": 21079, "\u2581traces": 26354, "\u2581toilet": 19580, "\u6742": 31122, "\u2581equ": 1734, "\u00f1os": 8476, "bol": 2329, "\u2581polite": 27057, "\u9593": 29996, "goto": 5257, "\u0d4d": 30691, "\u2581Pract": 15961, "\u2581retval": 25232, "\u2581Grant": 14301, "\u2581bod": 7646, "\u10ea": 30991, "quire": 18948, "\u2581feelings": 9388, "Based": 24207, "\u7279": 29631, "esto": 10631, "\u0430\u043b\u044c": 8067, "Package": 11079, "\u8bad": 31154, "\u2581measurements": 16080, "ocity": 9508, "java": 7628, "\u2581Sound": 14811, "down": 3254, "\u4eea": 31842, "\u2581Mur": 7423, "\u2581interpretation": 16716, "\u2581Lors": 28462, "\u2581ded": 5589, "\u2581Mobile": 16430, "\u2581Prize": 19751, "GF": 24390, "\ucd1d": 31696, "\u2581tiempo": 17925, "iones": 4639, "bahn": 20125, "\u21b3": 31416, "necess": 17172, "\u0412": 28849, "\u2581Lin": 6678, "\u2581graduate": 16174, "\u2581neuro": 20342, "\u2581X": 1500, "includes": 19459, "\u2581Results": 17412, "nd": 292, "\u5b59": 31206, "Integer": 7396, "\u2581crashed": 27795, "\u2581gegr\u00fcnd": 28222, "\u2581disorders": 25237, "\u064c": 31975, "ptic": 19742, "EDIT": 27495, "name": 861, "\u2581Europe": 3401, "\u2581Upper": 25407, "\u2581Used": 17477, "\u2581Tibet": 28288, "\u2581use": 938, "\u2581repository": 21177, "train": 13641, "backend": 19792, "\u2581Benef": 22710, "\u2581Conse": 26300, "\u2581WIN": 25688, "orable": 26274, "bing": 7551, "diction": 24737, "uts": 5725, "\u2581Month": 19026, "awa": 8733, "metadata": 9609, "\u2581anys": 23949, "\u2581\u0413\u0430": 12972, "\u2581Bul": 10440, "\u2581Diese": 21988, "\u2581Barb": 25223, "\u2581Chicago": 8449, "chod": 22219, "elin": 26310, "\u2581moy": 19802, "\u2581scream": 8933, "cons": 6524, "ENO": 12726, "\u2581pockets": 21702, "\u0440\u0430\u044f": 26487, "\u2581PP": 27051, "\u2581Some": 2909, "\u2581supp": 2541, "\u50a8": 30180, "values": 5667, "arto": 25969, "\u043d\u0430\u0442\u0430": 10792, "\u2581Ge": 2404, "\u00d8": 29287, "Vari": 6840, "\u2581\u0454": 15020, "gar": 4749, "\u2581personas": 22796, "\u2581IC": 18587, "}}^{": 22783, "\u2581needle": 25710, "\u2581Under": 6605, "\u2581influences": 26386, "\u064f": 29587, "\u2581FITNESS": 13200, "\u2581aggressive": 18925, "bew": 24134, "\u008e": 29637, "\u2581sex": 3142, "\u505a": 29949, "\u2581blew": 21798, "\u614b": 31094, "\u66fe": 31676, "\u2581presented": 7567, "comfort": 12248, "factory": 13001, "if": 335, "\u2581handler": 9694, "\u2581deliver": 5663, "\u2581qual": 4109, "\u20a6": 31809, "\u2581tak\u017ce": 25717, "\u2581England": 5783, "steps": 16005, "\u043b\u044f": 1941, "oted": 4618, "\u00c1": 28939, "TAG": 12137, "\u2581van": 1697, "\u2581except": 3741, "\u043b\u0430\u0441\u044c": 12147, "Path": 2529, "\u529b": 29588, "\u4eb2": 31395, "\u2581(": 325, "\u2581passed": 4568, "\u2581Either": 19551, "\u2581resid": 12899, "COMP": 9028, "Success": 11034, "INDEX": 16358, "fee": 26652, "\u2581\u0441": 698, "NULL": 5992, "itud": 14534, "UNUSED": 26731, "\u0437": 28812, "\u00d9": 31619, "\u57f7": 31996, "\u2580": 30374, "../": 1979, "More": 15279, "\u2581Marian": 27117, "\u2581intern": 3875, "\u2581hur": 7033, "\u2581Auth": 15579, "\u4e70": 30704, "zm": 22432, "\u2581six": 3522, "emos": 24852, "ivity": 2574, "vil": 25521, "elle": 3222, "size": 1428, "\ubc29": 30240, "\u2581connect": 5789, "\u2581Que": 6018, "++){": 23385, "\u2581huvud": 19295, "ought": 1322, "omy": 12956, "izen": 20084, "\u2581runs": 7825, "\u5eab": 31605, "abeth": 9255, "\u2581sleep": 4289, "\u670d": 29430, "icture": 10358, "\u2581pointer": 10300, "Binding": 14792, "\u2581crop": 21948, "Rec": 3755, "\u2581wed": 6887, "\u011bl": 27447, "\u2581store": 4143, "\uc744": 29189, "\u2581shoulder": 7793, "\u2581lies": 10427, "ENV": 22985, "\u00eds": 8341, "Without": 21469, "\u2581stock": 5756, "\u045a": 28917, "\uc6b4": 30553, "\u2581bears": 25051, "Billboard": 26889, "\u2581fue": 5631, "hemat": 11953, "\u2581developing": 10423, "\u2581passes": 15167, "production": 24900, "orough": 11376, "\u043d\u0435\u0435": 21083, "\u2581pod": 3531, "\u2581Valentine": 28495, "\u2581intellig": 7808, "\u2581Sv": 20810, "\u2581forests": 25770, "\u2581send": 4080, "\u6837": 29675, "edes": 20124, "\u1e6c": 31658, "\u2581Ford": 12101, "}^{(": 13025, "\u304c": 29309, "xico": 22138, "\u6570": 28945, "\u2581Fu\u00dfball": 24836, "ath": 498, "\u2581client": 3698, "\u2581Gun": 20655, "\u2581fine": 4433, "\u2581Hamburg": 24608, "\u2581restoration": 27243, "\u2581hover": 18848, "\u4e4b": 29332, "\u2581underneath": 21901, "\u0e06": 31383, "\u2581late": 3909, "ution": 17841, "\u0152": 29504, "raham": 11162, "mont": 15026, "\u2581constraint": 17656, "reement": 18090, "\u2581concentrated": 25088, "ov\u00e9": 20208, "\u8bc6": 30093, "\u2581myst": 11947, "\u5ffd": 31312, "\u2581Pretty": 24111, "\u2581params": 6150, "sWith": 23594, "\u2581intro": 24671, "\u2581Guard": 12391, "\u0447\u0451": 26397, "\u2581nost": 19098, "\u2581Chem": 18199, "itive": 2468, "ENC": 20314, "mad": 13179, "\u2581keys": 8148, "m\u00e9": 12634, "ere": 397, "iddleware": 16952, "rupted": 17488, "\u2581evaluated": 23001, "\u0432\u043d\u044f": 15398, "\u2581\u0430\u0432\u0442\u043e": 14460, "ional": 1479, "\u2581Wilson": 11421, "\u2581stages": 15360, "\u2581Vict": 6968, "okes": 9486, "oft": 24485, "\u2581ASS": 8602, "\u2581speed": 4975, "\u2581gig": 13790, "ling": 1905, "\u2581shapes": 17187, "endar": 7629, "=>": 4929, "}\\,\\": 26758, "\u2581inherited": 22993, "\u2581hall": 7224, "\u2581dimension": 9711, "\u2581nobody": 11684, "-(": 24894, "___": 8485, "\u2581arguments": 6614, "ugg": 23065, "\u2219": 30444, "\u2581obs": 14848, "\u2581reg": 983, "\u2581divor": 12800, "cluster": 12027, "OUTPUT": 23923, "\u2581bree": 18321, "\u2500": 28979, "Chart": 19275, "ensus": 9898, "\u2581enjoying": 16269, "),": 557, "\u2581desires": 23545, "widget": 8167, "\u2581S\u00fc": 24365, "rag": 14806, "\u2581ao": 8468, "\u2581Andr": 27501, "\u2581Board": 9217, "\u2581constructed": 13379, "\u2581Then": 2479, "\u2581Chile": 17406, "\u2581DA": 13060, "\u2581eyeb": 17659, "\u2581cultures": 19826, "\u2581betting": 22567, "DB": 3726, "\u2581roll": 4595, "phabet": 26311, "\u2581invented": 25972, "sembled": 20221, "Called": 22614, "nv": 16885, "\u2581medic": 7861, "\u2581construction": 6380, "\u2581as\u00ed": 18237, "\u2581Votes": 23405, "\u0d3e": 31784, "\u2581Mediterr": 23611, "\u2581Job": 14633, "\u05e6": 29639, "compile": 18434, "ederb\u00f6rd": 18927, "\u0437\u0438": 3020, "\u1784": 30765, "\u2581\u043c\u0443": 6597, "]+": 13381, "doors": 25261, "oport": 27917, "mart": 20665, "\u2581ster": 17049, "\u2581trailing": 27166, "\u2581\u0432\u0435\u043b\u0438": 18755, "\u2581channel": 5866, "\u2581able": 2358, "Prim": 18888, "\u2581em": 877, "icode": 15535, "utschen": 15525, "ospital": 4998, "\u2581Christian": 5899, "Sys": 22824, "\u2581render": 7188, "\u2581watching": 6265, "Area": 12026, "\u2581dys": 20840, "\u0442\u0430": 946, "\u2581affection": 21147, "\u2581Command": 11618, "}]": 10157, "\u2581\u0422\u0443": 24519, "\u00f0": 29092, "\u2581lookup": 21275, "\u2581organize": 25425, "\u2581physician": 21765, ".__": 9320, "estival": 6805, "ested": 7848, "curity": 3860, "ghan": 13996, "\u2581deciding": 24568, "\u2581urban": 12270, "\u2581propos": 8395, "inand": 24858, "\u2581di": 890, "\u2581autres": 17729, "cept": 1358, "oga": 10491, "tocol": 4851, "}^{\\": 6928, "\u2581Mann": 12187, "\u2581they": 590, "buffer": 4260, "\u2581executed": 15731, "fast": 6985, "\u2581disorder": 17404, "\u2581\u2581\u2581\u2581\u2581\u2581\u2581\u2581\u2581\u2581\u2581\u2581": 558, "Configuration": 6365, "\u2581aside": 10276, "dma": 11492, "eclipse": 14871, "\u2581obtained": 7365, "\u9928": 31595, ",'": 3029, "ructions": 8373, "itori": 27237, "}+": 9969, "\u2581including": 2490, "\u2581convenience": 20185, "ysz": 27713, "\u666e": 30571, "ren": 951, "\u2581Hel": 5424, "\u2581Platform": 21018, "mbox": 7602, "Par": 3916, "\u2581jaar": 22714, "\u2581Professor": 11962, "\u2581includes": 5532, "\u2581Hawaii": 26434, "\ud559": 30711, "----------------": 1177, "Controls": 14172, "Lif": 28461, "\u0099": 29380, "iek": 18627, "construct": 15607, "\u2581\u00a9": 18675, "\u009a": 30343, "\u70ed": 30898, "\u0454\u044e": 23667, "\u2103": 31438, "\u2581searched": 22671, "isti": 20589, "\u2581guys": 6246, "\u2581os": 3497, "=\"-": 23013, "beta": 3484, "\u2581forty": 12651, "value": 1431, "\u2581Chart": 16923, "\u2581might": 1659, "\u2581Le": 1337, "owned": 19589, "\u2581adv": 2057, "ushed": 5204, "\u308c": 29387, "in": 262, "ylvania": 14194, "Identifier": 11068, "\u2581cr\u00e9": 14791, "dynamic": 18691, "\u2581transit": 25593, "\u300b": 30028, "precated": 18139, "eth": 761, "opath": 23461, "publish": 27296, "\u2510": 31175, "\u30eb": 29182, "md": 2037, "\u2581kl": 7466, "\u2581Gal": 6639, "instr": 25725, "lookup": 16635, "\u2581out": 575, "React": 18096, "},{": 23897, "\u2581\u0434\u0440\u0443": 8589, "\u2581trem": 11248, "\u2581hatred": 25944, "\u2581auto": 4027, "\u2581mapping": 13152, "tober": 12955, "catalog": 24945, "ports": 2729, "\u2581derive": 24058, "\u2581pre": 710, "\u2581living": 3687, "Co": 7170, "matches": 17990, "\u2581\u0440\u0430\u0439\u043e\u043d\u0435": 23838, "orig": 5831, "z\u00e1": 16845, "reck": 16136, "h": 28716, "\u2581computer": 6074, "\u2581goods": 11282, "sole": 3971, "\u2581coalition": 28131, "\u2581Ka": 16121, "\u2581wherein": 27271, "Remove": 10013, "\u09ac": 30099, "\u6c92": 30931, "\u2581Kn": 9789, "\u6bcd": 30518, "liter": 24477, "Visible": 10082, "\u2581choices": 10475, "\u2581Illegal": 17352, "\u2581peg": 21979, "\u2581ultra": 26600, "ker": 5156, "\u2581fell": 5970, "\u2581portfolio": 19125, "\u2581sensitivity": 22486, "Token": 3856, "\u2581imper": 10078, "\u2581Democr": 7005, "op": 410, "\u2581nursing": 20693, "\u2581Cab": 11357, "\u2581continually": 27388, "does": 23727, "CN": 15126, "\u2581sust": 8131, "\u2581monitor": 9009, "\u2581survivors": 25741, "\u2581nine": 9542, "\u2581\u0421\u043e": 7447, "\u7687": 30645, "\u2581fight": 3992, "\u2581shaped": 21028, "\u2581expanding": 20767, "\u2581Aub": 27084, "\u2581shed": 19851, "orent": 21958, "\u2581conn": 12513, "\u2581Simply": 26497, "\u2581negoti": 12060, "\u2581counted": 21504, "hus": 9710, "\u2581relationship": 3758, "\u53e3": 29269, "\u5546": 29397, "\u2581stalk": 25073, "\u2581Utah": 23672, "\u6b8a": 31267, "\u2581Jen": 11654, "\u2581listing": 16243, "caption": 7150, "jections": 19102, "za": 2166, "\u043b\u0456": 3132, "\u2581Congress": 8463, "\u2581ac": 1183, "owie": 7493, "\u2581imply": 25385, "\u042a": 31045, "mond": 8025, "non": 4581, "\u2581switching": 25439, "igator": 17769, "\u2581Franz": 17672, "TRY": 13224, "UC": 23271, "\u2581sched": 22245, "\u2581l\u00e0": 26941, "\u1ec3": 29910, ".~\\": 8080, "\u5229": 29819, "\u00e1sa": 21767, "\ud83d\udc8e": 31203, "\u1f30": 31144, "\u2581explained": 7955, "\u2581prze": 10448, "\u2581contents": 11337, "\u2581nad": 12778, "\u041a\u0430": 22117, "\u2581spring": 7474, "tile": 18196, "rowned": 14335, "\u2581astronom": 27486, "\u4f86": 30425, "\u2581CS": 16594, "\u2581Ign": 15923, "\u2581importantly": 21485, "\u0434\u0438\u043d": 10173, "\u2581sighed": 16331, "\u2581passion": 8773, "\u2581vic": 13051, "cout": 16429, "ografie": 16976, "escape": 19027, "\u00b7": 28854, "\u2581stead": 10445, "\u2581Keith": 22759, "\u2581verify": 11630, "\u2581pharm": 16074, "\u2581\u0444\u0443\u043d\u043a": 28668, "article": 15461, "\u2581exerc": 6535, "\u0443\u043d": 9511, "ija": 10579, "\u2581aims": 20566, "\u2581valor": 23666, "\u2581Repub": 21441, "\u2581hydro": 15208, "ependant": 26574, "\u66f9": 30644, "->_": 9631, "\u2581\u0421\u0442\u0430\u043d\u043e\u0432": 20896, "\u2581touches": 28208, "Initialized": 24923, "\u2581Rog": 9214, "\u675f": 29790, "\u2581\u043f": 610, "\u2581natur": 10588, "contin": 7243, "freq": 14436, "\u2581citt\u00e0": 20377, "\u2581representations": 23384, "usch": 26628, "\u771f": 29974, "incipal": 15934, "prises": 19797, "printStackTrace": 23831, "\u045b\u0435": 25464, "\u2581Fill": 25518, "\u2581v": 363, "\u8acb": 30539, "\u2581ptr": 13814, "\u2581smaller": 7000, "\u2581brutal": 23736, "\u2581activ": 3853, "\u2581fond": 8987, "Second": 10385, "\u2581hated": 16282, "\u03b4": 29158, "\u2581Those": 8827, "amin": 8255, "flag": 7914, "\u2581Census": 27938, "tring": 850, "\u2581BR": 19721, "bolds": 8004, "pres": 11861, "\u2581Drop": 22732, "\u0f0b": 29801, "score": 11831, "\u2581once": 2327, "\u2581often": 2608, "\u2581scr": 7375, "asty": 11136, "\u2581/**": 2067, "\u2581seam": 23878, "arga": 26538, "overn": 5794, "tw": 7307, "\u2581writ": 2281, "\u30bd": 30383, "\u2581'../../": 14339, "\u5ea7": 30635, "\u2581At": 1794, "\u2581niveau": 26706, "\u2581Due": 16043, "ikes": 14853, "dataset": 18200, "ced": 1354, "resource": 5676, "\u043d\u0433": 7521, "olph": 23814, "\u2581uw": 14190, "\u2581lav": 22181, "phan": 19058, "\u0434\u043e\u043b": 24019, "\u2581unders": 23759, "\u2581ig": 12632, "\u2581\u0421\u0430": 9177, "\u672f": 30485, "\u2581legendary": 26361, "future": 22589, "mq": 26553, "olk": 27227, "\u2581pierws": 28448, "\u53bb": 29651, "\u2581amazing": 6821, "\u2581\u0442\u0443\u0440": 18247, "pdf": 8984, "TextBox": 27828, "\u51fb": 29698, "\u1edf": 30849, "\u0624": 31456, "ogg": 23297, "\u0435\u0434\u0438": 22197, "\u2581null": 1241, "\u2581bes": 3432, "\u2581\u043e\u0440\u0433\u0430\u043d\u0438\u0437\u0430": 26266, "\u2581neutral": 14214, "\u2581\u041c\u0443": 17445, "\u2581XXX": 21027, "\u5efa": 29193, "\u10d0": 29134, "\u2581speaker": 17153, "\u043d\u0430\u0434": 20982, "bp": 12005, "flags": 4406, "Heap": 22107, "!!!": 13915, "yna": 22335, "\u2581angles": 22289, "\u2581Soc": 4234, "\u2581limits": 11656, "Date": 3465, "orsch": 18952, "\u0442\u0438\u0432": 5868, "\u2581Kur": 15740, "Capt": 24649, "\u2581assert": 2177, "it\u00e4": 25038, "Src": 15886, "gin": 6207, "signature": 22938, ",\r": 4604, "\u2581synchron": 14941, "\u2581total": 3102, ">=": 23343, "\u2581obviously": 9589, "\u2581containing": 8707, "\u2581Bear": 21425, "de": 450, "PCI": 24271, "\u2581simpler": 27013, "\u2581mondiale": 23917, "\u2581lease": 23741, "\u2581GPS": 27571, "\u2581suite": 10978, "\u2581subur": 24832, "\u2581ign": 4303, "\u2581\u043e\u0442": 2433, "apply": 10877, "\u2581danger": 6015, "\u2581il": 1521, "parser": 11465, "\u2581gifts": 15973, "Ex": 966, "\u2581receive": 5556, "hon": 21133, "\u2581Verein": 20017, "Tag": 4450, "\u2581argv": 21863, "uzz": 9046, "SY": 6358, "\u2581\u2581\u2581\u2581\u2581\u2581\u2581\u2581\u2581\u2581\u2581\u2581\u2581\u2581": 1417, "\u2581Crist": 17564, "\u2581serve": 7031, "aky": 20996, "\u2581visitors": 12085, "\u2581Fue": 21407, "\u2581cow": 12072, "\u2581absor": 10612, "\u2581marketing": 7080, "obs": 8081, "dst": 8529, "implement": 26922, "\u2581needed": 3236, "ented": 12713, "GroupLayout": 21984, "Contents": 18045, "olen": 12115, "\u2581como": 3118, "LBL": 26928, "\u2581proc": 13053, "\u2581governed": 22175, "anne": 13002, "\u2581Struct": 27712, "\u2581).": 11505, "\u2581pounds": 14090, "lon": 15161, "evalu": 20866, "aran": 22754, "\u2581royal": 13753, "\u06d5": 29455, "\u2581trunk": 20780, "\u2581tenant": 26057, "lang": 4730, "ecause": 4383, "\u2581Vin": 12670, "\u2581Transport": 15096, "\u2581\u00e1l": 19461, "ORDER": 20938, "elm": 22329, "\u2581mode": 4388, "\u2581av": 1182, "\u2581Five": 15243, "\u2581Estados": 16737, "vano": 27000, "\u00b4": 29204, "\u2581learning": 5168, "ensional": 9723, "\u2581desperate": 17353, "Http": 5775, "\u2581whist": 20978, "\u2581avoided": 22393, "\u2581gli": 9973, "\ubc84": 30041, "\u2581peut": 12122, "\u300a": 30095, "need": 14464, "ifact": 17634, "\u2581\u043b\u0456": 15299, "Hen": 26116, "\u0621": 30052, "\u2581generic": 12921, "operator": 8655, "\u2581bio": 17004, "otto": 15034, "\u043a\u043e\u0439": 13108, "\u865a": 31415, "\u2581indicate": 11634, "\u7576": 31332, "\u2581hum": 1997, "\u2581Posted": 17317, "writ": 10253, "\u2581Something": 13264, "\u0446\u0438\u0458\u0435": 28401, "\u2198": 29091, "OF": 10907, "\u8bfe": 30748, "\u68ee": 31296, "\u2581\u0431\u044b\u043b\u0438": 13698, "\u2581Math": 6960, "\u2581Beth": 17822, "ynamic": 5706, "\u2581cruel": 18965, "\u2581patterns": 11533, "\u2581Fle": 15666, "\u2581hast": 25017, "\u2581.\"": 15192, "\u043b\u0435\u0435": 15620, "Filters": 24261, "\u2581ensemble": 22936, "default": 2833, "}/": 5865, "gling": 18700, "\u2581anytime": 27760, "\u2581Welcome": 19417, "\u2581briefly": 15643, "times": 4593, "estamp": 7039, "\u2581+": 648, "\u2581bunch": 11763, "\u2581respect": 3116, "ookie": 10235, "\u6362": 29479, "\u2581Church": 6381, "\u2581super": 2195, "\u2581police": 4758, "Thank": 15896, "\u2581siblings": 27139, "_,": 6930, "\u0434\u0430": 1225, "\u2581follows": 6104, "\u2581phen": 11315, "\u89c9": 31345, "\u6295": 30189, "hentication": 9767, "\u2581soil": 14315, "m": 28719, "wallet": 23673, "Cat": 19962, "\u2581column": 4419, "venue": 8008, "\u2581softly": 18345, "\u2581rounded": 19372, "skich": 26079, "ateur": 10229, "\u2581wealthy": 20724, "makers": 22016, "\u2581Slow": 22272, "\u6cd5": 29095, "\u2581trailer": 21498, "ident": 1129, "\u2581Death": 13611, "awt": 17402, "company": 17998, "\u2581Logger": 22414, "\u2581bas": 2388, "\u2581Rights": 12744, "\u2581ugly": 19279, "\u6e96": 31646, "\u2581Bor": 9411, "Unexpected": 22348, "peon": 18019, "\u2581Local": 9553, "\u2581profits": 20285, "\u76f8": 29367, "\u6728": 30308, "\u2581running": 3822, "\u2581strengths": 28136, "\u2581Kiss": 27658, "ventory": 16917, "\u2581denied": 16703, "\u9996": 29993, "\u2581Henry": 6808, "\u0441\u043a\u0430\u044f": 8224, "\u2581chill": 21332, "\u2581colours": 22137, "\u2581calculations": 19051, "\u05da": 30245, "\u2581wouldn": 4048, "Z": 28828, "<0x42>": 69, "\u2581beam": 16647, "\u2581drawing": 10916, "\u2581conj": 11365, "location": 2733, "\u2581nic": 15750, "Worker": 18155, "\u043d\u043e\u044e": 19130, "\u2581\u0422\u043e": 10378, "\u2581ces": 11844, "\u2581shelter": 18596, "\u2581ate": 15732, "\u2581repr\u00e9sent": 23853, "\u2581Ng": 27652, "\u2581admission": 23488, "ione": 2321, "\u2581\u0438\u0433": 17009, "\u2581exam": 4174, "\u2581Cath": 8746, "shake": 25524, "\u2581Cole": 15128, "\u2581overnight": 22128, "gate": 7999, "anc": 834, "\u2581\u0441\u043b\u0443": 12276, "\u2581perfect": 3659, "ady": 4425, "\u2581creative": 9811, "\u2581tensor": 12327, "\u2581avril": 19330, "\u2581Several": 15223, "\u0441\u044c\u043a\u043e\u0457": 11443, "\u2581realize": 8168, "en\u00ed": 16640, "\u2581Bur": 6815, "\u2581repr\u00e9s": 18880, "\u2581\u0441\u0438": 5294, "\u2581doc": 5844, "ales": 2230, "<0xF9>": 252, "ology": 2161, "\u2581stro": 14680, "blk": 17461, "\u2581deg": 3705, "$\\": 4659, "\u2581Pack": 11676, "\u2581Prim": 16059, "\u0426": 28928, "\u2581half": 2795, ">';": 17021, "intel": 26876, "\u03c5": 29071, "\u2581NL": 19561, "\u2581mb": 20137, "password": 7349, "STRING": 10505, "dd": 1036, "\u75c5": 30962, "\u2581positions": 9161, "ometer": 11598, "\u2581sad": 7456, "ajax": 14686, "\u2581bag": 6635, "\u6b65": 29783, "\u2581prompt": 11510, "\u2581\u043c": 1131, "\u2581violation": 22734, "aci\u00f3": 7094, "\u2581extended": 8766, "\u2581Lux": 18194, "\u2581\u0434\u0435\u0440\u0435": 15902, "hs": 6270, "design": 16057, "ured": 2330, "\u2581Esp": 10576, "\u2581ruled": 20080, "\u2581refriger": 23641, "elli": 8763, "\u2581recru": 17372, "ifies": 8961, "\u2581industrial": 10663, "\u2581tutorial": 27272, "Ret": 8637, "razy": 7853, "bie": 12868, "\u30af": 29221, "\u2581vie": 11198, "\u2581\u043a\u0430\u0442\u043e": 14126, "\u2581organis": 14658, "lab": 16847, "\u2581\u043a\u043e\u0440": 21146, "links": 17052, "\u2581vivid": 24954, "ura": 2614, "thrift": 25551, "\u5361": 29810, "\u2581SN": 14722, "\u2581stations": 14474, "AU": 18228, "\u2581C": 334, "\u2581mountains": 13691, "eping": 11734, "\u2581Tut": 25048, "springframework": 9484, "\u2581altern": 5720, "\u518d": 29740, "\ubc88": 29756, "ULL": 1625, "\u2581useless": 19209, "\u2581Crow": 19543, "}$)": 28511, "\u2581breakfast": 11814, "\u2581rifle": 19427, "\u04b3": 31856, "\u2581whenever": 11326, "ENTER": 21214, "Zero": 14837, "window": 5147, "\u2581frustr": 10856, "\u2581boundaries": 16824, "STATE": 8400, "\u0440\u044a": 17056, "\u2581comme": 6702, "\u2581substr": 22745, "asia": 28038, "}',": 23930, "ulture": 7985, "\u00e4ll": 14357, "\u2581male": 7862, "\u5c4b": 31229, "hing": 2299, "\u2581animation": 15733, "\u2581Technical": 25930, "\u2581barrier": 19644, "\u00fd": 28889, "\u2581intersection": 19837, "\u2581visa": 28307, "\u2581tang": 15362, "shift": 9114, ")</": 10900, "\u2581approxim": 7288, "\u2581voices": 14549, "\u2581d\u00e9but": 19693, "TI": 3373, "aligned": 15742, "\u2581Circ": 20861, "Scan": 17272, "\u2581Stephen": 12332, "\u2581venue": 20906, "ctl": 9057, "oline": 20252, "Walk": 25228, ".*": 3752, "\u2581\u0420\u043e\u0441\u0441\u0438": 13325, "\u2581swung": 21701, "Reflection": 24633, "\u2581Young": 9465, "\u2581XIV": 28132, "\uc758": 29187, "icio": 14957, "Measure": 25241, "zerw": 23244, "\u2581meetings": 13251, "\u2581onder": 10971, "\u0442\u043e\u0432": 7660, "\u2581inject": 16453, "\u2581quote": 13658, "uese": 23663, "cted": 2147, "control": 5476, "validator": 27201, "Verify": 20847, "\u2581rou": 17148, "\u2581occur": 5264, "Quick": 24463, "ers": 404, "\u2581amounts": 14838, "Lou": 24618, "\u2581fastest": 25754, "\u1ead": 29667, "chied": 26881, "Render": 7139, "ivel": 17414, "\u62e9": 29608, "\u2581IE": 20244, "\u2581inclu": 25712, "\u2581overwhelmed": 28186, "\u0432\u043e\u0434\u0438": 14807, "\u2581fro": 8169, "\u2581rus": 22300, "\u2581facial": 27187, "AUT": 11489, "usters": 12855, "\ubc95": 30979, "\u2581ottobre": 26781, "\u2581red": 2760, "\u2581Scot": 10735, "\u2581seem": 1709, "\u2581Pand": 24802, "\u2581visits": 17217, "/_": 23762, "children": 9342, "\u2581instruct": 12317, "\u2581nan": 23693, "\u2581\u043f\u0440\u0435\u0434": 6978, "LL": 5292, "riend": 1513, "\u2581grip": 16593, "\u2581tactics": 23532, "\u2581opacity": 26355, "axy": 22720, "\u2581i": 613, "\u2581pid": 21654, "\u2581ripped": 27755, "\ucd5c": 30310, "izing": 3864, "\u2581HAL": 16879, "\u2581engine": 4456, "\u00e9ho": 12689, "\u2581Ald": 17545, "PRESS": 21060, "\u2581funny": 10032, "\u2581Bobby": 20507, "\u2581remind": 8305, "\u2581allocation": 21590, "acies": 22454, "\u0432\u043e\u0457": 24620, ":%.*": 16772, "\u2581Sax": 26974, "\u2581zomb": 28437, "rollment": 27518, "\u2581encounter": 10301, "thon": 7418, "writer": 11660, "\u2581Hist": 4044, "\u00e2teau": 22487, "ctx": 3077, "\u2581clarity": 25312, "attery": 18286, "inth": 18618, "\u00f3z": 25766, "\u2581II": 3717, "TING": 16567, "\u2581representatives": 20559, "\u53e5": 30347, "istics": 5513, "\u2581Exper": 11135, "\u2581India": 5558, "\u0098": 29941, "\u2581Consult": 20395, "\u2581Layout": 23479, "\uc11d": 31585, "Sp": 4941, "ainte": 24243, "\u2581Revolution": 13850, "Disabled": 21258, "resolved": 22634, "eq": 1673, "\u2581\u00ed": 23684, "\u2581Boot": 20775, "\u00f5es": 7849, "\u2581administrative": 17093, "mil": 22626, "ride": 2579, "r\u00e5": 16348, "\u56de": 29034, "bitmap": 20090, "\u2581Hil": 17577, "sert": 1121, "avirus": 22397, "date": 1408, "\"]": 2242, "\u2581\u041f\u0440\u0430": 25074, "categories": 24888, "seven": 28098, "\u2581East": 5691, "\u2581pr": 724, "\u5f1f": 31478, "\u2581wurde": 3350, "\u2581tries": 14744, "\u2581Truth": 23981, "=\"_": 28359, "SO": 4989, "\u2581\u0445\u0430\u0440\u0430\u043a": 26209, "ums": 7610, "per": 487, "\u2581thesis": 23412, "\u2581real": 1353, "\u5212": 30791, "servers": 21032, "ampton": 27397, "platform": 10470, "\u2581blend": 20521, "\u25cb": 31269, "\u2581innovative": 16827, "(()": 10289, "\u2581commitment": 13106, "argv": 14241, "ING": 2043, "Opt": 14205, "\u2581besides": 18532, "\u2581mistakes": 17179, "\u2581sore": 23176, "gebra": 10343, "\u6c49": 30688, "\u2581Bere": 19911, "\u2581acknowledged": 23253, "\u2581Law": 5802, "\u2581leads": 8681, "\u2581dello": 23864, "\u2581date": 3608, "\u9032": 30801, "\u2581persu": 14861, "\ud30c": 29806, "\u2581artikel": 8483, "\u2581warnings": 24052, "\u2581blocked": 18770, "\u2581rul": 9586, "\u2581Too": 16601, "Event": 2194, "TagHelpers": 21399, "\u2581Mil": 5040, "poll": 15598, "\u2581bob": 28142, "\u25e6": 31583, "\u9673": 31908, "okrat": 27765, "\u2581Vor": 11975, "RAN": 4943, "\u2581liv": 9678, "\u2581Award": 8199, "CLIENT": 23155, "\u2581programs": 7034, "...)": 16381, "<0x57>": 90, "\u2581your": 574, ".^{[": 22803, "ovo": 10356, "ipa": 25871, "CC": 4020, "afka": 22167, "\u2581foam": 26493, "\u00da": 29070, "lights": 12918, "\u2581identical": 15792, "\u00a0": 29000, "mann": 6482, "\u2581brushed": 28427, "klass": 24660, "copy": 6541, "\u2581Stop": 13560, "bek": 26118, "sis": 15412, "get": 527, "\u2581tact": 12529, "chs": 21100, "\u0422": 28875, "\\\">": 21104, "\u2581keywords": 28049, "\u2581ensuite": 26368, "\u2581perspective": 10403, "\u0173": 30102, "\u0432\u0443": 6725, "ashi": 19915, "ie": 412, "><": 3409, "\u2581Court": 6924, "\u2581];": 11890, "\u4ed9": 31859, "\u2581Par": 2316, "energy": 18785, "\u2581Arr": 20037, "\u82b1": 30064, "\u2581hockey": 21199, "\u2d4f": 31443, "unque": 14733, "\u2581Here": 4003, "\u2581Id": 6318, "\u2581Denver": 24060, "\u2581graphics": 19347, "\u2581Title": 13623, "Req": 16295, "ace": 561, "encial": 27285, "[": 28792, "TES": 27625, "\u2581zun\u00e4chst": 26477, "\u017f": 30515, "ones": 2402, "\"])": 18073, "ureau": 11242, "\u2581cheese": 13628, "\u2581Bis": 23764, "\u0456": 28813, "\u2581vector": 7206, "\u2581ninete": 18367, "\u0146": 30076, "\u2581bounded": 17443, "\u2581drew": 11547, "VD": 10293, "odo": 11139, "anches": 12655, "\u2581char": 1280, "Catalog": 27937, "names": 5889, "<0x9F>": 162, "\u0440\u0435\u0437": 15369, "\u2581Char": 4348, "\u2581\u0438\u044e": 14137, "\u2581P\u00e9": 21972, "\u2581Eng": 2317, "\u2581besk": 11899, "\u2581Br": 1896, "\u2581kat": 25345, "\u2581holes": 15130, "\u2581Gemeinde": 15496, "Ro": 23909, "ORMAL": 24321, "\u2581sense": 3367, "\u0151l": 15930, "\u2581arrays": 25532, "Labels": 21239, "loe": 27823, "ges": 2711, "ometry": 8289, "Tra": 14839, "\u2581outcome": 14120, "\u043d\u0435\u043d\u0438\u0435": 23480, "\u0448\u0442\u0438": 21218, "\u8fde": 29641, "\u2581Sounds": 27067, "\u2581framework": 10782, "ARK": 17155, "ument": 1320, "\u0447\u0438\u043d": 23156, "\u6e56": 30480, "\u2581suits": 21553, "\u2581dramatically": 25797, "\u2581Comput": 13651, "LINK": 19566, "\u2581label": 3870, "TM": 18659, "\u6697": 31096, "\u0431\u0440\u043e": 20385, "\u2581Nik": 11952, "\u0924": 29708, "!\");": 22896, "\u2581lengths": 25458, "\u2581neces": 24101, "\u2581Zone": 20312, "based": 5527, "\u2581probe": 21227, "\u2581Pl": 1641, "ming": 4082, "\u2581term": 1850, "\u2581Rice": 26741, "\u2581Tun": 22756, "eqnarray": 5743, "\u2581WordPress": 23378, "iance": 4609, "idget": 3812, "lect": 844, "summary": 3499, "\u2581Her": 2584, "Clone": 18991, "\u2581Harm": 26988, "\u627f": 30761, "fect": 2793, "hbox": 21472, "Plus": 22886, "pgfpath": 11370, "devices": 19936, "\uccab": 31745, "\u2581paths": 12924, "\u2581hills": 18553, "\u5c0f": 29138, "\u2581emit": 16670, "\u2581qu\u00e9": 25648, "\u2581admitted": 13048, "\u2581Boston": 9143, "?)": 15009, "\u0432\u044b\u0439": 16265, "Assert": 8715, "\u56f4": 30174, "\u2581fals": 27958, "DO": 5170, "\u2581feels": 8315, "\u2581evangel": 24276, "\u2581forming": 20345, "anger": 3689, "acking": 21593, "binding": 19579, "localhost": 20816, "STM": 26929, "\u2581multi": 6079, "PH": 7209, "AY": 3836, "\u2581enc": 2524, "\u2581fail": 3747, "\u2581double": 3579, "Buff": 15989, "\u2581tambi\u00e9n": 10797, "\u2581Kill": 25262, "\u2581amplitude": 24157, "\u2581IMP": 15347, "\u2581muttered": 22600, "\u5cf0": 31352, "**": 348, "\u2581scary": 23957, "\u5144": 31944, "ielt": 14022, "\u2581Dans": 14527, "\u2581Construction": 22061, ">>>": 21705, "\u25aa": 30701, "\u014f": 29869, "\u2581NV": 27470, "\u0163": 29360, "\u0925": 31783, "subfigure": 22854, "\u2581Out": 4655, "\u2581Justin": 21252, "asing": 3706, "\u2581cad": 13150, "\u2581advant": 6492, "analysis": 23206, "\u2581Canad": 8544, "\u2581supportive": 27729, "animation": 21251, "commands": 22738, "\u2581HA": 16450, "\u2581Stein": 18810, "\u2581cause": 4244, "prevent": 21129, "\u2581jail": 16215, "\u2581cinq": 28300, "\u2581exclude": 25482, "Unknown": 12324, "\u2581pen": 4969, "\u2581emot": 6983, "lope": 16740, "MESSAGE": 22391, "\uc81d": 31710, "\u2581responding": 26167, "\u5347": 30401, "\u2581shifts": 23573, "Duration": 13297, "\u2581commented": 22191, "\u00e9n": 2864, "\u2581Complete": 21929, "az": 941, "ords": 4318, "\u05e9": 29155, "ao": 5044, "\u2581cuatro": 27429, "\u2581rally": 24412, "estern": 5190, "\u2581sanct": 24309, "uki": 17299, "\u2581zn": 13288, "\u2551": 30019, "\u2581Ste": 2349, "\u2581dropping": 19183, "fort": 2878, "\u0636": 29623, "Wrapper": 10843, "rile": 20747, "\u2581rom": 5423, "ggi": 24816, "Rad": 9771, "\u2581Kas": 22965, "\u2581chance": 4676, "\u2581Jason": 14877, "urches": 18088, "\u2581muscle": 14540, "\u2581dem": 1493, "\u2581Cob": 28092, "\u2581": 28705, "\u2581Entre": 19361, "width": 2617, "AR": 1087, "elij": 6796, "rupal": 15030, "\u2581Lebens": 26976, "\u2581town": 3736, "response": 4439, "lag": 9403, "<0xE0>": 227, "\u2581Mail": 19227, "aga": 8882, "submit": 13816, "licenses": 9146, "\u2581sisters": 17118, "\u2581Sur": 6021, "\u2581tags": 12944, "\u2581dich": 19132, "rote": 4239, "\u2581lleg": 15546, "\u5c0a": 31935, "\u2581grandfather": 19300, "oken": 2196, "\u2581slaves": 17614, "isl": 8069, "\u2581Fu\u00df": 21309, "\u2581sout": 17465, "olved": 7060, "essen": 21951, "\u2581parsed": 18151, "Describe": 22836, "\u2581mines": 25989, "\u2581riding": 14557, "vere": 10888, "\u4f46": 29926, "\u2581initial": 3742, "last": 4081, "orters": 12283, "relative": 19814, "\u2581Mic": 8990, "\u2581week": 1819, "ix": 833, "\u2581Exception": 7011, "\u2581Mother": 12387, "grund": 19878, "\u2581Poly": 21493, "\u2581bund": 22978, "\u2581adventures": 28005, "\u8389": 31806, "\u2581movie": 5994, "created": 13574, "\uc558": 31877, "\u2581loan": 9976, "cknow": 8979, "\u2581canal": 21586, "\u5b69": 31437, "\u2581delay": 8579, "ERROR": 4732, "\u2581opin": 5693, "\u2581Ven": 10178, "\u2581at\u00e9": 24961, "\u0e41": 29853, "Transition": 21671, "\u2581\u0426": 8911, "\u2581lasted": 23353, "\u2581spokes": 23287, "\u2581speak": 4085, "pa": 4083, "\u548c": 29131, "\u2581Jer": 5505, "\u2581impro": 3267, "\u2581d": 281, "\u2581reveal": 14918, "ogs": 22990, "\u2581l": 305, "\u2581abruptly": 28586, "\u2581psychology": 23782, "\u2581Des": 2535, "Filter": 5249, "spi": 17456, "\u2581Cultural": 24974, "\u5b57": 29031, "\u0002": 30551, "model": 3549, "itos": 17122, "\u2581Association": 7738, "Property": 3093, "\u2581Ern": 13829, "amazon": 15041, "\u2581&\\": 9223, "Build": 9458, "\u2581thoroughly": 19877, "\u2581barr": 20427, "\u2581\u043f\u0435\u0440\u0438\u043e": 20292, ")|": 12362, "\u0454\u0442\u044c\u0441\u044f": 13137, "iod": 2563, "\u021ba": 25814, "\u2581fix": 6293, ";/": 16663, "\u2581Aires": 24537, "$(": 13299, "\u2581Invalid": 17275, "erset": 27236, "iju": 17411, "\u2605": 29168, "\u0102": 30148, "cq": 27009, "\u2581competitors": 24619, "\u2581ambitious": 28213, "\u2581\u0440": 13318, "ska": 9883, "Deleted": 28558, "prod": 13135, "anga": 14836, "\u2581trab": 11968, "\u2581instantly": 16203, "subscription": 20054, "\u2581R": 399, "\u2581alc": 15207, "\u064d": 31993, "\u2581casual": 13316, ":`": 21502, "\u2581treats": 27378, "\u2581junto": 21396, "\u4e1d": 31991, "\u2581Golf": 22932, "jack": 19181, "\u2581retained": 25764, "drv": 15555, "naio": 25001, "ril": 9085, "\u2581Lily": 25492, "\u2581hoof": 28376, "gc": 18499, "Obj": 7017, "oche": 11222, "\u2581ej": 13068, "\u2581mart": 15370, "\u2581\u0442\u0430\u043a": 8517, "\u0982": 31882, "pw": 26672, "aren": 4184, "oped": 11416, "\u2581K": 524, "\u263d": 30660, "\u2581ihre": 17080, "head": 1811, "antly": 4218, "\u043d\u044b\u0445": 4254, "\u0447\u0435\u043d\u043d\u044f": 22948, "optim": 18425, "\u2581nin": 11184, "\u2581volunteer": 21311, "<0x9A>": 157, "\u2581urg": 13839, "\u2581Serie": 20807, "\u2581Ts": 17718, "\u2581Bang": 13261, "Bal": 13450, "\u2581ensures": 21091, "\u7eed": 30199, "\u1e24": 30231, "\u300f": 31169, "\u2581weapons": 10115, "\u2581\u00e9l": 10760, "\u2581Years": 16886, "\u00e5g": 17843, "\u2581Incl": 18384, "\u2581beer": 11102, "\u043f\u0443": 4873, "Work": 6058, "\u2581carry": 7096, "\u2581==>": 27752, "teger": 4440, "VOL": 25387, "\u2581cottage": 27270, "\u2d53": 31922, "\u2581MODULE": 27023, "pher": 23370, "panel": 10726, "tests": 16735, "\u2581Buff": 15163, "\u2581would": 682, "\u2581Date": 5491, "\u2581Armen": 23848, "\u2581devil": 23153, "(": 28732, "\u2581gradient": 21135, "De": 3337, "\u6309": 29518, "\u2581National": 3610, "\u2581formerly": 26422, "\u2581follow": 1372, ")\r": 3174, "heart": 14754, "\u2581ns": 9250, "\u2581Jones": 9383, "\u2581nob": 7169, "atable": 18671, "cop": 11917, "\u2581innoc": 12686, "\u2581Much": 15465, "points": 8362, "\u554a": 31308, "\u2581fa": 3586, "\u2581Video": 12273, "\u2581Danny": 18709, "\u2581weigh": 19929, ",,,,": 20863, "\u2581bild": 22052, "\u01e7": 31682, "`,": 6851, "\u2581\u041f\u0435\u0440": 14353, "kol": 16592, "DM": 9286, "\u2581indu": 10420, "\u2581advances": 27505, "\u2581Moscow": 17293, "\u2581identification": 19451, "\u2581Environmental": 25607, "psilon": 6000, "\u2581Johnny": 18354, "ision": 1522, "\u2581famous": 8376, "results": 10463, "<0x4F>": 82, "REC": 23514, "\u2581reads": 16336, "\u2581none": 6547, "\u2581Brasil": 18341, "\u2581pregn": 10134, "\u2581point": 1305, "Origin": 15443, "\u2581Hitler": 14856, "\ubd80": 29775, "Password": 9414, "encies": 6094, "\u2581apparently": 10596, "\u2581scrub": 25429, "\u2581locals": 23237, "<0x79>": 124, "\u2581Les": 4573, "\u2581slight": 5543, "eline": 4661, "\u2581goto": 10510, "\u2581fitting": 20068, "skiej": 21603, "pert": 2482, "\u2581Images": 25082, "YY": 16655, "adores": 10591, "scale": 5705, "----": 502, "cycl": 21369, "\u2581supporters": 18909, "\u4e00": 28969, "\\\",": 22334, "\u2581ball": 4374, "\u2581Privacy": 25184, "\u2581jaw": 16223, "CU": 24164, "\u2581d\u00e9velopp": 26601, "\u03a0": 29575, "Vi": 27147, "\u2581cir": 2761, "Environment": 15827, "\u2581faire": 15349, "warz": 25718, "print": 2031, "\u0441\u043a\u0438\u0439": 4704, "\u2581basic": 6471, "illet": 13309, "\u2581Word": 10918, "\u2581high": 1486, "\u2581Len": 16216, "Jan": 21650, "\u2581vita": 23629, "\u2581d\u00e9cl": 27215, "\u3001": 29041, "\u2581concent": 7249, "uras": 13798, "\u2581integration": 14678, "\u2581Web": 6353, "charg": 14950, "ningen": 18870, "col": 1396, "\u2581\u041a\u0440\u0430": 17451, "zin": 26404, "affe": 19528, "\u66ff": 30552, "\u2581///": 1954, "arely": 6672, "news": 14290, "RED": 12466, "ipv": 21294, "tered": 8308, "Converter": 18670, "\u2581similarly": 21922, "\u8853": 31488, "\u2581m\u00fas": 18855, "\u2581pare": 13103, "\u2581gep": 14152, "ML": 3827, "\u2581\u0437\u0435\u043c": 19868, "\u2581Caribbean": 27093, "\u2581Einstein": 25721, "\u2581prev": 8177, "ead": 1109, "\u2581dealer": 25863, "inity": 11021, "\u51b7": 31888, "foreach": 15160, ">\\": 11266, "shire": 10359, "\u2581creep": 23691, "\u2581\u043e\u043a": 10525, "\u2581pobl": 12226, "icher": 16151, "unate": 26655, "\u2581Roland": 28552, "\u2581Down": 8560, "aning": 25388, "\u2581doing": 2548, "pload": 5739, "remove": 4653, "\u2581del": 882, "SELECT": 10696, "Mesh": 14952, "mapping": 15889, "\u2581looked": 2382, "abol": 21530, "locked": 20414, "flash": 21473, "seg": 8111, "\u2581dangerous": 9259, "\u2581respond": 9421, "\u30e2": 30177, "\u2581glo": 19720, "\u2581Jah": 4096, "\u2581achieved": 12011, "\u2581Hold": 15960, "erves": 20433, "\u2581mysterious": 21296, "snap": 26597, "\u2581identifier": 16375, "\u2581Schwe": 18295, "\u2581strat": 27857, "\u660e": 29381, "\u200c": 29611, "\u2581Vere": 15088, "\u2581wonder": 3383, "route": 11833, "amm": 6461, "EY": 17306, "\u2581debt": 10953, "mathfrak": 8530, "Struct": 10753, "Vel": 24351, "google": 4736, "utton": 26028, "\u6ee4": 30489, "overy": 9580, "Tasks": 15839, "\u2581consumption": 16298, "\u30ac": 30613, "\u2581Survey": 24004, "utf": 13366, "\u2581performances": 17487, "Vertex": 12202, "\u2581backend": 24327, "\u2581perturb": 19063, "\u2581painful": 17340, "\u2581parc": 26790, "fact": 22313, "\u2581Luther": 22370, "\u2581Ben": 4121, "iga": 7233, "\u90ce": 30682, "\u2581mim": 26302, "\u2581\u0442\u0430\u043a\u043e": 16629, "\u2581listen": 7105, "\u2581urged": 24560, "\u2581az": 4767, "\u2581Six": 13934, "\u2581acknow": 10062, "\u2581under": 916, "GroupName": 16477, "\u2581Iv": 25910, "\u2581Steve": 10581, "\u2581LIMITED": 20881, "\u2581dos": 4882, "\u2581Beck": 16596, "\u2581plans": 6400, "esse": 9892, "\u2581letting": 12815, "\uc57c": 30263, "\u864e": 31578, "\u0441\u043a\u0438\u044f": 25827, "\u2581ladder": 25016, "\u2581cz\u0119": 22375, "\u2581Illuminate": 22652, "\u2581remain": 6344, "\u2581crate": 14834, "\u00e4l": 8146, "\u5305": 29333, "FW": 18254, "\u043d\u043e\u043c\u0443": 13878, "i\u00f3n": 1762, "\u2581sua": 6929, "duration": 15458, "\u2581journey": 8123, "\u2581cry": 7843, "\u2581diese": 16936, "\u2581believe": 3091, "\u2581frances": 17923, "\u2581Exhib": 28522, "\u2581\u00e1ll": 21009, "\u2581lac": 24722, "\u4f9d": 30505, "\u2581whether": 3161, "jen": 6956, "halt": 18274, "\u2581dess": 9625, "sync": 8959, "\u98de": 31259, "WRITE": 12746, "Snapshot": 16587, "\u2581describing": 18063, "\u2581ridic": 12882, "\u2581Pub": 8742, "\u2581inspir": 22547, "\u2581static": 1062, "decl": 12114, "\u2581cre": 1317, "\u2581Bowl": 21484, "sf": 5784, "Usage": 16200, "ruption": 12992, "THREAD": 25647, "MARK": 27466, "\u062d": 29100, "\u2581tray": 22517, "\u2581divorce": 17714, "\u2581listop": 26460, "\u2581skin": 4759, "liament": 10669, "]));": 20568, "Register": 7832, "\u2581advent": 9987, "\u2581Vill": 10494, "ah": 912, "\u0540": 31638, "\u2581Roche": 26330, "\u2581desen": 26789, "\u2581could": 829, "script": 4459, "ors": 734, "\u043d\u043e\u0435": 8848, "ancies": 28481, "\u00e9d": 4652, "\u2581ware": 21110, "\u2581Advis": 28460, "\u6c17": 31376, "argument": 14635, "cf": 10037, "resolve": 12555, "mg": 11897, "\uc62c": 31519, "elf": 599, "\u2581slim": 24530, "println": 7561, "\u2581Dark": 12361, "\u2581BA": 27971, "ball": 2667, "\u2581sle": 7767, "Cal": 7618, "\u2581services": 3345, "\u2581aveva": 22405, "\u2581funded": 25178, "Af": 24505, "\u2581embedded": 20007, "\u2581Rub": 12178, "ippi": 17609, "could": 25327, "\u5bb3": 31346, "pen": 2748, "\u2581promise": 9081, "asis": 22315, "\u2581Marg": 10149, "rl": 3200, "\u02bc": 29846, "LOC": 9668, "\u2581bt": 26933, "istically": 26588, "One": 6167, "\u2581conversion": 13833, "year": 4395, "itut": 3288, "CSS": 19633, "\u2581Training": 15394, "\u2581cards": 8445, "\u2581explains": 15157, "\u2581Prince": 11567, "HP": 22106, "\u2581Scre": 27273, "\u2581gr": 847, "\u2581Vall": 26997, "\u2581m\u00e1": 17323, "\u2581died": 4847, "density": 26753, "\u0131": 28953, "\u2581dismissed": 23231, "\u2581\u0446": 6033, "PROP": 25887, "\u2581para": 2646, "\u2581\\": 414, "\u2581Aqu": 16979, "\u2581Gew": 21188, "**)": 12885, "\u2581rectangle": 26900, "ll": 584, "\u05de": 29112, "\u2581angry": 10545, "\u2581Det": 5158, "auc": 14158, "\u2581lyrics": 22583, "\u2581Rs": 28279, "\u2581chuck": 21390, "^\\": 4217, "=\"{{": 21686, "(){": 8881, "\u97f3": 29838, "\uff0e": 31181, "definition": 15196, "\u2581reviewed": 23282, "\u2581his": 516, "\u2581Buch": 17680, "\u2581Nice": 22277, "\u2581concentrate": 24539, "\u2581renamed": 25581, "\u2581torture": 26026, "\uc644": 31068, "\u2581thinking": 4195, "\u012d": 31567, "elo": 11979, "stant": 4774, "anel": 6843, "Day": 12422, "\u2581skirt": 24784, "\u2581protein": 14311, "rypto": 10690, "ness": 1467, "\u0424": 28897, "\u2581talk": 1985, "\u2581\u0414\u0430": 13608, "\u516d": 30467, "terday": 10479, "\u2581Championship": 8906, "isArray": 28000, "scr": 10426, "\u6536": 29507, "unci": 14281, "edu": 17765, "\u2581Ass": 3348, "\u2581\u043a\u043e\u043b\u043e": 28242, "\u2581Arc": 19733, "era": 2126, "\u2581valid": 3716, "\u2581\"[": 14264, "\u2581Contribut": 26015, "\u2581partido": 26993, "\u2581Cover": 16881, "\u2581sv": 5990, "\u043d\u043e\u043a": 21143, "\u2581hal": 10846, "Fat": 24076, "\u2044": 29484, "String": 1154, "ternal": 2885, "\u4f73": 31255, "SF": 23710, "\u00e9e": 2110, "\u2581Oil": 16181, "\u02da": 31058, "\u0441\u043b\u0430\u0432": 18989, "\u2581liter": 3937, "contrib": 25577, "ph": 721, "int": 501, "$$": 10811, "ander": 4427, "strap": 12720, "\u2581Jet": 28252, "\u2581responsibility": 9680, "Editor": 8859, "edi": 14548, "\u0281": 30024, "canvas": 19670, "zoom": 23915, "\u2581portion": 11580, "product": 5646, "asse": 4550, "\u2581Blake": 23450, "\u2581Austin": 17870, "ig": 326, "\u8881": 31979, "DEC": 23763, "\u2581Green": 6248, "\u2581ciudad": 14879, "PEG": 26180, "\u2581gre": 3656, "\u0434\u0435\u043d": 6775, "\u2581operate": 13858, "dz": 6936, "\u2581Treat": 15424, "\u3084": 30696, "\u8d5b": 31281, "ponent": 2462, "\u2581shot": 5180, "western": 22274, "ODO": 8267, "\u2581Bru": 8944, "Review": 25861, "aves": 3410, "erk": 6751, "\u2581Austria": 19219, "gon": 28684, "\u2581question": 2996, "ocy": 26720, "recogn": 28007, "prit": 25450, "\u2581Adult": 24765, "\u2581derivative": 25355, "\u2581wanna": 24057, "\u2581eg": 14486, "\u2581brown": 9060, "\u2581blue": 5045, "\u2581throughout": 5473, "entr": 21683, "\u2581headed": 11256, "\u2581placement": 21783, "light": 3646, "\u2581mothers": 21574, "\u2581creativity": 22317, "\u2581incred": 8329, "\u2581typical": 10842, "\u2581combination": 9470, "\u2581journalists": 26197, "\u2581muscles": 15922, "\u7136": 29713, "Feed": 20967, "\u2581lov": 5718, "\u2581feature": 4480, "\u591a": 29292, "\u2581Change": 13204, "ppe": 24865, "\u0ca4": 31849, "\u2581purposes": 10700, "hide": 10922, "LOW": 9630, "signed": 2782, "GUI": 21778, "\ud0c0": 30304, "wl": 13982, "iley": 13891, "\u2581\u0441\u0435\u043b\u044c": 18416, "izada": 27735, "\u2581\u0418\u043d": 18170, "ico": 2224, "ambda": 2566, "holders": 15523, "\u2581order": 1745, "\u2581ones": 4413, "zem": 14737, "\u103c": 31887, "ishes": 8137, "\u900f": 30828, "occup": 18562, "####": 2000, "\u2581/*!": 17847, "\u2581sto": 21651, "arator": 22813, "atype": 25743, "Bet": 17044, "bis": 24971, "\u2581topic": 9067, "Maybe": 13044, "\u2581dispar": 20287, "\u2581originally": 10806, "cross": 17495, "\u885b": 31899, "abi": 16075, "\u2581forme": 19396, "\u2581equivalent": 9844, "pers": 4837, "FORMAT": 14947, "\u2581sq": 18328, "\u2581histor": 4264, "-,": 24244, "\u10de": 31053, "\u028c": 31313, "\u2581\u0432\u044a": 17051, "\u52a0": 29058, "\u2581turno": 27200, "\u2581password": 7908, "\u2581afternoon": 8635, "staff": 27943, "\u2581Eins": 24055, "cm": 4200, "\u2581beauty": 9689, "\u8fdb": 29258, "other": 1039, "\u2581bid": 16129, "\u2581ade": 14921, "\u2581\u041b\u0443": 16332, "\u2581Por": 12401, "\u0446\u0456": 3299, "\u2581preferred": 11719, "\u2581Atlanta": 18279, "\u2581aan": 6456, "mill": 13134, "\u2581pricing": 22419, "\u2581\u0442\u0440\u0435": 12405, "WM": 19356, "\u2581nouveau": 19341, "ivo": 5462, "\u2581cour": 1547, "Quest": 14929, "\u2581MI": 17808, "\u2581Phone": 19520, "\u2581those": 1395, "\u6a94": 30652, "\u202a": 31791, "Sub": 3540, "omorph": 11179, "roc": 11697, "\u2581Griff": 19285, "chg": 18689, "\u2581Param": 10938, "\u2581bucket": 15552, "\u2581\\|": 14688, "\u2581females": 21903, "\u2581Yellow": 24275, "\u2581sea": 6163, "\u2581prec": 4467, "\u2581Research": 7982, "\u2581much": 1188, "ubernetes": 20563, "\u2581remained": 7568, "\u2581Orchestra": 28076, "\u2581#{": 22465, "\u2581Murray": 19973, "\u2581coming": 3524, "\u2581elected": 11401, "nob": 25552, "\u2581went": 2068, "\u043d\u043e\u0457": 10625, "icker": 9253, "\u2581Buck": 16577, "<<": 5275, "\u1f50": 30760, "ju": 8948, "\u2581Barcel": 15371, "\u2581partner": 6977, "able": 522, ">::": 13604, "\u2581fewer": 16130, "\u2581Works": 19012, "\u2581PropTypes": 28602, "\u2581extrem": 6215, "\u2581Hal": 10262, "\u2581jour": 3835, ".[": 20011, "\u2581Source": 8193, "\u2581supplement": 12982, "\u2581installation": 14843, "\u2581Ott": 14982, "pread": 22129, "sm": 2762, "]).": 17927, "\u2581apply": 5580, "\u00e9r": 3160, "\u2581Merc": 27934, "\u0627\u0644": 14312, "\u2581indeed": 8166, "\u2581paying": 9960, "\u0442\u0430\u043b\u044c": 16301, "fi": 7971, "\u2581conten": 26513, "et": 299, "ative": 1197, "\u2581trouble": 7598, "\u7a3f": 31547, "\u2581Hook": 26154, "ertain": 2029, "\u2581drugs": 10747, "\u2581excell": 7154, "orr": 15536, "\u2581indicating": 17888, "\u2581ost": 19862, "simeq": 21961, "\u2581psychological": 18835, "Sal": 18461, "\u2581quelques": 22789, "\u2581technological": 26515, "\u2581association": 13895, "\u2581lum": 17709, "\u2581context": 2758, "\u2581alongside": 13291, "\u2581simultane": 15110, "\u2581chin": 17418, "olves": 18725, "ajor": 2577, "setState": 24624, "Key": 2064, "eding": 13917, "\u2581nom": 3334, "asm": 7804, "Visitor": 24796, "=\"../../": 9765, "\u76f4": 29589, "\u2581murdered": 21304, "\u03b6": 30123, "\u2581academ": 8853, "iki": 7137, "\u2581NOTICE": 27199, "\u2581Arnold": 24396, "\u2581customer": 6346, "\u2581Francisco": 9686, "NEXT": 14026, "\u2581Install": 22609, "\u2581chi": 20484, "\u2581overseas": 24102, "iam": 2643, "\u2581Thomas": 6083, "ironment": 3333, "\u2581Apr": 3513, "sche": 8203, "\u00e1nd": 12849, "\u2581yet": 2783, "merce": 10905, "\u2581STR": 17235, "Ip": 18917, "atar": 9517, "igr": 3421, "\u2581Others": 19038, "Distance": 20701, "\u2581brought": 4248, "Platform": 11842, "\u4ec5": 30472, "\\|": 10729, "IE": 7453, "because": 20475, "\u2581Fran\u00e7ois": 21976, "grav": 25849, "\u2581told": 2240, "\u2581org": 2247, "\u2581moves": 11662, "nom": 11991, "\u2581inhib": 22358, "ype": 571, "\u5ef6": 30648, "\u2581branches": 15407, "raising": 27941, "\u2581psych": 7140, "\u2581HTML": 13987, "Vert": 10548, "\u2581AUT": 18453, "Qual": 15864, "ERO": 20574, "\u2581wides": 22964, "\u09a8": 29811, "\uc0ac": 29315, "\u2581della": 3503, "\u043a\u043e\u043d": 10676, "\u2581legis": 14864, "random": 9121, "\u2581popula": 20745, "Map": 2446, "\u2581TR": 6378, "oe": 3679, "\u2581Header": 24286, "lass": 12532, "\u2581suspected": 18648, "Tr": 1470, "\u2581developments": 22310, "\u2581Seth": 28407, "\u2581segment": 10424, "\u2581territo": 26372, "analy": 28149, "life": 10387, "1": 28740, "<0x68>": 107, "\u2581sav": 8639, ")){": 20474, "zon": 15331, "\u2581tragedy": 25466, "Multiple": 26905, "\u2581\u0436\u0443\u0440": 25788, "\u2581shelves": 28201, "\u2581Mo": 6885, "\ucc98": 30201, "nc": 14770, "\u2581*(": 6902, "\u2581commun": 1960, "\u2581Tyler": 23307, "\u5220": 29327, "CUR": 13336, "isa": 7682, "\u2581Pan": 7687, "\u91cd": 29249, "\u6b0a": 31923, "\u2581SS": 13823, "\u2581stayed": 10452, "\u2581Gaussian": 24247, "dots": 10234, "\u2581chose": 10008, "\u10d1": 29704, "\u2581Espa\u00f1a": 20482, "\u2581equipo": 23742, "essa": 11826, "\u2581bless": 14389, "<0x8D>": 144, "\u2581cut": 3119, "\u2581difficulties": 19316, "\u2581items": 4907, "ungle": 22082, "xb": 9570, "\u7cfb": 29401, "\u03ac": 29201, "Decode": 23757, "tre": 4110, "\u4e1c": 29717, "rieben": 25077, "desc": 5916, "\u2581uit": 5478, "mathrm": 3943, "yrics": 19591, "\u2581stories": 5979, "\u2581cidade": 26560, "\u2581treat": 3363, "\u2581prepared": 7998, "\u2581it": 378, "},\r": 17695, "\u2581pir": 17368, "\u00e4m": 18483, "\u2581aws": 20933, "\u044e\u0447\u0438": 23975, "\u2581spect": 5203, "\u2581native": 8271, "te": 424, "ository": 8266, "produ": 7309, "\u2581aqu": 11018, "\u00e4n": 5300, "\u2581Print": 13281, "\u2581glob": 15737, "\u0433\u0435": 8219, "rugu": 27300, "\u2581lifestyle": 16218, "\u2581[]": 3980, "HTML": 9986, "\u2581Sig": 18068, "IGHT": 7614, "\u2581ali": 19974, "\u2581diss": 9792, "ples": 2815, "\u2581Bronnen": 13228, "Face": 19064, "\u2581sul": 10577, "\u2581sunlight": 22950, "\u2581daily": 6790, "\u2581fprintf": 21098, "\u2581Legend": 26499, "\u030c": 31891, "\u2581rounds": 18638, "\u2581endless": 18284, "kem": 28281, "\u029f": 31665, "\u2581decline": 17468, "ighter": 8918, "\u0908": 31988, "ont": 677, "<0x40>": 67, "\u2581Using": 9616, "chip": 10168, "\u8bc1": 29425, "\u2581readers": 12076, "\u542f": 29625, "\u044a\u043d": 26561, "\u6a21": 29266, "ifferent": 15791, "\u2581\u043a\u043e\u0458\u0438": 22929, "\u2581exactly": 4668, "\u0433\u043b\u044f": 27254, "\u2581werd": 7680, "\u2581Haupt": 16730, "\u2581first": 907, "\u2581toll": 24910, "\u2550\u2550": 27743, "\u2581forg": 12706, "anned": 5928, "\u2581British": 4409, "correct": 24555, "be": 1105, "\u0679": 30634, "\u043f\u043e": 1901, "\u2581otros": 17731, "\u2581processing": 9457, "\u2581luglio": 27059, "\u2581jou": 13087, "\u2581prior": 4681, "\u2581minist": 15910, "SI": 3055, "clos": 10413, "textcolor": 25977, "\u2581musicians": 21895, "dex": 1453, "M": 28755, "\u027e": 30242, "itutional": 16820, "\u0e50": 29225, "\u2581simplicity": 25233, "compress": 26973, "\u22c6": 31288, "\u0121": 31173, "\u2581vo": 1776, "\u2581Hop": 15406, "agues": 11723, "ii": 2773, "\u2581style": 3238, "\u2581\u0440\u0435\u0437\u0443\u043b\u044c\u0442\u0430": 20959, "\u2581hope": 3317, "ishing": 5596, "omsnitt": 22847, "\u2581coupling": 18047, "\u2581TD": 26516, "\u0441\u043e\u0431": 26913, "empty": 4977, "\u2581frequently": 11220, "\u2581configured": 21529, "\u0433\u0440\u0430\u0444\u0456": 23006, "\u2581Mannschaft": 26241, "driven": 27369, "\u2581In": 560, "\u2581Fab": 12055, "\ubb3c": 30895, "\u2581mil": 2120, "iph": 16030, "NR": 20409, "adora": 20916, "\u2581regia": 19009, "\u0446\u0438\u0438": 5991, "Unable": 24085, "\u2581aprile": 27487, "xf": 7542, "\u1ef9": 31458, "frica": 23398, "\u2581until": 1996, "\u2581Lee": 8181, "\u2581department": 9784, "\u043e\u0433\u0440\u0430\u0444\u0438": 14784, "RESULT": 15132, "ucks": 18352, "\u2581tab": 7683, "\u2581OPT": 28406, "\ub78c": 31390, "((": 1880, "\u2581dispos": 12761, "Re": 1925, "\u2581\u0442\u0435\u0440": 17200, "\u0448\u0443": 16672, "\u2581distress": 25669, "\u2581functioning": 26945, "dbc": 24369, "\u30c3": 29213, "esser": 25711, "\u2581weekend": 9071, "LIMIT": 26722, "\u2581\u041c\u0438\u0445\u0430": 22887, "\u2581accommod": 11810, "\u2581willing": 7813, "\u2581False": 8250, "erve": 5803, "\u2581Cancer": 25437, "\u0431\u0435\u0440": 10254, "\u2581Qt": 20975, "\u2581phrases": 27512, "\u2581recip": 14273, "entes": 11829, "\u2581Baron": 23152, "rs": 4586, "\u2581frozen": 15199, "\u2581mother": 3057, "\u2581extra": 4210, "\u2581Control": 10336, "ata": 563, "\u2581acres": 20647, "\u5bc4": 31777, "utes": 2907, "engine": 11358, "\u6740": 31168, "\u2581plenty": 8969, "\u2581Bon": 8500, "\u0448\u0438\u0445": 15994, "\u2581kt\u00f3": 10348, "host": 3404, "\u2581directly": 5090, "\u2581Defense": 20774, "\u2581fos": 22876, "\u6b21": 29245, "\u2581PA": 14800, "OO": 17409, "\u2581ce": 3670, "imore": 20481, "\u2581sein": 6578, "ygon": 18993, "onda": 13946, "Hello": 16230, "\u2581Dak": 21490, "\u2581compiled": 23652, "adapter": 11581, "\u2581anybody": 15159, "ized": 1332, "\u2581situated": 22725, "<0xAD>": 176, "\u2581YO": 10834, "\u5bf6": 31683, "frame": 3413, "\u2581mad": 7245, "\u2581CC": 16900, "ile": 546, "rices": 17783, "FRA": 17012, "omi": 16344, "illo": 11151, "{})": 21914, "\u0440\u0456\u0457": 25474, "\u0081": 29766, "\u2581Lag": 20997, "Version": 4841, "\u2581Ari": 25513, "\u2581Pal": 4187, "]),": 11501, "native": 14305, "\u2581Bol": 10823, "ilers": 27693, "onto": 10533, "nier": 16408, "\u2581peer": 13669, "\u2581fam": 1282, "transition": 19655, "TIMEOUT": 21911, "\u0c82": 31966, "uten": 8142, "Desc": 8332, "\u043a\u0438\u0439": 6442, "\u2581periodo": 26959, "\u2581fourth": 10036, "walt": 21459, "\u2581registered": 11028, "aping": 13887, "\u2581decode": 21503, "\u2581packet": 11200, "\u2581\u0434\u043e": 2149, "\u2581ArrayList": 11534, "\u2581Cos": 15905, "\ubcc4": 31044, "think": 24036, "St": 718, "\u2581RE": 4515, "\u2581spent": 5223, ";}": 26070, "Service": 2328, "\u2581Sim": 3563, "\u2581City": 3805, "Pyx": 20585, "\u2581consume": 23327, "ocial": 24186, "\u2581$,": 28542, "resc": 25684, "()),": 11168, "\u2581link": 3062, "\u2581realised": 24425, "\u2581down": 1060, "\u2581Box": 10598, "\u2581moral": 10986, "rolog": 22068, "\u09a1": 31388, "\u2581dis": 704, "\u2581\u0440\u0430\u0434\u0438": 23352, "ties": 22833, "\u2581all": 544, "ics": 1063, "\u2581ti": 17061, "\u2581milit": 4116, "\u2581\u0432\u0438\u043a\u043e": 20572, "\u7559": 30210, "\u2581m\u00e9s": 12643, "\u2581\u0420\u043e": 5850, "\ubd84": 30217, "\u2581Global": 9970, "\u2581Mun": 15818, "Role": 10047, "sing": 11601, "\u0437\u0443\u043b\u044c\u0442\u0430": 17674, "\u2581variations": 19718, "ern": 1173, "every": 19662, "\u2581v\u00e1l": 19892, "APTER": 13531, "\u2581believes": 15302, "\u2581doll": 6240, "\u2581after": 1024, "\u2581slowly": 7160, "\u2581Plan": 9116, "RV": 19578, "egin": 1278, "\u2581\u043f\u0440\u043e\u0442\u0438": 25373, "\uc0c8": 30993, "\u2581Viet": 11224, "MIT": 24791, "\u2581poc": 21688, "\u05d7": 29358, "\u03cd": 29459, "repo": 21150, "\u7247": 29369, "jan": 12517, "\u2581Nach": 7496, "nown": 3676, "\u2581nurse": 17333, "\u2581digit": 21656, "<0x76>": 121, "<0xBB>": 190, "\u2581personal": 3327, "\u2581bonus": 14023, "mon": 2640, "SIZE": 5145, "TP": 4904, "Green": 22991, "osexual": 20823, "\u2581Catholic": 11377, "rud": 16950, "\u2581Stad": 4988, "\u2581RC": 26730, "cir": 5955, "RB": 24042, "\u1d1c": 31892, "\u2581span": 12363, "enge": 5451, "\u2581tonight": 11402, "\u0416": 28942, "\u2581benefits": 7196, "depend": 11569, "styles": 11072, "\u2581divis": 21707, "\u2581pt": 16533, "\u2581rows": 11926, "\u2581Feature": 22114, "\u4fe1": 29080, "\u0432\u0430\u0442\u044c": 27998, "SE": 1151, "\u2581titolo": 21266, "\u2581\u0432\u043e\u0441": 26957, "\u62ff": 31191, "orage": 3374, "\u2581exciting": 12536, "period": 14977, "ativa": 15618, "\u2581renov": 19103, "onden": 27353, "\u2581powder": 14761, "iciones": 23424, "processor": 24424, "ber": 537, "uspend": 16547, "\u2581Pom": 19015, "istrzost": 25000, "\u2581Lav": 26469, "\u2581Berkeley": 28042, "\u2581Asian": 13464, "GUID": 24591, "aly": 8910, "\u2581February": 5353, "Design": 18479, "\ud488": 30650, "\u2581sour": 18193, "\u30b2": 31111, "\u2581days": 2202, "Boolean": 9925, "\u043c\u044f": 8104, "\u2581Liste": 20131, "\u2581Thread": 16286, "\u54cd": 30249, "\u0438\u0437": 9912, "\u0437\u043d\u0438": 22037, "\u00e1n": 2892, "\u2581caut": 13831, "\u2581\u0433\u043e\u0434\u0438": 8481, "nek": 11593, "\u2581automatically": 10226, "\u2581was": 403, "\u2581Coun": 4830, "\u2581Reich": 16091, "\u2581Logan": 27072, "\u2581latest": 7345, "\u0436\u0435\u043d\u043d\u044f": 19195, "\u2581zur": 6156, "\u8f74": 30788, "\u7834": 31163, "warning": 15845, "spr": 22694, "\u0440\u0430": 665, "\u2581priests": 27677, "\u00de": 30087, "\u2581Johnson": 9370, "reno": 24968, "\u2581ers": 15920, "}{(": 25731, "fections": 23498, "\u7531": 29590, "\u2581Fro": 18760, "\u2581plants": 9923, "\u80cc": 30402, "\u2581servers": 18515, "\u2581Oktober": 17721, "\u2581conflic": 17358, "\u0432\u0430\u043d\u0435": 15064, "sap": 28688, "\u2581auth": 7565, "ulum": 16791, "\u2581municipal": 15539, "\u2581assumptions": 19573, "\u092f": 29896, "\u2581differently": 16841, "\u2581chances": 14562, "Signal": 21643, "\u2581viagra": 26805, "\u2581NBA": 21041, "ilians": 24959, "jos": 21978, "Cannot": 22193, "\u2581bacter": 17884, "\u2581stopping": 17203, "\u2581gef": 17241, "\u2581Kenya": 28455, "\u2581Stand": 7613, "\u043b\u0438\u0437\u0430": 26594, "direction": 15782, "\u2581v\u00e9g": 28486, "bw": 22304, "\uc6d4": 30839, "\ucc9c": 31244, "\u8861": 31632, "shirt": 21122, "\u2581homme": 26130, "\u2581money": 2445, "\u2581blessing": 27468, "Remote": 15478, "\u5269": 31120, "\u014b": 29930, "////": 1603, "\u2581associations": 25963, "\u2581\u00ce": 17417, "r\u00f3": 15218, "sprintf": 27292, "\u2581popular": 4387, "ucky": 11791, "ARY": 10713, "\u2581polar": 14955, "\u06d2": 30522, "\u00e4d": 16902, "\u2581\u0444\u0435": 23130, "tagHelper": 16724, "\u2581alignment": 19492, "zym": 17304, "\u8003": 30165, "\ud83c\udf89": 31862, "setText": 15206, "\u70ba": 30198, "\u2581noch": 11039, "\u2581actor": 10964, "\u2581democratic": 22303, "\u2581\u043a\u044a": 21340, "\u2581castle": 19007, "\u2581fra": 6388, "PIO": 11727, "\u2581\u0422\u0438": 19160, "\u2581\u0443\u0431\u0438": 28174, "Number": 4223, "\u2581revolution": 11029, "\u2581lou": 20280, "\u2581sales": 6292, "numer": 13372, "slash": 25779, "\u2581bear": 9135, "\u2581Com": 1124, "\u2581Landes": 22924, "\u2581fils": 24071, "\u2581post": 1704, "hidden": 9748, "\u2581Pars": 25281, "\u0151": 28886, "\u2581Ku": 19698, "\u2581Amsterdam": 20970, "\u2581Arena": 19433, "star": 7890, "\r\r": 21259, "Control": 5452, "imag": 25069, "\u6210": 29025, "\u0443\u0442": 13730, "\ucee8": 31885, "senal": 22792, "Ins": 17621, "<0xA1>": 164, "\u2581Multi": 18317, "omer": 16245, "\u2581future": 3437, "aude": 18188, "\u2581code": 2696, "\u2581\u0433\u043e": 1695, "\u2581Bron": 8303, "\u0014": 30721, "\u2581emphas": 10574, "<0x0F>": 18, "othes": 6317, "gorithm": 6433, "\u2581decade": 12250, "\u4efd": 30090, "\u2581finite": 10789, "wan": 10074, "_+": 18875, "\u2581portal": 21474, "\u967d": 31354, "which": 6974, "igos": 26328, "\u2581\u0432\u0443": 27983, "\u2581socket": 13889, "\u2581gets": 4739, "ission": 1937, "rij": 8017, "\u2581brew": 18098, "\u2581Imm": 25555, "\u2581ante": 20706, "ICT": 22521, "heck": 2543, "\u2581Mercedes": 26501, "Messages": 16556, "ensed": 6616, "\u2581letter": 5498, "\u2581bil": 16037, "\u2581hearing": 9788, "\u2581direct": 1863, "roller": 3462, "\u2581\u0440\u0443": 8857, "\u2581nederb\u00f6rd": 28373, "\u79f0": 29377, "rip": 5386, "__);": 13928, "\u2581awful": 15340, "\u2581PD": 28054, "\u2581launch": 8817, ")},": 14810, "\u2581p\u00e9ri": 22522, "management": 24700, "ificial": 14773, "Per": 4712, "oden": 26623, "[$": 7326, "\u2581fs": 14731, "\u043a\u0432\u0438": 24531, "\u2581this": 456, "\u2581Dow": 20271, "\u2581cyber": 23449, "stud": 13082, "ifest": 7541, "ggreg": 16798, "law": 10656, "\u2581gang": 13071, "\u2581known": 2651, "oi": 3950, "\u2581Loss": 26619, "\u2581issued": 11793, "Radio": 21932, "\u2581Same": 18081, "\u0cbe": 31026, "enza": 11409, "Points": 15628, "\u2581''": 9842, "\u2581z": 686, "\u2581perform": 2225, "\u2581physics": 16173, "\u0142ug": 19194, "user": 1838, "\u2581\u043e\u0431\u0440\u0430\u0437\u043e\u0432\u0430": 25160, "\u30ab": 29645, "\u0935": 29862, "Very": 26119, "\u043e\u0433\u0440\u0430\u0444\u0438\u044f": 18168, "Please": 12069, "\u2581print": 2682, "wx": 15711, "\u2010": 29558, "\u2581GET": 15439, "Equ": 2702, "\u2581further": 3629, "\u2581relatively": 10102, "iolet": 20346, "\u2581mamm": 27454, "\u2581breed": 14559, "\u2581Chron": 23967, "picture": 15847, "<0x0E>": 17, "onic": 9011, "\u2581anymore": 9229, "\u2581York": 2726, "\u2581su": 519, "usive": 6657, "stad": 10862, "Disable": 22497, "\u2581trauma": 24815, "\u2581Chelsea": 27106, "thm": 8615, "\u2581fragment": 13693, "Copyright": 20505, "\u2581Letter": 22279, "\u2581scholars": 22981, "\u2581lors": 11989, "classes": 13347, "\u2581Villa": 21192, "Mark": 8157, "\u2581poi": 19325, "ined": 1311, "\u2581garage": 16699, "OPEN": 20778, "\u7d42": 30899, "\u2581throne": 24459, ")}}": 22505, "sdk": 17287, "quel": 21894, "\u2581propaganda": 24010, "READ": 8172, "\u2581Dam": 8474, "failed": 13593, "\u2581Budd": 13772, "\u2581year": 879, "\u2581doctor": 6676, "Sync": 10567, "\u2581Chinese": 6707, "\u2581notable": 19225, "\u2581tid": 12158, "Unicode": 27977, "\u2581give": 2111, "acions": 20298, "ienen": 20597, "dates": 8097, "Here": 15423, "\u2581similar": 3684, "arette": 18409, "\u2581R\u00fcck": 25539, "eb": 1169, "\u043a\u043e\u043c": 7830, "\u2581wrest": 17619, "\u000e": 30517, "erg": 8640, "\u2581Erst": 28227, "ulos": 23235, "\uc0ad": 30512, "\u5be6": 31972, "\u2581Liz": 24044, "\u2581completion": 15151, "\u2581rank": 6593, "mo": 5326, "\u2581sun": 4376, "\u2581Phot": 12719, "\u2581ID": 4519, "uset": 13222, "\u2581reflects": 24345, "param": 1148, "\u2581basketball": 16382, "\u2581CONTRACT": 26448, "\u2581syst": 18874, "\u2581magnific": 24039, "rings": 26661, "\u0404": 29035, "\u2581clear": 3081, "mv": 23366, "\u2581pac": 21632, "anean": 23554, "Call": 3001, "\u2581Point": 8571, "\u2581Could": 13955, "\u2581$('#": 23927, "uffer": 2376, "thern": 4399, "\u2581whisper": 9502, "\u043d\u0438\u044e": 12301, "deprecated": 27083, "\u2581commanded": 27288, "\u5f80": 30717, "\u2581EXPECT": 7270, "entials": 10633, "\u2581Portugal": 16160, "\u2581Nation": 14317, "\u2581Let": 3169, "\u2581three": 1712, "gage": 11332, "rov": 11620, "\u2581FUN": 28318, "\u2581voting": 17035, "Jo": 22387, "\u2581Muse": 22951, "\u2581prejud": 27425, "\u96fb": 30939, ">,": 6550, "\u2581reward": 11499, "arg": 926, "mu": 2390, "\u2581Mean": 11736, "paragraph": 24926, "\u2581Manchester": 17533, "ither": 1940, "lace": 22918, "neg": 12415, "ar": 283, "Attribute": 3643, "\ub204": 31596, "\u2581capability": 21368, "ett": 2973, "\u2581Rosen": 23368, "\u2581staff": 5084, "\u2581fool": 10776, "\u2581Gian": 27090, "\u2581'../": 13285, "\u2581zich": 19517, "\u2581pr\u00f3": 22045, "\uc694": 29517, "omitempty": 15509, "Super": 15503, "\u2581tr\u00e8s": 15053, "\u2581bureau": 20145, "\u2581patches": 26961, "\u2581Flash": 25164, "hen": 540, "\u2581secret": 5169, "\u2581Smart": 17285, "\uc640": 30275, "\u2581september": 25494, "\u2581prisoner": 24040, "\u9014": 31787, "\u2581nur": 7475, "\u8f6e": 30908, "\u2581That": 1725, "\u2581Universe": 27131, "\u2581crucial": 13040, "\u2581conoc": 16022, "\u2581das": 2846, "\u2581Kab": 27130, "\u0ba8": 31393, "\u2581VT": 24710, "\u2581Code": 7596, "\u2581sexy": 23110, "\u2581among": 3352, "iat": 9348, "ssl": 16134, "\u2581Share": 21115, "pf": 10018, "\u2581broker": 22670, "athers": 13877, "\u2581popularity": 20646, "\u2581hits": 14121, "\u2581heads": 10478, "\u2581&&": 1208, "ede": 6497, "\u2581ordinary": 13207, "\u2581politicians": 18594, "<0x59>": 92, "\u2581immediately": 5347, "\u0440\u0438\u0441\u0442\u0438": 23406, "nr": 11477, "FIELD": 13452, "\u043e\u043d\u0430": 5022, "\u0437\u044f": 15876, "\u4e1a": 29703, "\u0441\u044c\u043a\u0438\u0439": 10379, "\"},": 7706, "bear": 25114, "bi": 6309, "\ud560": 29723, "nov": 20920, "\\}": 18800, "\u2581ceremon": 24840, "iments": 8447, "Sa": 14524, "<0x80>": 131, "\u2581try": 1464, "isecond": 20086, "ollen": 21867, "\u6388": 30822, "\u043d\u0456\u0441\u0442\u044c": 19147, "\ubaa9": 30222, "\u2581faced": 12565, "\u2581DES": 22840, "\u9636": 31177, "\u5219": 29310, "\u2581Heat": 24191, "\u2581ellos": 26645, "guard": 16191, "<0x28>": 43, "\u043b\u044c\u0442\u0430": 16389, "\u2581Estado": 26507, "\u2581Game": 8279, "\u2581handling": 12852, "Shadow": 21318, "\u2581lowest": 15341, "\u4eae": 30631, "\">\r": 14980, "\u2581northern": 12727, "\u2581ops": 23002, "\u2581jealous": 21176, "omes": 28548, "\u2581inde": 3511, "\u2581entirely": 8134, "\u2581biggest": 8964, "\u0441\u0442\u043e\u044f": 10185, "\u2581Station": 13354, "\u2581imports": 28365, "icia": 17708, "\u2581Mama": 25579, "VALID": 18511, "Ind": 1961, "ueva": 22400, "\u0089": 31198, "Tri": 18332, "Watch": 15602, "\u2581\u0431\u044b\u043b\u043e": 13926, "arten": 12125, "ham": 3520, "pb": 11497, "obi": 16204, "\u2581tales": 22242, "clusion": 16713, "aste": 4635, "<0xB3>": 182, "\u2581ont": 7957, "\u2581globe": 21889, "es": 274, "three": 16480, "\u2581photographer": 24159, "\u2581PROVID": 25118, "\u9192": 31224, "opl": 13317, "ogue": 25245, "\u2581Agr": 18546, "\u2581\u2019": 24978, "\u2581Seine": 25517, "\u680f": 30583, "\ud83d\udcb0": 31697, "\u2581zoom": 21953, "\u2581corps": 16214, "iefs": 25495, "\u30da": 30534, "\u2581TF": 23260, "\u2581}\r": 3426, "\u2581Medal": 21097, "ADDRESS": 25100, "\u2581Roh": 27224, "\u2581text": 2245, "Ali": 14514, "\u00a1": 29028, "\u2581pam": 26362, "hy": 5942, "pay": 6762, "\u2581By": 2463, "\u2581zip": 17955, "sylvania": 14790, "Retry": 23298, "\u88ab": 29458, "\u2581blanc": 28609, "\u2581options": 2877, "channel": 7430, "opyright": 4477, "\u2581religion": 10048, "\u2581coordinates": 15634, "hesis": 21537, "inating": 11251, "ipt": 14345, "\u2581summon": 21720, "\u2581Task": 10290, "orter": 7046, "four": 14171, "ktion": 16591, "verts": 24873, "\u2581To": 1791, "\u0dba": 31857, "\u2581census": 21254, "\u0440\u0430\u0431\u043e": 22336, "kow": 12637, "Bro": 21404, "pos": 1065, "\u2581CONDITION": 12016, "browser": 13612, "zione": 9826, "\u043d\u043e\u0441\u0442": 12757, "\u2581pink": 12937, "\u2581hour": 5115, "lan": 7411, "icult": 3366, "\u2581Conserv": 12200, "\u2581gy": 14229, "\u2581sorts": 16971, "\u725b": 30857, "\u2581rather": 3210, "style": 3839, "So": 5142, "estly": 19067, "\u2581wished": 15534, "TO": 3957, "\u2581stumbled": 27907, "brew": 22540, "\u043f\u0440\u0430\u0432": 12959, "tmp": 4964, "\u2581acquired": 14178, "\u2581chronic": 20388, "mina": 28085, "\u932f": 31098, "proc": 11274, "oming": 17846, "\u2581frames": 15806, "\u2581advantages": 18761, "\u2581prevents": 27878, "<0xD2>": 213, "\u2581joy": 10186, "journal": 22908, "\u2581Shadow": 24874, "\u2581feel": 1601, "\u2581kom": 5626, "\u2581k\u00f6n": 14967, "graphics": 6648, "<0xF3>": 246, "\u043a\u043e\u043b\u043e": 17191, "\ub978": 30879, "cu": 7340, "\u2581Athlet": 19092, "template": 7488, "\u0635": 29308, "\u2581Amazon": 8701, "\u2581inn": 4783, "utz": 13533, "clk": 9061, "nah": 14354, "\u2581proto": 10209, "Features": 22227, "\u2581immense": 26491, "\u89e3": 29386, "\u2581prima": 12030, "apping": 3925, "\u2581attract": 6842, "\u2581alternative": 9285, "rez": 11223, "\u0447\u043a\u0430": 19247, "\u2d59": 31733, "\u2581teacher": 8626, "element": 4172, "\u2581`${": 22468, "\u0435\u0440\u0435": 2850, "\u2581conservation": 21088, "cp": 4743, "als": 973, "\u0438\u0441": 15333, "pp": 587, "\u0396": 31879, "igate": 11590, "<0x54>": 87, "\u2581sol": 2128, "\u043b\u0430\u0433\u043e": 22085, "\u2581stared": 10138, "\u5750": 30150, "adt": 25916, "\u2581Career": 18050, "\u2581Islamic": 18918, "\u2581anci": 21267, "\u4f55": 29984, "oya": 27338, "\u2212": 28923, "\u534a": 30458, "\u2581\u0430\u0432\u0433\u0443": 18784, "<0x91>": 148, "crypto": 23614, "\u2581Hall": 6756, "ego": 6221, "Links": 28416, "\u2581arg": 1629, "\u2581With": 2326, "match": 5644, "\u0438": 28772, "\u2581students": 3567, "commons": 26527, "Menu": 5674, "\u2581sl\u00e4ktet": 12645, "otimes": 8794, "profile": 9247, "\u2581phrase": 14804, "\u2581nest": 17875, "chten": 23708, "\u2581hug": 13620, "yo": 12141, "\u2581ratio": 10554, "\u2581concl": 5233, "leased": 22246, "imen": 21538, "\u5458": 29602, "ived": 1975, "EC": 8619, "SHIFT": 18508, "\u2581compliment": 23085, "\u2581IF": 14184, "\u2581p\u00fablic": 23912, "friend": 6542, "ROL": 19172, "appropri": 25381, "\u2581lined": 21161, "\u2581biological": 21549, "<=": 25796, "Assignment": 28013, "\u2581announced": 7004, "\u2581fore": 2417, "far": 15057, "quot": 12792, "sko": 21821, "\u7070": 31951, "override": 23754, "\u2581buy": 3848, "\ud56d": 30968, "Click": 5978, "\u2581Josh": 14648, "\u2581rott": 28156, "ware": 1706, "\u0443\u0440": 8339, "\u2581necessary": 4892, "\u955c": 31555, "\ube44": 29859, "getElementById": 14777, "\u2581interval": 12571, "chunk": 13567, "\u2581zap": 19060, "\uc57d": 31160, "iding": 3269, "ITY": 4966, "\u2581recognize": 11286, "VR": 18240, "Analysis": 22039, "\u2581little": 1628, "\u2581readily": 22058, "\u2581Bew": 27459, "\u2581conducting": 28698, "\u2581jokes": 23872, "\u2581stack": 7232, "?:": 4394, "\u2581pb": 27933, "Sum": 9881, "\u2581controversy": 27959, "\u6539": 29220, "\u2581Input": 11232, "iour": 27290, "\u2581feeding": 20525, "avel": 3177, "\u2581WARRAN": 6784, "chn": 1818, "\u2581Stage": 22532, "\u2581\u2026": 8140, "\u2581Gu": 2480, "\u2581dedic": 21810, "ployee": 16199, "\u2581Shir": 25959, "\u2015": 29370, "lines": 8063, "\u2581chunks": 28632, "ht": 407, "\u2581father": 3140, "leton": 9224, "settings": 6465, "\ud310": 31334, "Repository": 8813, "\u2581rehe": 25562, "\u2581majority": 7757, "\u2581monaster": 27128, "iere": 16302, "\u878d": 31970, "\u2581embr": 12434, "lap": 15578, "attan": 18244, "ature": 1373, "<0x7D>": 128, "\u2581coll": 3495, "\u2581prest": 15374, "\u043d\u044e": 17585, "\u2581Or": 1667, "QU": 7855, "\u2581campus": 14366, "\u2581Squad": 16756, "Original": 20582, "\u2581overflow": 18930, "\u2581initialized": 24121, "\u2581occurring": 28265, "\u2581Taking": 20648, "itory": 4560, "\u9805": 30829, "lease": 1919, "\u2581recuper": 28109, "FORE": 26755, "\u2581Consider": 11772, "\u2581expectations": 13879, "\u2581s\u00fcd": 24625, "Null": 4238, "\u2581Donald": 14696, "\u2581examination": 20976, "Managed": 26215, "\u2581granted": 12295, "\u2581roi": 23144, "\u2581vot": 10454, "BUG": 5506, "\u0432\u0438\u0437\u0438": 20943, "\u2581Animal": 26724, "\u2581progressive": 20458, "\u7c73": 30752, "\u2581Jar": 20069, "\u2581lavor": 21785, "angen": 26047, "\u2581secretary": 16916, "\u2581taste": 9230, "\u2581poorly": 24122, "\u2581dif": 1025, "qual": 14033, "conscious": 13787, "ct": 310, "mel": 12625, "\u0304": 30778, "force": 5712, "\u2581Television": 22730, "\u85e4": 30864, "\u2581auction": 25029, "Aud": 24761, "\u2581depos": 11199, "\u0e08": 29789, "\u0440\u044f": 3911, "mao": 26995, "\u2581mathematical": 27240, "\u2581too": 1368, "\u043d\u0430\u0445": 26027, "enz": 7322, "pol": 3722, "\u2581Deal": 27734, "team": 15075, "OPTION": 18180, "Username": 22281, "\u6bb5": 29390, "lands": 5603, "\u2581Einwohner": 21991, "\u2581consider": 1917, "ides": 1926, "\u2581opt": 3158, "mas": 4876, "km": 8251, "zeug": 19152, "\u2581temper": 5026, "\u2581Hub": 15969, "pathetic": 27642, "\u2581Il": 2661, "\u6df7": 31493, "\u83ef": 31365, "\u2581JavaScript": 26281, "ests": 5946, "\u0646": 28955, "\ud83e\udd23": 29650, "\u2581weak": 6334, "\u2581\u0447\u0430": 5787, "Topic": 25462, "\u2581com": 432, "\u2581right": 1103, "\u6cbb": 30137, "\u2581Up": 4324, "\u2581tasks": 9796, "\u2581Pos": 8202, "\u2581relating": 21487, "\u0440\u0456\u044f": 23477, "\u2581Nederland": 20347, "\u9648": 31258, "\u2581for": 354, "\u2581dri": 2768, "entry": 3991, "\u2581batt": 8396, "\u2581blessed": 24141, "\u2581Salvador": 27785, "\uc9f8": 31003, "hl": 7529, "\u2581compromise": 25479, "\u2581backed": 17753, "aint": 1690, "\u2581doorway": 20702, "\u2581stress": 6727, "\u2581dialog": 10436, "ale": 883, "\u2581updated": 8457, "\u2581quando": 15440, "\u2581apr": 8601, "igu": 8499, "flix": 22401, "olan": 24126, "compar": 24218, "subsubsection": 21763, "\u2581due": 2940, "weise": 14647, "ris": 3665, "recv": 22344, "Ver": 5760, "ston": 6549, "\u2581Anyway": 20129, "ussy": 23215, "apest": 20804, "ym": 1082, "ories": 2420, "\u2581deep": 3534, "\ub8e8": 31602, "\u6821": 30069, "Feature": 11636, "\u2581releasing": 28364, "\u2581Path": 11228, "\u2581Bev": 23344, "\u2581\u0442\u0430\u043a\u0436\u0435": 12498, "\u2581Bry": 12767, "Low": 21397, "\u2581slow": 3944, "that": 6087, "\u2581Kyle": 25363, "\u7a2e": 31209, "\u3011": 29494, "IF": 4066, "\u2581AP": 10502, "\u2581horror": 15032, "\u0441\u0441\u0438\u0439": 24416, "\u2581increase": 5247, "\u2581&#": 16719, "\u7d50": 30486, "ADD": 10868, "\u51b0": 31835, "\u2581hammer": 20712, "\u0430\u043b\u0438": 17816, "\u2581Hu": 16168, "\u2581worst": 8748, "\u2581shore": 17298, "};\r": 26407, "\u540e": 29120, "\u6d0b": 31434, "\u2581Tommy": 20893, "\u2581aut": 1206, "\u4f8b": 29362, "\u2581opp": 3562, "\u2581kw": 11038, "Insert": 13851, "\u00e2n": 18215, "\u2581Officer": 16797, "\u2581els": 7698, "\u2581waves": 13295, "\u00bb.": 5781, "\u2581Taiwan": 22463, "\u274c": 31200, "\u1eb7": 30681, "Constants": 11668, "\u2581Your": 3604, "\u2581URI": 22356, "render": 6577, "usz": 18645, "\u2581Kids": 21186, "\u2581Ek": 27659, "Component": 3621, "ida": 2331, "\u2581these": 1167, "\u2581newest": 27510, "\u2581ESP": 23369, "\u2581chrom": 24448, "plot": 11096, "ron": 1689, "uvud": 17279, "itol": 24250, "\u2581Screen": 24432, "\u2581Hollywood": 14057, "\u2581Expression": 25031, "ial": 505, "\u2581spat": 13166, "Comparator": 18249, "\u2581rates": 7978, "\u2581mutual": 19336, "\u2581COM": 15924, "\u00e1b": 25657, "Connector": 27563, "\u2581editing": 19617, "\u65bc": 30800, "\u0437\u0443": 6307, "\u2581Medicine": 18293, "\u2581establish": 7507, "\u2581glory": 20756, "\u2581switch": 4933, "\u2581restr": 6134, "\u2581exagger": 25945, "\u2581situ\u00e9e": 27250, "\u2581fuel": 10624, "enschaft": 13553, "\u2581imag": 3809, "figure": 4608, "\u2581periods": 15772, "\u2581conform": 16565, "ity": 472, "\u7565": 30223, "VERT": 24149, "\u2581ras": 28104, "Ag": 13859, "Us": 5495, "\u2581boring": 19757, "\u2581Britain": 10174, "soc": 10267, "\u0431\u0456": 11430, "\u2581relatives": 21668, "HD": 12591, "\u2581smooth": 7898, "rit": 872, "cas": 11768, "\u043a\u0430\u0442\u0430": 24648, "asset": 17702, "\u2581sensors": 27810, "\u2581Has": 10981, "threshold": 21286, "\u2581\u044d\u0442\u043e\u043c": 26512, "\u0641": 29057, "geometry": 27738, "\u2581apps": 13421, "\u2581Big": 6375, "Account": 7820, "\u2581coinc": 14143, "Phys": 18191, "jon": 18906, "\u0927": 31080, "mma": 19634, "\u2581ter": 3636, "\u2581ped": 8235, "gray": 17645, "\u2581Mode": 21748, "\u2581sang": 15166, "\u2581severe": 13645, "\u2581procedures": 15251, "\u201f": 31925, "\u2581continue": 3688, "BT": 12656, "\u2581Jos": 9574, "eder": 2865, "aci\u00f3n": 2895, "\u2581vin": 18146, "ittle": 1490, "\u2581mx": 26800, "\u2581While": 4023, "rdev": 23338, "\u0440\u043e": 728, "Core": 5908, "\u2581Louise": 23928, "\u2581Lloyd": 23768, "rets": 18716, "who": 12938, "\u2581belonging": 23921, "\u043c\u0435\u043d": 4029, "\u2581Ru": 12562, "oz": 3711, "Modified": 19288, "\u05d4": 29047, "\u2581equation": 8777, "\u2581complaints": 23430, "COL": 9600, "\u2581Um": 12514, "\u2581intervals": 24405, "Translation": 25825, "\u95fb": 31446, "\u2581announcement": 20990, "\u2581popped": 28152, "fox": 23312, "\u2581cheer": 17096, "MB": 5953, "\u2581equality": 17605, "\u4ed3": 31263, "\u2581rent": 7358, "INTER": 13333, "\u2581Rol": 15524, "\u2581Piet": 19786, "\ud0dd": 30442, "ray": 919, "\u2581accidentally": 27630, "\u2581democr": 9895, "\u0441\u043a\u0443": 11249, "\u2581city": 2990, "off": 1769, "\u2026]": 21888, "appoint": 9643, "expand": 20994, "\u00eas": 17194, "\u2581triggered": 22192, "Mac": 11483, "agent": 14702, "\u2581Auf": 8914, "rock": 16013, "\u2581\u043c\u043e\u043b\u043e": 23529, "\u2581Door": 26519, "\u2581petition": 25045, "Mad": 22762, "sep": 21571, "\u2581electricity": 17242, "\u044f": 28811, "\u0441\u043f\u0443\u0431\u043b\u0438": 26352, "\u2581sal": 3823, "\u2581DEBUG": 15383, "\u2581sender": 17560, "\u2581Another": 6880, "\u2581twice": 8660, "\u2581casting": 24668, "alia": 15450, "\u2581knowing": 8215, "\u2581troops": 10746, "chain": 9132, "\u53bf": 29406, "\u2581Reg": 2678, "\ub3d9": 29714, "\u2581reput": 10459, "\u2581Altern": 16677, "\u2581slaughter": 28623, "\u2581ranks": 19334, "}=\\": 11241, "\u2581:=": 2137, "WD": 23460, "Statistics": 27478, "\u2581Palest": 13897, "\u2581Diff": 28450, "complete": 11192, "\u0937": 31118, "IN": 775, "isen": 10555, "\u2581Display": 20121, "\u2581object": 1928, "subscribe": 19128, "epper": 14781, "Helpers": 15506, "\u041c": 28856, "\u2581Lem": 10556, "\u2581Mem": 6011, "\u2581distract": 18565, "\u00e8rent": 24087, "uate": 11931, "peer": 14720, "\u2581Course": 19688, "\u2581varies": 27950, "\u2581obligations": 26405, "\u4e39": 31618, "\u2581achievement": 22196, "angular": 8685, "\u2581holds": 8288, "\u2581vess": 13174, "\u2581\u041f\u0440\u0438": 11824, "\u2581quantity": 15069, "\uff09": 29185, "mass": 18480, "ours": 2020, "\u2581Louis": 6698, "aks": 9140, "strlen": 26192, "\u2581quarters": 22142, "\u2581circ": 4713, "Of": 2862, "ilty": 13021, "\u2581IM": 17593, "\u9006": 31770, "\u2581distances": 24224, "\u2581correlation": 17301, "\u2581\u0435": 2385, "\u2581traffic": 8475, "ection": 10101, "\u2581clearly": 6315, "\u2581casa": 13954, "idding": 18790, "std": 3719, "\u51b3": 30668, "\u0440\u043e\u043d": 11197, "ande": 5224, "\u2581\u043d\u0430\u0443": 13585, "anton": 15427, ")": 28731, "Se": 1980, "ITION": 8262, "iman": 27153, "\u2581Period": 24592, "\u2581absolutely": 7771, "\u2581Ster": 26103, "elif": 13963, "\u2581lovers": 24883, "ates": 1002, "ups": 9023, "\u2581cleared": 15253, "\u2581distinguished": 23502, "\u2581\u0432\u0440\u0435\u043c\u044f": 13493, "m\u00eame": 26333, "\u7b11": 31364, "\u2581noticed": 8295, "\u2581Franklin": 15181, "\u2581julio": 26018, "\u7403": 30211, "fm": 21019, "ok": 493, "ops": 2599, "\u6d4e": 31644, "\u2581scenarios": 22141, "Member": 10553, "\u2581attribute": 6836, "\u2581planets": 28312, "\u2581assembled": 26309, "\u2581priorities": 28231, "t": 28707, "power": 6468, "\u2581Commission": 9238, "signal": 16530, "BUILD": 23972, "ationale": 28381, "perp": 21280, "\u2581hunt": 20021, "respond": 27092, "\u02c7": 31721, "\ud55c": 29282, "uster": 3863, "\u2581Companies": 27839, "\u2581Beach": 11404, "\u043f\u043e\u0440": 27593, "\u03ce": 29803, ",{\\": 26225, "Hom": 25792, "\u2581medi": 17286, "\u2581percent": 4153, "son": 1265, "eze": 19961, "\u2581SEO": 21518, "\u2581salad": 25256, "\u2581reporters": 25875, "isi\u00f3n": 13386, "\u0441\u044c\u043a\u0430": 12533, "ommen": 18902, "ui": 1724, "\u2581documents": 10181, "\u2581presidente": 22882, "\u2581Shell": 28612, "\u2581times": 2421, "\u2581applies": 15588, "\u2581favour": 10392, "\u2581Portal": 22314, "\u2581Fortunately": 26642, "\u2581Email": 16880, "setting": 15062, "\u2581Serge": 16866, "Target": 5332, "\u2581Paper": 20038, "\u2581poor": 5366, "\u2581pres": 1258, "\u2581risks": 14679, "Tests": 17136, "\u2581tests": 8079, "iques": 4030, "\u2581ion": 19464, "\u2581crap": 21849, "next": 3423, "\u2581answering": 24402, "roz": 27641, "\u2581dragged": 20212, "\u2581Bureau": 18052, "major": 20065, "\u2581Does": 9377, "rale": 19289, "yar": 17073, "flex": 13971, "LI": 4862, "\u2581Francia": 19852, "\u2581\u0441\u043e\u0441\u0442\u0430": 24285, "\u2581compon": 3867, "\u2581facility": 12671, "\u2581Info": 19790, "\u2581involvement": 20447, "\u1ef1": 30500, "\u2581prod": 18957, "\u2581ON": 9688, "\u2581Democratic": 12821, "\u2581values": 3069, "\u0434\u043d\u0430": 13373, "\u2581haber": 28349, "\u043d\u0438\u043c": 8895, "Setting": 15222, "\u2581shy": 23589, "rg": 7879, "\u2581rang": 16451, "===": 14203, "ulty": 13739, "\u8be6": 29852, "\u0442\u0440\u0430": 9745, "\u2581trop": 12090, "\u2581Dopo": 28170, "mov": 18057, "ism": 1443, "ars": 1168, "\u2581begin": 2839, "\u2581Cher": 12913, "imeq": 21876, "\u2581experienced": 8304, "\u2581Ide": 14017, "\ube0c": 31073, "atically": 6789, "\u2581what": 767, "Decimal": 16682, "\uf0b7": 30659, "ular": 1098, "the": 1237, "\u2581online": 3270, "\u9662": 30370, "Index": 2359, "Partition": 20435, "bm": 6659, "\u2581whereas": 14349, "<0xA6>": 169, "\u2581n\u00fa": 16248, "character": 19933, "\u2581Anth": 12240, "\u9ebb": 31701, "<0x02>": 5, "*\"": 27045, "::_": 21312, "\u7d30": 31451, "\u21d4": 31559, "project": 6231, "\u2581signals": 15972, "sid": 17554, "\u2581precision": 16021, "USE": 7943, "\u2581insight": 16164, "n\u00fd": 24160, "\u2581axis": 11022, "\u2581\u041f\u0438": 21540, "];\r": 14420, "listen": 20246, "\u1004": 31284, "\u2581Theater": 19725, "\u2581Din": 20325, "\u2581Joe": 7833, "\u0441": 28788, "\u1f76": 30492, "\u2581discussion": 8387, "<0x0D>": 16, "med": 1591, "APP": 16364, "\u2581propriet": 20796, "\u2581household": 13634, "\u2581occasion": 8778, "\u2726": 31709, "\u2581Tot": 17471, "attachment": 28150, "\u2581effects": 6092, "\u2581Hamb": 18540, "covery": 8841, "\u2581Why": 4315, "\u2581reminder": 25563, "\u2581touchdown": 27866, "\u2581diffusion": 25236, "\u0441\u043a\u0430\u0442\u0430": 19537, "\u04bd": 31932, "\u2581gut": 16492, "\u751f": 29128, "\u2581UP": 23128, "\u2581slice": 16163, "\u2581difference": 5133, "<0x0B>": 14, "\u2581job": 2389, "forced": 18783, "\u2581kilom": 22230, "\u2581another": 1698, "\u2581neighb": 13869, "\u2581Fran": 26578, "\u683c": 29293, "cope": 6865, "\u2581M": 351, "rible": 7030, "\u2581birthday": 12892, "sted": 17184, "joint": 16858, "\u2581essere": 15865, "\u7ebf": 29437, "\u2581stuff": 4705, "\u2581broad": 5841, "\u8fdc": 30758, "\u2581vid": 10954, "elve": 11047, "ityEngine": 11167, "SRC": 27145, "Dataset": 23941, "\u2581coding": 22363, "wq": 23519, "\u043d\u044f": 1971, "\u697c": 30309, "Dynamic": 18202, "\u2581Cel": 17233, "}\",": 13394, "Kernel": 24988, "orb": 19894, "\u2581surveillance": 26146, "\u2581Tex": 6886, "\u5c07": 30858, "\u2581ve": 1773, "ads": 6722, "\uc624": 29647, "\u2581Kar": 7775, "ists": 1583, "otted": 9752, "Skip": 24322, "entric": 27053, "\u2581knew": 2580, "eenth": 23124, "\u2581\u0441\u044a": 9448, "\u0442\u0432\u0435\u0440": 24153, "\u9650": 29436, "@": 28818, "\u043c\u0430\u043d": 5829, "Audio": 13361, "Intern": 18531, "\u2581volt": 9921, "\u2581sliding": 25152, "ult": 517, "imb": 18931, "olutely": 25244, "SC": 3315, "\u2581Profess": 8029, "Memory": 9820, "Finder": 25121, "\u8349": 30995, "\u2581lit": 8724, "\u2581appel": 25929, "opes": 14336, "\u093e": 29232, "\u2581copied": 23773, "\u2581ly": 18467, "\u2581notably": 27886, "\u2581clinic": 24629, "\u2581brill": 12000, "univers": 21426, "\u010den": 28616, "\u2581accessible": 14494, "\u2581Show": 8610, "\u2581developed": 6202, "\"></": 5828, "\u2581instr": 7465, "\u2581\u0414\u0436\u0435": 24690, "ieren": 11958, "\u2581(\u201c": 27156, "\u2581luminos": 27829, "\u2581chim": 21367, "\u2581engaged": 13173, "\u2581Friend": 13109, "ike": 2474, "\u2581blowing": 26168, "ria": 3931, "Web": 5392, "\u2581opinions": 15028, "iele": 16607, "jsp": 23559, "\u2581td": 28272, "class": 1889, "ropol": 13339, "<0x4B>": 78, "\u6751": 30071, "\u2581appoint": 6904, "\u2581deputy": 25176, "ya": 5157, "\u2581boss": 10949, "azar": 21364, "lm": 24174, "\u2581Tob": 20479, "\u2581painter": 24372, "\u2581seg": 3979, "ubern": 16940, "\u2581accept": 3458, "ulates": 26885, "\u2581Monitor": 27838, "\u2581arrival": 13758, "\u5b88": 30992, "rei": 10141, "xml": 6459, "\u2581\u0433": 1911, "\u0433\u0443": 5378, "\u2581toward": 4112, "\u2581anch": 24723, "aju": 24072, "{\\": 658, "\u2581seu": 7987, "\u0c02": 31548, "<0x6D>": 112, "\u0441\u0442\u0432\u0438": 12505, "[(": 15626, "BUTTON": 25852, "\u2581m\u00e5": 25113, "where": 2956, "\u2581Coal": 25243, "\u30a3": 29707, "(\"#": 11082, "...\"": 7508, "\u2581Francis": 6617, "\u0129": 30400, "\u01d2": 30896, "WE": 6631, "\u2581Clearly": 25421, "\uc0c1": 29578, "\u2581Leip": 26417, "\u2581Activity": 24066, "vm": 4332, "\u2581LICENSE": 16225, "\u2581translate": 17824, "\u2581respon": 2603, "\u2581taking": 3344, "atu": 22608, "\u2581lived": 6262, "\u65e0": 29375, "container": 6734, "\u0444\u0435": 8633, "comed": 25004, "\u53ca": 29965, "ograph": 2473, "\u0447\u0438\u0442\u0430": 27749, "hattan": 20425, "\u2581hig": 3259, "cur": 1352, "\u2581Lead": 10161, "\u2581Marc": 9142, "enabled": 9474, "\u2581Hugh": 22389, "NaN": 27759, "\u2581pocket": 10585, "\u2581mild": 16583, "uw": 12841, "\u2581arbitr": 12481, "\u2581rushed": 19408, "erek": 21499, "\u2581headers": 12489, "\u2581familia": 19266, "\u2581beef": 21189, "\u2581corrid": 17518, "\u7684": 28914, "&&": 6630, "\u2581Sciences": 19364, "iasm": 21883, "\u2581Cele": 24779, "\u2581onde": 25747, "\u2581\u0443\u0447\u0430": 10414, "authorized": 26646, "Byte": 8150, "IP": 2665, "Inv": 10188, "\u2581incorporated": 23799, "LAST": 27699, "\u521d": 29409, "\u2581Craig": 21260, "\u2581Harris": 16692, "scri": 2836, "Generic": 9115, "\u2581dom": 2853, "\u2581remem": 26450, "\u5b8c": 29474, "$,": 1777, "\u2581Rud": 15010, "\"": 28739, "\u2581Eva": 27258, "ips": 2430, "stell": 11647, "\u00e8te": 21056, "Equals": 5634, "\u2581experiencing": 20998, "Ratio": 24064, "\u2581lui": 6783, "\u2581Politics": 25894, "indices": 20390, "rq": 11916, "\u2581confess": 26920, "\u2581incons": 25331, "arius": 23989, "\u2581\u00fcber": 5431, "\u2581shirt": 11480, "\u2581sucks": 25033, "\u2581clients": 6819, ")}$": 16016, "\u2581surfaces": 19454, "\u2581varied": 20331, "\u2581stellar": 21523, "\u2581talent": 9234, "\u2581Network": 9488, "\u0003": 30662, "ahr": 8775, "\u2581thus": 5884, "\ub791": 31495, "\u2581highly": 6416, "\u2581Against": 27506, "\u2581racism": 22409, "Emitter": 26264, "uta": 11473, "alin": 18107, "\u2581Mam": 28388, "\u2581\u0444\u0443\u0442\u0431\u043e": 20513, "\u2581MP": 13259, "\u2581allowing": 9836, "\u2581kommun": 18815, "ob": 598, "\u2581lock": 4344, "\u2581fou": 19893, "\u2581\u041a\u0430\u0440": 16746, "\u00fbt": 15452, "ENTRY": 19839, "frames": 19304, "\u2581persistent": 24777, "net": 1687, "\u0432\u0430\u043b\u0430": 18846, "\u2581orb": 19935, "\u2581CE": 21666, "right": 1246, "club": 25169, "\u2581argued": 14939, "RES": 9204, "\u2581stret": 7747, "\u00ebl": 25879, "\u00e2tre": 25238, "\u2581Ont": 16443, "Statement": 9299, "media": 9660, "aug": 11614, "\u2581Published": 22837, "\u2581records": 7806, "K": 28796, "\u0434\u0440\u0438": 24638, "Cir": 19257, "\u2581elements": 5176, "\u2581Kirche": 19978, "\u001b": 30246, "\u0095": 29809, "\u2581Papa": 27091, "incing": 26455, "\u2581Colonel": 18464, "\u2581x": 1318, "\u2581bones": 15262, "\u2581Food": 11435, "\u2581...": 3850, "\u2581suffix": 26017, "\u2581vary": 11204, "usc": 15229, "\u2581step": 3707, "rf": 12624, "stru": 14664, "\u0441\u0441": 13847, "ardi": 22999, "\u2581Drupal": 22580, "\u2581assumed": 11012, "\u2581steps": 5944, "\u00e4hlt": 25409, "\u098f": 31723, "nam": 6701, "\u2211": 31384, "\u2581voters": 17947, "\u2581calci": 25329, "\u2581SORT": 14332, "\u2581marzo": 15230, "Pipeline": 20190, "\u2581pointing": 14858, "\u5668": 29180, "ani": 4499, "ografia": 13437, "\u2581incon": 17910, "\u0434\u0430\u0442": 22063, "BR": 11145, "\u00fcl": 8889, "\uc7ac": 30014, "tbody": 28383, "\u2581shoulders": 10693, "\u2581People": 5619, "\u2581constraints": 14841, "\u91cc": 29400, "_;": 11446, "i\u00e9n": 8603, "xt": 510, "\u2581dest": 2620, "PD": 8268, "istent": 8441, "atherine": 14468, "iels": 23029, "\ufffc": 31491, "\u2581comun": 18166, "mn": 15358, "'>": 13874, "Bas": 10836, "\u2581Poland": 17812, "\u2581coc": 14609, "\u6a19": 30530, "lie\u00df": 13920, "\u2581resign": 22883, "('.": 10182, "\u2581Since": 4577, "\u2581\u0431\u0456": 23112, "pgfscope": 28593, "\u2581couples": 18576, "\u2500\u2500": 16526, "\u0435\u0442\u0441\u044f": 7357, "\u2581category": 8011, "\u4e95": 30729, "stable": 17588, "\u2581haut": 24373, "sized": 20838, "ahn": 8745, "\u2581Internet": 8712, "\u2581cells": 8894, "\u2581Burn": 13708, "\u255d": 30494, "\u2581offic": 2771, "\u2581Angel": 15878, "\u2581decimal": 25888, "\u2581My": 1984, "%": 28823, "\u2581f\u00fcn": 24070, "\u2581Spirit": 13516, "Repo": 26280, "<0x1F>": 34, "\u2581place": 1633, "NA": 3384, "\u2581WHE": 27606, "\u02be": 30156, "\u2581Mik": 16340, "task": 5553, "\u2581XV": 9561, "\uce58": 30159, "\u2581Capt": 9218, "\u2581\u041b": 3218, "Func": 9715, "\u2581Normal": 23325, "\u2581fois": 15396, "\u2581Services": 8074, "\u2581wounded": 17084, "\u2581varieties": 27610, "oko": 18890, "\u0bb0": 30368, "\u2581asshole": 25676, "\u82e5": 30233, "\u2581pedest": 27475, "\u2581\u0421\u0442\u0430\u043d\u043e\u0432\u043d\u0438\u0448\u0442\u0432\u043e": 21160, "\u2581kr": 11175, "\u622a": 30572, "\u2581\u041f\u0440\u0435": 10164, "ibe": 17193, "\u2581\u0456": 3213, "lifer": 15366, "oplus": 17744, "berry": 14233, "Utilities": 28157, "\u2581missing": 6925, "\u2581actors": 16760, "\u2581Netherlands": 20526, "Something": 28493, "\u2581dot": 12253, "\u306f": 29277, "viv": 26430, "alu": 5107, "\u10eb": 31464, ">?": 23911, "\u2581Argent": 11368, "Wh": 1870, "\u2581preparing": 16486, "iliation": 22758, "MAT": 25412, "parse": 5071, "\ubb38": 29710, "\u2581upcoming": 17962, "\u2581knock": 13476, "\u25b8": 31939, "\u2581leader": 7059, "\u2581concept": 5935, "\u2581Gro\u00df": 20146, "getClass": 21661, "\u2581intimate": 22772, "ono": 5875, "UMN": 24495, "\u2581retire": 26033, "atter": 2466, "tid": 18294, "eing": 21458, "\u30cd": 30423, "\u2581\u0434\u043e\u043b\u0436": 27952, "uffix": 18020, "\u2581Primary": 25938, "^": 28815, "\u2581classroom": 19729, "C": 28743, "\u2581Juli": 17570, "\u2581neutr": 25296, "\ud83d\ude0a": 30464, "\u652f": 29428, "\u2581treatment": 5827, "\u2581compile": 25584, "Return": 6168, "\u2581grande": 11807, "\u8aaa": 31566, "\u2581triumph": 20306, "\u2581\u0433\u0430": 13206, "igma": 2898, "base": 2893, "\u2581suppliers": 24295, "ann": 830, "\u2581earning": 25290, "\u0434\u0435\u0440\u0430": 23316, "ULAR": 12103, "\u2581think": 1073, "\u00dfen": 9721, "\ub420": 31705, "\u043b\u0435\u043a": 22122, "Clause": 27330, "Sn": 10187, "\u0410": 28858, "ichten": 20850, "\u2581spel": 28501, "\u2581Pak": 12044, "\u2581DAMAGES": 26483, "\u2581Stream": 15915, "BG": 25015, "\u0644": 28933, "alen": 16777, "\u2581unhappy": 26658, "\u00e2": 28891, "\u3060": 29883, "\u2581neur": 24170, "\u2581debris": 27531, "\u2581Master": 9361, "\u0436\u0438\u0432\u0430": 24676, "arna": 10903, "Generator": 11453, "\u2581mit": 2367, "\u2581same": 1348, "\u2581phase": 6896, "AAAAAAAA": 21844, "atri": 28326, "\u2581bet": 924, "owym": 24547, "aken": 2589, "imary": 7754, "asp": 10124, "city": 18373, "claimer": 20032, "\u2581made": 1269, "ART": 4520, "\u2581timeout": 11965, "\u2581rear": 12110, "rowser": 5736, "ical": 745, "\u2581dels": 11570, "\u2581dok": 17941, "\u2581senior": 9362, "\u2581Match": 15127, "\u043c\u0435\u043d\u0442": 18664, "\u30f3": 29044, "\u2581Rang": 24237, "mys": 14576, "\u5c06": 29248, "\u2581Head": 9655, "ithub": 5811, "EB": 14608, "\u2581DIS": 15601, "\u2581Als": 13599, "\u8a71": 31145, "\u2581Through": 10091, "FS": 6934, "].": 1592, "Stop": 10543, "\u2581sib": 18866, "\u2581circles": 18100, "\u2581consecut": 19213, "\u6625": 30643, "\u2581Den": 4745, "aft": 3461, "\u2581Extension": 28664, "ensen": 19415, "posts": 19853, "\u2581pseudo": 26191, "\u2581),": 6223, "web": 4311, "\u0444\u0456": 11206, "\u2581intend": 22722, "\u0442\u0432\u0430": 22868, "Attrib": 28133, "'$": 15023, "rium": 16988, "\u30dd": 30269, "\u2581exceptional": 20202, "MG": 26860, "bin": 5721, "Well": 6824, "\u2581Press": 6127, "\u2581pers": 3708, "\u2581cloth": 17673, "\u2581afin": 28389, "\u2581tense": 28445, "gor": 4553, "\u2581affili": 11795, "\u2581pos": 977, "\u2581Wales": 14831, "\u2581Corn": 12506, "\u2581joining": 15508, "\u2581hed": 23737, "\u30a9": 30302, "\u2581Rab": 17467, "\u2581decided": 4496, "\u2581isolated": 18545, "\u2581stata": 20879, "\u2581\u0447\u0435": 4640, "\u2581Io": 25445, "cfg": 6245, "\u2581resort": 18969, "\u2581\u041c\u043e": 8968, "\u2581parks": 24682, "aires": 10024, "market": 15594, "mero": 18056, "Tor": 22059, "imos": 23695, "\u2581clone": 17993, "\u2581Iter": 20436, "^{\\": 3394, "<0xFE>": 257, "uela": 13482, "ches": 1927, "\u2581hypothes": 19108, "\u2581Handle": 16736, "\u043c\u043e\u0436": 27603, "\u2581confer": 26992, "cut": 7886, "pu": 2498, "Parent": 7401, "graduate": 24484, "\u0e09": 31338, "\u2581th\u00e9": 19353, "\u2581posterior": 20862, "\u00e9vrier": 20158, "}^{": 3041, "Comput": 21293, "uous": 10741, "\u985e": 30837, "\u2581South": 3658, "WO": 20463, "\u2581installed": 11540, "\u2581reinforce": 25234, "\u2581gau": 10844, "\u2581Ur": 11149, "Warning": 16185, "UG": 12894, "\u2581Cert": 12089, "Lib": 15640, "\ud604": 30205, "\u2581unple": 28331, "\u2581lad": 9776, "\u2581substance": 18677, "\u2581Oct": 3879, "\u2581\u0444": 2638, "\u8a72": 31688, "itt": 785, "\ufeff": 31759, "\u2581advice": 7478, "seek": 18694, "\u00e1ll": 25163, "\u2581sites": 7363, "\u2581tras": 11431, "\u00fas": 11704, "pipe": 12911, "\u043f\u043b\u043e": 23563, "\u6444": 31128, "\u2581design": 2621, "ych": 7702, "\u2581clean": 3587, "Manifest": 27980, "Must": 15033, "\u2581sk": 1321, "\u2581OK": 12206, "\u043d\u0430\u0447\u0430": 27690, "\u2581technology": 5514, "CONT": 12162, "\u2581\u0432\u0456": 7716, "\u2581diff\u00e9": 18406, "\u2581Ira": 11721, "Location": 6319, "\u2581cave": 17630, "oul": 3619, "\u2581classification": 16776, "\u2581CON": 4192, "oric": 16891, "\u2581rug": 13644, "\u2581Ver": 2927, "\u2581below": 3624, "\u2581Clinton": 15656, "kar": 13600, "mand": 20478, "\u0458\u0430": 5931, "ali": 4827, "\u2581swap": 20166, "\u2581\u0442\u043e\u043b\u044c\u043a\u043e": 24125, "\u2581disclaimer": 25499, "press": 1402, "\u2581habitants": 19414, "Segment": 17437, "\u2581vision": 8021, "\u2581abs": 2873, "\u2581outside": 3536, "larg": 20832, "\u4e71": 31380, "\u2581f\u0151": 25486, "\u2581democracy": 17548, "\u05b5": 30794, "\u2581href": 5501, "\u2581terms": 3471, "}_{": 3145, "\u2581Arab": 9111, "\u2581cand": 13931, "\u021bi": 14846, "\u2581hear": 3934, "\u5360": 30825, "<": 28789, "\u0127": 30830, "\u2581Fed": 22377, "\u2581enjoyable": 26104, "\u2581\u0447\u0442\u043e\u0431\u044b": 27717, "\u2581scores": 14428, "\u2581gown": 26736, "cro": 22171, "font": 6102, "\u2581ses": 6737, "\u2581requirements": 8296, "\u2581despu\u00e9s": 15757, "erry": 13327, "achers": 26120, "\u2581involved": 5290, "\u2581vous": 16906, "\u2581Els": 20619, "nent": 21846, "\u2581pol\u00edt": 14429, "\u2581caus": 3599, "itting": 3257, "\u2581\u0442\u0435": 3882, "<0xAB>": 174, "\u2581destination": 10316, "\u2581aspects": 10936, "\u2581\u0440\u0435": 3172, "\u2581handles": 19754, "\u2581YOU": 15479, "\u2581recent": 5391, "Error": 1708, "\u2581None": 3635, "====": 965, "icator": 17573, "OPER": 24500, "\u10d5": 29830, "aturday": 8026, "\u2581sob": 21669, "Subject": 22210, "\u2581vs": 7709, "\u2581educated": 20579, "\u2581Kle": 14306, "ret": 1441, "\u2581Herm": 14741, "\u2581behalf": 15665, "\u043a\u0442\u0430": 16702, "\u2581\u2581\u2581\u2581\u2581": 355, "\u2265": 29902, "\u2581universe": 11717, "\u2581besch": 15049, "\u2581ath": 20238, "Game": 8965, "),\r": 23486, "\u2581updates": 11756, "kamp": 26747, "osed": 2352, "icit": 18374, "records": 28257, "\u2581tables": 9882, "\u2581sand": 6830, "\u2581asleep": 15231, "itime": 26843, "\u2581lust": 28249, "\u2581cops": 19407, "\u00ee": 28895, "\u2581nous": 13662, "\u2581Anc": 23952, "\u2581pear": 26847, "NF": 23000, "\u2581pm": 10632, "\u4e16": 30050, "\u2581adequate": 23193, "\u4e0b": 29061, "heimer": 24556, "\u2581rais": 4471, "ko": 4798, "\u2581connected": 7391, "Small": 22349, "\u2581walked": 5610, "\u2581Mey": 22586, "\u2581teachers": 10880, "\u2581skulle": 23093, "\u2581Muslims": 21731, "\u2581sensation": 23413, "\u2581categ": 8510, "\u0179": 30109, "\u2581pon": 17984, "SET": 4270, "Tell": 22467, "ids": 2298, "\u6d4b": 29584, "\u2581Expect": 28468, "\u0441\u0442\u0443\u043f": 15796, "\u2581win": 3108, "avis": 19677, "sv": 6437, "\u2581contributor": 23040, "\u043b\u043a\u043e": 23054, "\u2581lan": 26573, "\u043a\u0438\u043c": 15616, "\u2581summary": 14060, "\u2581\u0445\u0443\u0434\u043e\u0436": 27095, "ensors": 28598, "\u2581\u0447": 4090, "\u2581\u0410\u043b\u044c": 27436, "\uac15": 30967, "red": 893, "\u2581anim": 4691, "\u2581\u043b\u044e": 12566, "\u2581fol": 5074, "\u02b9": 31788, "Pay": 9602, "\u2581Blo": 9797, "Q": 28824, "\u2581frank": 23580, "\u2581Zach": 26926, "thal": 21361, "\u03b8": 29255, "King": 28262, "\u2581notion": 14086, "\"),": 3548, "\u2581buyer": 24861, "Extract": 24958, "ub": 437, "getText": 20821, "\u2665": 29664, "lay": 7459, "\u2581depuis": 14661, "\u2581improvement": 14204, "\u2581camps": 18497, "flat": 21139, "\u2581dramatic": 17296, "memset": 21253, "\u2581det": 1276, "pus": 20272, "\u2581coin": 16544, "referto": 28557, "anza": 14083, "beck": 23698, "Share": 24520, "\u2581revision": 24935, "\u2581\u0415\u0432\u0440\u043e": 23300, "oa": 17542, "\u0161": 28873, "\u2581pr\u00e9sident": 25446, "\u2581duplicate": 27071, "arrow": 3362, "\u2581blond": 28506, "\u2581sear": 15321, "\u7d20": 29555, "\u17b7": 30845, "\u2581mat": 1610, "Mem": 5768, "athan": 9871, "\u2581interaction": 11186, "\u2581Didn": 27326, "rey": 6439, "segment": 19447, "\u2581[\u2026]": 22819, "\u2581myster": 16092, "\u2581mg": 18144, "ibr": 2792, "\u2581tie": 14628, "ABILITY": 9287, "Clean": 22139, "\u2581Williams": 10606, "ook": 600, "atomic": 14435, "\u2581Mask": 23919, "Codec": 23186, "\u2581imped": 27988, "niej": 20386, "\u2264": 30035, "\u2581plastic": 10409, "\u8089": 31736, "\u2581Girl": 10850, "\u10dc": 29701, "\u2581defeat": 15286, "das": 26110, "quir": 10851, "export": 12707, "\u2581keen": 20005, "\u2581Login": 25722, "exp": 5128, "\u2581variant": 15944, "enci": 24086, "\u2581canon": 28585, "ashboard": 13569, "inda": 16224, "\u2581males": 21071, "\u2581normal": 4123, "ierno": 20122, "\u2581stabil": 16888, "\u2581Mod": 3813, "ius": 3170, "\u2581television": 8575, "\u2581crushed": 25358, "\u2581scared": 14541, "\u2581reached": 5048, "BITS": 27001, "Page": 4068, "\u2581convers": 5315, "adi": 12035, "Material": 12976, "\"];": 20652, "\u00fcll": 19165, "iem": 4006, "\u2581secrets": 19376, "\u2581magnificent": 27574, "\u2581vagy": 28666, "\ub429": 31367, "\u6bcf": 29513, "\u3075": 31896, "\u2581Tambi\u00e9n": 26363, "\u2581Ult": 19576, "\u8a08": 30629, "\u2581MY": 18757, "UTE": 13401, "ister": 1330, "\u0442\u0435\u043b\u044f": 17371, "IBUT": 23148, "nod": 26177, "\u2581Suppose": 21212, "frastructure": 11932, "\u2581Rober": 4542, "nes": 4511, "\u2581ga": 17041, "yout": 16478, "\u2581finished": 5967, "\u2581\u0445\u0430": 19539, "ino": 2164, "\u2581Nothing": 11081, "\u2581review": 4058, "\u2581secre": 15038, "\u2581occurs": 12022, "Bundle": 12409, "tesy": 18414, "\u2581cooking": 13198, "\u2581ox": 18229, "\u2581memo": 27667, "\u2581<!--": 12828, "itable": 5379, "\u2581Labour": 16873, "\u2581lo": 1448, "Compat": 7789, "tal": 16000, "intr": 20608, "\u2581Selection": 26909, "tegr": 8489, "\u2581precise": 17008, "\u2581referred": 11449, "\u2581complaint": 22105, "\u2581Sof": 21918, "\u2581iPad": 28696, "\u2581despair": 25477, "\u2581EC": 21405, "ression": 9202, "\u2581Between": 18046, "\u2581Writ": 13670, "\u2581Gulf": 22622, "rena": 14248, "\u2581Ci": 16896, "endo": 4722, "a": 28708, "jes": 16967, "\u2581Miguel": 20963, "\u2581susp": 18734, "\u2581\u043f\u043e\u043c\u043e": 21589, "\u2581shook": 7989, "\u2581aux": 5672, "away": 12154, "dashboard": 28261, "\u2581preparation": 16744, "\u00e8re": 3228, "\u2581locally": 17600, "\u2581tackle": 23907, "\u2581Pero": 26056, "\u2581vintage": 28465, "\u2581sound": 2622, "\u2581Lew": 10860, "semble": 11820, "cart": 14040, "ccess": 1518, "\u2581>>>": 18343, "Union": 20981, "\u2581beneficial": 21158, "cam": 9125, "\u30ed": 29501, "ento": 12673, "\u2581manufactured": 27516, "\u2581angular": 19382, "\u03a7": 30438, "\u2581audience": 7938, "\u2581discovered": 8324, "iche": 5680, "asz": 17747, "Mount": 20969, "ieur": 22534, "\u00e1": 28820, "\u2581};": 2337, "]])": 28424, "\u2581Hof": 24557, "Ste": 6732, "\u2581charm": 22533, "\u5fa9": 31711, "angle": 2988, "point": 2275, "\u2581###": 774, "\u2581sessions": 13912, "deep": 17398, "\u2581magazines": 22916, "\u0441\u0441\u0435": 21986, "\u2581formally": 25491, "\u2581stain": 21023, "rho": 4132, "\u2581hex": 19703, "vb": 26875, "\u2581\u0416": 11000, "\u2581Indiana": 19665, "\u2581foss": 21036, "\u2581invoke": 23071, "\u2581reserve": 17575, "learn": 27082, "ded": 3802, "<0xCB>": 206, "\u0178": 30322, "zero": 8981, "\u2581perhaps": 5230, "\u2581comic": 19607, "yal": 11500, "ijk": 17722, "\ubcc0": 29901, "Enable": 13202, "oso": 13880, "\u2581subtle": 18842, "\u2581included": 4658, "\u2581Valley": 10509, "xtures": 23049, "\u2581surprise": 8982, "\u2581crystal": 20710, "klahoma": 22097, "\u5e93": 29581, "\u2581united": 27434, "\u2581heeft": 21006, "amas": 22425, "\u2581candid": 5767, "event": 2883, "\u2581\u0440\u0456": 15629, "\u2581Tu": 16063, "uego": 14734, "indo": 22641, "\u2581wis": 14729, "<0x26>": 41, "plet": 7081, "\u2581Springs": 24846, "\u2581Mission": 18573, "owi": 24810, "\u2581concerning": 15942, "\u2581champions": 27345, "\u5f8b": 31424, "\u2581slots": 19708, "\u2581Perhaps": 9447, "\uc720": 30127, "\u2581address": 2962, "\u987b": 30037, "\u091a": 30671, "\u2581c": 277, "\u2581Bed": 12266, "PRE": 6314, "rieve": 12891, "\u2581jeho": 25769, "\u2581\u043e\u0440\u0433\u0430\u043d\u0438": 18876, "\u2581Sie": 7075, "\u2581reading": 4865, ")(": 3847, "Stub": 19823, "\u2581inserted": 23511, "olean": 2481, "\u8bf8": 31205, "ental": 7540, "except": 19603, "\u2581BB": 19942, "\u2581brows": 19252, "\u2581ausge": 26227, "\u2581deliberately": 24177, "inner": 3739, "\u00e8ge": 24399, "\u2581secolo": 24748, "olt": 8947, "\u2581benefit": 7949, "\u17b6": 29847, "\u2581trat": 17726, "Dictionary": 17798, "\u2581deutscher": 16765, "\u2581Seven": 21283, "\uacc4": 30106, "\u2581barrel": 18566, "note": 8838, "\u2581savings": 17665, "\u2581tut": 8311, "\u2581Susan": 17569, "\u2581Ly": 10319, "actory": 3765, "\u011b": 28871, "\u2581capac": 17025, "\u2581dent": 12156, "\u2581+=": 2679, "\u2581mag": 2361, "\u2581labor": 7579, "aging": 4054, "\u2581editor": 7546, "\u2581zm": 19523, "gorith": 5360, "\u2581Mitchell": 21072, "\u7ef4": 30185, "\u2581conducted": 12816, "\u2581shower": 13164, "\u7d0d": 31824, "\u2581indicated": 14075, "\u017b": 29060, "attribute": 9122, "PHY": 21852, "Country": 28073, "\u2581Harrison": 23323, "\u2581peu": 12631, "\u2581\u0437\u0456": 26883, "Axis": 16272, "\u2581climbing": 20873, "\u2581Republic": 6090, ">\"": 11333, "\u8a66": 31744, "\u2581\u0442\u043e\u0432\u0430": 22550, "\u2581Faith": 25098, "aa": 4474, "\u2581Scal": 21292, "ormal": 2616, "Will": 12695, "\u2581Block": 9063, "userId": 23490, "Sets": 25144, "sn": 6713, "Nodes": 12674, "focus": 12208, "\u2581hang": 9644, "fang": 17907, "\uc778": 29324, "<0xF1>": 244, "\u2581Carter": 17326, "\u2581absorb": 28311, "\u2581vert": 7175, "bian": 18632, "Effect": 8460, "\u2581Golden": 14739, "\ud6c4": 30570, "mux": 27884, "\u2581World": 3304, "\u02d0": 29240, "ural": 1890, "\u1790": 31933, "\u2581Blue": 8836, "alone": 25179, "\u2581answers": 11194, "\u2581cuando": 13447, "\u067e": 29483, "\u2581hecho": 27722, "typen": 25835, "irmed": 8945, "\u2581Barn": 15002, "\u2581picks": 23380, "\u2581SO": 6646, "\u2581lig": 18985, "ANK": 26393, "pgfqpoint": 10765, "\u2581must": 1580, "\u2581search": 3472, "LENGTH": 17307, "\u2581embar": 12261, "\u2581invite": 19411, "iterr": 19647, "\u2581profit": 11876, "................": 22207, "\u3078": 30667, "\u2581categories": 13187, "\u2581Vo": 15800, "\u2581etern": 16701, "<0x51>": 84, "\u2581eine": 3834, "\u2581serves": 14449, "\u2581investigated": 25481, "\u2581implementing": 27068, "\u6838": 30080, "ological": 4423, "\u2581Map": 7662, "\u2581};\r": 23139, "irst": 777, "\u2581juris": 21716, "orem": 5382, "iforn": 5507, "\u2581visiting": 13726, "PAGE": 17711, "sections": 24415, "varphi": 7389, "\u2581carved": 26464, "\u2581UI": 16324, "\u94b1": 30582, "hang": 15140, "\u2581toutes": 25386, "II": 2559, "\u2581mechanical": 18832, "++++": 17501, "\u2581subsequ": 9499, "\u2581crew": 9505, "kon": 14483, "\u0432\u0435\u0440\u0441\u0438\u0442\u0435": 17375, "\u2581pretend": 19192, "uzione": 20219, "uk": 2950, "\u2581setup": 9520, "FN": 17047, "\u2581strongly": 12287, "swer": 16981, "\u5cf6": 30418, "\u2581crack": 9551, "\u2581Radio": 12038, "nica": 14882, "\u2581Sean": 20468, "\u00cd": 29107, "\u2581FBI": 18622, "\u2581sequ": 5331, "lint": 18916, "Collect": 27991, "\u2581Fame": 26675, "ses": 6065, "\u2581marvel": 27778, "\u0e33": 30032, "handler": 8762, "\u2581pu": 5153, "\u2581%.": 23301, "\ud2b9": 31684, "Idx": 12157, "usammen": 14533, "ira": 4807, "sw": 1616, "\u2581Sver": 28238, "\u2581dare": 19402, "ailability": 13011, "\u2581Not": 2280, "\u2581growth": 6057, "\u2581beg": 2049, "\u5230": 29036, "\u2581key": 1945, "\u2581domain": 7966, "\u2581Gall": 14225, "uced": 22333, "\u2581ourselves": 8915, "\u2581lying": 10580, "descriptor": 17325, "\u2581War": 3273, "reek": 6857, "\u63d0": 29279, "\u2581Review": 8349, "\u2581declared": 11804, "\u2581leak": 24798, "\u2581Cette": 17365, "\u2581siglo": 22017, "\u2581travels": 27651, "Delay": 17280, "\ud83d\udfe1": 30770, "monitor": 22330, "\u2581Points": 24304, "\u2581Dru": 17799, "\u2581attempted": 15335, "\u2581forget": 7120, "\u2581breathe": 20445, "\u2581delete": 6500, "Mus": 16159, "\u2581Jama": 26152, "From": 3400, "named": 18561, "%%%%": 11032, "\u2581trends": 17869, "\u2581Monte": 14706, "\u2581army": 7837, "\u2581Mine": 21134, "\u2581jak": 19755, "\u2581Only": 6352, "{}": 6397, "\u76ae": 31279, "\u2581doctors": 13500, "\u2581\u00e2": 22506, "\u2581exped": 15575, "\ub808": 30514, "\u2581spl": 8154, "\u2581renown": 27556, "\u2581belie": 1989, "\u2581tit": 5114, "\u2581networks": 12167, "\u2581Inn": 12810, "apos": 17936, "othy": 18478, "\u0447\u0435\u043d\u0438\u044f": 19476, "Spell": 20130, "\u043a\u0430\u0434\u0435": 21159, "\u2581outline": 22327, "(?:": 26733, "aman": 14886, "ierra": 14645, "nio": 22943, "\u9519": 29403, "\u4e4e": 31981, "hythm": 16321, "\u2581fin": 854, "\u2581grass": 10109, "\u2581Nacional": 14659, "\u2581independence": 17253, "tras": 12423, "un\u00e4chst": 24490, "stand": 1793, "usb": 13990, "\u2581clan": 25750, "=\"${": 28144, "anna": 8091, "\u2581Club": 5933, "\u2581parallel": 12635, "\u0433\u0440\u0430\u0434": 21947, "\u2581Trust": 13149, "\u672c": 29119, "\u2581\u0434\u0435\u043a\u0430\u0431\u0440\u044f": 26317, "DD": 7600, "\u2581occas": 11383, "\u2581Lie": 9020, "\u2581sor": 5279, "import": 7841, "\u2581inspire": 26649, "\u2581cert": 5813, "\u015bci": 7216, "\u2581solely": 19550, ".',": 13007, "ots": 1649, "encias": 19043, "\u2581\u0441\u0456": 23964, ",*": 17205, "\u2581now": 1055, "\u2581retired": 15451, "olut": 1420, "Bad": 14580, "\u2581dai": 22073, "\u57df": 29829, "Dom": 7781, "\u2581{}": 4729, "zd": 13335, "\u200b": 28935, "\u2581interpreted": 24108, "UNKNOWN": 24652, "\u2581Roth": 23134, "getContext": 26947, "\u2581\u0417\u0430": 6369, "\u2581SPD": 24151, "\u2581Cho": 25405, "\u2581pity": 27381, "\u2581Science": 9323, "\u53c9": 31304, "\u821e": 31622, "\u2581Vir": 6595, "\u2581Roma": 17246, "\u2581shallow": 21660, "\u2581Ghost": 25821, "\u2581licensed": 17045, "\u2581nuts": 21204, "\u2581endl": 20604, "\u2581one": 624, "Runtime": 8408, "\u1f00": 30529, "\u00fchr": 7736, "\ud65c": 31273, "apan": 4209, "<0x9E>": 161, "\u2581fel": 11316, "\u2581River": 6396, "\u2581Wilhelm": 19328, "jekt": 18282, "istributions": 25043, "\u2581dram": 9473, "\u00d0": 30305, "\ub2f9": 30287, "eree": 14447, "\u2581Top": 6611, "\u2581Rose": 10655, "ntax": 9656, "\u2581Body": 16250, "application": 9113, "\u2581attending": 19735, "\u2581catal": 21348, "\u2581Scar": 23147, "\ub4e4": 29939, "Mr": 18590, "\u2581abc": 18641, "\u2581Fish": 22784, "adas": 5959, "\u2581stars": 7448, "RUN": 21845, "\u2581Train": 27035, "\u2581auss": 10471, "\u2581Argentina": 16540, "/.": 15704, "\u2581emerging": 20053, "\u2581singer": 15307, "\u0e16": 30491, "eler": 7708, "HW": 16352, "astr": 7225, "\u2581waist": 17532, "\u2581butter": 11488, "layers": 22944, "\u2581accurately": 24329, "Ga": 25872, "\u2581RAM": 27850, "ext": 1205, "Photo": 25379, "\u2581Marcel": 23262, "\u2581p\u00e5": 5159, "\u2581session": 5313, "zing": 14508, "\u2581eines": 12531, "istry": 4535, "\u793c": 31195, "adu": 28082, "\u2581Cook": 13092, "\u2581Elect": 10394, "kn": 13223, "com": 675, "\u00f1a": 8842, "\u2581Bei": 17457, "\u2581Syd": 13239, "\u043a\u043b\u0430\u0434": 27680, "\u2581Lit": 25003, "`": 28832, "\u2581Houston": 16904, "\u2581Aaron": 20486, "\u2581na": 1879, "\u2581\u043a\u043e\u043c\u0438": 28317, "\u2581forehead": 18522, "\u2581Thank": 7812, "::<": 23015, "\u2581likes": 12672, "\u2581ought": 13683, "\u2581devices": 8309, "pred": 10477, "addEventListener": 20907, "\u2581\u0412\u0435\u0440": 20908, "\u2581survive": 13145, "\u00f6\u00df": 19037, "\u2581sector": 9642, "rome": 7421, "\u2581allow": 1914, "\u2581Creat": 9160, ">>": 4060, "\u2581heroes": 23959, "\u2581diplom": 13527, "\u2581Ital": 4503, "\u2581group": 2071, "\u2581\u0421": 1406, "\u2581ticket": 13490, "double": 6324, "\u2581Matrix": 22711, "\u2581assignments": 28025, "inas": 14321, "east": 24294, "bitro": 18829, "\u2581incluy": 28527, "ened": 2106, "hd": 8385, "yd": 3389, "\u00e9re": 24454, "\u2581${": 6051, "\u2581Germans": 18121, "den": 1620, "\u2581|": 342, "Users": 14308, "\u2581characteristics": 15559, "tenant": 27423, "versions": 26149, "\ubbc0": 31831, "hab": 8237, "getType": 16053, "\u2581harsh": 18138, "\u2581harass": 22280, "\u011bt": 16610, "\u2581*=": 22040, "\u03ad": 29271, "\u2581enforce": 13707, "\u0cb2": 31648, "amar": 11369, "\u2581Jam": 11776, "\u2581champion": 12264, "\u2581ED": 15687, "\u2581disk": 11295, "\u2581Premier": 16103, "edit": 7128, "elines": 25465, "ster": 2406, "\u2581protection": 8147, "\u2581ignorant": 27972, "ById": 7760, "\ud0a4": 30649, "\u0327": 31968, "\u043a\u0432\u0430": 23476, ")+\\": 25886, "\u2581Mit": 6684, "\u2581Ko": 14020, "\u0dc3": 31963, "\u0432\u044b\u0445": 17033, "\u2581Fra": 12699, "Only": 8390, "\u2581carrier": 20320, "Fast": 23252, "removed": 28292, "}^": 2381, "ble": 982, "\u0218": 29344, "\u10e7": 31287, "\u2581decom": 18626, "\u2581Mens": 20562, "\u2581nacional": 19136, "\u2581neigh": 5043, "\u043b\u0430": 1000, "ixer": 11737, "v\u00ed": 16590, "Config": 2227, "\u7b2c": 29353, "\u2581Thom": 4954, "elen": 10687, "we": 769, "\u2581different": 1581, "\u2581comedy": 18987, "\u0417\u0430": 20530, "ographical": 21623, "\u2581Welt": 13543, "\u2581\u0442\u0435\u0440\u0440\u0438\u0442\u043e": 24891, "Bank": 25022, "\u0942": 30957, "\u540d": 29046, "Inline": 19034, "\\!": 24835, "BASE": 11886, "\uc838": 30942, "////////////////": 5172, "\u2581cont": 679, "\u2581sketch": 21789, "\u2581equity": 22851, "\u2581\u0411\u0440\u0430": 25701, "level": 4404, "IM": 4019, "rass": 12316, "dt": 7051, "\u5386": 29868, "\u2581setting": 5587, "idx": 5251, "\u2581Zwe": 16667, "\u2581Position": 17361, "UN": 2168, "ape": 1748, "\u2581Mult": 9713, "history": 15205, "\u2581Cloud": 13832, "\u2581lamp": 21157, "Codes": 25550, "\u901f": 30029, "det": 4701, "');\r": 16943, "\u2581provincia": 24180, "\u2581foods": 14082, "\u2581logged": 27036, "\u00a9": 29002, "horizontal": 27638, "\u2581beds": 21137, "ze\u015b": 21902, "\u21b5": 31215, "\u8ffd": 30346, "\u2581nell": 16484, "\u2581attraction": 24074, "\u2581ist": 3103, "\u2581Available": 18260, "\u2581sky": 7212, "Failure": 16274, "th": 362, "\u2581nej": 25699, "\u0441\u0443": 4878, "ibt": 15046, "aring": 2302, "\u2581<?": 7299, ".;": 19362, "tasks": 21128, "\u4e9b": 29904, "\u00e4lt": 17966, "\u2581if": 513, "\u2581filename": 4326, "\u94c1": 31445, "\u745e": 31893, "\u2581Gordon": 15937, "To": 1551, "\u2581\u0441\u0442\u0430": 3553, "}}": 975, "\u2581\u0432\u0438": 3542, "\u2581gave": 3395, "bia": 20565, "\u5883": 30396, "\u2581\u043f\u0440\u0435": 3184, "peror": 13910, "\u2581visit": 3251, "\u2581fifth": 14969, "ursday": 10465, "gang": 19397, "\u6c47": 31768, "\u968a": 31534, "\u2581evening": 6856, "\u706b": 30479, "\u00f3n": 3203, "\ub41c": 29897, "lte": 27939, "\u043f\u0430": 2789, "\u014c": 29417, "\u2581warm": 6100, "<0x74>": 119, "election": 9082, "\u2581detailed": 10537, "igte": 23355, "ifa": 25622, "\u2581Company": 6452, "ect": 530, "\u2581campaign": 5774, "\u2581\u0427\u0435": 23543, "uba": 19555, "EMPTY": 28138, "\u2581\u043f\u0440\u0438\u0437\u043d\u0430": 26287, "icro": 3130, "werken": 14639, "\u2581jedoch": 16154, "Come": 14724, "\u2581Protection": 21154, "\u2581Mar\u00eda": 20511, "\u2581Appendix": 26589, "\u0441\u044c\u043a\u043e\u043c\u0443": 26360, "\u5f97": 29291, "\u2581resp": 10840, "REAM": 18607, "running": 17316, "equiv": 13220, "\u2581bub": 22723, "We": 2324, "\u2581Claude": 26836, "\u2581\u00e1rea": 26707, "Upload": 15888, "\u2581Working": 18847, "ahoo": 27568, "inputs": 17502, "\u2581sort": 3127, "\u98df": 30716, "\u2581WE": 21026, "ptr": 2619, "\u2581connections": 12284, "\u2581gambling": 20696, "\u00f2": 28898, "ues": 1139, "\u0432\u0456": 4093, "\u2581dual": 13350, "\u4f4d": 29147, "\u2581thousands": 8577, "\u5bfc": 29773, "\u2581testimony": 23648, "\u00fan": 10167, "\u2581proves": 25832, "\u904e": 30699, "\u30a1": 30000, "\u2581necess": 3527, "ieck": 27578, "\u2581Pick": 17662, "\u2581ui": 12842, "chrome": 21001, "\u99c5": 31018, "\u038c": 31746, "peg": 16600, "\u2581prosecut": 16813, "ventions": 27319, "zone": 7795, "\u2581comerc": 27744, "\u2581check": 1877, "\u2581thank": 6979, "slice": 11485, "\u2581Fun": 6785, "\u2581Isn": 28026, "\u2581wing": 13788, "windows": 12113, "\u2581barely": 10175, "\u2581poverty": 16733, "uj\u0105": 20606, "\u2581Fuck": 19449, "\u50cf": 29663, "itative": 16462, "\u2581archae": 28426, "\u2581widely": 12575, "\u2581stan": 17920, "gather": 24136, "faces": 9288, "\u0438\u043d": 10400, "\u2581peers": 21907, "\u2581Inc": 5671, "\u2581analytics": 28669, "\u2581kills": 25211, "\u2581assertEquals": 10462, "\u2581Polish": 20329, "\u2581grade": 12146, "\u2581Walter": 13517, "noindent": 14458, "ATURE": 16051, "\u2581fest": 12649, "\u2581outfit": 24842, "iene": 6863, "\u2581Rico": 26791, "\u2581handle": 4269, "\u5047": 30826, "\u2581Gene": 25321, "AGE": 6130, "idad": 4526, "\u2581shru": 13922, "\u09cb": 30818, "\u2581elbow": 26433, "click": 6650, "\u2581pied": 24349, "\u2581shows": 4370, "\u6865": 31539, "\u2581\"%": 7919, "\u62f3": 31588, "LAB": 19331, "\u2581protect": 5321, "\u2581Central": 7993, "\u2581guaranteed": 17813, "hline": 9208, "\u2581defending": 23638, "\u4eab": 30461, "\u2581\u043f\u043e\u0432": 19097, "\ud83d\udd25": 30590, "\u2581conve": 18301, "\u2581literally": 8350, "\u2581cosm": 22482, "\u0491": 29211, "\u2581\u043f\u0440\u0435\u0437": 15855, "\u2581Roy": 12809, "@{": 24140, "\u2581_,": 11006, "\u2581s\u00ed": 18002, "\u2581\u00e9c": 24688, "\u2581L": 393, "gui": 14316, "\u2581pr\u00e9sent": 23428, "\u2581temporal": 26569, "\u2581accidents": 26892, "\u2581Un": 935, "enas": 19392, "selves": 3083, "\u2581Dear": 22143, "\u2581limited": 6516, "\u2581Gott": 24543, "cola": 26871, "\u2581described": 5397, "\u2581tanks": 20274, "\u2581queue": 10159, "\u2581Res": 1992, "ailed": 2384, "linux": 8502, "\u2581f\u00e5": 28680, "\u0ccd": 30406, "dom": 2920, "Pref": 18108, "uuid": 16474, "\u0097": 29439, "covered": 18873, "\u2581communes": 24657, "\u2581oct": 9541, "\u2581batch": 11386, "\u2581disease": 8030, "\u2581empty": 4606, "Ms": 16023, "\u2581excited": 9534, "\u2581Java": 11639, "yster": 26879, "Car": 11799, "\u2581\u0410\u0432": 18031, "\u2581ready": 4313, "primary": 12525, "\u040f": 29473, "\u2581ment": 4498, "\u2581Wol": 12840, "Diff": 18331, "\u8be2": 29348, "ierre": 22874, "iting": 4328, "CEPT": 19951, "\u2581worn": 15903, "\u2581Progress": 19310, "\u2581expenses": 16972, "Rom": 28018, "idelines": 15019, "\u2581waved": 20617, "\u2581impress": 7895, "unter": 16442, "\u2581Carl": 6675, "\u8bc4": 30252, "\u2581Major": 10664, "ceive": 11642, "\u2581tool": 3921, "ioc": 22038, "\u2581Opp": 22396, "\u4e30": 31804, "uario": 25335, "ificates": 23575, "^-": 18092, "\u2581comes": 3435, "\u2581unf": 10077, "COLOR": 20266, "\u2581form": 1221, "iejsc": 18840, "\u1f21": 31990, "posal": 27244, "\u2581youth": 9539, "\u2581Hern": 28521, "Permissions": 24338, "processing": 26188, "\u2581Queensland": 28536, "\u2581override": 8013, "fare": 18368, "\u5c31": 29379, "\u2581Linux": 19486, "\u2581withdrawal": 27289, "\u2581players": 5117, "\u0e49": 29318, "uto": 8487, "\u2581Urban": 22007, "ey": 1437, "\u2581\u0421\u0442\u0430": 9739, "<0xD4>": 215, "ETH": 21138, "imer": 4156, "\u0442\u0456": 8240, "iza": 13360, "\u2581cfg": 16135, "<0xE4>": 231, "\u2581favor": 4268, "\u2581Gra": 19095, "\u2581Built": 25631, "\u2581stored": 11141, "\u2581Canada": 6082, "\u2581folg": 15280, "\u2581Rain": 17774, "AF": 8116, "\u2581drug": 7876, "ansk": 18269, "\u8bf7": 29067, "iny": 4279, "Bean": 12366, "\u2581insurance": 6919, "\u2581gleich": 27362, "\u2581frequencies": 27905, "ights": 3152, "\u2581Initial": 20015, "\u2581sleeping": 12863, "upt": 20413, "\u2581walking": 7312, "\u2581Tol": 15893, "\u2581Carib": 25212, "\u2581instinct": 16823, "\u2581Pass": 8201, "\u2581Academ": 8519, "ecut": 2717, "\u2581Ser": 3066, "\u2581combined": 9837, "ulse": 17494, "\u2581probable": 22124, "David": 28396, "\u2581gen": 2652, "kw": 8486, "\u043a\u0442\u043e": 13483, "\u2581android": 5791, "\u2581Parker": 19673, "Preview": 22398, "\u0e18": 30057, "\u2581International": 5440, "\u2581meeting": 5283, "\u2581critical": 7276, "\u1235": 31726, "\u2581Perm": 17627, "irlines": 22201, "\u2581American": 2556, "Eq": 14564, "\u2581Rein": 24541, "================": 3047, "Hol": 28584, "\u226e": 31656, "\u21a9": 30954, "\u0441\u043a\u0438": 2073, "\u2581thick": 6931, "xF": 7355, "\u2581properly": 9222, "\u8bdd": 29456, "\u78bc": 30946, "\u2581fallen": 12962, "\u2581Abb": 15859, "\u2581Mc": 3283, "ched": 1572, "\u2581vers": 3502, "\u2581*)&": 27349, "\u0cb5": 31802, "\u2581Simple": 13888, "erna": 17995, "(*": 4756, "\u2581moving": 5272, "\u2581many": 1287, "\u2581mort": 5461, "\u2581replacement": 13905, "\u2581skill": 10346, "\u2581region": 4424, "\u2581\"\\": 5448, "\u043d\u0438\u043a": 5647, "Db": 13171, "\u2581wisdom": 16679, "paces": 26298, "\u2581behavior": 6174, "\u2581Enc": 17611, "lli": 25137, "igenous": 20164, "\u2581stretch": 14742, "\u2581fault": 9683, "awk": 22527, "\u2581\u0160": 13688, "\u2581explicitly": 15956, "<0x84>": 135, "\u2581r\u00e9": 3264, "\u2581{{": 13949, "This": 3260, "\u4e36": 31734, "\u2581beings": 16905, "\u00e1m": 10422, "\u2581studied": 9604, "\u2581variation": 18423, "\u2581serv": 1268, ".),": 14439, "DS": 7277, "\u2581subjects": 14575, "\u17bb": 31061, "enschapp": 15277, "gom": 22297, "\u2581\u041d\u0430\u0441\u0435\u043b\u0435\u043d\u043d\u044f": 25975, "\uad6d": 30779, "InputStream": 16026, "\u2581extract": 9131, "\u2581obten": 26685, "\u83dc": 30038, "wick": 9462, "\u2581binding": 15662, "\u2581config": 2703, "\u2581Bill": 6502, "\u2581suited": 24003, "!\u201d": 14569, "Your": 11159, "\u2581Country": 13008, "hover": 20635, "\u0432\u0435\u0441\u0442": 15339, "perties": 2931, "\u06c6": 31252, "He": 2428, "\u2581\u0431\u0430": 7460, "\u2581ro": 712, "\u05be": 31663, "\u2581posit": 14139, ",\\,": 21946, "\u2581wenn": 24718, "\u2581average": 5151, "\u2581matter": 3209, "anda": 5904, "\u2581compatible": 17696, "\ud2f0": 31409, "\u2581regards": 22573, "\u2581fairly": 11735, "GPL": 20405, "\u2581Pearl": 25895, "ctrine": 18371, "ary": 628, "cook": 27177, "\u0441\u044c\u043a\u0438\u0445": 19799, "dim": 5449, "totype": 5428, "\u2581paint": 6192, "\u2581im": 503, "finished": 6159, "\u2581\u0438\u0441\u0442\u043e": 13196, "werp": 25978, "\u2581Rivers": 28574, "\u2581recib": 25472, "brid": 14519, "\u7bb1": 30262, "\u2581\".": 11955, "\u0441\u0456": 7758, "\u2581INFO": 22977, "anch": 3583, "osc": 17815, "\u2581Archives": 28477, "sembl": 14763, "\u2581Typ": 15633, "path": 1740, "\u0442\u0430\u043b": 15122, "\u040a": 29715, "\u2581channels": 11671, "ements": 4485, "\u2581comments": 7616, "ICATION": 17389, "\u0440\u043e\u0438": 22518, "\u043a\u0430\u0440": 22688, "\u2581gruppo": 28163, "\u94fa": 31471, "$^{-": 23596, "\u0ca0": 31604, "bour": 6814, "}}}\\": 27705, "\u2581\u0436\u0435\u043d": 21741, "\u0441\u044c": 1974, "\u2581walk": 2338, "See": 7992, "\u2581v\u00e4": 15670, "\uae4c": 30578, "\u0e1d": 31620, "\ub09c": 31876, "\u2581re": 312, "rise": 24035, "\u9054": 31246, "hend": 12669, "\u2581compan": 4021, "<0xD7>": 218, "\u2581Setup": 27054, "\u2581Will": 2875, "others": 15869, "\u2581collar": 24018, "stage": 13590, "Each": 9179, "\u201d)": 27521, "\u2581aller": 23803, "ATTR": 10096, "\u5403": 31182, "\u2581Now": 2961, "aid": 3439, "oin": 2448, "\u0268": 30200, "\u2581scaling": 19903, "\u2581surviv": 18106, "newcommand": 20570, "\u2083": 31358, "className": 17220, "arc": 6527, "RA": 5244, "\u2581Women": 8206, "pson": 12353, "\u2581typ": 2514, "nitt": 20845, "TION": 10940, "\u2581truly": 7297, "harm": 24418, "\ud14c": 30566, "\u2581improving": 16752, "\u2581wrapper": 18491, "hid": 26096, "\u2581\u043d\u043e\u044f\u0431\u0440\u044f": 27251, "\u4ee5": 29074, "quarters": 14446, "ke": 405, "allet": 7354, "\u2581DEFAULT": 17537, "\u2581struct": 1758, "\u2581si\u0119": 6379, "incip": 3480, "\u2581ten\u00eda": 23396, "TextField": 25781, "\u2581\u041c\u0435\u043a\u0441\u0438": 27720, "\u0142": 28843, "\u2581sus": 3121, "\u305d": 30292, "ures": 1238, "\u2581\u043e\u0431\u043b\u0430\u0441\u0442\u044c": 27216, "\u2581tamb\u00e9": 27144, "\ub529": 31836, "\u03c2": 29013, "\u0446\u0438\u044f": 7359, "\u0435\u0440": 1226, "\u2581esp": 7581, "\u2581satell": 17345, "icip": 4363, "\u2581Minn": 15179, "null": 3576, "=\"": 735, "incl": 1505, "ctr": 12017, "\u2581grounds": 15970, "\u00e6": 28916, "\u2581Prote": 11425, "lando": 23728, "\u0442\u0435\u043c": 18988, "\u2581numer": 5539, "\u2581Port": 4194, "amaz": 13676, "\u2581membership": 14796, "Rank": 24347, "moment": 26471, "failure": 23973, "\u2581back": 852, "\u0432\u0430\u043d": 5406, "\u2581compar": 6085, "<0x1A>": 29, "ieb": 25295, "WN": 7866, "\u2581tall": 9369, "keit": 11231, ",$": 13948, "substr": 23341, "\u2581crisis": 10788, "\u00e9rc": 23219, "\u5bcc": 31017, "RPC": 22115, "bands": 25299, "\u2581shake": 17138, "\u2581bias": 16117, "\u2581FR": 27790, "dispatch": 16202, ")-": 9572, "\u2581Richard": 6359, "\u2581organisation": 18077, "\u00eam": 26288, "wei": 25257, "\u2581issue": 4291, "\u2581Pow": 14326, "/)": 19840, "\u2581park": 4890, "ilation": 11213, "Copy": 8546, "ATCH": 12915, "\u2581Tal": 10677, "related": 9646, "\u2581window": 2924, "chk": 28566, "imp": 10750, "oding": 5195, "\u2581consolid": 22968, "\u2581identify": 9051, "\u2581holiday": 12010, "RGB": 21333, "Opts": 23888, "ano": 2503, "awi": 28498, "\u7db2": 31470, "\u2581index": 2991, "\u00e4nd": 5901, "\u2581mental": 8057, "\u0451\u043c": 18452, "\u2581territory": 14293, "\u2581pit": 11265, "\u2581Hair": 27523, "\u3066": 29257, "\u2581presum": 17834, "\u2581yourself": 3936, "\u2581Tur": 6372, "topic": 17833, "FROM": 21335, "ENDOR": 23669, "\u2581Bio": 26752, "\u1ecb": 29765, "\u6bd5": 31347, "\u2581Hou": 14180, "Have": 12341, "\u2581\u0440\u0430\u0431\u043e\u0442\u0430": 26726, "\u2581d\u00e9j\u00e0": 28320, "\u0564": 31344, "\u2581Definition": 24382, "\u2581stand": 1876, "\u2581someone": 2493, "FRAME": 20593, "\u8d56": 31537, "\u2581lut": 21285, "\u2581Knight": 21228, "\u2581Ball": 11828, "\u2581orientation": 18159, "ending": 2570, "\u0432\u043e\u0439": 9018, "izione": 12769, ">()": 21384, "\u2581Om": 17852, "\u2581AN": 2976, "icious": 10573, "\u62ec": 30574, "\u2581politics": 9800, "\u2581alle": 8477, "d": 28715, "then": 5863, "\u2581termin": 13552, "stone": 9966, "Commands": 27458, "\u2581soft": 2664, "reference": 14772, "esome": 9263, "estone": 18557, ">%": 24801, "\u9f20": 31106, "ess": 409, "]['": 13601, "vent": 1071, "War": 24378, "\u0430": 28763, "\u222a": 31916, "\u2581knowledge": 4788, "\u2581Tre": 9485, "\u2581explan": 10928, "icons": 14356, "v\u00e9": 15221, "\u2581pillow": 25896, "\u2581syn": 7071, "\u2581MD": 15834, "making": 14727, "\u2581haul": 20743, "FO": 4521, "BU": 3470, "\u2581Jorge": 26955, "\u2581VII": 20983, "\u2581en": 481, "les": 867, "\u2581ACT": 26535, "\u0442\u043e\u043a": 20264, "\u2581Guide": 14555, "\u2581pal": 4785, "\u2581lanz": 26682, "\u2581teams": 6941, "\u2581parents": 4386, "\u2581before": 1159, "\u2581Bu": 10944, "\u82d7": 31927, "Locale": 17637, "\u2581voted": 17420,
[...]
