{"\u2581language": 3968, "\u2581garment": 44389, "concurrent": 52214, "meric": 1675, "\u8e48": 61986, "\u2581gener": 1375, "lib": 5349, "\u2581rental": 14308, "\u5937": 62660, "\u2581rides": 23110, "shield": 43134, "\u2581entr": 12131, "&\\": 6545, "illions": 54525, "\u2581pen": 4734, "\u8f96\u533a\u5185": 38725, "\u2581heads": 10073, "habil": 23503, "\u2581River": 7990, "\u6216\u4e0d": 53152, "\u2581icon": 9154, "\u6838\u5fc3\u4ef7\u503c\u89c2": 47766, "\u65b0\u533a": 12815, "\u95fa\u871c": 32036, "etically": 33613, "\u5e94\u6709": 44351, "\u8005\u4eec": 59457, "inn": 5859, "\u2581\ud83d\ude42": 20936, "\u8fdc\u65b9": 35444, "\u2581Br": 7000, "\u2581Chat": 30686, "nSize": 44532, "\u2581originated": 32050, "punct": 47128, "wenshu": 23153, "\u7814\u7a76\u8005": 53916, "\u2581vom": 33447, "\u2581conjug": 22810, "\u4fdd\u7f57": 33114, "fine": 31489, "\u2581ahead": 5792, "\u6211\u76f8\u4fe1": 24688, "\u2581Purpose": 49337, "\u2581quil": 38216, "\u90fd\u5f97": 55214, "\u2581USS": 57987, "\u4e2d\u4fc4": 56605, "\u2581pile": 20123, "larg": 22405, "\u6b23": 61220, "\u2581Eng": 2862, "\u91c9": 63278, "\u2581recalled": 26588, "\u2581described": 4192, "\u8868\u660e": 11066, "\u4e24\u5cb8": 25140, "\u6b63\u7ecf": 52126, "\u2581Stuart": 37220, "\u9910\u5385": 17788, "\u6587\u5b57": 9542, "April": 36213, "\u6751\u5e72\u90e8": 32045, "\u2581Lev": 49122, "\u6298\u817e": 38077, "\u2581Registry": 52958, "\u044a": 59997, "\u2581purchasing": 15077, "\u65cb": 61249, "ly": 627, "\u9ad8\u7b49\u6559\u80b2": 36843, "\u2581Jeremy": 26574, "\u2581Fish": 24245, "\u2581scanning": 25198, "\u2581Starbucks": 39820, "\u8718\u86db": 37376, "\u2581Franc": 7656, "aved": 12779, "\u4f86\u81ea": 36655, "\u2581commitments": 31456, "Chain": 34409, "\u6210\u90fd\u5e02": 40958, "\u6d77\u5357\u7701": 53851, "\u4fdd\u96aa": 47985, "\u2581thyroid": 40894, "contents": 30303, "\u2581thanked": 42736, "\u2581seeking": 8966, "\u2581artistic": 19763, "\u2581jokes": 23826, "Limit": 36448, "oser": 40074, "\u517b\u62a4": 32284, "ipur": 53134, "\u2581flaws": 28653, "\u7814\u5236": 32949, "\u2581Soc": 5437, "\u2581shitty": 39207, "\u706b\u5c71": 41864, "ifug": 59068, "\u00b2": 63285, "Used": 49416, "\u5f37": 61589, "\u9ebc": 61512, "\u635f\u8017": 57436, "\u767b\u5f55": 29433, "azine": 7371, "irates": 20812, ":}": 15844, "MENT": 12766, "\u2581Fer": 29176, "\u2581fauc": 53312, "nLondon": 54648, "\u65e0\u975e": 36444, "\u2581ass": 1361, "False": 14782, "ako": 47313, "\u2581Death": 16294, "orks": 3593, "\u4e00\u90e8\u5206": 18504, "\u2581stripped": 31821, "\u2581Powell": 36020, "\u2581generosity": 44886, "\u8907": 63484, "WRITE": 48117, "\u6570\u5b57\u7ecf\u6d4e": 46394, "\u2581beans": 18837, "\u2581intellig": 7274, "omas": 20912, "\u4e09\u4f4d": 27929, "NzI": 35970, "nai": 40883, "\u2581shore": 22778, "\u6279\u590d": 45573, "\u6746": 61122, "\u2581separate": 6227, "vertis": 18085, "icorn": 50246, "\u2581goalkeeper": 53401, "\u2581scr": 9750, "\u2581owning": 32468, "\u2581Claims": 58899, "\u2581underwent": 45909, "I": 59597, "ugar": 22697, "\u7490": 63192, "nOkay": 28212, "\u78ca": 62324, "\u2581docker": 42135, "lying": 4855, "\u2581exploring": 15174, "\u7b80\u7ea6": 40402, "\u5728\u5b69\u5b50": 51976, "icense": 4516, "mc": 12160, "\u2581part": 956, "\u663c": 63289, "\u2581ounce": 40367, "GPU": 40559, "\u6293\u597d": 18336, "\u2581kit": 12437, "Params": 17550, "\u2581caused": 6269, "\u2581notch": 35605, "\u4e0d\u4e00": 37121, "\u2581inspiring": 20742, "\u2581Hog": 49986, "\u4e0d\u89c1": 14444, "lash": 30942, "\u548c\u7f8e\u56fd": 47061, "\u2581Bomb": 39756, "\u6d74": 62014, "Nzc": 51114, "\u2581designers": 16913, "\u73fe\u4ee3": 47803, "\u4f3c": 60453, "\u516c\u8def": 10235, "\u2581Represent": 18776, "\u5916\u754c": 18673, "\u65e0\u7a77": 32105, "\u2581transmit": 18634, "\u2581forbid": 56476, "\u2581grape": 35700, "nmov": 39123, "\u7f18\u5206": 37468, "\u5b63\u540e\u8d5b": 38981, "\u6392\u884c\u699c": 38586, "\u2581deadline": 17410, "\u2581niece": 51959, "nSt": 3952, "\u2581responding": 22670, "\u89c1\u8bc6": 39887, "\u2581abundances": 34345, "\u4e0b\u6c34": 38931, "\u8170": 61286, "\u4e91": 60380, "\u9178\u5976": 50710, "\u73b0\u5728\u7684": 10857, "\u80af": 60765, "\u548c\u751f\u6d3b": 27640, "\u8fbe\u6807": 35153, "\u6211\u628a": 28287, "_": 59593, "\u2581summers": 49604, "\u81ea\u8eab\u7684": 18272, "StackTrace": 49493, "\u0441\u0443": 43713, "\u5e74\u7684": 3242, "istor": 10335, "\u2581Lat": 14440, "\u76f8\u8f83": 36501, "\u7a0b\u5e8f\u5458": 53942, "\u7ee5": 63754, "\u2581cheating": 30029, "\u2581wond": 2968, "icate": 5566, "\u62c9\u514b": 26557, "arak": 44693, "\u5c0f\u5b69\u5b50": 34585, "<|unused155|>": 300, "nas": 7225, "\u4e2d\u53bb": 45927, "\u2581luminosities": 51818, "\u6a21\u5177": 29511, "\u5e74\u672b": 39861, "\u2581sector": 7416, "\u906e\u6321": 58634, "``": 11117, "nGeneral": 27265, "\u672c\u9662\u4e0d\u4e88": 56306, "\u2581semiconductor": 26207, "\u2581dare": 26861, "\u2581staggering": 43966, "\u2581UAV": 47300, "\u2581illum": 22802, "\u2581attachments": 37115, "ising": 2365, ")]": 7831, "\u2581attacker": 28109, "{-}": 56678, "\u91d1\u725b": 34207, "\u2581Want": 23751, "\u2581Ath": 22268, "\u2581GPL": 59505, "\u6c11\u56fd": 29512, "caling": 42574, "\u6709\u5f85": 54090, "\u7269\u4ef6": 54632, "\u2581minorities": 33862, "\u2581organization": 5492, "\u2581Luke": 20939, "\u2581outlaw": 52229, "\u6c1b": 61233, "\u6240\u9700\u7684": 36359, "\u2581PHP": 21020, "abetes": 13775, "{\"": 875, "pable": 47086, "Pl": 6284, "\u4f53\u7684": 7706, "opening": 40016, "\u2581colonies": 41902, "\u2581parameterized": 50975, "\u2581examines": 34971, "\u2581expense": 16263, "\u5728\u90a3\u91cc": 31814, "\u2581unconventional": 52354, "\u5168\u9762\u7684": 38064, "\u4e00\u4e1d": 28328, "\u8209": 61966, "\u2581constit": 12229, "\u2581crude": 26968, "Wire": 39352, "\u8131\u843d": 42437, "\u5c34": 62326, "\u540c\u65f6\u5728": 48587, "\u50b3": 61586, "\u7684\u5728": 52153, "\u2581Hebrew": 28761, "\u957f": 59755, "\u2581Nam": 33991, "\u0437\u0430\u0440": 56072, "\u51b3": 60018, "\u771f\u5b9e": 6653, "\u2581numpy": 27277, "\u2581Sexual": 48044, "\u517b\u6210": 19655, "ipal": 10297, "\u4f53\u73b0": 9048, "nWas": 27561, "\u52a0\u5267": 30549, "{$": 9077, "\u751f\u524d": 49478, "\u2581amazing": 4630, "\u8eab\u4e3a": 26311, "\u9a7e\u8f66": 39978, "\u2581restrictions": 14324, "\u2581assessment": 12132, "\u2581Much": 18533, "\u57f9\u8bad": 5695, "\u7684\u540e": 27088, "\u2581\u0442\u0440\u0435": 52656, "pon": 55772, "\u2581too": 1528, "}''": 56298, "NDY": 35146, "\u2581empowerment": 58940, "\u4ea7\u5730": 41042, "sql": 12531, "\u2581tennis": 18587, "nMeanwhile": 19196, "\u2581compatible": 12821, "\u2581}": 2712, "\u2581intern": 4224, "param": 4278, "\u2581restaur": 5813, "\u2581Richards": 46898, "\u8208": 62300, "\u2581burn": 6190, "\u535a\u89c8": 34006, "\u2581maximally": 55657, "\u5438\u9644": 37731, "ades": 4548, "\u2581mer": 4707, "\u2581Rev": 11038, "\u6216\u8bb8": 8781, "\u2581squared": 28291, "orget": 44867, "\u5f39": 60736, "TOP": 34819, "{\\\\\\\"": 58423, "\u662f\u7684": 22031, "\u582a\u79f0": 33657, "\u2581diffuse": 34839, "\u68c0\u4fee": 38356, "\u2581healed": 44897, "\u88c1\u5458": 58776, "\u00ed": 61156, "\u2581\u043d\u0435": 7760, "abb": 35057, "\u2581migrants": 39480, "\u51f0": 62516, "backup": 58120, "nEl": 24102, "\u570d": 62637, "\u2581damage": 5600, "\u767e\u5bb6": 51900, "\u7a00\u571f": 44096, "scription": 11878, "\u5c31\u5f00\u59cb": 17435, "\u5217\u4e3e": 50537, "nhas": 16503, "\u2581HF": 43059, "Radio": 38776, "\u2581Ble": 39775, "\u597d\u73a9": 51253, "\u2581Barack": 18660, "\u800c\u4e0d": 11691, "\u99ac": 61731, "\u2581quadrupole": 54764, "\u2581:-": 22890, "\u2581possessed": 39646, "\u2581Trad": 15875, "\u2581realistic": 12556, "\u2581ten": 4506, "\u5c31\u77e5\u9053": 35247, "matter": 47915, "Data": 3623, "\u2581ner": 38555, "<0xED>": 542, "xygen": 14342, "\u6709\u80fd\u529b": 38252, "\u2581livelihood": 48969, "\u6253\u626e": 35346, "\u2581Although": 6557, "\u2581immersion": 49918, "\u2581doubling": 42560, "acks": 11416, "\u653e\u624b": 43185, "levels": 45734, "\u77e9": 61801, "\u2581:(": 55579, "\u5c65\u884c\u671f\u95f4\u7684": 38133, "\u2581hang": 9759, "sta": 40625, "olution": 2348, "\u5751": 61769, "\u2581haunted": 44019, "consin": 15860, "BER": 18758, "\u2581Arabs": 48634, "\u865a\u62df": 17317, "\u620f\u66f2": 43155, "\u60a3\u75c5": 41693, "\u6765\u89e3\u51b3": 57444, "\u2581expressing": 25515, "\u4ea7\u540e": 30490, "\u2581Sant": 20982, "\u5149\u7684": 33898, "\u5830": 63286, "nIt": 1951, "\u4f60\u5e94\u8be5": 45543, "\u56de\u5934\u770b": 56854, "\u53d6\u51b3": 25409, "\u2581bake": 29326, "\u2581Analyst": 58830, "Object": 5427, "\u6240\u6709": 2889, "\u2581sturdy": 34553, "\u2581gallon": 35413, "nAD": 37934, "\u2581resource": 7771, "\u8033\u6735": 24962, "\u6ed5": 63609, "zbollah": 47111, "\u2581Birds": 49229, "Njc": 50679, ":'": 21225, "\u65b0\u54c1": 49629, "\u2581divine": 23323, "\u64c1\u6709": 41629, "\u2581Korean": 15744, "research": 34714, "\u2581obj": 20246, "\u5546\u52a1": 11485, "\u683c\u529b": 50350, "\u2581insp": 4739, "\u6b79": 63677, "ega": 3340, "\u6e05\u51c0": 56295, "\u5e76\u4e3a": 41740, "\u2581Lower": 26946, "\u2581premiums": 35620, "reat": 1000, "\u6f88": 63068, "']))": 58232, "\u53d7\u635f": 28169, "\u51fa\u4f86": 44645, "\\\")": 3198, "\u2581kinematics": 46921, "\u2581residue": 39030, "Getty": 25386, "\u2581revival": 39299, "\u7406\u89e3": 5181, "\u89c4\u6a21\u5316": 52789, "\u5e38\u4f4f": 48808, "\u2581classifier": 20753, "\u2581spoiler": 58498, "\u2581protect": 4414, "Mode": 14049, "Che": 21674, "\u2581formulas": 25823, "cd": 2161, "\u2581Mat": 7158, "\u6765\u81ea\u4e8e": 24655, "\u2581interventions": 32067, "\u5a03\u5a03": 35362, "\u2581stip": 36562, "\u0440\u0442": 57177, "\u2581deeds": 41646, "\u610f\u4e49": 5790, "lorida": 49141, "\u89c6\u5bdf": 49767, "}^{*": 33526, "starts": 52274, "Verify": 58998, "noc": 44415, "\u4fdd\u9669\u516c\u53f8": 20199, "ultane": 10328, "\u7684\u6210\u672c": 44192, "\u2581fault": 10053, "\u2581Joh": 18649, "\u2581duties": 17758, "prec": 21591, "\u2581Bapt": 24310, "June": 35095, "\u5c0f\u4e09": 45608, "\u53ef\u6015\u7684": 56680, "\u2581Partners": 19661, "Commands": 51221, "\u2581employs": 30999, "\u2581stub": 25195, "\u2581Glasgow": 41427, "\u2581Areas": 55247, "AJ": 43712, "med": 1917, "\u2581Remote": 36602, "\u2581photograph": 10867, "monary": 50307, "\u2581nicotine": 53634, "\u2581cave": 19545, "\u7b49\u4eba": 17652, "\u2581thermodynamic": 30672, "\u2581jurisdictions": 44215, "Until": 54288, "\u2581loos": 28307, "\u2581Simply": 19061, "\u609f\u7a7a": 33096, "\u2581horns": 49382, "\u85a9": 63743, "\u2581ERA": 32265, "\u6bcf\u4e00\u4f4d": 24434, "natt": 33132, "verbose": 49511, "\u2581WWE": 28719, "\u2581extr": 29358, "Control": 13715, "dry": 44040, "\u5e94\u6025": 10280, "\u2581orth": 13592, "\u2581Evangel": 48229, "\u2581Tom": 6702, "\u4e86\u8d77\u6765": 20095, "\u2581tomat": 17237, "pk": 29165, "\u2581replaces": 38237, "orts": 16043, "quin": 37144, "\u4e3e\u884c\u7684": 38868, "aporation": 46728, "throws": 27067, "}{}": 31961, "nPut": 27214, "erent": 7697, "\u2581Chi": 23402, "\u2581cholesterol": 30431, "\u7528\u624b": 25101, "<0xFD>": 558, "plete": 8986, "\u2581Finder": 44715, "\u0442\u043e\u043a": 42890, "\u50a8": 60782, "whatever": 45332, "\u2581rhet": 24094, "ither": 2033, "nFrank": 41378, "naissance": 51679, "\u2581neighborhood": 8063, "\u5403\u7740": 56696, "\u2581LM": 46024, "\u2581exceeds": 28081, "VALID": 39261, "igrants": 14071, "\u559d\u9152": 21524, "Hom": 25333, "\u5728\u4e00\u4e9b": 43045, "nCall": 29281, "\u3059": 62206, "\u2581Ricci": 45349, "\u53ef\u4ee5\u5e2e\u52a9": 34276, "\u653f\u52a1\u670d\u52a1": 44373, "\u5de5\u4f5c\u4efb\u52a1": 50640, "\u2581Application": 17580, "nGiven": 15833, "\u5e74\u524d": 8292, "\u2581Kath": 28457, "tex": 5752, "\u89e3\u8bf4": 45991, "\u2581suggested": 7825, "\u5e02\u7ea7": 27402, "\u2581Gardner": 44985, "\u8fd8\u8bf4": 47343, "\u2581snippet": 49828, "ranking": 50341, "\u6021": 62359, "\u2581\u2018": 2216, "\u8feb\u5207": 42438, "\u2581crew": 9760, "\u673a\u6cb9": 51049, "\u7269\u7684": 12623, "\u2581Wol": 35526, "\u6709\u5e8f": 13436, "\u4e0a\u6d77": 4510, "})-": 28647, "\u8a93\u8a00": 51051, "\u2581basket": 9911, "\u7684\u529e\u6cd5": 52155, "\u5e2d": 60645, "\u2581r": 731, "\u7b49\u65b9\u5f0f": 21370, "\u2581collectors": 39022, "\u2581Gos": 53859, "\u2581directional": 49082, "\u6311\u6230": 49591, "containing": 44035, "\u65e0\u7ebf": 16993, "Models": 25106, "nbel": 55941, "\u2581Italian": 11348, "\u2581Continue": 14174, "\u5c81\u7684\u65f6\u5019": 49967, "\u800c\u4e0b": 50371, "\u5fc5\u987b\u662f": 54334, "nfour": 57269, "unched": 42501, "Contact": 28073, "\u4e00\u70b9\u4e5f\u4e0d": 53972, "nNorth": 33544, "\u90e8\u5206": 2497, "\u2581leaders": 4374, "nBefore": 13024, "\u2581Proposition": 16562, "\u2581commissioner": 35818, "\u8428\u65af": 51559, "supported": 28207, "\u2581Lebanon": 29441, "\u4f88": 63141, "\u2581brushed": 49143, "\u7535": 59830, "mbox": 4664, "\u2581historically": 27125, "\u2581Parad": 30771, "\u2581Anna": 23325, "\u900f\u8fc7": 26426, "\u8d95": 63968, "gio": 43652, "\u5438\u6bd2": 38740, "\u2581sensors": 17830, "\u2581plumbing": 31593, "\u2581league": 8163, "}$$\\": 42308, "\u2581Added": 27133, "\u2581anybody": 13833, "\u4ee3\u7406": 8029, "\u2581Pers": 17012, "ipes": 8802, "\u65e0\u5f62": 37682, "\u2581fused": 56653, "\u2581herb": 30469, "\u4e0d\u5149": 39241, ">(\\\"": 58641, "\u831c": 63646, "actively": 51918, "\u2581manifold": 17215, "Open": 12430, "\u76f8\u58f0": 43482, "nMag": 52655, "\u75d8": 62451, "bootstrap": 27611, "\u65fa\u76db": 33384, "\u5c31\u5c06": 43614, "\u9875": 61252, "\u5c31\u6703": 39886, "\u6db2\u538b": 35391, "ubl": 1108, "\u5b88\u62a4": 19478, "\u56db\u5ddd\u7701": 23439, "\u501f\u6761": 33003, "\u672a\u77e5": 34628, "urned": 57803, "\u2581twe": 12522, "\u8335": 63511, "\u2581accompanied": 18308, "\u2581sympt": 9074, "\u2581Mother": 16954, "\u5c14\u591a": 43667, "<0xC5>": 502, "fib": 51287, "\u7b2c\u4e8c\u5b63": 58356, "uo": 34761, "\u611f\u89c9\u81ea\u5df1": 54100, "\u5fc3\u751f": 52460, "\u2581carried": 7999, "\u4e45\u800c\u4e45\u4e4b": 58419, "\u901a\u900f": 59063, "\u2581offseason": 32359, "ken": 4471, "\u2581awake": 29379, "\u79cd\u690d": 9894, "\u2581\u0418\u0437": 33684, "\u2581Nobel": 34785, "\u2581delegate": 40609, "\u2581bacterial": 39453, "\u2581\u0442\u043e": 9953, "assy": 21737, "\u2581Wet": 54126, "\u7f81": 62756, "\u2581Republicans": 11204, "vio": 31535, "\u767e\u5206\u70b9": 23913, "\u7684\u5e02\u573a": 21247, "\u4fe1\u8d56": 46279, "\u65b0\u578b\u7684": 24298, "\u5305\u5b50": 49566, "aters": 16732, "\u2581tummy": 57278, "\u2581replaced": 8946, "ategoria": 56571, "\u620f": 60498, "\u2581k": 789, "\u2581noise": 5730, "GDP": 20518, "\u2581errors": 7073, "%^": 57609, "\u2581Gra": 8095, "ravel": 22828, "opia": 46009, "Ham": 28784, "WIND": 53946, "\u2581Monitor": 26194, "\u5929\u6c14": 9468, "\u2581brother": 5880, "Enabled": 22376, "anan": 54468, "mentioned": 18118, "capt": 39268, "\u4e50": 60159, "\u2581installing": 16099, "bigg": 11665, "imo": 36872, "\u572d": 63846, ")>": 23188, "\u7b5b\u9009": 28566, "CHAR": 34887, "\u7684\u5730\u65b9": 7010, "+(\\\\": 51645, "\u5e7c": 60764, "TV": 10356, "\u69ae": 62876, "\u2581Movies": 38975, "\u6821\u56ed": 8214, "\u5341\u4e8c\u6761": 28192, "\u80fd\u6e90": 6365, "\u0441\u0442\u043e\u044f": 33475, "\u2581\u0432\u044a\u0432": 22645, "\u62d8": 61980, "\u2581Gab": 22221, "quire": 23994, "<0x41>": 370, "\u56fd\u6c11\u515a": 28712, "\u6eb6\u5242": 41949, "\u5185\u5b58": 25145, "otential": 29265, "\u8d5b": 60122, "\u2581Audit": 56745, "\u56fa\u4f53": 41520, "\u2581RED": 41504, "\u2581defender": 26468, "\u4e07\u8fbe": 41336, "\u2581Status": 24596, "\u9762\u7c89": 37710, "illed": 2940, "\u2581Journalism": 58657, "\u2581product": 1774, "loc": 8432, "\u91d1\u878d\u670d\u52a1": 45496, "\u2581Wonder": 21910, "\u2581elev": 11446, "\u2581breath": 8253, "icion": 23665, "ichi": 35220, "\u2581STR": 36711, "\u2581affair": 22323, "\u2581undertake": 37057, "\u2581fruits": 18970, "\u6a39": 63028, "\u8d27": 60443, "\u52a8\u4e86": 30985, "\u8d70\u4e0a": 27637, "\u7684\u6d3b\u52a8": 25560, "\u81ea\u79c1": 39506, "RU": 33588, "\u2581quant": 3160, "example": 11023, "nEn": 19689, "mel": 26643, "\u5efa\u7acb\u5728": 45101, "\u2581Universe": 18020, "\u2581Read": 4801, "\u2581Christianity": 20804, "\u53bf\u59d4\u5e38\u59d4": 53743, "language": 7593, "vic": 35556, "\u6311\u6218": 9207, "\u2581borrow": 13323, "\u094d": 63879, "\u2581char": 1560, "\u2581extrap": 26390, "\u7bee": 61248, "\u2581Alternatively": 31958, "\u4f19": 60912, "\u5343\u4e07\u522b": 49155, "\u2581paycheck": 48257, "\u4e25\u5bc6": 57612, "\u2581deficits": 48844, "\u2581incorrect": 15668, "nEnjoy": 36423, "\u0443\u0434\u043e": 49375, "\u5668\u6750": 32850, "CW": 43797, "\u5173\u8054\u6027": 51426, "\u2581wherever": 19151, "\u2581Ot": 18246, "\u2581Program": 6953, "\u6ee1\u6ee1\u7684": 42998, "\u770b\u5230": 3210, "ud": 766, "\u2581FPS": 46910, "\u79cb\u5b63": 26249, "hr": 9866, "\u90e8\u7684": 11315, "\u2581allies": 21248, "\u7ea0\u7eb7\u4e00\u6848": 26008, "designed": 43034, "\u2581injured": 12958, "\u63e1\u624b": 56726, "\u529e\u4e3b\u4efb": 54363, "\u2581Advent": 18913, "\u821f": 61933, "\u6bcf\u5230": 43752, "\u2581SU": 9562, "\u2581storing": 26086, "bye": 21410, "\u8d1e": 62915, "\u6c7a\u5b9a": 31006, "\u2581Rub": 13991, "\uff3b": 63645, "\u4f19\u98df\u8865\u52a9\u8d39": 49988, "\u2581outsourcing": 49497, "\u5384": 63425, "\u4eba\u9053": 57514, "\u7ed3": 59888, "\u2581commod": 21361, "justice": 30807, "open": 6865, "those": 39194, "icates": 22636, "valuation": 21280, "first": 8552, "\u2581capsules": 57172, "\u2581label": 4220, "\u2581skeptical": 31513, "\u5ef7": 61945, "aware": 13875, "\u5609\u5174": 44229, "\u2581deformation": 26284, "\u2581Tribe": 58864, "before": 17338, "}'": 10477, "\u5065\u813e": 58168, "\u2581Interactive": 41084, "\u96c6\u4f53": 9698, "\u2581Shannon": 38409, "\u2581discoura": 33311, "\u7fa9": 61789, "\u2581reconstructed": 26749, "\u8138\u4e0a": 16823, "\u706b\u529b": 47410, "\u2581ignores": 41142, "\u2581Likewise": 35061, "\u2015": 61930, "\u8981\u63d0\u9ad8": 56918, "\u2581\u2013\\": 34275, "\u53db": 62214, "\u2581infamous": 32737, "\u2581Edition": 17515, "\u2581karma": 47382, "oly": 4724, "\u60f3\u8d77\u4e86": 50194, "\u76f8\u52a9": 56395, "\u2581Carnegie": 56804, "coat": 52721, "\u8aa4": 63242, "lers": 11399, "\u2581bids": 44799, "\u72c2": 61265, "oulli": 57842, "tml": 15261, "\u2581brace": 28326, "\u2581BCS": 50415, "\u2581constitute": 22825, "oa": 29975, "\u2581nation": 5124, "\u2581advisor": 27238, "\u4e3d\u6c5f": 59410, "\u634f": 62625, "\u8131\u79bb": 25000, "Uri": 35632, "\u2581\u0431\u0435": 27462, "ma": 1004, "anth": 16611, "\u51fa\u4e86\u4e00": 41015, "\u5728\u6c34": 33128, "ayers": 47638, "\u7684\u4e8b\u4e1a": 36093, "\u2581chess": 31920, "nSpecial": 30196, "\u8fd8\u5f97": 27403, "\u2581checkout": 29073, "\u2581obstacle": 30379, "\u5408\u8d44": 34898, "\u2581experienced": 6964, "\u65e0\u7f18": 45740, "\u2581Krish": 54165, "\u2581continuation": 31645, "{\\\"": 11484, "Nav": 21917, "\u2581postings": 49973, "ighborhood": 33889, "pp": 772, "\u2581cb": 48351, "\u2581sock": 41244, "\u2581rails": 41622, "\u661f\u7a7a": 50316, "\u2581sponge": 55110, "\u6bcf\u500b": 51284, "\u4e94\u884c": 39647, "growing": 36921, "\u8fd9\u513f": 43839, "\u2581his": 893, "always": 33273, "\u6d41\u7545": 33771, "lbrace": 42326, "\u4ed6\u90fd": 56550, "uckily": 57274, "\u8857": 60506, "\u5374\u4e0d": 31484, "expensive": 25744, "\u800c\u4e14\u662f": 50045, "\u7684\u52a8\u4f5c": 41250, "\u2581cherished": 58603, "nPaul": 26851, "\u2581abandon": 25922, "AR": 1955, "\u2581knit": 32620, "\u80cc\u540e": 13570, "Delete": 21103, "router": 31465, "Cur": 24129, "\u7684\u81ea\u5df1": 54723, "\u8d8a\u9ad8": 32014, "\u2581Stones": 52552, "\u2581Wool": 42963, "\u2581Healing": 54029, "\u2581Tucson": 57694, "\u2581shocked": 18670, "apa": 41402, "\u66b4\u9732": 20585, "Servlet": 39599, "\u94f8\u9020": 51582, "proj": 34598, "\u2581architectural": 28609, "aci": 52950, "ureau": 15381, "but": 4174, "nRep": 20597, "racy": 3869, "named": 17250, "\u2581ost": 42609, "\u2581sore": 24271, "\u5171\u540c\u4f53": 42959, "motor": 58728, "\u2581mim": 23986, "<0x33>": 356, "\u2581memor": 25670, "[-": 16693, "\u5929\u6d25\u5e02": 38441, "adoop": 27553, "\u604b\u7231": 14594, "\u5168\u9762\u63d0\u5347": 45415, "\u8bed\u97f3": 22616, "\u5b9a\u4f4d": 9587, "akespe": 27869, "<0x68>": 409, "\u2581Xbox": 19575, "\u043b\u0438\u043d": 45769, "\u2581emerging": 14864, "nlocal": 38049, "\u6b63\u5e38": 5392, "ickers": 54436, "/~": 36217, "\u60c5\u5546": 42783, "artha": 30952, "\u2581variable": 6981, "\u041f\u043e": 23878, "\u2581pollution": 19853, "\u2581applicable": 11805, "amet": 1892, "\u2581Module": 32139, "\u2581Caf\u00e9": 55353, "\u553e": 63931, "\u8fd0\u52a8\u7684": 41919, "long": 6236, "Lambda": 5079, "\u2581Wing": 33215, "\u6211\u7231\u4f60": 53529, "\u2581affiliate": 16733, "\u2581borrowers": 50365, "bor": 7447, "\u2581There": 1889, "vo": 11422, "enry": 45591, "\u2581bead": 51018, "uff": 2017, "TYPE": 16573, "\u2581mud": 23921, "\u2581distinguishing": 52191, "\u7684\u76ee\u5149": 57896, "\u4e0a\u8bc9": 5932, "\u2581Colomb": 31417, "\u6d41\u52a8": 11295, "nCalifornia": 52188, "\u2581Vit": 27845, "pajama": 1094, "\u89d2\u5ea6": 8119, "Tag": 12161, "\u878d\u5165": 14647, "\u2581RGB": 29506, "\u2581Extension": 36245, "\u2581filename": 26989, "\u2581moistur": 40990, "\u2581Mood": 42130, "Components": 46955, "\u2581abs": 2754, "\u89c2\u5149": 36527, "\u2581proxy": 21032, "\u6d89\u6848": 19780, "\u8bf7\u6c42": 7113, "\u4e34\u6c82": 42542, "\u4e2d\u573a": 54598, "NTQ": 53965, "\u5c0e\u81f4": 38769, "\u2581icy": 52754, "irt": 2890, "\u2581stir": 15131, "ikh": 25821, "\u2581Dubai": 27304, "\u2581Kan": 28979, "\u2581pessim": 55362, "\u8f9e": 61469, "\u2581Mour": 50247, "NYSE": 45161, "\u2581Chap": 22967, "crack": 55074, "ified": 1948, "\u0413\u0435": 56666, "bis": 38798, "resa": 27784, "\u2581translation": 12722, "\u2581Mg": 39692, "\u5173\u53e3": 49012, "\u2581passions": 41940, "\u80c3\u764c": 57581, "blue": 11112, "\u8bd5\u884c": 44368, "\u2581Moz": 42056, "sentence": 52257, "\u6e9d": 63811, "\u2581functioning": 23187, "}-{\\\\": 52323, "\u4e3b\u6253": 48170, "\u2581philosophy": 13705, "\u5f97\u77e5": 16619, "\u2581Blizzard": 45943, "\u2581uphold": 53574, "\u2581shedding": 58373, "\u52a0\u5165\u5230": 58112, "\u4e00\u4e24": 50668, "acies": 34801, "nReally": 42921, "\u6d8c": 61825, "\u2581ATT": 51016, "soon": 51406, "\u2581bedtime": 56285, "assuming": 39005, "\u2581portions": 20855, "nFour": 29268, "\u8dcc": 60740, "\u2581Reporting": 51680, "resh": 3071, "phan": 17610, "\u95ee\u5019": 35500, "vector": 9878, "\u2581Palest": 12321, "iota": 29034, "Room": 41906, "\u2581gun": 4920, "\u2581graduation": 25221, "\u2581promotional": 25947, "variable": 28992, "\u2581Interstate": 49829, "\u4e0a\u6c7d": 52457, "\u2581warmed": 56255, "\u5496": 61621, "\u2581contractor": 24807, "\u5927\u5c40": 30296, "hew": 40602, "\u6e05\u7b97": 40943, "metry": 54024, "\u6ed1\u52a8": 37467, "\u2581theirs": 30559, "\u2581Row": 20041, "\u4e5f\u8868\u793a": 47142, "\u2581hypothesis": 14542, "\u2581never": 1709, "\u2581Georgetown": 52890, "\u2581subscribed": 55488, "\u5bf9\u4f60\u7684": 48038, "\u90fd\u4ee5": 55159, "plac": 34798, "\u2581uint": 15949, "Your": 16852, "\u0431\u0443\u0440\u0433": 42647, "rera": 40088, "umbo": 47212, "\u5b66\u5386": 15452, "\u2581textbook": 38463, "\u65bd\u52a0": 43637, "stim": 58050, "\u2581excer": 28138, "\u7b2c\u4e00\u5929": 36945, "Tok": 26011, "\u5f3a\u9669": 28589, "\u2581pesticides": 48691, "\u2581PB": 33651, "\u2581incorrectly": 38221, "\u2581turtles": 56572, "\u2581Vlad": 35096, "\u683c\u7684": 51688, "server": 10191, "\u542b\u6709": 12793, "\u2581statement": 4987, "\u4e50\u8da3": 25511, "\u60f3\u4e0d\u5230": 31260, "nThings": 37859, "nMer": 47317, "\u7684\u5fc3\u7075": 47438, "\u7247\u5b50": 52988, "))\\": 4290, "\u821e": 60737, "Feed": 31857, "\u5bf9\u4ed6": 21817, "\u4e00\u53ea": 15050, "Cong": 49665, "\u2581Bold": 53210, "\u2581tong": 15398, "\u6821": 59951, "zero": 9858, "nBeautiful": 58870, "\u95f4\u9694": 28519, "\u706b\u8f66": 16007, "\u2581Graph": 21041, "\u73b0\u6709": 13012, "\u2581flo": 3170, "\u2581Lincoln": 18250, "\u2581Sr": 28983, "nproblem": 46513, "NDc": 52932, "\u8de8\u5883": 25873, "\u5e72\u71e5": 18156, "\u5348\u9910": 38786, "\u2581assay": 57563, "\u2581Humans": 58599, "\u6b49": 62134, "\u7684\u9009\u62e9": 20578, "\u957f\u5f97": 24922, "\u6708\u81f3": 27648, "\u2581wizard": 37250, "\u8d1f\u6709": 53524, "XM": 54765, "\u2581opposite": 8472, "alter": 33964, "\u7684\u98ce": 19926, "\u2581portfolio": 14825, "itemize": 8191, "\u8270\u96be": 19291, "\u5f88\u660e\u663e": 40654, "\u7f38": 62202, "\u2581dull": 27802, "\u6167": 60903, "\u6578": 61344, "\u2581Hydro": 41612, "\u95ee\u9898\u662f": 30886, "nski": 56216, "\u2581secrecy": 49169, "\u2581ext": 1429, "\u2581franchise": 14805, "\u2581Schol": 52661, "VPN": 58079, "\u2581comparatively": 51374, "peg": 19553, "vspace": 6852, "plementation": 23744, "\u2581richest": 49697, "\u2581dump": 10685, "\u2581populations": 14946, "\u2581distribute": 23348, "\u2581melody": 44203, "\u0446\u0438\u0438": 21718, "\u5927\u591a\u6570\u4eba": 36753, "fts": 42401, "\u2581Grandma": 56837, "nTHE": 19371, "\u2581combining": 18403, "\u7a7f\u6234": 51558, "\u2581Toyota": 27539, "\u7eff\u7684": 57069, "\u8138": 60668, "\u4f1a\u5f71\u54cd": 26876, "\u2581spreading": 20287, "\u2581gamer": 47442, "\u2581MLB": 27399, "Tube": 10661, "\u65e5\u62a5\u9053": 47777, "\u2581joking": 49276, "\u2581\u00bb\\": 22760, "\u571f\u5730": 6448, "\u2581Sheet": 46577, "\u641c\u72d0": 44593, "\u7d22\u5f15": 50675, "\u6751\u6c11\u4eec": 55936, "\u76d8\u70b9": 47392, "Policy": 23422, "\u2581fals": 33299, "\u4ed6\u628a": 39493, "\u4ed6\u4eec\u4e5f": 50744, "\u2581hospitality": 28265, "\u2581nomination": 25291, "\u2581imperial": 35673, "Wid": 57551, "mic": 9069, "};\\": 4604, "\u4e00\u7ebf": 10878, "\u6d47\u6c34": 41568, "\u2581call": 1388, "Michael": 36156, "\u2581allevi": 28522, "nEv": 52609, "\u9ed8\u9ed8": 17354, "here": 1473, "\u2581carefully": 10388, "\u2581buddies": 39407, "nperson": 52569, "\u53ef\u4ee5\u6839\u636e": 38481, "\u9577": 60913, "})=\\\\": 24390, "\u696d": 60826, "\u6905\u5b50": 51007, "ancy": 6048, "\u8d70\u8fdb": 11486, "Inter": 9890, "\u7684\u4e00\u6761": 47833, "\u2581Red": 4906, "\u2581decay": 8397, "\u2581tipping": 57674, "\u2581Leonard": 36504, "\u2581sentiments": 48666, "ECTION": 34875, "\u2581illustrations": 31555, "nDon": 10983, "ITCH": 50920, "\u53d8\u5316": 4975, "\u2581space": 2176, "\u7684\u51fa\u73b0": 33061, "oves": 19429, "biggr": 35228, "\u2581timeout": 30809, "\u5347\u81f3": 49108, "nRated": 37563, "\u7684\u540d": 20959, "\u65af": 60147, "\u2581backs": 21554, "\u00f5es": 47098, "Op": 19942, "\u2581(\\": 12472, "\u2581dwell": 29847, "\u62ce": 63772, "nLin": 47653, "\u2581invo": 51438, "\u6cbb\u7406": 8364, "\u8001\u4eba\u7684": 37134, "\u56fd\u9645": 3513, "political": 42792, "\u89e3\u653e": 13716, "\u6b64\u7c7b": 28544, "\u2581Motors": 33170, "\u2581Productions": 48667, "\u2581sovereignty": 39810, "\u5f53\u524d": 7634, "\u2581fermion": 21470, "\u2581loneliness": 58165, "\u60ec": 63805, "\u662d": 62325, "\u7b7e\u5b57": 25647, "crypto": 51502, "\u884c\u661f": 34540, "\u2581liqu": 7740, "\u4f4e\u4f30": 55928, "rill": 36463, "\u8cbc": 63353, "ROM": 33174, "alph": 24167, "nSenior": 53570, "\u2581greed": 20871, "\u2581law": 1979, "\u2581asympt": 12914, "\u5f97\u5230\u4e86": 12109, "Rows": 48561, "\u2581caps": 16330, "\u2581Grand": 8756, "\u2581assure": 25768, "}}+\\\\": 34396, "\u2581intermittent": 56942, "\u2581degree": 4727, "\u2581Ronald": 35109, "\u2581wrapper": 36455, "\u2581\u0440\u0430\u0437\u043b\u0438\u0447\u043d\u0438": 54936, "\u522b\u5885": 33547, "integrated": 54376, "elin": 37953, "helpers": 45239, "O": 59622, "\u2581Florida": 7308, "\u2581nobody": 12643, "\u2581enhance": 8565, "iam": 4714, "ishly": 52105, "\u2581freshly": 37194, "\u5168\u65e5": 40158, "\u2581reflective": 37599, "\u2581buy": 2525, "\u0432\u0430\u043d": 24888, "\u2581Allison": 58398, "\u53d1\u751f\u4e86": 15620, "\u66f4\u5e94\u8be5": 59220, "\u65e5\u6708": 52073, "\u2581href": 4302, "ieve": 13943, "\u2581inherited": 31405, "\u5712": 62135, "ament": 3257, "\u2581FM": 24223, "\u8bd5\u63a2": 50490, "\u2581lane": 18306, "array": 2009, "\u2581trio": 29902, "\u4e0d\u4e00\u6837": 16715, "\u8d54": 60864, "\u4e3a\u5b69\u5b50": 55235, "\u62a5\u9500": 34415, "\u8fd9\u4e2a\u95ee\u9898": 15603, "og": 887, "\u6210\u5c31\u611f": 49819, "\u6a80": 63748, "\u2581Yah": 57950, "orable": 11723, "bsite": 13142, "\u518d\u73b0": 44146, "\u2581Islands": 23574, "omi": 26644, "\u2581impairment": 50928, "\u7403\u961f\u7684": 53768, "\u2581Teresa": 59371, "npeople": 35935, "\u96e2": 62116, "\u662f\u5426\u5b58\u5728": 42986, "\u2581PV": 34983, "\u2581tempting": 40348, "\u57fa\u672c\u4e0a": 13264, "nette": 55808, "\u2581psycho": 48339, "\u7e23": 62241, "request": 7332, "\u2581For": 1516, "\u53d1\u9001": 15277, "\u4ed8\u6e05": 47276, "\u2581br": 2471, "\u548c\u5b89\u5168": 50985, "can": 6420, "\u2581nick": 19625, "social": 21755, "\u2581trough": 55480, "\u51e0\u5341": 18562, "\u6e2f\u53e3": 25849, "\u2581Elementary": 29553, "\u6bdb\u5b54": 52536, "\u0442\u0438\u0440\u0430": 43917, "aid": 3325, "\u5f00\u5e55\u5f0f": 39047, "]{@{}": 48355, "\u2581clustering": 20158, "\u53cd\u5c04": 24049, "\u2581geodes": 26530, "\u2581interacts": 52215, "\u5c55\u73b0\u51fa": 44794, "\u78fa": 63827, "\u2581Lind": 15940, "imp": 15140, "\u6cc4\u9732": 39924, "\u2581mol": 22732, "\u2581dipole": 25793, "\u2581Due": 15921, "\u2581Raiders": 32233, "\u2581RBI": 38937, "\u2581Barcelona": 26635, "\u2581varieties": 22706, "\u2581SEE": 51362, "QD": 56165, "\u2581metall": 14814, "\u2581\u5168\u7403": 49930, "among": 56594, "\u4ed6\u4ece": 45677, "\u2581\u0441\u043b\u0435\u0434\u0432\u0430": 57481, "\u8ac7": 62639, "'_{": 24991, "onents": 3881, "\u51fa\u5177": 15328, "\u2581Schwartz": 51720, "\u5fb7\u534e": 41808, "\u2581inadver": 47856, "MzIy": 24562, "\u73ed\u5b50": 19205, "itu": 39649, "\u2581accus": 25060, "\u2581Kai": 58991, "\u4f1f\u5927\u7684": 24966, "\u2581emergency": 10181, "\u2581glad": 8737, "\u63ed": 61602, "\u2581Reality": 37982, "\u2581paint": 7718, "<|unused054|>": 199, "\u2581indicative": 39762, "\u2581decor": 9642, "\u2581Divine": 38765, "\u2581incredibly": 11275, "\u2581disclosed": 26648, "pillar": 55679, "own": 917, "campaign": 50230, "Jan": 23443, "digit": 37743, "ahah": 42079, "elist": 56961, "\u9187": 61710, "\u2581modeled": 25541, "\u5ea6\u5047": 26064, "\u2581mappings": 52166, "iation": 6003, "\u2581counted": 23899, "\u5728\u4ed6\u7684": 30108, "\u5371\u9669\u7684": 52197, "\u535a\u58eb\u751f": 50192, "nThursday": 16583, "\u88d9\u5b50": 40614, "\u2581name": 1815, "\u6709": 59635, "nPublished": 28857, "nWill": 16305, "nCategory": 58696, "\u2581Rank": 25492, "\u611f\u5e94": 35656, "\u0e19": 63735, "aching": 3913, "\u5e74\u4efd": 53612, "constraint": 42684, "\u2581Ahmad": 46272, "\u2581suggests": 8441, "\u2581nano": 37312, "})+\\\\": 50830, "\u2581mes": 12567, "\u2581Argument": 44205, "\u2581ideas": 4448, "\u2581lettuce": 49649, "*}\\": 3055, "NB": 37207, "\u2581notations": 46082, "\u5e94\u4ed8": 37865, "\u68cb": 61915, "\u2581Sri": 27876, "ME": 10057, "\u2581worked": 3983, "\u2581Case": 13622, "rolet": 38047, "\u63a8\u6d4b": 48347, "\u603b\u7684\u6765\u8bf4": 48936, "\u9a7b\u6751": 36862, "\u2581Hip": 41199, "\u2581unofficial": 51796, "vw": 57913, "\u304d": 63790, "ixed": 9709, "\u60f3\u8fc7": 27799, "\u2581deterior": 26971, "\u2581Can": 2748, "ovsky": 43079, "\u7b5b": 61965, "\u2581International": 5904, "\u58ee\u5927": 31893, "\u2581muscle": 12164, "\u6218\u58eb": 21780, "\u2581unin": 30834, "world": 9577, "\u2581street": 6577, "\u2581homicide": 51575, "\u4e00\u4f53": 12115, "\u7684\u5927\u95e8": 55161, "\u5219": 60173, "\u2581ty": 19731, "\u2581Berlin": 19616, "\u2581couple": 3354, "\u2581quickly": 4125, "\u5f62\u7684": 21446, "\u2581becoming": 7014, "\u0436\u0434\u0443": 21991, "\u544a\u522b": 28040, "\u2581Browser": 50295, "\u5564": 62665, "\u623f\u4ef7": 17321, "\u4ed6\u8981": 43982, "oren": 56857, "\u2581infection": 14237, "induced": 22602, "\u603b\u7ed3": 8232, "diagonal": 35414, "Null": 12478, "\u529f\u8017": 55546, "Qx": 32773, "<|unused057|>": 202, "\u2581cited": 17881, "\u2581Vol": 8721, "\u4e24\u4e2a\u6708": 28455, "<|unused022|>": 167, "\u2581yourselves": 37753, "\u7cbe\u51c6\u6276\u8d2b": 43544, "regions": 57111, "\u4e0b\u4f86": 54354, "\u88c5\u7bb1": 42076, "\u602a\u7269": 50762, "\u2581flakes": 55721, "\u2581villain": 31313, "\u5cf0": 60754, "\u2581perturbations": 21968, "\u2581unhealthy": 34537, "otti": 40845, "\u2581prog": 1593, "gc": 39255, "\u673a\u7ec4": 45553, "framework": 15360, "\u2581ly": 13995, "Project": 14291, "\u6e2f\u5143": 39712, "WARNING": 54783, "\u6587\u660e\u5b9e\u8df5": 53622, "\u2581masters": 28904, "Click": 13488, "icz": 41524, "\u6559\u5bfc": 30400, "\u2581suspicious": 25087, "\u6211\u4eec\u7684": 4423, "\u5e74": 59663, "\u2581sounded": 23978, "\u2581Units": 45350, "\u4e94\u5b98": 53346, "\u7535\u53f0": 38790, "emp": 21098, "\u548c\u738b": 47491, "\u6307\u5b9a\u7684\u671f\u95f4\u5c65\u884c": 44240, "\u2581gre": 18551, "\u2581idol": 39131, "\u2581TCP": 36480, "\u78d5": 63202, "\u2581memorial": 26981, "acterial": 29833, "Report": 24303, "\u2581deeper": 12163, "\u2581reckless": 47337, "MeV": 29751, "\u8b6c\u5982": 45260, "\u4e19\u70ef": 36263, "\u2581recess": 34750, "\u2581Armed": 39435, "ERA": 58981, "tered": 4382, "\u8a31\u591a": 26791, "\u2581enthus": 11298, "\u2581Columbus": 26936, "\u2581Clone": 56193, "\u7956\u56fd": 17820, "\u7ebf\u7a0b": 36348, "ivating": 39489, "Switch": 43558, "di": 7935, "\u51cf\u8f7b": 17658, "\u2581significantly": 6724, "\u0449\u0443": 40598, "\u8fd9\u6b21\u7684": 45102, "subset": 6516, "INGS": 27371, "ila": 12999, "\u2581MBA": 34515, "\u5e74\u548c": 51107, "\u2581adventures": 20847, "pecific": 7922, "\u81ea\u6cbb\u533a": 17478, "\u4e24\u56fd": 24021, "\u03b7": 63538, "\u5c0f\u65f6\u5185": 43061, "\u8ddf\u7740": 13204, "\u6240\u5728": 9528, "IVE": 12429, "rink": 41870, "\u2581consolidated": 53172, "\u2581attributed": 20347, "lie": 22067, "\u2581Mate": 45975, "\u62ff\u7740": 17849, "\u6307\u7eb9": 44055, "shot": 10963, "\u2581earn": 5253, "\u6218\u7ebf": 56493, "iox": 19677, "\u6f14\u793a": 37374, "matching": 51084, "\u2581Tickets": 30924, "iterranean": 29933, "^-\\\\": 43932, "\u5ba1\u89c6": 48171, "noper": 45732, "SW": 19699, "emale": 22482, "fuck": 52407, "analysis": 23644, "\u2581Angular": 56448, "\u751c": 61104, "rowse": 38532, "\u2581Pur": 18046, "\u2581nucleus": 27197, "\u2581torus": 34213, "\u2581adoles": 27443, "AL": 2241, "mare": 22290, "\u8f66\u4f01": 39839, "\u4e14": 60079, "\u2581Murder": 57844, "\u2581Blog": 10346, "tains": 46594, "Boolean": 29904, "\u2581det": 1345, "\u2581amb": 9042, "middle": 23203, "\u88fd": 62372, "\u523b\u610f": 32344, "\u6c89\u6d78": 30581, "estation": 50402, "\u80a1\u4efd\u6709\u9650\u516c\u53f8": 13353, "\u2581aesthetics": 46606, "\u2581Rosa": 49840, "\u2581Hamilton": 8243, "\u5f53\u524d\u7684": 56123, "\u4e4b\u65c5": 24520, "bral": 41184, "\u5f53\u65f6": 4326, "\u2581thous": 5212, "\u2581Miz": 55893, "sequ": 3630, "\u2581Laf": 50047, "\\\"/": 12839, "\u8981\u5bf9": 47458, "\u540d\u58f0": 56115, "nStory": 40266, "\u7814\u7a76\u6210\u679c": 48115, "ailure": 20713, "SB": 21383, "\u2581defaults": 34534, "\u2581conting": 32109, "\u6279\u8bc4": 14767, "MDM": 49088, "sq": 2742, "\u2581Playing": 41382, "air": 1492, "\u043b\u0430\u0433\u043e": 51852, "PA": 6394, "<0x2F>": 352, "\u2581vess": 14148, "\u2581Fixed": 30726, "MjA": 45722, "\u2581fairness": 29163, "\u8bb2\u5e08": 44531, "\u2581recipro": 39708, "\u65e5\u665a": 19573, "\u76d1\u5bdf": 20621, "\u6821\u53cb": 27087, "\u2581dex": 43148, "\u8363\u83b7": 21358, "\u4e3a\u4e3b\u8981": 39592, "\u2581weighs": 38862, "\u5927\u65b9": 33451, "\u2581Finally": 9486, "=\\\\": 1720, ")=(": 25390, "\u2581provide": 2274, "ilities": 3000, "\u56de\u6765\u4e86": 30591, "\u2581missing": 6218, "\u2581performances": 13962, "\u6765\u8bf4\u662f": 53455, "\u2581storyline": 34942, "\u59d3": 61038, "\u538b\u8feb": 38477, "juven": 49509, "\u2581fade": 28927, "\u2581freedoms": 44034, "ashi": 23144, "\u2581Reid": 28231, "\u2581devastated": 45005, "\u901a\u8fc7\u6b64\u6b21": 58024, "\u624b\u638c": 58802, "\u827e": 61353, "HAHA": 49735, "\u2581sells": 23145, "\u5b9e\u8d28": 22863, "\u573a\u5408": 27623, "endment": 12525, "\u2581specs": 30148, "\u2581informative": 21803, "\u2581invariant": 12549, "\u6709\u4f59": 34732, "\u4e0d\u65b7": 35441, "\u518d\u89c1": 37885, "\u53d6\u5f97": 5524, "\u4f5b\u6cd5": 39374, "\u5316\u7597": 41236, "\u2581cyclists": 42860, "\u80af\u5b9a": 6294, "\u2581distributor": 43831, "Acc": 12947, "\u2581Andrews": 44984, "nSubscribe": 25667, "\u2581tablespoons": 47861, "\u7eb2\u8981": 55291, "src": 7927, "\u2581Having": 13653, "\u2581boil": 26542, "\u916c": 62118, ")|\\\\": 29877, "\u600e\u4e48\u529e": 13691, "\u2581Dutch": 18049, "\u5716": 62189, "These": 13888, "\u7b7e\u8bc1": 28878, "nNOTE": 40797, "\u2581climate": 8126, "\u4eba\u529b\u8d44\u6e90": 23712, "\u2581tuning": 22188, "\u2581Reve": 59075, "\u2581ring": 6715, "\u8d77\u4e49": 39925, "\u043f\u0435\u043d": 42320, "ch": 642, "\u52a9\u653b": 27228, "\u7528\u6236": 56457, "\u91cc": 59772, "\u4fbf\u5229": 16418, "\u6307\u7740": 52374, "\u4e00\u53e5": 14806, "\u2581regard": 3594, "\u2581knew": 4400, "\u4f1a\u573a": 44278, "Reuters": 39817, "yx": 48055, "\u627f\u79df": 46654, "\u2581marriages": 38559, "\u6c47\u805a": 33727, "\u2581founded": 13046, "gone": 32260, "\u2581HAS": 38703, "alys": 51117, "\u2581Address": 21122, "\u2581Jan": 3619, "outheast": 21986, "\u8bc1\u636e\u8bc1\u660e": 42220, "PLAY": 48328, "nFollowing": 18278, "\u94f8": 62182, "\u2581advant": 4883, "\u2581exams": 28791, "\u2581collaps": 32083, "\u2581polite": 31081, "\u2581lava": 57955, "\u8e72": 62668, "\u521b\u9020": 6963, "\u5a92\u9ad4": 32190, "Son": 53080, "}^*": 15599, "nits": 23854, "\u2581any": 916, "\u8001\u515a\u5458": 55267, "\u2581automatic": 13719, "kHz": 55671, "visible": 26529, "\u522b\u7684": 12219, "\u4e8c\u7684": 36386, "\u2581relates": 18335, "\u2581Debug": 48427, "};": 12181, "\u626d": 61780, "\u2581Indiana": 17281, "rx": 25728, "\u2581pra": 18061, "ok": 797, "\u2581kilometres": 47679, "\u2581motif": 36130, "\u5e08\u7684": 53078, "\u2581choices": 8324, "OLED": 44219, "\u5171\u548c": 6915, "erring": 42421, "\u75af": 61729, "\u7684\u4eba\u6570": 26853, "\u515a\u98ce\u5ec9\u653f": 44711, "\u798f\u7279": 40651, "+\\": 10836, "\u2581transforming": 31650, "Log": 6254, "eigen": 50690, "\u2581les": 12612, "\u2581vitamins": 31476, "\u5730\u4f4d": 9378, "inging": 31166, "\u8d1f\u503a": 27423, "Detail": 29718, "\u2581Loss": 30080, "ational": 1362, "edges": 25277, "\u966a\u5ba1\u5458": 36572, "\u6709\u4e00\u4e9b": 18032, "\u2581Before": 10460, "plane": 13276, "\u2581corrupted": 39212, "\u77f3\u58a8\u70ef": 58355, "\u2581Saturday": 5342, "lat": 10976, "\u2581inexpensive": 28135, "clos": 6544, "\u2581Phillips": 31306, "\u0449\u0435\u0440": 53325, "\u2581hole": 7072, "ector": 3966, "\u9f13\u52f5": 54424, "\u2581certificates": 29916, "\u4f46\u662f": 1959, "\u2581Play": 5800, "\u2581Altern": 19060, "\u2581\u00a0\u00a0": 51425, "REM": 51868, "\u5f88\u591a": 2036, "\u6708\u5f00\u59cb": 53031, "Emb": 42203, "\u672a\u6210\u5e74": 49308, "\u2581SNe": 48083, "\u2581wakes": 47467, "Secret": 38167, "\u80f6": 61165, "\u4f1a\u5728": 10589, "stein": 12249, "\u4e27\u5931": 28015, "<0x75>": 422, "lymp": 10065, "\u0433\u0435\u043d": 44369, "\u2581Trib": 18108, "\u2581argues": 23808, "Que": 17483, "<0x6A>": 411, "\u5207\u7247": 48577, "refresh": 39908, "\u6eaf": 62570, "Fan": 58325, "\\\\'{": 27560, "\u7ed3\u5408": 4514, "\u548c\u65b0": 33802, "\u2581Re": 1664, "\u2581tourist": 21276, "\u5fc5\u8981": 7617, "String": 3082, "\u2581prototype": 23883, "\u90fd\u5bf9": 58714, "\u2581remote": 9595, "Fields": 29665, "\u2581Hir": 48868, "\u2581Visual": 20863, "\u2581brakes": 31544, "nTotal": 25479, "\u2581ive": 57632, "Mz": 2137, "\u589e\u957f\u7684": 57921, "\u2581Pu": 38174, "\u2581praying": 29835, "\u968f\u540e": 9198, "\u666f": 60240, "\u5b9e\u529b\u7684": 56368, "\u4e13\u79d1": 24347, "\u65f6\u4f1a": 57853, "\u2581gripping": 58765, "\u2581actors": 14980, "\u2581Unless": 18390, "rika": 44848, "\u547c\u5e94": 50086, "\u8247": 62335, "sand": 44785, "\u2581Had": 16787, "chel": 39670, "\u2581realized": 8339, "exico": 57776, "\u2581cultivated": 56809, "\u5316\u7ba1\u7406": 57322, "portfolio": 59267, "\u2581prov": 1218, "PD": 8382, "\u7121\u8ad6": 52607, "Fn": 47553, "\u5b9e\u65bd": 4319, "\u6db2\u5316": 47628, "\u73af\u5883\u536b\u751f": 39623, "\u8fc7\u9ad8": 31433, "\u51e0\u4e2a\u4eba": 45342, "ctr": 15432, "\u897f\u90e8": 18178, "beans": 38082, "\u519c\u8d38\u5e02\u573a": 58209, "\u2581mo": 8136, "\u2581Aub": 32219, "\u5c3a\u5ea6": 46841, "\u540f": 63523, "\u2581browsing": 21935, "\u56b7": 63877, "\u2581Be": 2354, "\u662f\u901a\u8fc7": 29032, "\u5efa\u7b51\u5de5\u7a0b": 51338, "alker": 37868, "\u90a3": 59805, "off": 2869, "\u4ea4": 59877, "\u5723\u8bde\u8282": 50745, "}\\": 712, "\u7cfb\u7edf": 2644, "\u2581testim": 16678, "\u7684\u5417": 56118, "\u2581different": 1376, "\u2581Cooking": 57406, "\u6230": 61689, "\u2581lubric": 43905, "ledon": 57160, "\u519b\u7684": 23847, "ndet": 27986, "\u2581Drag": 31007, "\u2581members": 2788, "\u2581refinement": 38184, "nMay": 10871, "entric": 20378, "Renderer": 33001, "\u5fc3\u8111\u8840\u7ba1": 59071, "\u5fc3": 59712, "\u2581anywhere": 8133, "\u5e94\u7531": 52925, "\u4e0d\u5fcd": 47794, "TN": 55631, "arrow": 2541, "\u2581pregnancy": 14771, "\u5730\u7406\u4f4d\u7f6e": 55037, "oton": 21913, "\u2581Conservatives": 49807, "\u8afe": 63299, "\u2581pun": 7384, "\u5f97\u5206": 23067, "\u2581enabled": 12439, "\u2581nar": 50416, "\u2581guys": 4227, "\u2581vulgar": 51677, "\u9f3b\u5b50": 26908, "asaki": 49839, "avas": 9449, "ids": 2440, "\u2581Hood": 34330, "\u4ea7": 59765, "\u2581divorce": 18320, "\u4e13\u5229": 13496, "\u2581Linda": 30916, "WAR": 32698, "\u8de8\u56fd": 49287, "\u6d4a": 63290, "\u79df\u623f": 32941, "\u4ed8\u6b3e": 18917, "ITS": 17562, "\u2581intermit": 46120, "\u8bf4\u6cd5": 13877, "uci": 53480, "\u2581trips": 14976, "bay": 21786, "\u4e0b\u6765": 4907, "parents": 22724, "BT": 14768, "\u2581Hi": 20623, "\u2581foreclosure": 53729, "image": 6205, "\u2581psych": 7553, "\u8981\u60f3": 20592, "\u7b49\u4f60": 35737, "\u2581disgusting": 37029, "\u2581Mess": 16534, "nDave": 50200, "\u7684\u5206": 29796, "\u9022": 61875, "\u6027\u4e0e": 45448, "\u2581fam": 1551, "\u6211\u5fc3": 41467, "\u2581Us": 6580, "\u624b\u91cc": 22388, "\u4e94\u661f": 36749, "'''\\": 36649, "\u62d0": 62456, "attices": 30302, "\u2581php": 41050, "bundle": 36181, "/)\\": 31913, "\u2581downloaded": 17495, "\u2581smoother": 41992, "\u2581Laboratory": 28052, "\u2581Northwestern": 54169, "\u2581chic": 39165, "\u2581logged": 23464, "\u5e74\u4e86": 42934, "\u2581According": 7660, "\u52d5\u7269": 54568, "elebr": 56099, "\u533b\u751f": 6848, "\u2581socio": 49401, "registered": 47937, "\u2581Lauren": 37535, "\u8bed\u8a00": 6961, "cin": 27163, "\u2581therapist": 28845, "swing": 27877, "Course": 48722, "\u2581quot": 18354, "football": 55144, "\u2581Vancouver": 20721, "\u2581Sirius": 53267, "remove": 12963, "year": 3315, "ates": 1055, "\u2581credited": 31401, "\u2581presum": 17376, "\u2581island": 9740, "iology": 20450, "\u2581Ev": 6874, "\u2581EVERY": 26420, "sons": 38094, "\u2581pleasure": 11410, "\u5355\u4ef7": 41488, "tname": 55107, "nSh": 5978, "\u6700\u521d\u7684": 42746, "oyer": 44139, "\u524a\u5f31": 45820, "\u2581differentiable": 46758, "ielsen": 46754, "nabla": 6000, "\u65bc\u662f": 53474, "\u2581merit": 26205, "\u55d3\u5b50": 57577, "\u00a0": 60305, "\u2581coupons": 34387, "\u2581slave": 21179, "nB": 1230, "\u2581Au": 37972, "\u2581empire": 28986, "\u89c2\u8d4f": 30225, "\u7ec4\u59d4\u4f1a": 53182, "====": 1837, "\u2581\\\\#": 28606, "Bon": 39803, "\u2581losers": 51273, "\u2581absor": 7830, "\u4eca\u540e": 17353, "ousy": 55472, "Yang": 56129, "ncross": 51550, "\u2581Theresa": 57407, "\u2581lightly": 24780, "\u5168\u662f": 29957, "\u2581commonly": 11304, "crew": 51646, "\u2581damp": 19867, "\u2581Nep": 31165, "\u2581rode": 30670, "\u2581MRI": 33760, "\u2581smoothness": 57338, "\u5091": 63925, "\u2581Signal": 45462, "nEss": 47570, "Large": 36560, "nItem": 49956, "\u2581pace": 11778, "\u4f9d\u8d56\u4e8e": 55236, "\u98df\u54c1\u5b89\u5168": 20880, "\u7280": 63350, "\u4f60\u53bb": 33186, "\u2581cler": 36031, "\u7f13\u6162": 25012, "\u2581evaluating": 22884, "}^{(\\\\": 38169, "aders": 25539, "\u555f": 62977, "utation": 57878, "\u57fa\u4e8e": 8505, "\u505a\u5230\u4e86": 32031, "pmod": 43405, "\u2581OWN": 50637, "\u2581guessing": 24528, "\u00ad": 60814, "\u5f00\u53d1\u533a": 21308, "\u72ec\u6709\u7684": 58329, "\u6211\u4e0d\u60f3": 41362, "\u4e07\u7269": 24018, "\u2581moist": 14982, "\u5bf9\u4e2d\u56fd": 25369, "othing": 6086, "\u2581Ashley": 34177, "\u2581Moon": 15137, "\u5bf9\u5b69\u5b50": 34647, "cribe": 15097, "Ar": 3999, "\u4e0d\u5c0f": 48285, "\u2581Belfast": 58095, "\u5f00\u95e8": 27984, "Kn": 55986, "<|unused159|>": 304, "\u2581AND": 6101, "\u2581preferred": 11776, "\u5e74\u540e": 24123, "\u4ec5\u6709": 28636, "\u2581Cad": 30692, "\u5728\u56fd\u9645": 38611, "\u6295\u964d": 46103, "\u679c\u56ed": 53199, "\u5f84": 60965, "\u6208": 62199, "\u2581opio": 44730, "\u57ce\u5821": 48321, "\u6c11\u8fdb": 52462, "\u4f53\u8d28": 26104, "\u201d)": 12339, "Accessor": 58933, "\u2581should": 1206, "\u2581Moto": 48889, "plain": 20617, "\u9ad8\u65b0": 45611, "\u8fc7\u5927": 35419, "\u2581Event": 11745, "\u2581competitive": 9837, "\u91cd\u70b9\u5173\u6ce8": 52972, "\u2581thriving": 38833, "\u4e3a\u76ee\u7684": 49183, "\u2581Ke": 5830, "ract": 1365, "\u8bf4\u6765": 58012, "\u2581incl": 16163, "\u2581Doom": 54862, "\u8bc1\u4eba": 22153, "\u4eba\u4eec\u7684": 22635, "\u591a\u5c11\u4eba": 54674, "\u8bc1\u660e\u4e86": 47779, "\u65af\u514b": 30717, "\u96bb": 63705, "ething": 1570, "\u4f60\u4e86": 36077, "cli": 24478, "nAl": 3731, "Available": 40134, "program": 19204, "\u9057\u4ea7": 19414, "\u7f8e\u91d1": 41324, "\u2581mood": 12692, "\u4ec5\u6b21\u4e8e": 48908, "mlin": 49634, "nCase": 46913, "\u520a": 61436, "\u2581offences": 58401, "ocese": 41068, "metics": 42575, "\u4fc3": 60562, "\u2581Neural": 40190, "destination": 44469, "Rightarrow": 28239, "\u2581Questions": 23294, "<img>": 68, "\u2581Midd": 43955, "\u9752\u5c9b\u5e02": 56824, "\u8bf4\u8bdd": 10900, "\u904b": 61592, "\u2581burger": 36563, "\u5408\u80a5": 22834, "\u2581'_": 47598, "\u7a81\u51fa\u95ee\u9898": 55677, "make": 10439, "\u6d3b\u52a8\u73b0\u573a": 41752, "\u915a": 63436, "\u5e95\u4e0b": 33866, "\u2581endors": 26075, "nlarge": 34940, "\u2581expect": 1922, "\u2581SOME": 50902, "\u520a\u767b": 53911, "\u65e5\u6b63\u5f0f": 55888, "\u2581Hampton": 50079, "\u2581prep": 27662, "\u9057\u5fd8": 43994, "\u77e5\u8bc6\u70b9": 32933, "\u2581rays": 24712, "ongs": 30541, "\u2581Fields": 38254, "\u6211\u4e0d\u4f1a": 45972, "\u5168\u7a0b": 17897, "nBit": 52934, "\u5398": 62112, "\u7f8e\u4e3d": 8511, "\u2581quoting": 49802, "\u4e0e\u4f17": 46779, "\u4f53\u7cfb\u7684": 44933, "\u4eb2\u670b": 54626, "\u2581Charter": 40490, "\u2581magn": 6678, "\u75b5": 63833, "\u4f53": 59743, "\u2581rewarding": 26198, "\u81ea\u4fe1": 12528, "\u2581Arkansas": 26041, "\u2581openness": 50647, "\u2581\u043a\u044a\u043c": 21435, "\u2581voiced": 47565, "\u012b": 63300, "\u51c0\u6c34": 54034, "ammed": 39449, "\u8ba1\u5212\u751f\u80b2": 52103, ")\"": 11412, "aine": 13450, "\u63d0\u53d6": 20321, "\u2581stabilization": 48067, "in": 563, "\u79d1\u7814": 11053, "\u83b7\u5f97\u8005": 56991, "\u5e74\u4ec5": 59563, "\u2581proposal": 10490, "\u0440\u0438\u0441\u0442\u0438": 37965, "CY": 58570, "Pixel": 45579, "parbox": 58366, "\u4e00\u662f": 10198, "\u81f3\u65bc": 45720, "\u2581$[\\\\": 34587, "\u2581Microsoft": 7537, "\u2581exclud": 11302, "\u2581disorders": 19714, "nAir": 34986, "\u2581rec": 1369, "\u5e74\u9650": 37011, "blocks": 33438, "\u2581#": 2829, "\u2581noises": 35312, "\u2581Squ": 26483, "\u2581Baseball": 23479, "nRed": 26949, "\u2581OL": 53408, "AML": 45469, "\u79ef\u6781\u4e3b\u52a8": 56005, "rrrr": 43772, "\u2581liquor": 34470, "\u2581diffe": 52043, "\u7a00\u91ca": 49815, "\u2581weighed": 35757, "isenberg": 35958, "\u6574\u4e2a": 5400, "\u2581eh": 42720, "ntake": 49719, "nmatrix": 57403, "pitch": 57991, "\u7537\u5b69": 14486, "pse": 30848, "\u6e20": 61391, "\u2581craz": 39415, "appl": 13899, "matics": 44935, "\u0442\u043e\u0440": 24358, "\u653e\u5fc3": 17294, "\u5c42\u9762\u7684": 47195, "nperform": 59440, "\u2581concessions": 54789, "\u2581hyp": 6569, "\u2581Trent": 42046, "\u7eb3\u7a0e": 22001, "\u9ed1\u767d": 39993, "\u2581cialis": 56352, "\u5fe0": 61234, "\u2581defendants": 33817, "\u501f\u9274": 25544, "\u2581atoms": 13135, "\u2581observational": 26478, "\u2581unsett": 53190, "\u5c31\u4e0d\u4f1a": 23125, "dates": 20247, "\u5496\u5561": 13455, "\u2581busy": 8041, "\u52dd": 62797, "\u60f3\u5230\u4e86": 53619, "stmt": 40887, "\u7c21\u55ae": 47278, "\u7ea2\u5305": 33460, "-$": 7931, "\u2581amazed": 25274, "\u62c9\u8428": 50279, "\u2581brunch": 55199, "\u2581method": 1857, "\u9886\u5bfc\u5c0f\u7ec4": 25226, "\u4eba\u683c": 27973, "\u2581stating": 20013, "\u2581obese": 44301, "<0x32>": 355, "\u2581lifestyles": 53547, "\u2581needing": 21740, "\u2581clinics": 34287, "\u043a\u0442\u043e": 17526, "Sleep": 56534, "\u2581Britain": 12104, "\u788e": 61284, "\u2581strains": 31312, "\u4e86\u4e00\u79cd": 19141, "nThroughout": 36357, "\u5a5a\u793c": 25294, "\u2581simply": 3107, "\u2581\\\"\\\"": 14653, "\u043d\u043e\u0432\u0435": 28147, "\u6709\u4e24\u4e2a": 26874, "\u8bc0": 62993, "\u2581frustrating": 21294, "piring": 46318, "\u2581investig": 3536, "\u2581causal": 29779, "\u529d": 61739, "celain": 57691, "\u2581Ukraine": 19852, "\u4e2d\u5c0f\u5b66\u751f": 52102, "anga": 20663, "\u2581fancy": 18323, "\u2581payment": 8132, "\u2581summation": 39115, "\u2581Lounge": 48569, "\u8fc7\u6ee4": 20688, "\u2581rand": 3741, "\u597d\u5427": 36206, "\u2581downloadable": 57786, "\u734e": 62318, "\u2581subsequently": 18933, "\u2581jelly": 43275, "\u4e3b\u5e72": 48528, "\u578b\u53f7": 32858, "\u2581forecasting": 44007, "\u2581vegetarian": 31366, "\u2581respecting": 54218, ")=\\\\": 5948, "api": 6813, "\u2581heterosexual": 57035, "\u4e86\u4e00\u6761": 31646, "\u5411\u88ab\u544a": 41708, "nCome": 37348, "\u5143": 59844, "\u043f\u044a\u043b": 28825, "\u66f4\u52a0": 4447, "No": 5720, "\u5362": 61794, "\u6211\u770b": 29765, "\u6bcf\u4e2a\u4eba\u90fd": 30564, "\u653e\u8fc7": 41600, "\u89e3\u6bd2": 46331, "\u2581Import": 22473, "\u2581representation": 6982, "\u62ff\u51fa\u6765": 43113, "\u901a\u5173": 54119, "\u2581inval": 14724, "\u628a": 59937, "\u6b63\u662f": 9524, "\u2581perme": 40015, "\u7faf": 63322, "\u2581launching": 22168, "\u5b89\u5fbd\u7701": 28560, "And": 5151, "\u6c5f\u53bf": 51780, "\u951a": 63477, "\u2581()": 8644, "\u2581lab": 8371, "\u2581carriers": 21543, "\u2581giveaways": 58128, "\u8001\u767e\u59d3": 20242, "\u66f4\u9002\u5408": 51734, "\u2581inserted": 23102, "nAdvertisement": 24674, "figs": 29260, "<|unused011|>": 156, "**\uff08": 52007, "\u97d3": 62726, "\u2581Control": 11287, "tself": 36466, "\u2581examinations": 54272, "\u2581Carter": 20920, "\u5c48": 61682, "\u76ee\u5f55": 22945, "\u5728\u65b0": 21725, "\u2581nem": 41254, "\u857e": 62492, "\u7f14": 62894, "\u6469\u6258": 18614, "\u5904\u7f5a": 10498, "\u2581certification": 21544, "\u2581RSS": 28256, "\u4f20": 59939, "\u6d59": 61221, "\u2581dominant": 13486, "\u2581Evaluation": 38754, "ecycle": 43149, "\u7cbe\u5f69": 10717, "\u2581dum": 46109, "took": 52037, "unless": 28219, "Pred": 31147, "\u2581marsh": 32542, "\u2581bookstore": 51682, "\u0131": 61896, "\u2581bott": 3442, "\u2581indent": 54139, "\u9009\u9879": 23869, "Access": 16110, "Simulation": 50783, "\u2581Focus": 23399, "\u6301\u80a1": 30766, "\u673a\u9047": 17312, "\u673a\u5668\u4eba": 15017, "\u2581homeowners": 30580, "\u56f0\u6270": 25449, "ASA": 39862, "\u2581BIG": 31507, "This": 3355, "\u4eca\u5929\u662f": 44281, "\u2581categor": 19947, "\u2581Billion": 54730, "oger": 52639, "\u7a74": 62114, "\u5173\u5fc3": 11245, "\u2581issu": 49434, "\u2581CEO": 9464, "\u2581Snap": 25110, "\u2581Android": 8045, "repreneur": 42991, "bows": 43422, "az": 1950, "SQL": 14666, "cook": 30088, "casts": 50752, "\u967d": 62415, "\u2581manner": 7525, "\u2581Neg": 24156, "n": 59571, "\u2581genre": 15245, "\u5375\u5de2": 37601, "\u533b\u7597\u4fdd\u9669": 40471, "\u2581THAN": 59429, "\u2581annoyed": 35647, "\u2581Ko": 27322, "\u6587\u5316": 2446, "\u2581shell": 9227, "vious": 1902, "\u591a\u6570": 16688, "Di": 18810, "\u5546\u57ce": 42903, "]_{": 35518, "\u2581betting": 22913, "apanese": 32214, "\u2581inhom": 36736, "\u0442\u043e\u0440\u0438": 37998, "\u5883\u5916": 25432, "\u660f": 62113, "\u2581striker": 37752, "\u5bfb\u5e38": 37732, "\u9510": 61916, "\u8a89\u4e3a": 29727, "\u5ba3\u4f20\u90e8": 32263, "\u2581Programs": 32394, "\u6765\u5230": 8099, "\u2581monitoring": 11952, "\u5f20\u67d0": 24254, "\u65af\u57fa": 32914, "brace": 18878, "\u5cf0\u503c": 43785, "\u2581\u043a\u0440\u0430\u044f": 45781, "\u2581wavefunction": 57651, "\u2581blender": 46939, "\u90fd\u5e02": 20225, "\u2581mildly": 49383, "\u2581supermark": 26739, "\u70bc": 61121, "\u7ec3": 60470, "########": 6363, "\u7709\u5934": 53710, "\u62c5\u5fc3": 9773, "\u8868\u9762": 8635, "uli": 19415, "nown": 4394, "\u52a0\u70ed": 18883, "\u2581aqu": 21091, "WHM": 39715, "\u2581Reed": 28422, "\u2581\u0431\u044a\u043b\u0433\u0430\u0440": 46346, "nUnfortunately": 20233, "nered": 24051, "\u0434\u043d\u0430": 23095, "\u503a\u6743\u4eba": 47816, "\u2581\u0434\u0440\u0443": 21990, "\u5ee0": 62732, "\u4f55\u51b5": 27235, "\u4e5f\u4e0d\u4f8b\u5916": 57298, "\u0432\u044a\u0440": 15161, "\u751f\u6d3b\u4e60\u60ef": 47215, "ilings": 45782, "\u2581Deb": 35277, "\u2581econom": 2814, "\u5171\u7528": 54998, "geometry": 40893, "\u2581wedge": 41171, "\u65e2\u80fd": 46329, "\u76ee\u6807\u7684": 42775, "\u2581Sof": 44544, "\u6240\u4ee5\u8bf4": 25718, "\u2581Pag": 56411, "nPar": 28186, "\u2581settlers": 50363, "\u7687\u5bb6": 33627, "\u0446\u0430\u0442\u0430": 47654, "\u0432\u043e\u0434": 35644, "\u8001\u5934": 42052, "verely": 24103, "\u2581dorm": 27868, "\u2581spikes": 42278, "\u5dee\u522b": 23873, "\u043f\u0440\u0435\u0434\u0435": 41669, "\u2581key": 2433, "\u89c2\u5ff5": 13575, "Alert": 43032, "decode": 34315, "\u7684\u773c\u795e": 49998, "\u8840\u8102": 42012, "\u2581strategy": 5527, "suit": 11505, "\u4f1a\u8bae\u4e0a": 37327, "\u8fd9\u65f6\u5019": 20439, "\u5185\u90e8\u7684": 45683, "akis": 45772, "\u2581gi": 27766, "\u2581paradigm": 27272, "\u2581coordinating": 51185, "cup": 8896, "cret": 3496, "\u2581Female": 39910, "\u2581popul": 38493, "float": 8309, "\u697c\u623f": 55409, "Thursday": 28496, "\u2581dining": 13666, "\u2581marching": 49587, "\u2581isolate": 41369, "\u2581exc": 2228, "\u597d\u5947\u5fc3": 54426, "\u2581Communication": 30286, "\u96f7": 60792, "icular": 11711, "\u2581exceptions": 21765, "\u9175": 62218, "\u548c\u6587\u5316": 42258, "\u2581visually": 26836, "\u519c\u7267": 50736, "\u7684\u65e0": 29756, "\u2581smells": 32416, "\u6d4b\u7ed8": 53790, "\u7279\u7684": 35516, "\u2581troll": 28743, "\u62fc\u63a5": 57755, "<img/>": 69, "\u2581identifiable": 48526, "\u65e0\u8bba\u662f": 12646, "\u53cd\u5bf9": 15175, "\u2581retrieval": 26386, "nMod": 20821, "\u2581Caf": 46050, "\u2581Sachs": 51831, "\u6210\u8bed": 55735, "\u6709\u4e00\u5b9a\u7684": 29010, "\u76f8\u4fe1": 5687, "\u2581arrangement": 17426, "nod": 36177, "\u2581steel": 10605, "\u2581Ready": 34577, "\u2581brew": 16933, "\u517b\u8001\u670d\u52a1": 49331, "\u2581scrambling": 56288, "\u559c\u60a6": 26911, "\u4e3d\u7684": 26995, "layer": 9174, "prus": 44999, ")&": 18581, "\u53c3\u8207": 29586, "nis": 3657, "\u9975": 63570, "\u043e": 59667, "\u8d85\u7ea7": 14065, "\u2581cue": 45345, "\u79bb\u53bb": 44185, "uggets": 46854, "\u2581delighted": 23549, "\u2581Medicine": 16663, "\u043d\u0442\u0438": 29232, "TD": 17468, "\u2581supplying": 37641, "bsites": 47263, "Plan": 21483, "\u043c\u0435\u0442": 44152, "\u6ee1\u610f": 11427, "nWork": 21034, "amma": 1798, "\u63a7\u80a1": 18843, "end": 701, "infl": 26204, "\u2581on": 632, "\u2581mont": 54211, "\u2581\u0441\u0435": 3885, "\u5c31\u50cf": 6929, "nConvert": 56083, "\u2581decisions": 7247, "\u2581McDonald": 28757, "fly": 16771, "\u2581Mix": 23754, "\u6587\u672c": 23884, "\u2581superiority": 46140, "nAround": 51392, "\u2581tant": 32621, "problems": 58369, "\u8af8": 63226, "cribed": 14095, "\u65f6\u7a7a": 31586, "\u767e\u82b1": 51188, "\u2581emp": 8563, "\u2581shipped": 20183, "\u97f3\u6a02": 31988, "\u2581Postal": 57280, "\u5c3d\u804c": 56293, "Algorithm": 39941, "\u8457": 60546, "\u5de5\u59d4": 21415, "\u2581nm": 21235, "\u2581Loans": 53391, "\u56fd\u738b": 26884, "\u7684\u65e5\u5b50": 17839, "\u2581offset": 11918, "\u2581cf": 37847, "\u2581discouraged": 46650, "\u2581Maver": 47876, "\u2581Tre": 8998, "asionally": 47007, "\u4e5f\u5f00\u59cb": 35092, "\u2581newsp": 9281, "orders": 10002, "\u5341": 59898, "\u9047\u4e0a": 44977, "\u2581highlighting": 28886, "\u2581advantages": 14399, "\u4e0b\u73ed": 27450, "\u2581benchmark": 13967, "\u6377": 61421, "syntax": 52879, "si": 13714, "roduce": 46359, "\u2581sab": 29526, "\u2581Xi": 52315, "\u4ed6\u5011": 12527, "Calendar": 51415, "verett": 55423, "\u6a19": 61926, "Ids": 29823, "\u6709\u4ec0\u4e48": 9300, "\u5c31\u6ca1\u6709": 16812, "})}\\": 40510, "\u2502\u00a0\u00a0": 49267, "\u2581little": 1670, "nWomen": 41389, "\u2581ruled": 16655, "\u2581paradise": 39186, "\u7684\u4e86\u89e3": 46369, "idence": 2762, "\u7528\u4e86": 16350, "On": 7423, "\u9001\u5230": 18495, "\u7d61": 63513, "\u2581knots": 36621, "\u5f80\u5f80": 7397, "ninterest": 40269, "\u4e5d\u5e74": 45526, "\u2581affinity": 45520, "balls": 33190, "\u745e\u5178": 37445, "\u2581defining": 16971, "\u629b\u5f03": 31259, "\u2581clut": 48702, "ELS": 45451, "\u4f69\u6234\u53e3\u7f69": 56625, "\u6289": 63885, "\u2581Fool": 51985, "\u51fa\u73b0": 2904, "\u2581che": 1461, "\u2581wounds": 29453, "\u672c\u4f53": 35090, "\u2581Hour": 33688, ")\\\\}": 58417, "\u6c90": 62865, "last": 8775, "\u2581sidew": 21372, "\u2581Pol": 3793, "\u2581constitu": 19691, "\u5c31\u662f\u5728": 21704, "\u5564\u9152": 25713, "\u201c": 59637, "gas": 27511, "\u2581unh": 22155, "\u987d\u5f3a": 51463, "nSpons": 59044, "\u2581recon": 46663, "\u4e86\u591a\u5c11": 50517, "\u7761": 60728, "\u2581everything": 2710, "nEmail": 20314, "\u4e0d\u53d8": 18805, "\u90fd\u6709\u4e00\u4e2a": 49838, "\u80a1": 60137, "\u2581shades": 27057, "\u2581Favorite": 50999, "\u5899\u4e0a": 39242, "\u96fb\u8166": 57417, "MzAw": 20201, "\u2581schooling": 47882, "\u89e6\u52a8": 58713, "\u2581problems": 3097, "})^{\\\\": 54404, "\u72ec\u7279": 11652, "\u540c\u6bd4": 7607, "\u2581welcomed": 23459, "\u2581ignorant": 27777, "\u2581opens": 12602, "\u751f\u6daf": 17870, "\u2581physic": 37287, "\u2581legislation": 10937, "anting": 32096, "\u7559\u8a00": 18585, "\u6670": 61648, "\u00e9n": 49071, "Dev": 13258, "\u62c9\u52a8": 43678, "overn": 5175, "\\\">\\": 2782, "\u5e7f\u6cdb": 9435, "clare": 37730, "hl": 14570, "\u8fdb\u51fa": 36232, "nPrivate": 51858, "\u2581popup": 58271, "andals": 43611, "\u2581regularization": 26292, "\u2581Plate": 45045, "\u51cf\u514d": 48069, "\u2581\u0441\u0432\u0435": 23816, "\u2581durability": 32189, "\u2581floods": 47244, "sa": 16994, "mosp": 7970, "\u4f46\u5374": 25812, "\u2581acids": 27957, "\u75b2\u52b3": 24731, "ustainable": 30892, "\u957f\u6c99\u5e02": 57836, "rivers": 29208, "inals": 10691, "\u2581backyard": 26146, "nTip": 56682, "\u4e2a\u5c0f": 39172, "\u5275\u696d": 59209, "\u2581contem": 9628, "sched": 39272, "\u2581Everybody": 38967, "\u2581trad": 2886, "\u2581se": 720, "\u2581su": 1386, "\u2581placeholder": 33338, "basic": 26473, "tenance": 8862, "\u2581tast": 9776, "\u821c": 63869, "\u610f\u5fd7": 20894, "\u2581Oakland": 24262, "\u5c11\u8bb8": 31232, "\u88c2": 61302, "\u2581ratios": 16845, "\u2581Transaction": 55056, "\u2581markings": 55116, "\u6f02\u4eae\u7684": 35778, "\u044a\u043a": 56144, "\u53ca\u5468\u8fb9": 58638, "\u6559\u5e2b": 40116, "\u2581sid": 16045, "ordinates": 30617, "\u2581Kingston": 55399, "\u2581Luxury": 58558, "\u2581\u6211": 24840, "\u2581HK": 51206, "hash": 14529, "\u2581DON": 38726, "\u89e3\u51b3\u65b9\u6848": 16864, "\u2581dipl": 14774, "\u2581Brook": 12045, "<|unused138|>": 283, "\u65f6\u5e38": 27026, "\u5abd\u5abd": 51138, "\u5d07": 61571, "\u4f9b\u7535": 24868, "\u2581freelance": 31551, "\u2581rotating": 20208, "\u2581dich": 45633, "\u2581Rate": 27270, "\u2581seconds": 6785, "reward": 45044, "site": 10686, "\u2581VAL": 25857, "\u636e\u8bf4": 21926, "<|unused096|>": 241, "\u5f81\u6c42\u610f\u89c1": 44282, "\u6726\u80e7": 56850, "edd": 3678, "edged": 32541, "\u2581async": 19809, "\u2581effectively": 8604, "\u2581circumstance": 40843, "\u6c27\u5316": 11017, "tstd": 46095, "\u82db": 63267, "\u2581BACK": 42961, "\u2581serves": 11278, "\u4eae\u76f8": 25781, "\u957f\u5bff": 36861, "}&=&": 44576, "\u2581Across": 49969, "ayne": 58588, "\u2581hip": 14495, "\u2581claiming": 16504, "vature": 14623, "\u5206\u652f": 37579, "\u8fdd\u7ae0": 49244, "\u7684\u8d8b\u52bf": 46129, "\u5e74\u9f84\u6bb5": 59292, "\u7960": 63377, "\u2581Oz": 31225, "\u2581bonus": 11611, "\u2581musician": 25712, "maximum": 35169, "logs": 29568, "\u56fd\u52a1\u9662": 16169, "House": 36097, "\u2581influ": 4454, "\u2581symptoms": 10206, "\u2581Ham": 5030, "\u63a5\u8fde": 39563, "\u2581Peninsula": 43084, "\u2581realizations": 48053, "\u4f0d": 61048, "Configuration": 16272, "\u2581confuse": 42109, "\u2581flare": 28166, "\u2581accretion": 20318, "\u2581Obamacare": 33022, "\u53e6\u884c": 45551, "nMel": 42055, "\u2581followed": 5549, "\u6e10\u6e10": 15984, "\u2581courage": 17051, "Email": 21723, "\u9762\u5305": 24219, "\u2581Vamp": 40861, "\u2581looked": 4563, "\u4e00\u5343": 33285, "\u2581persistence": 36150, "\u88ab\u76d7": 43993, "\u8001\u662f": 55025, "\u2581subsequent": 12521, "\u53d1\u751f": 2952, "normalsize": 53544, "\u2581they": 838, "\u8bf4\u660e": 6330, "\u2581fastest": 18729, "\u2581receives": 16576, "Women": 52973, "\u2581fict": 25810, "\u2581banning": 42595, "\u60f9": 62476, "\u9886\u5bfc\u8005": 47866, "\t\t\t\t": 123, "\u2581peek": 33767, "\u6346": 63125, "\u2581possessions": 41772, "\u2581phosph": 26353, "pencer": 27264, "\u2581gal": 18218, "nHot": 31701, "\u2581Manila": 51770, "\u8fdb\u4e00\u6b65\u7684": 38543, "\u9ad8\u5cf0": 19098, "fired": 56686, "CPU": 26361, "ps": 1192, "\u2581indigenous": 31389, "downarrow": 16959, "then": 9388, "andin": 47177, "\u2581Hand": 11580, "\u5168\u8fc7\u7a0b": 43169, "import": 8962, "\u2581Calvin": 38804, "\u50cf\u7d20": 27117, "\u0442\u044a": 33649, "getValue": 38086, "Come": 38624, "nOnline": 34721, "\u2581Change": 15588, "\u2581know": 1082, "\u2581'\\\\": 24909, "\u2581Haus": 52566, "azines": 19928, "\u88ab\u5bb3\u4eba": 20630, "\u2581\u043f\u043e\u043b\u0438": 29371, "\u7814\u8ba8\u4f1a": 36840, "ipated": 57957, "\u9774": 63553, "nSoft": 48564, "\u2581tasting": 29739, "\u2581measured": 6917, "\u60f3\u8981": 5525, "\u2581circuit": 10647, "\u6307": 59967, "\u53cc\u9c7c": 40375, "\u6253\u538b": 45243, "\u2581nursing": 18511, "\u2581mosquito": 58311, "undle": 9831, "\u2581radial": 15033, "\u2581undertaken": 32636, "\u8bed": 60196, "\u2581crimes": 14524, "iest": 7420, "\u6b63\u7684": 58256, "Play": 19250, "\u2581lawsuit": 18117, "\u0441\u043d\u0430": 50261, "\u98ce\u7b5d": 53992, "mus": 25243, "setText": 35412, "\u2581Doctors": 47643, "\u83f2\u5f8b": 30260, "\u7ba1": 59854, "arger": 35464, "\u2581percentages": 49741, "\u4e0a\u6765\u770b": 59494, "said": 54705, "\u907a": 63156, "\u7528\u4f5c": 44472, "\u2581PDFs": 48780, "response": 9306, "\u2581Following": 17196, "\u2581multiplier": 46000, "trained": 18644, "\u2581ign": 5032, "\u548c\u5bb6\u4eba": 59140, "\u4e0b\u5348": 7021, "\u2581anime": 24136, "yu": 31584, "<0xE5>": 534, "\u519c\u7530": 37184, "SE": 4190, "\u65e0\u8bba\u5982\u4f55": 42373, "\u53e4\u88c5": 54356, "\u2581GUI": 29868, "\u2581Prad": 35982, "\u5f88\u5bb9\u6613": 13019, "ucas": 38028, "\u2581retiring": 44885, "\u2581SI": 28763, "\u78b3\u6392\u653e": 57227, "\u5e76\u5904\u7f5a\u91d1": 46541, "\u2581their": 881, "arcel": 20138, "htm": 12846, "nco": 30120, "generation": 27341, "midt": 28411, "\u2581territorial": 49425, "\u2581candid": 4628, "\u2581warfare": 32769, "\u2581Boat": 48211, "Okay": 43954, "aaa": 38693, "\u2581launcher": 46729, "\u2581fier": 21793, "\u8521": 61631, "hskip": 33054, "igh": 1119, "\u5c0f\u5fc3\u7ffc\u7ffc": 43330, "\u2581Montana": 30750, "\u2581erupt": 42446, "}^{-": 10178, "\u2581Logan": 36402, "\u2581volley": 40234, "gel": 55263, "\u8339": 63814, "\u2581:": 1759, "related": 7429, "\u2581pocket": 13544, "\u2581squat": 43775, "\u2581GD": 37296, "\u4e86\u4e00\u6279": 47483, "\u7684\u8054\u7cfb": 58717, "\u51e0": 60043, "\u2581curtains": 46240, "eds": 6812, "\u2581attempted": 14550, "\u795d\u8d3a": 39441, "\u539f": 59858, "\u2581omn": 42909, "\u2581rewrite": 28499, "\u964d\u4f4e": 6348, "attribute": 19318, "\u2581rubbing": 41383, "\u2581mask": 10595, "backslash": 26396, "\u2581Lipschitz": 57210, "\u4e0d\u4e45": 13766, "\u96ea": 60721, "\u56de\u590d": 9491, "cers": 11750, "\u8054\u5408": 5777, "\u2581databases": 24171, "\u6746\u83cc": 39429, "\u8f74\u627f": 30491, "\u51fa\u5177\u7684": 32346, "dropdown": 41102, "\u53d8\u7684": 29683, "\u2581him": 1257, "\u7684\u6574\u4f53": 39934, "\u5f25\u9640": 55516, "\u2581approximated": 31207, "\u2581Adv": 11617, "\u2581Jane": 17966, "\u2581tonnes": 43369, "\u2581discrete": 14097, "pc": 6854, "\u2581ambitious": 25275, "attering": 8407, "arser": 18276, "\u2581lest": 53420, "ration": 1920, "\u2581Slo": 31493, "ici": 28709, "Ben": 23286, "\u2581chose": 9682, "\u5144\u5f1f": 12052, "\u043d\u0430": 1298, "\u5408\u7406": 7046, "\u2581merch": 14334, "\u2581c": 575, "\u2581holiday": 8365, "\u2581KS": 48483, "\u2581digestion": 56786, "\u7684\u6210\u957f": 55527, "\u9650\u989d\u5185": 59106, "loud": 59254, "\u2581privileged": 37815, "\u2212": 62138, "\u4ef7\u4e3a": 54384, "\u2581laund": 19080, "\u2581investigator": 41716, "nExample": 35416, "nlayout": 54895, "ucked": 25095, "\u2581Cube": 57876, "\u6c34\u8d28": 33738, "\u7684\u4ea4\u6d41": 57190, "Bucket": 55785, "uary": 4023, "nDespite": 16003, "\u2581consoles": 39848, "\u2581rider": 28839, "\u2581analysis": 3448, "\u4e2b": 62839, "grad": 9473, "\u7b2c\u4e8c\u767e": 20009, "\u5a5a\u540e": 32691, "\u800c\u77e5": 35709, "\u8fdb\u6821\u56ed": 51803, "\u5bcc\u8d35": 36302, "\u2581Win": 11274, "techn": 28401, "Abb": 58886, "\u4e0d\u540c\u7684\u662f": 47380, "\u2581grandfather": 25552, "\u5bc4\u6258": 47391, "nRes": 10352, "\u2581rely": 11508, "\u2581Rocky": 36240, "\u8fc7\u4e86": 10594, "initial": 16867, "alleled": 47658, "$_{\\\\": 22166, "\u8fd9\u4e00\u6b21": 22925, "\u0092": 61846, "<0xB6>": 487, "\u2581Node": 21956, "\u6f6d": 62296, "colum": 12421, "\u4f46\u4ed6\u4eec": 38251, "usters": 23366, "\u4ed6\u4eec\u662f": 31597, "aca": 30977, "\u2581achieve": 4989, "acknow": 22358, "\u2581approaches": 7817, "\u2581pseudo": 19547, "ves": 1649, "\u516c\u5b89\u5c40": 11707, "\u2581Orleans": 19093, "\u7684\u5c0f\u670b\u53cb": 58551, "\u2581fake": 13106, "\u2581pulp": 52251, "\u2581most": 1156, "ppa": 49928, "\u6563\u6587": 29900, "\u2581committees": 36697, "\u2581bs": 54978, "\u2581chocolate": 11557, "\u6848\u7684": 52927, "\u5728\u5bb6\u4e2d": 53741, "\u2581Az": 12337, "<0xBF>": 496, "\u2581excitations": 32618, "\u6211\u4e86": 44861, "\u5355\u4e00": 22508, "\u4ea1": 60884, "\u2581weakened": 44746, "\u9690\u9690": 54880, "\u7b7e": 60557, "\u2581RES": 23411, "\u2581Potter": 26102, "\u9ad8\u5c71": 42604, "\u76ae": 60445, "\u043a\u0438": 2912, "\u6211\u4eec\u628a": 56621, "\u81f4\u529b\u4e8e": 21208, "umped": 35747, "ibe": 49320, "\u603b\u989d": 22707, "\u7ecf\u8425": 5264, "\u5370\u8c61": 11124, "\u2581hil": 21609, "\u2581tempted": 32897, "anya": 45473, "\u2581affected": 8260, "\u2581Wow": 30089, "axter": 55500, "redd": 56958, "\u2581cal": 2138, "\u55b7\u96fe": 53405, "\u0093": 62432, "itch": 2790, "\u2581matt": 21686, "\u2581feels": 7129, "\u2581advance": 7555, "(:": 14558, "bard": 29642, "avity": 54075, "\u5f55\u50cf": 44686, "Rule": 25161, "\u2581scra": 27123, "\u2581posts": 5901, "\u2581consult": 6714, "parts": 31729, "\u2581fracture": 49170, "\u4e07\u5e74": 53017, "\u2581usability": 44817, "\u79c9\u6301": 53055, "\u4e2d\u56fd\u79d1\u5b66\u9662": 58680, "\u2581consistency": 15881, "PCA": 51850, "\u2581restraint": 53097, "itates": 59478, "\u5df4": 60448, "machine": 32651, "oslav": 53113, "\u7eaa\u59d4": 19218, "\u2581Refs": 32875, "anco": 38267, "\u2581earnest": 43600, "\u8bae\u9662": 52242, "gence": 7818, "plot": 8605, "\u8def\u4e0a": 9141, "\u2581configured": 19303, "\u65e5\u5fd7": 32842, "\u4e5f\u7b97": 40635, "\u2581Turkey": 16122, "\u2581Duck": 45029, "WHERE": 54640, "Benz": 57013, "\u0410": 60893, "\u2581[\u2026": 9438, "\u2581upgrading": 30517, "\u9677\u5165\u4e86": 53230, "\u5b9d\u5988": 39522, "\u5e02\u516c\u5b89\u5c40": 23790, "\u5206\u4eab\u4e86": 43111, "Tri": 37132, "\u2581Increasing": 56200, "ride": 6470, "\u5e74\u5168\u56fd": 52689, "\u548c\u53d1\u5c55": 25917, "\u2581unique": 3888, "\u2581jerseys": 47054, "\u5979\u4f1a": 48436, "Wrapper": 28424, "\u613f\u671b": 23891, "\u0447\u043d\u0438": 23456, "holders": 13658, "\u66fc\u8054": 38436, "\u71a0": 63710, "imedia": 44225, "\u5b9a": 59723, "[$": 19688, "\u5728\u6b64": 10212, "\u4e3b\u4e49\u8005": 48676, "\u2581$^": 32854, "\u79c9": 62490, "\u7c4c": 63939, "\u2581generally": 5327, "$\\\\\\\\\\": 21953, "\u2581headquarters": 21862, "\u2581Communications": 22590, "\u5211\u4e8b": 13806, "\u2581buyers": 16008, "\u2581shelves": 26325, "\u2581ferv": 56133, "\u2581classrooms": 37899, "\u2581Respond": 52162, "\u2581ax": 6250, "\u2581aftermath": 33040, "nUPDATE": 42620, "counter": 18462, "ious": 1658, "apon": 32917, "\u800c\u6210\u7684": 51264, "previous": 39406, "\u4e8e\u6240\u8ff0": 57260, "algebras": 57603, "\u91d1": 59850, "\u2581compartment": 37481, "astern": 10911, "\u2581epist": 51525, "\u2581suburban": 36259, "\u2581paste": 17367, "\u6cbe": 62552, "\u5468\u56f4": 11780, "\u533f": 63042, "isheries": 47580, "ften": 15457, "phen": 52182, "\u2581mad": 12707, "\u2581unsafe": 35149, "arian": 6735, "\u2581perfection": 26837, "\u7279\u5b9a\u7684": 34080, "\u2581chem": 5640, "forces": 40110, "\u2581instincts": 47030, "QR": 48576, "\u542c\u7684": 55491, "\u2581enjoys": 21696, "\u4e8b\u52a1": 10708, "\u7684\u4e00\u4e9b": 12245, "OE": 51862, "\u2581Plus": 9958, "\u2581plots": 17424, "\u90af": 63720, "gra": 4041, "\u2014\u2014": 2233, "\u7f69": 61447, "\u2581bursting": 55115, "\u2581lept": 38984, "\u672c\u6587": 13724, "\u2581rules": 4776, "sr": 17203, "\u6d9d": 63769, "ura": 5227, "rab": 6277, "\u6211\u624d": 36410, "tics": 12905, "\u2581autonomous": 28836, "\u2581admittedly": 53344, "\u5de7\u5408": 51005, "They": 7998, "\u60c5\u51b5": 2068, "\u7533\u8bc9": 57383, "\u5feb": 60073, "\u2581copies": 12149, "\u2581Overview": 34178, "\u2581Santos": 58560, "phys": 35066, "\u79c6": 63525, "ysis": 2927, "feature": 16730, "\u2581Typ": 22307, "\u5e0c\u671b\u5927\u5bb6": 34998, "\u2581tra": 1157, "\u2581deterministic": 30706, "ulner": 49188, "nAside": 51317, "\u56fd\u7acb": 51512, "\u2581funnel": 44561, "nAdam": 53831, "\u2581Thailand": 24604, "iku": 56705, "unningham": 58217, "\u2581occurs": 9450, "Iter": 17877, "financial": 53342, "newcommand": 14082, "\u2581trusty": 52666, "Frank": 40721, "\u2581Holding": 58197, "\u2581bum": 38613, "\u2581ori": 8663, "ght": 1498, "\u771f\u662f": 10922, "services": 21540, "\u610f\u6599": 37510, "\u2581Jer": 8327, "\u65b9\u5f0f\u7684": 51236, "\u5145\u6c9b": 53348, "\u65e9\u5c31": 19828, "\u2581confidential": 24477, "SY": 20679, "comes": 9257, "\u2581disturbed": 42451, "\u2581shop": 4203, "potential": 33430, "\u5927\u795e": 54820, "\u603b\u4e4b": 20237, "ierra": 23229, "\u2581program": 1826, "\u6253\u7b97": 15565, "\u2581drilling": 30373, "\u5728\u4e0d\u540c": 52994, "ani": 8918, "\u2581polling": 34404, "Identifier": 31034, "\u2581urges": 48921, "\u2581bride": 30221, "\u515a\u53f2": 21833, "\u2581layers": 8016, "\u2581conservative": 11592, "systems": 45481, "\u75ab": 60277, "\u5760": 62547, "\u2581listed": 6980, "\u2581Letters": 45390, "acious": 37218, "\u2581deploying": 47187, "endif": 12738, "\u2581projected": 16656, "\u2581Raz": 43727, "\u2581unexpl": 47268, "'": 59610, "\u7a4d": 62290, "alloc": 19932, "erving": 25430, "\u2581catast": 26444, "ideal": 41077, "\u521b\u4e1a\u8005": 40249, "ak": 800, "isive": 27079, "\u4e2d\u5168\u4f1a": 45491, "Builder": 11694, "\u0434\u0436\u0438": 44599, "\u2581scholarship": 22803, "\u6dc0\u7c89": 28814, "Inc": 40261, "JPG": 54226, "\u6570\u636e\u4e2d\u5fc3": 56372, "\u6761\u6587": 58609, "\u2581energy": 2112, "\u64c7": 62661, "\u548c\u5e73": 13421, "\u539f\u6587": 32236, "\u2581groove": 38649, "\u2581uses": 4318, "\u91cd\u65b0": 7264, "\u2581Been": 42649, "\u64c5": 62019, "isal": 37529, "\u2581military": 5209, "\u5feb\u6377": 34571, "urt": 4627, "roles": 55972, "ende": 49902, "\u7684\u6536\u5165": 46946, "Remove": 27255, "Was": 50983, "\u2581Whit": 21534, "racted": 17009, "\u8b77": 62110, "\u2581Cit": 32227, "alert": 22634, "\u6761\u7ea6": 44338, "\u8fd9\u5176\u4e2d": 51693, "\u62c5\u8d1f": 57654, "\u50ac\u5316\u5242": 32198, "romagnetic": 14178, "\u8d3e": 61760, "\u7ad9\u4f4d": 40601, "\u2581rebo": 47218, "del": 10833, "\u9669": 60206, "\u6bc5": 61892, "\u2581Diamond": 25877, "\u5f92\u6b65": 40822, "apes": 18699, "Ut": 9433, "\u2581recruiting": 25067, "\u7ae3": 62927, "\u2581states": 3044, "\u827a\u4eba": 31289, "\u2581organized": 10113, "\u4f24\u6b8b": 27853, "hhh": 50376, "proof": 4675, "\u7ea2\u8c46": 58578, "\u53ea": 59866, "ogram": 13227, "\u2581indisp": 51937, "\u2581targeting": 20952, "\u8349\u539f": 24080, "\u90a3\u4f4d": 35336, "scribe": 9064, "\u8f83\u591a": 23907, "\u2581todd": 27598, "\u5361\u62c9": 53754, "\u2581|=": 41291, "\u2581Peterson": 35702, "clips": 45537, "\u4e70\u5356\u5408\u540c": 32429, "\u70ed\u7ebf": 36821, "hed": 1134, "\u5403\u8d77\u6765": 59387, "jac": 31642, "\u2581reconciliation": 41718, "\u8981": 59662, "idable": 38123, "angs": 39982, "\u2581MORE": 23331, "\u2581Lect": 43193, "deploy": 49370, "\u65e5\u8bb0": 27978, "\u2581TE": 17184, "\u8d77\u8eab": 36445, "\u2581second": 1669, "\u2581pict": 3109, "\u2581Cos": 18475, "Friend": 35137, "\u9877": 63069, "task": 13957, "\u70d9": 63848, "<0xE7>": 536, "\u2581keeps": 8841, "\u2581garments": 50444, "\u503c\u5f97\u6ce8\u610f\u7684\u662f": 38305, "\u5bfc\u6f14": 14507, "\u4ef7": 59958, "iso": 20008, "\u2581marry": 23250, "\u96fb\u5b50": 37911, "Story": 57100, "\u70ac": 63857, "\u52a0\u6cb9": 15346, "\u6708\u4e0b\u65ec": 48352, "ery": 1947, "\u2581waves": 10991, "\u2581decide": 6744, "\u2581wrestling": 26506, "nd": 579, "\u51fa\u5165": 27440, "\u6ee9": 62090, "\u2581ripe": 41473, "\u6dee": 62124, "ocide": 33392, "wal": 22251, "\u2581Howard": 17055, "\u2581posted": 6050, "rystall": 54585, "\u2581Ginger": 49101, "\u2581strawberries": 51684, "\u2581Boy": 13132, "\u2581\u0421\u0435": 26191, "UC": 11700, "sensitive": 36888, "ivable": 37388, "pod": 34646, "abetic": 42777, "\u2581sometime": 21581, "nunder": 22668, "opol": 40198, "\u6bcf\u4eba": 28699, "\u2581slug": 51598, "\u9170": 62869, "Fall": 53857, "\u2581Sir": 14687, "\u2581coronary": 58764, "\u7a7f\u642d": 33467, "\u2581wisely": 44081, "\u4fa3": 62242, "\u2581Writers": 41960, "\u65cb\u5f8b": 29839, "\u2581cooperate": 40370, "ucid": 51337, "\u2581conn": 46595, "\u8bed\u6c14": 35894, "history": 23877, "\u2581upset": 13595, "\u2581Frederick": 40707, "\u4f26": 61101, "\u5f62\u5bb9": 20680, "\u5bf9\u4e8e": 2480, "\u2581beneficial": 15716, "\u2581Victorian": 34768, "\u6446": 61083, "MzUx": 33538, "\u2581jeans": 23084, "iscal": 14079, "\u2581sunshine": 34036, "\u7a97\u6237": 31392, "nwithout": 39090, "\u53bf\u653f\u5e9c": 31235, "\u771f\u7231": 38721, "\u2581Writer": 32479, "ouch": 3675, "\u8981\u52a0\u5f3a": 34174, "\u4f46\u7531\u4e8e": 30045, "\u89ba": 61989, "}}^{": 16037, "uddy": 31303, "resize": 21896, "\u2581cockpit": 59311, "\u6d3c": 63532, "zhang": 33582, "\u2581bench": 8971, "\u65e5\u672c\u7684": 34612, "\u2581SPD": 51933, "\u2581wouldn": 4781, "\u2581Fraser": 55359, "\u68af": 61408, "\u4f53\u578b": 54033, "\u2581pests": 58897, "\u6c11\u95f4": 13717, "ippy": 48374, "Schema": 24613, "\u8003\u53e4": 31089, "\u84c9": 62491, "\u2581Cody": 49043, "\u2581bir": 4212, "\u2581inventor": 53543, "\u2581\u0441\u0442\u0430": 15891, "\u7b54\u590d": 36569, "\u89c4\u683c": 24970, "\u2581cell": 3205, "\u2581symmetry": 8815, "sudo": 40959, "\u4f4e\u4e0b": 42337, "\u2581extrem": 4956, "\u2581\u5218": 49072, "\u2581videos": 6498, "\u2581Journey": 36681, "\u2581Joshua": 37381, "\u2581audio": 7973, "\u2581gave": 4184, "\u2581modifications": 21772, "\u2581bottle": 10709, "\u635f\u5bb3": 12922, "\u607c": 61972, "\u5206\u6790": 3653, "config": 5563, "\u2581inhomogeneous": 53046, "conditioned": 53749, "\u2581smiled": 25876, "\u2581Exper": 9715, "\u9274\u4e8e": 27316, "\u2581meteor": 39567, "\u738b\u56fd": 39495, "ADA": 42745, "\u2581real": 1458, "requency": 16219, "Interface": 16906, "\u8fd8\u662f\u8981": 22282, "itic": 29109, "\u6691": 61627, "\u2581Mons": 56377, "za": 6077, "\u2581normalization": 21110, "\u2581sums": 25372, "\u89c4\u77e9": 28594, "\u2581Provider": 46379, "ynchron": 23009, "return": 1588, "enaissance": 40788, "<0x44>": 373, "\u6734": 61804, "ursday": 4929, "Min": 13290, "\u626b\u63cf": 22852, "\u2581cooled": 39604, "\u2581transforms": 30341, "\u2581pharmaceutical": 27370, "archar": 38122, "\u9634\u5f71": 34359, "\u6b63\u503c": 39045, "\u529b\u6c14": 39800, "\u518d\u770b": 41194, "els": 1967, "\u87ba\u65cb": 34303, "izability": 58869, "BE": 10470, "\u2581Bella": 43644, "\u5be5": 63220, "\u2581deputy": 25424, "\u91cd\u4f24": 55770, "\u2581plugged": 35679, "\u5438\u5f15\u529b": 32095, "\u5c31\u8bca": 29993, "\u7ea0\u6b63": 28619, "\u8ba9\u6211": 6840, "\u2581established": 6604, "\u4e3a\u5355\u4f4d": 55860, "\u80ce": 61193, "\u8305": 62094, "\u5408\u4f5c\u793e": 24232, "\u786e\u8ba4": 8597, "\u6c11\u653f\u5c40": 56730, "nCompared": 57030, "bibitem": 46917, "\u9488\u5bf9": 5801, "\u2581Matter": 36394, "\u2581Scot": 12762, "\u2581swipe": 53242, "\u786e\u5b9a\u6027": 57768, "Shop": 43130, "ancel": 19519, "\u2581Icon": 42444, "rose": 18892, "\u2581vector": 5277, "\u519b\u4e8b": 12464, "\u719f\u7684": 58200, "\u2581Funny": 44015, "vehicle": 55538, "\u2581driver": 6456, "\u516c\u6b63": 22176, "\u5730\u6bb5": 54766, "\u5f53\u4ee3": 18207, "enerate": 38736, "ske": 48776, "\u2581immense": 30523, "\u96c6": 60045, "Special": 32326, "mma": 14231, "\u2581Kel": 29929, "\u5931\u4fe1": 56610, "\u2581contradicts": 52068, "\u2581action": 2915, "\u4e24\u70b9": 41321, "\u5de5\u7a0b\u6b3e": 40615, "\u5730\u7684": 10114, "\u4e86\u5927": 32513, "ecause": 3880, "\u2581Venezuela": 35704, "\u2581Faith": 27393, "\u975e\u5e38": 2418, "\u2581distinctive": 24581, "\u2581\u043f\u043b\u043e": 47347, "Aut": 11451, "\u614e\u91cd": 49893, "\u89c9\u5f97": 3174, "\u672c\u7f51": 38598, "\u56ed\u957f": 57142, "\u2581info": 6853, "Sample": 29226, "\u2581Men": 11188, "\u8fde\u63a5\u7684": 46674, "\u2581dont": 11196, "\u2581awful": 17262, "\u4e03": 60483, "\u96c5": 60942, "\u2581ranks": 17787, "<|unused099|>": 244, "\u2581pleasantly": 51817, "\u2581superior": 12059, "\u2581feature": 1856, "Drawing": 32034, "pawn": 56410, "\u2581programmer": 37058, "\u2581ally": 33107, "\u9759\u6001": 42035, "olid": 4200, "\u9280\u884c": 36641, "\u2581approximations": 29360, "\u2581hateful": 55175, "\u67e5\u8be2": 14618, "tration": 33847, "\u2581dispose": 52646, "\u2581tracing": 40310, "\u540d\u8bcd": 34113, "nDay": 25400, "thereum": 41172, "symbol": 26145, "Customer": 39959, "\u5b9e\u5b9e\u5728\u5728": 46149, "\u5fae": 60261, "<|unused046|>": 191, "ems": 8162, "\u2581betray": 26601, "\u5587\u53ed": 41519, "nama": 41539, "\u2581compare": 7271, "\u2581lowers": 54896, "wild": 33980, "\u2581adap": 27951, "sim": 2979, "\u708e\u75c7": 30391, "\u5f88\u96be": 8347, "\u2581dt": 23971, "admin": 12892, "\u4f1a\u662f": 37707, "Loaded": 59200, "\u2581CV": 24460, "\u623f\u8d37": 51516, "anch": 4194, "though": 2715, "coupling": 45960, "\u515a\u6027": 58169, "rus": 20735, "\u2581muon": 35269, "\u2581Himself": 53780, "Mer": 26110, "\u2581occas": 6215, "\u2581owe": 29394, "minster": 37439, "nCent": 42182, "\u6211\u4e0d\u662f": 36127, "npr": 38552, "\u5f62\u6001": 13915, "\u2581bro": 2109, "\u662f\u591a\u4e48": 47062, "prod": 10232, "Don": 9550, "\u4e4b\u60c5": 29910, "inery": 21875, "\u820c": 61978, "\u2581Romance": 55146, "\u65bd\u5de5": 6891, "RNA": 21950, "CHA": 59417, "\u5411\u4e0b": 30398, "nHave": 14696, "ATOR": 37449, "ionization": 43857, "\u2581ce": 9389, "\u51cf\u6392": 47293, "\u2581dam": 3425, "\u5206\u91cf": 55000, "\u2581accelerating": 45604, "\u2581researchers": 9412, "\u2581tied": 12772, "\u96d5\u5851": 34347, "\u2581Chronicle": 40595, "ating": 1162, "\u2581ER": 20748, "nService": 42266, "\u2581american": 41843, "December": 44406, "ctic": 15380, "\u2581dy": 20993, "\u2581Devil": 35874, "\u656c": 61033, "Center": 26518, "Elect": 44673, "zel": 29381, "br": 2085, "\u65e0\u52a9": 56091, "average": 27003, "\u7684\u7b2c\u4e00": 12752, "\u2581XML": 24064, "\u5bf9\u5979": 32516, "\u2581requ": 1417, "\u5b88\u4f4f": 51230, "\u2581center": 4006, "\u4e34\u8fd1": 30811, "\u2581grass": 11951, "monitor": 39602, "\u5e7f\u6c7d": 55209, "\u2581Gateway": 40308, "}}-": 33945, "\u2581slider": 39777, "\u8d22\u653f\u90e8": 44478, "\u5916\u7684": 11026, "\u2581newest": 17980, "\u5566": 61332, "\u2581catalogue": 33092, "point": 3871, "\u558a": 61558, "\u714e": 62285, "\u2581Liquid": 52447, "rc": 3792, "uild": 3137, "Subscribe": 51530, "\u6e05": 60004, "\u2581intrinsic": 19576, "\u9762\u524d": 9909, "\u2581aim": 5098, "Contin": 45458, "nStill": 20659, "nw": 1527, "][\\\"": 40509, "\u62db\u5f85": 52173, "\u4e0d\u8d77": 11265, "\u759a": 63510, "*}\\\\": 53385, "\u5904\u5883": 48629, "\u2581corre": 8421, "iques": 5775, "LAST": 57392, "reasonable": 33262, "\u9707": 60926, "\u2581detailed": 7283, "anted": 12673, "\u6536\u8d39": 15667, "\u5728\u5bf9": 32882, "\u2581Goal": 51829, "\u2581Quart": 55505, "<0x13>": 324, "\u4e0d\u5c11": 5484, "networks": 47071, "\u2581define": 5834, "\u4f46\u662f\u5bf9\u4e8e": 49076, "\u627e\u5de5\u4f5c": 49093, "\u2581cultivation": 55662, "\u7535\u5546": 13341, "\u517c\u5177": 57788, "\u2581stain": 20231, "\u2581FWHM": 55167, "addam": 43545, "\u8611\u83c7": 44504, "\u2581slaught": 58462, "abl": 2556, ">/": 39425, "\u2581security": 3861, "\u96c6\u56e2\u7684": 50494, "\u2581stat": 1712, "icon": 4654, "\u505a\u996d": 29047, "\u5c3c\u4e9a": 22374, "LICENSE": 29828, "\u51fa\u79df\u8f66": 31333, "\u63a8\u5411": 44263, "\u2581Nom": 41153, "\u62a5\u9001": 44231, "nobserved": 50055, "\u4e07": 59941, "\u2581scientific": 8857, "usb": 42540, "\u2581spreadsheet": 45626, "({\\\\": 8076, "\u2581\u0421\u043e": 23158, "\u7279\u8272": 7058, "\u2581simplifies": 51086, "\u2581EE": 40805, "aza": 13526, "\u6597\u4e89": 18294, "\u2581Hillary": 19534, "\u2581Stanley": 24407, "representation": 30049, "\u2581\u672c\u5b9e\u7528\u65b0\u578b\u7684": 36970, "\u540e\u8005": 24280, "\u2581Ghana": 43081, "rsquo": 43408, "tained": 24910, "Func": 28466, "nMc": 25361, "\u2581cruel": 22386, "AULT": 31146, "\u65b0\u6a21\u5f0f": 49595, "subseteq": 12719, "oil": 24902, "\u8003\u70b9": 36303, "\u2581bamboo": 53317, "\u2581phases": 14180, "\u2581\u0440\u044a\u043a\u043e": 59115, "\u2581Obs": 27701, "\u5c31\u4e0d\u662f": 43456, "\u2581FIFA": 39528, "\u7684\u5de5\u4f5c\u4eba\u5458": 35785, "\u6559\u5e08\u8d44\u683c": 54611, "\u5ba2": 60187, "\u2581subsidy": 56781, "\u5374\u6ca1\u6709": 28600, "\u2581field": 1795, "\u771f\u5207": 57656, "nImagine": 42806, "\u2581KK": 57349, "\u2581Pan": 10568, "\u5927\u53d4": 42643, "USY": 36663, "\u2581defect": 12866, "\u2581typed": 37234, "\u0438\u0442\u0435": 31706, "\u6301\u4e45": 37805, "Njg": 56763, "\u2581Nursing": 43579, "\u2581wireless": 11288, "\u2581need": 1049, "\u53cc\u65b9": 5734, "\u2581NLO": 46196, "rinsic": 56379, "\u2581GE": 31880, "gold": 32303, "Statistics": 50082, "^{+": 12058, "buy": 27923, "\u7684\u6001\u5ea6": 18809, "\u7a81\u7136": 6826, "\u2581Tiffany": 54760, "raining": 9677, "\u53f7\u697c": 40649, "\u65c5\u6e38": 4690, "\u6b8a\u4e0d\u77e5": 56822, "\u7269\u4e1a\u516c\u53f8": 53535, "\u2581intended": 7616, "Station": 24903, "rences": 35604, "\u8f6c\u4e3a": 40496, "\u2581clashes": 53955, "sch": 18365, "'))\\": 26720, "\u2581blows": 32801, "\u2581safest": 51742, "\u2581notes": 7460, "\u89e3\u51b3\u95ee\u9898\u7684": 50992, "\u8aa0": 63562, "\u9f7f\u8f6e": 26942, "\u8870\u8001": 33004, "\u2581vanity": 49450, "\u81f3\u4e8e": 9768, "\u2581isomorphism": 27198, "Proxy": 30477, "\u2581coloring": 29427, "\u53cd\u601d": 20599, "\u2581serving": 9478, "\u56de\u6765": 9966, "\u2581coveted": 54030, "\u7a0e\u6536": 22780, "\u7d27\u63a5\u7740": 39281, "\u6691\u5047": 24154, "\u672c\u5b9e\u7528\u65b0\u578b": 17774, "\u4e86\u4e00\u5927": 50262, "ification": 2708, "\u2581economics": 19806, "oyal": 40718, "\u5230\u81ea\u5df1": 56300, "\u2581positioning": 28744, "\u2581Furniture": 45214, "\u6170": 61376, "\u2581Companies": 27970, "\u2581DRM": 46356, "\u770b\u5f85": 24773, "\u2581heroic": 43390, "\u2581Eventually": 26264, "\u2581Full": 11230, "\u2581bosonic": 44969, "heard": 40473, "\u8fd9\u4f4d": 10904, "\u2581Expect": 31895, "\u2581quest": 1748, "\u57fa\u7840": 3457, "\u660e\u786e\u7684": 31497, "\u2581proofs": 31792, "amps": 12498, "\u2581G": 756, "\u2581\u4e3a\u4e86": 45099, "\u751f\u6839": 56205, "\u6653": 61023, "\u51c4": 63315, "\u2581plastics": 56718, "\u83cc": 61058, "nTur": 53715, "balance": 22103, "\u6162\u6027\u75c5": 57797, "char": 7768, "\u63d0\u5230\u7684": 33315, "\u2581instructional": 47829, "flags": 25930, "\u2581Butler": 32718, "\u2581Interview": 40991, "\u043c\u044a": 35680, "\u2581bedroom": 11571, "\u0394": 63763, "Jack": 33266, "scar": 18269, "\u2581af": 23756, "\u8fd9\u53ea": 40783, "\u5b57\u6bcd": 30140, "\u2581Caval": 46450, "\u2581conclusions": 16471, "\u2581symbolic": 27734, "\u2581POL": 36643, "\u2581rooft": 45461, "Sum": 15605, "lll": 52539, "Route": 22326, "\u4e59\u9187": 46124, "\u2581mg": 18857, "\u725b\u903c": 58511, "Availability": 53014, "\u514d\u7a0e": 59058, "\u535a\u5f08": 36900, "client": 8217, "\u5b9e\u9645\u60c5\u51b5": 24181, "\u2581concealed": 40670, "\u2581Squad": 40111, "Research": 51527, "\u60f3\u8c61\u7684": 46796, "\u8f83\u5c0f": 35944, "\u2581overseas": 18928, "\u975e\u5e38\u6709": 31362, "\u2581Sob": 48094, "dule": 6721, "\u2581sl": 1686, "\u5c11\u4e86": 24517, "\u2581Hudson": 28375, "nWarning": 43491, "\u9887": 61944, "\u2581plague": 43066, "\u2581Puerto": 28828, "\u2581sequentially": 53470, "\u89d2\u7684": 41722, "Format": 14780, "\u6cb8": 62550, "HT": 6405, "\u975e\u9057": 33088, "\u8fdb\u6c14": 47096, "\u2581disagreed": 58655, "Ex": 2503, "rise": 24275, "\u2581prevalent": 32751, "\u2581Arbor": 53540, "\u2581Different": 22361, "\u5e26\u9886": 10399, "\u2581Ire": 11820, ")~\\\\": 24855, "EST": 21982, "\u2581dynamically": 31315, "\u2581Elliott": 44086, "\u4fe1\u606f\u548c": 51234, "\u5168\u56fd": 3920, "node": 5650, "MAN": 25689, "\u6bd5\u4e1a\u540e": 28430, "\u8386\u7530": 57979, "lookup": 43546, "\u4e5f\u5df2": 54219, "\u201d;": 43948, "\u7bee\u7403": 18826, "\u2581mechanic": 35330, "nstate": 33367, "abling": 15419, "\u2581dust": 9084, "LS": 8833, "\u2581dram": 9297, "\u5730\u57df": 28751, "\u6848\u4ef6\u53d7\u7406\u8d39": 24573, "(%": 41804, "\u51ff": 63641, "\u2581enemies": 14339, "\u2581vast": 9738, "amaha": 52498, "\u9e97": 62980, "daq": 53026, "$$\\": 4343, "\u665a\u996d": 50706, "\u7941": 63107, "edu": 9484, "\u2581colab": 19040, "\u2581departments": 19684, "\u2581youthful": 46837, "\u2581phenomenal": 40385, "\u4e0d\u4e88": 14106, "\u725b\u8089": 25097, "\u2581beard": 36706, "\ufe0f": 63170, "\u4f0f": 61317, "\u2581Carey": 57024, "\u7b2c\u4e00\u6b3e": 20662, "\u4e2d\u88ab": 44973, "\u2581heed": 52160, "\u4e3e\u884c": 7549, "CALL": 32498, "nTra": 50434, "\u2581reusable": 56324, "created": 17944, "\u2581preventive": 56454, "sw": 2425, "\u7eef": 63959, "\u591a\u9879": 32409, "\u2581Yo": 48974, "\u6316": 61382, "\u770b\u8fc7": 23686, "\u6b3a\u8bc8": 54421, "isset": 35854, "robot": 39613, "families": 50294, "ter": 680, "\u5b54\u5b50": 24426, "\u53cb\u4eec": 49341, "\u9521": 61997, "\u907f\u5b55": 51612, "\u2581Brexit": 34365, "\u8363\u8a89": 15845, "\u2581recur": 22977, "\u2581goddess": 39298, "hover": 37016, "\u4f50": 62240, "\u2581exert": 34619, "\u5e74\u7eaa": 17634, "\u2581Valid": 27221, "\u707e\u96be": 29692, "\u2581Competition": 36690, "checkbox": 42108, "arl": 2380, "isen": 19007, "\u63d0\u524d": 8556, "\u5317\u65b9": 19896, "exp": 5093, "\u2581Cop": 21719, "\u73af\u7403": 36368, "\u72ec\u5bb6": 41134, "nAverage": 40973, "UUID": 51015, "\u2581Miche": 51269, "\u2581MPI": 57075, "){$": 42984, "\u5370\u7ae0": 46925, "\u4e3a\u4f01\u4e1a": 34965, "\u2581remains": 5619, "\u2581semicon": 22995, "<0xAD>": 478, "\u2581impression": 14410, "nessee": 18077, "\u2581Chargers": 49278, "\u4e0d\u4f4f": 10031, "\u7684\u6700\u5927": 31690, "\u7684\u4eba\u6c11": 39475, "Score": 32630, "\u2581We": 1079, "\u2581Heights": 33360, "\u2581routers": 54504, "\u80af\u5b9a\u662f": 29888, "\u2581rated": 18599, "inspect": 53364, "ildren": 7328, "ize": 1167, "\u2581installer": 33737, "Fire": 27177, "\u2581OK": 10819, "\u2581stimulating": 42243, "\u2581Including": 52804, "\u8fa6\u6cd5": 56616, "usercontent": 30175, "\u6444\u5f71": 13639, "\u2581applications": 4951, "\u5f7c\u5f97": 38116, "\u2581baseline": 13201, "\u2581irrespective": 47586, "\u2581Rac": 46287, "\u6f5c\u6c34": 49764, "wa": 11623, "\u5c31\u6b64": 32392, "\u54ea\u513f": 30018, "omega": 2640, "\u2581incap": 33769, "\u2581guarantees": 21611, "\u8ba4\u771f\u5b66\u4e60": 47849, "printed": 41779, "At": 7166, "\u8fd9\u6837\u505a": 27227, "\u4f54": 63505, "\u2581Gren": 57737, "\u6405": 62082, "\u2581feeding": 17126, "ember": 2079, "\u2581suppress": 14476, "\u5ba1\u6838": 14920, "\u2581orientations": 51797, "%;": 20649, "Disc": 18779, "\u2581upd": 4193, "\u2581thermostat": 58432, "\u2581coordinator": 26798, ">\"": 35530, "\u70e7": 60910, "rangian": 19485, "nNeed": 32033, "\u2581Tex": 6298, "ance": 895, "\u0442\u044a\u0440": 24650, "\u2581prot": 2273, "\u4f4e\u4ef7": 39012, "\u53d1\u51fa\u7684": 46811, "\u2581rebound": 39516, "\u6cb9\u4ef7": 30459, "\u4f46\u5979": 32515, "\u2581zu": 54250, "\u2581actually": 2226, "']\\": 17336, "\u4e0b\u964d": 6685, "\u2581mutant": 51066, "\u89c4\u5f8b": 13366, "\u2581provincial": 32929, "\u73ed\u7684": 24522, "\u82af\u7247": 11595, "\u7a31": 61962, "))=": 37087, "\u2581Gender": 49756, "\u2581photometry": 37166, "\u2581\\\"+": 42082, "\u7684\u7f8e\u597d": 45745, "\u651d": 62969, "tfrac": 22134, "\u573a\u5747": 39305, "\u2581bron": 25845, "\u2581admission": 20266, "\u804c\u4e1a\u6280\u672f\u5b66\u9662": 49371, "\u589f": 63971, "\u2581isinstance": 40080, "\u80cc\u666f\u4e0b": 23925, "\u2581Therefore": 6322, "\u2581motorcycle": 26255, "\u2581dd": 51708, "<!DOCTYPE>": 118, "\u5eca": 62064, "\u56de\u5934": 19579, "atherine": 22862, "targets": 57996, "\u2581fashion": 7232, "\u2581wa": 8412, "\u2581preced": 14338, "id": 619, "lot": 29733, "\u2581eggs": 12771, ")}_": 21700, "\u2581tribe": 27739, "\u5728\u8fd9\u91cc": 10086, "\u2581theories": 13041, "dagger": 9423, "\u2581objections": 44747, "\u2581hybrid": 12717, "\u6cbb\u5b89": 24030, "\u2581drainage": 46275, "\u540e\u52e4": 33483, "nobtained": 38853, "\u6df1\u591c": 30767, "vised": 35167, "\u2581Life": 7499, "\u5e7f\u7535": 44530, "\u5185\u6db5": 20958, "\u2581Bou": 23775, "\u542c\u89c1": 33086, "Adapter": 26175, "\u2581reactor": 35343, "\u2581Lieutenant": 53426, "\u670d\u5f79": 54419, "dedup": 1091, "\u751f\u7269": 6499, "kpc": 44820, "\u6577": 62457, "\u5982\u5b9e": 32528, "\u623f\u5730\u4ea7": 10742, "zx": 33500, "\u2581Shin": 42515, "Command": 12519, "\u0431\u0438": 9775, "\u2581AGN": 23457, "nMoreover": 18027, "onia": 21396, "distributed": 49654, "\u6dd8": 61697, "\u2581Chicken": 32510, "\u4e86\u4ed6": 19859, ")]\\": 14641, "\u2581wipe": 28099, "nMedia": 56473, "\u4f1a\u628a": 38379, "tvolatile": 48827, "\u2581miscon": 45353, "\u2581speeds": 18159, "\u2581beverages": 36071, "neapolis": 34506, "\u5171\u8d62": 38757, "essions": 9097, "\u5c06\u6709": 44071, "cycle": 15345, "\u2581Mos": 22772, "\u2581Dim": 58721, "iable": 6282, "\u2581Pil": 22892, "\u2581rew": 58088, "\u7ade\u4e89\u5bf9\u624b": 33318, "\u2581deleted": 17023, "\u2581Mint": 37946, "limits": 10419, "encoding": 42557, "sav": 47515, "\u732b": 61180, "\u65e5\u751f": 45628, "qq": 2220, "\u043e\u043d\u0438": 44573, "\u2581Energy": 10724, "\u7684\u4e13\u4e1a": 24913, "\u62c5\u4efb": 11328, "\u2581multiplied": 39066, "\u51b3\u5b9a": 4575, "\u2581off": 965, "enezuel": 25833, "cnt": 31473, "\u2581infrastructure": 10105, "\u2581Collect": 25425, "\u5e26\u961f": 34900, "\u2581pneum": 49989, "\u5e76\u4e8e": 33044, "\u2581monet": 49755, "\u2581Crash": 56863, "el": 605, "\u540c\u6bd4\u589e\u957f": 13894, "\u957f\u5047": 50740, "\u2581Je": 28853, "ve": 613, "\u2581intro": 29988, "\u6295\u7a3f": 34690, "w": 59589, "\u5f00": 59715, "\u6ed4": 63610, "Global": 21920, "dark": 23320, "\u2581unfolding": 49213, "\u2581unfor": 32097, "Phi": 5193, "\u662f\u6700\u597d\u7684": 49123, "aliation": 51773, "\u2581reporter": 17293, "\\\";\\": 5058, "\u2581propaganda": 25853, "\u4e24\u624b": 53815, "\u2581\u0434\u0432\u0430": 41558, "\u2581pledged": 43964, "drawn": 33675, "\u885b\u751f": 47174, "rather": 49646, "Exists": 45270, "\u2581Drew": 31999, "\u2581prob": 1971, "ictured": 48745, "Ag": 25134, "nOf": 10843, "\u2581Many": 6359, "\u2581J": 841, "\u2581worn": 17174, "\u2581psychological": 18141, "Bbb": 32582, "\u2581proclaim": 38475, "\u5f55\u53d6": 14235, "\u76f8\u5173\u5de5\u4f5c": 48084, "\u53c8": 59995, "\u2581missiles": 34131, "nconst": 8073, "lis": 43604, "AreEqual": 43906, "\u79d1\u6280\u6709\u9650\u516c\u53f8": 27149, "\u917f": 62460, "\u2581recovered": 18313, "Ka": 46039, "/${": 58745, "\u2581slot": 12744, "anks": 2666, "\u2581bike": 8450, "\u2581overwhelming": 15901, "\u593a\u51a0": 37096, "istas": 56440, "))/": 54070, "\u2581shouldn": 9013, "\u4e00\u4e00": 22582, "\u2581behaviour": 10442, "oons": 21641, "External": 40705, "\u5931": 60181, "\u51c6\u5907\u597d": 34188, "\u2581unsure": 30403, "\u4f46": 59784, "any": 1431, "\u2581permitted": 18727, "\u2581partners": 6245, "\u2581believing": 23246, "\u570b\u6c11\u9ee8": 53996, "nWhat": 3057, "\u7231\u4f60": 19778, "\u2581metallicity": 27286, "\u65b7": 62280, "\u2581yield": 6524, "\u8fce\u6765\u4e86": 30101, "\u2581Coach": 21315, "\u63a7\u5236\u7cfb\u7edf": 48209, "ARA": 51867, "\u6df1\u6df1": 16606, "\u2581GN": 18935, "\u6218\u56fd": 51970, "\u2581Tales": 47837, "\u2581Whe": 7560, "\u2581Boston": 10171, "\u2581map": 4135, "valid": 7106, "\u90e8\u548c": 39217, "\u2581Patri": 19471, "tang": 53592, "\u2581dermat": 55459, "ocrat": 41329, "\u5357\u5e02": 57697, "form": 920, "\u88ad": 61557, "\u2581scattering": 10625, "inspace": 46742, "\u2581pollut": 56136, "\u2581staff": 4071, "gov": 11022, "\u6d77\u6c34": 45363, "currently": 56450, "\u2581every": 1142, "icative": 37455, "\u7684\u884c\u4e3a": 13433, "\u2581diligence": 47810, "\u611f\u52a8": 14171, "\u5e38\u8bf4": 55155, "\u788d": 61412, "\u2581Looks": 32994, "\u5947\u602a": 19035, "\u2581subsets": 27022, "zzo": 57860, "rolling": 22293, "\u5e7f\u897f": 15544, "\u5bf9\u539f\u544a": 35393, "\u0440\u0430\u0442\u0430": 23605, "\u2581Clinic": 35127, "\u2581Jacobs": 43890, "\u2581Sunshine": 50697, "\u2581compulsory": 55053, "BERT": 33355, "\u2581Car": 3368, "\u4e00\u4e2a\u65b0\u7684": 48915, "\u5f00\u673a": 52926, "\u2581participant": 22720, "\u2581scholarships": 40850, "\u6bd4\u8f83\u597d": 32530, "\u2581bye": 47988, "min": 1699, "\u2581Spectrum": 52481, "\u2581appointment": 14396, "equence": 24137, "nPr": 15189, "olia": 43571, "ea": 9118, "\u2581views": 6194, "nChe": 26566, "ntypedef": 41285, "\u2581province": 17973, ")\\\\}$": 41157, "\u2581trajectory": 16816, "\u5bf9\u4f01\u4e1a": 53411, "acebook": 4778, "IMO": 43840, "\u4e16\u754c\u676f": 26522, "\u2581\\\"": 820, "\u95ee\u9898\u4e0a": 45284, "\u2581\u041c\u0438": 24906, "\u2581Sharing": 46035, "\u7814\u7a76\u7684": 34447, "\u2581cush": 25573, "\u2581dumped": 36345, "\u8fd9\u662f\u6211": 38131, "osis": 8209, "\u8981\u4e0d": 41976, "nSty": 51712, "\u2581mor": 2882, "ngoing": 50339, "\u2581tissue": 14590, "Authentication": 48318, "\u957f\u5ea6": 22496, "odium": 58488, "\u63a2\u6d4b\u5668": 59538, "erd": 24485, "\u7f16\u53f7": 31856, "nCond": 54494, "ads": 6328, "\u53cd\u5f39": 14674, "dated": 10997, "Deep": 35510, "\u2581criticized": 29681, "rex": 37666, "scores": 48567, "\u4ed3\u50a8": 42839, "bug": 10321, "Patter": 53439, "\u6390": 63648, "\u2581COM": 13473, "none": 10474, "\u4e00\u6c7d": 55632, "\u2581reopen": 58530, "\u2581photographed": 42380, "\u2581services": 2841, "\u2581Corporate": 31616, "\u2581cleared": 21503, "<|unused115|>": 260, "\u00b0": 61349, "\u7fd2": 61748, "astro": 27988, "\u8be6\u7ec6\u7684": 33402, "illet": 42024, "\u660e\u661f": 11335, "\u2581tutor": 45580, "\u2581workouts": 31830, "\u2581enlisted": 53170, "\u6536\u53d6": 20089, "\u4e16\u4eba": 37009, "\u6052\u5927": 26345, "\u2581PAR": 40681, "racial": 49602, "\u2581drap": 57805, "\u5230\u4f60": 48833, "<0xFF>": 560, "mom": 35326, ")}}": 19140, "\u94c3": 62389, "chn": 1647, "\u6210\u529f": 3935, "iosity": 23792, "atype": 46870, "\u7f51\u683c\u5458": 56499, "listed": 25320, "\u4e2d\u56fd\u7279\u8272\u793e\u4f1a\u4e3b\u4e49": 59445, "^@": 38160, "eeee": 46833, "\u4ef6\u7684": 27555, "chie": 3064, "oggle": 39294, "\u2581digit": 17471, "\u7eaf\u51c0": 42957, "\u4e0d\u53ef\u6216\u7f3a": 46786, "\u2581wi": 48243, "\u6709\u5f88\u5927": 52359, "\u2581Straw": 54756, "\u2581codec": 54614, "\u8dcb": 63757, "\u7ba1\u7684": 28438, "\u5b8c\u5584": 7095, "\u2581clone": 26275, "tering": 47068, "\u2581Marriage": 40440, "\u7bf7": 63259, "\u59bb\u5b50\u7684": 53890, "\u2581Lotus": 55810, "\u2581Methodist": 48316, "\u4f9d\u65e7": 11493, "clud": 1037, "\u79df\u8d41\u5408\u540c": 43220, "\u8461\u8404\u7259": 47633, "\u2581manuscript": 20953, "\u2581Michel": 18325, "\u62c5": 60318, "JSON": 19506, "figure": 1845, "\u2581chains": 16998, "\u2581announcements": 34760, "\u4e94": 60098, "\u2581approaching": 20098, "handle": 15724, "Mo": 22665, "tg": 22239, "\u2581coordinates": 11753, "uddenly": 32789, "enny": 48499, "\u2581Meeting": 26960, "\u2581ob": 1109, "<reponame>": 31, "\u2581uniforms": 41993, "als": 1300, "finding": 57877, "\u2581Post": 5412, "ullivan": 29209, "\u90fd\u4e0e": 55494, "\u971c": 62084, "\u2581accordance": 15505, "\u2581FX": 35194, "\u2581classy": 47965, "Sky": 45513, "<0x24>": 341, "buntu": 7773, "\u7cbe\u76ca": 46064, "erialize": 53575, "\u2581\u0441\u0442\u0438": 52875, "\u5e2e\u5fd9": 18597, "\u5e10\u7bf7": 50871, "\u2581logging": 20190, "\u7597\u6548": 33130, "\u2581forest": 12431, "\u2581scanner": 34681, "\u8dcc\u505c": 49544, "\u88d9": 61826, "few": 47927, "\u5c46": 63016, "\u56fd\u5bb6\u548c\u5730\u533a": 56742, "\u4e2d\u5fc3": 2654, "\u61d2\u5f97": 57344, "\u2581alot": 24601, "\u2581Dragons": 49671, "\u2581ge": 4256, "\u2581kinetic": 19436, "dependent": 14066, "\\\\:": 50604, "launch": 36745, "\u2581folk": 21708, "\u2581base": 3388, "\u2581lim": 2032, "ondo": 26858, "\u2581allocate": 40910, "gateway": 59369, "\u4e89\u8bba": 42838, "inline": 20492, "\u2581characterizing": 58101, "\u5239\u8f66": 35629, "\u5929\u4e0a": 41549, "\u2581illusion": 31842, "\u2581herbal": 37205, "\u71c3\u70e7": 20620, "\u57fa\u77f3": 52708, "\u2581secured": 20487, "\u9a97": 61134, "\u5927\u57ce\u5e02": 42360, "\u5bf9\u5e94": 11540, "\u66b4": 60784, "\u2581Illustr": 42504, "rait": 16062, "\u4e0a\u6708": 44588, "\u2581wrap": 17232, "\u9ad8\u9f84": 49136, "soever": 24337, "\u6709\u4e00\u5b9a": 31589, "\u89c4": 59940, "\u7ba1\u7406\u5458": 50605, "\u2581Dum": 50125, "\u2581tang": 13552, "\u2581woes": 58305, "\u6751\u96c6\u4f53": 48651, "\u68f5": 62394, "\u2581Finals": 47878, "\u5978": 62683, "ituted": 51854, "stri": 29843, "\u2581tend": 5646, "ncould": 33752, "\u2581javascript": 45032, "\u043a\u043e\u043d": 46520, "Paths": 57235, "\u90fd\u6703": 42524, "\u666e\u67e5": 35969, "\u2581souven": 59342, "\u57fa\u91d1": 5802, "Such": 41852, "\u2581advertisers": 32957, "[-\\\\": 55830, "\u2581seven": 5807, "\u7eaa\u5ff5": 12539, "nesota": 13650, "\u5e8a\u4e0a": 22085, "\u2581fantasies": 46325, "\u8fd9\u6761\u8def": 58917, "had": 26490, "\u2581{@": 24098, "rices": 10734, "\u6e38\u8bb0": 38380, "\u2581disproportion": 42885, "\u521d\u6b65": 16886, "nFriday": 16221, "\u2581hides": 51768, "\u041a\u0430": 57246, "\u707e": 61032, "\u4e00\u5957": 19925, "\u2581visc": 36329, "\u2581Inner": 49774, "\u60c5\u8da3": 55957, "\u603b\u5de5\u4f1a": 44783, "umb": 3516, "}\\\\}$": 22816, "\u6b27\u6d32": 9088, "\u7167\u6837": 56952, "nFeatured": 50111, "ARD": 15005, "\u8054\u7f51": 6489, "\u044a\u043b": 6410, "\u2581Conditions": 30380, "\u7684\u662f\u4ec0\u4e48": 44934, "Proc": 47868, "sidebar": 57026, "\u2581cattle": 27779, "\u2581partnerships": 28725, "\u77e5\u9053\u81ea\u5df1": 38208, "\u2581PROP": 58995, "\u7b80\u5386": 35667, "\u2581finals": 30323, "\u2581arrival": 13930, "\u4f4d\u7f6e\u7684": 57072, "\u2581McCarthy": 39038, "\u4e0d\u66fe": 49176, "\u2581RPG": 27829, "\u2581upgrades": 24439, "\u2581Unlimited": 47827, "\u88c5\u673a": 49711, "\u2581Wald": 48022, "\u2581relating": 16572, "models": 12864, "under": 5099, "\u2581exhibits": 21779, "ethe": 13003, "OA": 8084, "ier": 1487, "\u5148\u751f\u7684": 29349, "\u2581assumption": 10085, "\u4ed6\u8fd8\u662f": 53180, "\u8574": 62234, "\u2581cleaners": 54526, "\u2581Customer": 20390, "dex": 58636, "\u4e5f\u6709\u4e00\u4e9b": 55583, "oked": 11241, "nthis": 10814, "\u500d": 60932, "nLib": 57129, "\u2581Hawks": 42237, "pty": 6006, "\u64ad": 60556, "\u58e4": 62021, "fficients": 10197, "\u2581Please": 5001, "\u2581Calculate": 32690, "\u2581Groups": 39264, "\u65f6\u5206": 42822, "\u767d\u8336": 37086, "\u2581Initialize": 52832, "\u7406\u8bba": 6687, "\u4f60\u8981": 13382, "\u2581dab": 44849, "\u2581elections": 12859, "\u2581heterogeneous": 41431, "\u5413\u5f97": 50391, "\u4e7e": 62093, "\u4e0e\u53d1\u5c55": 41570, "\u2581interferometer": 54871, "small": 6726, "nHead": 33835, "bucket": 23100, "\u2581Af": 3941, "SO": 12197, "\u8def\u7531": 37255, "\u7684\u6e38\u620f": 42663, "\u2581Fitzgerald": 54146, "\u2581dw": 31113, "^*(\\\\": 44270, "Cart": 35217, "\u65f6\u4efb": 51380, "\u2581peppers": 39893, "\u5c06\u9886": 55547, "\u2581Designed": 44378, "DA": 6424, "display": 6792, "Box": 8402, "\u4e92\u76f8": 13253, "\u6276\u6301": 23058, "\u7aef\u5348\u8282": 44169, "onday": 4384, "nRemember": 23794, "\u505a\u4e00\u4e9b": 35623, "\u89e3\u7801": 53476, "anish": 10418, "\u2581Kl": 28621, "\u53e4\u8001": 41845, "\u2581histogram": 28528, "\u542c\u53d6": 19623, "\u2581Your": 3796, "\u5e95\u90e8": 21537, "\u4e00\u5b9a\u4f1a": 16304, "\u2581Blanc": 56135, "\u5728\u54ea": 42228, "\u5f97\u66f4": 36088, "\\\\+::\\\\+": 58458, "\u4e0d\u4e86\u7684": 56461, "\u7b49\u5230": 17921, "\u7fc1": 62527, "imension": 25103, "\u9009\u62e9\u9898": 47176, "ostics": 30844, "\u2581Legend": 27204, "\u2581Barcl": 57023, "itect": 5013, "\u2581reality": 5877, "\u2581Wagner": 45939, "\u6fc0": 60409, "\u80f3\u818a": 43158, "\u2581reclaim": 50461, "\u0440\u044f": 19594, "\u2581screenshots": 42621, "\u51b3\u8d5b": 14600, "egan": 31066, "\u5821": 61713, "\u2581lent": 40076, "Fit": 35154, "gb": 14309, "\u2581cats": 15184, "\u5b66\u4e1a": 28529, "Split": 34450, "\u73b0\u5b9e\u4e2d": 45232, "\u2581stores": 8351, "\u5b50\u5973": 13506, "\u7c73\u7684": 26945, "\u52a9\u63a8": 28682, "\u2581margins": 29570, "Geometry": 50528, "\u540c\u6837\u662f": 39752, "\u52a0\u6c34": 53789, "\u501a": 63205, "\u2581bottom": 4944, "Lemma": 27453, "\u2581\\\\\\\\": 5259, "<|unused108|>": 253, "-$\\\\": 31801, "ncomp": 31017, "\u2581spokeswoman": 34878, "\u4ee5\u5916": 18263, "compile": 36659, "\u5348\u540e": 44069, "\u5373\u4fbf": 15424, "\u2581WHEN": 53692, "\u2581Mong": 43576, "\u8ba1\u7b97\u673a": 12780, "\u2581arrived": 8572, "\u2581squee": 16385, "\u2581husband": 5865, "\u2581improper": 33261, "\u7b51\u7262": 37046, "\u2581potatoes": 22440, "\u2581bands": 10238, "aligned": 11768, "\u2581controller": 12296, "today": 37076, "\u7269\u79cd": 37198, "Once": 26854, "enic": 48425, "tiny": 17574, "\u2581dances": 49915, "nYear": 52060, "by": 1898, "onded": 13174, "\u2581ids": 56737, "\u8ba4\u4e3a\u662f": 27101, "nwhich": 7033, "\u2581act": 1175, "adapter": 53928, "\u2581whistle": 35718, "\u2581Creates": 53168, "\u600e\u9ebc": 37889, "\u2581Creek": 17972, "\u4e0b\u56fe": 45359, "\u2581bites": 38148, "\u2581hor": 3651, "\u2581graphics": 12251, "nCount": 27892, "ania": 28789, "\u2581often": 2347, "nic": 11897, "\u6123": 62953, "\u2581pressed": 20908, "urchase": 21404, "Allow": 52039, "\u2581Advisor": 50948, "<0x66>": 407, "\u2581liv": 20521, "nac": 33707, "bound": 9019, "\u7f05\u7538": 40997, "MAKE": 48248, "\u2581elit": 58679, "istingu": 48746, "\u708e": 60790, "\u2581talents": 23958, "\u4e86\u4e00\u4e2a": 6560, "\u4e1a\u4f59": 36984, "\u77ad": 63647, "\u2581nebula": 58960, "\u2581\u201c\u2026": 56883, "\u2581jumper": 57063, "\u624d\u884c": 50893, "\u51b2\u7a81": 14778, "\u6e05\u695a": 7036, "\u88fd\u9020": 51487, "\u2581\u041b\u043e": 52968, "\u2581bound": 2956, "\u4eba\u6709": 40428, "\u2581amplitude": 11597, "\u6210\u529f\u7684": 18411, "(['": 25890, "\u2581lenders": 31018, "\u5c71\u6c34": 21933, "\u2581advisory": 31546, "\u043d\u0443\u0430\u0440\u0438": 48888, "udes": 8433, "\u7ecf\u9a8c": 5441, "\u2581jQuery": 51992, "\u4e4b\u8def": 14327, "\u2581cancers": 40180, "\u5929\u4e0b": 11098, "\u8f66\u5b50": 33354, "\u4e0d\u4e0a": 12609, "\u7acb\u65b9": 29841, "\u2581domain": 6038, "jd": 57372, "\u2581additive": 31371, "iller": 8366, "\u6cd5\u6cbb": 14137, "\u2581gravel": 44465, "\u2581Concord": 51656, "\u7cbe": 60028, "\u2581WH": 9679, "install": 9961, "\u2581Deputy": 28119, "\u2581culturally": 48472, "\u2581analogous": 27400, "\u2581guarantee": 10045, "igo": 22699, "\u7684\u8bdd": 4255, "\u6252": 63142, "\u4ecd\u7136": 8173, "\u2581Newton": 19589, "isms": 8106, "\u4eba\u9645\u5173\u7cfb": 56531, "\u2581hinted": 56803, "\u2581margin": 13804, "\u2581equilibrium": 13692, "\u2581calories": 18086, "\u2581Brend": 36417, "\u8774\u8776": 34253, "\u2581movements": 15420, "\u2581Whatever": 22673, "ologies": 6429, "cha": 13966, "\u2581sadd": 34863, "chunk": 38045, "\u2581rend": 10304, "urther": 2251, "\u9019": 60565, "\u2581generalize": 33932, "\u2581typename": 35827, "ension": 2944, "\u2581impress": 5247, "\u2581Der": 20363, "\u2581purposes": 7930, "rites": 27020, "tensor": 23186, "\u2581Shar": 28494, "arity": 15327, "\u7ea6\u5360": 57317, "Lo": 33077, "\u6d77\u53e3": 41522, "\u2581kin": 15408, "\u2581effect": 1646, "\u800c\u662f\u5728": 47559, "\u53ef\u8c13\u662f": 39259, "Layout": 13514, "\u6587\u4ef6\u7684": 59141, "\u2581Stone": 17209, "\u2581reproduced": 30665, "\u6211\u5374": 50449, "matory": 27158, "\u2581knob": 50723, "\u5458\u7684": 31681, "\u76f4\u5347": 38328, "\u2581\uff09": 33224, "}^{-\\\\": 49044, "\u92fc": 63941, "\u8fde\u9501": 34996, "probably": 30623, "\u9f13\u52b1": 9086, "\u91d1\u9ec4": 49504, "\u60b2": 61240, "\u2581Khal": 50379, "\u7687\u5e1d": 13884, "\u2581aest": 18867, "\u2581IQ": 31675, "\u2581citations": 41121, "\u2581firearm": 34804, "\u524d\u6cbf": 29579, "\u2581Indian": 6091, "\u2581amid": 20851, "\u2581Jess": 19761, "\u2581cartridge": 33028, "\u2581Avoid": 33292, "NDE": 44931, "\u2581Its": 7562, "\u2581Presidential": 38259, "<0x6C>": 413, "\u2581sliced": 37490, "acceptable": 29186, "\u665a\u4e0a": 7446, "Ber": 38634, "\u2581tearing": 41674, "\u2581erotic": 40453, "\u5403\u4ec0\u4e48": 45454, "\u5415": 61727, "entially": 5300, "customer": 32509, "\u2581Cord": 35424, "\u548c\u4ed6\u4eec": 43569, "\u6218\u961f": 36951, "\u2581obtaining": 18202, "\u0442\u0435\u043b": 8019, "eron": 13754, "\u7bb1\u5b50": 58775, "\u6572": 61971, "regular": 15283, "\u503a\u6743": 19888, "\u5174\u594b": 18626, "\u2581EVER": 20462, "\u4e0d\u9508\u94a2": 36664, "\u2581stresses": 38497, "\u2581keyboard": 12893, "\u2581subscriber": 36159, "amp": 1629, "ANCE": 22735, "\u2581sponsor": 24839, "\u2581monoton": 36184, "\u65e9\u76d8": 50806, "\u7236\u6bcd\u7684": 24487, "\u2581allergic": 39007, "\u2581noisy": 21768, "\u665a\u671f": 39276, "\u2581Boh": 49367, "jk": 22611, "\u4e00\u4ee3": 14902, "\u2581Pet": 7595, "\u6170\u95ee": 19659, "ons": 1127, "Arg": 16546, "\u2581formulae": 54243, "\u8272\u5f69": 13297, "\u5df2\u7d93": 18076, "\u6700\u5f8c": 26012, "\u4e3a\u672c": 42687, "\u2581shows": 2587, "nGener": 33568, "\u2581wash": 14139, "\u70d8\u5e72": 45681, "\u2581relie": 22844, "PTO": 30003, "ambers": 27863, "<|unused059|>": 204, "<|unused105|>": 250, "\u6c34\u679c": 14096, "\u2581Treat": 17187, "\u2581ray": 23396, "nLogged": 46256, "\u56fd\u5bb6\u7684": 15241, "\u8f93\u9001": 28310, "\u5e8a": 60741, "\u58c1": 61154, "ship": 4936, "\u2581contracts": 14230, "\u90a3\u6bb5": 47595, "\u2581boobs": 44274, "\u308b": 62315, "isle": 29182, "\u2581flow": 3308, "dos": 39679, "orph": 6561, "\u2581teamed": 45673, "\u4eea\u5f0f": 10769, "\u6709\u610f\u601d": 40040, "ulo": 25427, "\u662f\u4e00\u79cd": 8038, "\u2581apert": 27068, "\u2581strateg": 6090, "\u4e00\u5fc3": 27834, "\u77e5\u60c5": 40007, "magic": 48161, "\u78a7": 61904, "aptive": 30784, "\u72c4": 63369, "\u4e4b\u7c7b\u7684": 27084, "separ": 23249, "BD": 7925, "orted": 15191, "\u6211\u73b0\u5728": 26438, "\u5199\u7684": 16773, "\u2581Culture": 24016, "\u2581advers": 14163, "\u2581surpass": 27336, "\u6709\u5927": 33683, "\u9753": 63036, "\u2581ranging": 15579, "\u8282\u524d": 58512, "\u80cc": 60441, "omer": 15920, "practice": 47185, "\u5b58\u5728\u7740": 31252, ";\\\"><": 43934, "\u2581retrieve": 24659, "\u901a\u5219": 59136, "\u2581\u043f\u0440\u0430": 18471, "\u2581adrenaline": 58872, "\u7528\u54c1": 18175, "ele": 2639, "\u2581formula": 7900, "\u5f00\u521b": 32853, "\u2581settle": 14738, "\u689d": 61856, "hether": 13880, "\u2581Catherine": 35174, "\u2581uter": 50201, "\u773c": 60183, "\u2581feared": 34058, "\u91ab": 61693, "\u2581annotated": 37791, "\u2581roof": 11578, "kr": 38128, "RM": 27106, "\u2581instructed": 33890, "\u9001\u53bb": 42812, "\u2581lament": 45306, "\u2581arrange": 9371, "\u2581words": 3151, "\u2581obtain": 2370, "\u2581camp": 5081, "\u53cc\u5b50": 39398, "\u2581sulf": 33017, "coded": 51956, "\u7f8e": 59809, "\u5c71\u533a": 17717, "undai": 42973, "\u7684\u4f01\u4e1a": 17718, "\u2581eigenvalues": 18996, "\u5408\u683c": 12935, "\u6253\u52a8": 45062, "\u5f02\u5e38": 12486, "\u4e00\u540c": 20215, "\u8a00": 60174, "\u7ea2\u8272": 10320, "\u2581pertinent": 44789, "\u4e00\u822c\u6765\u8bf4": 28735, "\u2581factory": 13005, "Encoding": 46054, "\u2581AI": 13821, "\u2581clients": 5747, "\u2581Mountain": 14952, "zheimer": 30408, "\u2581Berry": 30047, "\u4e3a\u7fa4\u4f17\u529e\u5b9e\u4e8b": 57426, "\u2581COMM": 57560, "\u5145\u6eff": 57970, "\u2581LOVE": 22135, "\u2581\u043e\u0449\u0435": 43300, "\u2581perimeter": 41705, "\u2581ins": 1465, "\u2581trunk": 29723, "\u5b8c\u7f8e\u7684": 25556, "\u2581Chrom": 47836, "abled": 5503, "ndis": 19203, "\u2581uneven": 43674, "\u52ab": 62145, "\u2581amendment": 22217, "yml": 46658, "\u516c\u76ca\u6d3b\u52a8": 58851, "\u4eba\u6c11\u7fa4\u4f17": 19581, "\u2581streets": 10872, "\u982d": 61716, "\u2581vapor": 30578, "\u2581Christie": 40147, "\u2581Electronics": 40610, "ensable": 50525, "\u2581closed": 5558, "ERR": 12248, "\u2581\u0448": 44837, "\u8fd9\u4e0d\u662f": 24711, "hibition": 37041, "\u2581deploy": 11463, "\u66f4\u5177": 39504, "\u2581referend": 27692, "\u2581outskirts": 56663, "Student": 48043, "\u6cd5\u9662": 4092, "\u53f0\u4e0b": 57823, "\u8303": 60246, "\u8eab\u5fc3": 21071, "\u2581dog": 5421, "avery": 25124, "\u8fd9\u4e00\u5e74": 34393, "nice": 36777, "\u2581Might": 39999, "Panel": 20279, "\u8fc7\u7740": 50120, "\u4e09\u6b21": 22075, "\u2581inert": 26887, "\u2581Setup": 31953, "kj": 37240, "stead": 36030, "\u81ea\u5df1\u6240": 55071, "\u2581Carbon": 33062, "\u2500": 61490, "\u642d\u914d": 10375, "\u2581Technical": 27750, "\u2581abund": 10687, "\u2581Nurs": 30263, "\u2581CIFAR": 43135, "\u2581biting": 50839, "\u2581Mack": 30511, "\u4e5f\u4e0d\u60f3": 52541, "\u56de\u7b54": 8992, "\u5e08\u5927": 54329, "\u559c": 60209, "\u2581killer": 18428, "\u50b5": 63241, "\u2581Nor": 10240, "bal": 8112, "autoref": 41201, "\u2581continents": 53811, "\u672a\u5a5a": 52461, "\u56fd\u5185\u7684": 39402, "\u2581aggress": 10743, "\u2581interpret": 8668, "aking": 1302, "\u2581course": 2256, "\u2581Exchange": 17882, "\u2581Matrix": 27605, "\u62bd\u70df": 41072, "\u2581executive": 9221, "\u6cb3\u9053": 31529, "\u2581searches": 19005, "thus": 58389, "\u2581remake": 43598, "nOption": 51034, "\u2581Agricultural": 52922, "uous": 9637, "\u2581doubt": 6521, "entity": 13480, "interval": 35171, "itol": 22961, "\u2581grunt": 53363, "\u7684\u738b": 44724, "Pointer": 34143, "\u7740\u6211\u4eec": 50714, "\u2581provisions": 18890, "trigger": 38648, "\u90ca": 62602, "\u2581oversees": 57746, "nMike": 31127, "\u2581Dir": 39383, "\u2581discrimin": 30705, "\u5b89\u6170": 21561, "\u573a\u5730": 22648, "\u2581[-": 29912, "\u2581horr": 23798, "\u5382\u5546": 20251, "\u2581Esp": 49040, "\u2581CRE": 34586, "ocre": 39853, "vantages": 54190, "\u5de8\u5927": 13311, "\u895f": 63809, "itime": 33937, "\u2581UC": 28641, "yet": 35598, "\u79d1\u534f": 57548, "\u6599": 60105, "\u2581Accept": 35925, "\u2581AA": 27783, "\u7164\u77ff": 35736, "\u62ab": 61747, "\u2581Bas": 9138, "oused": 54006, "\u2581LG": 28163, "\u2581nas": 40099, "\u5b66\u4e60\u6210\u7ee9": 51211, "\u2581cookbook": 53722, "\u2581degenerate": 30746, "\u2581Population": 46491, "\u2581Ideally": 50482, "nterm": 55749, "\u2581bishop": 44080, "\u6b63\u5f0f": 6273, "current": 7054, "ICO": 36750, "\u2581pick": 2793, "ruary": 5140, "\u7684\u4e00\u6b21": 23546, "\u2581amer": 26095, "\u2581Thanksgiving": 22303, "\u2581succeeds": 50782, "\u2581DG": 54152, "\u8bf4\u5f97": 43913, "\u7403\u5458": 11127, "\u2581Civil": 13998, "\u2581Nicole": 38473, "\u522b\u8bf4": 39799, "\u4eba\u793e": 31398, "\u2581Sense": 39732, "\u4e2d\u9014": 44632, "price": 16126, "Distribution": 52962, "\u552f": 60952, "after": 9663, "\u4e0a\u8ff0": 5606, "\u2581hitter": 46399, "\u8469": 63527, "\u9019\u4e00": 45396, "panies": 22401, "\u2581optimism": 40849, "itial": 12034, "\u60ca\u4eba\u7684": 50491, "\u5a74": 61690, "\u2581monsters": 26982, "<b>": 71, "\u2581surface": 4013, "also": 17186, "require": 13713, "pires": 23217, "microsoft": 24737, "\u505a\u5f97": 22014, "\u2581gloss": 27567, "\u2581adv": 1819, "\u5728\u5b66\u4e60": 40653, "\u2581conceptual": 30092, "\u6700\u540e\u4e00\u4e2a": 35250, "\u952f": 63359, "\u2581broth": 43180, "\u4e5f\u4e0d\u77e5\u9053": 23739, "tconst": 23674, "\u2581corridor": 39138, "\u2581fax": 45495, "\u0411\u0438\u043e\u0433\u0440\u0430\u0444\u0438\u044f": 47207, "nAny": 8088, "ragment": 30464, "\u2581baseman": 51657, "\u2581Modi": 40363, "vantage": 44421, "\u2581\u0441\u043e": 30050, "\u6574\u9ad4": 52947, "Park": 56408, "\u2581interface": 6780, "pac": 43682, "tests": 23212, "\u6027\u5f3a": 40288, "\u96dc": 63065, "\u79c1\u4eba": 23888, "\u2581ga": 29128, "\u4e5f\u7b97\u662f": 46422, "\u5927\u5bb6\u4e00\u8d77": 47500, "\u2581ille": 8311, "\u6bc1": 61572, "otherwise": 41009, "Tele": 46539, "\u7684\u4e0b": 30642, "\u2581celebrate": 12087, "\u2581desks": 57740, "court": 40500, "\u2581counselor": 41962, "\u2581injection": 20764, "longrightarrow": 23872, "\u2581Communist": 34582, "Expect": 50882, "\u2581Philosophy": 47225, "\u4e0d\u5b8c\u5168": 48957, "\u2581adults": 9585, "\u2581Chop": 59157, "\u2581nightly": 52212, "\u2581oscillations": 24177, "of": 1248, "\u544a\u8bc9\u5927\u5bb6": 58892, "\u4f4e\u4e8e": 13605, "\u2581secrets": 20157, "\u2581pores": 53867, "\u2581Associate": 34197, "\u2581irrigation": 47772, "\u2581evaluate": 9808, "aturing": 35569, "ruck": 41540, "\u2581right": 1288, "scriber": 24869, "Url": 11759, "\u4f1a\u5bfc\u81f4": 24068, "\u5356\u5bb6": 42703, "\u2581together": 2391, "\u043d\u0435": 3432, "\u5e76\u4e14": 4502, "\u2581hell": 8547, "\u2581advocate": 20028, "grpc": 45382, "\u00d7\u00d7": 7723, "\u8fd1\u4ee3": 34274, "\u2581bary": 19974, "\u2581original": 3243, "\u56e0\u5730\u5236\u5b9c": 56304, "\u897f\u95e8": 48264, "\u2581target": 2963, "\u946b": 62235, "\u82df": 63123, "\u6daf": 61849, "west": 9339, "\u52a8\u8109": 24624, "\u7814\u5224": 38813, "\u53c2\u6570": 13906, "located": 41005, "environment": 31047, "\u51e1\u662f": 41518, "nAlmost": 43285, "ceq": 50068, "\u2581blockbuster": 56488, "\u75c5": 60025, "\u2581talent": 9737, "\u62c5\u5fe7": 22944, "\u79cd\u65cf": 34029, "\u2581Division": 13510, "\u2581Phil": 6042, "\u2581criterion": 22719, "\u043a\u043b\u044e": 25563, "olean": 7410, "transaction": 35131, "nSil": 44076, "\u2581alarming": 47447, "\u662f\u5979": 40699, "\u6b64\u6b21": 6310, "\u2581dile": 28821, "living": 42089, "\u2581Dinner": 41898, "\u2581DJ": 18279, "\u2581Licensed": 31922, "\u2581militia": 58002, "\u2581validate": 22304, "\u627e\u4e86": 53320, "KY": 56976, "\u7684\u4e00\u81f4": 38825, "\u524a": 62150, "\u2581Kenny": 39828, "<0x2E>": 351, "ATES": 46967, "\u2581elect": 2103, "\u2581forgetting": 37654, "\u2581Path": 17380, "children": 15039, "mapping": 42374, "IMIT": 30645, "\u90e8\u5206\u7684": 35795, "\u5c0f\u513f": 40831, "\u4e0d\u89c9": 29375, "integ": 28796, "\u5f53\u5730": 6824, "\u4e13\u4e1a\u77e5\u8bc6": 43002, "\u81ea\u5e26": 41721, "\u2581ent": 1331, "\u2581waste": 8043, "\u2581flap": 58424, "nOut": 18921, "nEX": 44042, "\u043b\u0435\u0442": 54039, "\u2581govern": 2059, "restrial": 42482, "\u2581scripture": 44643, "ifact": 36286, "\u2581MU": 31612, "\u2581parties": 7241, "\u2581containing": 8706, "pecifically": 15665, "\u2581ml": 37002, "corollary": 23280, "\u975e\u5e38\u597d\u7684": 47781, "\u60ac": 61597, "\u5f98": 63637, "\u2581argue": 11036, "nwill": 16748, "rov": 31188, "\u6700\u8fd1\u7684": 42490, "\u2581watching": 6014, "\u4e13\u9898": 13673, "nNo": 6182, "IDIA": 33154, "\u519c\u5546": 50236, "\u2581hoped": 18324, "\u4e2a\u4f53": 17832, "\u7684\u653f\u7b56": 33123, "\u2581compromising": 52578, "\u54ce": 62908, "Figure": 13187, "Phys": 19285, "\u886b": 62410, "\u2581battle": 6740, "\u2581indexing": 58247, "\u2581cigarettes": 29941, "\u6b20": 61403, "\u2581perenn": 46744, "\u4ece\u5934": 47119, "\u5fc6": 60960, "\u6211\u5fc3\u91cc": 48589, "\u9886\u519b": 48422, "\u2581consolidation": 42534, "\u2581lounge": 30154, "\u4e07\u540d": 48343, "vanishing": 46038, "\u2581earlier": 4811, "\u8dd1\u6b65": 25842, "\u2581sliding": 25256, "\u6cf0": 60946, "\u2581pend": 51471, "\u2581shipping": 10300, "\u2581determines": 18754, "\u2581sorting": 33654, "preview": 47023, "\u4e00\u6237": 57938, "nName": 20832, "\u5357\u4eac\u5e02": 50984, "\u638c\u63e1": 8056, "ymph": 19515, "\u9e3d": 62951, "ENTER": 39260, "\u2581\u043f\u043b\u0430\u043d\u0438": 48389, "\u7ecf\u8d38": 39070, "\u56de\u6765\u7684": 43170, "\u2581stimuli": 50862, "\u73ed\u4e3b\u4efb": 16266, "\u8f90": 62293, "\u2581ambition": 37638, "\u2581Hero": 19826, "\u2581monst": 54214, "ONE": 9607, "BU": 12207, "\u6eba\u6c34": 42213, "\u2581$>$": 55531, "\u52e2": 62191, "Pr": 8398, "\u2581Moreover": 9747, "\u0433\u0443\u0441\u0442": 45936, "\u2581chew": 47422, "\u7267": 61629, "\u2581treatment": 4539, "\u2581lith": 29802, "\u2581\u0434\u0430\u043d": 46372, "aven": 9134, "\u7f6a": 60576, "\u2581automated": 18731, "\u608d": 63329, "\u2581bis": 27169, "Context": 7195, "maj": 24074, "\u524d\u4efb": 40374, "\u6cfe": 63981, "aci\u00f3n": 29475, "\u2581Kaw": 46444, "<|unused079|>": 224, "\u519b\u4eba": 20808, "\u2581perpendicular": 26047, "TE": 7357, "\u2581Fest": 37204, "\u6587\u660e\u7684": 46979, "\u7405": 63419, "collections": 55437, "\u4e5f": 59688, "\u7a92\u606f": 56242, "\u7ec8\u7a76": 29044, "\u2581strongly": 8474, "\u2581carrying": 11653, "pending": 45373, "\u2581magnet": 11671, ">();\\": 16919, "\u2581pean": 27039, "\u2581mir": 9571, "\u52a3": 61917, "\u2581dirty": 15011, "\u591c\u91cc": 37643, "facebook": 22237, "\u4e5f\u6709": 4715, "\u2581PUR": 35581, "vil": 47482, "\u2581rethink": 58338, "\u8fd8\u4f1a": 10257, "\u2581grim": 38048, "\u2581speed": 3788, "\u2581ig": 59535, "\u2581German": 7762, "\u7684\u4f5c\u54c1": 24250, "gen": 4490, "\u7410\u4e8b": 59282, "\u2581kitchens": 51859, "Liu": 48033, "arding": 16457, "\u5361\u7247": 47703, "\u7530\u95f4": 42672, "\u7f8e\u672f": 14129, "\u6c14\u6e29": 18152, "\u9632\u7ebf": 30993, "finish": 55454, "eem": 26629, "\u5e7f\u5dde\u5e02": 29368, "\u2581WW": 19872, "\u2581Lee": 10046, "motion": 40406, "SG": 41805, "Fix": 35241, "uity": 19018, "\u2581predicted": 10292, "\u2581cameras": 12781, "Break": 38794, "nsaid": 34034, "\u2581hint": 12687, "\u2581veh": 4208, "uler": 13749, "\u2581positively": 26376, "\u53cc\u5b50\u5ea7": 55188, "\u4ea7\u6743": 13262, "Conf": 24535, "nLight": 42920, "\u2581Dynamic": 39320, "\u2581thinkers": 52919, "\u2581TR": 11478, "\u7533\u62a5": 13449, "\u2581Discovery": 33710, "\u6615": 63584, "\u2581epic": 18073, "\u2581french": 43854, "interacting": 50973, "\u2581Story": 14290, "\u54ed": 61216, "nOct": 43488, "\u592b\u59bb\u611f\u60c5": 56645, "Public": 24471, "\u4e00\u8d77\u53bb": 36210, "\u7684\u4e66": 29361, "\u2581densities": 17027, "\u2581isotropic": 28649, "\u60a0\u4e45": 39229, "\u7f06": 62459, "<|unused030|>": 175, "\u5c42\u7684": 18443, "\u2581featuring": 12169, "\u4e0d\u7edd": 36126, "unter": 33855, "David": 28552, "\u2581intentionally": 29499, "\u2581pub": 19412, "\u2581deadlines": 38449, "\u2581HU": 30254, "\u72b6\u6001": 4863, "RIGHT": 36934, "\u2581Elm": 56798, "ndue": 46028, "\u2581predict": 3877, "pled": 5938, "\u4ece\u4e1a": 21590, "vartheta": 24256, "\u677f\u548c": 50281, "\u6cbb\u56fd": 58411, "\u518d\u52a0": 59561, "agents": 58682, "\u6b64\u4e8b": 27737, "\u2581fs": 32116, "\u82f1\u7279\u5c14": 57353, "\u2581fresh": 5196, "\u4ea4\u754c": 58134, "ttry": 43312, "inator": 11325, "<0x71>": 418, "Classes": 47203, "\u5e2e\u6211": 31749, "\u2581few": 1573, "\u2581ensures": 17269, "\u2581impurities": 55984, "nth": 5133, "\u2581hotel": 6622, "\u2581repeats": 47840, "\u2581isotopes": 56198, "\u5c31\u8d8a": 39198, "\u2581Republican": 8459, "\u2581startup": 20379, "Config": 6713, "\u2581embarrassment": 45736, "\u2581resumes": 59081, "\u2581Michigan": 11052, "\u2581MeV": 20022, "\u2581Scholarship": 49423, "Clone": 54209, "\u2581championships": 38630, "ema": 24833, "Sat": 34562, "uting": 11457, "urations": 12333, "\u2581Unfortunately": 11320, "GB": 6021, "esides": 8577, "\u2581AC": 12663, "\u751a\u81f3\u662f": 25343, "\u2581Fram": 58756, "\u2581Eastern": 14303, "\u4e3a\u4ec0\u4e48\u4f1a": 35971, "\u2581pirates": 51659, "reset": 21810, "\u7981\u5fcc": 43952, "ouin": 51955, "\u2581equ": 1545, "\u5f97\u76ca\u4e8e": 40793, "\u72ec\u81ea": 23962, "\u5c0f\u4f19\u4f34": 26766, "\u516d\u6761": 44720, "\u2581oversight": 30867, "\u2581Buffer": 55172, "\u5728\u8fd9\u65b9\u9762": 56683, "\u7c7b\u578b\u7684": 24768, "\u2581HOW": 34832, "KE": 7884, "\u52a0\u5bc6": 23843, "\u2581Ste": 3273, "\u2581Medicaid": 26937, "\u2581magnetic": 5368, "\u2581Campus": 34057, "itures": 41440, "Sol": 42996, "\u2581experimentally": 27046, "OVER": 41797, "\u9897": 61244, "\u2581Store": 12299, "ipple": 37660, "\u81ed": 62039, "death": 40969, "\u53c8\u662f": 14223, "\u2581drawings": 24170, "\u2581belts": 42363, "igations": 58242, "\u2581<<": 7488, "\u901a\u8def": 56120, "\u8046": 62870, "(|": 26915, "\u5411\u6765": 46669, "Found": 19219, "iew": 3539, "fashion": 34108, "\u6700\u6df1": 55444, "bow": 12551, "<|unused070|>": 215, "eer": 8926, "owns": 32936, "\u2581XXX": 47018, "format": 7431, "EventHandler": 55629, "\u2581relevant": 5878, "elia": 38774, "\u2581outrage": 23029, "\u961f\u5458\u4eec": 41112, "\u2581Embassy": 43977, "\u2581Battle": 16647, "\u75db\u82e6\u7684": 56406, "\u4fed": 63018, "\u2581npm": 49955, "\u2581col": 1165, "\u4e5d": 60532, "\u5598": 62455, "\u2581thumb": 17942, "\u2581portfolios": 50464, "\u2581RO": 20718, "\u2581\u0432\u044a\u0440\u0445\u0443": 52977, "\u2581blob": 51365, "\u2581strand": 24513, "\u2581Boot": 23290, "\u4e2d\u56fd\u5bb6": 55264, "\u94a2\u6750": 48326, "\u2581hardness": 52626, "\u7406\u8d54": 40804, "irk": 14127, "\u80e7": 63875, "ara": 5385, "\u2581Thomson": 48749, "\u2581saw": 3634, "\u2581arm": 6144, "\u2581advocacy": 28082, "^^": 17764, "aughter": 21574, "ymphony": 40989, "urer": 19156, "\u8336\u7684": 54245, "oting": 10137, "\u2581replacement": 10727, "electric": 39758, "\u6467\u6bc1": 43357, "Further": 39695, "\u676f\u5b50": 57289, "\u6ee1": 60182, "\u2581chronic": 16424, "imates": 34814, "\u2581Psychology": 38968, "cccc": 13635, "\u4f24\u53e3": 31967, "&=\\\\": 22815, "\u2581Bil": 45826, "\u6bcb": 63725, ")]\\\\": 58357, "\u80fd\u591f": 2880, "\u2581Requ": 12246, "attributes": 29528, "Alex": 34374, "ERC": 52030, "\u2581inspect": 11009, "\u2581depths": 30097, "\u2581playoff": 21673, "\u56f0\u5883": 22463, "\u5c3d\u65e9": 43495, "\u53ea\u8981": 5045, "isc": 5825, "vskip": 23278, "\u2581registering": 39254, "\u8d35": 60607, "\u2581Lights": 39747, "\u2581tissues": 30372, "features": 23901, "nAL": 44232, "\u535a\u4e3b": 54536, "\u2581burnt": 37668, "\u57f9\u517b": 5704, "\u2581api": 28257, "None": 13030, "eth": 1051, "\ub2c8\ub2e4": 40979, "uttering": 53042, "idding": 18798, "\u5927\u4e09": 57459, "\u6536\u5230": 11541, "bon": 5460, "\u6c49\u5b57": 35829, "\u4e89\u593a": 30417, "ots": 1463, "\u2581cracks": 31991, "\u4eb2\u8fd1": 37444, "\u8fd9\u4e2a\u4eba": 25617, "\u4e8e\u672c\u5224\u51b3\u751f\u6548": 41003, "enario": 30351, "Words": 46834, "\u2581defended": 33244, "mob": 40290, "\u79bb\u5a5a": 10541, "\u2581belt": 15664, "ellite": 36553, "ias": 6922, "\u6307\u5b9a": 18121, "{%\\": 50302, "\u9ad8\u6602": 57007, "\u6574\u987f": 30562, "\u96c6\u4e2d": 6590, "\u2581bom": 19287, "nadd": 26807, "\u2581developer": 12259, "\u2581Generator": 49917, "\u2581Replace": 51131, "\u2581CAT": 55832, "\u96c7": 62330, "rivacy": 12931, "navailable": 52527, "\u4e73\u623f": 38022, "\u53d1\u4f5c": 30342, "rotate": 36268, "\u9694": 60824, "Failure": 45046, "\u7fc5\u8180": 39483, "\u2581&&\\": 28361, "\u8bf8\u5982": 34235, "\u4fca": 61545, "\u4e00\u6279": 16454, "\u2581Maxim": 48254, "\u6b64\u5904": 40430, "\u8096\u6218": 58742, "mult": 4276, "\u52a8\u6f2b": 31296, "IFT": 35675, "\u2581vectors": 11888, "ilant": 57924, "\u2581contacted": 19220, "\u8718": 63296, "\u6ca1\u6709\u4eba": 18448, "\u2581rough": 7309, "\u2581stole": 30456, "questions": 9349, "\u2581Initi": 28446, "ceed": 3660, "ste": 7318, "\u2581twisted": 24317, "\u2581terrorism": 20527, "\u2581Nepal": 39436, "\u822c\u7684": 24150, "heart": 15763, "\u4e0e\u4e4b": 31316, "\u7076": 62614, "\u2581flawless": 48283, "\u2581DM": 15331, "\u0444\u043e\u0440": 31664, "\u2581Lup": 50583, "\u2581Iv": 43757, "\u2581Mo": 7065, "\u2581radiation": 10471, "\u59ff\u52bf": 27647, "nDesign": 42047, "\u6070\u5f53": 39306, "\u2581oriented": 22444, "\u7f13\u5b58": 46978, "\u737b": 63284, "\u59d4\u54e1": 27388, "\u2581easing": 49513, "\u0433\u0438": 8594, "\u2581Senior": 17372, "\u2581built": 4188, "maps": 27525, "\u2581AFM": 59364, "\u2581Rodriguez": 34981, "\u89e6\u53ca": 44218, "sl": 4157, "\u518d\u6b21": 6762, "temperature": 26626, "\u70ab": 62741, "\u2581Guy": 22943, "\u6d77\u5173": 26773, "\u2581John": 3074, "\u2581counts": 13034, "\u2581released": 4624, "\u53cc\u773c": 35640, "\u51fa\u4e8e": 20644, "ypes": 9170, "\u2581Raw": 28933, "\u5f55\u5236": 40622, "scalar": 35873, "\u5927\u4f17": 12316, "ustain": 22899, "\u2581heated": 21253, "\u2581deaf": 35473, "slow": 41921, "\u975e\u6cd5": 12681, "\u4e0d\u5177\u5907": 47569, "\u2581tracker": 39709, "\u2581window": 5321, "neighbor": 48748, "\u96c6\u56e2\u516c\u53f8": 44172, "\u2581chemistry": 20092, "\u6b4c\u8bcd": 44094, "\u2581dominated": 14654, "classified": 54591, "\u624e\u5b9e\u63a8\u8fdb": 50939, "\u9192\u4e86": 46190, "\u517c\u804c": 32554, "nHopefully": 56199, "asper": 33404, "\u2581hundred": 5696, "IAL": 17291, "\u5c06\u4e8e": 18546, "\u2581fidu": 45811, "oun": 13172, "\u2581Former": 34637, "\u52a0\u73ed": 22710, "rap": 2506, "\u8865\u507f": 14091, "rollers": 26959, "\u63a8\u79fb": 50299, "\u6269\u5c55": 20670, "bility": 22286, "\u963f\u62c9": 24134, "\u2581capitalism": 30753, "\u4f24\u75c5": 57036, "ords": 6830, "/\\\\/": 51335, "\u2581Olive": 51297, "\u5411\u672c\u9662\u9012\u4ea4\u4e0a\u8bc9\u72b6": 38351, "\u624b\u4e2d": 20337, "\u8bae\u8bba": 50283, "\u2581guns": 12508, "\u2581dimin": 19241, "\u2581grind": 31508, "\u2581veg": 53689, "Parameters": 19791, "\u5411\u5176": 57653, "oup": 13045, "\u626e": 61793, "YY": 24961, "\u751f\u6d3b\u4e2d\u7684": 28652, "operation": 26177, "\u2581\u4e00": 43522, "\u2581Neuro": 36993, "WA": 13810, "\u2581Double": 19158, "However": 16899, "continuous": 38087, "egree": 27562, "\u97e7\u6027": 54151, "\u2581Cum": 58114, "\u2581embeddings": 21824, "\u5927\u706b": 29016, "\u79ef\u6781\u63a2\u7d22": 52201, "\u2581coloured": 38863, "\u6cb9\u7684": 46243, "\u4e59\u809d": 48971, "\u2581alkal": 57203, "qua": 52898, "\u5e94\u6309": 55904, "\u8be0\u91ca": 28211, "\u4fef": 62841, "<filename>": 18, "\u3063": 63784, "\u2581foil": 31050, "\u56e0\u4e3a\u4ed6\u4eec": 29263, "\u2581Email": 17356, "\u4e00\u65b9\u9762": 13634, "pps": 48559, "\u2581such": 1253, "arab": 48718, "MzE": 49506, "superscript": 50974, "odox": 22587, "\u4f01\u4e1a\u7684": 11629, "Apply": 56467, "\u2581advoc": 9323, "\u2581Plastic": 52956, "anguage": 2899, "\u6f14\u7ec3": 19692, "\u2581sexual": 6234, "\u2581stressful": 29001, "\u2581Seek": 58187, "\u2581detective": 34110, "\uc9c0": 63408, "Cookie": 48856, "afe": 8526, "finger": 56743, "\u2581lover": 22095, "\u2581wounded": 25016, "\u2581atop": 37398, "\u2581three": 1604, "\u8fc8": 61628, "\u2581obedience": 52332, "YE": 58132, "\u2581sentiment": 20734, "Hand": 7622, "\u724c": 60374, "\u2581extraction": 19405, "ouse": 1584, "\u98ce\u683c": 9098, "\u2581tangible": 36633, "\u865a\u6784": 58844, "fessional": 25185, "iterate": 57908, "\u6709\u4e24\u79cd": 50121, "\u2581emerged": 18491, "\u5916\u9762": 21136, "lex": 3258, "\u2581\\\"[": 35488, "\u043d\u043e\u0441\u0442\u0442\u0430": 32758, "\u043d\u0438\u043a\u0430": 47105, "\u8461\u8404\u7cd6": 51312, "\u2581hive": 53088, "\u2581Cinema": 45195, "\u5168\u666f": 53677, "\u2581Apps": 31808, "\u8c03\u7406": 33271, "\u2581interrupt": 34102, "\u888d": 62840, "\u9655\u897f\u7701": 30913, "qualified": 39388, "\u6253\u7740": 39629, "\u2581viewed": 13411, "inge": 26491, "ninterface": 57431, "\u7136\u800c": 5921, "\u2581citizenship": 29079, "\u2581sucked": 31056, "\u624b\u4e0b": 52399, "Ip": 53428, "''": 3048, "\u89e3\u8bfb": 16449, "\u2581rises": 26370, "\u2581tried": 3873, "\u2581FAQ": 20802, "\u2581Meg": 22273, "\u2581victims": 10874, "icting": 25651, "\u7684\u5f00": 30675, "\u7591\u96be": 54571, "\u2581DEM": 57393, "\u2581partic": 1592, "\u2581mostly": 6085, "\u4e4b\u4e2d": 9544, "\u7684\u5bb6\u5ead": 25518, "\u2581fisher": 34215, "\u968f\u5904": 49087, "\u786e\u5b9a\u7684": 26569, "ruled": 53281, "\u5236\u9020": 5977, "weet": 7842, "\u5bf9\u6807": 46063, "\u767d\u83dc": 37876, "\u5e02\u4eba\u6c11\u653f\u5e9c": 46116, "\u2581Mozilla": 48802, "\u2581Park": 4398, "\u2581clause": 25840, "\u2581advertise": 37141, "\u2581MLP": 58671, "\u2581JS": 31978, "\u66f4\u50cf": 52510, "\u2581GDP": 23254, "\u2581decline": 13224, "\u6bb5\u7684": 37709, "Items": 22465, "\u2581/\\\\": 57770, "\u2581graph": 3928, "outube": 12763, "\u8bc9\u8bbc\u4ee3\u7406\u4eba": 29122, "\u2581coven": 41986, "\u2581Category": 33784, "nLevel": 55504, "\u2581searching": 11250, "\u600e\u4e48\u770b": 51310, "nEither": 52521, "nthony": 56049, "compose": 57136, "\u2581racial": 17268, "\u2581glorious": 29278, "\u800c\u4e14": 3197, "vana": 57900, "\u8f66\u95f4": 23315, "\u2581MUCH": 47519, "Cl": 2777, "\u5730\u8bf4": 13162, "\u89e3\u653e\u519b": 31669, "much": 42457, "\u2581Sav": 14941, "ni": 5477, "Objects": 33949, "centric": 32634, "\u2581suggesting": 15511, "\u7a0b\u5ea6\u4e0a": 17124, "\u4ea4\u4e92": 26533, "\u2581Normally": 43892, "\u2581exceptionally": 33422, "mA": 57067, "cean": 8651, "\u4e3a\u4ed6\u4eec": 34125, "\u81ea\u6765\u6c34": 55135, "\u8273": 61529, "\u2581nerv": 12025, "\u73e0\u5b9d": 40162, "\u2581Flying": 45735, "\u2581spoilers": 52943, "\u8fd1\u5e74\u6765": 11935, "\u996e\u6c34": 33169, "\u2581pyramid": 41445, "\u5c40\u9650": 34040, "\u827a\u672f\u54c1": 46130, "number": 9430, "\u2581Integration": 47156, "iston": 51983, "experienced": 49214, "Design": 34397, "\u2581edition": 10848, "\u5b9e\u5728\u662f": 27463, "\u8ba4\u5b9a\u4e3a": 40678, "\u2581hesitation": 51750, "act": 888, "\u597d\u5728": 30586, "\u4e8c\u6b21": 19708, "arently": 17825, "\u2581owned": 9927, "Force": 30349, "ker": 7401, "Track": 21484, "AGES": 39351, "\u2581Malcolm": 41532, "\u2581Ge": 3519, "\u4fa0": 62121, "\u5e73\u5e38": 21220, "\u4ed6\u6ca1\u6709": 42257, "\u2581Not": 3063, "\u2581connectors": 46994, "\u8d44\u672c\u4e3b\u4e49": 47085, "ARGET": 54314, "\u2581crystalline": 57370, "\u6539\u6b63": 36988, "aze": 11953, "\u043d\u044b": 27833, "\u96f6\u4ef6": 39334, "nMost": 10290, "\u2581gathering": 16709, "\u5bf9\u5e94\u7684": 23930, "\u2581sincere": 34379, "\u5b97": 60816, "\u2581anyway": 7942, "\u2581is": 620, "\u524d\u7aef": 39812, "\u2581CS": 14978, "\u6842\u82b1": 54666, "tee": 5381, "\u2581lefto": 32009, "IE": 12530, "identally": 36769, "verage": 2352, "\u2581()\\": 47655, "\u2581bullpen": 50644, "\u5728\u4efb\u4f55": 55005, "\u0119": 63620, "\u2581background": 4385, "\u2581Innov": 21954, "DEs": 53792, "\u4ea7\u54c1": 2557, "\u65e0\u6570": 12910, "\u2581Home": 7069, "\u6751\u7ea7": 41615, "\u2581entreprene": 13400, "\u62b5\u5236": 38644, "Flo": 18594, "\u5408\u8ba1": 21174, "\u6708\u4efd": 7789, "\u2581Pittsburgh": 21311, "\u2581Columb": 12066, "legal": 22023, "\u2581Hook": 32459, "\u540c\u6642": 21669, "\u53d1\u6027": 35345, "\u4e2a\u5de5\u4f5c": 50042, "Label": 12951, "\u2581adjustments": 24738, "\u2581fertility": 37862, "\u7d27\u5bc6": 20482, "\u2581fellowship": 39560, "\u2581clock": 9809, "andal": 15563, "\u2581intricate": 38865, "\u2581builder": 24491, "ept": 38143, "\u6055": 63739, "\u2581alias": 40645, "pr": 1336, "\u533a\u7684": 14526, "udos": 42850, "depend": 24658, "interfaces": 49606, "\u6597\u5fd7": 50092, "\\\"];\\": 52016, "\u2581BJP": 40733, "\u2581Hyderabad": 58698, "\u70df\u706b": 52313, "\u7684\u4e00\u90e8\u5206": 19272, "\u2581accur": 6166, "\u2581Tai": 18227, "\u2581ball": 3606, "\u2581exists": 5757, "\u2581focuses": 14517, "\u7b49\u540c": 49631, "\u6d51": 62230, "\u2581Fa": 17707, "\u8d44\u8d28": 22390, "\u7a0d": 61456, "\u2581essay": 10842, "\u2581corn": 17392, "\u8c03\u4f83": 42825, "cycles": 35019, "prim": 13892, "\u6c72": 63283, "\u89c4\u8303": 6537, "canvas": 38519, "\u4fdd\u9c9c": 48152, "\u2581Tue": 55942, "ca": 6002, "\u2581shook": 31509, "\u2581lieu": 49557, "-": 59594, "\u2581farms": 25612, "\u2581spaces": 8860, "\u2581modelling": 28226, "\u2581ORDER": 50002, "\u672c\u91d1": 22118, "Close": 23175, "concat": 32749, "\u2581Type": 10058, "AMD": 46067, "\u2581terminals": 36878, "\u7ef4\u7a33": 58350, "=\\": 11886, "\u2581Pulse": 57108, "\u5de5\u5546": 14996, "\u2581Hem": 27994, "\u627f\u529e": 26649, "\u2581prayers": 22654, "\u2581drive": 3745, "\u2581BTC": 51499, "\u2581Detroit": 15770, "\u2581ebay": 58213, "\u2581creativity": 17200, "\u2581contrast": 6889, "\u5927\u4e00": 40901, "\u2581revital": 49536, "\u8d22\u9669": 50237, "\u2581beneath": 19078, "\u5173\u952e\u8bcd": 32996, "\u2581Jeff": 9665, "}}\\\"": 58751, "Sy": 25357, "enta": 26692, "Star": 15941, "profit": 12759, "\u5c06\u4ed6": 53050, "\u4e5f\u8bb8": 8312, "\u2581likewise": 28593, "\u2581Blair": 33607, "<fim_suffix>": 16, "\u540c\u65f6": 2363, "\u2581Assad": 44967, "\u4e2d\u7b49": 28702, "\u5411\u4e0a": 15959, "\u2581Metropolitan": 35575, "\u751f\u6d3b\u8d39": 43342, "\u2581ACC": 23640, "\u865a\u5f31": 50557, "\u82b7": 63902, "\u4ec5": 60252, "\u5728\u7ebf": 13220, "\u2581ABC": 18089, "\u2581Document": 21606, "Mzc": 51561, "odies": 8002, "\u2581envy": 43557, "\u76f8\u540c": 9913, "\u8eab\u4efd\u8bc1": 17005, "\u2581potentials": 22969, "\u2581balcony": 32289, "\u2581Trace": 44608, "\u5de5\u4f5c\u65b9\u6848": 52470, "\u2581kw": 52131, "\u2581Romney": 18534, "\u2581spawn": 28390, "\u597d\u5403": 29906, "\u805a": 60517, "\u2581insign": 40892, "ermed": 46800, "\u6771": 61518, "\u2581acknowled": 12555, "\u591a\u5e74\u524d": 43570, "\u4e3b\u5bfc": 22481, "\u5934\u6761": 29048, "\u7426": 62939, "\u2581Evil": 32166, "uy": 6732, "\u590f\u4ee4": 52839, "eted": 39995, "Bitmap": 54341, "\u4ed6\u5728": 10034, "ving": 1556, "\u2581gr": 2468, "\u6280": 59917, "\u2581possesses": 35759, "\u2581noting": 17887, "\u2581occasions": 18298, "\u2581compositions": 35232, "\u2581Exam": 29452, "nAmong": 24673, "Na": 22879, "\u89c4\u6a21": 5808, "ethyl": 26158, "\u0646": 63138, "\u81ea\u7136\u7684": 26245, "\u2581Fuj": 56799, "\u044a\u0442": 8965, "\u2581NBA": 15141, "thren": 54921, "\u7d19": 63698, "ast": 805, "aneously": 36058, "\u7761\u524d": 43585, "ribut": 2225, "CF": 18372, "\u5c45\u59d4\u4f1a": 53454, "\u914d\u9001": 30826, "fab": 33385, "\u2581wiring": 33515, "\u72d0\u72f8": 44339, "\u2581pian": 41256, "\u56e0\u4e3a\u5728": 30644, "station": 20930, "ambda": 1772, "\u2581deployment": 20001, "ECD": 50373, "\u4e66\u623f": 50955, "\u843d": 60176, "\u2581Mechanical": 59088, "\u2581xml": 30981, "\u0444\u0435": 34187, "\u2581trending": 57308, "\u2581lifespan": 53837, "\u586b\u8865": 45507, "\u2581transparency": 22434, "Water": 45667, "\u00ef": 63685, "\u7acb\u9a6c": 28041, "\u5b66\u6821": 2703, "nWhere": 14589, "isons": 15224, "\u2581Nicol": 37321, "ral": 1805, "\u2581adapter": 26106, "\u2581thread": 5967, "\u2581ugly": 18663, "\u5b89\u5b81": 43540, "\u2581staying": 12470, "nassociated": 53580, "may": 14017, "\u6210\u54c1": 28075, "disc": 15214, "\u2581invariance": 29962, "esh": 8527, "\u2581correlated": 19530, "legend": 33994, "\u2581Gy": 37242, "\u2581unresolved": 49070, "+-+-+-+-": 54654, "Sort": 36642, "\u7ea7\u522b\u7684": 38203, "\u2581bootstrap": 43375, "\u80c3": 61186, "foo": 20962, "meaning": 33192, "\u2581covering": 11321, "\u7528\u5de5": 39348, "bre": 10061, "\u6ce8\u9500": 47158, "Master": 27126, "\u2581Administration": 13682, "\u4e3b\u7ba1\u90e8\u95e8": 26318, "sted": 48113, "\u5e7e": 62037, "\u4e00\u523b": 32100, "\u2581Tal": 13886, "\u9508\u94a2": 34154, "vart": 22220, "\u2581grassroots": 46775, "\u8d3c": 62646, "\u65e9\u5728": 20259, "\u2581inertia": 51276, "nPrint": 52854, "\u516c\u5b89\u90e8": 57833, "\u603b": 59965, "joy": 2499, "\u5408\u6210": 20859, "\u2581teammate": 39114, "\u2581sandbox": 59550, "\u9019\u9ebc": 48775, "\u7684\u4e00\u5929": 27268, "\u76f8\u4eb2": 39333, "\u9002\u914d": 56672, "\u6218\u80dc": 22731, "umping": 27956, "\u2581Telescope": 37417, "\u7528\u5fc3": 18050, "<b/>": 72, "\u6c11\u4e8b\u8bc9\u8bbc\u6cd5": 17821, "\u2581Roosevelt": 38854, "\u623f\u7684": 41164, "\u4ee3\u8868\u7684": 32244, "\u58f0": 60236, "\u6a4b": 63500, "\u5df2\u4e8e": 44974, "\u4e0d\u8212\u670d": 35064, "erk": 13850, "\u2581ours": 20349, "\u2581sk": 1747, "Instance": 12077, "\u2581mercy": 26824, "\u2581LinkedIn": 33553, "\u2581Kate": 21393, "nUser": 36532, "\u8fc7\u4e86\u4e00": 51758, "\u2581Update": 15209, "\u2581ram": 17624, "\u2581afterwards": 20419, "sizeof": 43283, "\u8f93\u5165\u7aef": 56214, "\u2581ninet": 35901, "\u80fd\u7684": 41775, "\u6807\u914d": 54388, "\u8cfc": 62588, "Most": 22974, "\u2581Shoot": 57508, "\u2581contribution": 7485, "\u2581pointless": 37313, "wik": 44058, "\u2581Quin": 55917, "\u4e0a\u5e02": 7459, "\u4e0d\u51fa": 13281, "\u2581oddly": 53904, "\u6d88\u5931": 13560, "\u4e4b\u4e00\u7684": 31407, "\u641c\u96c6": 44217, "nRegarding": 41844, "A": 59603, "\u2581After": 3276, "\u2581counterpart": 15907, "\u2581Emperor": 36257, "inology": 29673, "\u4e3e\u884c\u4e86": 35837, "better": 35685, "\u2581Hz": 30121, "\u884d\u751f": 34009, "\u6211\u53ef\u4ee5": 29287, "ented": 6844, "\u2581gourmet": 56322, "\u2581preval": 20536, "cmp": 32567, "\u52b3\u52a8\u8005": 28445, "\u62c9\u65af": 31525, "\u2581Coke": 57101, "\u2581Jews": 13844, "\u8b8a\u5316": 50149, "cou": 23333, "\u2581Nancy": 28332, "\u2581Sax": 51146, "\u2581seventh": 21857, "\u2581tobacco": 23400, "\u2581grad": 8129, "\u2581linem": 45996, "{}{": 53451, "\u5927\u5bb6": 2243, "\u2581Fermi": 16955, "\u2581steering": 24313, "\u65f6\u8bb8": 25383, "\u67e5\u627e": 31811, "\u2581boarding": 38127, "consciously": 55462, "\u2581baths": 47330, "\u2581blasted": 58460, "\u2581multiplicative": 53075, "\u2581demographic": 28473, "\u541e": 62141, "\u2581implicit": 20418, "\u2581creek": 50833, "ples": 2400, "\u2581piss": 19004, "\u2581INTO": 28456, "\u9879\u76ee\u4e2d": 54155, "\u2581Mu": 14593, "ine": 774, "\u2581unbelievable": 36654, "\u2581Smart": 15464, "odka": 44741, "\u2581syn": 27843, "rceil": 44964, "\u2581DOWN": 49021, "\u2581fertile": 56690, "\u2581Priority": 59374, "\u7eba": 62313, "\u66e6": 63441, "\u2581Mormon": 35311, "\u2026\u2026\u2026\u2026": 21165, "\u4fdd\u8d39": 48056, "responding": 24096, "ains": 2018, "\u2581SET": 29239, "tset": 37463, "\u2581insect": 20560, "\u2581Throw": 40304, "\u4e1a\u52a1\u7684": 36774, "\u4e8c\u767e": 52985, "\u2581scient": 5355, "reliminaries": 55597, "renew": 26571, "\u2581\\\")": 52298, "\\\"/>\\": 22793, "Nz": 7157, "\u4e18": 62068, "\u4e00\u773c": 21654, "sector": 51082, "\u798f\u97f3": 35178, "ILLE": 53714, "gies": 9895, "\u5bd2": 60939, "nbackground": 54814, "hang": 18716, "\u516c\u5712": 57039, "\u2581studies": 5145, "\u2581Belt": 36712, "\u2581hierarch": 14520, "\u6708\u4eae": 28549, "nect": 2054, "\u5c51": 62748, "\u2581Tigers": 26987, "\u516c\u9877": 40020, "\u5408\u4f5c\u7684": 35026, "\u2581Branch": 31865, "\u2581sharks": 49165, "tale": 52563, "\u56de": 59890, "\u2581Investors": 55434, "\u2581fares": 57812, "\u4e5f\u4e00\u6837": 55608, "\u5316\u77f3": 46184, "eqnarray": 2810, "Failed": 31305, "atory": 4315, "\u2581Ow": 57762, "\u4ea6": 61004, "nLa": 26958, "\u2581demands": 13175, "utch": 10756, "<0x4D>": 382, "\u2581tribal": 31657, "\u2581Circuit": 25091, "\u2581preseason": 38976, "\u5360\u6709": 24756, "pres": 14179, "\u2581puppy": 27291, "iph": 50168, "kins": 9474, "\u2581replica": 33482, "\u2581seizures": 53291, "\u3000\u3000": 12973, "\u4e00\u8f88": 47275, "Standard": 33310, "OLS": 58548, "\u519b\u65b9": 59453, "nConsidering": 40586, "aughty": 39029, "\u2581intersections": 50011, "rared": 21073, "\u2581Foot": 14046, "\u2581laughed": 22837, "\u2581group": 2062, "\u4e0d\u5c11\u4e8e": 46750, "trend": 49622, "\u914d\u5957": 13830, "\u2581Driving": 46602, "eals": 37034, "\u2581path": 3192, "\u2581Priest": 53316, "\u2581Fat": 24120, "\u2581Seahawks": 39942, "generate": 31649, "elic": 53487, "third": 28306, "methods": 37414, "\u4f20\u9500": 47227, "\u2581tips": 7610, "iddle": 3684, "\u2581Bug": 33255, "\u2581DD": 31083, "\u50f5": 62593, "\u2581covenant": 52918, "\u2581McD": 30435, "\u2581ATM": 44327, "\u2581triang": 46601, "\u67ab": 62560, "Toggle": 57302, "\u8c22": 60578, "ae": 5069, "\u2581premium": 11709, "\u2581dear": 18481, "\u56e2\u4f19": 50931, "WC": 30032, "\u2581train": 1916, "\u2581UN": 8568, "\u2581)": 3850, "attice": 7993, "chlor": 59018, "hes": 1357, "\u2581LB": 42644, "bar": 2039, "\u591a\u6837\u7684": 48993, "*{\\\\": 53998, "\u2581Palestinian": 20223, "ometown": 28154, "\u4fc3\u9032": 53347, "thernet": 30881, "\u2581hard": 1737, "\u532f": 63664, "isha": 31803, "\u2581Aud": 10658, "\u2581]": 9883, "\u2581oceans": 43181, "\u2581responses": 11715, "\u2581acceptable": 14734, "span": 3159, "\u53d1\u58f0": 39426, "\u2581Ol": 11618, "\u2581deaths": 14781, "\u2581expert": 6157, "\u2581dropped": 9063, "\u9152\u5427": 35792, "\u2581issuing": 36557, "\u8d23\u4efb\u611f": 39447, "\u517b\u80b2": 47797, "\u2581pubs": 57806, "ends": 2655, "\u2581season": 2432, "nold": 26181, "\u53ea\u770b": 58771, "\u5404": 59904, "ructions": 7675, "scr": 11609, "\u2581Namely": 50176, "\u6700\u521d": 16895, "\u2581cues": 37508, "\u9992": 63606, "</h1>": 34, "nCal": 18309, "theme": 26745, "overing": 26893, "\u4e3a\u4ee3\u8868\u7684": 48375, "uki": 22607, "Execution": 43506, "\u2581Install": 19876, "\u2581survived": 19951, "\u2581Royals": 59309, "untime": 14459, "\u90fd\u4e0d": 6159, "\u5e02\u573a": 1995, "\u4ebf\u7684": 57679, "\u5b89\u5fbd": 14292, "\u2581Beat": 20186, "\u2581recreational": 29529, "\u7f20": 62257, "\u0440": 59699, "\u8868\u73b0\u7684": 59294, "\u2581bid": 12896, "\u4e0d\u65ad\u5730": 22839, "\u6700\u96be": 55854, "\u6c14\u8c61": 20034, "\u70b9\u4f4d": 49393, "be": 1454, "orations": 48766, "\u4e66\u5e97": 35373, "\u4f01\u4e1a": 1823, "\u2581Words": 35272, "\u5b69\u5b50": 1738, "les": 1195, "\u8346": 62404, "\u67b6\u6784": 20666, "nout": 20922, "\u00eb": 62991, "parent": 6828, "\u2581languages": 11432, "\u2581PG": 34872, "\u7684\u4efb\u52a1": 39179, "&(": 58252, "\u2581Appro": 20258, "\u2581benign": 51794, "\u8d5b\u7684": 53323, "\u6b64\u65f6\u7684": 42877, "\u5317\u90e8": 26619, "\u6587\u5316\u4ea4\u6d41": 58753, "\u6342": 63406, "\u5c7f": 63328, "\u5f53\u5e74\u7684": 32619, "\u5347\u964d": 43039, "\u98ce\u7535": 43126, "ored": 2466, "\u6c11\u4f17": 17280, "\u2581customized": 24713, "\u2581principles": 11480, "\u2581Anyone": 19593, "\u2581renov": 17883, "corr": 31329, "\u2581Suddenly": 45717, "\u2581derivative": 12696, "warning": 33219, "asis": 21342, "\u2581Trevor": 47544, "\u2581Psy": 16539, "\u2581browsers": 25960, "with": 3858, "\u642c\u8fc1": 29102, "\u2581PvP": 56097, "CE": 6108, "\u2581signing": 13836, "Plot": 43147, "\u2581Rhodes": 51990, "\u2581Alexa": 47979, "\u76d2\u5b50": 49952, "\u7ba1\u7406\u7cfb\u7edf": 44195, "modified": 36395, "Fox": 52538, "\u53ef\u4ee5\u505a": 57497, "\u2581Recovery": 29473, "\u5bb3\u6015": 13137, "\u4e59\u70ef": 32560, "\u8f93\u51fa\u7aef": 55675, "inding": 6870, "\u2581)$": 27262, "\u2581solutions": 4719, "\u2581Stewart": 23213, "Kim": 45282, "\u56f0\u96be\u548c": 55067, "\u2581cylind": 27444, "\u2581yielding": 35703, "NM": 38663, "\u2581planets": 18966, "aced": 5996, "\u684c\u5b50": 35630, "bt": 4119, "\u8d1d\u5c14": 25756, "\u793e\u6703": 15568, "\u2581bells": 42445, "ourtesy": 53243, "atio": 35408, "\u2581qualify": 18340, "\u2581Len": 18200, "\u5bb6\u65cf": 14684, "\u2581excav": 40217, "\u5404\u81ea\u7684": 38695, "viron": 2563, "\u2581carrots": 41533, "ractable": 50840, "\u2581gangs": 51767, "\u2581ceremony": 15465, "\u2581et": 2081, "\u901f\u5ea6": 7042, "nStephen": 58065, "ont": 1294, "\u5988\u5988": 4871, "zy": 8814, "atterns": 32178, "nals": 20275, "\u2581Hide": 55075, "rous": 14388, "\u4e0a\u56fe": 46778, "\u2581skin": 4973, "istence": 13911, "\u0443\u0440": 13792, "\u2581kingdom": 20505, "\u670d\u9970": 35160, "\u7684\u9053\u8def": 27100, "\u2581undergone": 47008, "\u2581History": 11254, "\u2581buried": 19236, "\u2581Approach": 47489, "\u680f\u76ee": 34629, "\u5c4b": 60724, "\u2581Herm": 21452, "tor": 14882, "ennel": 55748, "nEver": 38870, "\u2581mish": 50659, "\u5728\u4e00\u4e2a": 16057, "\u2581celebrations": 36174, "dm": 23045, "\u2581Gain": 41472, "\u5973\u6392": 32813, "\u2581gradually": 17287, "idas": 37612, "\u9886": 60037, "\u6ce8\u610f\u7684\u662f": 25487, "\u4ee5\u53ca\u5176\u4ed6": 44771, "\u75c7": 60580, "\u2581function": 1438, "cleaned": 20815, "\u2581bisc": 44143, "\u8fdf": 61309, "\u8fd8\u6709\u4ec0\u4e48": 45416, "\u4e00\u80a1": 28929, "\u4e0d\u8bf4": 23627, "\u66fe\u7d93": 51779, "lightly": 42989, "ler": 2650, "LF": 24178, "\u4e70\u7684": 27983, "NR": 20625, "\u5c3e\u58f0": 53961, "\u7cdf\u7cd5": 28752, "\u2581psychiatrist": 55258, "\u4e0d\u7ba1\u662f": 19901, "\u2581standards": 7374, "\u2581ris": 9123, "GG": 15016, "\u4fdd\u5065": 14619, "\u2581embraced": 34166, "\u2581spent": 4813, "\u7535\u89c6": 6598, "termin": 23365, "\u201d:": 36748, "\u5b9b\u5982": 58608, "\u751f\u7406": 19960, "\u2581Contract": 30882, "<0x37>": 360, "\u4eba\u6c11\u966a\u5ba1\u5458": 37718, "\u2581Strategies": 51223, "\u5927\u81e3": 36999, "<0xDE>": 527, "ailable": 1895, "\u2581analys": 14253, "\u4e3a\u4e86\u907f\u514d": 57871, "\u85aa\u8d44": 44930, "\u2581Ser": 4488, "lyph": 41980, "\u8d27\u5e01": 10282, "\u2581country": 2533, "pool": 10909, "TA": 10363, "\u2581turnover": 35938, "trip": 42005, "\u2581managing": 13153, "insic": 15771, "owski": 18232, "nclass": 8482, "\u6b21\u6570": 21211, "\u7ade\u8d5b": 16124, "\u2581Guarantee": 54658, "athered": 12956, "\u9700": 59914, "athe": 8345, "\uff05": 61356, "\u2581Form": 8349, "raints": 22370, "InputStream": 39079, "\u2581knowing": 8343, "kom": 53765, "\u2581Titan": 27294, "props": 16074, "nmoment": 48547, "\u4ed6\u4e0e": 50297, "\u8ca7": 63767, "\u2581heroine": 55949, "\u2581CAN": 20520, "\u2581sizeof": 25138, "\u2581Ident": 26965, "\u2581pro": 683, "Keys": 28277, "\u2581chromos": 38366, "\u2581Effects": 41302, "mmas": 49186, "\u535a\u58eb": 10323, "\u7684\u4e0d\u662f": 44740, "idad": 29167, "\u843d\u5b9e\u5230": 58587, "\u2581introducing": 16902, "\u2581negotiated": 41517, "\u2581as": 659, "\u5c4b\u5b50": 55060, "\u2581judged": 30735, "guard": 28642, "Gar": 57520, "\u2581gadgets": 37983, "\u989d": 60458, "\u2581carved": 38988, "cele": 58207, "\u2581survey": 7540, "\u77ed\u7ebf": 30831, "quisition": 44734, "idge": 45746, "\u2581watchdog": 57570, "\u5141\u8bb8": 11642, "\u2581chocol": 59403, "m": 59583, "\u9886\u5148": 14145, "\u2581caffe": 33595, "quart": 37216, "\u900f\u955c": 41847, "\u9ad8\u7b49\u5b66\u6821": 58333, ")_{": 15071, "\u2581Behavior": 40895, "\u5341\u4e03": 20532, "\u8fd9\u4e2a\u662f": 57355, "\u2581sober": 38670, "\u4e5f\u5df2\u7ecf": 44908, "\u8d4f": 61103, "command": 7529, "\u2581called": 2200, "\u2581GRE": 27907, "\u2581farther": 30239, "\u201d": 59638, "pattern": 27812, "}</": 41373, "\u2581Gran": 29130, "#{": 36725, "\u2581Author": 10705, "\u2581Navy": 17345, "KU": 58974, "\u2581kinematic": 42060, "\u0434\u0430\u0432\u0430": 37997, "\u2581weeks": 3538, "EEK": 36851, "\u2581identically": 52673, "\u5ba4\u53cb": 51282, "\u0442\u0440\u0430": 15064, "\u5c31\u4ece": 55991, "aphor": 28132, "\u82d1": 62474, "\u2581appreciate": 8608, "\u8377": 61361, "\u4e0a\u90fd": 56720, "\u2581pad": 15979, "fh": 43414, "\u2581reward": 8870, "\u2581sharply": 34242, "\u5987\u79d1": 55182, "cat": 8530, "ogs": 23104, "\u2581Gem": 35487, "\u2581Him": 12729, ")))\\": 20806, "\u2581\u4e8b": 24451, "\u81ea\u5f8b": 26069, "\u6731": 61011, "\u4e1d\u7ef8\u4e4b\u8def": 53562, "\u2581premier": 25036, "\u55dc": 63800, "\u91cf\u5b50": 29984, "ill": 679, "\u6d95": 63592, "\u7acb\u6848": 21158, "\u2581magazine": 10394, "\u2581Collective": 58281, "\u2581officials": 6430, "Nothing": 40723, "\u2581fucked": 26091, "\u2581northwest": 41534, "\u2581amusement": 47320, "\u2581cancellation": 25955, "\u2581calculated": 7432, "\u2581Tw": 4761, "bury": 14796, "\u2581always": 1734, "\u90a3\u4e2a\u65f6\u5019": 29174, "\u2581attribute": 14863, "\u91cc\u65af": 27922, "\u4e5f\u88ab": 19862, "\u5211\u6cd5": 25505, "\u2581DL": 30941, "\u2581bleed": 49192, "\u2581surprise": 8835, "\u2581strives": 53700, "\u897f\u5b89": 12872, "\u2581currency": 12959, "\u2581gren": 45866, "\u5165": 59800, "\u683d": 62080, "\u2581stunt": 51219, "\u2581hypotheses": 36509, "\u2581revisit": 43140, "\u4e0d\u592a": 12988, "\u542c\u529b": 32561, "Med": 21835, "lease": 1661, "\u2581ablation": 49699, "\u2581\u0440\u0430\u0431\u043e": 28896, "Get": 4558, "\u2581ME": 14162, "\u7684\u8bdd\u9898": 27512, "\u8154": 61372, "\u4f53\u7cfb": 5852, "\u8d70\u8bbf": 16642, "\u2581Criteria": 48623, "dump": 31221, "\u2581vote": 5633, "\u751f\u4ea7\u7684": 28567, "love": 19697, "otherapy": 24169, "\u54ac": 61951, "Storage": 20002, "dal": 44978, "<0x9A>": 459, "\u2581inde": 56924, "nWebsite": 52277, "\u5730\u5c06": 41827, "nRo": 42626, "footnotesize": 20796, "\u2581sacrifice": 19537, "\u0094\\": 48012, "tThe": 25261, "edar": 34427, "\u2581Lear": 8470, "\u2581benef": 2925, "\u2581Define": 35677, "\u2581resolving": 37985, "async": 20414, "\u7b80\u5355": 4645, "inger": 5376, "\u6765\u770b\u770b": 21274, "\u4e2d": 59642, "\u2581sweep": 17963, "\u611f\u77e5": 25298, "\u043b\u0435\u043c\u0438": 51760, "\u7f62\u4e86": 29188, "uffed": 34259, "hall": 32213, "\u51b2\u950b": 43799, "tour": 46852, "\u5fcd": 61135, "indsay": 40155, "\u2581debris": 25884, "\u0433\u0435": 49809, "kin": 6636, "Pages": 18018, "\u2581Technology": 11037, "\u2581applicants": 24733, "\u9057\u4f20": 23950, "\u2581relational": 47737, "\u2581\u043a\u0430\u0442\u043e": 10714, "\u2581multif": 46545, "oding": 6212, "\u2581theore": 8442, "\u4e09\u662f": 15890, "\u6625\u8fd0": 44553, "\u2581manners": 50051, "\u6559\u6703": 53846, "\u4e0d\u591f": 10585, "\u95ee\u7b54": 38619, "\u540d\u53eb": 30347, "\u65b0\u95fb": 5613, "\u2581commented": 21658, "rath": 43216, "\u672c\u79d1": 12471, "\u624b\u7eed": 14732, "\u2581mar": 5660, "\u2581devil": 27249, "\u82b1\u6837": 51354, "\u4eca": 59976, "\u610f\u8bc6\u5230": 18516, "\u6f14\u6280": 24692, "women": 47912, "\u88ab": 59777, "organic": 51413, "\u2581criminal": 9374, "\u5ead\u9662": 43481, "graphs": 48684, "\u2581touches": 25313, "\u2581dominates": 34420, "\u672c\u571f": 19998, "\u5c3e\u5df4": 40246, "<0x81>": 434, "logical": 31238, "\u601d\u7d22": 52123, "\u2581Was": 14018, "ichever": 35001, "\u5386": 60189, "\u2581qualitatively": 39163, "NASA": 55136, "\u2581invalid": 18753, "\u5165\u624b": 28129, "\u70e7\u70e4": 37909, "&&&&": 49618, "\u533a": 59782, "\u5373\u53ef": 9777, "\u2581devote": 35288, "\u2581reminding": 42194, "ivari": 24424, "\u2581Bah": 24523, "\u8338": 63910, "pton": 11190, "urst": 30804, "\u2581crispy": 56417, "\u2581tin": 29862, "\u2581discontinued": 51723, "nTop": 22212, "\u2581big": 1741, "\u2581images": 3608, "\u2581supervisors": 55089, "\u2581implant": 35296, "\u2581Certain": 50568, "\u6218\u4e89\u7684": 57093, "\u2581after": 1204, "nRev": 55270, "\u2581Fusion": 39587, "jsonl": 2738, "\u2581bodily": 45435, "\u4f0a": 60935, "\u2581unexpected": 13466, "\u5e08\u751f": 13166, "\u5218\u67d0": 29638, "\u5b9e": 59707, "\u2581Census": 29612, "entation": 41191, "\u6280\u5e08": 59279, "erick": 30959, "Posted": 37957, "\u2581select": 3070, "\u2581Threat": 51887, "\u2581legends": 42638, "\u0434\u0430\u0442\u0435\u043b": 47087, "\u2581assim": 47877, "\u8f7d\u660e": 49201, "\u85e9": 63684, "have": 16399, "\u7684\u4f60": 43819, "\u8d28\u91cf\u548c": 47146, "\u4e0d\u53ef\u601d\u8bae": 46659, "\u6ce1\u6ce1": 52092, "ogeneity": 33009, "\u73fe": 60889, "\u5ff5\u5934": 34422, "\u2581promoter": 49471, "\u7089": 61537, "\u8ff7\u4eba": 52929, "wt": 21181, "and": 743, "nTaking": 30013, "\u7ea7\u7684": 19069, "\u5de6\u4fa7": 32444, "^{+}$": 57237, "elligent": 44258, "\u2581incoherent": 54377, "Matrix": 20751, "\u6bd2\u6027": 52711, "\u4f46\u56e0\u4e3a": 57796, "\u2581sewing": 28353, "\u2581wanted": 3032, "\u8d25": 60862, "\u4e13\u680f": 38738, "daughter": 41160, "Fair": 58918, "\u7231": 59961, "\u2581upward": 27320, "\u973e": 63232, "ovan": 35275, "\u70b9\u4e86": 36165, "\u2581Own": 18028, "\u2581shields": 55567, "\u2581reducing": 11559, "\u2581slogan": 46529, "\u2581prose": 43612, "\u2581App": 2851, "\u7ba1\u5bb6": 49056, "\u9ebb": 60880, "\u2581Saul": 57905, "\u6574\u500b": 47959, "\u963b\u529b": 33078, "typescript": 23075, "\u4e0d\u5e78": 22966, "\u2581Holiday": 27278, "\u2581topic": 6959, "\u8d8a\u6765\u8d8a\u591a\u7684": 27499, "\u516c\u5e03": 8940, "\u2581Tucker": 51675, "\u2581branding": 33142, "\u2581congrat": 28897, "classes": 23514, "\u2581stories": 4894, "\u8d5e\u626c": 54150, "\u2581silicon": 29954, "\u6fc0\u6d3b": 27718, "\u2581\u00c2": 53123, "\u2581projective": 31187, "\u5927\u98ce": 45853, "<|unused032|>": 177, "ogle": 3131, "\u2581Halloween": 19350, "\u2581Compare": 44659, "\u6e29\u6696": 10135, "\u5efa\u7b51": 4873, "\u2581fug": 55894, "\u2581extend": 10054, "\u57ce\u5e02\u5efa\u8bbe": 49752, "\u2581complaints": 16807, "anged": 6513, "\u660e\u65e5": 41948, "\u5165\u4fb5": 35334, "\u2581clicked": 30663, "rh": 26054, "nSix": 50433, "\u2581emotion": 12879, "ealing": 53333, "\u6e90\u4e8e": 22402, "\u2581PCI": 35381, "\u2581Sundays": 42858, "udio": 19094, "\u548c\u7cbe\u795e": 50656, ")\u2014": 58703, "come": 3318, "Must": 46752, "\u5f27": 62603, "\u8ba9\u6211\u4eec\u4e00\u8d77": 57134, "\u961f\u5217": 45137, "\u2581cough": 31263, "Metrics": 53393, "erves": 47950, "ylvan": 14189, "\u2581Sor": 34297, "\u2581cent": 1739, "nPhotos": 53093, "textsc": 12105, "\u2581Cole": 19762, "\u515a\u7ec4\u4e66\u8bb0": 36383, "\u4e00\u65b9": 18420, "\u2581regimen": 49006, "iffs": 16278, "\u2581LEGO": 53311, "\u2581echoed": 54028, "eyond": 36881, "\u8f6e\u7684": 54199, "\u5916\u8868": 33803, "\u5546\u94fa": 38424, "\u597d\u50cf": 8916, "\u2581curl": 21496, "\u2581kidding": 32585, "\u2581\\\\\\\\\\": 2289, "OU": 2908, "\u5361": 60417, "\u2581superconduct": 22205, "\u2581moderately": 44361, "\u4efb\u52a1\u7684": 52587, "\u7ea2\u519b": 27805, "\u853d": 62542, "\u2581XL": 34310, "\u2581continual": 51815, "\u2581Albert": 25421, "\u2581referring": 16165, "\u2581Merc": 46358, "\u6c34\u7535": 36185, "UID": 20423, "\u2581exponential": 17812, "adays": 20722, "\u2581mattress": 23956, "\u2581forward": 3431, "\u5230\u5e95\u662f": 36043, "\u2581transporting": 52121, "\u7a7f\u8fc7": 26295, "\u7b2c\u4e8c": 2546, "ocumented": 48750, "\u2581destructive": 30015, "bang": 44138, "\u4e50\u89c2": 18174, "imeter": 21331, "\u9078\u64c7": 26323, "\u0434\u0435\u043d\u0438": 29722, "\u2581its": 1034, "\u66ff\u4ee3": 17224, "\u8001\u592a\u592a": 46947, "\u2581planners": 49678, "\u512a": 62228, "\u0440\u0430": 1695, "\u4e2d\u5fc3\u7684": 24084, "\u043b\u043e\u0442\u043e": 20873, "argv": 30582, "uggest": 18438, "\u8d70\u52bf": 18503, "\u2581vel": 32432, "\u597d\u81ea\u5df1\u7684": 48310, "\u2581Friends": 19411, "\u8209\u8fa6": 38425, "\u8111": 60548, "\u2581pillow": 29211, "\u5730\u9707": 20244, "\u6c42\u751f": 59179, "\u611f\u89ba": 39921, "\u2581school": 1923, "\u4f17\u4eba": 25888, "\u2581mk": 49440, "\u2581EPA": 26339, "ITH": 10635, ")*(": 31588, "\u2581Brisbane": 41477, "\u2581protest": 13009, "\u2581Log": 8354, "\u2581Euler": 34003, "formed": 13389, "\u5206\u6d41": 47173, "\u2581Drink": 49510, "\u2581Trans": 5496, "\u6e05\u51c9": 41679, "\u2581unrel": 38218, "ITIES": 58924, "marks": 20790, "\u2581sarc": 35494, "\u2581predecessor": 35555, "free": 5670, "LOAD": 37473, "\u8054\u52a8": 19807, "nComing": 54866, "\u2581Gardens": 34277, "\u75db\u98ce": 54719, "\u4e94\u5f69": 50257, "\u4e92\u901a": 36441, "\u2581tractor": 52065, "\u5168\u5c40": 33043, "\u2581drinking": 10902, "\u5927\u5385": 29330, "\u2581Herman": 54344, "STD": 52494, "\u2581\u2192": 15262, "\u7d50": 61563, "\u2581develop": 1623, "\u542c\u5230": 11206, "\u9010\u6b65": 11292, "\u2581halls": 40054, "habilitation": 27666, "\u2581smarter": 31244, "\u2581fearful": 48922, "\u2581prescriptions": 50112, "gorith": 3248, "\u91c7\u53d6\u4e86": 50899, "\u2581enlarged": 49993, "\u2581SD": 10751, "\u2581obsolete": 44856, "\u0441\u0435\u043d": 30718, "posts": 26930, "\u2581interrog": 35037, "\u2581Holmes": 31592, "\u2581pause": 25309, "\u2581wip": 26541, "alore": 38640, "\u2581buff": 9172, "\u2581Dell": 28158, "\u2581terms": 2818, "peria": 59114, "kinson": 44627, "nable": 41682, "\u2581pret": 2538, "fa": 6404, "\u2581incorporate": 17678, "\u8d1f": 60278, "\u2581dinner": 8157, "\u7de8": 62729, "\u2581Corinthians": 57934, "Ds": 29731, "atively": 4286, "\u2581Tax": 14219, "\u2581solid": 5192, "\u6279": 60437, "\u62c6\u5378": 57313, "\u672c\u8d5b\u5b63": 28042, "\u2581recalling": 52627, "prov": 17108, "\u2581Touch": 22333, "\u2581univers": 7699, "\u5395\u6240": 22210, "\u4e9a\u9a6c": 29740, "\u2581\u041e\u0431": 57832, "UNE": 57150, "\u5411\u5927\u5bb6": 54154, "\u2581beers": 25502, "\u2581endeavors": 53958, "\u5458\u5de5": 6391, "Cas": 46351, "outed": 35527, "\u2581relief": 12121, "hoot": 40417, "washer": 37928, "NjA": 46481, "\u8fa8\u522b": 47514, "compare": 22394, "\u5f53\u65e5": 25364, "wn": 1202, "Target": 15905, "\u6c34\u7a3b": 41552, "\u5728\u4eba": 50651, "\u2581ERROR": 53335, "\u2581unambig": 55319, "\u4e50\u56e2": 48345, "\u2581detects": 47220, "\u2581carb": 32167, "\u2581utils": 57534, "\u56fd\u5916": 14498, "\u2581tourists": 22242, "\u9762\u819c": 42400, "\u2581editors": 22883, "\u2581Tou": 54610, "\u2581rushed": 25928, "lost": 51208, "\u5352\u4e2d": 59092, "nHar": 34017, "\u5e87": 63621, "\u5b9e\u65f6": 19420, "Rend": 27656, "\u516b\u6708": 45296, "\u559c\u6b22\u5403": 49882, "\u2581kay": 34081, "\u2581Allen": 16780, "bot": 12836, "\u2581boosted": 46209, "enko": 49417, "\u8425\u517b\u8d39": 56213, "\u2581bothering": 59024, "\u2581regret": 18355, "\u6094": 61699, "\u2581\u0416": 40388, "\u2581considering": 6757, "\u4ec5\u4ec5\u662f": 37507, "\u2581substantive": 56385, "enda": 11266, "\u63ba\u6742": 52841, "cro": 27252, "\u2581essentials": 44903, "\u2581First": 4782, "\u2581Teacher": 34699, "\u2581(\\\"": 11610, "\u4e0a\u9762": 10359, "\u2581Ms": 14161, "orated": 54370, "\u2581\u0442\u0435\u0440\u0438": 53539, "\u6807\u8bed": 50621, "aling": 4765, "\u6084\u7136": 52148, "\u2581Lance": 43991, "\u2581Curt": 33781, "inja": 27630, "\u6811\u53f6": 43715, "\u610f\u5473\u7740": 10095, "\u2581continental": 44529, "Intent": 46341, "<0x7E>": 431, "\u8bbe\u5907\u548c": 58150, "reci": 4814, "\u2581prospects": 18769, "\u5f88\u4e45": 19934, "\u2581deduction": 53810, "\u2581Bring": 29237, "\u7ec6\u80de": 7019, "Rel": 12292, "\u2581unavoid": 52831, "clk": 55554, "Validate": 49848, "\u2581Pod": 23242, "\u7684\u4e24\u4e2a": 42039, "\u4ec7\u6068": 55287, "movie": 42221, "\u4f5c": 59681, "\u2581enjoy": 2730, "\u2581slide": 15471, "\u2581proceeding": 32051, "configuration": 23450, "\u2581Saint": 19341, "\u2581Consumer": 27005, "\u2581Dol": 36333, "\u2581ultimate": 12328, "\u4e8b\u9879": 11742, "\u2581monster": 18875, "\u4ee5\u81f3\u4e8e": 29935, "\u2581crore": 36947, "\u4eb2": 60218, "\u2581Mac": 5065, "\u8fdd\u53cd\u4e86": 58483, "\u2605": 61771, "bo": 1219, "\u2581bas": 2099, "\u2581plenty": 6920, "\u2581ads": 10645, "\u2581Ridge": 27585, "\u2581\u0432\u0435\u043a": 29581, "\u2581explicit": 8017, "\u5668\u548c": 43949, "\u4e3b\u677f": 48692, "\u2581lump": 45867, "ish": 1078, "\u7684\u8bf4": 24630, "\u52a8\u7269\u56ed": 56181, "\u2581Reporter": 44953, "\u58ee\u89c2": 48972, "\u4e8b\u5148": 33975, "security": 15286, "\u2581Clark": 17449, "\u98df\u7528": 13427, "\u2581decre": 5436, "\u2581send": 4526, "nhttp": 8467, "isch": 37485, "arlie": 55714, "\u2581pastors": 55788, "\u2581css": 52971, "\u5927\u6218": 24617, "\u2581Council": 6517, "\u2581virtually": 14998, "\u4e0d\u6e05": 18582, "\u043a\u0440\u044a": 42023, "threat": 36735, "\u2581onion": 27534, "alled": 17217, "\u60a3\u4e0a": 51399, "\u2581engra": 48121, "\u540d\u4e49": 30791, "\u9a7e\u9a76\u7684": 47283, "does": 27573, "\u50f9\u503c": 34455, "\u5c45\u5bb6": 24945, "}&": 14295, "VS": 19177, "\u2581steps": 5126, "\u5349": 63014, "\u538b\u6291": 34509, "\u5587": 62944, "\u2581sink": 17431, "\u811a\u8e0f": 43669, "\u2581households": 16269, "\u2581harvest": 17566, "\u0443\u043b\u0442\u0430": 57868, "\u8fd9\u4e9b": 2276, "\u53ea\u662f": 3331, "\u2581Sur": 7282, "eV": 9314, "phy": 14331, "\u2581Riemann": 27618, "\u2581DAY": 37474, "\u2581constructed": 11343, "\u2581\u043d\u0430\u0447\u0430\u043b\u043e\u0442\u043e": 47472, "\u5a31\u4e50\u5708": 26232, "\u56fd\u503a": 44749, "(": 59605, "\u9988": 61777, "\u2581substrates": 54297, "\u6e20\u9053": 11100, "\u2581assert": 12303, "Blue": 26638, "NTI": 30738, "<|unused112|>": 257, "\u5f53\u5e74": 11318, "\u2581zeal": 52273, "CODE": 29972, "\u624b\u81c2": 35121, "\u2581geometry": 12677, "\u5168\u7403\u5316": 45472, "\u2581Allan": 51987, "\u74e3": 62264, "\u2581auction": 19370, "\u0431\u0440\u043e": 37101, "apse": 9475, "\u65e5\u76ca": 21094, "\u2581Children": 13337, "\u2581Pin": 22045, "labels": 24145, "\u8fed\u4ee3": 40854, "\u2581Chen": 25118, "\u76cf": 63117, "Occ": 46088, "\u2581dislike": 31644, "\u52f5": 63344, "\u5c31\u7b97": 11364, "\u2581charts": 20838, "\u5217": 60304, "\u2581decorations": 39552, "\u2581appet": 22049, "ere": 912, "\u9632\u6652": 35674, "\u0422": 61034, "\u5bf9\u9762": 30104, "\u54ee": 63376, "\u2581TWO": 46197, "\u2581SG": 40546, "\u2581other": 924, "\u7684\u91cd\u70b9": 33341, "\u2581Scottish": 22672, "\u2581regardless": 10484, "\u5473\u9053": 12033, "\u2581Ink": 47693, "\u2581advised": 19656, "\u2581soph": 12293, "\u6d17\u793c": 51536, "\u2581lightning": 28628, "\u2581owns": 18961, "\u6613\u4e8e": 40150, "esque": 43281, "\u501f": 60473, "\u2581imprison": 26810, "nwith": 4835, "\u5730\u533a\u7684": 18056, "\u2581Yesterday": 43675, "keepers": 46512, "\u2581Cause": 47106, "tlet": 54801, "ndef": 6895, "\u2581televised": 59231, "shock": 44344, "\u2581Values": 43116, "\u6d6a": 60857, "\u2581smell": 14310, "\u7684\u674e": 50162, "\u2581Plan": 7445, "\u2581harmonic": 23523, "\u2581snapshot": 29636, "\u2581inhabit": 26349, "\u2581torn": 19678, "micro": 29308, "\u2581aria": 31413, "\u2581URLs": 41855, "\u5fd7\u613f": 6102, "\u2581methods": 3751, "\u4e8b\u4e1a\u7684": 48648, "\u5408\u89c4": 31297, "\u2581razor": 50420, "\u66f2\u6298": 46042, "\u2581Constitution": 15253, "\u73b0\u884c": 45554, "\u2581Complete": 27477, "Credit": 39997, "\u6298": 60825, "\u2581inter": 1144, "\u79be": 63165, "\u2581encrypted": 29857, "\u4f1a\u4e0a": 9583, "\u2581Belgium": 28850, "\u2581mutually": 31891, "\u548c\u4e2d\u56fd": 32684, "\u2581twent": 36033, "\u2581registers": 39797, "\u2581generative": 36073, "\u4fa7\u7684": 50868, "\u2581bean": 30009, "\u2581interacting": 20446, "\u518d\u4e5f\u6ca1\u6709": 47870, "kowski": 54646, "\u632f\u594b": 55517, "\u79df": 60752, "\u00f4": 63119, "\u2581commitment": 10512, "\u2581conject": 53630, "\u7075\u9b42": 15431, "\u2581Miles": 32442, "ien": 2542, "Acknow": 18982, "\u5907\u8003": 29304, "\u6307\u5bfc\u4e0b": 31479, "\u7eea": 60941, "hours": 40474, "\u2581Bass": 35045, "MTE": 46023, "\u2581poem": 22028, "\u2581typeof": 37276, "\u2581ignore": 11342, "\u2581finely": 46822, "\u5185\u5411": 52892, "\u2581GOD": 40795, "\u2581azimuth": 39209, "\u2581CAL": 49823, "\u5ba2\u5385": 26440, "\u2581Corn": 22141, "\u7ecf\u5386\u8fc7": 30965, "\u2581Went": 48490, "Commun": 55354, "airs": 5981, "\u2581Guitar": 46988, "\u2581pervasive": 58970, "range": 5067, "\u2581partly": 18932, "\u2581up": 828, "otyping": 50816, "\u2581qualifying": 29311, "\u2581personality": 12449, "\u5efa\u8a2d": 32538, "\u2581Quite": 39418, "\u2581incub": 41800, "OTg": 59036, "\u2581op": 3259, "mmet": 5647, "defn": 32335, "\u65b0\u534e\u793e": 45933, "fusion": 53164, "\u2581Hall": 6490, "\u98df\u7528\u6cb9": 59502, "\u5e7b": 61423, "LD": 11361, "\u2581School": 4388, "\u4e0a\u62a5": 28898, "epsfig": 42472, "\u9ad8\u539f": 30823, "\u4eba\u4e0d": 27971, "\u627e\u51fa": 30869, "\u2581reload": 46455, "\u4e0d\u5bb9\u6613": 17653, "WS": 13764, "\u2581Comp": 5317, "\u2581planned": 8950, "\u7b2c\u4e00\u4e66\u8bb0": 54579, "\u2581ESPN": 22700, "\u68c0\u5bdf\u5b98": 47614, "\u4f4f\u9662\u4f19\u98df\u8865\u52a9\u8d39": 55251, "\u9ed1": 60387, "nwithin": 41755, "\u4e3b\u9898": 5648, "\u2581Canyon": 32188, "\u2581typ": 2434, "\u4e0d\u7528": 8672, "\u9650\u5ea6": 33046, "\u2581Sherman": 45047, "\u2581avoid": 3970, "\u4e8c\u7ef4\u7801\u8f6c\u8d26": 46642, "vez": 47041, "tom": 35246, "\u79d1\u6280": 3540, "Voice": 53861, "\u51fa\u5e2d\u4f1a\u8bae": 41029, "\u2581Psych": 22150, "\u043a\u0430\u0437\u0432\u0430": 58119, "\u6da8": 60594, "\u6084": 61862, "\u601d\u60f3": 5296, ":#": 42870, "\u2581Patrick": 17510, "\u2581Gu": 3636, "\u7ea2\u697c\u68a6": 57922, "@": 59879, "<|unused133|>": 278, "')": 2923, "protected": 11782, "\u56de\u987e": 18168, "\u521a\u521a": 11007, "\u4ea4\u901a\u4e8b\u6545": 13993, "Ang": 20899, "\u8fd8\u4f1a\u6709": 51289, "LO": 7243, "\u2581treating": 18059, "\u5e74\u7ea7": 12961, "erness": 22336, "\u2581truth": 5171, "hs": 15055, "nSchool": 40132, "\u4e86\u5f88\u591a": 12913, "\u2581mort": 8553, "\u67d0\u4e9b": 13193, "\u2581\u2581\u2581\u2581\u2581\u2581\u2581\u2581\u2581\u2581\u2581\u2581\u2581\u2581": 129, "\u2581Conf": 14895, "\u4ee3\u8a00": 37509, "\u85cf\u5728": 42784, "\u675c": 61247, "\u2581binaries": 30799, "\u6551\u63f4": 15285, "herical": 17708, "\u62c5\u4fdd": 15886, "\u6124": 62062, "\u2581economy": 5923, "obby": 16166, "tock": 31804, "<0xEA>": 539, "\u2581suc": 9769, "\u2581Known": 48964, "uch": 913, "\u2581evalu": 5507, "\u2581Dent": 42102, "\u2581Declaration": 42112, "\u2581eleg": 15145, "\u2581Vote": 46506, "\u6c89\u91cd\u7684": 58640, "\u6211\u4eec\u662f": 28605, "\u6735": 61555, "\u308c": 63130, "CMD": 44704, "\u2581prospective": 25022, "\u2581qui": 34298, "\u2581condem": 18180, "\u2581Hulk": 54189, "\u2581cuc": 48136, "\u2581\u5e74": 12005, "\u8fdb\u53d6": 31275, "\u878d\u5408": 9393, "\u2581Cast": 11739, "\u51c0\u5316": 25236, "\u2581ns": 34457, "\u95ea\u8000": 59013, "\u7b14": 60573, "\u2581bidding": 39210, "\u2581foreign": 6485, "\u2581subreddit": 37842, "\u2581correctly": 10157, "npart": 16088, "\u848b": 61820, "\u2581{}\\\"": 44419, "\u2581Why": 5674, "<0xA5>": 470, "ssh": 39926, "Integ": 35017, "formance": 13441, "eqn": 2531, "\u2581log": 3482, "\u7a81\u51fb": 36954, "\u77e5\u8bc6": 3473, "\u2581vibe": 33689, "onight": 51152, "lint": 29115, "\u4e70\u5165": 24690, "\u2581deput": 20103, "rot": 8053, "\u52a0\u4e0a": 8100, "\u2581Force": 12534, "\u2581schol": 18158, "goal": 39766, "cester": 38282, "\u53ef\u7528": 26009, "\u8eab\u5f71": 36341, "\u2581consume": 21642, "\u9879\u89c4\u5b9a": 58814, "\u2581Comparison": 46306, "psy": 21814, "\u2581Sims": 55836, "\u2581succeed": 10115, "\u5e74\u5f00\u59cb": 25680, "\u2581wx": 36479, "\u2581grains": 22330, "\u4e13\u9879\u884c\u52a8": 38349, "\u5728\u67d0": 52488, "\u67d1": 63579, "clipse": 17488, "\u52a0\u91cd": 24935, "UND": 38911, "\u2581honesty": 29258, "\u822a": 60550, "\u2581innovation": 12801, "\u2581seasoned": 36316, "\u2581Cat": 10522, "templates": 42136, "\u2581dice": 33319, "\u2581Thing": 34566, "\u75c5\u6bd2": 7353, "\u4ea5": 63464, "\u2581Andre": 20236, "\u2581divers": 21036, "\u2581facto": 56158, "~~~": 29658, "pons": 12601, "\u2581assort": 38181, "\u7ba1\u7406\u4eba\u5458": 35519, "\u662f\u65e0": 35893, "\u2581Colors": 49065, "\u8bbe\u7acb\u4e86": 59362, "\u6210\u4ea4": 11562, "\u5e93\u91cc": 45572, "JB": 46777, "\u961c": 63047, "\u2581refuse": 18062, "\u8bef\u5de5": 28242, "\u4e2d\u5171\u4e2d\u592e": 37728, "transition": 33972, "ilus": 51546, "\u5c0f\u5e73": 36638, "\u8026": 63363, "\u5927\u6982": 9015, "\u2581exhib": 6473, "nIntroduction": 41305, "\u2581essentially": 9783, "\u0425": 61559, "\u77bb": 62936, "\u533a\u5185": 35431, "cpu": 33523, "KL": 26587, "\u7d20\u517b": 20744, "ai": 3022, "\u2581sanity": 45803, "\u2581MED": 45974, "\u2581DOES": 48007, "Links": 50584, "\u6cae": 63682, "\u536b\u751f\u9662": 43789, "\u5ef6\u8fdf": 30176, "\u2581COVID": 29549, "\u2581Ive": 54778, "\u7078": 62945, "\u65c5\u6e38\u4e1a": 48372, "\u0439": 60338, "\u2581ends": 7836, "isans": 58449, "\u7968\u623f": 24854, "\u2581refused": 13787, "exist": 36722, "\u2581turf": 45236, "\u2581rehabilitation": 34609, "EM": 4747, "\u2581applaud": 37519, "\u773c\u775b": 8353, "\u2581liking": 30824, "\u2581RET": 57132, "<0xA4>": 469, "\u0439\u0442": 49655, "\u2581Sect": 27028, "\u2581spoon": 30310, "\u2581~": 6548, "\u2581Princess": 25575, "\u7c89\u672b": 43399, "Backgrounds": 35130, "\u8230": 61564, "\u2581hey": 21551, "\u2581Chick": 55013, "gw": 25426, "\u7ad9\u7740": 50786, "\u2581bastard": 52305, "\u8072": 62203, "\u2581career": 4610, "\u8109\u51b2": 40339, "\u2581ideally": 35876, "\u2581electrons": 14040, "eea": 46228, "\u6253\u9020\u7684": 50071, "\u8b70": 61506, "\u63a8\u5f00": 58662, "\u2581Queen": 14169, "}{*": 18469, "\u2581recipients": 31406, "idd": 2360, "\u2581Dirac": 21646, "\u2581interpreting": 47702, "nLove": 27426, "nUsing": 11920, "nInst": 12754, "\u9020\u6210\u7684": 17133, "\u2581wasting": 29359, "\u2581pins": 29792, "\u2581Profile": 29069, "lyss": 53797, "\u2581legend": 13332, "\u2581pulled": 9044, "\u6559\u80b2\u90e8": 20557, "ord": 941, "\u62e5\u62b1": 26129, "\u4e86\u4e00\u53e5": 39445, "<0xBA>": 491, "\u2581scaling": 12015, "\u987f\u65f6": 28849, "\u4e70\u5355": 56577, "\u2581argument": 6260, "\u2581toilet": 18625, "\u2581ignition": 47251, "aff": 2849, "\u57ce\u9547\u5316": 51732, "\u2581Kub": 48487, "\u043c\u0438\u044f": 33304, "\u2581aided": 48464, "MSG": 52154, "ibu": 54746, "\u2581Needless": 48217, "ignty": 36287, "\u5974": 62384, "\u51fa\u552e": 19228, "\\\\}}": 43554, "}>": 21414, "\u8f66\u724c": 49396, "\u2581linewidth": 57034, "\u4e0d\u80fd\u518d": 44650, "\u2581brands": 11527, "verb": 16277, "GGER": 54704, "\u5728\u57ce\u5e02": 58205, "icer": 50792, "\u2581dir": 27551, "\u2581gradual": 37664, "\u7684\u8eab\u4efd": 35434, "\u8b8a": 61614, "\u2581Gym": 47214, "\u57fa\u7763\u5f92": 50451, "\u2581kicking": 26331, "\u5f88\u597d\u5730": 40039, "\u5f71\u54cd": 2548, "\u2581quarterly": 37028, "\u7fc5": 62590, "\u5145\u7535\u6869": 58229, "\u2581Vent": 24374, "\u8fa8\u8ba4": 40575, "obl": 57319, "\u2581gymn": 57272, "Case": 13645, "\u2581Gate": 21633, "\u6d17\u624b": 29137, "\u6c2f\u5316": 53175, "\u770b\u671b": 46536, "\u2581LA": 13249, "\\\\\\\\\\\\": 29747, "\u2581dismant": 43022, "\u2581RAM": 17643, "wife": 32005, "\u6240\u9700\u8981\u7684": 56923, "\u5f97\u5230": 4279, "nov": 9893, "\u4f1a\u5f88": 47058, "\u591a\u5934": 48071, "\u5c04\u624b": 29548, "\u6ef4\u6ef4": 26669, "\u4e9f": 63913, "\u91cf\u5316": 30107, "ital": 1884, "processor": 35507, "\u4e0d\u79bb": 40287, "\u0438\u043d": 44246, "\u2581err": 4163, "\u4e0e\u4eba": 32741, "Image": 8612, "\u7b2c\u4e00\u79cd": 51851, "existent": 53870, "\u90e8\u961f": 13084, "YES": 52096, "renched": 41392, "\u2581Minkowski": 51373, "\u5178\u578b": 15572, "\u2581heights": 29284, "\u5e26\u4e0a": 33252, "\u2581responsible": 5962, "\u5e74\u534e": 37888, "\u2581substituted": 43352, "\u4e0d\u5728\u4e4e": 51054, "\u674e\u67d0\u67d0": 49309, "\u2581archived": 47699, "\u2581Perez": 50945, "\u2581Dance": 25362, "\u8bf7\u6559": 45704, "\u2581cream": 9234, "\u2581fragile": 32110, "\u4e45\u7684": 23055, "\u2581organs": 29051, "\u2581ed": 1596, "\u2581Definition": 30031, "\u63f4": 61001, "\u2581hig": 2379, "\u2581show": 1224, "nHol": 57467, "\u2581synd": 18137, "\u8001\u5e08\u7684": 14626, "\u5353": 61691, "Ill": 28599, "\u2581complimentary": 31457, "\u51f8\u663e": 29273, "\u632f\u5174": 14113, "Contains": 44082, "\u2581HIGH": 58212, "\u56f4": 60310, "<0xFE>": 559, "\u2581que": 7152, "\u8054\u90a6": 24482, "\u2581bronze": 35875, "\u2581colleges": 21416, "\u2581brewery": 45093, "\u6216\u8005\u662f": 17558, "\u2581Practice": 24971, "Bigl": 27331, "\u6307\u671b": 51352, "\u961f\u5728": 54918, "\u4e13\u9879\u6597\u4e89": 55968, "\u2581CBD": 20857, "\u4e0d\u5931": 58133, "\u2581substantial": 12797, "ributable": 58464, "\u884c\u5217": 45721, "\u2581priorit": 27379, "\u2581grades": 22125, "\u4e5f\u66fe": 32012, "include": 4958, "OW": 4710, "\u2581Liu": 41701, "\u4e0d\u7ecf": 39346, "\u6a21\u7279": 41491, "water": 9752, "needed": 32039, "\u2581ore": 36597, "Sk": 18074, "\u2581beam": 9267, "\u5f88\u4f4e": 42759, "\u2581brain": 5307, "Methods": 33394, "\u4f5c\u4e3a": 2493, "\u6f4d": 63410, "ixon": 24763, "\u4e00\u90e8": 17922, "\u51fa\u4e00\u4e2a": 32411, "\u4e25\u91cd\u5f71\u54cd": 52224, "\u8fb9\u7684": 15362, "BS": 5911, "\u2581TH": 5494, "\u3057": 62349, "\u2581dynasty": 51197, "[\\\"": 7766, "\u5e76\u53d1": 30550, "\u2581abbre": 37477, "ryption": 19583, "\u2581Emily": 26986, "\u6751\u91cc": 22192, "\u5267\u573a": 47306, "hybrid": 53901, "\u8bfb\u61c2": 56954, "software": 33039, "\u2581commenced": 58005, "\u2581nationals": 53425, "xious": 20837, "ifts": 7055, "going": 7104, "\u2581Block": 15745, "\u2581conce": 17912, "nPeter": 38253, "Dele": 16073, "\u5b89\u4fdd": 39790, "\u2581irritation": 53787, "\u4e3b\u8981\u4ee5": 54797, "\u5f71\u54cd\u4e86": 33699, "estern": 5653, "\u2581Grace": 23192, "\u5f88\u957f": 30534, "\u770b\u6211": 54542, "nlow": 43131, "\u4e00\u5e26": 16819, "\u604b\u4eba": 44780, "Comment": 25282, "\u2581Bos": 25491, "god": 40225, "\u2581Step": 9692, "\u7f8e\u597d": 10353, "osc": 10944, "\u573a\u4e0a": 18149, "urred": 25839, "\u2581Ken": 10005, "\u6253\u6270": 46549, "\u2581Somehow": 49125, "borg": 51192, "\u4f46\u8981": 57374, "\u7684\u5404\u79cd": 32180, "\u2581\u6709": 48845, "ctory": 45071, "\u4eca\u5929": 3569, "\u8fb9": 60154, "\u5634": 61119, "\u4efb\u610f": 27287, ")^\\\\": 25586, "\u2581liber": 7533, "\u5757\u7684": 49541, "<0xE3>": 532, "\u8def\u7ebf": 16227, "\\": 59580, "hesive": 30096, "=%": 34228, "\u7f8e\u767d": 55128, "Branch": 50440, "\u2581moisture": 23743, "\u56fd\u4f1a": 39520, "nWow": 29504, "\u6863\u6b21": 48348, "\u2581advis": 12086, "\u2581plagued": 50053, "\u7ef4\u4e9a": 49411, "\u2581troops": 13798, "estone": 20541, "parency": 19421, "newpage": 43115, "nReviews": 46973, "\u97ff": 62159, "\u2581internship": 39472, "\u4e00\u5ba1\u5224\u51b3": 46718, "\u82ef": 62205, "\u2581Bj": 57981, "\u2581reimbursement": 56235, "\u2581sentence": 9554, "\u2581encoded": 27134, "\u989d\u5916\u7684": 55938, "pus": 18285, "\u2581lub": 37177, "nConclusion": 38943, "\u2581dual": 10414, "\u7ad9\u7acb": 46845, "}$&": 38201, "ccc": 21132, "earance": 45758, "ractor": 25005, "\u5a25": 63229, "go": 2794, "\u5982\u4e0b": 7584, "\u73b0\u5df2": 18865, "\u5ead\u5ba1": 23446, "dan": 39771, "\u54f2": 61493, "iews": 59363, "\u2581laboratories": 51841, "\u533b": 60006, "CAN": 56460, "\u9ad8": 59719, "\u2581marvel": 30558, "Arc": 54670, "\u867d\u7136": 3213, "\u2581hesitate": 27181, "por": 2179, "\u517c\u5bb9": 40136, "\u6c42\u5b66": 58879, "\u2581interpretation": 12915, "\u4e66\u6cd5": 14637, "TRAN": 55891, "\u732a": 61005, "\u2581Dept": 57162, "ally": 761, "\u68a6\u89c1": 36929, "\u2581duck": 29089, "\u2581Theod": 59077, "\u80fd\u529b": 2604, "\u2581Zoom": 51124, "\u53e5\u5b50": 24969, "\u2581PN": 54881, "\u9762\u4e34\u7684": 35979, "\u80fd\u5728": 18575, "\u2581battling": 34072, "nTh": 2740, "\u8861\u91cf": 29560, "\u2581Lic": 21479, "\u2581convers": 4487, "\u0431\u0435": 15438, "\u2581scalar": 10798, "cknow": 6342, "\u2581Another": 9310, "bel": 8331, "\u2581identification": 14598, "\u53d9\u5229\u4e9a": 34220, "\u2581mutation": 35184, "\u4f60\u662f\u4e0d\u662f": 53742, "\u7d1b": 63451, "\u516d\u5e74": 28115, "\u8150\u8d25": 28611, "Amazon": 48596, "done": 19923, "LB": 31966, "\u73b0\u4ee3\u519c\u4e1a": 56564, "\u2581impressed": 14611, "\u672c\u606f": 56637, "arent": 2230, "\u2581CIA": 23201, "nox": 34104, "nmust": 48504, "\u2581hostage": 49005, "whel": 10881, "\u751f\u4ea7\u7ebf": 36930, "\u8fb9\u4e0a": 52743, "\u5e94\u6ce8\u610f": 54514, "\u2581Coy": 57074, "\u97ed": 63272, "\u2581underest": 28085, "\u2581Tact": 54495, "\u767e\u4e07": 18413, "\u2581governance": 25653, "\u2581yearly": 32508, "Contract": 36994, "\u505a\u7684\u4e8b": 44706, "arget": 2294, "Article": 31743, "\u677f\u6750": 56611, "\u5ba1\u5224": 12327, "\u2581flowing": 23383, "\u53ef\u662f": 5863, "\u2581tmp": 35422, "\u5199\u5f97": 56167, "agonal": 36146, "Instead": 54989, "\u2581Bayes": 57106, "\u2581numbers": 4117, "\u2581press": 2718, "\u2581differ": 14650, "\u6bd4\u5206": 31250, "\u2581shortages": 56421, "istration": 17614, "\u2581metic": 46135, "\u5355\u5143": 9770, "kel": 29851, "ute": 1602, "otto": 43987, "illa": 7090, "\u2581Quotes": 49303, "\u2581onClick": 58964, "active": 5683, "\u5df2\u7ecf\u88ab": 27346, "OTHER": 50793, "\u60ca\u559c": 20606, "\u633d\u6551": 50763, "elected": 55082, "\u2581insignificant": 49726, "\u2581assigning": 44954, "\u732a\u8089": 23341, "\u6bcd\u4e73": 32072, "\u4e5f\u80fd\u591f": 41292, "\u5b9e\u9645\u7684": 49792, "\u5b8c\u6574\u7684": 23385, "\u2581UI": 17080, "\u2581Gordon": 21013, "\u4f0a\u65af\u5170": 40760, "Browser": 47608, "\u2581Croatia": 52624, "\u2581Would": 12511, "\u6bcf\u5e74\u7684": 37914, "sites": 39826, "\u6b32": 61060, "\u2581mock": 14158, "Bay": 20340, "\u2581cleanup": 38580, "docs": 14335, "\u2581toddler": 36270, "enberg": 34095, "\u2581calib": 13812, "iliate": 36600, "(\\\"%": 29608, "\u2581greenhouse": 29687, "ando": 17873, "\u2581goog": 48212, "nre": 5840, "lod": 56432, "\u7834\u788e": 35960, "\u2581sw": 2215, "\u524d\u950b": 50390, "\u2581cheers": 57204, "\uff5e": 61105, "\u2581surviv": 19235, "\u4e8c\u624b": 20152, "\u6d77\u8fb9": 59529, "\u2581elusive": 45942, "\u2581tax": 2999, "nLast": 9442, "\u5b9e\u65bd\u4f8b": 31752, "\u2581obst": 17022, "\u2581alignment": 17434, "\u2581broadly": 32316, "\u2581\u0433\u0440\u0430": 13319, "\u2581dealer": 19254, "\u6027\u611f": 41784, "\u2581modalities": 48641, "\u2581scores": 10186, "\u2581sang": 31571, "\u0440\u0435\u0437": 13192, "\u2581weakly": 25980, "nAv": 28865, "\u7f6a\u540d": 43602, "\u60e0\u5dde": 51925, "\u6beb\u4e0d\u72b9\u8c6b": 56040, "\u4e53": 63326, "\u2581planting": 32297, "\u6d4b\u8bd5": 7748, "\u2581Major": 13081, "\u8ffd\u9010": 35895, "}--\\\\": 54580, "\u4e60": 60015, "\u2581intra": 24104, "\u8f6c\u8ba9": 16026, "\u2581(_": 30280, "\u5176\u884c\u4e3a": 41868, "ond": 1106, "\u2581Solve": 35529, "rovers": 10877, "\u9752\u6625\u671f": 52318, "\u2581Assembly": 17616, "\u2581slices": 27617, "iga": 26027, "\u2581locally": 12477, "\u53ca": 59803, "mph": 42606, "\u4e07\u8f86": 27468, "nAff": 55386, "\u505a\u8fc7": 26599, "\u2581casino": 14890, "\u75ea": 63979, "entries": 47807, "\u5206\u88c2": 31124, "lik": 8818, "Router": 44511, "\u2581unem": 14264, "outhern": 7665, "\u53d1\u552e": 56238, "\u8304": 62558, "\u2581pointing": 14866, "\u2581shame": 14701, "\u6295\u6807": 28000, "nINSERT": 43924, "\u2581garner": 58063, "\u2581protests": 21912, "}{\\\\": 2223, "\u5165\u5e02": 57116, "\u2581emerge": 22429, "\u0421": 60525, "\u2581indicates": 9040, "\u8003\u524d": 54484, "\u2581sel": 21915, "ppers": 19833, "\u4e00\u6837\u7684": 11322, "\u80ba": 61039, "\u2581smiling": 26702, "\u2581\\\"(": 59421, "\u2581horrible": 15969, "\u2581Door": 36138, "ular": 1170, "\u2581Romania": 46530, "\u76f8\u53cd": 16493, "\u2581Maker": 41002, "\u2581visible": 9686, "\u2581lemon": 20770, "\u6392\u6c14": 44569, "\u8150\u8680": 35102, "\u2581exclusion": 31133, "\u2581animal": 8507, "\u2581Paul": 5614, "\u6a21\u5f0f": 4608, "\u5c0f\u7a0b\u5e8f": 41437, "\u043a\u0441\u0438": 49480, "\u2581Eyes": 41969, "\u2581neurological": 55542, "erv": 973, "\u0449\u0430\u0442\u0430": 31085, "ourse": 10910, "\u2581asks": 12374, "\u2581NF": 57071, "\u4f3c\u7684": 25717, "loading": 21012, "orned": 51597, "kick": 36703, "\u0440\u0438\u0439": 56073, "\u2581kidney": 30137, "ulatory": 30213, "\u2581\u043d\u0430\u0433\u0440\u0430": 45499, "\u671f\u95f4": 4080, "\u2581saving": 12056, "\u6210\u6548": 15447, "++)\\": 24555, "\u2581Youth": 23097, "ga": 2290, "Al": 4389, "\u2581Sorry": 20752, "LES": 35865, "\u51cf\u6301": 44294, "\u2581scar": 16783, "\u2581Celebration": 58505, "cry": 57830, "\u7528\u5230": 40557, "cq": 49852, "\u2581waveform": 53369, "\u2581club": 5187, "\u6ca1\u90a3\u4e48": 52272, "idy": 47942, "\u2581slice": 18631, "Flash": 52410, "\u2581entrepreneurial": 49781, "\u2581dem": 2027, "\u2581Mama": 46357, "\u2581discussed": 6466, "\u67e0": 63262, "odge": 13432, "\u8110": 63498, "\u2581delegation": 40018, "\u2581ratt": 46766, "\u2581accret": 18391, "\u2581orphan": 38255, "\u5b9e\u6548": 31556, "buck": 45649, "\u4e8f": 61511, "\u5728\u751f\u6d3b\u4e2d": 42429, "\u2581hormone": 30472, "\u4e0d\u90a3\u4e48": 55496, "\u4e3b\u89d2": 16926, "ision": 1853, "\u559c\u8fce": 57041, "\u2581wedding": 8760, "\u5e26\u6709": 18861, "pmatrix": 14697, "\u4f4f": 60118, "cles": 4953, "\u2581Est": 14547, "September": 41823, "\u0430\u0439": 20068, "\u2581retailers": 20205, "\u2581Hidden": 44677, "\u52a0\u5feb\u63a8\u8fdb": 37897, "stdout": 41543, "\u6b63\u89c6": 59565, "\u2581planetary": 34508, "rians": 28875, "nApparently": 46457, "cells": 43850, "\u2581Lib": 7343, "olds": 3492, "\u2581turbulence": 29015, "listen": 48939, "\u2581growers": 50530, "\u8d22\u7269": 32785, "\u2581crime": 8205, "nsl": 48955, "VAR": 53939, "\u68c0\u67e5\u7ec4": 54253, "\u2581\u043f\u0440\u0435\u0434\u0438": 36141, "ArrayList": 38487, "\u4e0a\u73ed": 13976, "\u2581backup": 13756, "\u2581sequences": 13508, "\u5360\u7528": 29699, "hua": 39335, "avelength": 12783, "\u8868\u6001": 35668, "\u90fd\u80fd": 9133, "\u2581Strat": 45887, "\u6784\u9020": 28249, "\u2581resize": 49534, "\u73b2": 61797, "\u2581hand": 1474, "\u2581enzymes": 43707, "\u6211\u5e0c\u671b": 29720, "\u2581died": 6407, "\u7b2c\u4e09\u65b9": 23041, "TAG": 37712, "\u2581blink": 39088, "\u9c9c\u8273": 46609, "\u8f66\u8f7d": 50540, "nCol": 13825, "ungal": 55915, "umerous": 44916, "\u00ac": 62630, "\u2581verbal": 29668, "\u5c11\u5403": 42075, "amel": 22979, "\u2581humorous": 43635, "\u7684\u76f8\u5173": 18433, "\u2581Gir": 45234, "\u017c": 63706, "modules": 15404, "sor": 24423, "\u2581Around": 29410, "\u4e0d\u505c\u7684": 56989, "\u2581mens": 56741, "\u6cfc": 62297, "\u963f\u5bcc\u6c57": 36462, "\u2581Tate": 53801, "\u2581fram": 4732, "\u5e73\u5e73": 50278, "bigoplus": 45389, "density": 23959, "nedit": 46468, "\u2581relatively": 6745, "\u5c1a": 60761, "\u2581Kay": 25412, "\u2581impending": 47718, "\u2581Their": 7454, "\u5b9e\u73b0\u4e86": 15042, "\u2581susceptibility": 34216, "\u2581Poincar": 54557, "\u8fa9\u62a4\u4eba": 48778, "\u2581Pad": 23122, "\u8bf4\u8bf4": 25360, "actual": 30224, "\u2581Edit": 32222, "\u5904\u4ee5": 58772, "\u2581replies": 30113, "\u2581funeral": 23864, "\u4e13\u9879\u6574\u6cbb": 35511, "\u5999": 61320, "ensation": 40688, "ert": 1135, "\u2581non": 1804, "\u00e7\u00f5es": 54000, "\u2581bes": 15365, "\u65b9\u7a0b": 43679, "\u53c2\u52a0\u6d3b\u52a8": 59545, "\u2581social": 2802, "\u62b5\u5fa1": 48263, "\u800c\u6613": 41950, "subequations": 26153, "\u53eb": 60521, "treturn": 4390, "\u5668\u5177": 53988, "\u2581McL": 32646, "\u2581rents": 54438, "RG": 33030, "\u5e72": 60107, "\u2581Woman": 24602, "\u2581bonded": 49844, "HPV": 58291, "record": 18879, "\u2581lacks": 25959, "ndev": 52791, "\u8fc7\u5269": 44725, "\u2581enthusiasts": 31176, "\u5de8": 60734, "\u2581templates": 22224, "approxim": 24369, "\u2581Lock": 21141, "\u4e00\u5b9a\u8981\u6ce8\u610f": 50249, "\u5347\u8d77": 51510, "\u2581highly": 4686, "\u84dd\u5929": 32379, "\u2581TB": 32248, "$^+$": 47164, "\u6700\u559c\u6b22": 44445, "\u6cb8\u817e": 53446, "\u5e76\u4e0d\u4ee3\u8868": 59154, "paced": 39729, "\u2581planner": 37416, "\u2581vicinity": 28344, "\u4f4d\u5c45": 33723, "\u672c\u4eba": 12080, "\u2581GPS": 20448, "\u2581Beijing": 23193, "Face": 37623, "oo": 3631, "\u90fd\u6ca1\u6709": 10222, "\u2581speculation": 25023, "\u2581Wheeler": 55656, "\u7dd2": 63793, "*}": 18784, "\u5b81\u5fb7": 50405, "\u62b5\u62bc": 22171, "\u56db\u6b21": 50277, "oidal": 25927, "\u2581Brun": 25086, "\u4e09\u8005": 46419, "\u4e00\u4e2a": 1075, "\u2581Move": 17824, "\u65b0\u897f\u5170": 43640, "\u2581scarc": 42027, "\u2581irres": 32295, "\u2581realised": 25970, "\u5e9e\u5927\u7684": 39245, "\u70ed\u6f6e": 52151, "Nzk": 54227, "ses": 8001, "\u2581Snow": 17352, "\u7ffb\u7092": 37401, "\u2581goat": 41486, "\u305f": 62808, "ello": 7955, "\u2581dense": 14802, "\u8981\u5148": 55994, "\u7cca\u6d82": 41225, "\u2581Neumann": 47622, "\u53e4\u4eba": 30697, "\u2581mall": 25657, "\u2581Me": 3418, "\u2581well": 1191, "\u7275\u5934": 32430, "\u706b\u661f": 33942, "\u2581reliability": 19226, "\u2581Celebr": 36524, "nAss": 16314, "\u6631": 63929, "\u2581ALWAYS": 51988, "\u2581deepest": 37362, "\u2581vulnerable": 15592, "\uff01": 103, "\u2581expl": 1684, "\u6c5f\u82cf": 10736, "erm": 1121, "\u2581Fifth": 38803, "\u2581benefit": 5755, "\u5404\u79cd\u5404\u6837\u7684": 33282, "ched": 2669, "\u524d\u9762": 14555, "\u2581cultures": 18683, "\u5206\u53d1": 45607, "\u8fb9\u5883": 32454, "\u697c": 60474, "\u53bf\u4eba\u6c11\u653f\u5e9c": 54889, "\u2581Sonic": 41957, "\u2581mosquit": 59204, "iya": 52130, "\u6210\u4e3a": 2606, "\u2581juvenile": 39551, "nSearch": 21125, "\u806f\u76df": 59181, "\u2581blankets": 44803, "\u2581Hogan": 57670, "rotron": 41424, "\u91cc\u9762": 7189, "citealt": 25205, "nR": 1477, "velopment": 32750, "\u2581multit": 56478, "nle": 18829, "velocity": 27132, "Promise": 53213, "\u5bdd\u5ba4": 48199, "\u2581prost": 22354, "\u5f79": 61479, "\u2581organised": 27761, "\u5267\u60c5": 17976, "\u2581Sebast": 43613, "template": 13879, "\u5b66\u4e60\u548c": 30653, "\u2581voluntary": 29606, "ural": 1886, "\u2581Mar": 3358, "\u2581naturally": 10518, "\u7684\u4e00\u65b9": 58414, "\u6b65\u4f10": 23920, "ial": 802, "artifact": 47824, "ties": 2995, "\u503e\u542c": 30133, "\u2581stall": 34865, "\u5341\u56db": 12514, "\u2581ash": 20656, "\u5de6": 60488, "\u9192\u6765": 30699, "\u2581batteries": 18972, "zer": 9320, "\u9996\u5e2d": 19696, "esian": 17885, "\u5f8b\u5e08\u4e8b\u52a1\u6240": 19557, "\u2581&-": 50741, "leading": 15870, "\u2581Cross": 11993, "\u9965": 62866, "\u2581--": 2145, "identity": 35262, "\u8086": 62427, "\u5236\u7684": 17485, "\u5275\u9020": 50650, "\u9677": 61175, "\u2581Compl": 29595, "\u5fbd": 61566, "\u9888": 61644, "\u2581ballots": 44777, "\u7ecf\u5178\u7684": 45559, "\u603b\u652f": 33364, "\u82f1\u6587": 14877, "\u8a00\u884c": 48371, "\u7a7a\u5fc3": 53937, "\u2581trust": 4698, "\u56de\u5bb6": 8631, "offset": 15993, "\u4e16\u4fd7": 41662, "\u63d0\u4f9b\u4e00\u79cd": 22544, "chapter": 39356, "\u2581list": 1679, "structured": 14243, "Flow": 23106, "\u5927\u6da8": 37335, "\u2581aligned": 20299, "\u2581Somers": 59340, "Shell": 28536, "AU": 29865, "ordinate": 23657, "\u2581monitored": 29132, "\u2581Iron": 18286, "paste": 36373, "edge": 7156, "mitter": 50400, "\u2581loft": 47709, "\u2581Administrator": 39885, "\u548c\u4e00\u4e2a": 36080, "\u5b83\u53ef\u4ee5": 46284, "\u7684\u751f\u6d3b\u65b9\u5f0f": 55837, "\u2581screenplay": 57310, "\u2581Washington": 5545, "\u53c8\u4e00": 35762, "\u2581summary": 11812, "uis": 15641, "uminate": 27281, "\u2581toilets": 50384, "}_+": 55294, "\u727a\u7272": 19606, "\u65fa": 61590, "\u2581longtime": 30671, "\u2581discussions": 10846, "Vo": 44550, "\u76ee\u524d": 2764, "ographies": 51184, "\u2581Vu": 58259, "\u98a0\u8986": 37154, "\u2581wanna": 20999, "\u2581wrt": 48618, "\u2581scales": 11450, "\u2581capital": 5771, "nalso": 22047, "_\\\\": 1841, "Pat": 25507, "\u2581rehe": 28732, "\u2581precision": 13029, "ins": 1564, "\u2581larger": 4131, "SIZE": 20850, "\u2581older": 5870, "\u2581meanwhile": 30566, "\u2581TT": 38665, "\u2581envelop": 16249, "\u83b1": 61404, "\u2581Improvement": 54529, "erences": 5431, "\u5316": 59753, "nLastly": 42668, "\u2581succeeding": 58569, "\u2581lingering": 48168, "\u043f\u0435\u0440": 55932, "\u2581lease": 21605, "\u2581renowned": 25860, "Pin": 38319, "ne": 1023, "\u2581sheer": 22702, "\u4f5c\u4e3a\u4e00\u4e2a": 19251, "\u2581estimate": 6763, "\u2581Review": 10344, "\u2581engineers": 17845, "\u7533\u8acb": 39496, "\u2581leakage": 42581, "\u6574\u6539": 11567, "\u515a\u7ec4\u6210\u5458": 42181, "\u2581avid": 35801, "Eval": 39583, "\u2581al": 661, "}^{+": 25508, "\u4e0a\u7f51": 28143, "\u2581Ey": 39691, "\u2581eclipse": 41635, "ALK": 42467, "\u2581Rum": 37338, "spot": 14359, "\u2581dedicated": 8013, "annel": 3744, "\u2581technologies": 9803, "\u4e4c\u514b\u5170": 19222, "Applications": 54415, "\u2581ties": 16774, "\u5c0f\u5403": 39553, "loo": 45878, "ncontin": 52882, "inent": 10882, "\u65e5\u5185": 12570, "\u4e4b\u4e61": 54147, "\u70eb": 62543, "nCongratulations": 53048, "\u2581respect": 2280, "\u575e": 63319, "ome": 760, "\u2581constituents": 36797, "\u7684\u9ad8": 6059, "\u2581um": 20582, "update": 9082, "\u4e2d\u65b9": 32707, "\u2581destroys": 50926, "\u2581Exit": 56156, "\u2581woo": 57712, "\u5960\u5b9a\u4e86": 34919, "=\\\"": 1139, "\u043c\u0438": 5305, "\u2581Aviv": 59510, "\u7a7f": 60524, "\u4e00\u5ea7": 21346, "ovie": 14415, "ccoli": 46112, "\u2581misuse": 51855, "\u2581##": 21185, "\u2581prod": 49773, "\u2581attitude": 12187, "nequ": 17136, "\u60f3\u5fc5": 36105, "\u2581shifts": 17279, "\u66f4\u591a\u5730": 55383, "\u6982": 60639, "\u6700\u65e9\u7684": 55068, "<p/>": 54, "\u2581readonly": 26829, "action": 2554, "\u2581Pokemon": 29200, "\u9f0e": 62054, "itter": 4008, "\u2581pept": 41423, "\u72b6\u51b5": 9282, "\u2581anecd": 49209, "\u2581mama": 52472, "\u2581drama": 13683, "\u9694\u7740": 57622, "\u2581reflection": 14192, "\u2581dubious": 49827, "\u7efc\u5408\u5f81": 45264, "gether": 2292, "pplication": 9957, "nCan": 11822, "\u2581Lowe": 55501, "\u8f96": 61387, "Ratio": 55387, "tein": 34491, "anes": 11550, "kit": 15384, "bourne": 19044, "\u2581eaves": 59513, "\u625b": 62747, "\u2581checked": 10401, "\u73b0\u5b9e\u751f\u6d3b\u4e2d": 54434, "\u7684\u7f8e\u56fd": 53530, "\u043b\u043d\u043e": 30896, "\u2581attractive": 11613, "pend": 16997, "\u2581ICT": 53418, "\u515a\u59d4": 9145, "storm": 19744, "\u2581Athens": 36980, "\u2581n": 609, "\u8c26": 62418, "\u2581slut": 47895, "<0x94>": 453, "$\\": 2313, "\u624b\u7684": 22630, "\u2581\u0440\u0443": 40652, "\u2581naval": 43167, "hong": 54232, "groupId": 57927, "\u66f4\u597d": 8287, "\u2581bounce": 25582, "\u601d\u7ef4": 8714, "\u2581church": 6088, "\u2581Universal": 24378, "\u2581acted": 23708, "\u6743\u91cd": 36729, "\u6691\u671f": 34416, "\u2581Brownian": 48051, "$)": 3694, "\u4e09\u5bb6": 52069, "\u2581chances": 11724, "\u2581Voice": 25254, "tSystem": 54440, "\u4e2d\u671f": 28363, "\u2581fatigue": 28358, "\u8054\u60f3": 33234, "\u2581signals": 9943, "\u4e2d\u533b": 9995, "\u2581anniversary": 14855, "ndon": 32310, "\u7cfb\u7edf\u4e2d": 37298, "Boy": 49925, "\u2581bab": 10831, "\u6240\u4ee5\u6211": 25907, "nSimilarly": 26261, "\u8005": 59773, "nine": 40209, "\u60a6": 61533, "\u9b41": 63171, "\u7684\u51b3\u5b9a": 40139, "tpl": 49929, "\u2581intox": 46205, "\u773e": 61714, "integration": 43566, "\u8d8a\u6765\u8d8a\u597d": 46250, "\u2581countries": 4493, "\u7834\u635f": 51231, "\u2581taxed": 57716, "\u2581quadrup": 32643, "\u2581collections": 18371, "\u2581enact": 24316, "Cluster": 27871, "\u2581backers": 58935, "\u8868\u683c": 36964, "\u2581Authority": 19550, "\u903c": 61478, "\u5982\u4e0d\u670d": 31519, "\u2581norm": 6110, "\u5c31\u662f\u8981": 25557, "\u6211\u53ea": 30667, "ocket": 15027, "\u2581workflow": 22569, "\u2581Florence": 43537, "acl": 47902, "<0x16>": 327, "\u2581optimizer": 40842, "\u8d2b": 60646, "\u2581ASC": 42166, "\u2581flooding": 29936, "\u2581relentless": 47155, "\u2581subsid": 13878, "nComment": 20671, "\u9010": 60622, "\u2581cru": 5897, "\u2581electoral": 33671, "games": 32176, "Dash": 46812, "ges": 3035, "\u4e4b\u5e74": 41614, "\u9e21\u6c64": 46963, "\u7684\u5408\u4f5c": 38232, "\u51fd\u6570": 17656, "\u2581winters": 56867, "ibl": 14393, "radio": 25267, "\u7cfb\u7d71": 25786, "Girl": 41087, "\u2581Bat": 14320, "\u2581Koch": 45838, "Size": 7450, "\u2581Landau": 39969, "\u2581MAN": 26023, "ifiers": 15990, "\u63d0\u4f9b\u4e00\u4e2a": 56891, "\u2581jazz": 21809, "clou": 56038, "\u2581Berg": 37339, "\u6000\u7591": 16389, "By": 4932, "\u4e00\u65e5": 16851, "\u517b\u8001\u4fdd\u9669": 33403, "\u90fd\u6ca1": 15810, "\u5f97\u610f": 42031, "\u53d1\u751f\u53d8\u5316": 47780, "\u8001\u5e08\u8bf4": 56917, "\u2581\u043e\u043a\u0442\u043e\u043c\u0432\u0440\u0438": 50865, "\u2581invoice": 40439, "](/": 40025, "\u2581subs": 7859, "\u5730\u72f1": 42050, "\u2581nurs": 11534, "\u2581inacc": 26001, "\u793c\u4eea": 31342, "\u2581pit": 11440, "\u773c\u6cea": 23526, "\u2581playground": 32240, "\u2581tests": 6843, "\u2581Jimmy": 22321, "\u2581survivor": 42582, "Reason": 52913, "\u8cb7": 62510, "\u2581invaluable": 36337, "\u2581Coverage": 54843, "\u2581lobb": 15240, "\u65f6\u95f4\u91cc": 43127, "\u2581lakh": 58304, "\u0096": 63652, "\u627c": 63928, "\u2581Kanye": 56315, "Hu": 36051, "\u2581expensive": 6966, "mo": 8689, "{": 59595, "}$\\": 9128, "\u2581Flow": 24591, "\u2581Nigeria": 25912, "\u2581Rules": 23236, "\u2581siege": 50500, "\u2581Surve": 57811, "\u53cd\u800c\u662f": 57684, "nCRE": 50520, "####": 3320, "group": 5899, "character": 25460, "\u519c\u4ea7\u54c1": 20076, "\u4e3a\u4e2d\u5fc3": 30732, "\u672c\u7ad9": 55261, "\u2581Andrea": 40356, "sol": 22039, "\u83b7\u5f97": 3718, "\u624b\u811a": 51048, "\u6253\u4e86": 23868, "\u5341\u4e09\u6761": 24786, "\u2581Wid": 42371, "\u2581chorus": 40817, "\u9769": 60504, "optim": 20370, "\u6c89\u6dc0": 26998, "\u2581fireplace": 34388, "\u2581rocking": 44377, "\u2581discard": 46621, "atter": 1468, "\u2581holomorphic": 46365, "\u2581Rend": 57271, "\u2581organizational": 30432, "\u2581Brig": 30102, "coord": 44196, "\u2581Sub": 6742, "makebox": 44346, "\u043d\u043e\u0433\u043e": 23351, "\u2581Cards": 30444, "\u2581latitude": 39943, "\u2581kissed": 40631, "IU": 58223, "\u89e3\u6c7a": 35754, "uten": 14658, "\u2581Trading": 33825, "\u2581deform": 33495, "Jon": 55771, "\u2581Nova": 38714, "racket": 36586, "\u2581what": 981, "\u2581detection": 7978, "\u03b9": 62822, "\u2581happy": 3746, "Bu": 58837, "\u2581wellbeing": 47291, "\u2581departed": 51371, "\u8fd9\u4e2a\u540d\u5b57": 51214, "\u8fd9\u652f": 44057, "Mel": 44521, "\u51e1": 61022, "\u2581maternity": 57411, "\u2581penalty": 12982, "\u6e05\u6670\u7684": 42936, "\u540c\u80de": 38539, "\u041f\u0440\u043e": 54201, "\u2581Geographic": 55402, "\u2581ceased": 51991, "'=>$": 58986, "\u2581penalties": 24066, "\u4e00\u573a": 10221, "\u6850": 62587, "\u2581Vision": 28290, "nExternal": 38071, "\u672c\u4eba\u7684": 52903, "\u2581fear": 5154, "\u2581San": 5163, "\u5f2f\u66f2": 33924, "\u2581Oct": 4158, "\u5199\u5b57": 34463, "\u753b\u753b": 42199, "Move": 25589, "\u70d8": 62532, "pository": 13584, "Signal": 49466, "\u2581assurance": 37390, "icultural": 41915, "\u2581IS": 5207, "\u4e3b\u5f20\u7684": 45835, "\\\\+": 6676, "\u2581placing": 17567, "\u6d53\u90c1": 35727, "\u501f\u6b64": 49259, "nax": 30064, "nfor": 4164, "\u0435\u043b\u0435": 32238, "\u2581\u0438\u0441\u0442\u043e\u0440\u0438\u044f": 58694, "\u2581percentage": 9892, "cellence": 34722, "\u2581thrust": 28251, "\u2581installs": 55596, "color": 4329, "tic": 5472, "\u53d1\u6325": 5991, "\u7a31\u70ba": 56174, "\u6551": 60551, "\u2581Gear": 30485, "\u2581MAT": 43273, "\u5347\u5b66": 48153, "=|": 55403, "\u7684\u672c": 31764, "\u2581switching": 16538, "\\\";": 20827, "\u2581Else": 49189, "\u2581Nvidia": 45117, "\u8fd9\u4e24\u5929": 53329, "\u0440\u0438\u0442\u0430": 45533, "\u667a\u5546": 33908, "\u51fa\u4e0d": 49729, "\u53d4\u53d4": 28429, "Java": 23302, "\u2581Database": 27189, "\u672c\u5468": 17491, "\u5728\u5176": 23160, "\u2581Aval": 55751, "\u7684\u5c0f\u8bf4": 59248, "\u666e\u904d": 11876, "\u2581\uc774": 55571, "\u53cc": 60248, "\u2581constant": 3518, "\u2581Trip": 20402, "<h1>": 32, "\u2581navy": 42390, "\u2581Bradford": 55816, "\u7b3c\u7f69": 53761, "\u2581holidays": 15947, "AYS": 25748, "\u662f\u4e0d": 7735, "layout": 17554, "\u2581MA": 10821, "\u53ef\u6301\u7eed\u53d1\u5c55": 37217, "\u2581podcast": 15765, "peror": 25263, "awesome": 53092, "\u65b0\u5a92\u4f53": 32393, "\u5c0f\u677f": 56170, "\u91d1\u724c": 35611, "loid": 46522, "\u2581bund": 25551, "\u632b\u6298": 28723, "\u2581anthem": 50206, "\u2581Fridays": 57647, "\u5236\u5ea6": 5219, "You": 3961, "bbed": 15915, "endix": 12024, "country": 21476, "\u2581sunrise": 54141, "\u6771\u897f": 40401, "\u2581Cookie": 41913, "\u9502": 62311, "locks": 39906, "\u2581primes": 49799, "\u2581Protestant": 52371, "\u81a8\u80c0": 28060, "'<": 55205, "\u56e2\u5706": 50851, "window": 15177, "\u2581Faculty": 38170, "\u2581dimensions": 10816, "iet": 3980, "\u2581distributions": 10062, "ISE": 25607, "physics": 46725, "\u2581preschool": 47223, "\u539a\u91cd": 55733, "\u8cb4": 63053, "\u4e4b\u5bb6": 26944, "\u5bf9\u6211\u4eec": 29245, "\u2581Extended": 48026, "xymatrix": 55481, "\u770b\u6e05": 43509, "right": 1188, "\u2581flor": 52796, "\u8d26": 60984, "\u4f10": 61931, "\u4e0d\u77e5\u9053": 5546, "\u2581pear": 29396, "\u2581geek": 34635, "\u2581Ped": 22044, "\u95dc\u6ce8": 46749, "\u51ac\u5b63": 17840, "\u2581sprinkle": 54786, "\u8363\u8a89\u79f0\u53f7": 49600, "();": 11933, "func": 15769, "\u4e09\u516b": 50058, "state": 4004, "\u2581Courts": 55812, "ise": 1178, "\u54c9": 63492, "\u67d0\u67d0": 6976, "\u4e00\u4fa7": 43353, "\u662f\u6307": 12355, "\u8fbe\u4eba": 52634, "\u2581churches": 19277, "cially": 2564, "\u2581Virgin": 9432, "\u65f6\u95f4\u4e3a": 28377, "nResults": 40779, "sin": 6286, "nReg": 13503, "ilot": 37366, "\u2581staging": 48662, "resis": 59426, "\u865a": 60849, "ictory": 26260, "Enter": 29342, "bz": 47033, "\u2581Muslim": 8849, "Jim": 45398, "vance": 18601, "\u7ecf\u8d39": 22959, "\u2581caf\u00e9": 59260,
[...]
