{"\u2581wy": 8501, "current": 3022, "\u2581sen": 5351, "\u2581Israel": 6532, "\u2581dust": 9188, "asted": 13072, ".[": 20011, "\u2581formal": 9907, "\u2581sque": 11322, "\u2581Present": 21073, "\u2581Customer": 16648, "bres": 13243, "\u0449\u0430": 6770, "\u2581tricks": 25556, "\u2581nei": 18986, "\u2581Next": 8580, "sn": 6713, "\u2581sounded": 13219, "\u2581/******/": 19250, "\u6557": 30903, "ographic": 12293, "\u2581mirror": 12142, "zech": 14627, "\u2581carrier": 20320, "\u0446\u0435\u043d": 20829, "\u2581rape": 21170, "\u2581Ther": 16481, "\u2581societ": 25749, "\u2581gold": 5014, "\u2581estim": 6010, "\u0431\u044b": 10092, "Emitter": 26264, "\u2581Napoleon": 27819, "<0x9C>": 159, "exists": 10600, "\u2581otro": 22441, "ze\u015b": 21902, "\u2581inequ": 16431, "\u2581Optional": 12786, "\ud2b9": 31684, "\u9762": 29181, "\u2581zwei": 12229, "f\u00e9": 24606, "enders": 14930, "\u2581fortune": 19808, "vector": 6296, "\u2581Athlet": 19092, "LIB": 26604, "\u2581thus": 5884, "\u3046": 29620, "\u2581\u0434\u0432\u0430": 17489, "\u2581concerning": 15942, "\u2581swo": 20153, "\u2581assertTrue": 21923, "<0x05>": 8, "ended": 2508, "\u0153": 28952, "Bottom": 15482, "\u2581helped": 6481, "rings": 26661, "ah": 912, "global": 5515, "\u2581Sor": 21476, "remarks": 21178, "db": 2684, "\u2010": 29558, "ok": 493, "\u2581Nothing": 11081, "\u5217": 29150, "slot": 12685, "\u2581vide": 8414, "\u2581Rick": 14613, "\u2581initial": 3742, "\u2581assumed": 11012, "\u7a0b": 29265, "\u2581Weight": 19785, "\u0148": 29026, "ining": 4038, "\u2581gal": 7514, "\u2581repair": 11701, "\u2581evaluated": 23001, "\u611f": 30266, "\u2581introduced": 8160, "^{-": 3918, "achte": 22986, "\u2581idi": 25927, "bd": 8492, "constructor": 18245, "\u2581readers": 12076, "\u2581scheduled": 13873, "\u0442\u0435\u043d": 17010, "uity": 25239, "\u2581uitgenodigd": 15649, "\u2581s\u00e9": 7553, "\u2581identifying": 21653, "estamp": 7039, "itr": 26282, "\u2581ster": 17049, "\u2581ah": 27069, "\u2581reduced": 9397, "\u0e35": 29560, "--;": 16850, "\u2581h\u00e1": 22176, "\uc704": 29744, "\u2581bill": 4875, "\u2581Verm": 19191, "./": 3849, "theless": 13054, "schedule": 20913, "\u2581immigr": 15502, "bread": 28090, "\u2581notes": 8321, "\u2581pregnancy": 18974, "\u2581Vor": 11975, "Opt": 14205, "\u2581beds": 21137, "\u2581wherever": 20517, "Tasks": 15839, "\u2581Helen": 18504, "\u2581thesis": 23412, "\u2581Number": 8978, "<0x49>": 76, "find": 3326, "CLU": 28354, "\u2581sensitivity": 22486, "\u5382": 31228, "iero": 23419, "enue": 24529, "9": 28774, "\u0446\u043e": 19812, "\u2581women": 2525, "<0x14>": 23, "\u2581maximum": 7228, "home": 9029, "\u0432\u044b\u0435": 16072, "\u2581fancy": 19602, "\u2581ass": 1155, "\u2581consistency": 23074, "unched": 9814, "\u2581polynom": 17077, "\uff1f": 29771, "\u2581ps": 12384, "\u05bc": 29912, "\u958b": 30068, "\u2581Marcatori": 27916, "\u2581\u00e5r": 19430, "\u2581entrance": 12675, "\u2581solution": 5165, "grade": 7844, "\u2581arrangement": 19705, "\u201d": 28838, "\u2581android": 5791, "\u2581overcome": 17132, "unicip": 6724, "urity": 5608, "Clean": 22139, "directory": 17509, "\u2581Pray": 27881, "\u2581Eva": 27258, "\u2581Party": 6636, "\u045d": 29498, "\u2581familjen": 11847, "ificial": 14773, "\"][\"": 24635, "\u0432\u043e": 1175, "\u2581openly": 25128, "\u2581guilt": 19150, "\u8f83": 30459, "\u0432\u0438\u0437\u0438": 20943, "ME": 1574, "\u00e1ny": 11596, "\u2581imported": 26659, "\u2581fru": 15925, "ttes": 21067, "latest": 21528, "\u2581politician": 17587, "Center": 15917, "MetaData": 26620, "TON": 17517, "assets": 14396, "Last": 7202, "Sample": 15717, "compute": 16753, "utdown": 18967, "Def": 2469, "\u2581\u201e": 3018, "Th": 1227, "\u2581unlikely": 15764, "\u2581anom": 24561, "\u2581cash": 7877, "\u2581'\"": 14503, "Hand": 2641, "namespace": 14147, "sap": 28688, "\u9996": 29993, "\u2581Into": 27121, "\u2581mort": 5461, "\u2581watched": 6758, "\u2581paste": 26043, "\u2581cris": 8578, "\u2581Frauen": 28203, "\u2581#!": 20025, "\u2581loops": 28473, "\u2581attack": 3517, "\u2581Game": 8279, "\u2581regener": 26319, "\u2581lookup": 21275, "South": 26813, "versions": 26149, "Preview": 22398, "paces": 26298, "\u0434\u0435\u0439": 17650, "signal": 16530, "\u2581stupid": 8710, "\u2581SQL": 13208, "checkbox": 22173, "cock": 25588, "\u2581\u0445\u0443\u0434\u043e\u0436": 27095, "\u2581Frank": 4790, "awn": 11646, "Dataset": 23941, "rived": 27643, "ookie": 10235, "\u2581Bei": 17457, "\u043d\u0430\u0447\u0430": 27690, "\u2581Way": 9168, "ending": 2570, "Struct": 10753, "\u2581toda": 26323, "\u4e26": 31439, "\u0408": 29033, "fold": 13943, "\u2581Kennedy": 15288, "\u2581th\u00e9": 19353, "\u2581Anton": 8999, "\u2581regular": 4392, "\u2581advers": 19998, "\u4ec1": 31257, "\u043a\u0442\u0430": 16702, "Reg": 2861, "\u2581wed": 6887, "\u2581trying": 2942, "\u2581grown": 10039, "\u30ae": 31307, "\u2581invented": 25972, "\u5a92": 31838, "project": 6231, "\u0cb0": 31048, "\u2581Prix": 17926, "\u2581raise": 7234, "ULE": 7857, "ste": 2453, "\u2581five": 3359, "\u2581'''": 23713, "\u2581listop": 26460, "While": 23475, "\uc18d": 30573, "\u4f11": 31381, "flex": 13971, "ervation": 23587, "yt": 4475, "Payment": 19835, "\u2581nelle": 20663, "\u2581justice": 10754, "\u2581Ky": 15595, "Styles": 17640, "\u008a": 31009, "\u2581Grace": 15281, "\u2581chick": 25424, "\u2581invalid": 9109, "emi": 17957, "\u2581\u041f\u0440\u0435": 10164, "bank": 13719, "\u5bfa": 30799, "bug": 3718, "\u2581Model": 8871, "icted": 10937, "batch": 11283, "amin": 8255, "\u2581discovery": 15043, "\u00e4hr": 15072, "owing": 15675, "\u2581Analysis": 19442, "\u2581ram": 15355, "\u2581supers": 25666, "\u2581guessed": 26415, "await": 13513, "\u2581apparent": 7566, "Factory": 4990, "\u2581jap": 28663, "\u8d1f": 30685, "\u2581deaths": 16242, "rename": 22778, "negative": 23238, "\u2581narrative": 15529, "\u2581compiled": 23652, "VIS": 20178, "annt": 13104, "\u524d": 29087, "\u6539": 29220, "\u2581dram": 9473, "}\"": 7935, "\u2581wrap": 12551, "\u304c": 29309, "here": 7750, "CODE": 8233, "\u2581m\u00fas": 18855, "Comparison": 27869, "Role": 10047, "rok": 27644, "CAP": 13706, "lg": 10950, "\u2581mint": 20512, "\u2581Health": 6377, "\u2581Lock": 17582, "\u2581Shop": 14142, "nate": 25134, "igue": 12216, "\u2581headers": 12489, "idges": 20499, "\u2581Lisa": 18999, "dma": 11492, "\u0432\u0430\u0442": 14423, "\u2581configurations": 24991, "\u2581Study": 18463, "Tok": 14563, "Device": 6489, "?_": 13900, "\u2581scales": 19232, "\u2581Copyright": 5259, "\u2581Anna": 11106, "\u2581Amy": 17723, "\u2581relaxed": 18788, "\u00e1ch": 28633, "hattan": 20425, "\u2581incluy": 28527, "an\u00e7": 5154, "acking": 21593, "\u2581factor": 6999, "\u2581Json": 17750, "vier": 14895, "\u2581\u0442\u0443\u0440": 18247, "\u2581ingen": 27341, "\u2581object": 1928, "WARNING": 18721, "\u2581whilst": 18703, "\u2581dr": 1605, "\u2581constraint": 17656, "\u2581mortgage": 18222, "\u01d4": 30466, "verso": 27484, "?.": 11030, "\u2581Patrick": 13687, "_**": 28703, "\ud83d\udfe0": 30867, "MT": 7333, "}{": 1400, "\u2581ahead": 6280, "\u2581technical": 10067, "\u2581Hitler": 14856, "\u2581VI": 15476, "\u2581Equipment": 26025, "\u0401": 30256, "\u2581addr": 12194, "aughters": 17350, "\u00f3wn": 16213, "oons": 26618, "ATTR": 10096, "umer": 3972, "Flags": 7651, "ISO": 27324, "Variables": 27192, "\u2581Vietnam": 14642, "\u2581Dean": 17378, "\u2581towards": 5083, "\u2581\u041b\u043e": 18806, "\u05e6": 29639, "\u2581vanished": 26475, "\u2581photography": 19824, "\u2581communications": 16300, "\u2581pb": 27933, "kon": 14483, "\u2581Diana": 24728, "\u304b": 29399, "ARE": 6394, "stri": 26229, "\u00f6ff": 14505, "\u2581Mull": 27647, "anche": 14455, "\u2581energy": 3408, "\u2581styled": 23138, "\u2581server": 5116, "\u2581Navy": 12796, "\u2581nome": 14163, "\u05e0": 29246, "\u0282": 30728, "\u2581cook": 4600, "\u2581promised": 13272, "\u2581rating": 15470, "umbing": 27010, "\u2581Mexican": 17092, "\u2581tan": 12222, "\u2581pi\u00f9": 8436, "grav": 25849, "\u4e24": 29745, "',\r": 10278, "usk": 14948, "<0x71>": 116, "\u2581Entre": 19361, "\u2581\u0438\u043b\u0438": 10476, "\u2581hatte": 11427, "\u2581Mount": 7612, "\u2581rely": 15187, "\u2581try": 1464, "\u2581Raj": 16818, "\u0447\u0435\u0441\u043a\u043e\u0433\u043e": 21697, "\u2581scene": 6337, "\u045b\u0435": 25464, "\u2581element": 2442, "\u2581Rivers": 28574, "\u00de": 30087, "Emit": 17911, "ially": 1929, "\u2581^": 9687, "\u2581recently": 5915, "Initialize": 22719, "\u2581tired": 10272, "\u2581lev": 16100, "\u2581hur": 7033, "\u2581beginnetje": 15739, "\u2581attacked": 15198, "LD": 12093, "\u2581validate": 13412, "\u2581\u0411\u0435\u0440": 23161, "\u2581rot": 6580, "\u2581Angel": 15878, "\u2581critique": 27306, "zeit": 11649, "////////////////": 5172, "ieler": 11963, "\u043f\u0430": 2789, "\u4e3e": 31189, "\u2581Santa": 9231, "\u2581Season": 16887, "\u2581uitgen": 15641, "\u679c": 29098, "\u2581saying": 3677, "\u2581\u0421\u0438": 12430, "\u2581Intelligence": 23091, "inct": 5654, "\u2581sea": 6163, "\u2581Vector": 11650, "\u2581bid": 16129, "\u2581w\u00e4hrend": 20885, "initions": 22909, "\u30e5": 30051, "\u2581n\u00e3o": 11622, "company": 17998, "\u043d\u043e\u043b\u043e\u0433\u0438": 25544, "\u2581population": 4889, "\u2581Their": 6723, "ulle": 17040, "seconds": 23457, "Help": 17302, "\u2581Leo": 19795, "ublic": 651, "ilda": 27834, "\u2581Matthew": 15305, "\ud83d\udc4d": 30195, "\u2581\u0422\u0438": 19160, "\u2581Zu": 22231, "\u00f3t": 22912, "\u2581corporate": 12258, "insn": 22113, "ourse": 8306, "Finder": 25121, "\u5e97": 30219, "\u2581Committee": 9980, "\u2581\u00e1": 8533, "ges": 2711, "\u2581America": 4352, "c": 28717, "RL": 5419, "\u2581Ils": 25311, "\u2581cd": 19958, "\u043a\u0442\u043e": 13483, "\u2581voices": 14549, "Over": 2675, "igger": 4079, "definition": 15196, "\u2581sync": 14012, "Metrics": 16755, "\u2581David": 4417, "\ub529": 31836, "\u0441\u043a\u0438\u043c": 17810, "\u043b\u043e\u0432": 8865, "elve": 11047, "iels": 23029, "Angle": 17917, "\u00e9ge": 24981, "\u0441\u0442\u0440\u0430": 8088, "istence": 10070, "\u2581Valid": 12777, "\u2581segu": 9879, "getElement": 13122, "\u2581anderen": 19532, "\u2581#!/": 23597, "\u2581legally": 24025, "imiter": 27328, "\u6d3b": 29785, "\u77ed": 30132, "lan": 7411, "\u2581h\u00e4": 22800, "\u5024": 30261, "\u2581defending": 23638, "\u2581lets": 16143, "\u2581prof": 1957, "\u0446\u0438\u0438": 5991, "\u2581statist": 15036, "\u2581Britain": 10174, "\u2581Happy": 19094, "must": 19959, "Poly": 28299, "\u2581Attribute": 24216, "\u2581Hol": 4170, "\u2581mention": 4389, "\u2581au": 2505, "\u2581Download": 16220, "born": 6363, "\u2581Ash": 10973, "<0x5A>": 93, "\u2581Jonathan": 16656, "awa": 8733, "\u2581familia": 19266, "\u2581fall": 2949, "controls": 23664, "\u2581rhet": 25905, "\u2581Sounds": 27067, "\u25cf": 29393, "\u2581Scottish": 17717, "dec": 6669, "\u2581\u0411\u0443": 15195, "\u2581operated": 16985, "\u2581challenges": 10369, "\u2581lying": 10580, "\u2581Tyler": 23307, "werp": 25978, "lector": 4183, "\u5f85": 29876, "\u554a": 31308, "\u2581emerge": 26061, "hw": 6118, "\u2581Bible": 12717, "raising": 27941, "\u0442\u0435": 1078, "\u2581Wales": 14831, "\u2581imply": 25385, "Credentials": 25847, "WITH": 21646, "\u2581surpr": 4181, "iov": 18762, "\u2581\u0433\u043b\u0430\u0432": 21269, "omi": 16344, "\u2581broke": 8845, "\u2581homem": 28431, "Fac": 20286, "\u0446\u0438\u0458\u0435": 28401, "\u2581remains": 7520, "\u2581Jimmy": 15908, "\u043d\u0438\u044f": 2491, "<0x07>": 10, "Razor": 21969, "\u2581flux": 15410, "hip": 1557, "\u2581repository": 21177, "\u2581Particip": 21804, "rot": 5490, "tegr": 8489, "\u2581happiness": 15079, "\u2581described": 5397, "\u2581donc": 19477, "\u2581nej": 25699, "ju": 8948, "agra": 16208, "\u2581mp": 18419, "\u2581sale": 7796, "\u2581dread": 17790, "\u671d": 30746, "\u2581ro": 712, "fore": 994, "\u2581talked": 9409, "\u2581ey": 1746, "\u2581deutsch": 14387, "lap": 15578, "quant": 13896, "\u2581dock": 20097, "\u0431\u0443": 5512, "\u2581bits": 9356, "ateral": 21034, "');": 2207, "\u2581luc": 22144, "\u2581decimal": 25888, "\u2581solve": 12049, "conde": 26506, "\u2581collect": 5902, "\u2581convenient": 13767, "({": 2882, "\u2581promoting": 21325, "\u2581reports": 7959, "\u2581buyers": 21872, "\u2581thoughts": 7403, "\u2581Gregory": 27113, "tz": 19540, "\u2581scenes": 14380, "\u2581receiver": 15720, "\u2581books": 4796, "\u2581\u0436\u0438": 7157, "\u2581k\u00f6z": 13271, "\u2581mechanical": 18832, "\u2581\u00bb.": 13423, "\u0442\u0430\u043b\u0438": 21865, "CAST": 27196, "\u2581sens": 3564, "\u2581Conne": 8771, "Process": 6007, "\u2581scen": 6460, "\u7d22": 29630, "\u2581offices": 15217, "\u2581violation": 22734, "\u2581returns": 5723, "\u0441\u043f\u0435": 14220, "\u73b0": 29419, "ittel": 14538, "\u2581affiliate": 24933, "float": 4910, "UE": 3027, "ository": 8266, "\u2581\u00b1": 22768, "\u2581suggested": 8750, "\ud83d\udc96": 31912, "notify": 15413, "\u2581deze": 16319, "\u2581kne": 7770, "\u2581mont": 11895, "\u2581relay": 24517, "don": 11112, "\u2581\u0440\u0435\u0436\u0438": 23903, "\u0442\u0435\u043b": 12516, "iking": 16040, "Serial": 9124, "\u2581threatened": 17351, "ISING": 26265, "\u2581imagin": 26671, "\u2581tak": 10644, "\u2581fort": 5922, "\u2581\u0441\u0432\u0456": 25271, "\u2581wagon": 26098, "\u2581Edd": 15765, "\u00e9l\u00e9": 18310, "\u2581Statement": 28055, "\u2581Ken": 8885, "radio": 19036, "\u2581drank": 22934, "AN": 1251, "ky": 4845, "rian": 6260, "Values": 7025, "\u2581zn": 13288, "\u2581ess": 3150, "attro": 27779, "orb": 19894, "Capture": 22663, "andon": 7256, "\u2581Posted": 17317, "\u2581shadow": 10504, "Nodes": 12674, "\u2581Wol": 12840, "\u043f\u043e\u0432": 21897, "\u2581varies": 27950, "factory": 13001, "\u2581countless": 23387, "\u2581DES": 22840, "uart": 15499, "BUTTON": 25852, "sign": 6301, "\u2581chairman": 21572, "anners": 24681, "tech": 13429, "turn": 499, "equ": 958, "\u0432\u0438\u0445": 18095, "dru": 27329, "\u2581Prof": 6235, "\u2581\u0431\u044b\u043b\u0438": 13698, "\u5f39": 30409, "\uad00": 30224, "i\u00e3o": 23978, "\u2581bu": 957, "perf": 24663, "posts": 19853, "\u0441\u0442\u0440\u043e": 9571, "\u0151l": 15930, "times": 4593, "\u2581unw": 12692, "\u52a0": 29058, "After": 9169, "\u044f\u0431\u0440\u044f": 12251, "\u2581tags": 12944, "\u2581exclus": 16574, "\u2581gleich": 27362, "\u2581hass": 27017, "\u2581cos": 6841, "\u2581hous": 5995, "amiento": 15090, "<0xC9>": 204, "\u2581Y": 627, "\u2581filter": 5531, "\u2581curves": 18469, "'=>": 14186, "\".": 2586, "swing": 11064, "\u2581comprom": 21882, "\u2581delicious": 15992, "ACH": 16522, "\u00dc": 28961, "\u2581SPD": 24151, "\u2581pun": 5704, "DM": 9286, "\u2581\u0442\u043e\u043c": 21817, "\u2581Mex": 6874, "\u2581theoret": 15007, "\u2581prot": 18696, "\u2581surrounding": 12028, "uration": 2394, "\u2581Group": 5926, "hado": 25194, "\u2581enabling": 25748, "NG": 17167, "\u2581Session": 18824, "INE": 5472, "\u2581weak": 6334, "hest": 6426, "other": 1039, "\u7ec6": 30044, "aines": 17251, "KK": 22525, "\u2581M\u00e4r": 16851, "\u2581Anthony": 15089, "\u2581controlled": 12888, "\u043d\u043e\u0432\u0438": 12129, "emper": 13330, "\u2581WHERE": 15803, "\u2581Europa": 15133, "\u2581togg": 21171, "\u2581allocation": 21590, "sheet": 19623, "\u65e0": 29375, "FIL": 17168, "\u2581silly": 18715, "leaf": 22542, ")));": 7574, "Pi": 14240, "\u2581hel": 1172, "bss": 26727, "recv": 22344, "\u2581\u0447\u0435\u043c": 23345, "\u2581pack": 2163, "\u2581scent": 21535, "\u2581selecting": 25505, "\u2581SDValue": 27265, "\u2581Prim": 16059, "\u2581demonstr": 6695, "\u2581Old": 7470, "rose": 16965, "imes": 1198, "\u2581directions": 14278, "alled": 17987, "\u2581struggled": 19274, "IDs": 24029, "RANGE": 25632, "\u2581lines": 4715, "\u2581shoes": 10716, "\uc788": 29604, "\u2581moon": 11375, "\u2581Bh": 18811, "\u2581--": 1939, "Border": 14943, "\u2581champ": 22942, "Folder": 14550, "\u2581viable": 27826, "\u2581balance": 7873, "Unmar": 20630, "mos": 7186, "\u2581They": 1306, "worker": 18205, "\u2581combining": 27698, "\u2581before": 1159, "\u2581mong": 28011, "\u2581gaz": 14961, "\u2581whoever": 24793, "it\u00e0": 7327, "(?:": 26733, "\u2581trouve": 25171, "\u2581video": 3798, "\u2581leads": 8681, "\u2581caf": 18302, "\u2581septiembre": 25403, "\u2581crushed": 25358, "Remote": 15478, "\u017b": 29060, "\u2581operating": 10513, "\u2581progressive": 20458, "Split": 16990, "\u2581fr": 1104, "\u2581distribut": 2886, "\u2581lieu": 18569, "\u2581classe": 20351, "\u2581disorders": 25237, "<0x1E>": 33, "\u3048": 30145, "lij": 13236, "t": 28707, "\u2581speak": 4085, "Team": 17887, "agram": 6806, "raft": 2869, "\u0142ad": 15241, "ENS": 18183, "\u2581cover": 2796, "optim": 18425, "\u0948": 30950, "iety": 2639, "tor": 6909, "\u2581leaving": 6285, "NL": 16717, "\u2581hardware": 13218, "\u2581These": 2957, "\u2581eing": 13262, "\u1019": 31218, "\u2581ged": 28530, "piece": 17152, "udes": 5887, "\u2581scoring": 20310, "\u2581latach": 20102, "widet": 10000, "props": 7329, "orum": 25965, "icy": 2451, "\u2581\u0441\u043e\u0432\u0435\u0442": 21130, "\ud83d\ude4f": 30768, "\u2581Cars": 23508, "\u2581Pri": 12170, "ipper": 27691, "dark": 16770, "\u2581vehicles": 11999, "\u2581removal": 17078, "\u2581nav": 5697, "\u0bb0": 30368, "\u2581wooden": 12602, "\u2581off": 805, "\u2581dumb": 15475, "\u00c3": 29364, "iable": 6109, "\u2581Lol": 23118, "\u2581Christopher": 17561, "\u2581\u0434\u0435\u0439": 20592, "irement": 11011, "\u2581parties": 8209, "Listeners": 28523, "\u2581Fund": 11051, "\u2581eaten": 21718, "\u2581attraction": 24074, "utz": 13533, "xx": 5735, "\u2581Pa": 8144, "\u2581Nel": 10985, "\u2581crusher": 14747, "\u3051": 30033, "\u2581gained": 14018, "event": 2883, "\u7d00": 31614, "\u2581Property": 13059, "\u2581least": 2429, "\u2581office": 4007, "\u2581\u0441\u043f\u043e": 11275, "tip": 8451, "\u0424": 28897, "\u016f": 28913, "\u2581even": 1019, "\u2081": 31552, "\u2581provide": 3084, "\u2581uit": 5478, "\u2581lands": 15909, "\u2581modal": 22946, "\u2581Coord": 23184, "\u2581ordered": 8346, "\u2581jej": 18336, "\u00e2teau": 22487, "!": 28808, "coin": 10817, "Modules": 28377, "\u00c2": 29053, "\u2581style": 3238, "\u2217": 31088, "SIG": 26956, "\u2581abundance": 25468, "\u2581Hash": 11300, "ussia": 28397, "\u2581forgotten": 13652, "half": 18582, "\u2581millions": 11076, "une": 1802, "\u0439": 28819, "hold": 5750, "\u2581nut": 9246, "\u2581breat": 13105, "\u6599": 29733, "\ud83d\udc4f": 30664, "\u2581lin": 12893, "TION": 10940, "\u2581Dry": 27064, "Parent": 7401, "\u043b\u043a\u043e": 23054, "\u2581plane": 8573, "\u5c9b": 31343, "\u2581{": 371, "\u2581academic": 11860, "esty": 16944, "\u2581Kab": 27130, "\u2581clip": 13061, "uela": 13482, "\u0441\u0442\u0432\u0435": 13748, "Normal": 13303, "\u5ba1": 30220, "\u2581breakfast": 11814, "vertical": 24313, "<0x24>": 39, "\u2581termin": 13552, "\u2581participate": 14092, "ability": 2437, "\u2581ke": 945, "\u0441\u0442\u0432\u043e": 4492, "\u043c\u0443": 2953, "z": 28764, "\u2581ctrl": 27733, "\u2581RET": 28620, "\u043b\u0435\u043d": 3997, "\u4e3b": 29345, "\u2581chance": 4676, "\u2581Philip": 7772, "Ctrl": 18795, "\u10da": 29617, "zt": 3903, "oses": 14779, "steps": 16005, "\u0434": 28799, "\u2581Andrew": 10390, "\u2581only": 865, "\u2581opposite": 9089, "\u2581Actually": 20290, "\u2581talking": 4434, "\u2581candidate": 10169, "javax": 27184, "\u2581nederb\u00f6rd": 28373, "\u2581grand": 3487, "\u2581PS": 12993, "\u2581yy": 17139, "\u2581Beijing": 27112, "Locale": 17637, "ores": 3626, "\u00bb.": 5781, "ribu": 15149, "slice": 11485, "animation": 21251, "\u2581hesitated": 24717, "\u2581rb": 27101, "\u2581insurance": 6919, "posal": 27244, "\u2581sport": 8198, "\u7372": 31805, "own": 656, "(&": 1735, "ICT": 22521, "\u2581duplicate": 27071, "med": 1591, "stal": 10891, "\u03b7": 29049, "Rotation": 22450, "\u2581Fro": 18760, "\u2581pull": 3300, "omed": 16812, "Transition": 21671, "\u2581gym": 14310, "\u2581recurs": 19681, "Chain": 15162, "\u2581collecting": 22852, "\u2581Getting": 19896, "nett": 21301, "\u2581credentials": 21429, "\u2581streak": 23210, "\u2581Liter": 12870, "\u2581Lauren": 23119, "\u2581Elle": 9801, "\u2581sat": 2495, "Consum": 16277, "\u1790": 31933, "\u2581\u043e\u043f\u0435\u0440\u0430": 24889, "\u2581fict": 24138, "Obj": 7017, "posed": 4481, "\uc870": 29841, "\u2581historical": 10578, "\u2581hy": 6521, "\u8a9e": 30321, "(['": 18706, "\u2752": 31841, "\u2581failures": 25394, "\"\\": 16646, "\u2581intervals": 24405, "adget": 18142, "\u2581multiple": 5166, "\u009f": 29208, "others": 15869, "\u9910": 31243, "\u2581disclaimer": 25499, "\u00eetre": 22481, "\u2581peculiar": 25876, "\u2581\u043b\u0456": 15299, "acht": 4755, "\u2581Park": 4120, "\u2581Illegal": 17352, "lang": 4730, "unnel": 11925, "opens": 23534, "\u2581Hans": 10518, "ella": 1994, "virtual": 16604, "\u2581railway": 18051, "\u2581kor": 18054, "izada": 27735, "\u2581journey": 8123, "\u2581Olympics": 21351, "\u00f5es": 7849, "Block": 4106, "Mont": 27654, "();\r": 4420, "Skip": 24322, "\u2581mother": 3057, "\u2581Pitt": 17491, "ensity": 5454, "\u2581improve": 4916, "\u2581churches": 20764, "\u2581bears": 25051, "\u4e36": 31734, "Speed": 17608, "\u2581acted": 20384, "\u2581besch": 15049, "i\u00e7\u00e3o": 18992, "\u2581rally": 24412, "ZE": 4421, "\u2581map": 3341, "Hel": 3733, "hot": 10672, "Fact": 19558, "ALSE": 7241, "\u2581asshole": 25676, "trained": 28247, "Dat": 6121, "\u2581fair": 4968, "\u2581Bath": 18512, "\u2581background": 5414, "\u2581Bog": 19925, "\u8bf7": 29067, "aration": 9477, "\u2581preced": 11405, "\ud83d\udc4c": 31156, "\u2581warmth": 21606, "aat": 7748, "nim": 25106, "\u2581Stein": 18810, "\u2581liver": 24824, "loss": 9195, "powered": 28435, "\u6c34": 29692, "\u2581sehr": 24188, "\u2581curios": 19489, "\u2581Massachusetts": 16255, "Math": 11907, "\u2581regia": 19009, ".',": 13007, "\u2581Deep": 14972, "rake": 21868, "\u2581right": 1103, "irl": 2156, "\u2581install": 4430, "em": 366, "\u2581\u043f\u043e\u043b\u0443": 10772, "\u2581\u00dc": 13156, "\u2581Ter": 7163, "\u2581contacts": 20075, "portal": 19395, "Check": 3828, "\u2581survey": 10911, "jsp": 23559, "Required": 10135, "Network": 8653, "\u2581loro": 16491, "Sym": 17065, "\u2581g\u0142": 24245, "olence": 26063, "\u09cb": 30818, "\u2581Reserve": 22249, "\u6843": 31750, "\u2581dispute": 22299, "\u2581dis": 704, "<0x51>": 84, "aju": 24072, "arget": 1533, "\u2581Reed": 26244, "\u2581chin": 17418, "Top": 6228, "\u2581organisations": 24202, "\u00e9m": 4854, "hi": 5365, "origin": 14651, "\u2581hierarchy": 25846, "\u2581considering": 9868, "}\r": 2519, "For": 2565, "igator": 17769, "\u2581Gram": 21629, "\u2581saison": 20543, "\u1ead": 29667, "gorith": 5360, "=\"../": 7704, "comfort": 12248, "\u2581dio": 22168, "\u63a8": 30063, "\u0325": 30808, "Column": 4115, "shared": 9622, "PU": 7903, "\u2581Say": 15753, "\u2581Lor": 28009, "\u2581\u0440\u0443\u0441": 24379, "\u5e16": 30972, "\u2581fig": 2994, "\u6a2a": 31249, "\u2581manifold": 28130, "\u4e58": 31389, "\u2581social": 2809, "\u2581mount": 4766, "\u2581Register": 10397, "\u2581June": 4212, "\u2581shops": 16177, "\ub9bd": 31751, "ederb\u00f6rd": 18927, "\u2581appeared": 6178, "\u2581vet": 22116, "\u2581r": 408, "\u2581shout": 11428, "\u2581ges": 10665, "\u2581Verify": 24544, "perty": 1612, "\u2581put": 1658, "otion": 5318, "\u2581immune": 20930, "\u0441\u043a\u043e\u0458": 24736, "throw": 10847, "ierra": 14645, "\u2581cancel": 11351, "~": 28845, "erne": 28665, "\u2581shoot": 6041, "height": 4880, "\u0448\u0435\u043d": 15436, "column": 5571, "\u2581\u0432\u0440\u0435\u043c\u0435": 25396, "gs": 2626, "\u2581constru": 11716, "\u2581workshop": 20156, "\u2581linear": 9270, "Until": 25072, "czy": 11486, "\u2581siendo": 27012, "\u2581intim": 17269, "\u2581between": 1444, "serde": 19554, "\u2581Mai": 14313, "\u2581Kind": 13848, "\u2581Io": 25445, "scheme": 28338, "\u7ed8": 30684, "ctors": 6475, "\u2581videos": 10506, "\u2581sacrific": 22074, "mouse": 13778, "\u2581m\u00f6": 21461, "\u2581follows": 6104, "\u2581Deal": 27734, "\u2581asked": 2261, "\u2581gi": 5220, "CG": 19354, "\u252c": 30884, "Loading": 16031, "\u2581bem": 28111, "ares": 4585, "\u2581looked": 2382, "\u2581Especially": 20538, "Instruction": 18066, "Metadata": 7348, "\u2581Kurt": 24348, "\u2581Che": 4537, "\u2581hack": 14413, "\u2581g\u00e9n": 10979, "onds": 15779, "\u2581dest": 2620, "\u2581trusted": 16437, "\u2581complain": 19631, "\u043d\u043e\u0432\u0430": 9662, "jours": 22200, "\u4e70": 30704, "\u2581attacks": 10813, "ply": 3043, "ISD": 24375, "storm": 22239, "\u2581Players": 26500, "\u2581option": 3551, "\u2581house": 2134, "\u2581ersten": 15449, "\u2581Heritage": 26529, "\ud83d\ude4c": 31326, "\u2581cough": 26245, "\u2581minor": 7626, "\u2581bleeding": 25352, "azione": 5349, "\u2581verschied": 24360, "\u0083": 30477, "\u2581\u0442\u0440\u0443": 26235, "\u62df": 31005, "\u2581Craig": 21260, "\u6236": 31747, "\u6302": 31431, "font": 6102, "\u2581Municip": 18728, "Output": 4792, "ysz": 27713, "\u2581thunder": 25752, "\u2581spring": 7474, "ouri": 17337, "\u2581Write": 12018, "\u200b": 28935, "\u05b7": 30175, "})$,": 25744, "\u2581left": 1749, "\u0437\u0430": 2978, "\u2581sorry": 7371, "You": 1976, "revs": 12468, "\u2581complet": 2691, "vars": 13819, "\u2581fileName": 25865, "anya": 19791, "Light": 12524, "iah": 14475, "\u2581photograph": 9180, "lected": 2344, "mathbf": 3505, "\u2581quelques": 22789, "anging": 6185, "\u0627": 28915, "\u672a": 29509, "\ufe0f": 29096, "osexual": 20823, "RT": 7042, "\u2581osc": 16221, "\u2581sch": 1543, "\u2581fut": 2765, "\u548c": 29131, "\u2581dough": 24511, "\u2581dut": 7756, "\u2581knocked": 18625, "\u2581~": 5913, "\u2581Canadian": 10435, "\u0441\u043a\u043e\u0433\u043e": 4809, "\u2581werden": 6446, "pic": 7678, "\u2581expect": 1675, "\u2581maybe": 4357, "\u2581mul": 18013, "esome": 9263, "<0x76>": 121, "\u2581thick": 6931, "\u2581Alabama": 20339, "Fall": 28072, "larg": 20832, "\uaca0": 31810, "fs": 2547, "first": 4478, "\u2581Hold": 15960, "\u00e2t": 19322, "\u2581suppress": 22555, "\u0445\u043e\u0434\u0438": 7374, "\u2581Stone": 11775, "\u2581brilliant": 14424, "\u2581twisted": 18337, "\u0457\u0432": 24299, "\u2581exotic": 27541, "enter": 7262, "igenous": 20164, "\u00e1s": 2507, "\u2581genetic": 19869, "\u2581CPU": 14865, "\u8f66": 30062, "asets": 20363, "\u00f7": 29582, "Signal": 21643, "\u2581powder": 14761, "\u6728": 30308, "\u0e19": 29178, "valid": 2398, "\u2581reserved": 9144, "\u2581\u017b": 24895, "\ub418": 29848, "<0xFA>": 253, "\u2581f\u00fcn": 24070, "\"],": 8883, "\u2581KIND": 11067, "\u2581application": 4993, "iot": 8720, "<0xFF>": 258, "\u2581flexible": 17574, "\u2581gegen": 12039, "\u2581hom": 3153, "zeug": 19152, "RETURN": 16754, "\u2581spirit": 5838, "\u2581ihn": 19467, "\u2581Skip": 24419, "pond": 19571, "\u2581tecn": 24850, "]{\\": 23854, "\u6ed1": 31062, "Bo": 6681, "\u2581Larry": 19861, "Sup": 22284, "\uc2ec": 31987, "los": 17314, "internal": 7047, "azi": 19597, "Describe": 22836, "Overflow": 24181, "\u2581poly": 12371, "\u3087": 31628, "\u0bc7": 31641, "\u2581\u00f6": 6204, "\u2581Kir": 8806, "\u2581community": 3618, "\u2581Bern": 7562, "\u2581platform": 5181, "\u2581nested": 23793, "\u2581\u00e9galement": 13417, ">@": 24406, "inc": 1814, "\u2581\u043a\u043e\u0440\u043e": 16673, "\u2581spatial": 18397, "\u2581hade": 14996, "bitro": 18829, "=": 28746, "\u2581external": 9354, "\u2581della": 3503, "mutable": 13882, "\u2581development": 4099, "\u2581fourth": 10036, "\u00fcn": 6749, "\u2581dot": 12253, "\u2581\u0433\u043e\u0434": 16994, "\u0c4d": 30865, "est": 374, "\u2581a": 264, "\u00f3w": 3872, "\u30d8": 31760, "present": 12497, "\u043b\u044c\u043d\u043e": 17921, "estone": 18557, "\ue934": 30597, "\u223c": 30567, "af": 2015, "\u2581rip": 21832, "\u09c0": 31406, "\u2581\u0410\u043b\u0435\u043a\u0441\u0430\u043d\u0434": 20217, "As": 2198, "ieve": 18388, "\u2581kindness": 27404, "\u80a1": 30889, "\u2581Jews": 12495, "atinum": 28250, "\u2581ads": 17644, "\u2581Nations": 16419, "\ub300": 29634, "kind": 9186, "\u2581Image": 9833, "\u00fcd": 12484, "\u2581Mig": 17037, "\u821e": 31622, "\u2581sketch": 21789, "\u2581disagree": 18189, "oval": 9395, "RO": 1594, "HT": 3671, "\u2581hr": 15384, "imation": 8258, "Low": 21397, "\u2581$\\{": 17543, "\u2581configured": 21529, "\u2581correct": 4714, "\u2581d\u00e9cembre": 19344, "preter": 21345, "progress": 13763, "\u2581perpet": 18313, "\ub808": 30514, "sqrt": 5840, "track": 7822, "\u2581Harvey": 26101, "\u2581allocated": 19979, "\u2581advis": 14309, "we": 769, "\u96f7": 31047, "\u2581anything": 2424, "\u2581Norway": 23063, "rogen": 25502, "pick": 22685, "cir": 5955, "clude": 12856, "\u2581adults": 12111, "mas": 4876, "oured": 12991, "YN": 26687, "\u91cd": 29249, "\u2581endorse": 25292, "fers": 17556, "\u2581collection": 5442, "CHANNEL": 23299, "TH": 3151, "\u2581c\u00e9l": 28596, "\u2581PRO": 7497, "ela": 4403, "\u2581someone": 2493, "\u2581Indian": 6735, "ratio": 22287, "\u5207": 29961, "Sk": 9150, "ska": 9883, "\u2581faith": 7152, "\u2581covers": 12784, "OPER": 24500, "werk": 16817, "cker": 13160, "\u2581betray": 26580, "zeta": 10770, "\u2581pare": 13103, "\u2581helmet": 26371, "\u2581interven": 23807, "\u2581stay": 3079, "Off": 3922, "\u2581waren": 10744, "Pattern": 11372, "\u2581\u043f\u0443": 12382, "\u2581(-": 11419, "POSE": 12053, "mesh": 18372, "\u2581anten": 25940, "\u2581shown": 4894, "\u2581hand": 1021, "orneys": 27808, "\u2581Alaska": 23956, "Valid": 4794, "\u2581buffer": 5496, "Router": 16907, "pieler": 24854, "\u2581pt": 16533, "\u2581rapidly": 14099, "\u2581absent": 20311, "\u2581lad": 9776, "PCI": 24271, "\u2581\"\",": 7889, "\u2581pr\u00e9c": 18308, "\u2581Lex": 20991, "ridge": 9163, "\u2581Government": 9714, "\u2581Avenue": 13994, "\u7d0d": 31824, "\u2581rig": 10536, "ream": 1260, "count": 2114, "Login": 12611, "\u0434\u0430\u0442": 22063, "\u2581ther": 7454, "\u2581View": 7022, ".:": 12813, "\u2581exposure": 15368, "\u2581Paper": 20038, "Toolbar": 24118, "\u2581winds": 22838, "Properties": 6509, "\u2581enable": 8234, "\u2581wo": 14277, "\u2581\u0438\u044e\u043d\u044f": 26825, "ucky": 11791, "\u2581uncertainty": 18110, "rd": 5240, "\u2581dur": 5598, "achment": 9809, "factor": 18360, "\u2581\u00e9c": 24688, "apture": 13568, "\u2581Wien": 26935, "subset": 9501, "\u2581ending": 12826, "\u2581SY": 17121, "\u0580": 29702, "glich": 21379, "\u2581McDonald": 25999, "\u2581melt": 19542, "\u2581\u043f\u0440\u0435\u0437": 15855, "\u2581varieties": 27610, "\u518d": 29740, "\u0649": 29591, "\u2581addresses": 14501, "tem": 20515, "uced": 22333, "angle": 2988, "terday": 10479, "Cache": 5622, "kt": 2254, "\u0433\u0440\u0430": 3634, "anger": 3689, "\u2581vars": 27981, "\u2581Portal": 22314, "\u2581sempre": 22637, "\u6a02": 31918, "\u2581bitmap": 28017, "ulse": 17494, "ipage": 23506, "Input": 3104, "\u5ddd": 30133, "\u2581fet": 16685, "\u2581processed": 16244, "\u2581\u043d\u0438": 11413, "\u2581Arnold": 24396, "\u1794": 30114, "comes": 5254, "\u2581curt": 22372, "\u2581dat": 3046, "\u2581Even": 4127, "Student": 28514, "\u043d\u043e\u043c": 4967, ":\r": 8230, "fetch": 11362, "\u2581avant": 14221, "ack": 468, "\u2581packages": 17948, "\u2581Mit": 6684, "\u2581\u041b\u0443": 16332, "\u2581walks": 16830, "properties": 10723, "eli": 20949, "amous": 22226, "\u2581wondering": 12785, "\u2581shoulders": 10693, "GPL": 20405, "\u2581attacking": 23627, "\u0131": 28953, "prepare": 16180, "\u3089": 29572, "CTX": 26564, "\u2581\u043f\u043e\u043b\u0438": 16426, "ten": 1210, "pm": 3419, "\u2581neck": 7215, "icional": 27391, "\u2581besk": 11899, "\u2581success": 2288, "\u2581window": 2924, "\u2581commented": 22191, "\u0432\u0430\u0432": 14215, "\u6765": 29263, "\u2581donde": 12943, "\u5171": 30055, "\u2581Ned": 28504, "\u2581(__": 27534, "iffe": 27007, "rale": 19289, "Paths": 23372, "\u043a\u043e\u0439": 13108, "pite": 4995, "\ud2bc": 31285, "ote": 1590, "\u043b\u044c\u0442\u0430": 16389, "\u2581village": 6435, "\u6bd4": 29605, "\u2581Credit": 18004, "\u2581Type": 5707, "\u2581hip": 12323, "\u2581Regiment": 23042, "\u2581attend": 8986, "tags": 12586, "MODULE": 10820, "adora": 20916, "\u2581clubs": 14417, "\u2581needing": 25559, "\u2581Hawaii": 26434, "\u2581anal": 2880, "\u0578": 29837, "\u2581naturally": 12728, "\u102c": 30853, "\u0c3f": 31227, "\u2581sender": 17560, "\u0161t\u011b": 27832, "boost": 25658, "ycle": 14302, "\u2581Position": 17361, "\u2581Info": 19790, "\u2581Summer": 13211, "METHOD": 16398, "\u2581s\u00e9rie": 16834, "Builder": 3686, "efore": 4329, "Admin": 11744, "\u2581hoped": 12431, "\u2581Series": 10264, "\u2581diagnostic": 23360, "\u2581exchange": 8877, "\u2581apr\u00e8s": 12986, "\u2581Sof": 21918, "\u2581fired": 12196, "\u0449\u0435\u043d": 17612, "ays": 748, "\u590f": 30910, "alla": 7112, "\u00e2te": 17748, "\u2581Bah": 20057, "Austral": 28108, "school": 19185, "mals": 26449, "\u2581recomm": 4626, "\u2581sung": 27173, "\u2581ms": 14362, "\u2581haut": 24373, "\u2581Intel": 20276, "\u2581Observ": 15951, "\u2581consum": 6288, "\u2581resulted": 16960, "\u2581alternatives": 24524, "\u2581Dire": 19370, "\u2581scrut": 27352, "\u8fed": 31820, "\u2581Side": 15256, "\u2581initialization": 27620, "\u2581bij": 10826, "MMMM": 27509, "heimer": 24556, "\u2581propag": 11166, "\u2581nuevo": 23609, "\u2581belt": 14857, "\u2581look": 913, "Controls": 14172, "\u043b\u0435\u043a\u0441\u0430\u043d\u0434": 16109, "\u2581Educ": 7948, "kers": 21003, "ard": 488, "\u2581desde": 11545, "\u2581Philippines": 21937, "\u2581Privacy": 25184, "Tooltip": 25389, "ancell": 13759, "CFG": 14590, "activity": 15996, "\u2581waist": 17532, "\u2581upper": 7280, "\u2581Dream": 14031, "\u5c97": 31983, "inners": 12190, "\u2581measure": 5266, "olu": 17760, "\u2581chicken": 13088, "ificate": 8053, "ve": 333, "Foundation": 23295, "resume": 24166, "resent": 2044, "claimer": 20032, "\u039d": 29966, "dd": 1036, "\u2581facil": 13031, "\u2581lessons": 14785, "\u2581Vision": 27663, "\u7522": 31657, "\u2581mod": 968, "\u2581helps": 7263, "\u2581grasp": 22055, "footnote": 19129, "\ub7c9": 31314, "\u0435\u0442\u0441\u044f": 7357, "reshold": 8495, "\u2581poem": 16067, "\u2581Activ": 18359, "ashington": 5542, "\u2581sus": 3121, "Send": 8363, "\u2581Champions": 24470, "\u2581tough": 10342, "anton": 15427, "\u2581Ce": 12494, "\u0159i": 28180, "vider": 4340, "\u2581infected": 26557, "):": 1329, "oup": 14245, "fly": 16210, "\u8fd4": 29139, "FREE": 28137, "\u80fd": 29084, "\u009c": 30011, "\u2581PD": 28054, "\u2581log": 2085, "\u2581shot": 5180, "\u2581increasing": 6488, "\u7edd": 30981, "Uri": 13530, "\u2581oper": 1764, "\u2581beneath": 10042, "CHAR": 12064, "';": 1775, "\u2581radi": 16893, "irt": 2262, "tagon": 17346, "ioctl": 26478, "app": 763, "asing": 3706, "atives": 5087, "\u2581Springs": 24846, "JSON": 8438, "unit": 5306, "\u2581cens": 19983, "\u2581afterwards": 19272, "\u2581Experience": 19428, "\u2581Father": 11432, "PP": 8415, "\u2581();": 16349, "PLY": 26126, "label": 1559, "\u2581appro": 2151, "Component": 3621, "\u2581customers": 5688, "\u30c4": 30267, "<0xB9>": 188, "rcu": 28268, "\u60a8": 29689, "\u2581expl": 1949, "\u2581protected": 4443, "\u2581\u0410\u043b": 25214, "\u2581ener": 2960, "rund": 9265, "\u2581applies": 15588, "\u2581retriev": 17913, "\u043d\u0430\u044f": 6075, "\u2581assessment": 15081, "\u30ca": 30081, "\u2581whis": 8037, "phi": 3163, "ter": 360, "clipse": 11458, "\u2581positioned": 28184, "arz": 21896, "\u2581Kon": 8294, "Arch": 12186, "\u2581sequ": 5331, "\u5386": 29868, "exper": 17245, "\u2581\u0438\u0441\u043f\u043e\u043b\u044c": 18496, "\u2581Jefferson": 18513, "\u2581given": 2078, "\u4ec0": 30289, "elligence": 18827, "\u2581Cache": 25103, "\u2581beside": 9439, "\u0563": 31305, "\ud83d\ude1b": 31754, "\u2581Andr\u00e9": 24046, "initely": 17530, "acy": 2426, "\u2581fabric": 10455, "\u65d7": 31612, "\u2581FITNESS": 13200, "\u2581belonged": 22232, "\u2581appetite": 28081, "ypes": 4453, "\u0447\u043d\u043e\u0433\u043e": 19957, "\u2581\u0434\u0456": 15754, "\u00e5": 28851, "\u2581evident": 14885, "aurus": 24308, "\u2581pushing": 13884, "eh": 10069, "\u2581Length": 22856, "\u2581URL": 9066, "iano": 4728, "Any": 9653, "\u2581award": 7619, "\u2581}{": 26528, "town": 19669, "\u8089": 31736, "Z": 28828, "\u2581menu": 8514, "\u2581accounts": 9855, "\u2581Boys": 20344, "\u2581partir": 12599, "records": 28257, "ule": 1390, "\u2581trait": 10610, "\u2581Route": 15593, "\u2581Sab": 11527, "\u2581clouds": 16393, "pb": 11497, "HERE": 11724, "ula": 3712, "HasColumn": 17011, "\u2581hover": 18848, "Std": 21975, "brace": 24256, "\u78bc": 30946, "aque": 13768, "\u98a8": 30803, "\u2581Bev": 23344, "\u62bd": 30885, "\u2581SN": 14722, "\u2581leaning": 21208, "Claim": 27154, "\u2581Hir": 24384, "\u2581myth": 13345, "\u2581frequently": 11220, "typeof": 9436, "chester": 11841, "\u2581Law": 5802, "craft": 6006, "\u2581compromise": 25479, "VB": 28576, "\u2581Buck": 16577, "vc": 8904, "\u2581\u043a\u0440\u0435": 24185, "LETE": 14730, "\u2581structured": 28429, "\u0144st": 24972, "\u0a3e": 31714, "\u2581fiscal": 24937, "\u2581zoom": 21953, "\u2581Girl": 10850, "RENT": 22286, "\u2581Peg": 26806, "\u2581\u044d\u0442\u043e": 10514, "agation": 28419, "bridge": 15401, "\u2581striking": 19910, "\u2581temporada": 20030, "\u2581associations": 25963, "\u2581queue": 10159, "door": 9405, "\u2581Sche": 11142, "\u0939": 29972, "\u2581Floor": 23395, "\u2581t\u00e9": 20659, "\u2581heeft": 21006, "\u2581Gaz": 27161, "Open": 6493, "\u2581commerce": 21806, "ther": 620, "pshire": 25543, "-->": 26345, "\u2581nd": 21706, "Statistics": 27478, "\u5411": 29478, "\u2581smiling": 15603, "\u2581circle": 9661, "\u2581garbage": 20170, "\u2581\u0414\u0436": 16046, "when": 11233, "\u0637": 29330, "osi": 12681, "simeq": 21961, "\u2581Bitcoin": 22438, "\u7b80": 30470, "\u2581infl": 3661, "\u2581rate": 4338, "atted": 11985, "\u2581applying": 14893, "\u2581Zur": 25571, "\u0e02": 29871, "\u25a1": 30618, "elijk": 11667, "\u2581\u041c\u043e": 8968, "\u2581Hind": 14526, "\u2581profes": 20078, "urls": 25110, "\u2581relations": 3136, "\u2581drift": 18101, "\u10e5": 30630, "\u2581gre": 3656, "enced": 4697, "\u2581Machine": 13253, "\u2581shit": 5492, "\u2581teacher": 8626, "\u2581Mountain": 15228, "rific": 16878, "\u00e8de": 24272, "\u9646": 30941, "SF": 23710, "\u2581m": 290, "\u2581knew": 2580, "\u2581Tw": 5852, "Activ": 18127, "elect": 17960, "\u5fd7": 29796, "Default": 4158, "\u2581stood": 4857, "\u2581Wrest": 28444, "\u2581familie": 14875, "\u2581habit": 6189, "thumb": 20152, "\uac15": 30967, "icz": 11457, "}'": 11339, "\u2581havia": 20561, "\u0307": 31635, "\u2581vom": 9322, "SG": 18656, "\u2581sensors": 27810, "avirus": 22397, "\u2581from": 477, "\u2581Engine": 9387, "\u2581cum": 14931, "nak": 14854, "\u2581sip": 28581, "\u2581\"#": 11441, "Exception": 1861, "\u2581happened": 4243, "resh": 2874, "\u2581\u0422\u0435": 15074, "\u9060": 31764, "intent": 28559, "\u2581sheets": 18763, "\u2581loaded": 10773, "iface": 23890, "\u2581displays": 20989, "\u2581ABC": 22673, "qq": 22736, "\u2581}\\": 16076, "\u2581squeez": 19559, "\u2581Harvard": 17553, "\u2581testimony": 23648, "=*/": 26932, "\u300f": 31169, "\u2581frag": 11334, "\u2581Houston": 16904, "\u00e7\u00e3o": 3709, "\u2581Rem": 4561, "\u2581Tele": 9207, "\u2581round": 3713, "\u2581burst": 11700, "\u2581Store": 13229, "\u2581API": 7086, "utton": 26028, "<0x7E>": 129, "\u2581Dre": 20806, "uilder": 2866, "EV": 7321, "\u2581fond": 8987, "\u2581z\u00e1": 19269, "Database": 9906, "\u00edo": 13826, "\u2581NOT": 5457, "\u2581foss": 21036, "\u2581('": 8272, "Gamma": 6376, "\u2581fifteen": 13956, "detect": 22036, "\u2581mism": 25279, "\u2581planets": 28312, "ktion": 16591, "If": 3381, "jj": 23659, "\u2581writer": 6953, "<0x9F>": 162, "asty": 11136, "\u2581Anything": 27985, "\u2581counter": 5573, "\u2581romance": 21695, "\u2581Singh": 24442, "\u2581Chairman": 25294, "\u2581Airport": 16795, "\u0434\u043e\u0432": 10410, "aut": 1228, "\u2581checks": 13804, "outh": 1881, "\u2581peripher": 27707, "\u2581portrait": 22087, "\u2581return": 604, "band": 3785, "EC": 8619, "hen": 540, "amt": 13805, "yers": 15624, "\u2581slice": 16163, "\u2581seinen": 17507, "\u2581caval": 23481, "\u2581straight": 4855, "wij": 24231, "Linked": 27975, "probe": 20369, "\u2581setTimeout": 28168, "\u0643": 29171, "\u2581night": 2125, "\u2581family": 2005, "\u2581Mart": 4437, "\u2581IE": 20244, "\u68ee": 31296, "\u2581hood": 21224, "\u045a": 28917, "idal": 17594, "\u2581protecting": 20533, "FIN": 23178, "\u2581Va": 18786, "\u2581tipo": 19054, "arp": 5882, "\u0440\u043e\u0435": 28544, "\u2581Might": 28439, "\u2581Cole": 15128, "\ucde8": 31725, "worth": 11360, "Animation": 13960, "\u2581equilibrium": 24699, "igan": 9264, "\u2581settled": 11591, ")',": 20735, "\u2581scenarios": 22141, "\u2581prepar": 7892, "\u043c\u0435\u043d\u0442": 18664, "\u2581Dragon": 19444, "\u2581sleep": 4289, "espec": 23082, "\u2581SPI": 28500, "main": 5389, "\u2581atr": 21857, "\u2581initially": 12735, "Where": 9607, "\u2581Cy": 12080, "\u2581vier": 14304, "gu": 2851, "igi": 15495, "\u2581pubblic": 17303, "\u2581\u0447\u0435\u0440": 21592, "\u2581blur": 19690, "onom": 6196, ")}_{": 26585, "\u2581stere": 19541, "\u0432\u043e\u0439": 9018, "Counter": 15805, "\u2581activated": 27024, "\u2581Within": 15621, "ushed": 5204, "k\u00e9": 10641, "\u3053": 29543, "\u03a6": 30349, "\u2581Working": 18847, "\u09c1": 30408, "\u2581Power": 8442, "\u2581toast": 26312, "\u2581Jacob": 12615, "esse": 9892, "\u2581stored": 11141, ",\\,\\": 28690, "\u2581higher": 4337, "\u2581awake": 20875, "\u2581\u0417\u0430": 6369, "REEN": 25755, "\u02d9": 29776, "\u2581cz": 8726, "\u2581unter": 7014, "\u547d": 29598, "\u2581om": 3422, "\u2581el\u0151": 23367, "\u043e\u043d\u0430": 5022, "\u2581utterly": 24354, "\u2581lights": 9416, "syn": 25690, "\u2581nous": 13662, "\u2581Bulgar": 22390, "\u03a4": 29777, "covery": 8841, "\u2581deciding": 24568, "\u2581murmured": 24683, "\u2581tent": 10268, "\u2581conten": 26513, "Conn": 14459, "\u2581Ronald": 28173, "isher": 7827, "\u2581movements": 15071, "<'": 12729, "\u2581addiction": 23823, "eqn": 5030, "\u2581attorney": 15085, "\u2581cope": 27626, "\u2581partner": 6977, "\u2581\u0437\u043d\u0430": 9812, "\u5c71": 29480, "MARK": 27466, "context": 2714, "\u2581some": 741, "\u2581society": 6190, "\u2581distribute": 22536, "\u2581Daw": 26334, "\u30e6": 30775, "\u2581regulatory": 25251, "\u2581Politics": 25894, "Decl": 7557, "amar": 11369, "als": 973, "\u2581dose": 20222, "atz": 6124, "\u2581'',": 9815, "elling": 3572, "aka": 8389, "******/": 15212, "straints": 17005, "\u2581substitute": 23875, "\u2581trainer": 28333, "\u2581user": 2188, "\u2581Bapt": 22654, "Next": 6693, "\u2581Having": 11682, "\u2581tempor": 6613, "Function": 4901, "\u2581exercises": 20858, "ifer": 7627, "\u2581mehr": 11152, "\u2581dirig": 16263, "\u2581fram": 23426, "!!": 3946, "vere": 10888, "ped": 1973, "\u2581mistake": 11990, "Suppress": 22229, "\u2581changes": 4435, "\u2581jewelry": 25528, "compare": 15715, "\u2581Fill": 25518, "\u2581assumes": 27460, "\u629b": 31584, "ive": 495, "\u2581revealing": 24593, "\u043b\u0438\u043d": 14274, "crete": 7916, "\u2581onClick": 17201, "Accept": 17589, "\u2581instead": 3519, "\u68a6": 31999, "\u2581bush": 25516, "Hub": 19498, "\u2581ellos": 26645, "\u2581Certain": 20828, "\u2581Ath": 26716, "cond": 1213, "\u90a3": 29793, "\u53ca": 29965, "\u0435\u0440\u0435": 2850, "\u2581inj": 5891, "hal": 6019, "zte": 14798, "\u2581worn": 15903, "\u2581Race": 20056, "\u2581zich": 19517, "\u2581BSD": 26409, "\u2581\u0440\u0430\u0434\u0438": 23352, "Bro": 21404, "\u2581tard": 16796, "\u2581full": 2173, "oct": 22008, "on": 266, "\u2581coding": 22363, "\u2581realized": 7185, "\u2581Griff": 19285, "ECT": 9344, "\u2581nurses": 26579, "\u2581Academ": 8519, "'*": 21244, "ington": 14066, "\u2581Ton": 17104, "loaded": 16070, "\u2581promotion": 16771, "\u2581Ltd": 14374, "\u0437\u0435": 8700, "anges": 5897, "olution": 2100, "PRO": 4202, "produ": 7309, "\u2581Uncle": 20189, "\u2581\u041e\u0431": 22744, "\u79fb": 29553, "GO": 11628, "\u2581smile": 6458, "parents": 20415, "uals": 13073, "\ub7a8": 31965, "\u8054": 29821, "\u2581FO": 18417, "\u2581\u0421\u0442\u0430": 9739, "Eq": 14564, "\u2581vacation": 16829, "\u2581Device": 20000, "Factor": 20169, "itzerland": 21245, "\u2581harass": 22280, "\u5199": 29503, "\u2581deleg": 11202, "ivil": 4617, "icios": 27141, "\u2581Labour": 16873, "\u2581graph": 5246, "sin": 8791, ":\"": 4825, "\u2581Eq": 9692, "\u2581shouted": 14726, "\u2581Thompson": 19560, "\u2581Wonder": 21950, "inks": 20523, "\u00e5ng": 13733, "\u2581fame": 24665, "\u2581medieval": 23223, "\u2581Information": 9148, "ibles": 15300, "\u2581Catal": 18959, "\u2581\u043a\u0440\u0430": 10075, "Fix": 23201, "\u25a0": 29094, "\u2581That": 1725, "\u0219i": 6284, "\u2581han": 6700, "\u2581m\u0171": 28122, "kor": 17066, "ismo": 7027, "\u6d6a": 31752, "\u2581hunt": 20021, "\u2581bis": 4505, "course": 11987, "\u2581Coll": 9215, "\u2581participation": 17002, "\u2581occasional": 20636, "\uc0dd": 29693, "\u2581complaining": 26509, "\u2581anterior": 24449, "verted": 18692, "icts": 23955, "\u2581clarity": 25312, "including": 14682, "bee": 28255, "chg": 18689, "\u02c7": 31721, "\u2581possibly": 8189, "Donald": 18379, "\u2581Industry": 21268, "\ubc84": 30041, "\u0445": 28831, "VR": 18240, "Small": 22349, "\u2581rich": 6708, "\u2581Optim": 27268, "\u2581Victor": 12177, "\u20a6": 31809, "\u2581Pain": 20063, "\u2581synd": 18690, "<0x01>": 4, "\u2581Shel": 18601, "\u2581Norman": 22545, "\u2581certain": 2552, "\u2581}\r": 3426, "\u2581\u0430\u0440": 8691, "ellschaft": 20250, "sdk": 17287, "Blob": 22388, "\u2581Durante": 20680, "\u2581iOS": 23487, "\u6c92": 30931, "Self": 13547, "xFC": 19507, "unic": 11961, "\u5916": 29638, "\u2581quick": 2936, "\u2581to": 298, "getElementById": 14777, "\u2581lat": 4039, "\u2581Falls": 24538, "ampton": 27397, "\u2581careful": 11291, "Width": 4956, "uw": 12841, "\u043b\u0435": 1125, "\u2581cultural": 8932, "\u2581instruments": 17937, "\u0081": 29766, "fig": 885, "al": 282, "ajor": 2577, "\u2581Great": 6043, "\u2581expanding": 20767, "\u2581strings": 11272, "kar": 13600, "\u2581bias": 16117, "\u2581ACT": 26535, "\u2581eleg": 12999, "\u2581Kum": 25694, "entry": 3991, "aphor": 27041, "\u2581surrounded": 14161, "ino": 2164, "fix": 7192, "\u2581piss": 17945, "\u2581sanct": 24309, "\u2581radial": 28021, "\u2581efect": 27392, "eros": 10667, "\u2581delet": 21750, "\u2581{\"": 9830, "oni": 7997, "weights": 26911, "\u2581incon": 17910, "\u2581Legal": 22010, "ovember": 4208, "\u2581Inside": 20726, "\u2581blood": 4242, "Command": 4740, "\u2581art": 1524, "\u2581appl": 14933, "ams": 5322, "<0xCD>": 208, "diff": 11836, "\u2581nearby": 10396, "overlay": 27163, "\u2581durante": 9794, "\u2581Mars": 15798, "len": 2004, "cn": 9832, "\u2581losing": 10121, "uct": 3699, "ients": 2785, "\u2581bringing": 10279, "DITION": 11160, "\u2581discussing": 20633, "\u2581toString": 26297, "\u2581asking": 7201, "\u0153ur": 24627, "\u2581layer": 7487, "\u2581Sport": 11093, "\u2581fou": 19893, "\u8a66": 31744, "\u2581words": 3085, "\u2581Manufact": 19663, "\u2581base": 2624, "RAN": 4943, "Socket": 12500, "\u2581prediction": 19386, "\u2581forget": 7120, "ateful": 13263, "\u2581ottobre": 26781, "\u2191": 29597, "\u2581contact": 3754, "ieron": 12721, "ity": 472, "-(": 24894, "\u2581\u043c\u0435\u0436\u0434\u0443": 16360, "\u2581\u00e9l": 10760, "strlen": 26192, "\u2581Eine": 21144, "sock": 13820, "referto": 28557, "ijd": 15169, "\u2581Agricult": 23837, "\u2581Upper": 25407, "\u2581Disc": 23294, "\u2581gates": 21625, "\u2581m\u00e9s": 12643, "Assert": 8715, "\u2581km": 3535, "\u2581\u0447\u0435\u043b\u043e\u0432\u0435": 15811, "\u2581lens": 19642, "\u0440\u0438\u0441\u0442\u043e": 21462, "\u2581Network": 9488, "\u2581Mary": 5480, "\u2581Assume": 28024, "entre": 23718, "\u2581foundation": 13865, "\u2581days": 2202, "cc": 588, "\u2581Sv": 20810, "\u2581ao": 8468, "\u2581rout": 6356, "\u2581newest": 27510, "\u2581behind": 2910, "\u2581Maj": 16745, "\u2581Jour": 26074, "\u2581raising": 15851, "krieg": 21754, "\u2581pedest": 27475, "}}}": 14111, "prod": 13135, "pes": 4384, "rons": 13455, "\u2581voting": 17035, "\u2581datasets": 26882, "\u2581hell": 6312, "elfare": 18029, "\u94c1": 31445, "\u2581\u0446": 6033, "ded": 3802, "\u2581accommod": 11810, "\u2581introduce": 13097, "\u2581separately": 22264, "ussy": 23215, "\u2581Cho": 25405, "\u2581Jess": 14216, "\u2581n\u00e4r": 23122, "\u043f\u043e": 1901, "Wrapper": 10843, "number": 4810, "\u2581bub": 22723, "\u2581vr": 22954, "uni": 10810, "flow": 4356, "Once": 16114, "\u2581ur": 4273, "Initial": 14230, "I": 28737, "Wall": 27046, "\u2581birth": 5950, "\u2581kinda": 17670, "allen": 24878, "game": 8835, "Ste": 6732, "\u2581Hoff": 26171, "\u2581'<": 9648, "SN": 15024, "filer": 27992, "\u2581realise": 27457, "\u2581printf": 11566, "\u2581winner": 13842, "\u2581Besch": 26231, "\u2581single": 2692, "\u2581saves": 28507, "\u0422": 28875, "\u2581girls": 6093, "\u30ac": 30613, "win": 5162, "\u2581Esta": 25653, "\u2581hast": 25017, "peed": 6714, "\u2581determined": 7798, "\u2581failing": 19923, "Day": 12422, "listener": 21904, "commands": 22738, "\u5427": 30912, "Seg": 11560, "\u0105z": 24426, "\u2581unh": 20581, "\uac12": 29755, "\u5e1d": 30607, "\u5d0e": 31686, "\u7236": 30276, "Shop": 22775, "\u2581pr\u00e9": 12823, "~~~~~~~~": 22770, "into": 9635, "ologies": 8776, ")\r": 3174, "\u2581bounds": 14594, "CACHE": 22060, "iced": 5200, "\u2581beard": 25293, "unches": 28625, "hin": 15176, "\u2581StringBuilder": 22380, "\u2581behave": 26193, "ilities": 3780, "\u2581zun\u00e4chst": 26477, "\u8bed": 29892, "\u2581craw": 16217, "\u2581Ern": 13829, "opsis": 22761, "counter": 12520, "\u2581irrit": 16418, "\u2581suffix": 26017, "istan": 7694, "\u2581reporter": 19044, "\u2581dernier": 26592, "\u2581sf": 22552, "Hi": 23809, "\u2581Hern": 28521, "xs": 19381, "\ub798": 29889, "<0xCA>": 205, "\u2581phases": 23105, "\u2581anniversary": 21101, "\u2581Nie": 27805, "resources": 15448, "\u2581shape": 5843, "\u2581registry": 23646, "\u2581ARISING": 28580, "\u2581magazines": 22916, "atel": 19256, ")]": 4753, "ci\u00f3": 10775, "\u2581rou": 17148, "outer": 6753, "\u2581san": 8417, "correct": 24555, "\u0164": 31277, "\u044e\u0442\u044c": 14611, "\u2581v\u00ed": 22906, "controller": 11517, "\u2581face": 2105, "\u7dda": 30501, "\u044e\u0442": 7311, "PY": 11519, "\u2581fantasy": 17393, "\u2581neighbors": 17014, "\u2581volatile": 23632, "\u00e7": 28857, "umph": 14170, "\uc99d": 30713, "\u2581conf": 1885, "\u2581Nort": 22584, "\u2581indul": 24155, "\u2581Little": 9999, "\u2581shiver": 25564, "):\r": 20358, "\u20b9": 29652, "\u2581\u0442": 3265, "\u2581'[": 26583, "Metric": 21443, "Renderer": 13812, "\u2581univers": 5137, "urb": 5354, "VALID": 18511, "ching": 11097, "\u2581Master": 9361, "\u2581Unter": 10952, "\u2581parallel": 12635, "\u2581incorrect": 16390, "\u2581HAL": 16879, "\u2581congress": 22692, "\u2581pride": 14384, "\u03ac": 29201, "\u2581Valentine": 28495, "\u00e9se": 17858, "\u2581SORT": 14332, "\u2581adoles": 23988, "\u2581four": 2308, "\u5b9f": 30513, "\u2581hero": 10725, "\u2581nog": 19340, "\u043b\u0430\u0433\u043e": 22085, "\u2581Default": 9707, "\u00fcnst": 23448, "\u017e\u00ed": 25991, "Pt": 26326, "\u0452": 28973, "\u1f30": 31144, "\u2581Cop": 9321, "\u2581smell": 11016, "aise": 5395, "iejsc": 18840, "\u2581dependencies": 24940, "SPI": 23483, "\u7eaa": 31466, "ol\u00f3g": 23552, "\u2581lover": 19568, "\u2581ano": 28125, "\u2581historian": 24131, "\u2581weed": 27151, "\u2581frowned": 21442, "\u2581Ge": 2404, "\u2581Train": 27035, "\u0928": 29540, "building": 19405, "\u6c5f": 29920, "\u2581tragic": 28449, "\u2581bass": 12444, "adesh": 20830, "editor": 10692, "Die": 14892, "\u2581\u2581\u2581\u2581\u2581": 355, "\u09ad": 31819, "\u2581decode": 21503, "\u8a00": 30065, "\u2581such": 1259, "\u2581Dear": 22143, "\u00e4n": 5300, "\u2581grad": 4317, "\u2581scaling": 19903, "\u2581traffic": 8475, "\u2581kl": 7466, "\u0437\u0443\u043b\u044c\u0442\u0430": 17674, "\u2581confess": 26920, "\u516c": 29443, "\u00d5": 31087, "acl": 21899, "\u2581retry": 21370, "Pack": 5932, "\u2581TX": 17679, "\u2581food": 2887, "ities": 1218, "_*": 22291, "\u2581lifestyle": 16218, "\u2581cooper": 18468, "\u8f93": 29226, "ERE": 20923, "\u2581achieve": 6619, "place": 2912, "\u2581dej": 28471, "bros": 25851, "\u2581cult": 3056, "\u2581mini": 13660, "panel": 10726, "consin": 18091, "\u2581boy": 4531, "\u2581metres": 18751, "\u2581enero": 26291, "orough": 11376, "<0xE4>": 231, "\u2581provided": 3857, "\u2581Off": 3984, "\u2581\u043a\u0440\u0438": 18819, "Opts": 23888, "Side": 16170, "\u2581\u043f\u0440\u0430\u0432\u0438": 18534, "Utilities": 28157, "eltemperaturen": 26718, "\u201f": 31925, "Prov": 18325, "ery": 1193, "\u2581Bur": 6815, "acher": 10333, "\u2581neu": 21194, "\u2581tijd": 23898, "\u2581entrepre": 15801, "icate": 5749, "\u2581react": 13035, "upport": 3650, "ijing": 25168, "SESSION": 15373, "\u2581believes": 15302, "\u2581crowds": 26674, "\u2581Fail": 28278, "olas": 16836, "\u2581bean": 24853, "AppCompat": 11707, "\u2581libro": 28066, "CONFIG": 9835, "\u2581constructor": 11429, "kan": 9763, "\u6cbb": 30137, "\u5b88": 30992, "scar": 14723, "\u2581noise": 8498, "\u2581\u0411\u0430": 9931, "\u2581ingredients": 13506, "\u2581Heart": 14552, "\u2581nove": 9076, "\u0441\u0442\u043e": 2276, "Attributes": 9956, "\u2581\u0443\u0447\u0430\u0441\u0442": 27021, "\u2581deliberately": 24177, "Yes": 5613, "orney": 10899, "\u2581escal": 19491, "\u2581Matt": 7149, "illing": 8317, "ech": 5295, "Multiple": 26905, "\u2581theatre": 18635, "\u2581certainly": 5785, "\u5ffd": 31312, "\u677f": 29561, "\u2581tow": 11201, "lement": 1044, "icular": 18114, "BASE": 11886, "oen": 13280, "\u2581lung": 14966, "\u2581interviewed": 28178, "\u2d4f": 31443, "\u2581attempted": 15335, "ROP": 24026, "bahn": 20125, "\u2581\u0444\u0435\u0432": 21851, "\u2581Mat": 5702, "\u2581surprised": 8557, "\u2581rank": 6593, "\u2581Try": 11442, "icity": 25130, "\u2581suppose": 10361, "\u2581Learning": 17504, "ondo": 23743, "\u2581Bank": 7838, "dr": 2922, "\u2581Korea": 13544, "\u2581instrument": 10623, "Ma": 20494, "\u0441\u0442\u0430\u043d": 12073, "ello": 4508, ")*": 4869, "FER": 19627, "'\\": 9620, "Connect": 16644, "\u9ed2": 31911, "\u2581However": 2993, "\u2581Rule": 19712, "ilton": 9398, "\u2581rod": 16439, "\u00e1j": 25187, "ises": 3900, "\u2581hub": 14546, "isions": 5662, "==": 585, "erd": 5517, "\u2581Reyn": 25883, "rollment": 27518, "CP": 4100, "Ver": 5760, "Indicator": 27284, "\u5347": 30401, "clock": 10487, "\u2581banned": 20420, "\u2581CONDITIONS": 12231, "\u2581\u0444\u0430": 12775, "verter": 14002, "\u2581helper": 20884, "\u2581fully": 5894, "\u2581Ped": 11943, "\u0986": 31496, "lov": 13038, "links": 17052, "\u6cb9": 31315, "\u2581\u043e\u0431\u0440\u0430": 11061, "ilen": 27748, "\u5f00": 29177, "\u2581terrible": 9783, "\u2581accent": 19440, "Monitor": 19606, "\u2581mari": 28555, "\u2581kun": 21248, "entr": 21683, "\uc11d": 31585, "country": 16912, "\u0449": 28853, "neq": 14282, "brew": 22540, "\u014d": 28934, "\u89e3": 29386, "\u2581wet": 7569, "\u2581Perhaps": 9447, "Ill": 15497, "\u2581Stan": 9034, "toolbar": 23465, "\u2581\u2116": 15778, "\u00f6k": 21201, "\u2581Rav": 27037, "\u2581documents": 10181, "\u4fe1": 29080, "\u2581pal": 4785, "__,": 8934, "\u2581recib": 25472, "\u2581delivering": 22119, "hedral": 19749, "\u2581god": 5525, "\u2581jako": 10128, "leq": 4688, "\u2581True": 6110, "\u2581assignment": 15657, "\u2581publications": 23311, "ver": 343, "\u2581technique": 11108, "\u2581Ing": 19848, "\u2581deemed": 24328, "\u8c37": 30894, "sidebar": 27669, "\u2581wreck": 22293, "\u2581fourteen": 25275, "igten": 27598, "ster": 2406, "\u2581pupp": 18631, "\u2581masks": 22724, "\u2581load": 3442, "lean": 7962, "\u9332": 30872, "\u2581manif": 19924, "encies": 6094, "\u2581stuck": 10231, "WISE": 26251, "\u4ed8": 29628, "\u2581fear": 4813, "\u2581decades": 10073, "\u2581manuscript": 20869, "\u2581forme": 19396, "fire": 9257, "land": 1207, "\u2581harmony": 19511, "\u2581diet": 9751, "ityEngine": 11167, "\u2581grass": 10109, "\u2581Bureau": 18052, "\u2581servant": 22075, "\u266f": 30905, "\u2581articles": 10437, "iter": 1685, "\u2581solutions": 7151, "\u2581Nem": 26480, "\u2581spin": 7344, "\u5c06": 29248, "\u2581mix": 6750, "\u2581har": 4412, "\u0444\u0435": 8633, "trace": 9213, "\u2581capit": 16809, "\u2581float": 4932, "\u0e1b": 29718, "\u2581commun": 1960, "\u2581je": 2218, "\u2581School": 4228, "\u2581ingred": 10887, "\u2581nas": 12472, "\u2581Born": 20109, "RIP": 16373, "\u2581MON": 25259, "\u2581Bennett": 27789, "nik": 8491, "UST": 11080, "\u2581vest": 16568, "ices": 1214, "\u2581possibilities": 18053, "\u2581Jewish": 9952, "\u2581computation": 21728, "geme": 18232, "ousing": 23291, "<0x47>": 74, "uent": 9938, "\u2581denote": 14543, "\u2581Finally": 8126, "chor": 10951, "\u2581addressing": 24643, "Labels": 21239, "aria": 6463, "\u2581Phys": 12051, "shine": 22121, "\u2581Spiel": 14755, "\u2581noon": 26873, "\u4e1c": 29717, "Ad": 3261, "\u2581Boy": 11036, "\u2581Indiana": 19665, "type": 1123, "pal": 11920, "icio": 14957, "\u2581miserable": 26779, "\u2581adj": 11433, "\u2581cattle": 23137, "emetery": 20033, "\u2581trapped": 20868, "\u2581crowd": 8954, "antal": 25855, "\u2581Sebast": 18935, "score": 11831, "Request": 2212, "\u2581wh": 388, "angen": 26047, "aul": 2857, "\u2581match": 2918, "\u2581exhib": 8244, "\u2581var": 963, "\u2581Espa\u00f1a": 20482, "\u2581morph": 18087, "\u2581creating": 6818, "\u2581Custom": 7973, "ployment": 9129, "\u2581{},": 12682, "\u0251": 29813, "\u2581nat": 3044, "\u2581Future": 18242, "\u2581Linda": 23285, "\u2581nevertheless": 25457, "\u2581Meter": 26673, "OL": 3064, "\u2581crack": 9551, "GU": 25459, "\u2581rh": 23535, "\u2581Rich": 4656, "%,": 16036, "\u0441\u0442\u0438\u0442\u0443": 17356, "\u2581dic": 19184, "\u2581structure": 4693, "\u2581snow": 7899, "\u2581Love": 7481, "\u2581Horse": 25463, "\u2581Hockey": 27994, "unst": 12134, "\u2581remarks": 24370, "\u2581Listen": 26756, "\uc5c8": 30591, "\u2581\u0431\u0456": 23112, "entieth": 22606, "\u2581therm": 11594, "\u2581Division": 8618, "\u2581bro": 1865, "\u2581enforcement": 19046, "standard": 20587, "\u2581warrior": 25838, "YP": 26058, "\u3011": 29494, "omen": 4361, "ucket": 11191, ":\\": 9941, "Pyx": 20585, "\u2581": 28705, "eta": 1632, "\u2581aggreg": 14554, "basic": 18681, "\u7387": 29886, "\u2581beyond": 5298, "\u2581vers": 3502, "cember": 4354, "ox": 1142, "\u2581accepting": 22368, "anded": 14866, "MUL": 25586, "\u2581really": 1528, "\u5012": 31146, "isches": 23458, "rate": 6036, "\u2581devil": 23153, "\u2581&=&": 17481, "\u5c31": 29379, "\u0441\u043a\u043e\u0435": 12988, "\u2581NOTE": 21125, "\u2581hiring": 21349, "cent": 1476, "\u2581riv": 8191, "ri": 373, "\u2581?>": 6853, "iting": 4328, "unlock": 8161, "uce": 12783, "-----": 13918, "iversary": 17250, "Style": 4436, "quet": 14385, "Pr": 3393, "iseconds": 24589, "ollar": 20588, "\u2581bur": 4564, "::~": 27893, "\u2581\u0412\u0435\u043b\u0438": 16690, "\u2581pixel": 18012, ")\\,": 23115, "zten": 24021, "\u2581III": 6950, "actic": 19585, "atori": 13191, "\u2581advantages": 18761, "\u2581Mother": 12387, "\u2581energet": 28236, "\u521b": 29349, "\u2581\u0444": 2638, "Cent": 18503, "\u0ccd": 30406, "\u2581\u0431\u0443\u043b\u0438": 24596, "\u2581\u043c\u0456\u0441\u0446\u0435": 26972, "\u2581tit": 5114, "eda": 13170, "\u043a\u0438\u043c": 15616, "\u2581Complex": 26967, "title": 3901, "\u2581lunch": 9957, "\u2581Lu": 4960, "ake": 621, "rapper": 6131, "\u2581ui": 12842, "^{-\\": 18910, "mark": 3325, "LED": 15319, "Type": 1005, "\u0444\u0456": 11206, "\u2581hes": 10816, "\u5931": 29268, "\u2581parent": 2564, "\u2581\u00bb,": 13231, "bot": 10093, "pton": 11648, "\u2581philos": 28039, "boldsymbol": 8033, "gi": 5330, "hir": 22590, "\u2581studio": 9659, "\u2581composed": 15021, "oping": 22970, "\u1ec9": 30714, "\u2581inclu": 25712, "\u2581Tar": 14740, "vy": 12246, "\u2581fu": 6649, "eness": 14176, "\u2581Wing": 26523, "\u2581vision": 8021, "\u2581therap": 17802, "\u2581ras": 28104, "\u2581Faith": 25098, "Arg": 4637, "adas": 5959, "<0x33>": 54, "\u2581Wy": 13178, "\u2581ins": 1488, "\u2581certificate": 15743, "Guid": 17893, "\u2581upright": 27525, "\u2581\u0413\u0435": 12935, "\u0430\u043d": 2239, "cases": 14418, "\u2581Tips": 26406, "\u68cb": 31735, "\u2581never": 1484, "Surface": 18436, "iding": 3269, "Tables": 22776, "block": 3356, "\u2581reputation": 12947, "\u2581sort": 3127, "\u2581\u0431\u0443\u043b\u043e": 18395, "Illuminate": 20231, "\u2581engineering": 13320, "Cur": 4432, "\u2581constructed": 13379, "\u2581Perry": 24150, "\u691c": 30948, "\u2581mai": 8212, "alu": 5107, "\u2581Conf": 10007, "isons": 16149, "UT": 1765, "\u2581Gesch": 10520, "\u2581Facebook": 8488, "\u2581Ferd": 24768, "\u2581seguito": 21613, "\u2581Commit": 9003, "it\u00e9": 3974, "\u2581python": 21966, "az": 941, "isse": 6813, "\u8de8": 31864, "\u2581dessen": 23092, "\u2581Gal": 6639, "GUI": 21778, "\u2581friends": 3282, "Ready": 18818, "\u043d\u0438\u043c": 8895, "\u0155": 31795, "\u2581\u043f\u0440\u0435\u0434\u0441\u0442\u0430\u0432": 18006, "\u2581Gene": 25321, "\u2581far": 2082, "/**\r": 14756, "\u2581Py": 5961, "ate": 380, "lp": 12312, "\u2581onChange": 27530, "\u2581*,": 17505, "ledge": 3829, "\u2581las": 2635, "\u2581happen": 4804, "\u2581kennis": 15389, "ateur": 10229, "\u2581Juli": 17570, "bat": 8682, "\u17c4": 31956, "\u2581rivers": 24582, "\u2581connect": 5789, "\u0436\u0435\u043d": 6565, "\u2581\u043f\u0440\u0430\u0432\u043e": 21723, "tit": 23497, "Requ": 1924, "ords": 4318, "Have": 12341, "\u2581individually": 28570, "\u042b": 30584, "\u2581cms": 14114, "\u2581Utah": 23672, "za": 2166, "\u2581Picture": 27872, "\u767a": 30986, "\u2581grades": 25897, "\ud544": 30427, "\u2581ham": 11218, "etics": 24142, "mut": 3244, "\u0442\u0430\u043b": 15122, "\u2581flew": 16356, "\u6846": 29861, "\u2581absurd": 22976, "\u2581cloud": 6945, "\u2581Jama": 26152, "cen": 15698, "\u2581PARTIC": 12942, "Trace": 9937, "\u2581World": 3304, ";/": 16663, "\u2581Dog": 13311, "yll": 19530, "recated": 26376, "\u2581SER": 16123, "Reference": 7926, "\u2581spinning": 26082, "\u2581edit": 10659, "\u2581Jamie": 19017, "pfn": 28074, "\u955c": 31555, "\u2581one": 624, "\u1e41": 31507, "\u0572": 31565, "than": 23018, "\u2581repe": 5683, "\u09ac": 30099, "\u2581Som": 7068, "\u2581milit": 4116, "\u2581SV": 15952, "\u2581\u00c1": 10415, "\u2581thumb": 15762, "pkg": 13636, "FR": 9790, "\u2581stove": 28479, "\u2581double": 3579, "\u8996": 31077, "\u03b1": 28948, "\u2581Francis": 6617, "\u2581WITHOUT": 8292, "\u2581underneath": 21901, "Mult": 7180, "\u5e2e": 31186, "\u00e9k": 9640, "Idx": 12157, "\u7d1a": 31373, "\u2581armor": 21729, "make": 6539, "\u22c5": 30020, "thread": 6101, "\u2581#{": 22465, "\u2581comfort": 5034, "\u2581silently": 24435, "SEE": 27670, "\u66f9": 30644, "\u2581Laura": 16145, "n\u00edch": 21331, ">',": 26161, "\u0e0a": 29851, "ort": 419, "\u2581anci": 21267, "\u2581diab": 17571, "\u043d\u043e\u0432\u0435": 23791, "\u00e8ce": 20456, "\u2581connecting": 19135, "levant": 7122, "\u043a\u0442\u043e\u0440": 14134, "\u2581Card": 8564, "UES": 23873, "\u2581sil": 2958, "\u4e45": 30642, "iffer": 10871, "insert": 6889, "\u2581subsequent": 14235, "VI": 17102, "oning": 20392, "\u2581Its": 7267, "Processor": 17088, "illed": 2636, "keit": 11231, "stone": 9966, "\u2581poetry": 15891, "}(": 2292, "answer": 24115, "VERT": 24149, "XR": 23576, "steller": 25383, "\u2581gradu": 7461, "\u2581necess": 3527, "\u2581gesture": 19313, "rade": 23992, "\u2581pros": 14138, "ona": 3748, "\u2581poc": 21688, "\u2581accept": 3458, "\u2581nu": 6561, "Sa": 14524, "%%%%%%%%": 18849, "\u2581datetime": 23916, "emor": 28704, "\u2581comprend": 23913, "Delay": 17280, "\u2581Sever": 12120, "idx": 5251, "\u2581unders": 23759, "attributes": 11855, "alom": 25759, "\u2581episode": 9560, "\u2581surrender": 25884, "\u2581Jesus": 6466, "ling": 1905, "\u2581spoke": 7310, "\u2581Luke": 15425, "\u2581Corps": 16061, "Control": 5452, "journal": 22908, "icians": 8019, "isterschaft": 17651, "athol": 23593, "={": 2408, "\u2581Lau": 28128, "\u2581trad": 2784, "\u2581ONE": 26071, "\u2581wake": 11088, "\u2581sla": 19734, "\u2581fluct": 19363, "Our": 15265, "idental": 27124, "netje": 15617, "\u043f\u0435\u0439": 28216, "IND": 6733, "\u2581drei": 15898, "dict": 4063, "ADC": 27787, "apse": 9772, "\u05e8": 29075, "\u2581Italian": 10088, "\u2581alignment": 19492, "\u2581Fac": 13924, "agna": 22408, "osta\u0142": 10406, "Les": 15685, "\u2581products": 4076, "\u2581######": 14432, "ancers": 25799, "\u2581criticism": 17584, "\u2581lust": 28249, "\u2581Slov": 27347, "equation": 2160, "\"\r": 11525, "\u3083": 31028, "\u2581surveillance": 26146, "\u2581GEN": 25778, "xD": 18915, "\u2581solving": 22100, "\u0438\u0437": 9912, "\u2581owner": 7162, "\u2581proxy": 15723, "ViewById": 21374, "}},": 10781, "\u2581surface": 5439, "\u2581consciousness": 16508, "\u2581f\u00fchr": 19549, "OM": 4341, "\u2581boat": 9088, "mk": 16259, "\u2581vista": 28263, "DP": 10485, "\u2581siblings": 27139, "\u2581endl": 20604, "\u2581\u0441\u043e\u0437\u0434\u0430": 18845, "\u2581\u043f\u0440\u0438\u0437\u043d\u0430": 26287, "rib": 758, "item": 1751, "CS": 6158, "\u044a\u0440": 6430, "\u2581mon": 1326, "\u2581d\u00e9velop": 21226, "hand": 2625, "\u2581cere": 23730, "\u2581remember": 3229, "`);": 28682, "\u2581pil": 7586, "\ub97c": 29200, "\u2581Cath": 8746, "INPUT": 20309, "ya": 5157, "obile": 4414, "ritz": 24855, "\u2581wall": 3500, "\u2581format": 5032, "\u2581fue": 5631, "ytics": 18717, "Converter": 18670, "ided": 1932, "lington": 26183, "\u2581prop": 3313, "age": 465, "\u2581href": 5501, "AH": 21053, "\u2581correspon": 4408, "::$": 24498, "\u76f8": 29367, "Language": 13843, "job": 9524, "Coord": 15082, "\u2581};\r": 23139, "\u2581vil": 16767, "\u2581Hills": 19069, "\u2581liability": 22581, "yster": 26879, "pression": 2670, "\u73ed": 30805, "\u2581[-": 28099, "uest": 24437, "\u69cb": 31833, "no": 1510, "\u2581F\u00f6r": 26638, "\u2581Wik": 12217, "ENOMEM": 20259, "\u2581pentru": 19493, "\u2581McK": 18346, "\u2581Schema": 24051, "\u2581Solutions": 24806, "infty": 5065, "\u2581ud": 18493, "(\"-": 24751, "\u2581tv\u00e5": 22364, "\u2581sharp": 10227, "\u2581contracts": 19178, "\u2581goods": 11282, "\u5e01": 30735, "L": 28758, "Hide": 23309, "duct": 2478, "\u2581\u0421\u0443": 13656, "\u2581accom": 4339, "\u0219": 28903, "\u2581\u0420\u043e": 5850, "names": 5889, "\u2581assumptions": 19573, "\u2581Romans": 28282, "strument": 15549, "\u2581Sweet": 22593, "\u2581cancelled": 24977, "\u2581bien": 9628, "NM": 25860, "Rom": 28018, "\u2581Sz": 8718, "\u2581rows": 11926, "\u2581bel": 1273, "<?": 5357, "\u2581parse": 6846, "augh": 3740, "\u2581ain": 17523, "\u2581sid": 21398, "\u2581Mov": 26544, "\u2581Zw": 19678, "\u2581Abd": 18386, "\u2581for": 354, "\u2581anxious": 19695, "\u2581Chel": 21996, "\u2581\u043e": 853, "\u2581Ins": 9513, "\u2581subm": 24301, "\u2581determine": 7655, "argin": 6009, "\u2581AR": 6108, "\u2581av": 1182, "\u2581SE": 5820, "\u5957": 30846, "\u2581supposed": 6495, "<0x40>": 67, "\u2581holy": 19214, "\u2581gir": 27585, "\u0634": 29083, "decode": 13761, "\u2581benef": 3749, "1": 28740, "por": 2006, "\u2581Arbe": 24355, "req": 3644, "\u2581'./": 7283, "\u2581ended": 7054, "rency": 7492, "ith": 372, "\u2581rectangle": 26900, "\u2581officers": 9164, "Boolean": 9925, "\u2581Put": 10331, "\u2581Pays": 26828, "\u2581she": 630, "asset": 17702, "\u008e": 29637, "dest": 5356, "ular": 1098, "rey": 6439, "\u2581seats": 13885, "\u2581Senator": 22927, "aterial": 2471, "\u2581affirm": 25758, "\u2581Rather": 19919, "ovi": 17694, "\u0091": 29792, "\u2581tax": 3947, "\u2581Part": 2914, "\u2581football": 6569, "\u2581panel": 8357, "ump": 1804, "\u2581Comp": 3880, "\u2581kit": 5282, "\u2581\u0418\u0441\u0442\u043e\u0440\u0438\u044f": 24439, "\u2581author": 3227, "\u2581Rio": 15707, "rooms": 14520, "\u5238": 30835, "qu": 364, "\u2581monitor": 9009, "\u2581editorial": 26723, "\u05db": 29463, "\u2581Dist": 12443, "\u2581Per": 2744, "\u2581\u0432": 649, "nob": 25552, "Provider": 5342, "\u2581fingers": 7856, "\u2581fresh": 6138, "ather": 1223, "Culture": 24742, "\u0304": 30778, "\u2581epoch": 23784, "licht": 15761, "ributes": 4302, "shadow": 19458, "\u2581Sunday": 7729, "\u2581droit": 28031, "oine": 21265, "\u2581Tai": 16118, "\u2581gewann": 26778, "\u2581Apply": 23160, "\u2581shipped": 27634, "dern": 22502, "\u2581analysis": 5643, "\u2581lambda": 24398, "iri": 16105, "\u2581Tob": 20479, "\u2581hollow": 25052, "poque": 25576, "\u2581Gard": 15070, "sized": 20838, "None": 5364, "\u2581learn": 2822, "\u2581wild": 6107, "West": 19668, "\u0435\u0432\u0438\u0447": 24792, "\u5403": 31182, "\u2581(*": 2253, "\u2581approaches": 13945, "\uc838": 30942, "\u2581companions": 24804, "\u2581Salvador": 27785, "\u2581Japan": 4720, "Override": 3398, "\u2581variations": 19718, "UMENT": 27286, "\u2581\u0441\u0442\u0443": 20558, "\u2581train": 5835, "qa": 19259, "\u2581aren": 5405, "\u2581junior": 18339, "\u2581fis": 18445, "ident": 1129, "agnostic": 13685, "\u2581questioned": 26812, "\u2581feed": 5575, "epoch": 26729, "\u064c": 31975, "\u2581par": 940, "\u8986": 31079, "\u2581class": 875, "\u76ae": 31279, "\u2581Match": 15127, "\u2581Gef": 26566, "vt": 14029, "\u2581Joe": 7833, "\u2581Plus": 11230, "\u2581\u043b\u0438": 5952, "\u2581applic": 4598, "\u2581motiv": 8972, "\u2581demanded": 16084, "DIO": 18036, "\u2581function": 908, "dag": 22997, "CKET": 26474, "\u0440\u0430\u043c\u0438": 27142, "Effects": 27175, "asci": 25436, "\u2581covering": 13974, "\u2581interior": 11154, "\u2581seas": 28443, "\u770c": 31432, "\u2581native": 8271, "windows": 12113, "msm": 14289, "\u2581Professional": 16081, "\u2581HashMap": 20013, "ERO": 20574, "\u3081": 30110, "friendly": 18109, "\u2581beef": 21189, "\u0452\u0435": 27214, "\u2581kind": 2112, "\u2581channels": 11671, "\u2581dramatically": 25797, "\u043a\u0430\u0437\u0430": 13258, "\ud83d\ude0e": 30817, "\u2581drawings": 27763, "\u2581Kill": 25262, "</s>": 2, "\u00edcula": 19858, "\u2581complained": 25057, "\u2581deel": 23417, "\u2581beautifully": 27088, "\u2581\u041c\u0430\u0440": 13666, "CON": 3185, "\u2581net": 2512, "iliar": 7036, "alf": 2121, "\u2581National": 3610, "pie": 9053, "\u2581./": 17449, "<0xBC>": 191, "\u2581Ek": 27659, "\ub79c": 31256, "Strip": 18629, "\u2581II": 3717, "\u5f97": 29291, "\ud83e\udd37": 29905, "\u0e38": 29903, "\u2581penal": 15572, "\u2581cock": 12408, "\u2581Along": 20211, "ville": 5485, "\u0441\u0442\u0432\u0443": 14198, "\u2581refr": 17154, "soap": 19516, "saved": 21428, "\u2581Pretty": 24111, "services": 12451, "\u017ee": 18765, "_{{\\": 17541, "Functions": 23072, "\u2581oh": 11621, "\u2581NV": 27470, "\u2581Speed": 19586, "|": 28766, "flat": 21139, "\u2581PA": 14800, "next": 3423, "\u2581Introduction": 23628, "<0x2B>": 46, "\u6b8a": 31267, "About": 22261, "\u2581iPhone": 17391, "life": 10387, "heck": 2543, "story": 18387, "oubt": 22531, "\u2581\u0433\u043e\u0434\u0438\u043d\u0430": 18614, "\u2581f\u00e5": 28680, "\u2581coc": 14609, "Frame": 4122, "\u2581aspects": 10936, "\u043d\u044b\u0439": 4086, "\u2581isolation": 25250, "\u2581\u00e9poca": 26915, "\u6210": 29025, "\u2581conn": 12513, "\u2581ciudad": 14879, "\u2581estimated": 11909, "azy": 13478, "azure": 17932, "\u2581evangel": 24276, "\u0446\u0438\u0439": 22940, "itutes": 19545, "\u2581chaque": 27424, "\u000b": 30638, "\u2581placeholder": 17455, "chet": 24388, "\u2581focus": 3232, "\u2581\u010d": 6612, "\u2581alone": 4411, "People": 21794, "Lambda": 8023, "ivity": 2574, "+=": 21234, "\u2581\u043d\u0435\u0433\u043e": 22510, "\u2581Rico": 26791, "\u2581Shanghai": 28410, "\u00e9l": 5560, "\u00c8": 29029, "\u2581wen": 21672, "\u2581pov": 24270, "ubble": 12542, "rule": 7937, "umbled": 12802, "\u2581ny": 13576, "odes": 2804, "Play": 10045, "Geplaatst": 15738, "\u2581Sylv": 25987, "\u2581Du": 6335, "\u0159\u00ed": 9528, "\u2581grey": 15543, "encoded": 27208, "mass": 18480, "rov": 11620, "Bank": 25022, "aren": 4184, "\u2581pandemic": 15749, "\u04c0": 31731, "\u2581cad": 13150, "\u2581orders": 8636, "ETH": 21138, "<0x84>": 135, "\u2581gra": 18216, "\u2581welcome": 10058, "\u2581remove": 5281, "\u2581Final": 10222, "\u2581{};": 10451, "\u2581tang": 15362, "istribute": 15505, "phony": 22326, "\u0907": 31391, "\u2581PUR": 12269, "Types": 5433, "\u2581WARRANTY": 14437, "substr": 23341, "BI": 8758, "\u0451\u043c": 18452, "\u2581Str": 3838, "))\r": 14668, "art": 444, "\u2581ph": 1108, "ublice": 17185, "\u2581mour": 22004, "\u2581Node": 10127, "airy": 23421, "\u2581Jan": 2997, "\u2581skip": 8583, "\u2581deployment": 23039, "\u2581pecul": 23908, "\u6570": 28945, "\u2581radar": 24951, "Bundle": 12409, "REQUI": 25127, "\u2581Ces": 17097, "ania": 4877, "\u2581burn": 5698, "\u2581\u0447\u0435\u0440\u0435\u0437": 20085, "say": 21205, "\u2581Ty": 10084, "\u2581expertise": 14900, "\u2581daughter": 5690, "\u81f4": 30176, "\u2581responded": 15249, "\u2581behaviors": 23961, "Schema": 7435, "\u2581Davis": 13635, "\u2581valued": 25309, "\u2581struggle": 11371, "\u00f3wnie": 25414, "\u2581odd": 6939, "\u76d1": 29999, "dates": 8097, "\u2581lock": 4344, "\u2581Page": 9328, "\u2581publicly": 19200, "\u0447\u0451": 26397, "nica": 14882, "\u2581temple": 14842, "gest": 5111, "\u2581below": 3624, "\u2581Fifth": 23359, "\u2581included": 4658, "<0x2D>": 48, "ether": 8962, "\u2581ceremony": 16172, "\u2581divide": 21556, "WO": 20463, "\u2581hospitals": 21737, "\u2581m\u011b": 18076, "gov": 13933, "\u2581Bob": 7409, "D": 28757, "\u014f": 29869, "\u2581digit": 21656, "\u5ef6": 30648, "\u2581interpret": 7190, "\u306b": 29174, "geon": 14535, "++]": 21371, "\u7684": 28914, "appe": 6553, "\u043e\u0431\u0440\u0430": 17942, "\u2581az": 4767, "\u2581suscept": 27595, "ille": 2457, "ND": 6916, "\u2581erste": 19233, "\u2581fonction": 23473, "\u2581*=": 22040, "\u043d\u0456\u0457": 24506, "poss": 6338, "\u9805": 30829, "GI": 22576, "ipart": 26653, "\u05d3": 29317, "\u2581Mos": 7292, "\u2581soort": 14571, "\u2581juice": 18342, "\u2581cluster": 9194, "\u2581\u0441\u043f\u0435": 16201, "\u2581compl": 3852, "agnostics": 14127, "\u2581proces": 22234, "\u2581Nixon": 24169, "\ud0dc": 30533, "\u2581\u041e": 2807, "\ub839": 31514, "\u80dc": 31830, "onne": 18304, "\u2581misunder": 26670, "\u2581Detroit": 19784, "Show": 8398, "\u2b50": 30130, "\u00e4hlt": 25409, "\u2581view": 2204, "CK": 2889, "\u2581pig": 18958, "iop": 19072, "gray": 17645, "quad": 3613, "adow": 5547, "\u2581\u0438\u043c\u0435": 11345, "Rem": 5139, "Stand": 11934, "\u2581quest": 1825, "ajo": 10125, "\u2581dub": 16050, "direct": 9423, "direction": 15782, "Boot": 21270, "\u0111": 28977, "ap": 377, "orio": 26794, "\u2581losses": 16275, "\u1d07": 30774, "\u2581vast": 9555, "EN": 1020, "\u2581establishing": 24491, "\u2581maggio": 24080, "\u2581ordin": 28058, "ecycle": 22832, "\u2581sure": 1864, "\u043d\u043e\u0435": 8848, "varepsilon": 6490, "\u2581launched": 11087, "\u584a": 31860, "apply": 10877, "\u2581writ": 2281, "\u2581improvements": 19664, "\u2581famil": 3923, "\u2581%.": 23301, "\u2581Gas": 17439, "\ubca8": 31997, "\u2581figures": 10389, "rition": 17791, "\u2581Tambi\u00e9n": 26363, "Buf": 12398, "\u0440\u043e\u043a": 26531, "\u2581infant": 23116, "wood": 4871, "\u2581Same": 18081, "\u2581\u2013": 764, "Note": 12205, "THE": 25898, "ppen": 15016, "\u2581forming": 20345, "\u2581Sara": 23365, "\u2581stri": 4216, "ruct": 866, "\u2581hon": 3243, "forward": 11397, "Expected": 17015, "\u2581Cin": 17133, "\u626b": 30997, "inters": 23661, "})}": 27276, "\u2581Subject": 25558, "padding": 13712, "\u2581na": 1879, "\ubc95": 30979, "\u2581Harry": 9726, "\u2581RT": 17059, "\u2581n\u00e1": 23407, "\u2581ask": 1460, "\u2581suitable": 11633, "\u8fd8": 29751, "\u2581exceptions": 20935, "kee": 21612, "Mill": 14667, "ktr": 20412, "\u2581propriet": 20796, "\u2581prayer": 15515, "\u2581Arist": 24259, "\uc720": 30127, "\u2581Jeff": 8678, "isy": 23444, "\u2581triple": 22212, "\u2581held": 3336, "olds": 4858, "\u2581Lap": 23760, "\u2581Graph": 15146, "ById": 7760, "\u2581praise": 20707, "\u2581homeless": 22354, "cury": 25812, "\u2581WH": 14897, "\ub124": 30959, "possible": 7285, "fg": 4113, "\u2581phrase": 14804, "\u2581presum": 17834, "\u2581kt\u00f3ry": 18415, "\u043c\u0431": 25254, "\u2581FOR": 6907, "\u2581by\u0142": 18389, "\u5c1d": 31568, "\u2581Chand": 27384, "ler": 1523, "\u0433\u0438": 3171, "\u2581border": 6765, "aient": 16700, "\u2581auth": 7565, "\u2581continue": 3688, "\u2581whatever": 5681, "oom": 8605, "\u2581tras": 11431, "\u2581Shadow": 24874, "arga": 26538, "\u2581supply": 8002, "orsz\u00e1g": 22825, "CodeAttribute": 23583, "\u5934": 29640, "\u2581deput": 17928, "\u0429": 29124, "\u2581slic": 17341, "lung": 13005, "\u2581queen": 18204, "URL": 5343, "\u2581aston": 21011, "\u2581lean": 6115, "\u2581poems": 22394, "\u2581cement": 22701, "users": 10247, "\u2581dan": 11555, "zo": 4167, "\u2581indirect": 20690, "\u2581Prest": 24478, "mf": 19263, "\u2581DE": 4562, "\u2581joining": 15508, "\u2581motivation": 21594, "\u2581skilled": 20799, "\u30a2": 29322, "\u2581opened": 4923, "\u2581sign": 1492, "\u5c07": 30858, "Am": 7118, "\u2581lleg": 15546, "ografie": 16976, "cz": 3808, "cha": 8136, "conn": 8407, "\u2581approved": 12879, "\u00e1k": 9001, "\u2581interrog": 28197, "\u2581COL": 20101, "\u2581newspaper": 12442, "aur": 3507, "\u2581Duke": 15619, "stv\u00ed": 24574, "itter": 4706, "\u2581miracle": 27569, "\u2581dropping": 19183, "Settings": 5546, "\u2581offering": 9055, "\u5b8c": 29474, "nea": 19660, "pot": 14676, "\u2581engl": 24670, "\u2581relatives": 21668, "\u00c9": 28901, "\u2581launch": 8817, "\ub3c4": 29599, "ido": 2750, "remove": 4653, "*(": 13411, "UK": 22757, "akov": 25208, "\u2581Widget": 27226, "\u2581esc": 3431, "\u2581trag": 20751, "\uc22b": 31330, "\u5e03": 29802, "\u2581Please": 5919, "Should": 15035, "\u10e1": 29407, "\u2581\"../../": 21047, "\u2581Peru": 28230, "\u2581Rachel": 16764, "\u540e": 29120, "\u2581m\u00fasica": 23522, "pson": 12353, "\u2581LE": 14181, "\u2581Date": 5491, "mag": 10808, "\u2581Hum": 17442, "\u2581\u043f\u0440\u0435": 3184, "\u2581tense": 28445, "dynamic": 18691, "\u2581goes": 4859, "\u2581\u0438\u043d": 8257, "\u2581duty": 11193, "\u2581obra": 21835, "iao": 23985, "\ud83e\udd21": 31370, "\u2581arms": 5574, "/_": 23762, "\u0119p": 21655, "\u2581\u0421\u0435": 10329, "\u2581Amb": 12086, "\u2581\u043e\u0442\u043a\u0440\u044b": 27028, "\u0431\u0440\u0438": 20940, "\u2581sq": 18328, "\u2581Darwin": 27213, "ivas": 25268, "\u2581quatre": 19419, "\u0432\u0438\u0447\u0430": 26785, "\u0448\u0456": 20159, "connect": 7182, "\u2581intelligent": 18926, "side": 2205, "\u2581told": 2240, "iej": 6250, "\u2581stato": 11995, "earing": 12385, "/.": 15704, "erst": 25742, ")((": 26053, "\u2581deliber": 14903, "....": 3406, "\u2581penalty": 19140, "\u56db": 29882, "\u2581fortunate": 28595, "iture": 8861, "\u2581trop": 12090, "\u2581bear": 9135, "quest": 6911, "));\r": 10941, "\u2581aria": 19787, "\u03c0": 29030, "stud": 13082, "\u021bi": 14846, "\u2581foam": 26493, "Cross": 26068, "\u2581faint": 16603, "\u0433\u0434\u0430": 13872, "\u2581desper": 10975, "\u2219": 30444, "\u2581sag": 19350, "\u2581enf": 15336, "\u2581Luxem": 28556, "\u2581tok": 12666, "criptors": 22766, "\u2581Freder": 15411, "\u2581fails": 14298, "\u2581numero": 25899, "\u2581trees": 7099, "\u2581mobility": 27218, "\u2581exponent": 23869, "LOG": 5305, "Hash": 6455, "trl": 11276, "\u2581demon": 5762, "\u2581stance": 27379, "\u2581Chat": 23781, "\u2581cart": 7548, "\u2581provider": 9782, "\u2581Michael": 5459, "Enter": 12403, "doc": 4196, "\u2581ring": 6791, "\u2581explicit": 9629, "aling": 4726, "de": 450, "\u2581attractive": 13999, "setminus": 19847, "\u2581dice": 22544, "\u2581hospital": 6556, "\u043a\u043e\u043b\u043e": 17191, "\u2581rewards": 22989, "\u2581foul": 27650, "ci\u00f3n": 7909, "\u2581LLC": 19401, "\u8bad": 31154, "<0x92>": 149, "rique": 15663, "\u2581sera": 26050, "atalogue": 10626, "\u2581wearing": 8192, "arsi": 21478, "\u2581Back": 6795, "\u2581ethical": 26324, "\u2581racism": 22409, "\uadfc": 31341, "offset": 3783, "\u2581ampl": 16401, "\u2581Personen": 25480, ":%.*]]": 27456, "anne": 13002, "\u2581titre": 20360, "textcolor": 25977, "\u2581\u2018": 3475, "rar": 19581, "\u2581cl": 533, "(!": 6469, "ativo": 20937, "abe": 7247, "avel": 3177, "\u2581margin": 9829, "\u2581\u2014": 1040, "\u672f": 30485, "\u2581Dur": 8420, "\u2581checking": 12779, "\u2581rapp": 21779, "per": 487, "eping": 11734, "\u2581Illuminate": 22652, "\u2581hill": 12254, "arante": 7203, "BR": 11145, "ache": 1344, "\u043d\u0456\u0441\u0442\u044c": 19147, "\u4ee3": 29314, "\u10d8": 29165, "aya": 9851, "\u2581captain": 13565, "\u2581Sver": 28238, "arent": 1422, "abases": 25716, "\u2581commands": 15380, "izi": 15323, "\u2581PP": 27051, "\u2581partic": 1714, "arning": 3570, "\u2581man": 676, "isme": 10425, "kernel": 11694, "\u00f3": 28825, "ades": 2550, "Hz": 12659, "\u9009": 29216, "othing": 5182, "\u2581OK": 12206, "\u2581PROVIDED": 27104, "Email": 10995, "\u2581ski": 21916, "station": 19849, "Throw": 16519, "\u2581Mem": 6011, "\u2581languages": 14028, "Hol": 28584, "\u0431\u0438": 3788, "anks": 3750, "\u2581lord": 18263, "vart": 27377, "\u9032": 30801, "\u2581sit": 1943, "\u2581date": 3608, "folio": 14132, "\u2581fighting": 8552, "\u2581lately": 22628, "riv": 814, "\u2581Whatever": 16973, "\u2581\u00e9s": 4275, "\u2581Internal": 18939, "config": 2241, "ferences": 8831, "arb": 28343, "\u2581relationships": 9391, "\u2581degree": 6153, "\u2581pose": 15596, "\u0441\u0442\u0443\u043f\u0438": 21008, "]],": 11789, "\u6bcf": 29513, "\u057a": 31881, "\u01eb": 31782, "gency": 9588, "\u2581whole": 2894, "disabled": 13375, "ection": 10101, "\u2581those": 1395, "\u8ddd": 30369, "\u4f50": 31594, "\u2581design": 2621, "\u2581aspect": 6563, "\u2581Emp": 10156, "\u2581fierce": 27118, "\u2581Every": 4203, "pute": 8145, "TA": 6106, "\u6740": 31168, "lon": 15161, "\u2581\u2581\u2581\u2581\u2581\u2581\u2581\u2581\u2581": 2600, "iac": 14480, "\u2581Cha": 23330, "\u2581Juni": 17099, "Dis": 3278, "\u2581grupo": 18550, "su": 2913, "\u2581Orchestra": 28076, "eden": 11245, "\u2581Lars": 27305, ".'": 1815, "\u2581plastic": 10409, "\u2581\u0414\u0443": 23520, "\u2581pure": 7972, "\u2581Andy": 16514, "\u9690": 30356, "\u2581ja": 10987, "\u2581Not": 2280, "\u2581besides": 18532, "\u2581Min": 3197, "\u2581ihren": 24461, "\u6587": 29019, "rs": 4586, "\u00e1nd": 12849, "\u2581Init": 6829, "mathrm": 3943, "\u2581prefer": 5273, "\u2581Priv": 15650, "aments": 22987, "\u2581READ": 24805, "center": 5316, "\u2581sway": 26249, "\u2581host": 3434, "\u2581rs": 19292, "\u2581Vo": 15800, "\u2581Component": 13904, "\u2581buzz": 21242, "\u2581\u0445": 6457, "mand": 20478, "\u2581todas": 24209, "\u2581specialized": 23427, "Image": 4176, "chem": 23164, "\u0142\u0105": 22660, "\u2581Hamiltonian": 23557, "\u2581attract": 6842, "\u2581founded": 11573, "\u2581part": 744, "\u2581Film": 7425, "rin": 19916, "\u2581inspection": 22466, "\u2581rounded": 19372, "\u4eab": 30461, "\u2581gli": 9973, "\u2581\u0412\u0435": 10854, "\u2581filed": 16691, "curr": 14032, "\u2581/***/": 15320, "acious": 17292, "Literal": 13306, "etti": 15275, "\u2581chronic": 20388, "onso": 24291, "Sy": 13403, "\u2581DB": 11664, "\u2581During": 6213, "\u2581arbitr": 12481, "\u2581comput": 3633, "theorem": 16196, "zs": 27896, "\u2581stadium": 24096, "toString": 7127, "small": 9310, "<0xBE>": 193, "\u2581recovery": 12106, "\u2581minim": 12233, "\u5c3e": 30473, "\u932f": 31098, "\u0080": 29133, "\u2581industrial": 10663, "Here": 15423, "\u00e8te": 21056, "\u521a": 31319, "Debugger": 23650, "\u2581influences": 26386, "\u2581\u043f\u0440\u043e\u0438\u0437": 15393, "\u2581stability": 16137, "\u2581buy": 3848, "<0x41>": 68, "kel": 13766, "\u2581Fer": 15172, "crit": 12724, "shell": 21678, "\u2581million": 3841, "\u2581Student": 15965, "\u2581Cz": 23172, "Copyright": 20505, "\u2581Map": 7662, "\u2581defend": 11754, "\u2581\u0418\u043d": 18170, "pull": 23066, "egy": 25375, "\u2581www": 9404, "vari": 13018, "\u2581Appendix": 26589, "\u2581\u041b\u0430": 13813, "agem": 17773, "\u6309": 29518, "\u2581appreciate": 11982, "<0x52>": 85, "ble": 982, "ctxt": 27567, "uchar": 21298, "variable": 15332, "\u2581pan": 3961, "\u2581sha": 23671, "oter": 26511, "\u2581preserv": 16176, "\"`": 8312, "\u2581Terr": 13151, "\u2581marks": 14191, "wm": 18897, "\u2581We": 816, "iously": 7990, "\u2581whist": 20978, "\u2581taxi": 24550, "\u2581=>": 953, "md": 2037, "\u2581fraud": 17764, "\u2581championship": 16928, "\u2581contribution": 11817, "PN": 12812, "ubl": 12337, "kr": 6175, "\u2581approximately": 10870, "analysis": 23206, "\u2581\u0432\u043e\u0441": 26957, "\u2581corpor": 7807, "ook": 600, "\u0441\u044c\u043a\u0430": 12533, "\u2581jog": 18903, "mina": 28085, "\u2581VER": 27511, "\u0abe": 31290, "\u0440\u0430\u043a": 15936, "\u2581isol": 9777, "\u2581mostly": 7444, "\u2581k": 446, "\ub7ec": 30244, "\u2581capture": 11319, "\u2581Intern": 3560, "razy": 7853, "\u2581dance": 9773, "\u0448\u0442\u0438": 21218, "ocon": 24859, "\u2581stuffed": 27412, "ication": 3696, "\u2581imper": 10078, "\u2581victim": 12354, "\u2581Vlad": 20551, "Translation": 25825, "\u2592": 30161, "Tile": 19379, "Delta": 4773, "\u2581screamed": 22878, "\u7259": 31300, "\u2581La": 1700, "\u2581sav": 8639, "\u2581unc": 9967, "\u5728": 29010, "\u2581mine": 6683, "\u2581Beng": 22047, "DAI": 22715, "POL": 21411, "\u2581anchor": 19042, "\u0440\u0430\u0431": 24462, "\u2581\u0447\u0430": 5787, "atom": 16739, "ited": 1345, "\u2581invent": 9182, "\u2581sky": 7212, "\u2581orient": 9093, "\u2581dismissed": 23231, "\u043e\u0433\u0440\u0430\u0444\u0438": 14784, "\ud83d\ude2d": 29985, "}))": 21999, "\u2581Lud": 13953, "mgr": 20070, "\u043b\u0456\u0432": 23279, "\u2581bor": 24863, "\u2581crim": 8404, "uv": 5388, "MD": 4915, "stroke": 14844, "dater": 28615, "oph": 3126, "orte": 8938, "\u2581ella": 19880, "ucker": 20380, "\u02be": 30156, "\u0b9f": 30251, "DESCRIP": 25205, "Partial": 25049, "(\"/": 9933, "BUF": 17206, "\u2581Roosevelt": 18043, "\u6848": 30002, "\u2581also": 835, "\u2581consider": 1917, "ostream": 27762, "metadata": 9609, "\u2581canon": 28585, "\u963b": 31542, "mc": 12961, "ie": 412, "\u2581bare": 13034, "\u2581further": 3629, "\u667a": 30882, "\u534a": 30458, "\u2581scheme": 10208, "lua": 20487, "or": 271, "\u753a": 30988, "\u2581extend": 11696, "\u2581r\u00e9s": 11310, "\u2581\"</": 23616, "\u9019": 30367, "\u4e22": 31883, "\u2581commitment": 13106, "mathfrak": 8530, "\u2581hanno": 23618, "\u2581\u0443\u043f\u0440\u0430\u0432": 26263, "\u5167": 31157, "\u0432\u043e\u0434\u0438": 14807, "liver": 16342, "\u2581experiences": 9021, "\u2581Klein": 26526, "\u0336": 31107, "\u2581calc": 26930, "aft": 3461, "ois": 5628, "\u2581YouTube": 14910, "\u2581enthusiasm": 23099, "\u00edst": 10154, "Guard": 24093, "itte": 26055, "\u2581Bird": 18213, "\u2581trabaj": 23017, "\u0437\u0432\u0430": 10246, "\u043a\u043e\u043d": 10676, "\u2581Chen": 17038, "\u2581propose": 19333, "\u2581Aff": 9691, "\u2581o\u00f9": 11109, "trigger": 11391, "\u2581ek": 21730, "\u52b1": 31613, "\u00e4m": 18483, "Du": 17379, "\u2581barr": 20427, "\u2581precious": 17967, "ighter": 8918, "\u724c": 30324, "\u2581redd": 15512, "chts": 18201, "oir": 7236, "yar": 17073, "ru": 551, "\u2581spaces": 10599, "\u957f": 29495, "\u2581nob": 7169, "FLAG": 7177, "\u2581programs": 7034, "\u2581hit": 4067, "\u2581taking": 3344, "\u2581intu": 21141, "\u2581rat": 6172, "\u2581expans": 28235, "azed": 28063, "\u2581combine": 17470, "\u2581Battle": 13711, "information": 20590, "Question": 24994, "\u2581nonsense": 27077, "require": 6351, "\u2501": 29239, "\u2581stage": 5430, "\u2581courage": 15276, "\u017e": 28879, "respon": 3664, "\u2581Edit": 12838, "uta": 11473, "\u2581cele": 5207, "\u2581stain": 21023, "\u2581hyd": 24483, "\u2581relaxing": 28411, "\u2581XML": 16537, "\u2581eyebrows": 27469, "\u0bbe": 30419, "prite": 13757, "\u2581\u0444\u0443\u043d\u043a": 28668, "\u2581\u043a\u0430\u043a": 8600, "shake": 25524, "\u2581v\u00e9g": 28486, "ank": 978, "JO": 24714, "ega": 4770, "Key": 2064, "SELECT": 10696, "\u2581late": 3909, "\u2581descend": 19144, "\u2581Vec": 17513, "major": 20065, "\u2581reprezent": 28188, "\u2581him": 713, "\u2581gew": 9514, "\u2581suggests": 12308, "\u2581cfg": 16135, "igible": 13538, "Testing": 20618, "\u2581exempl": 18688, "M": 28755, "\u2581Florence": 24929, "\u2581Nicole": 27688, "\u2581ill": 3784, "\u2581inode": 18177, "ck": 606, "Members": 23020, "met": 2243, "\u2581Seit": 21761, "invoke": 21658, "Balance": 24317, "\u2581Bey": 16015, "\u2581Walk": 9863, "vens": 14081, "ros": 2737, "DOUBLE": 25932, "\u2581'@": 8319, "\u2581ausge": 26227, "het": 4103, "\u2581implementing": 27068, "uur": 18287, "&": 28800, "nh": 25011, "\uc810": 30589, "typen": 25835, "aned": 23336, "GM": 16977, "\u2581treatments": 19724, "\u9580": 31031, "generate": 15001, "NUMBER": 23776, "Tokens": 24839, "\u010den": 28616, "pad": 9845, "\u2581begg": 28195, "aby": 4541, "\u2581Op": 6389, "oks": 25808, "\u2581quantum": 10915, "ventory": 16917, "hide": 10922, "\u2581yet": 2783, "\u0161\u00ed": 12490, "\u0006": 30314, "ollary": 21120, "notes": 18787, "\u2581Imper": 15428, "\u2581flav": 15637, "\u2581Prime": 13321, "Color": 3501, "\u2581every": 1012, "<0x1D>": 32, "\u2581G": 420, "\u2581description": 5436, "ienia": 24817, "\u2581aggregate": 25273, "\u2248": 29988, "\u2581seu": 7987, "\u0437\u0434\u0430": 10393, "minus": 15530, "\u2581habitants": 19414, "\u2581\u0447\u0435\u043b\u043e\u0432\u0435\u043a": 22653, "\u2581Report": 7431, "\u2581concer": 14055, "bor": 3622, "\u2581Qt": 20975, "\\,\\": 15877, "EXT": 4036, "sizeof": 9936, "agement": 3012, "\u2581rolled": 12183, "appendChild": 22897, "SYNC": 23871, "<0x89>": 140, "Group": 3094, "\u2581gev": 27070, "\u011b": 28871, "\u2581lost": 3654, "<0xE3>": 230, "\u2581Belg": 12172, "\u2581deport": 22146, "\u2581representations": 23384, "\u2581assumption": 14776, "\u2581woman": 2971, "tok": 11178, "\u2581GPIO": 21652, "\u2581Vere": 15088, "\u0447\u0438": 2348, "joy": 3258, "\u2581Since": 4577, "\u2581id": 1910, "\u043e\u043d\u0430\u043b\u044c": 11954, "\u2581Contract": 21644, "\u2581forth": 9853, "stringify": 22453, "sql": 5929, "\u2581dei": 6511, "\u2581norte": 23656, "\u5740": 29468, "\uce74": 30693, "Destination": 23485, "\u0441\u0442\u0440\u0443": 17405, "Tool": 6778, "\u2581defaults": 20932, "imately": 9807, "\u2581Be": 1739, "rl": 3200, "\u2581After": 2530, "\u041e": 28874, "abor": 3226, "ATE": 3148, "\u2581Vert": 21970, "election": 9082, "\u7d71": 31607, "\u0441": 28788, "\u2581welfare": 21607, "\u2581couples": 18576, "\u2581experiments": 14107, "Job": 9610, "\u2581regret": 18369, "ules": 2464, "\u2581exerc": 6535, "\u2581neighb": 13869, "\u2581contre": 13791, "\u2581Ste": 2349, "conduct": 27835, "\u2581Through": 10091, "unregister": 28535, "commons": 26527, "\u7a76": 31011, "itted": 3309, "\u2581nuc": 8523, "\u2581Chi": 17792, "Generator": 11453, "izz": 5769, "\u0430\u043d\u0433\u043b": 18058, "\u2581ge": 2970, "=$": 8991, "\u2581\u0412\u043b\u0430\u0434\u0438": 25823, "\u2581Lady": 10314, "\u2581plans": 6400, "iques": 4030, "\u2581Islands": 18418, "\u2581Staats": 28560, "\u2581namespace": 4772, "\u2581visited": 11542, "\u2581Natural": 16725, "ying": 2983, "\u2581Guard": 12391, "\u2581unsigned": 5479, "('\\": 21421, "gom": 22297, "\u85e4": 30864, "\u30db": 31240, "colon": 19502, "\u2581link": 3062, "illes": 11619, "\u2584": 30213, "\u2581predecess": 27060, "\u2581Brooklyn": 21491, "\u2581Mi": 13609, "filters": 16867, "lings": 15073, "UMN": 24495, "\u51fa": 29065, "reb": 15518, "Hook": 16033, "\u2581USB": 11588, "\u653e": 29441, "IES": 17770, "paragraph": 24926, "\u2581convenience": 20185, "\u5229": 29819, "\u2581Vas": 19286, "\u093e": 29232, "\u2581attra": 22346, "oss": 2158, "\u2581cycle": 10061, "\u2581Case": 12633, "\u2581backend": 24327, "RST": 22551, "\u4eae": 30631, "\u2581expenses": 16972, "\u3088": 29943, "pid": 9507, "\u2581exterior": 21560, "\u2581cas": 3274, "\u6703": 30332, "\u2581tel": 18408, "\u9694": 30451, "ivamente": 18277, "opher": 12379, "\u5f62": 29711, "-\\": 3137, "\u2581Dorf": 27577, "\u2581tunnel": 17377, "\u7531": 29590, "\u2581jego": 22680, "\u2581celebrate": 16895, "\u2581manually": 23060, "anas": 16983, "\u2581patience": 21869, "\u2581Congress": 8463, "\u2581Technology": 12511, "\u2581Field": 8246, "\u2581cards": 8445, "></": 3176, "\u94fa": 31471, "\u2581complic": 9768, "ppo": 17652, "\u2581Individual": 27739, "\u092c": 30188, "\u2581Taking": 20648, "\u2581deer": 27002, "Completion": 26977, "How": 5660, "\u2581Dig": 10104, "holders": 15523, "\u2581dedic": 21810, "origine": 26003, "\u8d23": 31377, "\u2581Americans": 8165, "atu": 22608, "\u2581upload": 12299, "\u0151": 28886, "\u800c": 29746, "\u2581rare": 9964, "heap": 22937, "lesh": 12953, "\u2581Minister": 8241, "__[\"": 25053, ")**": 10095, ")}{": 14442, "\u2581Update": 8980, "\u2581relie": 14267, "\u2581worried": 10728, "\u2581Copy": 18158, "\u2581Sig": 18068, "\u00edl": 25448, "usqu": 13559, "\u2581slaves": 17614, "\u2581uid": 26975, "\u2581meal": 11314, "\u0441\u0442\u044c": 3954, "\u2581rais": 4471, "\u2581\u00fa": 6149, "psi": 5920, "////////": 2810, "append": 3308, "\u00c4": 28999, "\u2581tasks": 9796, "iesz": 17944, "boxes": 26498, "\u2581egy": 9064, "eren": 9417, "GE": 4896, "\u2581qual": 4109, "ieme": 24755, "Locked": 28554, "uten": 8142, "bar": 1822, "ession": 1893, "\u529e": 31298, "ban": 3627, "\u2581inferior": 24797, "qs": 25065, "\u2581congr": 25686, "\u2581prod": 18957, "\u2581identifier": 16375, "sten": 6062, "\u2581consumer": 12077, "havior": 13625, "\u7d9a": 31309, "plan": 11009, "\u2581banda": 21838, "\u2581Lost": 22842, "\u2581variables": 8925, "WARN": 11865, "WT": 25971, "\u2581Rud": 15010, "Fetch": 18527, "\u2581compet": 3440, "\u2581arrange": 23503, "\u2581vessel": 21081, "\u2581cv": 19342, "\u06af": 29461, "\u2581cit": 5963, "\u2581Feder": 12969, "\u2581Ave": 27170, "\u2581Read": 4939, "\u2581stations": 14474, "\u2581leadership": 9802, "e": 28706, "\u2581Louis": 6698, "\u2581confirmed": 11367, "\u2581explanation": 13268, "iek": 18627, "\u2581END": 21288, "ional": 1479, "cpu": 5361, "FAILED": 19413, "subsubsection": 21763, "aceae": 19789, "\u2581::": 6210, "\u2581binary": 10136, "\u2581edition": 12065, "\u2581pool": 6313, "\u0292": 30299, "\u04cf": 31469, "\u2581Tibet": 28288, "</": 700, "Try": 17666, "\u2581Space": 13497, "Not": 2601, "\u2581answer": 4372, "ivid": 2397, "\u2581unus": 12449, "\u2581appreciated": 22359, "Sir": 25994, "\u00f6ffentlicht": 28106, "\u2581fam": 1282, "workers": 28256, "\u2581dif": 1025, "Start": 4130, "LP": 11661, "\u2581annoy": 13016, "\u2581shr": 12249, "omorphic": 22631, "\u2581tram": 23536, "rist": 1853, "\u2581wonderful": 8590, "\u2581AB": 18322, "ogene": 17344, "\uc9c4": 30345, "\u2581:": 714, "\u043a\u043b\u043e": 24034, "\u2581build": 1813, "\u2581lack": 5502, "\u2581candidates": 12179, "\u2581gran": 8494, "query": 3385, "\u2581politics": 9800, "ocol": 3873, "\u2581rever": 21704, "\u2581compatible": 17696, "FORE": 26755, "\u2581\u00a3": 7642, "mercial": 19828, "oport": 27917, "\u05dc": 29077, "anco": 16326, "\u2581next": 1679, "\u2581Still": 9054, "ride": 2579, "\u2581insisted": 16222, "\u5bcc": 31017, "frak": 7917, "\u2581contrad": 15235, "\u2581Events": 20370, "\u2581functioning": 26945, "fection": 11264, "\u2581Benjamin": 18258, "TRAN": 15100, "iere": 16302, "\u2581constantly": 10876, "ac": 323, "\u2581Liste": 20131, "\u2581doorway": 20702, "\u009b": 30921, "plete": 6141, "\u885b": 31899, "\u2581instinct": 16823, "\u2581expectations": 13879, "\u00fclet": 24190, "\u2581land": 2533, "****************": 1393, "\u2581giugno": 25442, "\u2581Pom": 19015, "\ub05d": 31462, "ries": 2040, "norm": 10767, "\u2581sympt": 10800, "Tip": 19149, "\u0090": 30101, "\u2581jam": 15219, "\u2581Russia": 8433, "Middleware": 26285, "\u2581Handle": 16736, "\u0440\u0443\u0434": 22308, "\u2581bench": 11984, "\u2581Niger": 15501, "\u7247": 29369, "\u2581Choice": 27710, "conf": 5552, "\u2581Value": 8382, "terior": 11476, "}`": 12504, "\u2581Publishing": 26999, "\u2581duration": 11964, "\u00e9sz": 18431, "\u2581mic": 15644, "\u6301": 29569, "\u2581Tennessee": 19793, "\u2581when": 739, "\u2581copies": 12221, "\u2581m\u00eame": 10274, "\u2581Year": 7601, "found": 9016, "\u2581sorts": 16971, "\u2581bunch": 11763, "Keyboard": 27418, "\u2581Berg": 14813, "roll": 1584, "\u043b\u043b\u0438": 22623, "\u2581claiming": 20188, "\u2581Sav": 11210, "seau": 24554, "\u2581assass": 16645, "GLOBAL": 21742, "\u2581ts": 14515, "\u4ea4": 29471, "ens": 596, "\u2581saving": 14285, "\u2581thinks": 10896, "skiego": 17983, "Load": 4391, "Catalog": 27937, "\u2581ultra": 26600, "\u7f72": 31340, "\u4f73": 31255, ")\",": 10647, "\u2581Appe": 24876, "\u2581restricted": 19021, "\u2581MI": 17808, "oth": 999, "\u2581Q": 1186, "\u2581CS": 16594, "\u2581strangers": 24305, "bolds": 8004, "\u0431\u0443\u0440": 15388, "\u2581Guide": 14555, "\u2581\u00e9v": 16249, "\u2581lum": 17709, "borg": 20293, "okal": 23356, "\u2581reminds": 25639, "extension": 14530, "\u2581ment": 4498, "\u0e0b": 31049, "\u2581Papa": 27091, "\u2581\\\"": 11779, "Bet": 17044, "\u2581self": 1008, "WORK": 17427, "itis": 17428, "\uba74": 29565, "\u6f14": 31010, "Free": 10998, "\u03c1": 28997, "Sch": 9979, "\u2581images": 6203, "attribute": 9122, "RIGHT": 14166, "\u0bb2": 30616, "Force": 19714, "ils": 4544, "\u2581silver": 9746, "data": 1056, "pent": 21557, "\u2581improving": 16752, "compile": 18434, "];\r": 14420, "annot": 5886, "SED": 16884, "\u2581passive": 24246, "Miss": 14252, "\u2581Mond": 7672, "aland": 11243, "Term": 11579, "Live": 18119, "\u0444": 28846, "\u0eb2": 31616, "\u2581varied": 20331, "\u2581subjects": 14575, "isible": 17727, "\u2581collar": 24018, "rees": 7803, "\u2581pants": 16721, "ience": 1640, "\u2581gaming": 17767, "\u2581Lower": 21457, "\u2581apolog": 15884, "\u2581traits": 24214, "\u3058": 30692, "\u2581channel": 5866, "ruppe": 17719, "\u2581depuis": 14661, "\u2581actors": 16760, "\u2581Lane": 19029, "\u0430": 28763, "\u2581radiation": 19308, "\u2581corrections": 27956, "\u2581yards": 11107, "\u2581Schw": 16260, "\u2581OS": 12818, "geq": 7834, "\u2581determ": 3365, "]+": 13381, "\u2581cons": 1102, "<0xD3>": 214, "\u2581Bishop": 19683, "\u2153": 31216, "\uccab": 31745, "\u2581cleaning": 11906, "\u2033": 28959, "romag": 26804, "\u0e0d": 31064, "\u2581NE": 9991, "channel": 7430, "\u2581Feature": 22114, "diction": 24737, "\u2581obvious": 5444, "\u2581`": 1552, "tring": 850, "antry": 23379, "\u2581Mau": 27804, "sted": 17184, "finish": 22471, "\u2581back": 852, "arks": 7696, "]))": 11922, "\u043b\u0435\u0439": 9641, "\u2581oppon": 13328, "avg": 23750, "\u2581Muhammad": 25605, "\u2581harmon": 26739, "\u2581containing": 8707, "\u2581technology": 5514, "\u5fc5": 29593, "\u2581Hann": 14390, "\u2581protagon": 18521, "\u2581klikken": 15708, "\u2581hely": 23484, ".}": 8089, "oga": 10491, "\u2581\u0430\u0432\u0433\u0443": 18784, "Kit": 25565, "\u2764": 29673, "\u2581Roc": 22152, "\u963f": 30564, "hew": 10345, "hill": 19156, "ship": 4760, "\u2581regardless": 12907, "nic": 6374, "Express": 24637, "iefs": 25495, "\u09b2": 30294, "\u2581satisfying": 18558, "\u2581doing": 2548, "\u2581horse": 7947, "\u2581edges": 11742, "\u2581Gl": 3651, "pgfpath": 11370, "\u2581children": 2436, "}}{\\": 12887, "ren": 951, "\u2581Silver": 14511, "\u2581Indones": 16653, "\u2581\u0431\u0440\u0438": 23145, "\u2581stake": 15790, "\u2581AWS": 23246, "ER": 725, "\u0447\u0435\u043d": 7932, "\u2581Keith": 22759, "published": 27414, "\u2581investig": 6694, "\u2581nor": 4678, "\u2581estimates": 16438, "activ": 10375, "\u2581isn": 3157, "Hey": 15766, "\u2581agric": 11885, "\u2581stir": 13535, "\u2581pretend": 19192, "\u2581emission": 17067, "lation": 1465, "osz": 24982, "\u6bd5": 31347, "\u7f00": 30958, "LC": 9162, "\u2581flight": 9314, "\u2581celebr": 5903, "Thank": 15896, "FW": 18254, "\u2581citt\u00e0": 20377, "\u2581rehe": 25562, "iative": 26938, "nem": 22890, "ais": 1555, "\u2581sought": 13033, "\u2581disput": 13362, "\u89c8": 30441, "onia": 9578, "rets": 18716, "\u1787": 31543, "buff": 10132, "Shader": 17655, "\u2581suspended": 21342, "\u914d": 29253, "\u2581Cro": 10472, "\u2581countr": 24526, "\u9001": 29434, "\u2581submar": 26680, "\u2581unple": 28331, "\u677e": 30617, "imary": 7754, "\u2581pl": 549, "Convert": 16311, "estern": 5190, "\u2581ton": 6339, "\u2581Delhi": 21548, "hentication": 9767, "descriptor": 17325, "\u2581Estate": 22563, "\u53cd": 30004, "\u2581Open": 5629, "\u2581mant": 14201, "\u2581imposed": 24739, "<0xC5>": 200, "\u2581crop": 21948, "cursor": 12601, "()));": 8797, "\u2581Hey": 17162, "\u2581hash": 7135, "matches": 17990, "\u2581\u0438\u0437\u0432\u0435\u0441\u0442": 21082, "\u300b": 30028, "ierno": 20122, "}({\\": 22845, "\u2581encuentra": 22877, "\"))": 4948, "DAT": 23775, "\u2581unfortunately": 22014, "\u2581all": 544, "\u2581american": 21419, "\u2581alternate": 24597, "ipe": 3985, "Panel": 8370, "imeq": 21876, "\u2581_(": 22753, "\u2581Vik": 20820, "Sink": 25512, "\u2581\u0443\u043a\u0440\u0430\u0457\u043d": 28075, "registry": 22464, "\u5247": 31919, "\u2581affects": 20777, "\u2581entre": 3913, "\u2581posted": 10198, ",(": 20786, "\u2581<?": 7299, "\u2581examination": 20976, "hetic": 8696, "\u2581relig": 4422, "semb": 5650, "\u2581enables": 18156, "\u2581Alban": 26037, "\u2581Eventually": 20825, "\u045b\u0438": 25213, "tocol": 4851, "\u8bc1": 29425, "\u2581whisper": 9502, "ada": 1540, "\u2581reporters": 25875, "bt": 2695, "\u2581orb": 19935, "\u2581test": 1369, "Copy": 8546, "\u2581Hu": 16168, "\u2581suffer": 13572, "Family": 17170, "\u00bb": 28848, "\u0cbf": 30762, "\u2581zu": 3155, "\u2581transform": 5516, "ablish": 27753, "achelor": 18753, "ount": 696, "la": 2220, "plot": 11096, "llvm": 17978, "\u1eef": 30586, "\u2581glo": 19720, "\u2581nervous": 13665, "Two": 13849, "\u2581irr": 24559, "\u2581works": 3791, "\u2581dignity": 27182, "ic": 294, "san": 20297, "\u2581Floren": 21659, "finished": 6159, "girl": 25404, "\u2581glob": 15737, "AspNetCore": 14141, "idding": 18790, "uj\u0105": 20606, "\u2581just": 776, "plicity": 18494, "\u2581diagonal": 25202, "\u2581street": 5948, "bet": 10200, "\u2581folder": 14249, "amy": 27313, "\u2581kicking": 28642, "\u2581eth": 7511, "\u2581Broadway": 24331, "\u2581Iowa": 20718, "\u2581mercy": 25856, "\u2581Ontario": 18572, "neurs": 24283, "ATED": 14371, "\u2581precip": 27640, "Des": 2715, "graphics": 6648, "voj": 27172, "engine": 11358, "OD": 2896, "<0xA6>": 169, "Mart": 21787, "\u2581entertaining": 25161, "\u2581invest": 2631, "anned": 5928, "<0xD0>": 211, "atri": 28326, "itals": 14427, "wh": 1456, "boldmath": 26080, "\u2581Ang": 3663, "si": 4043, "\u2581brought": 4248, "\u2581Dim": 18752, "ario": 3756, "\u2581fake": 11260, "\u2581temporal": 26569, "\u2581tele": 6584, "\u2581Just": 3194, "built": 12747, "\u2581Joh": 8870, "\u2581fundament": 9676, "}$-": 22298, "dash": 24917, "\u2581Stalin": 24068, "_{-": 22729, "eter": 1623, "\u2581hab": 3019, "\u2581Channel": 14250, "\u2581mu": 8453, "\u2581havet": 28447, "\u2581alive": 8630, "\u2581bacteria": 24038, "PERTY": 24298, "ONE": 6349, "';\r": 18759, "\u592a": 29975, "\u4f18": 30077, "\u2581s": 268, "atype": 25743, "photo": 25903, "olog": 1165, "network": 9482, "\u2581({": 13734, "\u044f\u043d": 15247, "\u2581Other": 5299, "\u01c0": 31870, "adj": 26143, "\\,": 5568, "gt": 3606, "atoes": 14888, "\u0127": 30830, "\u2581Thursday": 10983, "ulu": 20366, "\u9280": 31890, "\u0442\u0440\u0430": 9745, "\u2581friendly": 10131, "\u2581vie": 11198, "\u2581Behind": 23779, "xic": 14443, "\u2581bron": 14153, "ims": 7805, "\u30ce": 30561, "\u6d1e": 31242, "\u2581Wild": 10668, "\u2581attachment": 22417, "\u2581stride": 23623, "\u043c\u0435\u043d\u0435": 26714, "\u2581Karl": 10648, "\u2581Brother": 22513, "\u2581DC": 12606, "\u2581photographer": 24159, "\u6b63": 29302, "tenance": 9944, "strcmp": 17789, "\u2581quar": 21403, "\u2581us": 592, "{\"": 6799, "\u2581Adm": 19426, "\u2581verse": 20016, "west": 7471, "\u2581Template": 23469, "\u5219": 29310, "\u2581bot": 12435, "\u2581Julie": 22706, "retry": 23608, "add": 988, "ansk": 18269, "\u2581decomposition": 28079, "\u2581positions": 9161, "\u2581Opt": 15767, ")$": 2322, "viv": 26430, "\u0432\u0430\u0442\u0430": 28478, "\u0baf": 30687, "\u2581Prem": 7809, "urs": 1726, "cul": 2320, "\u2581Login": 25722, "\u2581Hollywood": 14057, "thlet": 10016, "\u2581Okay": 19811, "\u795e": 29836, "\u2581earn": 6384, "\u2581Self": 8916, "\u2581frustr": 10856, "\u2581Commonwealth": 26777, "\u2581lib": 6538, "anska": 26936, "\uc88c": 31455, "\u2581Police": 12338, "Pop": 10022, "\u2581filling": 15990, "four": 14171, "\u2581\u0439\u043e\u0433\u043e": 18136, "\u7d30": 31451, "\u2581Dir": 19926, "record": 9724, "amb": 1379, "cknow": 8979, "duration": 15458, "visible": 13556, "\u2581Parameter": 26059, "scope": 6794, "\u2581observations": 13875, "\u2581d\u00e9c": 8738, "\u2581component": 5641, "\u2581conduct": 9086, "\u2581\u0445\u0430\u0440\u0430\u043a": 26209, "skip": 7671, "Flag": 10787, "ns": 2925, "\u2581deserve": 16133, "\u2581\u043d\u0430\u0441\u0435": 7599, "\u2581inv": 1304, "LAY": 14963, "\u306f": 29277, "apache": 5025, "\u0442\u0435\u043b\u044c\u043d\u043e": 21195, "_{": 787, "\u2581device": 3895, "chie": 3960, "Package": 11079, "\u2581principale": 25147, "\uc784": 30520, "\u4e86": 29105, "\u2581rel": 1016, "en\u00ed": 16640, "\u2581\u0438\u044e": 14137, "\u2581law": 2309, "\u2581Team": 6867, "\u30ad": 29753, "fic": 15906, "\u2581tool": 3921, "\u2581Notes": 16254, "\u2581appears": 8045, "fake": 16325, "newcommand": 20570, "\u2581convex": 26970, "\u2581aimed": 17939, "Diagnostics": 18174, "\u2581quit": 14597, "\u2581absorption": 26923, "Parse": 9961, "@": 28818, "\u2581months": 3370, "\ud83d\udd34": 31928, "GTH": 15786, "\u2581occasions": 18323, "\u2581sucked": 28436, "\u2581forg": 12706, "\u5b98": 30639, "Hint": 18175, "unc": 10474, "policy": 10970, "\u0137": 31511, "\u2581Here": 4003, "\u2581happens": 6881, "State": 2028, "bro": 5601, "uge": 3683, "ulos": 23235, "\u2581\u0442\u0430\u043a\u043e": 16629, "\u2581Example": 16693, "\u2581Mey": 22586, "rial": 6144, "fixed": 15145, "\u2581vu": 20620, "ToString": 10152, "\u2581promote": 11711, "\u2581Created": 22982, "\u2581songs": 9184, "\u2581sponsored": 28332, "\uc900": 30723, "ueva": 22400, "\u044d": 28888, "\u2581auss": 10471, "\u012d": 31567, "\u00f4t": 14924, "\u2581roots": 14766, "apple": 24175, "\u2581webs": 3738, "\u2581translation": 13846, "\u2581beh": 1833, "\u2581bothered": 25277, "\u2581bul": 5778, "')).": 27662, "\u88c5": 29722, "\u2581mm": 6020, "\u2581acknowledged": 23253, "\u2581eng": 2536, "liga": 15314, "\u2581inwon": 27692, "=\"../../": 9765, "\u2581Universe": 27131, "\u2581Martha": 24924, "\u2581Reg": 2678, "ong": 566, "LOB": 15998, "\u2581Photo": 16555, "\u045a\u0435": 11970, "outes": 14906, "\u2581mientras": 22188, "\u2581Convert": 16186, "\u2581madre": 26032, "\u2581Sto": 16774, "\u2581jusqu": 14850, "\u2581Fil": 4059, "\u2581MP": 13259, "Error": 1708, "All": 2595, "tau": 4288, "navigation": 22416, "\u0442\u043d\u043e": 20262, "\u2581\u043c\u0435": 4055, "\u2581profits": 20285, "indust": 25366, "\u2581contributed": 18746, "\u06cc": 28975, "creen": 9106, "\u0441\u0442\u0432\u043e\u043c": 23334, "\u2581pollution": 27702, "igate": 11590, "\u2581\u0449\u043e": 8647, "\u2581platforms": 14926, "\u2581maps": 11745, "ore": 431, "more": 4452, "\u2581Cas": 8194, "\u2581\u0442\u043e\u0439": 28653, "\u2581wordt": 9930, "\u2581bras": 20493, "\u2581genes": 24203, "\u2581substantial": 15045, ")){": 20474, "\u2581draws": 25587, "\u7231": 30731, "\u2581prom": 2157, "\u2581slides": 27331, "\u2581punch": 19018, "\u2581warrant": 9775, "\u2581Stop": 13560, "\u2581British": 4409, "lers": 8531, "contract": 22135, "\u2581identify": 9051, "\u2581\u0412\u0430\u0441\u0438": 26099, "\u27e9": 30216, "Route": 9858, "uri": 6395, "\u2581Pres": 3981, "\u2581module": 4597, "\u2581Who": 6526, "\u2581cleared": 15253, "inis": 24479, "draw": 4863, "Figure": 25665, "\u2581Tro": 10682, "ov\u00e9": 20208, "\u2581Practice": 25508, "ivel": 17414, "\u2581edited": 19527, "rise": 24035, "\u043f\u0443\u0431\u043b\u0438": 17188, "<0xEA>": 237, "\u2581Grand": 6607, "\u2581Delete": 15263, "ifacts": 24639, "Location": 6319, "=%": 9017, "\u0446\u0456\u043e\u043d\u0430\u043b\u044c": 27851, "\u2581route": 7103, "brand": 20111, "feature": 10453, "\u2581metrics": 17001, "notation": 11627, "\u82f1": 30193, "\u2581ns": 9250, "\u5de6": 29907, "\u2581recru": 17372, "\u2581pilots": 27109, "\u307b": 31529, "reedom": 6868, "\u2581Target": 15255, "tikz": 23965, "\u2581Sha": 24872, "\u2581technological": 26515, "\u043b\u0441\u044f": 7659, "isan": 18164, "\u5757": 29739, "\u2581rated": 25101, "amination": 25914, "\u52b9": 31075, "\u0d3f": 31526, "\u0440\u0430\u0432": 23081, "\u2581trou": 7414, "\u0441\u0442\u043e\u0432": 27321, "\u2581\u0439": 22092, "\u2581File": 6184, "\u103c": 31887, "\u2581hang": 9644, "\u2581penetr": 23828, "Perm": 10199, "\u2581expos": 10594, "\u2581len": 3919, "forEach": 14182, "\u2581Sil": 6044, "\u2581moral": 10986, "accept": 12678, "\u2581summary": 14060, "\u62c5": 31950, "\u2581DI": 12751, "\u2508": 31179, "cles": 5962, "rugu": 27300, "ogo": 13944, "ILED": 17094, "ers": 404, "ral": 1650, "object": 2814, "onen": 25893, "widehat": 11896, "\u2581garlic": 25795, "\u2581\u0431\u0440\u043e": 19567, "\u2581squeezed": 26131, "Compare": 22095, "CPU": 16102, "\u2581Anne": 12042, "\u2581Gall": 14225, "\u2581altogether": 21324, "includegraphics": 7621, "ican": 1772, "akes": 1593, "Match": 6892, "\u2581\u00e2": 22506, "\u2581software": 3930, "\u2581Fast": 17539, "\u8005": 29276, "\u2581active": 5038, "\u4f0a": 30873, "\u2581deal": 3215, "\u2581seemingly": 20143, "\u2581Isn": 28026, "\u2581util": 4479, "\u2581flaw": 22904, "\u2581tests": 8079, "\u2581wasn": 2723, "\u00a2": 29656, "\u2581{\r": 1969, "\u2581choices": 10475, "\u2581guaranteed": 17813, "PROTO": 19584, "Word": 15170, "\u4e0e": 29551, "Fe": 5980, "\u2581pointing": 14858, "Stmt": 20471, "OwnProperty": 22760, "\u2581knees": 13431, "ene": 1860, "\u66b4": 31492, "yr": 4369, "\u2581boots": 15674, "\u2581Gon": 15929, "\u2581modifications": 26470, "\u2581transformation": 12958, "\u00e1st": 14637, "aign": 4955, "\u2581aging": 27225, "sk": 1252, "\u5831": 30544, "aste": 4635, "\u2581meaning": 5746, "Dao": 20660, "bourg": 20461, "hpp": 20567, "\u2581minority": 21118, "\u0011": 30557, "\u89c9": 31345, "\u2581zaw": 24300, "////": 1603, ".$": 5910, "\u2581troubles": 21477, "\u79c1": 30593, "\u200e": 29207, "enses": 4839, "\u2581Nick": 10480, "\u0082": 30015, "Test": 1963, "\u2581traveled": 19948, "\u2581bulk": 15059, "\u0db1": 31487, "\u0434\u0430\u043d": 19872, "assy": 21957, "\u2581producers": 22862, "\u2581electron": 14044, "\u0097": 29439, "\u2581coun": 1902, "\u2581nad": 12778, "<0x64>": 103, "\u00e9ro": 18285, "}}_{": 16125, "\u2581silence": 9296, "engono": 26964, "\u2581elseif": 25026, "\u2581Quant": 22655, "\u00e1ct": 28062, "\u600e": 31401, "\u2581chez": 22440, "BER": 16819, "\u2581Chief": 11762, "\u2581telling": 7124, "\u2581faced": 12565, "\u2581breast": 13886, "REGION": 27291, "\u2581happily": 24693, "\u2581lugar": 16132, "}$)": 28511, "itempty": 15500, "\u2581Jew": 5808, "\u2581\u0427\u0438": 26603, "\u2581compression": 25242, "nat": 9569, "\u6c42": 29243, "\uc601": 30478, "\u2581Know": 11308, "Let": 8779, "\u2581closer": 7887, "utat": 27426, "equals": 7013, "\u2581wheel": 10297, "\u2581focusing": 18319, "\u2581\u0442\u043e\u0432\u0430": 22550, "Band": 23852, "\u2581Medical": 12195, "\u2581ed": 1382, "\u2581Church": 6381, "acement": 6467, "\u0442\u044f": 10377, "Addr": 11669, "\u2581Mann": 12187, "\u2581magnetic": 12485, "$).": 23073, "\u043a\u0443\u043f": 26414, "\u2581mandatory": 26732, "\u2581witch": 23816, "\u2581vill": 4314, "\u2581Hass": 27340, "\u30aa": 29866, "\u6768": 31617, "primary": 12525, "eturn": 3097, "frica": 23398, "\u2581&\\": 9223, "Prefix": 11330, "Extension": 10430, "\u2581\u041a\u043e\u043d": 16954, "SIGN": 20506, "\u2581efficiency": 12832, "\u2581inhabit": 19946, "ulative": 20851, "\u2581questioning": 27203, "\u0420": 28860, "iki": 7137, "\u2581definitely": 6304, "prop": 5607, "\u8eab": 29894, "\u02b7": 30847, "cont": 1399, "\u0651": 29754, "tar": 14689, "\u043a\u0430\u043c\u0438": 21237, "\u2581Protocol": 28564, "\u0123": 31662, "udo": 9297, "\u2581trials": 19993, "\u2581\u044f\u043a": 15143, "\u2581wrist": 20294, "cls": 16723, "\u2581liter": 3937, "allery": 9050, "argc": 28529, "\u2581sheer": 23339, "Http": 5775, "\u2581amongst": 18640, "iele": 16607, "f\u00f6r": 14634, "------------": 9762, "lando": 23728, "\u044c": 28822, "\u2581topic": 9067, "\u2581\u00ee": 4591, "\u6269": 30708, "\u0447": 28826, "\u2581\u0414\u0435": 11720, "adv": 10925, "rical": 11524, "translate": 18094, "icode": 15535, "\u2581limitations": 9658, "\u2581costume": 27239, "\u2581colors": 9304, "sf": 5784, "\u2581prefix": 11398, "s": 28713, "pend": 1693, "\u2581Span": 8299, "\u2581IV": 9073, "clip": 8031, "\u2581independence": 17253, "\u2581challenge": 8035, "uture": 8649, "ancouver": 22000, "}}{": 9412, "\u2581vertical": 13519, "eted": 14610, "\u2581running": 3822, "\u0440\u044e": 23434, "\u2581Vic": 17862, "kil": 23726, "\u2581divisions": 23868, "\u2581lazy": 17898, "\u2581DVD": 15830, "\u2581sele": 25019, "\u2581Tall": 24901, "\u2581raz": 10717, "Primary": 17766, "choice": 23817, "\u2581\u0430\u043b\u0435": 28497, "\u2581satellite": 22046, "\u2581leak": 24798, "\u2581fuck": 4159, "Which": 26703, "arch": 1161, "\u043d\u0435\u043c": 23474, "pgfqpoint": 10765, "\u2581decorated": 24616, "\ud83d\ude24": 31955, "defaults": 22086, "<0x82>": 133, "\u2581machine": 5599, "\u91cf": 29195, "\u2581scale": 5657, "\u2581Pennsylvania": 15472, "ecute": 5570, "generator": 21940, "\u2581tooth": 17961, "\u2581closure": 22746, "\u2581selon": 23851, "ainte": 24243, "\u2581\u0433\u0430": 13206, "\u2581Jenn": 15824, "\u2581fan": 7654, "\u2581Imm": 25555, "\u2581Ground": 22455, "\u5e74": 29356, "\u2581toward": 4112, "\u51fb": 29698, "\u2581const": 779, "\u2581Gh": 15526, "\u7fa4": 30204, "icago": 7707, "\u2581Dec": 6712, "\u00e5n": 7743, "\u2581wis": 14729, "Random": 14735, "\u2581Cav": 24577, "\u2581glad": 8200, "\u2581begann": 25328, "ata": 563, "\u2581embr": 12434, "to": 532, "\u2581Blo": 9797, "\u2581bad": 2607, "umes": 9743, "\u2581Nich": 15712, "uber": 17739, "ios": 2806, "olding": 25107, "\u2581organ": 2170, "\u2581gardens": 22461, "\u2581amaz": 5818, "\u2581quantities": 21709, "uti": 18123, "cref": 27742, "\u2581Mar": 1471, "rid": 3361, "\u2581altern": 5720, "\u1d1b": 31083, "\u2581Front": 13794, "BF": 15696, "Auth": 9083, "\u2581HD": 15051, "ighters": 21465, "apan": 4209, "\u2581Excell": 22369, "\u2581Wor": 22366, "\u2581Republic": 6090, "\u2581excuse": 16803, "\u5206": 29062, "\u2581comun": 18166, "ett": 2973, "Back": 4974, "ku": 3907, "\u00e1ban": 17180, "\u2581Sam": 4157, "<0xB7>": 186, "rivate": 1266, "\u2581sudd": 5217, "\u2581sugg": 3353, "unch": 3050, "IAL": 11104, "URI": 12464, "nde": 18773, "\u2581winners": 22857, "\u2581Barbara": 17332, "^{[": 13009, "acions": 20298, "\u2581ecc": 27080, "\ud588": 30676, "\u2581transactions": 15852, "\u2581\u2581\u2581\u2581\u2581\u2581\u2581\u2581\u2581\u2581\u2581": 17422, "\u2581ubic": 25727, "\u2581*/,": 26349, "\u2581(!$": 23942, "\u0438\u0441": 15333, "itud": 14534, "\u2581m\u00e1s": 5268, "\u2581Block": 9063, "\u2581installed": 11540, "\u6e32": 30850, "\u00e4d": 16902, "\u2581dialog": 10436, "\u2581clue": 24513, "CIAL": 22150, "iate": 13713, "aps": 1882, "Complete": 14928, "Y": 28802, "\u2581EN": 11929, "Based": 24207, "terra": 26138, "\u2581caution": 26769, "ED": 1906, "operatorname": 12614, "arians": 26335, "\u2581Lanc": 23141, "\u2581Bi": 6345, "\u2581si": 2144, "\u2581naar": 12547, "package": 7573, "\u2581Covid": 27461, "BLOCK": 15768, "\u2581Geoff": 25136, "\u2581Edinburgh": 25970, "RECT": 13162, "\u2581sizes": 13282, "\u2581minds": 14898, "essed": 9740, "\u2581\u0418\u0437": 17838, "EF": 16327, "\u2581honour": 23104, "CL": 3100, "\u7cfb": 29401, "\u5370": 30169, "\u2581income": 7904, "\u2581tutti": 26313, "\u2581On": 1418, "\u2581LED": 19937, "Py": 6218, "endant": 8090, "\u2581term": 1850, "\u2581gently": 14259, "\u2581Nancy": 18908, "\u2581sobre": 7469, "\u0442\u0438\u0432": 5868, "\u2581magnific": 24039, "ADER": 26880, "\u2581Ref": 6360, "\u2581customs": 27853, "\u2581Body": 16250, "aille": 14286, "without": 20795, "psilon": 6000, "\u1ee9": 30422, "\u2581offered": 6373, "Preferences": 25148, "OST": 21052, "nement": 14482, "\u2581fr\u00e5n": 13738, "textrm": 18118, "proto": 5346, "\u00a8": 30312, "\u2581sophistic": 20327, "hba": 20544, "\u2581combined": 9837, "\u2581Box": 10598, "\u2581elderly": 22476, "packet": 14050, "\u2581Burg": 17646, "subscription": 20054, "\u2581explosion": 22258, "\u2581sal": 3823, "\u0448\u0442\u0430": 26960, "\u1005": 31708, "Mal": 20682, "\u2581angle": 10417, "\u2581infinite": 16538, "labels": 17031, "PART": 28069, "\u2581beauty": 9689, "\u2581musicians": 21895, "\u4e48": 29797, "\u2581feder": 27006, "\u2581satisfied": 13671, "\u2581foolish": 25475, "ifference": 21423, "[:": 7720, "\u042e": 28950, "\u2581{$": 20833, "\u2581Stre": 4589, "ready": 1968, "Unit": 6831, "\u2581DCHECK": 22643, "\u2581exploration": 23083, "\u2581scary": 23957, "schaft": 7097, "compress": 26973, "\u6226": 30842, "<0x1A>": 29, "\u2581companies": 4799, "yect": 23132, "\u2581registered": 11028, "arity": 11910, "\u2581Range": 18593, "\u2581Ku": 19698, "oh": 1371, "IENT": 18009, "imer": 4156, "},\\": 7472, "aire": 5731, "\u2581India": 5558, "\u2581facilities": 11675, "Created": 18598, "\ucc44": 31556, "\u2581vacuum": 18362, "\u2581wife": 4285, "<\\": 16910, "\u2581rev": 4497, "\u2581ignore": 9303, "iat": 9348, "abl": 13747, "oubtedly": 27136, "\u2581exactly": 4668, "\u2581group": 2071, "\u2581Ask": 19500, "Dimension": 23620, "\u2581Temp": 27279, "\u2581as": 390, "\u2581explo": 12573, "pling": 8182, "\u2581Mak": 20046, "\u2581behavior": 6174, "sel": 2325, "izo": 19692, "\u2581deadline": 25326, "\u2581remem": 26450, "\u2581expense": 19475, "\u2581cents": 27337, "\u6469": 31978, "\u0092": 29068, "True": 4365, "\u2581mesh": 17660, "\u2581temperature": 7641, "\u2581\u041f": 1531, "\u2581\u0426": 8911, "Customer": 18477, "History": 13266, "\u2581sym": 4297, "uuid": 16474, "bra": 10675, "\u2581sched": 22245, "HAL": 19287, "\u2581dressing": 21993, "\u2581ceremon": 24840, "\u021bie": 19217, "\u2581kter\u00fd": 28162, "\u2581temper": 5026, "Ray": 25109, "<0xA2>": 165, "\u2581feeling": 4622, "thur": 10380, "\u0441\u043a\u0430\u044f": 8224, "\u2581sk": 1321, "\u0442\u0442\u044f": 21074, "from": 3211, "\u2581si\u0119": 6379, "iku": 23550, "\u2581nl": 25745, "\u2581preference": 21448, "\u2581Edu": 22726, "sprintf": 27292, "\u54e5": 31571, "\u2581pound": 15899, "\u5947": 30786, "hythm": 16321, "AY": 3836, "EA": 18772, "<=": 25796, "omy": 12956, "\u2581reach": 4563, "riving": 16982, "\"\u2014": 17216, "\u2581FI": 16148, "again": 27159, "Stats": 12123, "eme": 5037, "SHIFT": 18508, "\uc9d1": 31056, "\u2581Ital": 4503, "ructions": 8373, "wd": 9747, "\u2581Care": 8000, "Nothing": 20649, ".\\": 5923, "\u2581unlock": 15430, "\u2581year": 879, "\u0c97": 31789, "\u2581manufacturer": 17746, "ct": 310, "\u2581\u043c\u0435\u0442": 25276, "\u1021": 31995, "\u2581celebrated": 20177, "\u2581differ": 1299, "\u2581pad": 9010, "\u2581vessels": 22831, "aware": 15950, "esota": 17231, "\u2581Pier": 9101, "\u2581noted": 8659, "\u2581Universal": 21874, "fragment": 23499, "\u2581curl": 28306, "CONNECT": 27482, "\u3001": 29041, "\u0084": 30611, "izen": 20084, "\u2581Lic": 8851, "ates": 1002, "\u2581produ": 1219, "\u2581involvement": 20447, "\u2581bef": 23399, "\u2581charged": 11226, "\u2581Sed": 23945, "\u2581leaned": 12663, "\u2581Vers": 12433, "\u2581September": 4074, "usalem": 17616, "\u016d": 30295, "shops": 21673, "\u2581responding": 26167, "frag": 19221, "\u0441\u043a\u043e\u0439": 4683, "\u500b": 30070, "\u2581Myst": 22737, "\u2581dys": 20840, "\u4f4f": 30705, "Bin": 19478, "\u2581hockey": 21199, "\u2581differently": 16841, "angs": 23766, "ust": 469, "\u2581Melbourne": 19611, "\u5357": 29680, "Names": 5686, "\u2581locks": 25347, "\u2581mechanism": 14175, "\u043c\u0438\u043d\u0438\u0441\u0442\u0440\u0430\u0442\u0438\u0432": 26332, "\u2581um": 3205, "Che": 21124, "\u0432\u044b\u043c": 24114, "\u2581electricity": 17242, "keyword": 22345, "\u8c46": 31368, "mapping": 15889, "\u2581kole": 21840, "\u2581Fourth": 28185, "sections": 24415, "ABILITY": 9287, "\u2581anytime": 27760, "\u2581Palest": 13897, "pw": 26672, "\u2581m\u00e1": 17323, "\u2581puts": 12345, "\u2581emerged": 16188, "\u2581Rhe": 23214, "\u0e4c": 29923, "\u2581Board": 9217, "\u2581ip": 8465, "z\u00e1": 16845, "\u2581Dezember": 19314, "optional": 14496, "\u21fd": 31853, "\u2581Magn": 19654, "fil": 2088, "\u2581fragment": 13693, "stop": 6898, "\u2581Tri": 9982, "\u2581Africa": 7710, "incipal": 15934, "cht": 5862, "\u2581dog": 3914, "atten": 11110, "\u2581should": 1023, "COM": 18451, "\u00e4nde": 18919, "meisterschaft": 27668, "\u2581febr": 24179, "\u2581mission": 7023, "hn": 10721, "n\u0105": 21077, "\u2581tea": 9510, "oren": 6736, "\u2581locations": 11293, "\u2581por": 1959, "ssl": 16134, "\u2581\u00e1l": 19461, "ka": 2117, "r\u00e1": 12210, "\u00b2.": 20110, "gos": 20359, "\u0440\u0438\u043d": 20578, "MAX": 5578, "\u2581quotes": 20759, "\u2581cb": 15623, "ember": 1314, "<0xA7>": 170, "rac": 21182, "\u2581surveys": 28254, "complete": 11192, "Action": 3795, "\u2581bere": 14325, "\u2581rodz": 27895, "\u7ea6": 30702, "oud": 2456, "\u2581zusammen": 20467, "\u2581Cor": 3198, "\u2581verk": 21164, "\u2581process": 1759, "'$": 15023, "\u30b5": 29863, "\u2581partie": 13861, "ison": 2350, "erre": 12130, "\u2581crossing": 17076, "\u2581Coff": 22967, "SON": 4780, "\u2581\u0414\u0438": 16189, "\u017ce": 10564, "\u2581\u0440\u0435\u043a\u0438": 27935, "\u2581cha": 10355, "\u2581extent": 11125, "\u2581prince": 20180, "\u2581XVII": 28183, "\u308c": 29387, "())": 1904, "ay": 339, "gles": 16984, "\u2581socks": 27987, "\u2581feel": 1601, "\u2581Roth": 23134, "\u2581PK": 28519, "dtype": 18921, "\u2581effective": 5645, "Ch": 1209, "]{": 4490, "Duration": 13297, "Stage": 20783, "\u2581\u0404": 22514, "\u2581cinq": 28300, "\u2581furniture": 12389, "ceptions": 13346, "\u5177": 29737, "\u0113": 29198, "\u0f62": 31185, "\u4e0b": 29061, "eso": 28485, "\u2581pon": 17984, "\u2581Mut": 16969, "hint": 23266, "\u2581~=": 28515, "\u2581diabetes": 22794, "\u0442\u0435\u043b\u0435\u043c": 27146, "\u2581ll": 8814, "\u2581vector": 7206, "Statement": 9299, "\u2581Grund": 17583, "opts": 11320, "AME": 10026, "Header": 5404, "imen": 21538, "prob": 22083, "\u2581approximate": 27132, "\u010f": 29365, "\u2581ranked": 19964, "dup": 20267, "\u2581Car": 2364, "\u2581doctor": 6676, "\u2581changed": 4648, "\ud83e\udd70": 31510, "atter": 2466, "\u0e17": 29548, "xa": 8705, "\u2581Nicol": 18338, "gru": 23696, "hom": 11966, "\u2581\u00c5": 15744, "\u2581prepared": 7998, ")}{\\": 23045, "\u2581Pic": 17321, "\u2581biological": 21549, "stdout": 25080, "roups": 3515, "\u2581beginning": 5398, "rdev": 23338, "\u0434\u043e\u043d": 25612, "password": 7349, "kappa": 8754, "spi": 17456, "Co": 7170, "\u200c": 29611, "\u2581analyt": 13305, "TOKEN": 25478, "grpc": 26488, "('<": 23880, "\u2581She": 985, "ES": 2255, "\u2581governed": 22175, "uma": 10089, "\u2084": 31598, "UNIT": 22587, "sample": 11493, "\u2581'-": 16763, "cci\u00f3n": 9699, "\u2581again": 1076, "\u91c7": 30398, "\u00eas": 17194, "tcp": 16515, "\u2581royal": 13753, "\u2581recip": 14273, "isen": 10555, "\u2581USD": 22858, "Progress": 11195, "arel": 24104, "\u1ea5": 29916, "sc": 824, "assem": 23154, "\u2581ent": 936, "\u2581accurate": 11229, "cipe": 24535, "\u8d26": 29918, "FE": 5790, "mx": 19737, "\u2581awarded": 14059, "\u4e4b": 29332, "IV": 6042, "\u00e9s": 1442, "\u2581Flor": 7958, "inburgh": 24464, "\u2581download": 6726, "\u2581Ich": 27774, "sh": 811, "XX": 6135, "outs": 8508, "SR": 9787, "\u2581jail": 16215, "Certificate": 19119, "\u2581pode": 26165, "\u2581properly": 9222, "upper": 17687, "agner": 23862, "\u2581utilize": 22535, "\u2581Table": 7582, "\u2581formats": 23468, "voir": 18592, "\u2581Estado": 26507, "\uc0c1": 29578, "\u2581Biography": 27167, "ENTIAL": 26567, "-,": 24244, "PL": 3898, "licher": 18241, "\u2581Best": 5470, "\u5706": 30952, "agine": 16816, "\u2581AC": 11949, "\u534e": 30430, "\u2581currency": 15547, "SHA": 18577, "\u2581lid": 16006, "cnt": 10144, "\u2581while": 1312, "gamma": 3933, "conscious": 13787, "DED": 16048, "amerikan": 21788, "\u043a\u0456\u0432": 10180, "\u2581three": 1712, "sets": 6591, "article": 15461, "\u00e1sa": 21767, "\u2581pent": 15094, "\u2581colon": 8039, "\u2581Sl": 4764, "ichi": 22617, "\u2581too": 1368, "\u9589": 31964, "k\u00f6": 17986, "mi": 3589, "\u2581copy": 3082, "\u2581Assert": 7360, "ubernetes": 20563, ".\"": 611, "Car": 11799, "orus": 18235, "Setup": 17707, "\u2581cri": 21040, "','": 6078, "UND": 10933, "static": 5616, "Been": 27927, "els": 1190, "ink": 655, "FFER": 14291, "\u2581jack": 17527, "\u2581Load": 11924, "\u043d\u043e\u043a": 21143, "\u2581reserve": 17575, "\u2581Loren": 23658, "\u2581noch": 11039, "\u2581\u041d\u0430\u0441\u0435\u043b\u0435\u043d\u0438\u0435": 25089, "\u2581Equ": 8391, "ifiers": 11980, "\u2581appropri": 6582, "gres": 20697, "\u2581Department": 6946, "\u2581Masters": 24522, "\u2581\u041a\u0430\u0440": 16746, "\u2581publi": 25918, "\u2581commanded": 27288, "\u2581lado": 25418, "\u2581stranger": 19625, "\u30d1": 29888, "\u2581\u00een": 5554, "'):": 18591, "\u2581Hor": 8221, "\u2581Scal": 21292, "\u2581\u0440\u0430\u0439": 12770, "aska": 14431, "\u2581butt": 21921, "\u2581\u043f\u0440\u043e\u0433\u0440\u0430": 23462, "\u2581Co": 3092, "oa": 17542, "\u2581sl\u00e4": 11158, "\u0447\u043a\u0430": 19247, "\u2581Define": 27350, "\u2581clk": 28607, "ently": 2250, "oj": 6054, "\u2581quien": 20207, "\u2581makes": 2870, "\u2581Smith": 6717, ".~\\": 8080, "\u5f8c": 30134, "\u986f": 30851, "\u9b54": 30410, "\ud83d\ude0f": 31574, "\u2581additional": 4870, "\u2581Bernie": 26009, "cross": 17495, "\u2581injured": 15714, ".**": 9080, "\u0432\u0430\u0440": 15669, "\u2581Ris": 25054, "INSERT": 26587, "\u015b\u0107": 10683, "\u2581extensive": 13571, "uspend": 16547, "\u2581Jerry": 19176, "\u2581nails": 26539, "\uc640": 30275, "\u5c04": 30554, "kw": 8486, "shop": 9876, "Operand": 14074, "\u2581subject": 3817, "\u2581Les": 4573, "\u2581rhythm": 19834, "\u2581pressing": 20902, "\u2581Obama": 11764, "\u044e\u0449\u0438\u0439": 25036, "\u2581Will": 2875, "processor": 24424, "you": 7020, "\u2581Drop": 22732, "\u56de": 29034, "\u2581briefly": 15643, "\u2581mentioned": 7083, "\u2581Restaur": 23657, "inte": 15883, "\u2581Lev": 10249, "\u2044": 29484, "\u2581satisfy": 15836, "\u2581seek": 5695, "ys": 846, "\u2581Deg": 24866, "\u2581IF": 14184, "\u045b": 28926, "\u2581paused": 14623, "\u6c38": 30507, "\u2581Joy": 17780, "\u2581components": 8076, "Mac": 11483, "eds": 5947, "\u043b\u0430\u0441\u044c": 12147, "ijuana": 23310, "\u2581manufact": 6298, "\u2581befind": 19856, "fu": 21278, "\u2581Tol": 15893, "ses": 6065, "<0x15>": 24, "\u2581satisf": 4864, "DESC": 14085, "--)": 26107, "RF": 16743, "oki": 23778, "\u2581tragedy": 25466, "wand": 27358, "{": 28751, "Release": 17327, "\u2581Cover": 16881, "\u0432\u0430\u043b\u0438": 9919, "\u2581opinions": 15028, "\u2581Generate": 26075, "\ud83d\udc49": 31811, "\u2581Python": 21366, "\u2581wear": 7656, "\u2581may": 993, "\u0db8": 31938, "\u2581shining": 26575, "\u2581denied": 16703, "\u2581Ke": 4702, "Mock": 8541, "\u2581synt": 13606, "Branch": 21822, "\u9047": 31716, ",-": 7667, "gio": 11138, "MED": 25428, "actory": 3765, "\u2581Holly": 11512, "Tur": 28348, "\u2581\u0438\u0441": 17282, "\u2581consisted": 24711, "party": 14999, "\u2581hardly": 10768, "<0x2A>": 45, "\u2581Tay": 10347, "\u2581guerra": 15328, "\u2581Buffalo": 28100, "\u2581iter": 6854, ")->": 6952, "\u2581Aub": 27084, "grades": 26830, "\u2581interpreted": 24108, "\u2581Live": 11635, "\u2581vulner": 12985, "omorph": 11179, "\u2581ptr": 13814, "\u2581priv": 5136, "\u04af": 30186, "\u2581kicked": 17444, "ird": 1844, "\u2581Fore": 7257, "achel": 14047, "ases": 2018, "\u2581sec": 5267, "\u2581argv": 21863, "\u2581exist": 2588, "\u2581values": 3069, "\u2581portion": 11580, "\u2581\u043e\u0431\u0440\u0430\u0437\u043e\u0432\u0430": 25160, "TREE": 26522, "\u2581big": 2032, "Ga": 25872, "fac": 20107, "histoire": 25291, "\u2581forecast": 19912, ",*": 17205, "\u2581Michelle": 24970, "\u5df2": 29235, "\u2581feels": 8315, "\u2581steady": 14889, "(__": 7697, "iert": 6257, "\u2581describing": 18063, "\u2581wurden": 9031, "\u2581d\u00e9part": 17654, "ifiable": 21386, "\u2581translated": 19004, "\u2581spher": 23822, "bben": 28322, "\u2581considerably": 25013, "ILL": 11852, "Nd": 16951, "\u0446\u0438\u044f": 7359, "\u2581'.": 14067, "<0x1F>": 34, "Void": 17732, "\u2581\u043f\u043e": 1051, "=\"${": 28144, "\u2581plaats": 18886, "hre": 27056, "r\u00e9": 9946, "\u2581Indians": 18161, "wen": 10654, "\u2581Anal": 11219, "allo": 23914, "rote": 4239, "\u2581outside": 3536, "\u2581summer": 5561, "\u2581ni": 9030, "\u2581obviously": 9589, "\u2581reserves": 26863, "CE": 2554, "IF": 4066, "\u2581hiding": 16622, ">\";": 20160, "\u2581compat": 10794, "\u2581San": 3652, "\u2581convergence": 23662, "]\",": 23772, "\u3060": 29883, "PAGE": 17711, "locked": 20414, "\u2581mark": 1716, "\u2581Life": 5372, "\u2581conference": 9887, "\u09bf": 29857, "\u2581mental": 8057, "\u2581alike": 21892, "\u2581Spot": 24666, "\u0437\u043d\u043e": 18380, "\u0396": 31879, "\u266d": 30420, "yside": 24756, "\u2581\u0434\u043e\u043b\u0436": 27952, "\u2581embod": 21322, "ongs": 24487, "\u2581Shell": 28612, "\u2581mood": 12247, "ody": 1174, "\u2581refers": 15654, "\u2581Stud": 4906, "\u0456\u0431": 16821, "\u2581EVENT": 18693, "\u2581steep": 19267, "\u2581Control": 10336, "\u2581fs": 14731, "obe": 8898, "onic": 9011, "\u2581val": 1414, "\u200a": 29149, "lish": 2295, "\u043a\u0441\u0438": 12174, "\u2581request": 2159, "azz": 7130, "\u2581USS": 22961, "\u044a": 28870, "jor": 9577, "\u2581based": 2818, "\u2581El": 1744, "\u2581else": 1112, "\u2581janvier": 17710, "nf": 23644, "\u2581simplicity": 25233, "\u2581Psych": 17221, "\u2581R": 399, "ised": 2458, "fc": 6837, "Web": 5392, "gra": 24045, "Tor": 22059, "stat": 5975, "ground": 2812, "cil": 4872, "\u05d6": 29913, "\u2581norm": 6552, "\u2581np": 7494, "\u2581Creek": 15480, "\u2581used": 1307, "^*": 7304, "pleted": 14258, "\u2581\u0441\u0432\u043e\u0438": 25589, "\u2581Jason": 14877, "\u2581PDF": 18520, "IT": 1153, "\u0441\u043a\u043e": 1789, "Report": 10493, "\u2581Android": 12654, "Focus": 12819, "\u2581alleged": 22362, "********": 812, "itat": 11116, "\u2581Publish": 19675, "cou": 20172, "enties": 11586, "\u2581setting": 5587, "\u2581\u2013,": 20120, "List": 1245, "\u2581recruit": 20396, "\u2581indicator": 24492, "\u4e94": 30108, "BM": 12871, "\u2581\u043e\u0431": 2802, "\u2581pic": 11936, "\u0409": 30215, "\u2581indent": 23567, "Rank": 24347, "\u610f": 29462, "\u0441\u043a\u0438\u0439": 4704, "address": 5540, "\u2581\u0444\u0438": 8456, "\u2581discussed": 9951, "Hom": 25792, "DS": 7277, "\u2581peque": 25104, "Pub": 17878, "=\"_": 28359, "fas": 17284, "\u2581Bus": 6114, "zi": 4295, "\u2581sin": 5450, "Norm": 25608, "\u10e4": 30880, "/:": 26387, "\u2581pendant": 19423, "\u2581sports": 8657, "\u2581noble": 19343, "\u73fe": 30651, "\u2581Gr": 1778, "les": 867, "idae": 7305, "\u30d7": 29522, "\u2581Line": 9127, "\u2581internal": 5757, "\u2581alc": 15207, "\uadf8": 29614, "\u2581Carm": 18231, "othe": 15203, "\u2581gele": 22933, "\u2581Cra": 17129, "\u2581era": 4204, "olutely": 25244, "leave": 24427, "\u2581Filter": 19207, "\u2581parks": 24682, "\u2581mondiale": 23917, "<0xDF>": 226, "\u0433\u0430": 2618, "Only": 8390, "Enum": 9758, "\u2581Billy": 14532, "$_": 11914, "\u9635": 30909, "WR": 7210, "\u2581generates": 26396, "ettes": 26316, "ingu": 7473, "uras": 13798, "AMETER": 23281, "\u2581cred": 3993, "ercise": 25451, "\u2581Meta": 24967, "KEY": 6478, "chi": 4416, "\u2581measurement": 15921, "PRE": 6314, "WER": 15684, "\u2581Gree": 15752, "ball": 2667, "]).": 17927, "\u2581flowing": 25757, "\u2581ma": 4128, "\u2581toler": 13393, "\u2581Bryan": 27919, "\ucabd": 31117, "\u2581Cape": 18817, "color": 3456, "\u2581FIFA": 28702, "bil": 26702, "\u2581fun": 746, "\u0bc6": 31576, "\u043d\u043e\u044e": 19130, "\u2581disaster": 17273, "AW": 17901, "\u2581avoiding": 23329, "\u2581accommodation": 25085, "atic": 1711, "._": 1573, "\u2581\u0428\u0430": 25541, "\u2581merely": 10783, "\u2581piano": 13221, "iph": 16030, "scious": 6757, "\u0438\u0442": 28562, "\u2581boats": 19706, "\u2581Colin": 25380, "\u2581territor": 12550, "ooth": 6771, "\u0105": 28866, "\u2581retreat": 18030, "\u2581Similarly": 19190, "<0x80>": 131, "Supp": 15653, "success": 7910, "udio": 3704, "\u2581sock": 13384, "\u7a3f": 31547, "\u2581projet": 28146, "\u2581\u0441\u0438\u0441\u0442\u0435": 21609, "Binary": 15692, "\u2581eerst": 16378, "Ign": 12934, "ishi": 28499, "\u2581after": 1024, "\u2581remained": 7568, "\u2581currently": 5489, "\u2581Parker": 19673, "\u2581Reserved": 23182, "\u2581Gaussian": 24247, "\u00f3m": 26153, "\u2581sind": 6822, ":%": 8210, "ficie": 26817, "INVALID": 13562, "itions": 2065, "\u2581trip": 6596, "\u2581cancell": 12136, "\u2581pir": 17368, "\u06ba": 30695, ")).": 8698, "<0x9E>": 161, "\u2581scholars": 22981, "Non": 7525, "\u2581facts": 11412, "\u0f51": 31505, "pg": 3386, "\u0baa": 30074, "\u2581vec": 13080, "istration": 8585, "\u0433\u0443": 5378, "\u2581labeled": 25430, "\u2581ont": 7957, "\u2581afford": 8205, "aaaa": 12648, "\u2581{}": 4729, "\u2581involve": 17516, "\u2581resulting": 10503, "\u2581continues": 10352, "gn": 4206, "...,": 25272, "quot": 12792, "\u2581Jed": 24987, "junit": 13720, "profile": 9247, "\u2581weights": 17628, "acked": 18580, "\u2581promises": 20626, "agn": 3450, "\u2581Roose": 17691, ")\"": 12159, "\u0442\u043a\u0438": 27110, "\u2581developing": 10423, "Env": 8967, "iembre": 15522, "\u2581local": 1862, "\u2581Jazz": 22049, "\u2581analyze": 20765, "tg": 27892, "Each": 9179, "\u65f6": 29007, "pyx": 9004, "unct": 18181, "\u2581climbing": 20873, "\u62c9": 29899, "\u2581Angela": 26991, "\u2581Richmond": 26182, "*\r": 13667, "volume": 15392, "\u2581iss": 2257, "ple": 792, "ese": 3368, "orna": 25190, "shaped": 21501, "identifier": 20044, "\u0938": 29671, "\u8425": 30782, "\u2581reveals": 21579, "mys": 14576, "\u043d": 28778, "\u2581retour": 26776, "proof": 6761, "\u2581TODO": 9420, "done": 10381, "\u043b\u044c": 1049, "GEN": 12835, "fon": 27544, "\u2581\u0441\u0438": 5294, "\u2581\u0438\u043c": 14122, "\u2581m\u00e9t": 21065, "\u043d\u0430\u043b": 20022, "\u2581x": 1318, "ermine": 21824, "\u2581\u044d\u0442\u0438": 27335, "\u2581est": 934, "\u4e39": 31618, "\u2581weap": 6477, "\u2581Member": 15178, "\u0440\u0438\u0441\u0442\u0438": 23406, "\u2581dark": 3199, "scape": 8951, "\\[": 16927, "\u2581bicy": 24521, "\u9053": 29432, "eclipse": 14871, "\u2581scattered": 20995, "riend": 1513, "ov": 626, "ib": 593, "\u2581Angeles": 9479, "\u2581betting": 22567, "omr\u00e5": 24287, "vious": 2123, "bucket": 19599, "\u2581Balt": 17111, "\u2581pills": 19436, "\u2581Kor": 17872, "\u30e0": 29808, "\u2581lips": 8852, "\u2581strikes": 24128, "verbose": 24650, "leveland": 21002, "\u2581Peak": 27416, "\u2581easy": 3411, "facebook": 23744, "icro": 3130, "gal": 7846, "ctic": 11798, "\u5e02": 29244, "\u2103": 31438, "<0x17>": 26, "\u2581batch": 11386, "\u2581adv": 2057, "\u2581zero": 6129, "orial": 8525, "\u2581Dead": 14292, "\u2581mechanisms": 23400, "\u6cd5": 29095, "aser": 14068, "ipedia": 13189, "\u2581/**": 2067, "plicit": 6026, "\u2581fallen": 12962, "allowed": 12949, "aggio": 14061, "\u2581fraction": 14005, "clear": 6206, "\uc5d4": 31821, "\u2581member": 4292, "\u2581experienced": 8304, "\u2581immedi": 4207, "Failed": 9523, "\u0441\u0442\u0440\u0430\u0442\u0438\u0432": 21636, "\u2581yelled": 22884, "yd": 3389, "\u2581Total": 10711, "ker": 5156, "\u9808": 31772, "\u2581kings": 27410, "groups": 12420, "\u2581Brasil": 18341, "\u2581opens": 15706, "\u2581Token": 16625, "methods": 21803, "compar": 24218, "\u2581\u041a\u0438": 11364, "rew": 2516, "\u2581indicating": 17888, "\u2581ink": 20195, "iman": 27153, "\u2581sow": 28689, "\u094d": 29300, "\u70ae": 31756, "\u2581\u0433\u043e\u0434\u0443": 5521, "site": 10041, "\u2581conventional": 17215, "walk": 11287, "\u2581\u0444\u0435\u0432\u0440\u0430": 25224, "ERROR": 4732, "ght": 1026, "HD": 12591, "\u043a": 28795, "\u2581strengthen": 15974, "Rend": 21544, "\u2581Ev": 5740, "\u2581institutional": 28211, "anje": 27858, "\u2581dates": 12791, "\u00e8s": 3781, "\u2581Living": 16303, "Kernel": 24988, "\u2581prep": 5015, "\u2581ADD": 26827, "NP": 24257, "horizontal": 27638, "Will": 12695, "\u2581legis": 14864, "our": 423, "\u2581initi": 8756, "\u2581Za": 25819, "\ud37c": 31902, "heit": 12307, "\u2581harmful": 26299, "\u2581\u0434\u0440": 19448, "xy": 4263, "orious": 16464, "\u2581crime": 9311, "\u2581legisl": 15405, "\u2581Lan": 21992, "lad": 9963, "\u2581Similar": 24232, "\u2581abandon": 8941, "\u2581Samuel": 16595, "\u2581dig": 3968, "rock": 16013, "\u2581Israeli": 19142, "impse": 26612, "\u2581\u2581\u2581\u2581": 260, "\u2581Diamond": 25191, "\u5316": 29192, "\u2581systematic": 26224, "reement": 18090, "ufficient": 23885, "\u0442\u0432\u0435\u0440": 24153, "DR": 4232, "};\r": 26407, "\u62cd": 30860, "\u2581reck": 20088, "\u2581||": 1636, "orest": 18115, "\u0e01": 29256, "Less": 28360, "prote": 8716, "\u5269": 31120, "width": 2617, "Alert": 18852, "\u2581institutions": 12638, "\u2581players": 5117, "\u2581struggles": 25566, "\u2581cuatro": 27429, "\u6253": 29576, "expect": 10508, "\u2581sensation": 23413, "SYS": 18741, "\ud589": 30094, ")?;": 24909, "halt": 18274, "\u2581Hope": 12297, "alle": 4504, "wort": 28577, "LAB": 19331, "New": 2972, "\u2581Kingdom": 11508, "as": 293, "\u2581governing": 10569, "?(": 21185, "\u2581brand": 5804, "Export": 14975, "<0x26>": 41, "\u2581bl": 843, "\u2581Da": 8566, "\u2581Gary": 18162, "\u2581alongside": 13291, "ees": 6436, "\u2581tc": 23686, "\u2581lots": 8532, "attach": 16689, "LINK": 19566, "isson": 20947, "\u2581Marketing": 17058, "\u2581Geme": 11250, "\u2581Advent": 19772, "\u620f": 30727, "\u5956": 30598, "\u2581\u0447\u0435": 4640, "\u7a0d": 31425, "\u2581gay": 11997, "\u2581tips": 10636, "\u2581Frau": 27993, "\u2581\u043c\u0430\u0440": 13427, "\u2581Sir": 8351, "\u2581annoying": 22069, "\u586b": 29875, "\u2581timestamp": 18207, "\u2581correlation": 17301, "\u2581Academy": 10819, "\u2581eastern": 16495, "\ud83d\ude33": 31208, "\u2581\u0447\u0430\u0441\u0442\u044c": 26598, "semble": 11820, "\u2581seinem": 17342, "\u2581Johnson": 9370, "OG": 21112, "\u2581Instance": 26662, "\u2581Coupe": 28650, "Desc": 8332, "wr": 7067, "\u00ee": 28895, "\u2581blend": 20521, "blocks": 14965, "\u2581Leave": 25487, "cookie": 19087, "its": 1046, "\u2581embrace": 20318, "rv": 9084, "\u2581cet": 25068, "ris": 3665, "\u2581sp\u00e9": 27444, "Icon": 7269, "\u2581proper": 4979, "\u2581\u043e\u043a\u043e\u043b\u043e": 23376, "azor": 18426, "loor": 9527, "\u2581sister": 5668, "\u2581Pedro": 18444, "\u2581**_": 23269, "\u2581infrastructure": 14461, "asm": 7804, "\u2581salad": 25256, "\u2581Beaut": 16686, "\u2581valley": 17682, "\u0459\u0435": 11945, "Ann": 23894, "Annotation": 17087, "\u6280": 30021, "\u043a\u0456": 6531, "\u5c42": 29990, "XFF": 19881, "\u2581Negro": 23725, "\u2581ambitious": 28213, "\u2581hostile": 26616, "\u2581intimate": 22772, "icit": 18374, "\u2581lower": 3889, "aker": 4776, "\u2581covered": 6823, "Dev": 4991, "\u2581specifically": 10107, "\u2581team": 1918, "\u2581fly": 8547, "loads": 28516, "\u305f": 29227, "iddle": 3287, "\u2581urban": 12270, "\u2581level": 2184, "kfree": 20492, "\u2581neigh": 5043, "\u2581IX": 22343, "inda": 16224, "\u2581\u041b\u044e": 24667, "*/": 1075, "\u2581mouth": 5108, "\u2581context": 2758, "\u7576": 31332, "St": 718, "\u2581reaches": 18710, "\uff01": 29267, "\u2581segment": 10424, "\u043b\u044f": 1941, "ador": 4487, "Aug": 21575, "\u2581Pen": 9756, "Constraint": 18017, "\u2581modified": 11452, "lined": 14445, "\u2581Josh": 14648, "\u2581corridor": 21550, "\u2581\u0414\u0436\u0435": 24690, "hash": 5700, "ulate": 6212, "),\r": 23486, "\u0440\u043e\u0432\u0438\u0447": 27217, "\u2581Jug": 18243, "\u2581schedul": 10119, "\u2581reply": 10071, "\u0e10": 31348, "\u2581cual": 13023, "\u2581divided": 13570, "\u2581lors": 11989, "\u2581olymp": 27356, "sea": 18324, "\u09aa": 30381, "\u2581craft": 9949, "\u2581delivery": 9562, "\u0392": 30431, "\u2581obt": 3182, "hood": 5079, "\u2d30": 30654, "<0xD8>": 219, "Single": 12357, "\u2581\u041c\u0438": 8082, "\u2581corrid": 17518, "\u0ba4": 30100, "\u2581Science": 9323, "\u2581Zone": 20312, "\u1ec3": 29910, "\u641c": 30125, "\u2581thous": 5003, "alue": 672, "\u2581struck": 11378, "_);": 13400, "\u2581sist": 12289, "\u2581serve": 7031, "mond": 8025, "urable": 17499, "\u2581sniff": 27098, "Spe": 24812, "bum": 3237, "cole": 17973, "\u2581grace": 13754, "\u2581conscience": 26179, "Sc": 3224, "lik": 4634, "minipage": 25734, "\u00dd": 31113, "\u2581*\"": 20694, "port": 483, "rus": 17355, "\u2581dz": 14732, "\u2581tire": 22251, "Indices": 28191, "\u2581parliament": 20848, "ork": 580, "\u1e5b": 30407, "}>": 8699, "urious": 26095, "\u2581\u041f\u0435\u0440": 14353, "\u2581m\u00e9": 13138, "\u2581keyword": 23247, "\u2581rhs": 25490, "\u2581Constitution": 18620, "__": 860, "\u2581guitar": 10686, "Q": 28824, "\u30f4": 31428, "\u2581&#": 16719, "\u2581Sydney": 14469, "\u2581drag": 8211, "st": 303, "Mark": 8157, "\u2581newly": 12486, "\u2581withdraw": 14393, "\u2581vocal": 18272, "Health": 18470, "\u2581obligation": 24775, "\u2581thou": 28112, "opyright": 4477, "\u7aef": 29594, "iteral": 9950, "\u00b6": 29662, "\u043c\u0430\u0442": 23918, "\u2581fitted": 21163, "\u2606": 29839, "bed": 3101, "\u2581acknowledge": 20199, "ponential": 25723, "\u5929": 29354, "\u2581brows": 19252, "Authentication": 19504, "SIZE": 5145, "cart": 14040, "\u2039": 29922, "yond": 5229, "\u547c": 31008, "\u2581allowing": 9836, "\u2581feelings": 9388, "ums": 7610, "oda": 10769, "BPACK": 15947, "\u2581bos": 16158, "pathy": 17113, "\u2581sooner": 19960, "\u2581wasted": 26508, "\u2581stuff": 4705, "jan": 12517, "ricane": 25253, "stage": 13590, "VAR": 13408, "lying": 4089, "\u2581speed": 4975, "\u2581Tr": 1319, "iro": 4812, "oco": 9228, "paths": 19366, "group": 3063, "\u2581weigh": 19929, "\u25bc": 30088, "Url": 5140, "indi": 24097, "]<": 14626, "\u2581execut": 4546, "\u2581Sweden": 19652, "<0xEF>": 242, "\u2581passing": 9720, "\u2581befindet": 26454, "Value": 1462, "UR": 1990, "\u2581caut": 13831, "\u2581din": 6766, "chied": 26881, "\u2581groom": 28583, "\u2581behav": 4569, "\u2581whereas": 14349, "Generate": 23342, "ldots": 8764, "\u2581Follow": 9822, "orent": 21958, "\u2581alloc": 7053, "amen": 9519, "icing": 9065, "anted": 7266, "\u2581clo": 23390, "\u2581dla": 22056, "\u2581spot": 6297, "\u2581fprintf": 21098, "\u2581reference": 5633, "\u2581filename": 4326, "iji": 17062, "\u2581editor": 7546, "iece": 21422, "IS": 1851, "\u2581gets": 4739, "gnu": 19588, "\u2581tarde": 24562, "\u2581living": 3687, "\u0441\u043e\u0431": 26913, "\u2581verd": 18070, "\u8f7d": 29435, "thy": 25917, "\u2581mig": 16089, "\u2581arrest": 8431, "\uacc4": 30106, "\u9633": 30230, "\u2581perfect": 3659, ")-\\": 26338, "\u2581vir": 7692, "\u2581Bow": 11609, "\u2581Werk": 26444, "\u2581Scott": 7636, "hem": 6981, "\u2581random": 5509, "\u0442\u0435\u043b\u044c": 4446, "<0xDE>": 225, "Cfg": 27096, "ait": 1022, "tan": 20999, "\u2581bullet": 17144, "refer": 16769, "\u2581rail": 8314, "avid": 20163, "\u2581//": 589, "\u2581Boolean": 17110, "We": 2324, "\u2581survived": 16761, "\u2581LIMITED": 20881, "\u2581kwargs": 23197, "mac": 7502, "\u6750": 31239, "Sam": 19777, "\u2581together": 2553, "\u2581eight": 5435, "\u042c": 30683, "\u2581increasingly": 13107, "\u2581Jung": 28551, "REQ": 8728, "\u2581comments": 7616, "\u2581kv": 14584, "\u2581stack": 7232, "\u008f": 29658, "\u2581cultiv": 17159, "Invoke": 21764, "\u2581Syn": 18192, "etic": 10362, "\u2581\u0436": 8937, "\u2581Chris": 9900, "\u1eeb": 30965, "\u2581chron": 20657, "\u2581since": 1854, "\u2581fence": 17210, "\u2581raised": 6333, "\u2581Fif": 16296, "CLO": 22132, "\u2581majority": 7757, "\u17c6": 31251, "\u2581string": 1423, "\u2581charge": 5685, "Basic": 15580, "dro": 23756, "\u2581\u043c\u0430\u0440\u0442\u0430": 24898, "\u2581Asc": 28294, "\u2581subs": 11994, "nehmen": 22839, "\u2581Render": 23752, "dependent": 23751, "ifact": 17634, "iling": 5708, "rios": 18731, "\u2581moy": 19802, "\u2581bend": 25527, "ins": 1126, "\u2581city": 2990, "aud": 5675, "between": 24829, "\u2581neuen": 28319, "\u2581sequences": 22456, "\u2581pier": 10833, "\u2581\u0431\u0435\u0437": 15907, "Html": 14736, "\u2581animated": 25693, "Library": 17183, "\u53d7": 30154, "GroupName": 16477, "\u2581acknowled": 13964, "\u2581attribute": 6836, "igma": 2898, "\u2581dow": 11722, "INST": 16289, "\u2581\u0441\u043e\u0432": 23777, "\u027e": 30242, "ClickListener": 24623, "year": 4395, "\u2581send": 4080, "\u2581XX": 12931, "\u2581former": 4494, "\u2581namely": 19902, "\u2581\u043e\u0440\u0433\u0430": 13561, "\u2581desen": 26789, "\u2581stressed": 27415, "\u2581worship": 15124, "\u2581Eng": 2317, "\u2581notable": 19225, "\u2581specified": 6140, "\ucc3d": 31476, "serv": 1472, "\u2581relativ": 22957, "Checker": 27229, "LS": 6687, "\u2581s\u0105": 23435, "aining": 1781, "\u8bfe": 30748, "fall": 9197, "eca": 19296, "\u00fcng": 22572, "\u2581ig": 12632, "\u2581Tech": 19649, "\u2581occurring": 28265, "\u2581\u041e\u0442": 18998, "\u2581hearing": 9788, ">\",": 20018, "gmail": 23769, "\u2581New": 1450, "zd": 13335, "\u2581holiday": 12010, "\u2581\u041f\u0440\u0430": 25074, "\u2581Enterprise": 27018, "ase": 555, "\u2581knowing": 8215, "\u2581domain": 7966, "\u2581Additionally": 16569, "\u2581animal": 8527, "\u2581Night": 10357, "\u043d\u0438": 669, "IX": 6984, "Bounds": 15833, "\u2581essere": 15865, "\u2581img": 16001, "ituted": 28346, "\u2581Burn": 13708, "\u2581Mayor": 20671, "\u22c6": 31288, "\u767d": 29917, "omena": 26504, "izer": 4024, "words": 10366, "speed": 12549, "\u2581hair": 3691, "\u2581proportion": 19938, "\u2581marvel": 27778, "\u2581Fire": 8643, "\u2581emails": 19863, "Full": 10395, "\u0e40": 29301, "\u045e": 29931, "\u0432\u043e\u0457": 24620, "VAL": 3668, "wikipedia": 23954, "NY": 24743, "\u3082": 29778, "\u2581quel": 12971, "Grad": 20910, "\u79d1": 30226, "liest": 18067, "\u2581sold": 3910, "\u2581managed": 6900, "osten": 17074, "\u2260": 30932, "iated": 27267, "frame": 3413, "param": 1148, "OF": 10907, "HECK": 5250, "\u2581transfer": 5998, "system": 6574, "******": 9329, "\u2581stream": 4454, "\u2581horizontal": 18116, "\u2581loyal": 13457, "ogy": 8677, "Ab": 6570, "\u2581fare": 19111, "\u98de": 31259, "\u2581outdoor": 15382, "Product": 7840, "zens": 18218, "\u2581chose": 10008, "\u2581sans": 12062, "\u2581charges": 11040, "pis": 9455, "\u2581Document": 14873, "\u2581pill": 10837, "\u2581revers": 16876, "riven": 21694, "\u70b9": 29085, "\u2581RES": 20308, "LE": 1180, "true": 3307, "\u2581ste": 2710, "\u2581scholar": 14566, "\u2581Thor": 20516, "zm": 22432, "\u0446\u0438\u043e\u043d": 15815, "ribut": 1030, "\u2581plain": 10835, "\u2581grant": 13154, "\u5883": 30396, "\u2581comparing": 21400, "\u2581gep": 14152, "\u2581posts": 10005, "\ud68c": 29884, "\u592e": 31769, "\u03cc": 29212, "\u2581descriptor": 17387, "adrat": 28118, "\u2581op": 931, "orge": 3816, "unkt": 13518, "\u2581voy": 15545, "\u2581safer": 25844, "\u2581circuit": 15306, "\u01dd": 31948, "\u6b21": 29245, "\u2581believing": 23935, "\u2581newer": 26259, "\u2581Blake": 23450, "\u5f71": 30083, "ibraries": 17164, "aggi": 24069, "\u2581Cameron": 23028, "\u049a": 31419, "\u2581excell": 7154, "\u2581Jorge": 26955, "\u2581Expression": 25031, "\u2581released": 5242, "\u2581trump": 22945, "\u00f3g": 14376, "NEL": 19014, "\u2581armed": 14630, "\u2581stopping": 17203, "\u2581rarely": 13977, "\u2581Altern": 16677, "\uc5ec": 29827, "\u2581club": 4489, "\u042d": 28921, "<0xB6>": 185, "\ud305": 31589, "\u2581arguing": 21440, "\u2581Rose": 10655, "ach": 595, "\u2581Cab": 11357, "\u2581lie": 4852, "\u2581assist": 6031, "\u2581lifetime": 14927, "\u2581sufficiently": 20554, "\u2581wine": 8188, "\uff5e": 30328, "organ": 8974, "\u2581modes": 14855, "\u2581<": 523, "<0x06>": 9, "\u2581wire": 9112, "\"}": 17395, "\u2581rage": 19490, "\u2581police": 4758, "\u2581licensed": 17045, "cit": 21990, "Content": 3929, "ITY": 4966, "\")\r": 16949, "\u2581youngest": 25806, "\u2581conj": 11365, "\u2581Sac": 17219, "\u2581\u043a\u043e": 1619, "\u2581Lab": 10076, "ailed": 2384, "\u2581rad": 2847, "\u00e9ra": 18924, "pci": 18929, "\u2581charming": 25444, "\u2581nie": 7988, "\u2581como": 3118, "cdots": 11797, "\u2581Lieutenant": 18510, "ADDRESS": 25100, "\u2581exact": 3459, "Empty": 6027, "\u2581\u0442\u0435\u043c": 20245, "\u2581Barry": 20393, "Filename": 24773, "\u9884": 30098, "\u55ae": 30820, "\u00fcnd": 9744, "\u2581Sch": 1609, "\u2581treatment": 5827, "\u2581gan": 15061, "rodu": 3399, "\u2581tal": 5741, "\u2581Staff": 13594, "\u2581instrumental": 28166, "\u2581sore": 23176, "Encoding": 19077, "ningen": 18870, "\u2581\u0447\u0430\u0441": 21358, "\u0432\u0430\u043d\u043d\u044f": 12267, "\u2581AG": 14778, "\u2581Gy": 18075, "\u2581nombre": 8581, "\u2581fuer": 12535, "Long": 7468, "etta": 16631, "\u2581amb": 4358, "sat": 23258, "\u2581Size": 13909, "skiej": 21603, "\u2581Hampshire": 27616, "Img": 24088, "\u654f": 31703, "\u2581Chapter": 7513, "\u2581acting": 10601, "dk": 10885, "\u2581>>>": 18343, "\u2581mistaken": 26236, "\u2581inflation": 20613, "Vertical": 24647, "Sn": 10187, "\u8fd0": 29798, "\u2581apart": 7413, "\u2581past": 2609, "\u2581Cert": 12089, "\u2581actively": 18639, "\u0141": 29042, "anz\u00f6s": 22979, "\u2581experiment": 6878, "}(\\": 4824, "ComponentModel": 24306, "cluster": 12027, "\ud2f0": 31409, "\u2581PAGE": 23509, "\u2581meantime": 26762, "\u2581NBC": 28316, "inn": 2594, "STRING": 10505, "\u2581Gir": 25560, "educ": 25030, "\u2581dragged": 20212, "\u2581aux": 5672, "\u2581desire": 8646, "\u1ef3": 31540, "\u2581way": 1069, "Occ": 22451, "\u2581dashed": 26108, "\u2581join": 5175, "tiny": 25149, "yan": 8455, "\u2581polynomial": 22879, "unter": 16442, "icial": 5867, "\u2581affordable": 16662, "zerw": 23244, "\ubc1b": 30605, "\u043b\u0443": 2932, "PTR": 17551, "\u2581bo": 1359, "IR": 4599, "\u2581\u0441\u0442\u0440\u0430": 13488, "ip": 508, "ienne": 10605, "\u5343": 30516, "\u2581inside": 3416, "\u2581envelope": 23631, "malloc": 24320, "\u2581node": 3179, "Creat": 14001, "\u2581quad": 12618, "ived": 1975, "\u2581connection": 5132, "\u2581Cyr": 26832, "\u2581Pre": 4258, "\u2581Original": 17745, "\u2581Krieg": 19020, "\u2581catal": 21348, "}}$,": 25133, "\u2581sac": 6923, "Ass": 7226, "Serialize": 23443, "<0x28>": 43, "\u2581os": 3497, "\u0434\u0443": 2454, "z\u0151": 13765, "\u2581quasi": 19339, "\u05dd": 29398, "\u30cf": 30483, "\u2581imm": 4493, "innen": 17190, "\u2581wherein": 27271, "\u2581industries": 17909, "\u0432\u0435\u0434": 20183, "\u2581\u0440\u0430\u0441": 11859, "Observ": 23044, "\u2581Second": 7052, "\u043d\u0433": 7521, "\u9636": 31177, "\u2581Het": 10172, "\u2581Spanish": 10177, "\u2581remarkable": 16959, "\u2581Gem": 18131, "\u2581db": 7594, "\u043b\u0435\u043d\u0438\u0435": 9042, "\u2581encoding": 16087, "\u2581serv": 1268, "\u2581${\\": 5493, "graded": 23189, "ilde": 7894, "\u2581fill": 5211, "\u2581chemicals": 24920, "HW": 16352, "woh": 17254, "erase": 28295, "\u2581'%": 12540, "irect": 1297, "\u2581histor": 4264, "\u2581glance": 15853, "\u2581\u041e\u0440": 20805, "\u2581Win": 11035, "\u2581absor": 10612, "\u2581extension": 8223, "unted": 15227, "\u2581Iss": 16448, "\u2581sz": 4301, "\u0434\u0435\u043b\u044c": 21054, "hren": 22126, "\u2581sunlight": 22950, "bo": 1798, "\u0636": 29623, "\u2581dogs": 9540, "state": 2027, "\u7701": 29670, "\u2581api": 10429, "\u2581cuando": 13447, "orne": 13528, "\u10d6": 30862, "\u2581sl": 1135, "\u2581communicate": 16287, "zem": 14737, "zoom": 23915, "\u2581childhood": 13159, "\u2581wives": 24868, "\u2581Menschen": 24820, "\u2581begin": 2839, "\u2581Atlanta": 18279, "owany": 19035, "\u2581\u0420\u0435": 9392, "\u2581Jackson": 9955, "\u2581employed": 14675, "\u2581centers": 18015, "\u2581fa\u00e7": 23500, "\u2581establish": 7507, "uga": 28405, "\u2581Caption": 6534, "\u2581observe": 14631, "\u2581dancing": 17319, "\u2581fact": 1639, "\u2581altered": 25980, "secure": 20684, "\u2581frances": 17923, "\u2581destination": 10316, "Associ": 21515, "ascade": 28134, "sw": 1616, "Intent": 18868, "Pe": 9336, "\u2581Tre": 9485, "\u2581lattice": 19124, "\u2581makeup": 19781, "children": 9342, "scan": 11451, "\u83b7": 29072, "\u2581Wood": 8010, ">';": 17021, "\u2581hum": 1997, "na": 1520, "\u7269": 29535, "\u2581fi": 6407, "\u2581autumn": 24818, "\u2581\u00e9taient": 24572, "MEDI": 24249, "\u2581ways": 4342, "\u0094": 29191, "notice": 26814, "aces": 2089, "\u2581\u0413\u0430": 12972, "\uc801": 30151, "ronic": 7624, "cedure": 27032, "plication": 2459, "AUTH": 18038, "\u2581examined": 21132, "\u2581za": 6670, "\u5c0a": 31935, "Ip": 18917, "\u2581China": 5077, "\u2581Pete": 21388, "\u2581planning": 7394, "inho": 25041, "\u0444\u043e\u0440\u043c\u0430": 22131, "airo": 19760, "Exit": 18385, "\u2581collective": 17236, "fections": 23498, "\u2581pieces": 7769, "\u2581destruction": 15788, "(/": 16552, "/**": 1922, "\u2581RC": 26730, "aine": 4262, "uzz": 9046, "ATTRIB": 27502, "\u2581EX": 4175, "\u2581operations": 6933, "\u2581wid": 7744, "\u2581(\u201c": 27156, "\u2581sido": 15933, "types": 5630, "\u2581The": 415, "\u2581v\u00e1l": 19892, "\u2581frequency": 11010, "izontal": 9727, ".\";": 22319, "\u2581Category": 18327, "\u2581leaf": 15080, "dir": 3351, "\u0440\u0430\u043b": 18363, "issen": 20740, "\u2581$\\": 878, "<0x77>": 122, "\u0432\u0456": 4093, "\u00edtulo": 18440, "\ucd08": 30395, "\u2581router": 15736, "\u2581haben": 17738, "\u2581wish": 5138, "lor": 5638, "uj": 5872, "\u2581MAX": 11651, "\u2581slipped": 15841, "\u2581Hist": 4044, "\u2581predicted": 17931, "lez": 19557, "\u2581september": 25494, "\u2581Aunt": 22282, "Music": 24778, "\u2581onder": 10971, "\u2581fucked": 20251, "\u0654": 31865, "\u2581\u017e": 9884, "iom": 19934, "tests": 16735, "inging": 24831, "\u2581encuent": 16611, "\u2581neat": 17730, "\u2581open": 1565, "\u2581Herz": 22026, "\u043b\u0438\u0437\u0430": 26594, "\u2581drunk": 12731, "ryption": 14071, "\u2581Won": 27611, "\u5b81": 30670, "\u2581remarked": 28357, "\ud83d\udc8e": 31203, "super": 8554, "}_\\": 12225, "RD": 15363, "\u2581alors": 13086, ")_{": 20431, "\u30ba": 30238, "\u2211": 31384, "\u2581Google": 6182, "\u2581Oliver": 17979, "\u671b": 30606, "\u2581\u0433\u043e\u0440\u043e\u0434": 22123, "\u5965": 31761, "\u2581verl": 24255, "\u2581Re": 1298, "American": 12188, "Neg": 21436, "\u2581exh": 26112, "amazon": 15041, "\u2581hors": 10691, "\u2581stable": 11311, "idades": 11520, "necessary": 19710, "COLOR": 20266, "\u1e25": 29624, "\u2581polit": 2419, "\u2581Cre": 19271, "ango": 8458, "\u043d\u0456\u0439": 13238, "ibility": 3032, "\u2581Crusher": 21879, "\ud558": 29136, "\u5019": 30054, "lines": 8063, "\u2581\u041c\u0435": 8749, "auses": 23829, "\u2581november": 24107, "\u2581adapter": 19865, "\u0161t": 14131, "agle": 17968, "\u2581grim": 17837, "pop": 5951, "okes": 9486, "\u2581ugly": 19279, "\u2581similarly": 21922, "\u2581impressive": 14714, "\u0434\u0440\u0438": 24638, "{})": 21914, "artment": 4502, "Friend": 22412, "path": 1740, "\u8bb0": 29442, "\u2581phil": 6862, "\u2581release": 5614, "\u2581guest": 11683, "\u2581half": 2795, "\u00e1r": 5856, "backend": 19792, "rought": 3928, "\u2581sadly": 28378, "[_": 24655, "\u2581park": 4890, "\u5bbf": 31553, "Mask": 10982, "lichen": 7246, "Tw": 21173, "suit": 21232, "\u2581December": 4925, "\u2581militar": 26190, "dap": 24260, "ahoma": 19972, "\u2581course": 2363, "gather": 24136, "\u2581Mic": 8990, "century": 15900, "DI": 3284, "\u00e9d": 4652, "\u2581\u0432\u043c\u0435": 27293, "ocur": 28457, "ING": 2043, "\u2581Overall": 21013, "\u2581comment": 4517, "\u2581treat": 3363, "\u2581Seine": 25517, "essa": 11826, "\u2581Met": 5522, "bild": 17086, "\u2581above": 2747, "\u2581Ori": 20698, "ographer": 15318, "\u8f6e": 30908, "BOOL": 27781, "\u2581maintenance": 12364, "\u9547": 29780, "\u0015": 30675, "\u2581virt": 9306, "\u2581thy": 23165, "\u0279": 31931, "\u2581manager": 7056, "\u2581scenario": 13406, "\u515a": 31562, "}_{": 3145, "\u2581\u0421\u0442\u0430\u043d\u043e\u0432": 20896, "\u2581retval": 25232, "wor": 22493, "\u2581sedan": 26852, "\u2581\u043f\u0440\u043e\u0442\u0438\u0432": 19636, "\u2581\u043e\u0431\u043b\u0430\u0441\u0442\u044c": 27216, "\u2581cross": 3893, "\u2581brill": 12000, "\u518c": 30001, "\u2581temp": 7222, "!--": 8567, "INS": 12522, "\u2581Sc": 2522, "\u2581beast": 23688, "manager": 9307, "\u2581bigger": 9942, "\r\r": 21259, "fee": 26652, "\u2581willing": 7813, "\u2581quarter": 8249, "\u2581Colonel": 18464, ">();": 7100, "\u2581miem": 26884, "\u84dd": 31084, "<0x1B>": 30, "\u88e1": 31875, "FS": 6934, "\u00e5g": 17843, "limited": 18376, "\u2581Ensure": 25217, "WIDTH": 24278, "\u2581secolo": 24748, "\u00af": 29948, "\u2581punk": 22900, "\uc558": 31877, "\u2581ready": 4313, "\u0432\u0448\u0438\u0439": 27386, "\u2581absolute": 10287, "\u2581venue": 20906, "criptor": 5456, "\u2581indices": 17853, "love": 26232, "\u2581lift": 7818, "\u2581cops": 19407, "\u2581\u043a\u043e\u043d": 6361, "\u2581Ab": 2484, "\u0ba3": 31748, "\u2581bound": 3585, "overy": 9580, "\u2581lengths": 25458, "\u2581Invest": 11606, "court": 28129, "dialog": 10565, "\u00edas": 12697, "\u0415": 28907, "\u044f\u0442": 13793, "\u2581special": 2841, "\u2581clock": 9917, "\u2581Day": 5399, "\u2581af": 3833, "\u2581literature": 11354, "Errors": 16958, "\u2581shows": 4370, "Cred": 15453, "\u2581much": 1188, "\u2581civilian": 25120, "threads": 26202, "\u504f": 30719, "\ud83d\ude21": 31690, "\u2581str": 1117, "\u2581WR": 21486, "peer": 14720, "\u2581Cut": 18514, "\u012b": 29001, "\u2581shine": 27882, "\u01d0": 30372, "pre": 1779, "\u2581Daily": 16955, "\u2581assistance": 11611, "\u2581safely": 16367, "public": 2001, "\u2581End": 5764, "\u2581Kre": 13326, "\u5fc3": 29574, "\u8272": 29395, "\u2581nebo": 28494, "pmatrix": 22469, "\u2581Creat": 9160, "\u2581handler": 9694, "\u2581Magic": 19833, "lat": 7387, "proc": 11274, "\u2581computed": 16860, "\u2581Byte": 20376, "colored": 28508, "\u2581promot": 18022, "\u30de": 29685, "\u2581pkt": 28568, "\u2581Vi": 11004, "\u2581transportation": 17408, "\u2581sar": 24393, "gpu": 15462, "\u30a9": 30302, "Tax": 27537, "Save": 11343, "IC": 1604, "WEBPACK": 16524, "\u2581modest": 23676, "\u2581llam": 17620, "um": 383, "\u2581widely": 12575, "\u2581owned": 10496, "\u2581Egy": 9074, "\u2581provides": 5312, "furt": 21912, "\u6771": 30366, "netdev": 25583, "\u5f9e": 31517, "\u2581suspicious": 25175, "smart": 19914, "TV": 10639, "\u2581diz": 28014, "\u2581setup": 9520, "acion": 13995, "\u2581Dise": 26782, "nar": 24837, "\u2581b": 287, "\u0441\u0435": 2313, "ATOR": 16657, "\u2581stock": 5756, "Lock": 9192, "ijk": 17722, "BUG": 5506, "\u2581Dev": 6624, "\u2581sne": 14297, "\u5251": 31945, "\u2581formed": 8723, "\u2581sistema": 16410, "ationToken": 17324, "\u2581\u0434\u0435\u044f\u0442\u0435\u043b\u044c": 26787, "\u2581pockets": 21702, "\u2581necessity": 24581, "citet": 15542, "\u6b64": 29320, "\ud83d\udc95": 31551, "\u2581rag": 13017, "\u2581expected": 3349, "vendor": 17635, "eft": 18179, "\u8aa4": 31323, "\u1d1c": 31892, "history": 15205, "\u2581res": 605, "}}^{": 22783, "\u2581represented": 10483, "\u2581remark": 9174, "dst": 8529, "\u2581ids": 26214, "\u2581Nina": 27664, "riers": 14189, "\u6697": 31096, "mber": 2343, "Drawing": 10280, "olved": 7060, "\u2581mold": 20880, "dex": 1453, "\u2581breathing": 14232, "\u00e1ra": 24570, "\u0431\u0435\u0440": 10254, "\u2581triggered": 22192, "\u2581mit": 2367, "\u2581selection": 7495, "\u8282": 29312, "\u00e4t": 5291, "nym": 15416, "elements": 16510, "\u2b1c": 31636, "\u2581Source": 8193, "\u2581Lav": 26469, ">:]<": 15880, "\u2581Hill": 7442, "\u05df": 29618, "ceiver": 15237, "\u2581jour": 3835, "sburgh": 23679, "ika": 6012, ")=": 6706, "\u2581Iran": 10942, "star": 7890, "\u00eda": 2189, "\u2581carry": 7096, "\u2581Cl": 1366, "ollow": 1257, "\u0159e": 21611, "\u2581working": 2739, "\u2581pump": 12048, "\u2581pres": 1258, "\u2581nerv": 9434, "mn": 15358, "\u2581aest": 20429, "\u2581lighter": 23645, "\u2581carved": 26464, "Nav": 8989, "surface": 20942, "\u0441\u0442\u0440\u0435": 18160, "\u2581calculations": 19051, "western": 22274, "\u2581cooperation": 21732, "\u2581Age": 14065, "aced": 2701, "\u2581Yeah": 8352, "SCAN": 27849, "\ud1b5": 30700, "\u2581beaten": 22771, "\u2581please": 4665, "\u2581Canal": 25772, "\u8ff0": 29769, "\u2581Ok": 6504, "\u05d2": 29632, "\u2581unset": 22353, "\u2581Dark": 12361, "\u2581fell": 5970, "map": 2022, "uset": 13222, "\u09b8": 30234, "have": 15378, "\u6a21": 29266, "\u2581stretch": 14742, "\u624d": 30120, "\u2581vi": 3074, "\u95ee": 29562, "\u17d2": 29732, "pres": 11861, "\u2581Commun": 5795, "osti": 22160, "icating": 27623, "eree": 14447, "ilo": 10630, "\u2581arrival": 13758, "\u2581gas": 5135, "eben": 8960, "\u2581$[": 19921, "audio": 11203, "\u2581bom": 12793, "\u044c\u0435": 18628, "elasticsearch": 28350, "\u2581Ga": 11131, "\u00e4ll": 14357, "\u5185": 29188, "\u2581avoir": 18837, "https": 3887, "itate": 9647, "\u2581Man": 2213, "ones": 2402, "\u2581PCI": 18854, "\u2581farming": 25209, "CLUD": 16613, "\u2581Viet": 11224, "\u2581august": 21936, "\u2581Farm": 15420, "kom": 9902, "\u2581potatoes": 24753, "\u2581heavy": 5917, "\u2581chrom": 24448, "\u2581motion": 8036, "\u2581statistical": 21256, "\u2581transport": 6209, "\u2581goodness": 27624, "Authorization": 26369, "\u2581adopted": 13424, "\u2581McG": 18407, "\u2581St": 662, "\u2581Luis": 16945, "FN": 17047, "\u2581\u20ac": 17416, "oooo": 24438, "Title": 7522, "<0x0F>": 18, "\u2581normal": 4123, "\u2581virus": 15022, "opter": 15136, "\u2581\u0421\u0430\u043d": 18475, "ANG": 19182, "\u2581soit": 18488, "\u00f5": 28925, "\u0e48": 29296, "\u6bdb": 31187, "\u2581det": 1276, "itch": 1986, "\u2581jump": 6483, "\u2581''": 9842, "\u2581corre": 7952, "\u2581Flo": 14819, "\u2581Ign": 15923, "\u2581tile": 16741, "\u2581drain": 18946, "Use": 8543, "\u2581bamb": 27048, "at\u0103": 20426, "\u054d": 31903, "\u2581Transfer": 24969, "Delete": 6585, "itet": 8606, "cca": 14698, "\u0432\u0441\u044f": 17425, "essment": 23386, "Peer": 22163, "this": 894, "\u2581\u0424": 4111, "\u2581rebell": 24980, "\u2581healing": 15932, "\u2581Zealand": 12696, "\u2581cracked": 24734, "\u2581conv": 4221, "Access": 6169, "\u0dba": 31857, "\u0448\u0430\u044f": 25356, "ye": 7187, "\u3044": 29132, "mixer": 17728, "\u2581\u0443\u0447\u0430\u0441\u0442\u0438": 25337, "\u2581gel": 12694, "\u2581copper": 21569, "\u015a": 29009, "ategories": 14922, "\u2581performs": 25597, "\u043f\u0438": 2749, "\u2581viene": 17145, "\u0923": 31001, "\u2581traditional": 7062, "WA": 12245, "\u2581bird": 7727, "\u2581suspic": 13510, "Async": 7289, "\u2581Bak": 23515, "\u2581affected": 11180, "\u2581acceler": 13057, "projects": 21080, "\u2581cloth": 17673, "bew": 24134, "\u255d": 30494, "\u2581intelligence": 10895, "ccess": 1518, "\u2581leaves": 8049, "\u2581grandes": 20892, "\uc88b": 31807, "'(": 22382, "subscribe": 19128, "\u2581UINT": 25376, "\u00c6": 29669, "phan": 19058, "\",\r": 10939, "protobuf": 9608, "\u2581Security": 9769, "Topic": 25462, "\u2581count": 2113, "\u2581\u0432\u0440\u0435": 8614, "\u2581pseud": 22787, "ior": 1782, "\u2581Mir": 9154, "ockey": 12277, "\u2581strategy": 7213, "\u30ec": 29491, "\u30a4": 29157, "\u2581Visit": 16660, "isecond": 20086, "\u0e2d": 29228, "\u2581ritual": 21078, "\u2581expression": 5782, "XML": 13047, "\u2581cargo": 16666, "\u2581divorce": 17714, "ician": 8247, "icos": 8368, "\u009e": 30924, "thon": 7418, "\u2581attributed": 26133, "\u2581TYPE": 18143, "Array": 2712, "\u2581Mini": 24785, "\u2581wars": 19270, "\u2581blocks": 9478, "Att": 2517, "includes": 19459, "\u2581ide": 1872, "\u2581discipl": 11760, "\u0447\u043a\u0438": 16333, "\u2581nic": 15750, "\u2581respon": 2603, "itating": 23251, "ved": 1800, "\u2581kids": 4551, "\u10e6": 31278, "\u2581recon": 9220, "tile": 18196, "\u2581szer": 17267, "\u2581senior": 9362, "\u2581cuts": 15981, "\u2581passionate": 20640, "\u2581Does": 9377, "Matrix": 10701, "\u2581realistic": 19595, "\u2581River": 6396, "\u2581relevant": 8598, "\u2581WordPress": 23378, "\u2581OB": 23883, "\u5f88": 30111, "\u0f72": 31375, "Bi": 27405, "Go": 7580, "\u2581t\u00e9l\u00e9": 27961, "\u2581financ": 4552, "\u2581objective": 13640, "\u2581Ass": 3348, "\u2581delivered": 11448, "\u2581Indep": 13487, "ENTER": 21214, "\u2581bodies": 9401, "\u2581sie": 4748, "park": 21387, "jen": 6956, "\u2581\u2581\u2581\u2581\u2581\u2581\u2581\u2581\u2581\u2581\u2581\u2581\u2581": 569, "ati": 3986, "NI": 16457, "Batch": 14713, "edish": 21113, "\u2581systems": 4918, "\u6ee1": 30493, "\u2581vas": 26452, "lim": 2788, "\u2581Carib": 25212, "/${": 23820, "\u2581Modern": 13950, "\u2581their": 652, "\u2581Court": 6924, "\u2581miss": 3178, "\u2581Bu": 10944, "$~": 26051, "\u2581timeout": 11965, "\u2581condu": 8667, "}/": 5865, "ady": 4425, "\u2581Al": 976, "\u2581g\u00e9n\u00e9ral": 16166, "\u0171": 28931, "\u95a2": 30783, "obs": 8081, "frastructure": 11932, "\u2581\u0410\u043d": 15498, "\u2581Foot": 10372, "\u2581Album": 13449, "opcode": 25304, "tra": 1947, "aniu": 28458, "\u2581blame": 13128, "odd": 26626, "Selector": 8185, "\u2581clothing": 13278, "\u2581prima": 12030, "\u0e25": 29394, "hidden": 9748, "\u2581Vent": 22524, "ra": 520, "\u2581fmt": 9755, "\u2581curve": 11903, "oli": 7320, "\u82cf": 30985, "\u2581\u0438\u0433": 17009, "\u2581Wind": 13558, "moment": 26471, "\u0178": 30322, "Number": 4223, "\u2581Indust": 10527, "\u2581overlook": 24890, "VER": 3491, "\u2581kont": 21674, "olute": 13703, ".\");": 10927, "LEMENT": 20255, "pu": 2498, "use": 1730, "\u2581following": 2296, "\u2581mor": 2544, "dispatch": 16202, "Order": 6022, "\u2581teaches": 28488, "\u2581suspected": 18648, "\u2581associated": 5363, "\u2581diameter": 22640, "oy": 904, "\u2581Task": 10290, "iveau": 22566, "avelength": 26795, "vre": 19465, "\u2581help": 1316, "ural": 1890, "\u2581sw": 1719, "Inst": 6060, "OS": 3843, "\u2581billion": 8737, "\u2581ability": 5537, "Introduction": 27230, "\u2581dominated": 20135, "Trigger": 16140, "\u2581equip": 4731, "Ev": 8459, "\u2581grande": 11807, "\u2581tropical": 21257, "mor": 21621, "\u2581antib": 21679, "\u2581party": 4150, "unned": 25704, "\u7532": 31272, "\u2581means": 2825, "\u2581heav": 9425, "\u5b9c": 31917, "\u5b87": 31729, "Out": 2919, "\u25b8": 31939, "\u2581signals": 15972, "\u2581admin": 11173, "Limit": 13063, "Es": 19281, "\u2581membr": 25983, "\u8ba9": 30447, "isch": 3143, "\u2581ground": 3414, "\u2581colonial": 20150, "\u2581eine": 3834, "\u0441\u043a\u0435": 17486, "\u2581situations": 11846, "\u043e": 28761, "adu": 28082, "\u2581teams": 6941, "inx": 25032, "ep": 615, "\u2581affair": 19179, "\u2581various": 4118, "\u2581compris": 25093, "loc": 1614, "\u2581iz": 9345, "\u2581uso": 27427, "arden": 5699, "aturday": 8026, "ue": 441, "S": 28735, "\u2609": 31670, "\u2581ongoing": 15260, "\u2581scored": 13969, "\u2581dw": 10743, "Black": 15060, "\u2581receives": 21415, "\u2581s\u0103": 14377, "\u2581injuries": 15871, "recht": 26429, "books": 17297, "Elements": 10996, "\u0441\u043e\u043d": 21595, "\u00e8ve": 24893, "\u72b6": 29334, "\u043c\u043e\u043d": 21866, "\u2581PER": 22015, "comb": 17305, "obb": 17787, "\u2581nost": 19098, "\u2581vin": 18146, "\u2581levels": 6157, "\u5047": 30826, "\u0085": 31363, "\u2581manip": 13313, "\u2581neces": 24101, "\u1ee3": 29908, "\u2581Canad": 8544, "ifier": 3591, "odo": 11139, "Uint": 19901, "\uc131": 29465, "\u2581Nicholas": 22676, "j": 28768, "xd": 10044, "\u5e86": 31301, "\u2581colour": 11474, "\u2581Tow": 21906, "\u0430\u0440": 2362, "tons": 8901, "\u2581investors": 15104, "(\"%": 6996, "ulous": 9504, "ERY": 19369, "\u2581Bro": 4168, "\u2581Occ": 15819, "\u2581dok": 17941, "jer": 18900, "\u2581Published": 22837, "fur": 26711, "\u2581runs": 7825, "\u2581Story": 13689, "EST": 6839, "aal": 23639, "\u2581things": 1722, "\u2581aan": 6456, "!!!": 13915, "whe": 15831, "\u2581easily": 5061, "\u2581delicate": 21829, "each": 8365, "\u2581otto": 24127, "\u2581picking": 16029, "ierten": 18271, "\u2581Water": 8632, "eous": 25818, "\u2581\u0434\u0440\u0443": 8589, "\u2581replied": 8558, "\u2581Daniel": 8103, "\u03a7": 30438, "\u2581Ur": 11149, "\u6b0a": 31923, "Break": 17240, "\u2581subset": 19804, "\u2581H": 382, "ama": 2786, "\u2581restoration": 27243, "field": 2222, "vertex": 19251, "seg": 8111, "\u2581firmly": 19321, "\u03be": 29956, "\u2581Brow": 19332, "\u2581\u0434\u0432\u0438": 24410, "getNode": 25908, "\u2581had": 553, "ji": 3632, "\u2581repeat": 13750, "\u2581casino": 13638, "\u2581belie": 1989, "\u2581expanded": 14708, "\u2581tart": 19373, "\u2581ignoring": 22484, "\u2581\u0412\u0456": 23870, "hid": 26096, "\u2581affect": 5197, "\u2581\u041c\u0435\u043a\u0441\u0438": 27720, "\u2581Bot": 17174, "\u2581Fur": 8179, "\u2581diam": 10748, "unci": 14281, "\u2581Int": 4666, "\u2581Lat": 7402, "\u2581alliance": 26162, "\u2581aer": 21717, "\u2581w": 275, "REG": 5216, "\u2581Mo": 6885, "\u2581anyone": 3637, "Success": 11034, "Master": 16060, "Objects": 15142, "dal": 20576, "icip": 4363, "\u2581h": 295, "\u2581Blue": 8836, "\u0436\u0435\u043d\u0438\u044f": 17373, "\u2581Philadelphia": 15804, "\u2581entert": 19133, "\u2581LOG": 13930, "\u2581athlet": 14587, "\u2581murdered": 21304, "\u2581still": 1309, "\u2581enthus": 12374, "ACTIVE": 17740, "\u028f": 31575, "usage": 16052, "\u2581metadata": 11214, "\u2581Bew": 27459, "trim": 13484, "\u2581FUN": 28318, "Queue": 9583, "FAILURE": 21024, "\u2581herman": 27311, "\u2581\u0434\u0435\u0440\u0435\u0432\u043d\u044f": 28398, "Inline": 19034, "\uac00": 29135, "\u2581ze": 6797, "\u2581diagn": 12008, "\u2581cup": 6211, "\u2581\",\"": 28685, "\uff08": 29186, "\u5148": 29596, "\uc2b9": 31673, "\u65bd": 31360, "Su": 5173, "\u2581hasn": 11638, "Modified": 19288, "\u2581Reset": 21689, "\u2581closet": 23622, "arono": 20321, "gain": 23634, "\u2581inspire": 26649, "cloud": 8180, "\u2581Budd": 13772, "\u00e8": 28840, "\u2581standard": 4787, "emit": 12265, "\u2581Christmas": 7416, "ILE": 9316, "\u043b\u0438": 922, "\u2581challenging": 14361, "\u2581*)": 4491, "\u2581exem": 19997, "stick": 23277, "\u2581\u043c\u0430\u0439": 24827, "\u2581Commerce": 27535, "\uf0a7": 30624, "\u2581Bridge": 15050, "\u2581Sin": 11794, "omitempty": 15509, "helm": 15980, "\u2581Dance": 21015, "Project": 8216, "\u5fb7": 30371, "\u2581pregn": 10134, "\u6808": 30980, "estival": 6805, "\u2581jury": 19723, "\u4e25": 31871, "\u2581conservation": 21088, "\u2581Float": 27914, "async": 10869, "\u2581network": 3681, "aqu": 19424, "\u2581onde": 25747, "\u2581faire": 15349, "\u2581Glas": 22462, "\u2581Hamburg": 24608, "\u2581in": 297, "\u2581Albert": 12560, "\u044e\u0449\u0435": 19374, "\u2581DAG": 24821, "\u008c": 30536, "\u2581\u041c\u0438\u0445\u0430": 22887, "\"),": 3548, "\u2581Rober": 4542, "\u2581Army": 8094, "Slice": 21202, "STAT": 5974, "!)": 14280, "\u2581numpy": 25637, "\uc124": 30058, "tp": 8024, "\uc2e0": 30126, "\u2581mum": 27870, "agment": 6627, "stell": 11647, "\u2581Format": 18748, "none": 8607, "\u9700": 29259, "\u0446\u0435": 3876, "\u0b95": 29856, "\u2581Go": 3187, "\u2581Mot": 8854, "necess": 17172, "Ha": 26135, "\u2581cost": 2434, "\u2581relev": 26340, "cols": 23692, "\u2581philosoph": 8829, "\u00e9ri": 8909, "\u2581Schul": 21494, ";": 28745, "\u2581Dod": 22790, "\u2581delen": 24002, "\u6838": 30080, "\u2581of": 302, "Symbol": 9996, "\u2581smiles": 24733, "Phone": 11181, "\u2581preventing": 26031, "\u2581meditation": 23976, "\u2581dependent": 15365, "Err": 1534, "ocal": 15164, "\u2581templ": 5752, "\u0458\u0438": 11262, "\u2581pc": 16883, "acja": 22218, "arth": 3616, "\u2581fil": 1217, "\u2581slept": 18283, "\u2581continued": 5317, "\u2581idx": 12372, "\u0dbb": 31532, "\u2581SHALL": 27287, "\u2581AM": 10401, "\u2581devast": 19358, "\u2581darkness": 11691, "andid": 4225, "\u2581despu\u00e9s": 15757, "\u2581\u0441\u044b": 22395, "\u0463": 30350, "\u2581zd": 20133, "\u2581DO": 9317, "\u2581throwing": 15832, "\u2581hacer": 21581, "\u2581re": 312, "\u00e1b": 25657, "bid": 9679, "\u2581\u0440\u043e\u0437": 9355, "\u2581Suite": 25660, "\u2581Two": 6005, "\u2581regex": 22899, "\u2581might": 1659, "\u2581Some": 2909, "\u2581ear": 8120, "\u2581pu\u00f2": 28010, "=\"<?": 16294, "\u2581physics": 16173, "\u043b\u044b": 9674, "FAULT": 6864, "\u2581\u0440\u0430\u0441\u043f\u043e": 21168, "atrice": 23097, "\u2581strongly": 12287, "rent": 1114, "\u00e9rieur": 21641, "\u2581deutschen": 25996, "\u00bd": 29039, "\u2581eq": 12084, "\u2581versus": 17063, "eper": 7928, "\u2581Minor": 28394, "\u2581parameters": 5287, "\u2581cx": 26196, "\u2581blanket": 21434, "\u2581Tit": 9495, "Script": 6786, "\u4e14": 29958, "\u2581Either": 19551, "\u2581thickness": 28032, "RR": 8274, "\u2581garage": 16699, "rypted": 16632, "Appearance": 17977, "\u8207": 31138, "\u2581lect": 11774, "\ucc28": 30734, "\u2581Hi": 15359, "\u2581hij": 7174, "\u2581Bang": 13261, "\u2581surviving": 26248, "\u2581slaughter": 28623, "\u2581cars": 8300, "\u2581terminal": 17598, "perp": 21280, "\u2581What": 1824, "\u2581wider": 17525, "Loader": 11420, "\u2581ale": 12121, "\u2581Administration": 17186, "ribute": 1983, "skim": 21444, "\u2581grinned": 21489, "\u2581\u043d\u0430\u0441\u0435\u0459\u0435": 22350, "\u2581Kle": 14306, "\u2581Brian": 12569, "\u2581:=": 2137, "\ub0a8": 31183, "\u2581Wat": 12037, "mu": 2390, ".;": 19362, "\u2581la": 543, "\u2581spir": 14652, "\u2581chase": 26129, "\u2581Result": 6760, "Produ": 17448, "\u2581\u00e0": 1289, "nt": 448, "\u2581desc": 2283, "\u2581castle": 19007, "\u767c": 31046, "\u1ed1": 29741, "\u2581sword": 13443, "ropic": 25644, "lica": 24534, "\u2581n\u00e9": 8688, "Date": 3465, "\u2581\u0447\u0430\u0441\u0442": 20035, "\u2581Manhattan": 21638, "\u2581gathered": 13398, "\u2581matching": 11623, "rivial": 14805, "visit": 19090, "agger": 7109, "\u2581eliminated": 27546, "\u2581intellect": 11612, "Av": 9269, "\u2581challenged": 24730, "\u7c89": 31851, "\u2581\u0448\u043a\u043e": 19671, "ATA": 5854, "\u043b\u0438\u0447\u0438": 25843, "\u2581fest": 12649, "\u2581particle": 14988, "\u8bd5": 29592, "\u2581Central": 7993, "\u2581province": 14707, "\u2581graphic": 22693, "\u2581charg": 5441, "\u2581Muslim": 11258, "\u2581complex": 4630, "\u2581movies": 10615, "\u2581deutscher": 16765, "Layer": 10153, "\u2581poblaci\u00f3n": 20004, "ogle": 2721, "\u2581puzzle": 28071, "<0xD7>": 218, "\u2581eleven": 19806, "+\"": 12762, "eten": 14478, "rud": 16950, "term": 6590, "\u2581inches": 13352, "\u00e6r": 26384, "\u2581method": 2038, "\u2581inf": 4319, "\u2581engine": 4456, "emph": 7883, "jar": 13036, "break": 2876, "=[": 12303, "low": 9381, "Memory": 9820, "food": 18972, "\u2581testim": 16620, "bio": 20699, "\u2581accepted": 9008, "Operator": 13583, "\u2581Def": 4367, ".....": 24694, "\u2581]": 4709, "\u2581unfortunate": 27245, "\u2581lod": 19506, "mediate": 12597, "\u0450": 31773, "\u2581interests": 10299, "ounds": 4647, "\u2581pregnant": 15446, "\u2581Rosa": 25649, "\u2500": 28979, "\u2581census": 21254, "\u2581Better": 18862, "\u2581gras": 26517, "Link": 5119, "\u2581missed": 10012, "\u2581dramatic": 17296, "\u043e\u043b\u043e\u0433\u0438": 27100, "ode": 573, "\u2581Mah": 10947, "\u2581Ol": 7012, "\u2581does": 1235, "fter": 810, "Une": 18813, "\u202c": 30587, "\u2581campus": 14366, "\u2581position": 2840, "\u2581Van": 7647, "\u2581fuel": 10624, "\u2581Today": 8784, "\u043b\u0438\u0439": 17000, "run": 3220, "\u0441\u043e\u043c": 21323, "\u2581forests": 25770, "\u2581seem": 1709, "\u029f": 31665, "\u2581Ukr": 11712, "\u2581Hem": 21942, "\ud83c\udf89": 31862, "<0x12>": 21, "i\u00f3n": 1762, "\u2581define": 6600, "rick": 9450, "\u2581Scotland": 14322, "\u2581jet": 14471, "\u2581swung": 21701, "\u2581literary": 16956, "\u2581fleet": 17675, "\u2581influ": 4765, "Win": 13029, "SET": 4270, "\u2581database": 7499, "Current": 6086, "\u2581Polit": 8953, "prot": 16930, "\u2581Verein": 20017, "hyper": 23348, "\u2581Comments": 25493, "\u2581Hart": 13796, "\u2581THAT": 28083, "\u2581haber": 28349, "\u2581otherwise": 5860, "\\!": 24835, "ign": 603, "Person": 14787, "\u2581Oregon": 19301, "ungle": 22082, "ashi": 19915, "\u2581erh": 15455, "\u2581per\u00ed": 27601, "\u2581trigger": 8366, "\u2581smelled": 27594, "\u2581defeated": 16231, "utsche": 16083, "\u2581forced": 7207, "\u2581Agency": 18498, "\u0582": 30291, "\u2581Dal": 12732, "\u2581disappointment": 26820, "\u043f\u0456": 10620, "<0xFE>": 257, "\u2581Nep": 22127, "\u2581oder": 7765, "PHP": 24612, "\u2581\\": 414, "PI": 3110, "\u2581stom": 10442, "\u2581dar": 8448, "OT": 2185, "IGHT": 7614, "\u2581le": 462, "\u2581Au": 9779, "\u1f50": 30760, "\u2581resp": 10840, "\u2581entrepreneur": 23248, "\u2581utilizing": 28464, "\u0455": 30273, "\u2581longer": 3774, "\u4ecb": 30739, "\u2581cam": 3730, "\u2581stor": 20945, "cho": 2415, "Execute": 17715, "\u2581Rena": 25102, "\u2581balls": 16852, "ira": 4807, "fony": 22480, "\u2581Poly": 21493, "ORS": 13520, "\u5165": 29048, "idas": 12563, "independ": 26982, "\u2581racist": 19139, "\u2581unique": 4842, "*-": 13725, "Form": 2407, "\u0679": 30634, "sr": 13489, "\u2581WA": 26279, "execute": 11095, "inction": 15012, "..": 568, "\u2581\u0441\u0435\u043d\u0442\u044f\u0431\u0440\u044f": 25803, "\u2581break": 1721, "\u2581enjoyable": 26104, "\u2581differences": 11090, "\u2581Head": 9655, "\u2581Change": 13204, "sex": 12396, "\u2581argue": 13391, "\u2581combinations": 26350, "abama": 19006, "\u73af": 29887, "\u0442\u0435\u0440": 8900, "Dan": 25314, "\u2581meter": 14386, "\u2581libre": 27922, "\u2581Liberty": 27370, "\u2581space": 2764, "\u2581worst": 8748, "\u2581mill": 2545, "\u2581Bit": 11014, "\u2581n\u00fa": 16248, "\u2581property": 3321, "\u2581HTTP": 13844, "\u2581figured": 14775, "Sent": 26968, "\u2581Beat": 17618, "\u2581earning": 25290, "pliers": 18403, "\u2581heute": 21602, "\u2581Es": 6177, "\u043a\u0432\u0430": 23476, "\u6062": 30999, "\u02c6": 31447, "Server": 5334, "alone": 25179, "\u2581authority": 9637, "\u2581predomin": 27283, "\u2581attended": 12359, "a\u0142": 3862, "\u2581byte": 7500, "release": 11023, "mathbb": 2916, "\u2581\u0432\u043e\u0439\u043d\u044b": 24651, "out": 406, "\u2581mystery": 17492, "\u2581unsafe": 15426, "\");\r": 6913, "\u2581\u043f\u043e\u043b\u043e": 17996, "env": 4227, "\u2581Support": 10731, "$(\"#": 26690, "\u2581curriculum": 25763, "\u2581med": 1342, "aug": 11614, "\u2581LGBT": 28400, "\u2581Jenny": 25785, "\u2581europ": 22028, "\u2581garden": 8759, "\u2581Quebec": 27798, "indices": 20390, "t\u00f3": 9709, "\u552e": 30917, "\u2581pa": 5881, "\u2581presentation": 14909, "\u2581Arthur": 12185, "WE": 6631, "\u2581Fl": 2494, "atro": 12094, "<0x27>": 42, "idden": 4131, "\u2581rep": 1558, "INSTANCE": 25956, "\u2581Contact": 12603, "MBOL": 16532, "\u021b\u0103": 25055, "ann": 830, "\u2581Consider": 11772, "ish": 789, "indow": 1511, ">/": 23211, "\u2581rational": 15202, "\u0126": 31992, "\u043a\u0440\u0438": 17072, "HAND": 15592, "zenia": 19716, "\uc600": 31958, "\u1d00": 31093, "\\\",": 22334, "\u2581peut": 12122, "itarian": 17463, "pod": 16339, "message": 1324, "\u2581Jeremy": 24251, "Signature": 19299, "DIS": 9385, "\u2581\u0417": 3940, "\u2581constraints": 14841, "\u2581disco": 20962, "\u2581pets": 24642, "\u2581Welcome": 19417, "\u0434\u043d\u043e": 14368, "Proc": 20662, "textit": 10162, "\u2581Another": 6880, "\u039b": 30043, "itsch": 22158, "interpret": 16789, "wards": 2686, "upiter": 23770, "++)": 3073, "\u2581cand": 13931, "\u2581tak\u017ce": 25717, "\u2581company": 2496, "alloc": 4924, "ieren": 11958, "indexOf": 14414, "\u2581typically": 9566, "ationale": 28381, "\u2581\u0441\u043b\u0435": 14208, "\u2581people": 905, "\u2581concepts": 16582, "ament": 1686, "\u2581bas": 2388, "\u2581nod": 5460, "\u2581White": 5673, "\u2581Mediterr": 23611, "\u2581\"{": 25002, "False": 6995, "aller": 7590, "\u2581mature": 19798, "\u2581blast": 23096, "\u2581functional": 14573, "otherapy": 27843, "\u2581earlier": 5585, "\u0442\u0430": 946, "memset": 21253, "\u2581independently": 22973, "\u2581wide": 5335, "?:": 4394, "framework": 6970, "\u2581young": 2518, "\u2581variable": 7860, "\u2581enum": 10873, "\u045a\u0430": 15857, "CAM": 21480, "\u2581strlen": 19817, "emos": 24852, "\u2581l\u00e0": 26941, "\u2581\u0438\u0441\u0442\u043e": 13196, "OPTION": 18180, "\u179c": 31412, "\u2581Manuel": 20761, "icked": 13371, "\u8cc7": 30232, "cf": 10037, "lene": 28621, "\u2581universities": 21356, "\u2581\u0432\u043e\u0437": 11235, "\u2581Haupt": 16730, "\u2581\u0445\u0430": 19539, "\u2581NA": 20258, "CONTEXT": 27181, "\u5237": 30426, ">?": 23911, "\u2581individual": 3235, "\u2581companion": 19377, "\u2581Kim": 10791, "grow": 20621, "\u2581\u0434\u0435\u0440\u0435": 15902, "Pers": 13603, "generic": 19105, "\ud83d\udc9c": 31762, "hello": 21558, "pk": 16270, "\u2581Element": 11490, "\u2581das": 2846, "idade": 8669, "ored": 2455, "Tags": 14283, "\u2581established": 6740, "olation": 21570, "\u2581Sue": 22516, "*{": 21599, "uff": 1292, "\u2581Sul": 19604, "\u2581\u0442\u043e\u0433\u043e": 18150, "\u60f3": 30023, "+\\_\\": 25471, "addle": 14539, "train": 13641, "\u2581io": 8665, "<0xDC>": 223, "\u2581tell": 1912, "\u2581Stuart": 23733, "\u2581defense": 9968, "\u2581dwell": 28034, "orsch": 18952, "hos": 22848, "woman": 24132, "actual": 15141, "\u2581gol": 20918, "\u2581correction": 22561, "\u2581displ": 13420, "aus": 1899, "\u2581msg": 7070, "mma": 19634, "\u2581fo": 12459, "ahren": 18657, "Blo": 28107, "\"></": 5828, "\u2581luck": 6576, "<0xC6>": 201, "\u2581Pool": 23702, "defined": 11498, "\u2581Professor": 11962, "\u2581foot": 3331, "nov": 20920, "Capt": 24649, "\u2206": 31037, "ned": 12097, "\u2581Dest": 14466, "\u2581Tests": 25810, "\u2581catalog": 18255, "\u7ad9": 29992, "::<": 23015, "ilib": 16728, "\u2015": 29370, "\u4f3c": 30694, "leep": 3109, "lique": 19438, "\u2581header": 7735, "STATUS": 8186, "\u2581Jake": 18742, "\u2581Meet": 23859, "\u2581Fitz": 21107, "\u2581Pack": 11676, "\u2581\u0141": 23181, "\u2581Jordan": 14151, "\u2581sudden": 5302, "Gui": 12268, "\u2581focuses": 21165, "\u2581address": 2962, "\u0544": 31863, "\u2581pace": 13681, "\u2581K\u00f6n": 15958, "\u2581Charlotte": 16461, "\u2581plural": 26001, "\u05d5": 29006, "\u8f49": 31623, "oral": 10801, "transition": 19655, "\u043e\u043b\u043e\u0432\u0456": 27496, "ii": 2773, "ensing": 18130, "\u2581Ian": 17311, "\u0447\u0451\u0442": 27380, "REC": 23514, "\u2581destroy": 6665, "\u2581initialize": 15267, "\u00cd": 29107, "\u2581slow": 3944, "\u2581Systems": 17259, "\u2581Gand": 24414, ")--": 20560, "nings": 24200, "iNdEx": 25900, "\u2581abortion": 22907, "\u2581Jean": 6719, "\u2581Whe": 6738, "ILD": 14010, "Cart": 17057, "\u4ee5": 29074, "\u2581July": 4398, "\u00e1rio": 17763, "Fail": 10733, "\u0432\u043e\u043c": 18653, "law": 10656, "Usage": 16200, "ector": 3776, "\u0441\u0443\u0434\u0430\u0440": 16747, "\u2581shake": 17138, "\u2581\u0441\u0432\u0435": 26250, "\u2581rem": 1003, "\u7d20": 29555, "Same": 18462, "\u2581Sum": 6927, "\u0109": 31962, "\u2581targets": 13728, "\u2581`${": 22468, "\u2581super": 2195, "\u2581hold": 2400, "\u043b\u0435\u0432": 28110, "\u1f10": 30414, "\u2581WIT": 6626, "\u2581spectrum": 12066, "\u0441\u043b\u0443": 16467, "abol": 21530, "intage": 21153, "\u2581character": 3233, "\u0300": 29891, "products": 20042, "\u2581drew": 11547, "\u2581Baker": 19803, "\u2581mathemat": 16872, "erc": 3773, "estyle": 13030, "\u2581accord": 13246, "\u0440\u043e\u0439": 11835, "#{": 16775, "lagen": 21463, "\u2581HA": 16450, "~\\": 2658, "Dynamic": 18202, "\u2581vac": 7255, "agers": 9535, "\u2581internet": 7865, "\u2581olive": 24403, "\u0426": 28928, "payload": 13643, "\u2581Oh": 5434, "\u2581Madrid": 14334, "\u2581fit": 4646, "\u2581split": 7925, "\u2581arranged": 15945, "\u0441\u0442\u0435\u0440": 16487, "\u2581surround": 6525, "\u2581immigrants": 22475, "\u98db": 31765, "\u2581nomin": 22645, "arettes": 27015, "Sources": 27105, "\u2581disc": 2312, "using": 8521, "\u2581concerns": 10864, "gb": 15881, "FORMAT": 14947, "\u2581unlike": 15343, "\u043a\u043b\u0430": 7847, "approx": 14561, "ommen": 18902, "\u2581explored": 26761, "omorphism": 19906, "\u2581porch": 22252, "issue": 11681, "\u2581v\u00e9": 20249, "dating": 19196, "\u2581\u0434\u0440\u0443\u0433\u0438": 14365, "\u2581likewise": 24963, "\u2581resur": 28308, "\u2581Collins": 21191, "emat": 16633, "chen": 1839, "\u2581\u041f\u0438": 21540, "<0x48>": 75, "DOT": 24565, "\u2581lies": 10427, "Warning": 16185, "\u1f08": 30966, "\u2581sending": 10313, ",\"": 862, "acia": 12990, "\u2581designer": 15914, "\u2581Jam": 11776, "rec": 3354, "\u043c\u0438\u0438": 18551, "\u2581\"@": 14604, "\u57f7": 31996, "\ud83e\udd7a": 31816, "making": 14727, "Rob": 22268, "emen": 15295, "\u30d3": 30385, "\u2581different": 1581, "pay": 6762, "imper": 27689, "\u512a": 31743, "\u2581resistance": 12568, "Decimal": 16682, "inian": 19628, "\u0437\u044b": 7763, "\u2581saved": 8686, "\u2581Ac": 4868, "Xml": 9911, "IFT": 15688, "\u2581\u043d\u0430\u0441\u0435\u043b\u0435\u043d\u0438\u044f": 23031, "autre": 25538, "\u2581six": 3522, "eland": 13942, "\u2581Pow": 14326, "\u2581Storm": 21281, "\u2581gr\u00f6\u00df": 22707, "\u8f74": 30788, "\u2581incons": 25331, "\u2581Cann": 25535, "scal": 19040, "oi": 3950, "\u2581Del": 5526, "\u2581conve": 18301, "\u2581hyper": 11503, "i\u00f3": 1310, "\u2581Guerra": 21913, "\u8f6c": 29357, "\u2581true": 1132, "\u2581tops": 27259, "__.": 21149, "gender": 24024, "func": 4396, "work": 1328, "\u2581nue": 12467, "\u0430\u043b\u0438": 17816, "leg": 1946, "\u2581Mur": 7423, "\u2581iteration": 23113, "nost": 10108, "<0x9B>": 158, "Pad": 17117, "Submit": 19832, "\u2581revenge": 25824, "\u2581kg": 11455, "\u2581abilities": 17866, "clusive": 21981, "illance": 22740, "\u2581nineteenth": 24078, "\u2581ful": 4464, "=\\\"": 9047, "\u2581(_": 9453, "\u0442\u0432\u0430": 22868, "\u2581\u2581\u2581\u2581\u2581\u2581\u2581\u2581": 273, "tty": 3003, "asso": 23605, "tooltip": 23866, "\u5fd8": 31763, "\u2581wp": 18495, "olent": 26346, "\u0107": 28900, "cept": 1358, "\u2581shared": 6431, "enario": 22786, "vm": 4332, "okrat": 27765, "Pending": 18826, "reek": 6857, "<0x96>": 153, "\u2581pre": 710, "\u2581hem": 14492, "peonato": 19687, "inject": 25410, "\u2581Sub": 5078, "enum": 10057, "\u0427": 28909, "\u2581influence": 8015, "\u2581Bent": 22094, "\u2581Netflix": 25606, "\u2581pok": 16004, "\u4f53": 29337, "erm": 858, "\u2581Villa": 21192, "\u6279": 30335, "^^": 13958, "\u2581cous": 13146, "='": 2731, "owned": 19589, "{{": 6652, "\u2581occur": 5264, "velle": 17348, "\u2581Federation": 22520, "\u2581Julian": 23566, "\u2581Mont": 5684, "rown": 3329, "ONG": 10962, "\u2581grocery": 24811, "LET": 25870, "\u2d59": 31733, "\u2581medio": 27912, "\u2581etwa": 16588, "etheless": 19159, "enn": 2180, "\u2581Din": 20325, "ancellationToken": 26217, "\u4ea7": 29818, "\u7d2f": 31719, "ferred": 9497, "\u0399": 29864, "\u2581pag": 10913, "Optional": 15115, "\u2581Hugo": 24875, "\uc874": 31025, "ITH": 16919, "\u2581s\u00f3": 25119, "\u2581cry": 7843, "\u2581Estados": 16737, "ize": 653, "xspace": 15372, "\u2581verified": 25301, "secut": 8765, "Intern": 18531, "\u2581eggs": 14636, "\u2581victory": 11115, "rie": 3552, "\u2581rac": 6567, "\u2581referring": 18723, "\u9322": 31266, "\u2581pit": 11265, "\u2581TV": 5046, "\u2581reviewed": 23282, "\u2581Este": 20586, "\u2581alternative": 9285, "\u4e8e": 29160, "\u2581wound": 10063, "gew": 16539, "\u2581PC": 9596, "\u65e9": 31121, "\u2581Refer": 25958, "ato": 1827, "\u5fa9": 31711, "\u2581cheese": 13628, "\u2581reflected": 17222, "}]": 10157, "anes": 8782, "\u2581\"../": 15835, "perform": 28340, "tax": 16019, "lection": 1784, "\u2581Gallery": 16597, "GT": 14979, "ULAR": 12103, "figure": 4608, "\u2581lieutenant": 26219, "ionen": 23613, "\u2581\u0431\u044b\u043b": 7593, "\u2581western": 12772, ";\\": 8511, "agent": 14702, "emente": 16475, "\u665a": 31671, "\u0440\u043e\u043c\u0430": 25867, "Mar": 7308, "\u06d2": 30522, "\u2581Buenos": 25862, "\u2581\u0430\u043f\u0440\u0435\u043b\u044f": 26582, "agu": 12736, "\u2581associ": 3509, "\u2581creep": 23691, "Sensor": 26233, "iones": 4639, "oard": 20446, "::_": 21312, "\u2581django": 24848, "\uc6d0": 29816, "\u2581reduces": 21123, "\u2581\u2581\u2581\u2581\u2581\u2581\u2581": 5390, "^\\": 4217, "\uc77c": 29415, "PO": 3402, "\u2581passed": 4568, "<0x2E>": 49, "\u2581gam": 11129, "Generic": 9115, "Par": 3916, "Prev": 26757, "\u2581Ed": 2690, "assen": 16044, "\u2581rim": 16264, "\u2581Esp": 10576, "=\"\"": 19164, "\u2581spect": 5203, "\u0456\u0441": 14793, "array": 2165, "router": 15125, "url": 2179, "\u2581Wed": 7842, "\u2581initiatives": 25060, "\u2581Desc": 18869, "\u2581psychiat": 26210, "\u2581Aw": 21960, "\u2581logger": 11813, "\u2581Paulo": 22149, "\ud50c": 31286, "\u2581slave": 13890, "Checked": 19154, "used": 3436, "nn": 9472, "TagHelpers": 21399, "\u2581MO": 9875, "\u00e4ter": 13201, "mitted": 10286, "MR": 16226, "\u2581kar": 14504, "AG": 2377, "\u2581expectation": 21859, "\ub54c": 30178, "\u2581independ": 5060, "Db": 13171, "_{(": 17839, "\u2581erano": 24882, "best": 13521, "\u2581potential": 4628, "\u2581scripts": 26304, "]),": 11501, "\u2581perturb": 19063, "\u2581completed": 7368, "sol": 22501, "\u2581chapter": 10661, "\u2581\u043f\u043b\u0430": 12454, "Div": 12739, "failure": 23973, "\u2581\u2198": 25506, "\u798f": 30511, "iber": 3858, "\u2581Nam": 16908, "ARY": 10713, "Ids": 11307, "FILE": 7317, "Trans": 3131, "dot": 7623, "\u2581pint": 20453, "ienen": 20597, "\u2581transition": 8265, "\u099c": 31220, "NC": 9419, "\u2581hallway": 23655, "\u6e38": 30239, "\u2581argument": 5270, "Drag": 18383, "\u2581Trib": 18911, "\u09a8": 29811, "\u2581strike": 12104, "TextBox": 27828, "finity": 19104, "\u2581CRC": 20731, "\u2581remembering": 26036, "(()": 10289, "default": 2833, "\u2581{}\",": 26695, "\u2581Sugar": 27333, "\u0440\u0435\u043c\u0435\u043d": 20546, "\u2581j\u00e1": 24774, "\u2581FE": 21121, "chestr": 26844, "\u2581Area": 14488, "ained": 1738, "\u4f86": 30425, "<0x6E>": 113, "osity": 24879, "ptember": 3666, "\u2581keeping": 7603, "mount": 13022, "\u2581albums": 19888, "ambda": 2566, "rijk": 23192, "\u2581renown": 27556, "\u2581favour": 10392, "\u2581Monday": 9262, "\u2581Ist": 25370, "etc": 20477, "\u2581Yes": 5592, "anner": 7041, "\u2581Tun": 22756, "ould": 474, "\u2581Ralph": 23373, "ASC": 27323, "\u2581practical": 11118, "\u121d": 31798, "\u9664": 29153, "\u2581seiner": 11366, "rh": 28352, "\u2581\u043a\u0443": 9997, "\u2581Grant": 14301, "\u2581recognised": 28549, "\u2581Brit": 3262, "\u2581upon": 3714, "\u2581&=": 6501, "ursday": 10465, "\u2581detect": 6705, "Manager": 3106, "\u2581Moses": 26625, "tl": 9563, "ill": 425, "\u2581\u0442\u0435\u043b\u0435": 21094, "\ub824": 30710, "\u9ede": 30718, "\u2581frequencies": 27905, "\u04bd": 31932, "udge": 24763, "\u2581Exchange": 21162, "\u522a": 31668, "ansion": 8163, "rupted": 17488, "\u2581feature": 4480, "\u2581buddy": 26123, "bc": 12286, "orage": 3374, "\ud83d\ude01": 30707, "<0xF3>": 246, "zer": 3506, "\u2581jQuery": 12257, "Plus": 22886, "\u2581JavaScript": 26281, "\u0431\u043e\u043c": 26367, "\u2581cognitive": 25746, "\u2581Marvel": 26696, "\u4eca": 30316, "\u2581comprehens": 12957, "\u2581sacrifice": 19480, "\u2581fir": 12621, "\u2581anderem": 28656, "\u120d": 31741, "BL": 8152, "<0x98>": 155, "\u2581Os": 9449, "\u5cf6": 30418, "\u2581functionality": 20289, "\u2581\u0432\u0441\u0435": 10780, "\u2581coefficients": 19955, "\u2581beans": 21886, "android": 9498, "\u2581dep": 5179, "\u2581surgery": 13301, "\u2581Index": 12348, "hub": 21230, "\u2581accompl": 9605, "WM": 19356, "\u30b6": 30362, "\u2581roku": 6739, "nodes": 12333, "wallet": 23673, "\u2581{@": 4958, "\u0442\u0430\u043b\u044c": 16301, "acs": 23416, "ications": 10399, "\u2581Strong": 23516, "HP": 22106, "DC": 6513, "selected": 9300, "<0xD9>": 220, "getClass": 21661, "vel": 959, "enez": 14936, "Require": 22975, "\u2581\u044f": 3806, "\u2581ske": 11749, "\u2581\u0424\u0438": 18187, "\u2581residential": 18350, "sil": 22585, "\u2581Time": 5329, "tto": 27099, "\u2581NULL": 1952, "ismus": 20870, "\u4f8b": 29362, "\u2581\u0441\u043a\u043e": 27999, "\u0575": 30428, "\u1785": 31032, "\u2581stat": 765, "\u2581Max": 5824, "\u2581Corpor": 9764, "hf": 26990, "\u2581learning": 5168, "curs": 14185, "\u0442\u0435\u0442": 22811, "DA": 5569, "uman": 6366, "\u2581events": 3926, "\u2581Est": 3978, "\u2581replacement": 13905, "uction": 15029, "*),": 9151, "olate": 19807, "\u9650": 29436, "\u2581unless": 6417, "\u2581\u043e\u0442\u0440\u0438": 27538, "tre": 4110, "BP": 9399, "\u2581\u043f\u0440\u043e\u0446\u0435": 23146, "\u2581pen": 4969, "\u2581Gold": 5792, "\u2581representation": 9283, "<0x62>": 101, "\u2581sir": 10116, "submit": 13816, "\u2581biologie": 17149, "Sprite": 22473, "\u2581Beg": 25572, "\u4eea": 31842, "imp": 10750, "\u0434\u044b": 7390, "\u2581accomplish": 17700, "Del": 9489, "Dict": 16840, "\u2581knowledge": 4788, "\u2581Ci": 16896, "\u2581lyrics": 22583, "\u2581Companies": 27839, "arith": 28422, "\u2581Setting": 23433, "\u2581Choose": 21815, "evel": 3443, "\u2581wouldn": 4048, "anter": 27513, "\u2581Recent": 27727, "\u2581cats": 18097, "\u2581wheels": 19876, "Hard": 23226, "Vel": 24351, "csv": 19197, "\u2581\u043b\u044e": 12566, "\u2581brass": 27042, "liter": 24477, "\u7f6e": 29021, "\u2581\u0447\u0442\u043e": 7061, "\u2581fishing": 15189, "\u2581L": 393, "\u2581profiles": 19727, "\u2581sweep": 27274, "imir": 20226, "\u2581suggesting": 20223, "te": 424, "!\u201d": 14569, "priority": 20762, "nent": 21846, "\u2581features": 4190, "rn": 27094, "\u2581treasure": 25496, "ser": 457, "ilis": 26543, "\u2581contro": 10184, "A": 28741, "eps": 2671, "\u2581users": 5443, "itz": 4334, "should": 6716, "Camera": 16521, "\u2581wiped": 23410, "\u2581expansion": 11120, "Assign": 23572, "\u043f\u0430\u0434\u0430": 18489, "lar": 15027, "\u2581\u0434\u043e\u043c\u0430": 21807, "}^{\\": 6928, "\u00fat": 24043, "porte": 24095, "\u2581programa": 25698, "\u67d3": 30623, "\u2581subst": 11381, "mux": 27884, "\u2581come": 1567, "?\u201d": 10584, "\u2581laughed": 9672, "\u2581Quest": 11657, "\u2581plot": 9242, "lisher": 14970, "Rev": 11165, "\u2581clicking": 24675, "erts": 9916, "\u2581Smart": 17285, "('./": 21093, "stra": 6781, "jections": 19102, "oly": 20055, "\u2581oblig": 9483, "\u2581obligations": 26405, "\u2581isolated": 18545, "\u2581industry": 4779, "\u0441\u043a\u043e\u043c": 9330, "\ud56d": 30968, "\u5b97": 31071, "\u2581void": 1066, "dist": 10295, "fen": 16926, "\u2581[\u2026]": 22819, "\u2581influential": 24609, "\u2581oct": 9541, "\u2581Ez": 23963, "ulated": 6432, "\u2581updates": 11756, "\u2581principles": 13818, "\u2581fing": 6634, "pless": 19898, "nant": 19352, "\u2581built": 4429, "\u2581ital": 9126, "\u2581Policy": 13077, "raf": 3976, "zione": 9826, "ificaci\u00f3n": 28369, "\u2581Meanwhile": 14874, "\u8be2": 29348, "\u2581sa": 637, "\u2581\u00e4r": 3554, "transl": 21175, "jev": 24896, "wb": 26078, "\u2581Mask": 23919, "\u2581accepts": 26223, "feld": 15727, "\u0441\u0442\u043e\u044f": 10185, "ometer": 11598, "\u2581\u043e\u0431\u044a": 18661, "angu": 2374, "\u00f6n": 5438, "\ub09c": 31876, "\u2581ya": 10129, "\u2581undefined": 6176, "ni": 3023, "\u2581Bras": 13481, "\u2581comb": 3006, "\u2581rug": 13644, "glas": 15611, "\u2581Alf": 11050, "\u2581ble": 8012, "\u2581teles": 24499, "colm": 28425, "\u2800": 29489, "DIP": 24090, "\u2581Append": 20206, "\u2581staff": 5084, "\u2581broader": 25941, "atal": 3196, "\u2581trans": 1203, "\u2581Portland": 23732, "\u2581analyst": 22275, "\u2581distinction": 20677, "?)": 15009, "\u2581continuous": 12734, "\u2581Atl": 7751, "\u2581cinema": 22905, "\u2581reality": 6940, "\u2581guidance": 15988, "\u2581Chart": 16923, "\u00e9ho": 12689, "\u2581filtered": 25028, "\u2581selbst": 22347, "\u2581brutal": 23736, "oute": 3241, "\u2581Start": 7043, "\u2581neighbor": 7422, "\u2581\u043a\u0438": 12902, "\u2581awareness": 13619, "\u2581mobil": 24622, "\u042f": 28937, "expression": 15848, "ctr": 12017, "elly": 9985, "\u2581Episode": 24772, "tasks": 21128, "\u2581ops": 23002, "\u2581\u0433\u043e\u0440\u043e\u0434\u0430": 22316, "acter": 2441, "equiv": 13220, "Sun": 28524, "\u2581fold": 10068, "akter": 24282, "elled": 6099, "Validate": 19418, "\u2581Sus": 9167, "LL": 5292, "oft": 24485, "Large": 27408, "\u2581mb": 20137, "ising": 2979, "ulsion": 24032, "His": 21860, "\u2581utilis": 25090, "Offset": 5130, "\u2581profound": 19327, "\u2581ANY": 5788, ".');": 27148, "\u2581productive": 22779, "\u2581meaningful": 19258, "\u2581reinforce": 25234, "asi": 8608, "\u0e1c": 30416, "\u0421\u0421\u0420": 18140, "\u2581categories": 13187, ")}$": 16016, "\u2581south": 6287, "\u2581While": 4023, "\u2581pink": 12937, "\u2581fed": 15441, "Cut": 27724, "\u2581surv": 5231, "\u83dc": 30038, "expected": 7398, "BIT": 8170, "\u2581compact": 12424, "\u2581memories": 12607, "\u2581pa\u00eds": 18976, "ingo": 20837, "Apr": 27754, "gow": 22439, "\u2581Par": 2316, "LIED": 19829, "\u76f4": 29589, "tmp": 4964, "\u2581alpha": 15927, "\u2581efficiently": 23463, "\u2581feeding": 20525, "(\".": 15560, "\u2581EC": 21405, "Views": 24252, "ulously": 26344, "\u2581\u0160": 13688, "\u2581Universit\u00e4t": 24290, "\u2581Ark": 17965, "Relative": 26423, "\u2581migr": 11205, "\u2581React": 8171, "GS": 17580, "\u2581IS": 3396, "agne": 8998, "urn": 453, "\u2581synchron": 14941, "\u2581Thread": 16286, "\u2581Chall": 15239, "\u2581soup": 18851, "Creation": 27708, "\u2581convinced": 13746, "\u2581ignorance": 27627, "i": 28710, "\u7f57": 30767, "buf": 2596, "\u2581high": 1486, "\u2581Home": 6434, "\u2581callback": 6425, "adelph": 14255, "othy": 18478, "GENER": 26010, "yg": 9690, "beat": 16890, "\u2581regulations": 15885, "\uc120": 29900, "InputStream": 16026, "\u2581accomplished": 20141, "\u2510": 31175, "iser": 7242, "\u2581=": 327, "But": 2438, "stein": 6559, "\u2581representing": 14030, "\u2581lawsuit": 28674, "\u2581cater": 22250, "\u5176": 29450, "}&": 22601, "\u2581\u043e\u0431\u043e": 17430, "\u2581(!": 1661, "Good": 10604, "\u013d": 30833, "cache": 5319, "\u2581sim": 1290, "acio": 19867, "\u2581PG": 27793, "\u62ff": 31191, "ude": 987, "\u2581shelf": 22895, "Resolver": 16695, "Servlet": 13588, "GF": 24390, "index": 2033, "\u2581automatically": 10226, "component": 7451, "\u2581sections": 12458, "Category": 9633, "hib": 4944, "eve": 21111, "toggle": 13615, "\u0441\u0441": 13847, "\u05b4": 30225, "atore": 11437, "sym": 11001, "\u2581agencies": 15467, "me": 1127, "\u2581u": 332, "'),": 4829, "\u0936": 30432, "\u2581headed": 11256, "\u2581handful": 18303, "\u2581sear": 15321, "\u2581Edge": 22472, "\u2581Article": 20108, "\u2581Eg": 22684, "\u2581\u0418\u0441\u0442\u043e": 19702, "\u2581Adam": 10534, "\u0e43": 30096, "\u2581owe": 27047, "\u2581press": 2944, "\u2581\u0431\u0438": 8843, "l": 28714, "thrift": 25551, "ensors": 28598, "\u2581\u043a\u043e\u043c\u043f\u0430": 20776, "\u2581individ": 3004, "Met": 4680, "\u2581imagination": 16842, "\u2581FM": 23586, "\u044e\u0447\u0438": 23975, "\u00e4nger": 22436, "\u2581thr": 6955, "\ud83d\ude06": 31021, "By": 1930, "pr\u00e9s": 12180, "\u2581pain": 3358, "\u2581evolved": 23615, "\u2581\u0441\u043e\u0441\u0442\u0430": 24285, "\u2581Wow": 24527, "\u2581shower": 13164, "\u2581hire": 15270, "LENGTH": 17307, "\u2581ost": 19862, "\\{": 11873, "fact": 22313, "\u2581Oklahoma": 23565, "\u2581killed": 5582, "\u2581repo": 27716, "\u2581oscill": 21068, "\u2581Sal": 4902, "\u2581shorts": 27365, "ipp": 15953, "Was": 22648, "\u2581manage": 8594, "\u5bab": 31785, "up": 715, "\u2581files": 5373, "owy": 13344, "\u0c02": 31548, "\u2581among": 3352, "aken": 2589, "liv": 20362, "itan": 11374, ">{@": 22084, "\u2581prov": 1130, "\u2581speakers": 20872, "\u2581pol\u00edt": 14429, "Visitor": 24796, "\u2581arena": 24059, "Context": 2083, "Scheme": 23171, "[": 28792, "\u2581witnessed": 24385, "efined": 4761, "\u2581guides": 25146, "----------": 16417, "\u56fa": 30657, "\u2581reject": 9198, "\u4efd": 30090, "\u2581scientists": 15067, "\u043c\u0435\u043d\u0438": 16938, "\u09bc": 30990, "Parser": 8323, "\u1f41": 31528, "ARGS": 27715, "[])": 21577, "\u2581bright": 6833,
[...]
