{"Encoding": 19077, "\u2581\u043e\u043f\u0435\u0440\u0430": 24889, "\u0e47": 30497, "bootstrap": 19453, "\u2581Imagine": 22031, "\u2581Management": 9466, "\u2581No": 1770, "\u2581Mess": 13976, "Tor": 22059, "\u2581dispatch": 14323, "\u2581select": 5339, "RA": 5244, "\u9009": 29216, "Map": 2446, "forming": 23738, "\u2581contin": 1710, "\u2581TEXT": 25775, "\u2581effort": 4261, "\u2581veter": 13000, "red": 893, "bidden": 20350, "\u2581wildlife": 28043, "\u308b": 29116, "\ud83d\udfe1": 30770, "Compare": 22095, "bian": 18632, "\u2581historian": 24131, "\u2581Request": 11516, "\u2581restricted": 19021, "dtype": 18921, "\u2581getting": 2719, "smart": 19914, "\u2581participate": 14092, "\u2581nicht": 6227, "\u2581Prior": 20844, "\u2581implementation": 9786, "task": 5553, "\u2581thoughts": 7403, "\u2581spirit": 5838, "\u2581manifest": 11052, "\u2581twice": 8660, "\u2581hub": 14546, "}+\\": 13582, "pieler": 24854, "\u67e5": 29110, "policy": 10970, "ako": 7050, "\u2581hill": 12254, "\u95f2": 31929, "\u2581TODO": 9420, "\u2581pat": 1908, "\u2581faith": 7152, "\u2581maid": 23408, "\u2581Andr": 27501, "\u2581ske": 11749, "\u2581Queens": 19689, "\u0447\u0435": 1696, "\u2581Liz": 24044, "mates": 15123, "\u2581sta": 20295, "work": 1328, "esome": 9263, "\u2581toes": 27504, "\u2581sizes": 13282, "channels": 16335, "pute": 8145, "\u2581Bird": 18213, "\u2581todo": 12585, "umped": 19999, "projects": 21080, "\u2581fence": 17210, "\u2581portion": 11580, "\u1e63": 29606, "\u2581trials": 19993, "Stmt": 20471, "\u2581Pom": 19015, "\u50a8": 30180, "\u96e2": 31846, "transport": 19645, "\u2581::": 6210, "\u2581Une": 16035, "skiego": 17983, "\u2581FR": 27790, "\u0449\u0430": 6770, "\u2581Diana": 24728, "\u2581suffered": 12847, "ogram": 11777, "\u2581sky": 7212, "\u2581humanity": 17676, "\u2581Bren": 28194, "\u53f8": 29989, "\u2581registration": 14409, "tik": 21573, "()\r": 9962, "\u2581pero": 9841, "UserId": 19276, "Comput": 21293, "\u2581glance": 15853, "\u2581denomin": 27876, "<0x92>": 149, "\u2581liked": 8232, "\u2581stolen": 18318, "eca": 19296, "\u6765": 29263, "\u043b\u0435": 1125, "<0xA4>": 167, "tal": 16000, "lers": 8531, "\u2581value": 1192, "\u2581Mach": 16290, "\u2581Naval": 25982, "armed": 22508, "SIG": 26956, "\u5177": 29737, "\u2581vegetables": 19045, "\u2581Freedom": 22429, "\u2011": 29694, "\u5373": 29898, "amente": 3958, "RC": 6860, "ogen": 8371, "\u2581Those": 8827, "GC": 9389, "<0x00>": 3, "\u2581this": 456, "\u2581birthday": 12892, "\u2581external": 9354, "\u2581ONE": 26071, "\u2581Charles": 6427, "\u2581Hillary": 27584, "ylvania": 14194, "ORDER": 20938, "Bi": 27405, "\u2002": 31184, "\u2581tipo": 19054, "\u2581builder": 9346, "Since": 24091, "\u2581partner": 6977, "large": 16962, "\u2581Fern": 10830, "\u2581sovere": 24819, "\u2581blanc": 28609, "\u2581entrance": 12675, "undef": 25083, "Wall": 27046, "\u2581\u0441\u043e\u0441\u0442\u0430\u0432\u043b\u044f": 19990, "etti": 15275, "\u2581Gallery": 16597, "\u2581characters": 6128, "fake": 16325, "\u201c,": 15304, "\u0c35": 31976, "\u2581Howard": 14907, "merge": 13180, "\u2581\u043c\u0435\u0434\u0430": 28165, "\u2581Era": 23901, "ceil": 28379, "\u2581delta": 14823, "\u2581Harold": 24315, "oned": 12880, "\u044e": 28842, "\u2581GC": 22278, "\u2581frag": 11334, "iors": 13771, "gebra": 10343, "ivery": 7198, "\u2581stored": 11141, "\u2581\u0437\u0430": 1586, "\u2581Holland": 23555, "mina": 28085, "\u0457\u0432": 24299, "\u2581likely": 3917, "unk": 2060, "ules": 2464, "Mar": 7308, "\u2581impat": 24766, "clipse": 11458, "\u043d\u043e\u0432\u0438": 12129, "hy": 5942, "\u2581settembre": 24864, "broad": 27867, "\u016f": 28913, "\u8bd1": 30883, "aced": 2701, "\u2581athlet": 14587, "\u7b80": 30470, "\u0491": 29211, "\u2581small": 1741, "\u2581material": 3388, "auer": 10988, "\u4e1d": 31991, "ichten": 20850, "\u2581allies": 23180, "\u2581racist": 19139, "\u2581Err": 5830, "after": 7792, "\u2581noon": 26873, "\u2581World": 3304, "\u2581Phone": 19520, "Inputs": 28681, "\u2581happy": 4610, "netje": 15617, "\u2581Marcus": 22194, "\uff01": 29267, "\u2581range": 2819, "\u2581checks": 13804, "<0xAF>": 178, "\u2581kne": 7770, "Did": 10277, "\u2581Character": 23471, "\u2581speaks": 19203, "plane": 13209, "\u0084": 30611, "\u2581speech": 8666, "\u2581IX": 22343, "leq": 4688, "LAN": 9559, "atte": 24054, "/:": 26387, "\u2581Main": 8105, "licht": 15761, "\u2581Old": 7470, "\u2581lust": 28249, "\u2581unless": 6417, "\u2581ja": 10987, "\u0446\u0435\u043d": 20829, "\u2581Need": 13678, "\u5834": 30016, "\u2581info": 4931, "ouses": 16807, "\u2581denotes": 21481, "\u021bii": 24006, "\u0123": 31662, "enti": 10338, "\u2581\u0412": 1519, "\u6d1b": 31591, "database": 14430, "\u2581Kevin": 13589, "\u2581Army": 8094, "Doc": 9441, "\u4e09": 29492, "ATOR": 16657, "\u2581distinction": 20677, "Arc": 26546, "\u2581bubble": 21424, "emon": 7884, "\u044c\u044e": 16283, "People": 21794, "\u2581though": 2070, "\u2581+": 648, "\u2581imagine": 7705, "\u2776": 31739, "encias": 19043, "\u2609": 31670, "\u2581slavery": 21727, "());\r": 15056, "\u2581differently": 16841, "\u2581g\u00e9n": 10979, "\u2581notification": 14901, "\u2581Pointer": 28597, "DTO": 17549, "ers": 404, "ayer": 2386, "That": 3840, "\u4f1a": 29179, "\u2581Mar\u00eda": 20511, "uj\u0105": 20606, "\u2581dramatic": 17296, "\u26ad": 30142, "issions": 5091, "\u2581Anim": 27295, "ira": 4807, "\u5e27": 30821, "\u2581nerve": 23284, "\u2581StringBuilder": 22380, "\u2581publi": 25918, "\u2581club": 4489, "\u2581acting": 10601, "\u00d9": 31619, "\u552f": 30443, "\u2581medicine": 12502, "\u2581Ki": 22485, "\u2581Apache": 8958, "\u2581dar": 8448, "\u2581Bowl": 21484, "\u2581orbit": 18547, "\u2581grasp": 22055, "arts": 8060, "Sl": 5474, "\u2581Finn": 19357, "uld": 24782, "ou": 280, "\u2581Miller": 13674, "\u627f": 30761, "oyle": 28251, "gorith": 5360, "\u2581speaker": 17153, "\u2581comprehens": 12957, "uty": 14998, "\u2581Solar": 27665, "bbing": 28259, "ooth": 6771, "DEVICE": 12321, "ffff": 10756, "\u2581scene": 6337, "Bottom": 15482, "\u2581valued": 25309, "esk": 19657, "CAN": 25798, "Un": 1733, "\u2581decision": 5161, "noindent": 14458, "boolean": 8490, "illing": 8317, "\u2581\u00e9d": 21710, "\u1ec9": 30714, "zek": 16178, "\u2581Bul": 10440, "\u2581fil": 1217, "\u2581principal": 7518, "aints": 6520, "rial": 6144, "\u2581modules": 15901, "ligt": 20755, "\u2581Kyle": 25363, "\u2581geometry": 17639, "\u2581natur": 10588, "<0x88>": 139, "long": 4353, "\u2581samples": 11714, "\u2581circuit": 15306, "<0x6E>": 113, "\u2581appeal": 13650, "\u2581noviembre": 26634, "IENT": 18009, "Norm": 25608, "\u30ea": 29306, "ensive": 4097, "\u0413": 28872, "\u2581Tag": 12996, "typename": 27318, "atter": 2466, "iss": 815, "\u2581teles": 24499, "\u0441\u043b\u0443": 16467, "\u2581Diese": 21988, "assets": 14396, "\u2581'@": 8319, "\u00e4ger": 26252, "\u2581Flight": 27910, "\u2581analyst": 22275, "\u2581SD": 8629, "\u65b0": 29056, "rl": 3200, "\ud788": 31909, "n\u00edho": 23720, "\u2581haber": 28349, "\u2581\u043e\u043a\u043e\u043b\u043e": 23376, "\u0432\u0440\u043e": 13032, "osten": 17074, "\u2581Braz": 11863, "\u2581CT": 22023, "\u0446\u0438\u0458\u0435": 28401, "\u2581necessary": 4892, "varphi": 7389, "\u270c": 31906, "mitt": 23023, "\u2581Every": 4203, "\u2581\u0440": 13318, "nal": 2340, "oret": 11007, "\u2581fr\u00e5n": 13738, "\u2581Male": 23304, "berger": 23259, "\u2581marry": 16586, "wy": 14589, "\u2581critics": 20557, "\u2581\u0441\u043e\u0432": 23777, "\u2581timer": 14585, "\u2581Wells": 26290, "\u2581performance": 4397, "\u2581soci": 14128, "\u0e1d": 31620, "find": 3326, "bold": 12161, "\u2581Lit": 25003, "Kernel": 24988, "insic": 16119, "Clip": 21271, "uese": 23663, "emperaturen": 26292, "\u043f\u0438": 2749, "\u2581Grund": 17583, "\u2581Star": 7383, "\u2581Token": 16625, "\u2581restaurants": 14666, "oustic": 27621, "\u2581Vin": 12670, "attle": 3819, "string": 1427, "\u2581anc": 5930, "Cluster": 10848, "Av": 9269, "World": 11978, "ieurs": 14544, "\u2581council": 14725, "Group": 3094, "\u2581Secret": 9233, "\u0434\u0435\u043b\u0430": 19656, "\u73af": 29887, "\u2581reasoning": 24685, "\ud328": 30680, "\u2581cr\u00e9": 14791, "\u2581prop": 3313, "\u2581healthcare": 15240, "\u2581Fel": 11659, "\u2581Stad": 4988, "FAILED": 19413, "\u2581invent": 9182, "\u2581=\\": 17988, "\u2581erste": 19233, "Conv": 25946, "\u0158": 29420, "\u5bb3": 31346, "\u2581pupp": 18631, "\u2581Ira": 11721, "\u2581passes": 15167, "enced": 4697, "depth": 11685, "ursor": 12558, "oons": 26618, "\u0581": 31440, "gart": 26948, "field": 2222, "\u2581Marx": 19400, "\u2581interactive": 22969, "processor": 24424, "\u2581propos": 8395, "CodeAttribute": 23583, "\u2581puzz": 15386, "\u2581\u2581\u2581": 2287, "\u2581impossible": 8313, "\u2581pharm": 16074, "\u2581Schaus": 26693, "rote": 4239, "\u043c\u0438\u0438": 18551, "ouble": 1965, "<0x94>": 151, "TagHelper": 20889, "\u2581Fine": 24105, "member": 9978, "\u25ba": 29413, "\u2581advers": 19998, "\u2581inserted": 23511, "\u2581Nigeria": 22072, "\u2581bolt": 24610, "\u2581engine": 4456, "\u2581rounded": 19372, "hbox": 21472, "OUTPUT": 23923, "\u043c\u043f\u0438": 12737, "\u2581top": 1830, "\u2581detector": 25979, "\u0695": 30983, "\u2581\u201c": 981, "\u2581maxim": 15350, "<0x7B>": 126, "\u2581seus": 17288, "ily": 1106, "\u2581V": 550, "\u2581err": 1166, "\u2581gas": 5135, "\u2581disappoint": 10734, "\u2581reasonably": 24588, "\u2581({": 13734, "\u2581users": 5443, "\u2581\u0441\u0435\u043b\u043e": 15377, "HL": 11758, "ARCH": 17046, "ORK": 13351, "\u0441\u043e\u043d": 21595, "deleg": 19941, "\u2581wounds": 24741, "\u2581dom": 2853, "\u2581disadv": 27207, "rency": 7492, "peated": 27367, "\u2581Compan": 21096, "\u2581psy": 5523, "ocolate": 11959, "\u2581+\\": 16473, "ige": 3580, "kind": 9186, "\u2581wrest": 17619, "\u2581Polish": 20329, "Sche": 11960, "igious": 25390, "stan": 13511, "miss": 7924, "\u2581Grace": 15281, "opens": 23534, "\u2581Agreement": 23377, "\u2581replacement": 13905, "buf": 2596, "\u2581plant": 5100, "\u2581flu": 13857, "apes": 7722, "\u6b62": 29885, "~~~~~~~~": 22770, "HasColumn": 17011, "\u2581receiving": 11864, "\u2581fright": 14331, "da": 1705, "\u2581Remove": 13908, "LINK": 19566, "tabs": 24856, "\u2581Detect": 25158, "\u2581clothes": 8155, "oration": 9990, "\u2581Jud": 7404, "\u2581purs": 7900, "\u5348": 30296, "DOWN": 17601, "aset": 7369, "\u2581hw": 23953, "\u2581aware": 5635, "rayed": 16152, "Transition": 21671, "\u2581Dou": 9108, "\u73a9": 30656, "mp": 1447, "i": 28710, "rund": 9265, "LOCAL": 24528, "<0x12>": 21, "\u2581organ": 2170, ".</": 4698, "\u2581lost": 3654, "\u2581Energy": 14270, "SU": 4711, "compat": 14097, "\u2581Fred": 11317, "\u2581substant": 10883, "\u043b\u043b\u0438": 22623, "\u00e9ben": 23825, "encil": 16935, "Rank": 24347, "\u2581bend": 25527, "\u2581Bald": 24794, "\u2581cuando": 13447, "loc": 1614, "igu": 8499, "Handler": 4189, "\u0425": 28904, "\u2581os": 3497, "\uc5ed": 30603, "\uc591": 31067, "\u2581sophistic": 20327, "\u9078": 30045, "\ucd94": 30153, "\u2581Font": 15464, "\u2581Communist": 21743, "el": 301, "\u2581\u0440\u043e\u043a\u0443": 7339, "\u2581Famil": 14288, "poll": 15598, "cur": 1352, "\u2581they": 590, "Initialized": 24923, "asters": 24927, "\u5be6": 31972, "\u2581milit": 4116, "ing": 288, "\u043d\u0432\u0430": 22220, "\u2581tb": 25981, "\u2581Cour": 5073, "\u2581\u0432\u043e\u0439": 11891, "\u2581recipes": 21116, "mock": 8903, "\u2581war": 1496, "\u043b\u0435\u0432": 28110, "comm": 1805, "\u2581Core": 12197, "LETE": 14730, "\u2581Lud": 13953, "tu": 17512, "\u2581bonds": 22541, "\u2581`": 1552, "\u2581ga": 17041, "oci": 2139, "journal": 22908, "hba": 20544, "\u0268": 30200, "\u0272": 30674, "\u2581capt": 4286, "\u2581discover": 5191, "\u0442\u043e\u043a": 20264, "adr": 23677, "ears": 5940, "kit": 11153, "\u2581Angel": 15878, "zin": 26404, "\u2581presented": 7567, "\u5238": 30835, "\u0441\u0442\u0440\u0435": 18160, "\u2581founding": 24750, "\u2581\u041e\u0441": 20203, "\u2581commut": 24659, "icas": 8316, "gery": 10557, "WID": 19335, "\u2581outbreak": 26030, "\u2581\u043e\u0431": 2802, "\u2581Arc": 19733, "\u2581jerk": 19748, "\u5c0f": 29138, "\u2581prove": 7674, "hall": 26912, "\u0446\u0438\u043e\u043d": 15815, "\u2581tur": 8586, "\u0153uvre": 28694, "midt": 26366, "\u2581ven": 6780, "\u2581floating": 15689, "\u2581tob": 24089, "\u2581ult": 7479, "ges": 2711, "\u2581weird": 10481, "\u2581similar": 3684, "properties": 10723, "\u2581facing": 11981, "\u2581characteristic": 17845, "\u2581game": 2039, "}/": 5865, "\u2581island": 8919, "Al": 2707, "\u2581metadata": 11214, "\u2581handler": 9694, "agy": 11644, "\u2581Bis": 23764, "\u2581murmured": 24683, "ibles": 15300, "\u2581apps": 13421, "\u2581Tel": 18358, "\u2581upper": 7280, "Used": 21601, "\u2581judgment": 16548, "\u2581put": 1658, "usk": 14948, "\u2581Vil": 23415, "Tok": 14563, "ive": 495, "\u043b\u0430\u0433\u0430": 22443, "wq": 23519, "\u2581Writ": 13670, "Metric": 21443, "\u2581\u0433\u0435": 16247, "\u09cb": 30818, "\u2581filename": 4326, "getInt": 27976, "\u2581leading": 5374, "rey": 6439, "langle": 8214, "\u00edl": 25448, "\u2581Nothing": 11081, "\u2581EXPECT": 7270, "Dom": 7781, "detect": 22036, "\u2581Hem": 21942, "\u2581demand": 5637, "\u2581\u0424": 4111, "\u30df": 30285, "\u2581raw": 8435, "\u2581d\u00e9f": 19907, "\u2581threatening": 23041, "\u0435\u0440\u0435\u0434": 23876, "Dynamic": 18202, "iet": 1296, "\u2581nombre": 8581, "\u2581appetite": 28081, "ases": 2018, "\u2581Column": 19672, "\u2581lowest": 15341, "\u2581information": 1871, "\u2581veloc": 24376, "oured": 12991, "\u2581drove": 11496, "\u2581rehe": 25562, "veh": 25973, "\u8be6": 29852, "\u2581sehr": 24188, "\u2581voll": 28353, "Criterion": 28336, "rench": 4284, "Less": 28360, "ura": 2614, "\u2581\u0442\u043e": 3846, "None": 5364, "ichael": 26090, "could": 25327, "\u2581Days": 19503, "\u2581freely": 21964, "\ud68c": 29884, "measure": 28022, "cript": 2489, "aciones": 8227, "\u0447\u043a\u0430": 19247, "\u2581cav": 25553, "\u2581adopted": 13424, "Kit": 25565, "}},": 10781, "\u2581certificate": 15743, "Seg": 11560, "\u2581f\u00fchr": 19549, "\u4e0e": 29551, "\u044a\u0442": 14015, "\u2581covers": 12784, "atos": 17360, "\u1ed1": 29741, "\u2581eran": 20781, "\u80fd": 29084, "\u2581judg": 11866, "\u2581lined": 21161, "\u2581workplace": 23324, "\u2581norm": 6552, "resource": 5676, "alert": 14762, "\u2581marker": 18844, "hab": 8237, "\u1f78": 30802, "oto": 2587, "mitted": 10286, "\u2581{": 371, "sko": 21821, "\u6c11": 30136, "\u2581launch": 8817, "\u2581Cov": 19121, "\ud83d\udc9c": 31762, "allet": 7354, "sets": 6591, "\u2581conspir": 19728, "\u2581ner": 24687, "\u2581Flo": 14819, "\u2581shame": 14717, "\u2581unre": 27011, "\u2581incredibly": 14638, "\u2581nurses": 26579, "\uc644": 31068, "\u2581creat": 2911, "azione": 5349, "textbf": 7343, "\u2581suggested": 8750, "_,": 6930, "cal": 1391, "\u2581sq": 18328, "\u2581rif": 12950, "\u2581smiles": 24733, "frac": 1655, "rock": 16013, "rait": 10613, "\u2581registered": 11028, "\u2581parsed": 18151, ":-": 18684, "\u2581\u0432\u044b\u0441\u043e": 24471, "\u2581luck": 6576, "\u2581sway": 26249, "\u2581regions": 10542, "ment": 466, "aat": 7748, "onel": 12006, "\u2581o": 289, "ateful": 13263, "\u2581copy": 3082, "ended": 2508, "\u2581ers": 15920, "encial": 27285, "\u2581spectacular": 23966, "\u2581melod": 27043, "\u02da": 31058, "\u2581abandon": 8941, "\u7d1a": 31373, "\u2581rewards": 22989, "\u2581Gene": 25321, "\u2581Mission": 18573, "\u2581Medal": 21097, "ools": 20498, "\u2581grain": 18663, "\u2217": 31088, "reach": 18932, "\u2581tons": 15995, "\u2581compiler": 23198, "Draw": 5656, "vin": 8830, "\u2581Similarly": 19190, "lab": 16847, "Eng": 5871, "tagHelper": 16724, "Pse": 28391, "\u2581modo": 20273, "\u2581Arist": 24259, "\u2581suspect": 12236, "caption": 7150, "\u2581\u043a\u043e": 1619, "\u2581additional": 4870, "ilst": 15078, "\u2581void": 1066, "\u2581Ther": 16481, "SED": 16884, "\u2581afternoon": 8635, "imeter": 16659, "\u045b": 28926, "\u2581Kay": 17399, "actic": 19585, "\u00eam": 26288, "tract": 2107, "\u2581Harbor": 28700, "\u2581threads": 17807, "\u2581definit": 4952, "\u2581international": 5611, "\u0644": 28933, "Compar": 11481, "ressed": 10025, "\u2581sections": 12458, "\u2581Aunt": 22282, "fif": 20773, "\u2581\u0432\u0440\u0435": 8614, "\u2581Puerto": 22549, "address": 5540, "\u2581Neither": 19100, "\u043f\u0435\u0440": 10890, "\u2581region": 4424, "\u0438\u0442\u043e": 26439, ".}": 8089, "\u2581still": 1309, "Because": 17098, "\u043d\u0438\u044e": 12301, "\u2581cinema": 22905, "chos": 25786, "\u2581attitude": 12910, "ospital": 4998, "\u2581Intel": 20276, "fab": 17547, "mmc": 28648, "mes": 4137, "$),": 27517, "tar": 14689, "\u2581Airport": 16795, "\u2581Morning": 25869, "\u2581fact": 1639, "osph": 24512, "bez": 21610, "\u2581corporations": 24171, "\u2581Um": 12514, "\u043d\u043e\u0441\u0442": 12757, "\u2581weights": 17628, "\u2581newest": 27510, "nb": 8611, "ound": 687, "SK": 6754, "<0xC9>": 204, "Direction": 14757, "\u2581arrow": 18623, "\u2581habitants": 19414, "iq": 26325, "jections": 19102, "Ok": 9052, "\u2581Conserv": 12200, "ghan": 13996, "\u2581estimated": 11909, "\u2581practition": 24989, "oin": 2448, "imgur": 26822, "\u2581Democrat": 28540, "\u6d0b": 31434, "\u2581gathering": 17243, "irable": 19821, "ifdef": 6499, "\u2581warn": 8695, "tuple": 18427, "\u2581closer": 7887, "ATCH": 12915, "odio": 26301, "icro": 3130, "FER": 19627, "ogs": 22990, "\uc911": 30027, "\u2581court": 5484, "\u2581Pers": 10407, "\u2581prolong": 24163, "}'": 11339, "\u2581data": 1178, "\u2581Negro": 23725, "\ud83d\ude0a": 30464, "\u2581Connection": 20117, "servers": 21032, "Con": 856, "\u2581akt": 17115, "\u2581Mittel": 27026, "\u2581Carn": 27597, "\u2581diam": 10748, "\u2581forma": 10997, "\u2581Theatre": 15209, "ugs": 19882, "rv": 9084, "\u2581representatives": 20559, "roup": 1099, "\u2581promise": 9081, "\u2581behavi": 10205, "\u2581creature": 15287, "horn": 26966, "\u2581heeft": 21006, "\u2581titled": 21508, "\u2581\u0442\u0440\u0430": 13854, "\ub8cc": 30221, "\u045a\u0438": 24860, "upload": 12657, "\u2581inferior": 24797, "\u2581listener": 14078, "jquery": 21126, "(\"<": 21784, "\u2581cattle": 23137, "\u2581drink": 4663, "\u04bd": 31932, "VP": 18246, "nex": 19949, "group": 3063, "\u2581Colonel": 18464, "py": 2834, "),\\": 19908, "upiter": 23770, "\u2581\u0437\u0456": 26883, "late": 10020, "\u2581utility": 18936, "pared": 21997, "\u2581\u044f\u043d\u0432\u0430": 22697, "\u2581faded": 23716, "raham": 11162, "ela": 4403, "\u2581tut": 8311, "\u00e2tre": 25238, "\u2581Bas": 6827, "\u2581kter\u00fd": 28162, "\u2581Indonesia": 24450, "\u2581Ax": 24749, "\u2591": 29782, "application": 9113, "\u2581Software": 6583, "\u2581fighting": 8552, "stant": 4774, "\u65b9": 29082, "\u2581number": 1474, "estival": 6805, "\u2581HD": 15051, "riel": 13374, "\u2581android": 5791, "\u2581investigate": 17214, "\u2581commented": 22191, "amos": 14481, "\u0007": 30963, "!'": 8873, "\u2581Anne": 12042, "\u2581our": 813, "\u2581\u00bf": 18297, "\u2581date": 3608, "\u2581hasta": 11539, "ili": 2689, "Main": 9000, "\u2581flights": 22447, ".\"]": 28659, "\u2581pip": 25416, "\u2581copper": 21569, "\u2581Args": 24997, "\u2581famille": 18481, "N": 28759, "\u2581contained": 10932, "\u2581fitness": 17950, "\u2581Person": 6441, "\u2581Dialog": 27304, "Real": 12995, "\u2581bull": 10386, "prev": 10083, "\u2581says": 2627, "Payment": 19835, "\u00e9se": 17858, "igator": 17769, "\u2581res": 605, "\u2581Tibet": 28288, "\u2581desire": 8646, "\u2581novel": 7092, "\u2581suggests": 12308, "CAP": 13706, "kg": 8087, "hang": 15140, "\u2581monthly": 14890, "Meta": 8963, "gov": 13933, "Abstract": 16384, "Bin": 19478, "bag": 19001, "-----------": 26684, "\u2581\u0421\u043e": 7447, "\u2581proport": 12687, "\u8fbc": 30974, "ND": 6916, "amic": 21039, "\u2581Colomb": 18276, "\u2581columns": 11252, "Report": 10493, "\u2581Od": 11424, "CONT": 12162, "\u2581yelled": 22884, "\u3083": 31028, "Validate": 19418, "\u2581King": 4041, "\u2581nou": 9276, "\u2581sam": 4545, "instance": 5241, "model": 3549, "\u2581destroying": 28613, "\u2581INFO": 22977, "\u8bd5": 29592, "\u5e2b": 31231, "\u2581\u0412\u043b\u0430\u0434\u0438": 25823, "\u2581develop": 1950, "astro": 19240, "\u0431\u0435": 5744, "confirm": 19928, "\u00fb": 28951, "\u8ddf": 30848, "amo": 14156, "\u1790": 31933, "aje": 11237, "ym": 1082, "\u2581chart": 10968, "\u2581buf": 7632, "hentic": 13760, "\u2581separated": 14700, "\u2581Screen": 24432, "\u65bc": 30800, "\u060c": 30124, "\u2581decisions": 9549, "antal": 25855, "Backup": 27449, "\u2581rolls": 25880, "\u0c28": 31674, "<0x04>": 7, "lee": 12553, "\u2581sharing": 10681, "\u2581married": 6368, "\u2581fund": 3360, "\u2581charg": 5441, "forall": 21524, "<0x7C>": 127, "}}}\\": 27705, "Series": 20736, "Launch": 27514, "til": 2167, "\u2581Primary": 25938, "DEC": 23763, "\u2581ministry": 23470, "\u2581phot": 3724, "\u2581FALSE": 11221, "\u2581Answer": 26307, "\u2581\u0431\u0440\u043e": 19567, "\u2581--(": 20224, "idth": 1634, "\u2581Peak": 27416, "\u2581bone": 14056, "\u2581clock": 9917, "\u2581SK": 16915, "\u2581embod": 21322, "\u2581unexpected": 12799, "icios": 27141, "\uc624": 29647, "\u2581cd": 19958, "\u2581XI": 27948, "axis": 8405, "ottage": 21881, "\u2581SQL": 13208, "\u2581images": 6203, "DESCRIP": 25205, "Machine": 15183, "(\"[": 16848, "\u2581przez": 12534, "\u057f": 30521, "\u2581analyze": 20765, "\u2581ton": 6339, "ometric": 14840, "science": 17819, "elligence": 18827, "\u2581illness": 13214, "tcp": 16515, "\u2581\u017ee": 23374, "\u2581watched": 6758, "apter": 2902, "\u2581Dur": 8420, "\u2581laying": 27587, "\u2581Fish": 22784, "\u2581defines": 18791, "icked": 13371, "===": 14203, "vis": 3225, "erk": 6751, "\u2581operation": 5225, "\u2581Shop": 14142, "\u2581\\(": 18823, "\u2581aggreg": 14554, "\u2581saddle": 27343, "\u653b": 30666, "fb": 10967, "\u043c\u0435\u0442": 17480, "\u5173": 29229, "\u2581Labor": 14160, "\u2581diameter": 22640, "\u0e25": 29394, "\u2581En": 1618, "_[": 19000, "\u2581cert": 5813, "\u2581coefficient": 23982, "\u2581Hollywood": 14057, "\u2581Honor": 19939, "Cat": 19962, "setAttribute": 20675, "\u2581Drupal": 22580, "\u2581rodz": 27895, "\u2581Standard": 12623, "jal": 21939, "\u2581dernier": 26592, "\u517b": 31868, "\u2581Roy": 12809, "\u0141": 29042, "\u2581decor": 8059, "Requests": 24902, "\u2581Reset": 21689, "\u2581Hay": 11411, "\u2581Power": 8442, "\u2581Sta": 23019, "\u2581token": 6029, "\u2581\u0431\u0435\u0437": 15907, "\u2581Half": 18994, "\u2581souls": 23804, "iago": 21555, "\u2581shopping": 11157, "\u7eb3": 31536, "\u2581electric": 7778, "\u2581mapping": 13152, "rott": 20332, "outs": 8508, "\u2581Free": 5228, "\u80cc": 30402, "\u2581\u041c\u0430": 5564, "working": 20867, "vue": 19732, "\u2581Clara": 27901, "\u0424": 28897, "pp": 587, "\u2581Kitchen": 21376, "\u2581\u0430\u043f\u0440\u0435\u043b\u044f": 26582, "Ang": 10201, "\u043d\u0430\u044f": 6075, "\u2581College": 6136, "\u2026": 28878, "xa": 8705, "../": 1979, "\u2581tablet": 24296, "quis": 11225, "\u2581se\u00f1": 23944, "}^{\\": 6928, "\u2581forever": 10739, "\uc22b": 31330, "\u2581cush": 25602, "\u2581withdraw": 14393, "\u2581lett": 9077, "\u2581NAS": 18064, "\u2581refres": 24343, "\u0444\u0435": 8633, "\u2581compat": 10794, "\u2581economic": 6638, "\u2581msm": 15673, "\u2581deserve": 16133, "\u2581brave": 22257, "\u2581lines": 4715, "\u03af": 29121, "beat": 16890, "\u2581stell": 14062, "\u2581Defense": 20774, "\u2581veterans": 28041, "errors": 9705, "\u2581months": 3370, "\u2581Max": 5824, "\u82cf": 30985, "\u2581slide": 16513, "\u2581appealing": 27168, "gun": 7429, "\u2581failure": 7719, "\u2581tambi\u00e9n": 10797, "\u2581bu": 957, "enez": 14936, "\u604b": 31472, "\u2581Ni": 18001, "Clear": 13012, "\u2581resent": 26159, "\u00fcd": 12484, "routes": 26016, "MF": 24721, "\u2581cow": 12072, "Press": 12954, "urm": 24563, "\u2581bother": 11026, "\ud83c\uddf8": 31818, "\u0642": 29115, "\u2581Most": 4822, "iana": 5127, "ove": 751, "\u1793": 30078, "\u2581barrier": 19644, "\u2581Society": 8522, "\u0434\u0438": 1454, "erre": 12130, "\u0437\u0434\u0430": 10393, "-\\": 3137, "tober": 12955, "unde": 13596, "prom": 14350, "props": 7329, "\u2581cir": 2761, "ussian": 12897, "\u2581See": 3868, "\u2581drei": 15898, "\u2581elem": 10550, "ipping": 10206, "Sprite": 22473, "\u5fdc": 31914, "\u2581gener": 1350, "\u2581Larry": 19861, "\u2581minor": 7626, "LL": 5292, "conc": 26145, "\u2581Monitor": 27838, "Io": 26086, "\u2581unm": 22926, "\u5efa": 29193, "\u2581Sebastian": 26115, "\u632f": 31960, "Color": 3501, "\u2581Movie": 23208, "\u2581[{": 21156, "\u2581WAR": 6180, "inent": 10742, "\u0178": 30322, "code": 1409, "al": 282, "\u0444\u0430": 13460, "\u2581processed": 16244, "\u0436\u0434\u0435": 13727, "\u2581go": 576, "ifies": 8961, "\u2581\u0442\u0430\u043a": 8517, "\u2581Album": 13449, "\u2581stab": 21670, "Attachment": 27079, "ings": 742, "\u6e05": 29649, "pgfscope": 28593, "\u2581Marvel": 26696, "hpp": 20567, "PAR": 6969, "\u0447\u0430\u0442": 22556, "\ud568": 29938, "\u2581raised": 6333, "kon": 14483, "agent": 14702, "\u043d\u0430\u0434": 20982, "Ign": 12934, "\u00f6k": 21201, "\u043d\u0435": 1185, "Init": 4516, "\u2581breaks": 15667, "\u2581traditions": 21703, "\u2581>>": 6122, "Row": 5590, "\u2581prompt": 11510, "tk": 9808, "\u2581recalled": 16831, "\u2581Nu": 17712, "Suite": 25138, "Address": 5049, "\u2581Sweet": 22593, "\u2581doll": 6240, "\u2581Mannschaft": 26241, "edia": 5184, "about": 14146, "\u2581groom": 28583, "osti": 22160, "nergy": 11918, "\u2581Football": 13474, "\u2581css": 23489, "\u2581integer": 11584, "<0xEC>": 239, "market": 15594, "Params": 5385, "\u2581enforcement": 19046, "uffle": 17752, "\u2581quot": 17528, "\u5b8c": 29474, "\u2581vanished": 26475, "\u0458": 28855, "\u2581Help": 15576, "\u000b": 30638, "\u2581learning": 5168, "\u2581\u0426": 8911, "stderr": 17270, "\u10da": 29617, "xp": 28315, "\u2581root": 5557, "\u049a": 31419, "\u2581pon": 17984, "\u2581charm": 22533, "liga": 15314, "arsi": 21478, "\u2581toast": 26312, "\u001a": 30759, "\u2581rested": 26916, "udad": 12087, "\u2581Donald": 14696, "mk": 16259, "\u2581nem": 10766, "\b": 31129, "ur": 324, "question": 17496, "\u2581invoke": 23071, "\u2581longitud": 28629, "CTX": 26564, "\u10e0": 29449, "\u2581irre": 14872, "\u2581Rav": 27037, "FileName": 17060, "\u2581encouraging": 21885, "\u7cbe": 30170, "\u2581assuming": 16347, "\u2581\u043a\u043e\u043b\u043e": 28242, "Sn": 10187, "\u00eas": 17194, "\u2581size": 1669, "device": 3915, "\u2581break": 1721, "Collection": 7587, "\u0e07": 29285, "\uc11d": 31585, "han": 7645, "\u2581delivery": 9562, "\u2581Recently": 27186, "INGS": 26559, "benfalls": 25780, "\u2581~=": 28515, "\u2581sym": 4297, "Json": 6773, "activate": 21452, "\u2581relig": 4422, "...": 1101, "iteral": 9950, "\u2581Historia": 23051, "prit": 25450, "\u6a94": 30652, "home": 9029, "\u6dfb": 29445, "\u2581iOS": 23487, "Arrays": 23739, "ctr": 12017, "\u015f": 28987, "<0x7D>": 128, "bed": 3101, "\uc811": 31022, "\u2581containers": 25399, "\u2581committee": 13414, "\u2581an": 396, "psi": 5920, "Aug": 21575, "nav": 7141, "\u2581boy": 4531, "igr": 3421, "\u2581Certain": 20828, "idence": 3164, "\u010c": 28965, "\u2581shifting": 24334, "imper": 27689, "uid": 4161, "effective": 23562, "\u2581Rose": 10655, "ionale": 12898, "\u2581secondo": 23958, "Rec": 3755, "eze": 19961, "protocol": 12787, "icky": 19722, "\u043b\u0443": 2932, "\u2581Earth": 8599, "\u2581klub": 22782, "\u00c3": 29364, "Socket": 12500, "\u2581marketing": 7080, "izer": 4024, "\u2581Bud": 7095, "\u2581lessons": 14785, "\u2581F\u00f6r": 26638, "\u2581hung": 7342, "\u2581Josef": 27622, "hit": 18564, "oes": 6496, "\u2581in": 297, "\u2581environmental": 12507, "\u2581commissioned": 28296, "\u2581Herm": 14741, "\u2581executed": 15731, "\"`": 8312, "\u0442\u0432\u043e": 10111, "\u2581Independ": 23971, "\u0432\u043e\u0457": 24620, "\u66b4": 31492, "else": 2013, "denly": 20357, "mediate": 12597, "orneys": 27808, "ACH": 16522, "minute": 17386, "ulation": 2677, "\u2581Francesco": 27758, "\u2581meat": 10228, "\u9152": 30887, "\u2581suspicious": 25175, "icus": 20792, "\u2581met": 1424, "Miss": 14252, "\u2581Ay": 17161, "\u2581bust": 20338, "\u2581decided": 4496, "evt": 20457, "\u2581mission": 7023, "\u2581five": 3359, "Sir": 25994, "\u2581exposed": 13438, "\u5c97": 31983, "\u2581obvious": 5444, "\u2581Seine": 25517, "\u8d1f": 30685, "iane": 18861, "\u0119p": 21655, "chn": 1818, "\u2581transitions": 26823, "\u00a3": 28922, "\u2581pand": 12140, "\u2581fruits": 21566, "]],": 11789, "\u7ffb": 31051, "/${": 23820, "\u27e8": 30260, "\u2581buddy": 26123, "elly": 9985, "\u043d\u0438\u0448": 17264, "\u2581\u0438\u0441\u043f\u043e\u043b\u044c": 18496, "\u2581URL": 9066, "BB": 8923, "ont": 677, "\u2581lives": 4621, "\uad6c": 29779, "\u671f": 29275, "\u2581exists": 6608, "\u2581Hu": 16168, "\u2581work": 771, "\u2581entry": 4905, "\u2581horizontal": 18116, "\u2581templates": 24906, "\u2581no": 708, "status": 2837, "\u0633": 29008, "\u2581sal": 3823, "\u2581refer": 3295, "\u2581Blues": 25027, "isches": 23458, "\u2581Program": 7347, "\u2581giugno": 25442, "\u2581ker": 22399, "acular": 19277, "\u2581dozen": 13627, "inen": 9284, "\u2581Orange": 21853, "o": 28709, "\u0398": 30394, "\u2581Sciences": 19364, "\u2581charity": 20598, "ipa": 25871, "\u2581His": 2354, "\u2581Users": 25777, "FX": 17797, "\u2581glow": 22998, "\u2581AT": 9274, "\u2581TR": 6378, "spir": 14079, "\u2581picture": 5754, "\u3042": 29674, "\u61c9": 31508, "\u2581execution": 12068, "\u2581wherein": 27271, "aned": 23336, "\u2581naturally": 12728, "\u7fa9": 30673, "\u2581bg": 20239, "\u2581Mini": 24785, "<0xF9>": 252, "\u2581designers": 24518, "\u2581newer": 26259, "cdots": 11797, "\u5218": 30595, "\u2581bias": 16117, "\u2581coalition": 28131, "<0x09>": 12, "\u2581classic": 11495, "\u2581simplicity": 25233, "Tri": 18332, "Axis": 16272, "/_": 23762, "Focus": 12819, "sequently": 23321, "\u2581governments": 17475, "Sigma": 9806, "\u2581deployment": 23039, "\u017ce": 10564, "\u2581mentre": 18280, "reement": 18090, "mix": 23350, "\u2581York": 2726, "<0xD9>": 220, "\u2581drinks": 16195, "\u2581lan\u00e7": 27394, "Copy": 8546, "\u2581cone": 22880, "\u2581pure": 7972, "\u2581Reviews": 24429, "handed": 27008, "activ": 10375, "\u1ee9": 30422, "\u2581beste": 19495, "nog": 28470, "\u2581listade": 13129, "\u2581\u043d\u0430\u0443": 13585, "\u2581meals": 16423, "emente": 16475, "***": 16623, "PROTO": 19584, "\u2581consideration": 15301, "\u2581Otherwise": 15510, "\u2581priest": 16032, "\u2581Houston": 16904, "seek": 18694, "\u2581stagione": 24248, "answer": 24115, "\u021bia": 26946, "slave": 26277, "Saint": 26273, "upt": 20413, "\u2581death": 3168, "mund": 18060, "\u5c5e": 29438, "Redirect": 25633, "endet": 27522, "\u2581chem": 7462, "Conf": 10193, "\u2581Sov": 8872, "\u2581depend": 3289, "\u2581Scottish": 17717, "\u2581Arabia": 27264, "\u2581tank": 11459, "\u2581Dob": 26737, "\u2581Luis": 16945, "EFF": 26772, "\u2581inspire": 26649, "\u2581asympt": 22621, "\u6d32": 31564, "\u2581blown": 24995, "Complex": 28274, "igate": 11590, "\u2581anything": 2424, "\u2581deployed": 26694, "\u0431\u0456": 11430, "\u2581persons": 12920, "\u2581pov": 24270, "\u5730": 29146, "\u2581dig": 3968, "\u2581scattering": 21635, "\u2581screens": 18794, "\u2581rigid": 25323, "\u2581Communications": 26141, "sta": 6514, "\u2581supportive": 27729, "tor": 6909, "fil": 2088, "\u2581Chris": 9900, "straints": 17005, "\u2581tot": 2209, "\u2581Vill": 10494, "\u2581packing": 26894, "\u2581stesso": 22859, "\u2208": 30751, "\u308d": 31149, "->_": 9631, "\u2581DI": 12751, "\u2581Meta": 24967, "iar": 9043, "igo": 9567, "\u2581tale": 15642, "except": 19603, "\u6d4e": 31644, "user": 1838, "\u00e9d": 4652, "\u2581pushed": 9012, "inates": 10218, "\u2581Febru": 4846, "\u2581restoration": 27243, "Ab": 6570, "etto": 19715, "pload": 5739, "\u2581exist": 2588, "D": 28757, "\ud83d\udc49": 31811, "KEN": 21802, "\u2581phones": 18744, "ub": 437, "aci": 13114, "encoded": 27208, "when": 11233, "\u5c0d": 30838, "\u2581tmp": 6510, "\u2581mood": 12247, "\u2581als": 2835, "\u2581Lower": 21457, "\u2581hosting": 19117, "\u2581street": 5948, "Theme": 10438, "atom": 16739, "\u2581report": 2264, "BF": 15696, "\u2581Cam": 5487, "\u0442\u0435\u043b\u044c\u043d\u043e": 21195, "iker": 9225, "ici\u00f3": 23840, "wr": 7067, "\u2581chuck": 21390, "\u2581place": 1633, "\u1e5b": 30407, "\u2581turb": 18549, "\u56e0": 29657, "\u2581broad": 5841, "\u2581dude": 16924, "----": 502, "\u2581rank": 6593, "\u2581Impro": 21831, "\u2581colleagues": 15137, "\u2581$-": 24279, "iously": 7990, "\u2581saw": 2672, "changing": 26181, "\u2581persona": 22962, "inement": 28012, "hr": 2176, "Byte": 8150, "rod": 9413, "\u2581Normal": 23325, "\u2581spec": 1229, "\u2581Americans": 8165, "\u2581lightly": 22140, "\u2581Mem": 6011, "\"\r": 11525, "\u2581Easter": 26402, "\u0e34": 29568, "insky": 26979, "extend": 14104, "\u2581Rober": 4542, "ungen": 4540, "\u2581hanno": 23618, "Vert": 10548, "etic": 10362, "\u2581\u0433\u043e\u0434\u0438": 8481, "Without": 21469, "\u2581conducting": 28698, "\u044f\u0442": 13793, "\u2581Mason": 21507, "\u2581procedure": 10722, "utes": 2907, "oon": 4973, "\u0432\u0438\u0447\u0430": 26785, "\u2581wyd": 28225, "\u0652": 29655, "\uacbd": 29653, "\u5ddd": 30133, "\u2581Hy": 10540, "calc": 23114, "\u226e": 31656, "proxy": 13764, "\u2581onChange": 27530, "\u2581Marian": 27117, "uable": 10500, "\u2581familiar": 8228, "ey": 1437, "\u2581emotions": 13855, "\u2581princip": 4061, "\u2581In": 560, "\u012a": 31322, "\u2581v\u00e1": 14558, "\u2581($\\": 18157, "\u8f7b": 31757, "<0xE5>": 232, "\u0987": 31342, "\u2581infrastructure": 14461, "ires": 3053, "\u2581mult": 2531, ".[": 20011, "obre": 14782, "provider": 14620, "\u6846": 29861, "NN": 11348, "\u2581crush": 21987, "\u2581existed": 16947, "\u2581Pero": 26056, "\u7a97": 30171, "bo": 1798, "\u2581silence": 9296, "\u2581eb": 19049, "\u2581quiet": 5883, "\u2581loan": 9976, "\u2581race": 5941, "panel": 10726, "\u2581machinery": 26514, "\u2581enemies": 15139, "\u2581\u0445\u0440\u0430": 25453, "\u2581smoothly": 28147, "\u2581Universit\u00e4t": 24290, "\u0432\u0430\u0442\u044c": 27998, "tain": 12092, "\u2581abs": 2873, "\u522b": 29705, "\u2581collecting": 22852, "execute": 11095, "4": 28781, "<0xBB>": 190, "\u2581Championship": 8906, "\u2581dates": 12791, "\u2581brut": 16147, "evin": 12278, "paren": 18544, "\u2581befindet": 26454, "\u2581face": 2105, "\u2581ecc": 27080, "\u2581Insp": 27401, "\u2581Luft": 26821, "\u2581manip": 13313, "\u2581abort": 13515, "\u2581crypto": 21066, "\uc120": 29900, "\u2581figured": 14775, "\ubb38": 29710, "\u2581page": 2884, "plo": 22433, "\uac1d": 30411, "fore": 994, "zone": 7795, "\u2581Io": 25445, "\u2581\u00e9t": 3763, "\u2581lieutenant": 26219, "\u2581sex": 3142, "\u2581forced": 7207, "ASC": 27323, "neur": 11571, "\u2581D\u00e9": 18833, "\u2581Green": 6248, "\u53f3": 29909, "\ud658": 30391, "\u2581Know": 11308, "ough": 900, "\u2581touch": 4814, "send": 5221, "\u2581glass": 5252, "what": 6802, "matrix": 8054, "\u00f8r": 14750, "uer": 3807, "Login": 12611, "setting": 15062, "\u2581Ka": 16121, "\u2581reaches": 18710, "\u2581horizon": 18259, "RX": 9847, "kehr": 19177, "eve": 21111, "\u2581controversial": 24720, "ponential": 25723, "FORE": 26755, "\u2581Occ": 15819, "Complete": 14928, "\uc73c": 29583, "\u2581notify": 20849, "\u1ebd": 31078, "\u2581wire": 9112, "////////": 2810, "Serialize": 23443, "\u2581drawer": 27673, "\u0442\u043e\u0440": 6826, "zb": 15843, "\u2581popula": 20745, "ventory": 16917, "\u2581blues": 27845, "\u2581miracle": 27569, "\ud83e\udd70": 31510, "mel": 12625, "\u2581would": 682, "\u2581songs": 9184, "igua": 27614, "\u10dc": 29701, "\u007f": 30982, "aimed": 26495, "\u2581Rice": 26741, "\u2202": 31698, "pleted": 14258, "\u6885": 31223, "\u2581slim": 24530, "cep": 18316, "olence": 26063, "\uc2e4": 29991, "IN": 775, "Dao": 20660, "\u2581desert": 13453, "erry": 13327, "Plan": 14944, "ComponentModel": 24306, "\u2581XIV": 28132, "\u2581aver": 13363, "\u2581Maybe": 5833, "\u2581accur": 6464, "\u2581Kate": 14976, "\u2581(-": 11419, "\u2581vector": 7206, "\u2581impro": 3267, "\u2581sought": 13033, "\u2581Player": 13684, "\u2581Prize": 19751, "\u2581Jar": 20069, "nak": 14854, "eled": 19691, "\u2581Justice": 13142, "\u0437\u043e\u0432\u0430": 10603, "\u2581Apple": 10244, "ento": 12673, "\u2581\u0431\u044b": 3678, "\u2581Dat": 9888, "\u2581klikken": 15708, "\u2581inequ": 16431, "\u2581excl": 5420, "\u2581committed": 10252, "Na": 17552, "\u2581stark": 20753, "\u2581submit": 13914, "ike": 2474, "Spe": 24812, "stellung": 20509, "rx": 7144, "\u2581provisions": 22321, "\u2581stance": 27379, "\ud83c\udffe": 31541, "{{": 6652, "\u2581advoc": 11881, "olutely": 25244, "zeit": 11649, "\u2581On": 1418, "\u2581Both": 7829, "\u2581occupation": 22179, "\u2581Joy": 17780, "ses": 6065, "eton": 21064, "\u2581drive": 5009, "LOW": 9630, "\u017d": 29022, "ederal": 5717, "\u2581[...]": 26710, "\u2581theater": 17363, "\u2581inspired": 11971, "<0xD0>": 211, "asa": 13937, "\u2581Gre": 9261, "Listen": 17705, "Board": 25561, "\u536b": 31872, "\u2581pilot": 13448, "\u585e": 31411, "\u2581bent": 16127, "\u043e\u0433\u043e": 14197, "ained": 1738, "=\"../": 7704, "incip": 3480, "\u2581Jewish": 9952, "\u2581n\u00e4r": 23122, "min": 1240, "\u2581Same": 18081, "iore": 27868, "ifr": 23568, "\u2581Bot": 17174, "PORT": 5021, "\u2581racism": 22409, "\u2581ideas": 5766, "\u0449\u0438": 4522, "\u2581gone": 4214, "\u00e4ude": 24576, "\u2581respect": 3116, "MI": 5877, "ateral": 21034, "\u2581altogether": 21324, "Colors": 25651, "\u2581ll": 8814, "\u2581printing": 19246, "\u8bf8": 31205, "\u062b": 29968, "\u2581Machine": 13253, "tyard": 27463, "\u6838": 30080, "ift": 1795, "\u2581Parameters": 26750, "URI": 12464, "\u2581possess": 14612, "\u2581whole": 2894, "\u2581hands": 3038, "\u2581laptop": 19891, "\uac1c": 29893, "Zoom": 24573, "\u2581Shan": 20062, "assertEquals": 12135, "/{": 11912, "nl": 14476, "\ud83d\ude0f": 31574, "Special": 20763, "\u2581intellig": 7808, "simeq": 21961, "\u2581sink": 12967, "\u2581ultimate": 15846, "E": 28749, "<0xA1>": 164, "\u2581juin": 17784, "\u2581testing": 8260, "parseInt": 25249, "\u2581retrieve": 20132, "Bill": 18069, "\u2581buy": 3848, "directory": 17509, "\u2581specifically": 10107, "\u0443": 28805, "\u2581Twitter": 11690, "uct": 3699, "acl": 21899, "ves": 1855, "enge": 5451, "\u2581Engine": 9387, "classes": 13347, "usions": 12378, "\u2581emotion": 13197, "\u2581Yang": 23845, "\u0442\u0438\u044f": 14207, "\u2581mature": 19798, "\u2581Er": 2852, "\u0446\u0456\u0432": 22151, "\u2581*/": 986, "\u7d50": 30486, "\u2581cri": 21040, "\u2581views": 8044, "\u2581durable": 26200, "where": 2956, "\u2581por": 1959, "\u2581foss": 21036, "\u2581rural": 13359, "\u2581ADD": 26827, "\u2581Block": 9063, "units": 24653, "\u2581resolve": 11024, "\u2581closing": 12984, "\u2581stra": 4512, "\u2581entries": 11507, "progress": 13763, "aste": 4635, "\u2581texture": 14024, "\u989d": 29880, "ass": 489, "ingle": 5810, "\u2581\u0438\u0441\u043f\u043e\u043b\u044c\u0437\u043e\u0432\u0430": 28658, "\u2581whites": 19719, "\u2581UI": 16324, "White": 18729, "estern": 5190, "\u2592": 30161, "job": 9524, "\u2581convin": 13058, "\u2581followed": 4961, "\uc1a1": 30949, "\u2581feder": 27006, "rys": 24957, "\u2581Mercedes": 26501, "\u2581poz": 22571, "\u6771": 30366, "cpu": 5361, "\u2581Later": 11680, "\u2581brains": 26615, "\u2581ze": 6797, "\u2581Sp": 1670, "word": 2186, "\u2581extensive": 13571, "\u2581seems": 3969, "osz": 24982, "\u2581Dream": 14031, "\u2581ensuite": 26368, "\u2581dirty": 13485, "\u2581kl": 7466, "\u62c5": 31950, "uced": 22333, "\u2581MAC": 23584, "\u0446\u0430": 5394, "udes": 5887, "Begin": 13871, "\u10e2": 30119, "\u2581shower": 13164, "\u2581Mark": 3655, "\u2581ed": 1382, "\u2581promises": 20626, "\u062e": 29199, "\u2581steps": 5944, "\u2581NULL": 1952, "\u2581strengths": 28136, "endent": 11255, "\u2581Bad": 9734, "ighed": 24776, "=\"_": 28359, "assen": 16044, "\u2581Mic": 8990, "\u2581pert": 10795, "\u00edo": 13826, "\u2581Form": 4849, "\u2581artillery": 27262, "\u043c\u043e\u0440": 17595, "\u2581Transport": 15096, "\u2581expansion": 11120, "ibling": 25641, ")\"": 12159, "\u2581(\u2020": 19143, "\u2581stere": 19541, "\u2581argument": 5270, "\u2581Cas": 8194, "Single": 12357, "\u2581tennis": 19552, "\u2581borrow": 14219, "package": 7573, "\u0432\u043e\u0440": 15769, "\u2581Belg": 12172, "sound": 13752, "Called": 22614, "\u2581purchases": 25596, "Shell": 15718, "leading": 22066, "\u2581Peters": 17658, "\u2581wireless": 21391, "\u2581repairs": 24767, "\u2581\u043a\u043b\u0443": 17137, "\u2581are": 460, "\u25b6": 30577, "\u2581W": 394, "\u2581institution": 16854, "\u6bb5": 29390, "\u2581chick": 25424, "\u58f0": 30271, "\u2581forehead": 18522, "\u2581advance": 8670, "ile": 546, "Measure": 25241, "ployed": 28246, "\u2581lib": 6538, "emy": 6200, "\u00f5es": 7849, "toBe": 12521, "cted": 2147, "\u2581attributes": 9623, "\u2581$,": 28542, "nes": 4511, "\u2581today": 3154, "\u6253": 29576, "\u043d\u0443\u044e": 10841, "<0x63>": 102, "\u2581\u043c\u0456": 7864, "CHAN": 7295, "decor": 21042, "\u2581instructions": 11382, "\u2581Cort": 22949, "VA": 18330, "gle": 6277, "\u2581Date": 5491, "\u2581meter": 14386, "\u2581Because": 5518, "\ubbf8": 29967, "\u5382": 31228, "shake": 25524, "\u2581prince": 20180, "\u2581Hamburg": 24608, "Observer": 18085, "ather": 1223, "2": 28750, "\u30b3": 29573, "=\"{{": 21686, "\u2581typeof": 10498, "\u2581Legend": 26499, "states": 17631, "<0xCC>": 207, "\u2581theoretical": 18492, "grid": 9544, "nde": 18773, "tti": 21099, "agues": 11723, "\u2581expedition": 24350, "\u2581urg": 13839, "a": 28708, "\u2581eu": 19932, "\u2581VT": 24710, "\u2581Das": 7029, "ployee": 16199, "\u963f": 30564, "\u5806": 31732, "\u2581'{": 22930, "agation": 28419, "\u4f46": 29926, "\u2014": 28821, "\u099f": 30579, "\u2581converted": 15514, "\u2581\u0420\u043e": 5850, "\u2581body": 2187, "\u2581tid": 12158, "\u2581destroy": 6665, "\u2581\u2581\u2581\u2581\u2581\u2581\u2581\u2581\u2581\u2581\u2581\u2581\u2581\u2581": 1417, "ORS": 13520, "\u2550": 29090, "\u2581played": 4226, "\u03b4": 29158, "\u2581selfish": 26206, "\uad6d": 30779, "Symbol": 9996, "ogle": 2721, "\u2581stream": 4454, "ghai": 25801, "onto": 10533, "\u2581Alb": 18344, "\u0435\u0442\u043e": 24525, "\u2581kt\u00f3re": 26320, "\u7c73": 30752, "dale": 21352, "\u2581Mir": 9154, "\u2581tall": 9369, "\u2581highly": 6416, "\u2581Rh": 10282, "\u2581multip": 17669, "\u2581fast": 4102, "\u2581\u041b\u044e": 24667, "icity": 25130, "quick": 27263, "\u2581advanced": 10023, "out": 406, "\u0219ti": 25252, "\u2581\u042d": 8411, "ERROR": 4732, "OPEN": 20778, "\u2581Pl": 1641, "\u2581fen": 27442, "Conn": 14459, "SEL": 17992, "~": 28845, "\u2581especially": 4012, "EXPECT": 14155, "\u2581bill": 4875, "data": 1056, "framework": 6970, "\u2581surprised": 8557, "bad": 11436, "probe": 20369, "\u2581{})": 25226, "\u559c": 30754, "\u2581max": 2666, ".;": 19362, "itle": 1887, "ieg": 11703, "iche": 5680, "acher": 10333, "\u2581Peg": 26806, "\u2581shallow": 21660, "Model": 3034, "\u00c9tat": 25384, "\u2581Additional": 20460, "Environment": 15827, "wig": 14759, "\u2581\u00c4": 18912, "\u2581registry": 23646, "\u2581skirt": 24784, "Member": 10553, "\u05e8": 29075, "cri": 1381, "\u2581alarm": 14405, "\u2581Her": 2584, "ky": 4845, "\u2581\u0433\u043e\u0440\u043e": 14896, "FLAG": 7177, "ain": 426, "\u2581recruit": 20396, "\u2581Icon": 26269, "\u2581QString": 19282, "\u2581gob": 21768, "column": 5571, "oro": 8811, "ights": 3152, "agles": 26664, "<0x9D>": 160, "\u2581aller": 23803, "\u2581requ": 1085, "\u5b9d": 30172, "\u2581coin": 16544, "\u2581molecular": 24919, "ucker": 20380, "\u2581Lead": 10161, "\u2581Remember": 13399, "\u2581Craig": 21260, "Payload": 20349, "\u2581dentro": 24219, "\u2581division": 9652, "azure": 17932, "*)": 2523, "\u2581Nether": 18841, "\u2581lon": 16341, "apply": 10877, "ize": 653, "\u2581Pol": 2538, "OwnProperty": 22760, "\u2581ir": 4139, "\u2581interact": 14113, "EE": 6367, "ion": 296, "\u00ec": 28943, "\u2581errors": 7559, "Entity": 5075, "\u2581parameters": 5287, "\u3052": 31967, "adora": 20916, "\u2581persistent": 24777, "optional": 14496, "\u2581existing": 6594, "\u2581_": 583, "\uae09": 31563, "\u2581Nobody": 19816, "\u2581arom": 26835, "\u2581webs": 3738, "\u2581relaxing": 28411, "\u2581\"(": 21816, "\u2581Intelligence": 23091, "\u2581hold": 2400, "\u2581momento": 19131, "\u2581outer": 12859, "Tex": 17476, "\u2581\u0442\u0438": 11002, "\u2581mistaken": 26236, "nel": 8062, "\u2581herman": 27311, "eter": 1623, "\u2581funds": 10419, "ight": 454, "\u2581hotel": 7689, "\u2581loaded": 10773, "\u2581Estados": 16737, "\u2581Salv": 17857, "\u2581verl": 24255, "\u2581Bishop": 19683, "ificial": 14773, "\u2581Z": 1054, "($": 1501, "\u03b9": 28980, "verso": 27484, "\u043f\u0440\u0430": 7143, "\u2581\u0412\u044b": 24311, "\u2581called": 1987, "\u2581investors": 15104, "\u2581throwing": 15832, "\u2581align": 8753, "\u2581Mann": 12187, "\u0f72": 31375, "\u2581ridic": 12882, "\u2581\u2581\u2581\u2581\u2581\u2581\u2581\u2581\u2581\u2581": 756, "\u2581primarily": 13395, "\u2581rhs": 25490, "\u043b\u0430\u0433\u043e": 22085, "\u2581intervention": 20288, "\u2581till": 4861, "\u2581Islam": 10251, "Left": 7549, "eltemperaturen": 26718, "\u17c1": 31396, "\u2581conse": 15188, "\u2581fem": 4141, "\u2581\u043a\u0443": 9997, "\u2581False": 8250, "Compute": 26635, "android": 9498, "\u2581Grade": 27073, "\u009f": 29208, "\u2581influ": 4765, "apore": 15710, "\u0142aw": 17225, "\u2581Hugo": 24875, "\u4f01": 31159, "\u2581institut": 9557, "athon": 19653, "\u2581mandatory": 26732, "aler": 16351, "\u2581\u043f\u0456": 28442, "\u2581_\"": 14780, "hci": 17208, "\u2581desc": 2283, "\u2581adapted": 22427, "\u2581Friends": 22371, "\u2581Services": 8074, "VAL": 3668, "\u2581blev": 12861, "\u2581commit": 5453, "abad": 20882, "\u2581Fu\u00dfball": 24836, "Hide": 23309, ".*": 3752, "none": 8607, "input": 2537, "\u5b8b": 31403, "\u2581taste": 9230, "\u2581Anton": 8999, "CONTEXT": 27181, "\u043b\u0442\u0430": 22130, "\u8c61": 29254, "aises": 25515, "\u013c": 30487, "\u2581analy": 10148, "eren": 9417, "\u2581exports": 10679, "\u2581legally": 24025, "\u0391": 29411, "\u63cf": 29697, "\u2581gauge": 14470, "watch": 10330, "detail": 16017, "\u2581intervals": 24405, "Hz": 12659, "\u2581tan": 12222, "\u2581ut": 3734, "\u2581%,": 28590, "\u80a1": 30889, "\u2581punt": 16875, "onomy": 15631, "\u2581Enterprise": 27018, "\u2581Pro": 1133, "\u2581susp": 18734, "\u2581ib": 12964, "\u2581m\u00f6": 21461, "\u2581famous": 8376, "\u0433\u043e": 803, "\u2581cause": 4244, "nier": 16408, "\u2581Protection": 21154, "ark": 719, "Mobile": 23090, "\u6697": 31096, "ourt": 17007, "Mgr": 22109, "WE": 6631, "\u2581map": 3341, "\u043b\u0435\u043c": 16669, "vod": 21166, "\u2581History": 6866, "due": 27396, "\u009c": 30011, "\u2581remains": 7520, ">()": 21384, "<0x35>": 56, "arians": 26335, "tle": 12834, "\u1ef9": 31458, "\u2581sick": 7946, "\u2581deck": 11388, "\u4ee5": 29074, "\u2581loves": 13468, "\u2581impacts": 26336, "\u0f0b": 29801, "Bytes": 7976, "\u2581Eye": 26861, "\u8d4b": 30823, "\u2581employment": 14087, "\u2581nuc": 8523, "\u2581intent": 8284, "\u2581faint": 16603, "\u2581sc": 752, "\u2581Orleans": 21604, "\u2581village": 6435, "lie": 5715, "\u706b": 30479, "\u969b": 31780, "icians": 8019, "\u2581physically": 16094, "\u2581flexibility": 22407, "\u2581node": 3179, "\u2581Kit": 13402, "\u2581home": 1611, "erman": 9358, "\u2581her": 559, "\u2581program": 2007, "htt": 1920, "jk": 24397, "\u2581el\u0151": 23367, "\u00e4hlt": 25409, "MBOL": 16532, "\u2581Exception": 7011, "\u2581jego": 22680, "\u2581later": 2062, "\u2581\u0411\u0438": 13864, "\u00e1ban": 17180, "\u2581aux": 5672, "\u2581sv": 5990, "\u2581backup": 17503, "lot": 22682, "\u2581pad": 9010, "eneath": 9516, "media": 9660, "argc": 28529, "\u0449\u0435": 4087, "\u2581jokes": 23872, "\u0441\u0438\u0442\u0435": 15327, "\u2581trucks": 22988, "\u2581Ham": 5058, "\u2581liv": 9678, "\u2581DB": 11664, "\u2581graph": 5246, "\uc838": 30942, "\u043f\u0438\u0441\u0438": 25525, "cci\u00f3": 25357, "\u30e3": 30026, "\u2581fusion": 22104, "bis": 24971, "Get": 1458, "Const": 8151, "redu": 12059, "MSM": 21430, "jem": 21608, "\u043a\u0438\u0445": 9422, "\u2581')": 27890, "\uac01": 30750, "\u2581{\r": 1969, "\u2581sending": 10313, "alties": 23771, "\u4f5b": 31136, "\u885b": 31899, "\u2581buffers": 28600, "\u2581identical": 15792, "\u2581ihr": 11893, "ansas": 12288, "Ctrl": 18795, "\u2581Ident": 15220, "\u043d\u0430": 612, "\u2581nell": 16484, "\u0119d": 19556, "urt": 3525, "\u2581mush": 25064, "\u2581Virginia": 10117, "leave": 24427, "\u2581weapon": 11380, "\u2581resort": 18969, "\u2581CB": 25600, "\u0307": 31635, "\u2581mes": 5972, "REC": 23514, "\uc904": 31060, "\u2581goods": 11282, "\u0441\u0442\u0432\u0443": 14198, "Bet": 17044, "\u2581co": 1001, "\u2581Festival": 10113, "\u0431\u0435\u0440": 10254, "your": 19262, "\u2581quatre": 19419, "uth": 2657, "\u2581TEST": 9601, "\u2581roll": 4595, "\u2581lawn": 20200, "\u043b\u0435\u043a\u0442": 18981, "\u2581fol": 5074, "\u2581onder": 10971, "niej": 20386, "eral": 9785, "\u2581eine": 3834, "\u2581too": 1368, "\u2581Year": 7601, "\u2581complic": 9768, "setminus": 19847, "\u2581WC": 27825, "\u2581orders": 8636, "\u044e\u0449\u0438": 10645, "ua": 3772, "Auto": 10014, "\u043a\u0430\u0440": 22688, "\u2581=": 327, "\u2581sus": 3121, "\u2581ge": 2970, "\u00edan": 9927, "<0x8F>": 146, "alk": 1093, "attery": 18286, "\u6b3e": 29994, "\u2581\u0433\u043e\u0434\u0438\u043d\u0435": 14027, "\u2581IT": 8862, "\u0431\u044b": 10092, "(()": 10289, "\u2581alt": 5054, "\u2581decimal": 25888, "\u0440\u0435\u0432": 23375, "\u0906": 31297, "\u09aa": 30381, "\u0447\u0435\u0441\u043a\u043e\u0433\u043e": 21697, "\u2581frustr": 10856, "mind": 15471, "\u2581brew": 18098, "\u2581investments": 20855, "\u2581single": 2692, "\u2581editing": 19617, "\u2581mainly": 11464, "\u2581waste": 9396, "\u2581cry": 7843, "WN": 7866, "enumerate": 14783, "STM": 26929, "\u2581evolved": 23615, "DIS": 9385, "heet": 17367, "\uc560": 31957, "\u043c\u0435\u043d\u0435": 26714, "GA": 11393, "metic": 20529, "action": 1774, "\u2581helping": 8538, "\u2581\u0434\u0440\u0443": 8589, "\u2581moral": 10986, "orsch": 18952, "adjust": 22562, "<0xE4>": 231, "<0x2E>": 49, "!_": 19193, "\u2581Length": 22856, "\u2581somet": 4378, "\u7e41": 31839, "En": 1608, "\u2581\u0413\u0435": 12935, "rub": 22213, "\u2581wheels": 19876, "flag": 7914, "\u2581ugly": 19279, "\u043d\u043e\u0435": 8848, "\u2581publisher": 21568, "FULL": 26318, "\u5e95": 30537, "\u2581Karl": 10648, "venue": 8008, "\u2581Islands": 18418, "\u2581don": 949, "Comm": 3912, "lv": 21055, "\u2581obten": 26685, "\u2581chest": 8118, "\u672a": 29509, "\u2581baseline": 26605, "\u2581Caption": 6534, "\u2581ellos": 26645, "\u2581Generation": 26802, "\u0107": 28900, "\u2581fish": 8006, "\u2581Campeonato": 24965, "\u2581poorly": 24122, "\u5b89": 29564, "\u2581;": 2753, "\u2581art": 1524, "\u2581St": 662, "uring": 1378, "\u2581virtual": 8252, "\u2581defense": 9968, "\u2581blocking": 22538, "omm": 26712, "\u2581hr": 15384, "erved": 8065, "\u2581arrive": 12688, "unwrap": 14719, "\u2581Jo": 6081, "Our": 15265, "\u2581curv": 26482, "\u2581formerly": 26422, "kir": 20741, "\u2581connect": 5789, "ctl": 9057, "\u2581\u0448\u0438": 20964, "\u4ecd": 31971, "\u2581Cru": 11549, "\u2581digit": 21656, "Oper": 3935, "\u2581B": 365, "\u2581tells": 8922, "\u2581question": 2996, "\u623f": 30376, "\u2581Philip": 7772, "\u2581incent": 19953, "\u94fa": 31471, "enschaft": 13553, "\u2581his": 516, "gren": 27526, "olution": 2100, "\u2581times": 2421, "\u2581escrit": 21362, "pu": 2498, "\u2581ISO": 23052, "\u043d\u0438\u0448\u0442\u0432\u043e": 20624, "ptic": 19742, "alue": 672, "\u2581for": 354, "Second": 10385, "\u2581Read": 4939, "\u2581Util": 16157, "\u1edb": 30025, "\u2581Mean": 11736, "\u043a\u0442\u0438\u0432": 13418, "WITH": 21646, "nia": 6232, "strument": 15549, "\u2581tower": 15894, "wald": 26246, "\u9ec4": 30658, "\u2581out": 575, "\u0151s": 28153, "alloween": 25434, "\u2581\u0434\u0432\u0430": 17489, "}}$,": 25133, "\u2581Dublin": 22263, "\u2581>=": 3966, "dep": 8823, "\u2581enf": 15336, "oston": 8410, "\u2581tim": 5104, "olds": 4858, "\u2581CL": 12296, "<0x95>": 152, "\u2581Hun": 10570, "\u2581engaged": 13173, "\u2581expend": 27040, "\u2581MP": 13259, "\u4ed9": 31859, "avelength": 26795, "ded": 3802, "Dem": 16989, "\u2581penalty": 19140, "emplate": 3949, "\u2581Pok": 20843, "\u2581opinion": 7382, "\u2581hate": 7665, "\u2581Sach": 23447, "LowerCase": 19855, "\u2581paint": 6192, ">'": 14117, "={()": 26931, "\u2581LLC": 19401, "\u2581auto": 4027, "\u2581evalu": 6548, "\u0441\u0442\u043e": 2276, "riage": 6161, "\u2581feedback": 12139, "igation": 4821, "\u2581Bon": 8500, "\\\"": 4883, "\u5347": 30401, "dy": 4689, "ti": 5758, "\u2581laug": 9663, "Distance": 20701, "ounters": 19610, "izarre": 27770, "\u2581handle": 4269, "\u2581({\\": 28699, "\u2581creatures": 18349, "RATE": 23996, "\u2581record": 2395, "Toolbar": 24118, "\u2581feeling": 4622, "hbar": 22559, "\u00bc": 29472, "\u2581__": 1848, "HD": 12591, "\u1eeb": 30965, "\u2581Ground": 22455, "\u2581Romans": 28282, "rees": 7803, "\u2581$('#": 23927, "\u2581synchronized": 25339, "\u2581Mond": 7672, "From": 3400, "igned": 1731, "\u2581Manhattan": 21638, "clusive": 21981, "\u25cf": 29393, "\u2581\u043e\u0431\u043b\u0430": 8083, "\u0e04": 29546, "abc": 16612, "UL": 1248, "\u2581tube": 17735, "\u2581port": 2248, "]));": 20568, "photo": 25903, "\u2581were": 654, "\u2581blue": 5045, "\u94fe": 29615, "\u5434": 31812, "tot": 3183, "\u2581exerc": 6535, "\u00e7\u00f5es": 10315, "changed": 11247, "\u2581examination": 20976, "\u2581escort": 25514, "\u9891": 30030, "illance": 22740, "\u00f4t": 14924, "\u78c1": 31834, "\u2581straightforward": 20361, "\u2581k\u00f6nnen": 19766, "\u2581Mil": 5040, "\u2581protein": 14311, "flags": 4406, "\u0440\u0438\u0439": 16278, "dropdown": 21898, "\u2581buyer": 24861, "Checker": 27229, "\u2581Museum": 8770, "\u043b\u043e\u0432\u0430": 16528, "\u2581networks": 12167, "angle": 2988, "\u2581python": 21966, "\u0432\u0430\u043d": 5406, "ipage": 23506, "hide": 10922, "\u2581btn": 11898, "\u2581Germany": 7293, "oss": 2158, "\u0458\u0430": 5931, "mac": 7502, "bra": 10675, "\u2581cops": 19407, "\u2581technically": 25554, "\u2581cock": 12408, "\u2581prevented": 26492, "Sort": 13451, "\u2581\"__": 24452, "adays": 25182, "\u2581gaining": 25221, "\u2581wyn": 27769, "\u2581Lac": 24877, "\u2581tort": 12703, "xis": 12658, "agnostic": 13685, "\u0e15": 29567, "ci\u00f3": 10775, "\u2581ie": 21179, "selves": 3083, "\u2581Can": 2418, "osoph": 7008, "stop": 6898, "\u2581accidents": 26892, "\u2581Wor": 22366, "generator": 21940, "\u2581Alber": 16531, "\u2581popular": 4387, "\u00c1": 28939, "dma": 11492, "\u2581legisl": 15405, "xit": 28619, "\u2581artists": 10611, "issance": 12305, "igration": 7491, "\u2581Windows": 8955, "\u2581\u0438\u0441": 17282, "atura": 14753, "\u2581Northern": 12781, "\u0e4f": 30546, "\u2581SHALL": 27287, "\u2581conditions": 4331, "\u79d1": 30226, "tr": 434, "Speed": 17608, "\u5fd8": 31763, "\u2581ak": 13067, "\u2581\u0422\u0438": 19160, "\u2581debut": 9928, "\u2581metal": 7503, "\u1f76": 30492, "\u2581nau": 26049, "annel": 2756, "oot": 1541, "\u0441\u044c\u043a\u0456": 18708, "inter": 1646, "\u79cd": 29824, "Async": 7289, "\u2581diagonal": 25202, "\u2581ve": 1773, "\u2581dist": 1255, "reader": 14646, "\u2581leak": 24798, "\ub354": 30519, "akov": 25208, "dir": 3351, "\u2581Transaction": 26524, "\u2581Prime": 13321, "mo": 5326, "ENC": 20314, "\u2581Muslims": 21731, "ponent": 2462, "\u2581Warren": 19068, "\u00b2.": 20110, "\u2581Fig": 4826, "{(": 11327, "\u2581overlap": 26808, "\u2581Minnesota": 17849, "\ub428": 31399, "\u2581*": 398, "ritz": 24855, "\u2581Miss": 5586, "\u2581platforms": 14926, "onte": 14266, "\u2581Ana": 23103, "\u2581smile": 6458, "\u2581Tr": 1319, "iour": 27290, "gfx": 27604, "\u7ec3": 30947, ">%": 24801, "\u2581Jos": 9574, "SYS": 18741, "\u2581Root": 23585, "\u2581win": 3108, "\u2581tap": 12857, "\u9019": 30367, "obal": 1995, "\u2581therapy": 12238, "\u2581\\,": 6545, "\u2581tr": 467, "\u2581lieu": 18569, "\u8457": 30878, ".__": 9320, "\u2581shared": 6431, "EX": 2335, "\u2581tooth": 17961, "\u2581mysql": 24976, "\u2581PARTICULAR": 13094, "\u5bdf": 31385, "+\\": 3767, "\u2581Part": 2914, "totype": 5428, "\u2581Reb": 15794, "\u2581comply": 27439, "rugu": 27300, "<0x84>": 135, "\u2581ej": 13068, "Linked": 27975, "\u2581Rain": 17774, "<0x16>": 25, "\u2581mode": 4388, "\u2581finite": 10789, "\u2581favorite": 6656, "cou": 20172, "start": 2521, "StackTrace": 20270, "\u0431\u0438": 3788, "\u2581Esta": 25653, "\u2581edited": 19527, "\u2581Je": 3291, "cre": 961, "VOL": 25387, "Key": 2064, "\u96f2": 31986, "\uc9d1": 31056, "\u2581praised": 28293, "\u2581thousands": 8577, "\u2581distingu": 11731, "\u2581Hotel": 11805, "olar": 8330, "\u2581bite": 18082, "\u2581Buc": 28053, "\u2581uri": 22613, "\u2581explode": 27930, "\u2581understands": 27422, "\u2581cer": 6942, "lung": 13005, "annt": 13104, "\u2581zn": 13288, "\u0442\u0438\u0439": 18971, "\u2581stabil": 16888, "utschen": 15525, "\u2581Pat": 4186, "ILITY": 8101, "ref": 1013, "\u9ebb": 31701, "ITE": 6142, "DEV": 7341, "\u2581week": 1819, "ICENSE": 7941, "\u2581);": 1936, "\u2581exc": 2823, "Unit": 6831, "it": 279, "\u2581advertising": 12896, "Ann": 23894, "\u0440\u0430\u043a": 15936, "\u2581jQuery": 12257, "\u2581exceed": 12436, "\u2581Hi": 15359, "\u2581breathe": 20445, "\u526a": 30040, "\u8ba4": 29262, "\u2581minist": 15910, "\u2581sm": 991, "prise": 9266, "\u2581HO": 12203, "\u2581Good": 5801, "FS": 6934, "ring": 699, "\u2581experiences": 9021, "\u2581indices": 17853, "\u2581nos": 10404, "DIO": 18036, "\u2581cure": 22457, "east": 24294, "\u2581inaugur": 28409, "Name": 952, "\u2581Clinton": 15656, "\ud83c\udffb": 30084, "\u2581terra": 25836, "god": 21416, "\u5916": 29638, "\u2581s\u00e9rie": 16834, "\u2581mis": 4052, "\u2581GO": 15044, "\u2581busy": 9056, "ennes": 12824, "Boolean": 9925, "urch": 1826, "po": 2345, "\u2581grad": 4317, "Ant": 13389, "\u2581#[": 9002, "ippet": 27583, "asy": 5826, "\u2581\u0441\u044a": 9448, "\u2581hitting": 17692, "Health": 18470, "warz": 25718, "\u0442\u0438\u0435": 28198, "contin": 7243, "\u2026\u2026": 22917, "\u2581passage": 12280, "\u2581money": 2445, "\u2581Ste": 2349, "\u2581Athlet": 19092, "\u2581opportunities": 8812, "zenia": 19716, "nego": 12766, "ainte": 24243, "dispatch": 16202, "\u2581studies": 7193, "MC": 7814, "lie\u00dflich": 25197, "\u2581All": 1682, "\u2581fifteen": 13956, "reverse": 24389, "rieb": 14945, "yst": 827, "ijk": 17722, "\u2581intellect": 11612, "\u2581science": 6691, "\u2581reason": 2611, ")_": 14080, "\u2581update": 4009, "\u2581Runtime": 14046, "\u2581Pa": 8144, "left": 1828, "\ud83e\udd21": 31370, "Univers": 14953, "\u2581Comput": 13651, "ateg": 2026, "\u2581damage": 6544, "\u2581Metro": 25289, "Vol": 9503, "\u2581|=": 6764, "eds": 5947, "\u2581cups": 19646, "\u2581USD": 22858, "\u2581student": 5716, "othes": 6317, "ienia": 24817, "\u2581pel": 6704, "dataset": 18200, "\u2581Jenny": 25785, "\u2581Running": 28588, "\",\"": 5988, "\u307e": 29241, "\u2581neither": 9159, "\u2581ab": 534, "book": 3521, "\u2581complicated": 13140, "\u2581adopt": 8799, "Create": 3998, "nea": 19660, "./": 3849, "\u2581sits": 19050, "bands": 25299, "\u2581ign": 4303, "ength": 1340, "\u2581Collection": 13079, "\u2581fields": 5080, "\u2581\u041d\u0438": 11504, "\u2581Soviet": 9971, "\u2581screaming": 19455, "\u2581Biden": 21377, "\u2581MB": 18609, "\u2581linked": 11748, "}+": 9969, "\u2581weeks": 4587, "\u9547": 29780, "\u5f35": 31241, "ifiers": 11980, "\u2581Schw": 16260, "rf": 12624, "<0x5B>": 94, "\u2581Note": 6096, "\u2581transc": 24330, "\u2581Richmond": 26182, "\u2581bond": 9410, "\u2581visit": 3251, "\u2581mind": 2273, "\u2581pol\u00edt": 14429, "\u042b": 30584, "\u2581teaches": 28488, "\u63a7": 29712, "\u2581Team": 6867, "\u2581quien": 20207, "\u2581processing": 9457, "\u957f": 29495, "\u2581ran": 5591, "\u2581boats": 19706, "\u2581configured": 21529, "ATION": 4866, "neut": 23806, "staw": 24225, "sche": 8203, "\u2581mart": 15370, "greg": 10114, "\u2581roughly": 15756, "\u2581\u043f\u0440": 25431, "\u2581rb": 27101, "\u2581tattoo": 28105, "\u2581ignorance": 27627, "\u2581Hier": 20722, "very": 646, "\u2581Select": 13341, "]['": 13601, "Visibility": 19499, "rir": 28441, "\u2581State": 3885, "<0xFA>": 253, "\u2581Vietnam": 14642, "\u2581Early": 12138, "\u2581explicit": 9629, "\u2581ranging": 22741, ")\");": 18490, "\u2581gir": 27585, "\u2581sixth": 20865, "\u90ae": 30182, "\u2581tree": 4718, "gel": 9281, "anton": 15427, "\u2581durante": 9794, "IT": 1153, "notice": 26814, "subscription": 20054, "\u00e4d": 16902, "rpc": 19390, "\u2581PK": 28519, "\u2581'\"": 14503, "lined": 14445, "parents": 20415, "\u2581media": 4077, "\u2581Lab": 10076, "rup": 7064, "EventListener": 14101, ">\",": 20018, "square": 21627, "\u2581Des": 2535, "idades": 11520, "><": 3409, "ians": 3693, "\u2581perspective": 10403, "\u2581colour": 11474, "\u30a1": 30000, "\u2581bes": 3432, "\uac80": 30437, "\u2581Next": 8580, "\u2581\u0430\u043a\u0442\u0438\u0432": 24735, "\u2581lun": 17999, "\u69d8": 31874, "\u2581workshop": 20156, "\u2581fixed": 6321, "\u2581R\u00e9": 15417, "pu\u00e9s": 12873, "\u2581killing": 10935, "\u2581Rel": 5855, "\u2581cells": 8894, "aren": 4184, "\u2581inhabitants": 23936, "gro": 25344, "Actor": 25461, "|_{": 28221, "\u2581withd": 23055, "\u4e3e": 31189, "setup": 11324, "pression": 2670, "\u2581create": 2231, "isen": 10555, "\u2581near": 3065, "\u0146": 30076, "\u2581beside": 9439, "\u2581doorway": 20702, "expect": 10508, "listen": 20246, "wake": 20001, "Too": 25679, "itu": 6454, "erten": 28645, "\u5bfb": 31712, "\u2581klass": 27898, "RED": 12466, "\u2581merge": 13973, "ris": 3665, "\u2581ash": 15272, "ell": 479, "\u2581scale": 5657, "\u2581channel": 5866, "\u2581fold": 10068, "ng": 817, "Rows": 13699, "\u2581hall": 7224, "quality": 14817, "\u2581administrative": 17093, "\u2581Cooper": 17247, "Bucket": 21215, "\u0431\u043e\u0440\u0430": 27788, "\u09a6": 30870, "\u2581innovation": 16863, "itational": 25674, "\u2581structure": 4693, "\u2581terrible": 9783, "mathscr": 15445, "\u77ed": 30132, "\u2581Init": 6829, "\u09b2": 30294, "\u2581Europe": 3401, "\u2581md": 12358, "\u2581importance": 9545, "\u2581blur": 19690, "wallet": 23673, "resentation": 15918, "+=": 21234, "\u2581combinations": 26350, "\u2581Integer": 10618, "\u2581Poor": 27970, "ety": 4703, "iest": 11281, "\u2581beg": 2049, "SA": 5530, "\u2581Vere": 15088, "\u2581estimates": 16438, "point": 2275, "\u2581define": 6600, "\u2581mos": 18666, "anks": 3750, "\u2581harmony": 19511, "\u2581Flash": 25164, "erts": 9916, "\u2581algebra": 13397, "__);": 13928, "Routing": 28654, "\uc885": 30490, "\u2581Hoch": 19202, "Self": 13547, "atu": 22608, "\u2581cam": 3730, "\u2581mut": 4548, "\u2581Thus": 7110, "\u2581\u00ee": 4591, "Pres": 19167, "\u2581\u0431\u0443\u043b\u0438": 24596, "\u2581tests": 8079, "\u0e16": 30491, "\u2581tro": 4056, "uart": 15499, "\u2581seemed": 3593, "CLO": 22132, "anz\u00f6s": 22979, "\u2581gren": 24386, "ASH": 12322, "workers": 28256, "\u2581Gaz": 27161, "\u2581\u0442\u0443\u0440": 18247, "\u2581quarters": 22142, "\u3066": 29257, "nab": 7563, "\u2581Pittsburgh": 25536, "\u2581Jazz": 22049, "en": 269, "\u043a\u0440\u0438": 17072, "\u2581med": 1342, "qual": 14033, "\u2581etern": 16701, "pdev": 14337, "ready": 1968, "ivel": 17414, "\u2581prices": 8506, "chnitt": 28644, "ael": 4152, "\u2581You": 995, "\u2581potentially": 13957, "\u2581Roth": 23134, "King": 28262, "zd": 13335, "online": 20154, "\ud83d\ude43": 31794, "\u2581Arthur": 12185, "\u2581recogn": 4169, "umn": 1786, "\u2581Alex": 5013, "\u0434\u0430\u043d": 19872, "\u2581positioned": 28184, "!!!!": 19010, "atory": 5377, "\u00d3": 29125, "\u0443\u043d\u043a": 21051, "\u2581paying": 9960, "ect": 530, "\ud83d\ude01": 30707, "isher": 7827, "\u5b88": 30992, "iden": 6667, "radio": 19036, "\u2581bombs": 26084, "\u2581deriv": 12314, "\u2581\u044f\u0437\u044b": 23980, "\u2581Enc": 17611, "lear": 5595, "\u2581eaten": 21718, "bc": 12286, "\u2581myth": 13345, "\u2581Frederick": 21880, "Completed": 23305, "\ub144": 31479, "\u2581imports": 28365, "ian": 753, "sembly": 7148, "Rx": 27557, "hu": 9538, "\u2581octubre": 25154, "\u2581sem": 3546, "\u2581inhabit": 19946, "\u2581Durch": 21915, "\u0441\u043e\u0432": 16581, "throw": 10847, "\u2581familie": 14875, "\u2581enables": 18156, "Copyright": 20505, "\u2581day": 1370, "\u2581dump": 10332, "\u2581However": 2993, "lookup": 16635, "\u2581continuing": 15317, "\u2581buildings": 9702, "<0x34>": 55, "itionally": 14586, "\u2581inhab": 15734, "\u2581pg": 23245, "\uc561": 30916, "\u304b": 29399, "lemma": 13177, "Great": 26315, "ends": 2827, "\u2581generator": 17128, "cancel": 14883, "\u2581\u0442\u0443": 19365, "\u2581h\u00e1": 22176, "\u0442\u044b": 5555, "\u0445\u043e\u0434\u0438": 7374, "\u2581festival": 14416, "\u2581dro": 3483, "\u2581\u0433\u0440\u0443\u043f": 17737, "\u2581Ing": 19848, "dag": 22997, "\u2581Jesus": 6466, "ened": 2106, "\u2581degener": 24507, "ge": 490, "\u2581unknown": 9038, "\u2581Personal": 12860, "\u2581mock": 8975, "nym": 15416, "\u2581Russ": 3770, "\u2581DEFAULT": 17537, "lor": 5638, "\u043d\u0443": 2954, "\u2581using": 1413, "\u2581levels": 6157, "\u2581trib": 11309, "\u2581Clean": 14510, "fun": 1755, "\u0627\u0644": 14312, "bild": 17086, "\u2581swift": 20029, "texture": 20196, "umin": 9867, "}{(": 25731, "\u2581\u0436\u0438\u0432\u043e": 25455, "\u017ee": 18765, "rob": 18443, "\u2581neg": 3444, "\u2581scal": 10431, "\u2581anderen": 19532, "\u2581pode": 26165, "\u2581Roland": 28552, "\u2581Diam": 19235, "yside": 24756, "\u8f93": 29226, "\u2581Illuminate": 22652, "\u2581resign": 22883, "\u2581Kot": 27209, "\u2581oscill": 21068, "Part": 4917, "bast": 15174, "rix": 2908, "\u2581\u0420\u0438": 19752, "\u2581coup": 20822, "%%%%": 11032, "\u2581speeds": 27480, "}\\,": 12480, "lista": 26965, "San": 17904, "\u2581capitalism": 26540, "AS": 2109, "\u2581authorized": 23243, "\u2581\u0434\u0432\u043e": 18533, "\u2581Chief": 11762, "\u2581attitudes": 27044, "\u2581happens": 6881, "\u2581lighting": 15912, "Int": 2571, "shader": 27049, "\u2581dealer": 25863, "\u2581Me": 2597, "\u2581compensation": 19204, "Req": 16295, "\u2581Nice": 22277, "\u2581gr\u00f6\u00df": 22707, "\u2581LE": 14181, "\u2581deciding": 24568, "\u2581faz": 25406, "\u2581luego": 26899, "\u2581selection": 7495, "\u2581\u2014": 1040, "\u043b\u043a\u043e": 23054, "\u2581\u041c\u043e": 8968, "\u2581derni": 23551, "\u2581singer": 15307, "ucky": 11791, "\u2581Any": 4922, "QUE": 20749, "HY": 27334, "esch": 5289, ",\u201d": 3372, "\u8ba9": 30447, "\u2581Salt": 21943, "\u2581Phoenix": 23228, "\u2581transactions": 15852, "\u0575": 30428, "\u2581got": 1433, "\u2581communication": 8520, "\u2581wars": 19270, "\u2581charming": 25444, "\u00f6m": 16707, "\u2581Lors": 28462, "<0x9A>": 157, "\u10d4": 29286, "\u00e4nge": 25219, "RO": 1594, "chars": 23392, "cref": 27742, "\u2581": 28705, "\u0e19": 29178, "Register": 7832, "<0xCB>": 206, "ans": 509, "\u0e38": 29903, "\u2581interpret": 7190, "Edge": 15310, "\u2581There": 1387, "\u2581Square": 15308, "\u2581enero": 26291, "lang": 4730, "\u2581greatest": 9932, "\u2581gouvernement": 27125, "\u90a3": 29793, "istration": 8585, "toggle": 13615, "\u2581affiliate": 24933, "\u982d": 31041, "quate": 16780, "air": 992, "\u2581weight": 4336, "\u2581Bernie": 26009, "\u2581dell": 6332, "<0x99>": 156, "inding": 4763, "\u2581rain": 7296, "attribute": 9122, "\u2581mile": 13677, "\u2581laund": 21796, "pshire": 25543, "asury": 26440, "\u258c": 30073, "LEFT": 20528, "bone": 15600, "\u2581River": 6396, "\u2581International": 5440, "\u2581inverse": 22668, "Indices": 28191, "],": 1181, "\u2581tar": 11838, "\u2581switched": 21187, "\u2581pac": 21632, "\u0441\u0442\u0440\u0438": 27342, "\u2581muy": 15807, "\u2581wurde": 3350, "\u2581Portugal": 16160, "TEST": 9552, "location": 2733, "\ud83d\udfe0": 30867, "\u2581Record": 12496, "\u2581Rebecca": 26014, "\u2581nar": 21119, "stance": 2410, "\uc790": 29294, "ouver": 10275, "\u1d0f": 31153, "\u2581Hey": 17162, "\u2581eerste": 21328, "\u2581hem": 14492, "\u2581totally": 8913, "ol\u00f3g": 23552, "\u2581Wer": 12153, "\u2581jest": 10572, "\u2581taking": 3344, "Intern": 18531, "\u2581arrays": 25532, "\u2581Franco": 28289, "icle": 2660, "\u2581Ned": 28504, "\u2581((": 2743, "itched": 14209, "aci\u00f3": 7094, "\u2581ink": 20195, "\u0447\u0438\u043d\u0430": 18248, "\u2581streaming": 18000, "AAAA": 11086, "mutable": 13882, "oma": 6943, "\u2581porch": 22252, "\u2581risks": 14679, "\u2581Cool": 21359, "\u2581posit": 14139, "hausen": 24813, "\u2581supported": 6615, "\u0930": 29319, "\u2581Scient": 20645, "\u2581Harr": 11172, "decl": 12114, "ographie": 12262, "CN": 15126, "Proto": 13534, "\u753a": 30988, "ormal": 2616, "EVENT": 11185, "\ubbfc": 31463, "<0x22>": 37, "\u2581policies": 10086, "\u2581Response": 12107, "\u2581cycl": 14211, "\u2581Bh": 18811, "\u2581Mong": 23640, "\u2581Prop": 12082, "\u2581Christ": 2393, "\u2581appreciate": 11982, "\u2581mountain": 10660, "delegate": 24028, "\u2581DS": 25840, "\uc5c6": 29963, "lbl": 27949, "\u2581Hub": 15969, "<0x46>": 73, "\u2581accompan": 13498, "wt": 13845, "\u2581etwa": 16588, "\u2581substitute": 23875, "\u2581Dev": 6624, "\u2581ask": 1460, "\uc9dc": 31405, "\u2581support": 1760, "\u2581rh": 23535, "\u2581USB": 11588, "follow": 23951, "\u0423": 28890, "Widget": 7728, "ockey": 12277, "\u2581d\u00e9cl": 27215, "\u2581Victorian": 26839, "\ud655": 30270, "coming": 4343, "irement": 11011, "\u2581Api": 23240, "\u2581leaves": 8049, "\u2581scatter": 11190, "\u2581Say": 15753, "\u2581Champions": 24470, "\u2581verified": 25301, "\u2581Personen": 25480, "\u2581Tests": 25810, "\u2581\u0433\u0440\u0443": 9891, "cache": 5319, "\u2581zusammen": 20467, "rieg": 11137, "\u2581remained": 7568, "\u2581\u0421\u0438": 12430, "amil": 8551, "\u2581stroke": 14684, "\u2581canonical": 24600, "Linq": 25235, "\u2581dim": 3987, "getDefault": 28287, "Overlay": 22869, "Millis": 26106, "\u2581Harvard": 17553, "\u2581journalists": 26197, "\u2581backward": 19592, "\u043a\u043b\u043e": 24034, "\\/": 23674, "\u30fb": 29416, "\u0440\u0430\u0431\u043e": 22336, "\u2581witnessed": 24385, "\u2581MC": 16416, "\u2581throw": 2154, "ared": 1327, "\u2581coordinate": 17237, "xico": 22138, "holder": 8229, "\u03c1": 28997, "\u2581ful": 4464, "\u539f": 29493, "\u2581oral": 21210, "\u2581ads": 17644, "\u2581Dear": 22143, "\u2581Ed": 2690, "Drag": 18383, "efore": 4329, "rieben": 25077, "\u2581part": 744, "jo": 4881, "\u2581{'": 12012, "\u2581something": 1545, "\u043a\u0435": 4026, "\u2581Lucas": 19531, "Orient": 25616, "\u2581job": 2389, "\u0437\u044f": 15876, "\u2581mant": 14201, "\u2581ra": 13419, "\u2581germ": 23157, "\u2581Marg": 10149, ":\",": 26906, "\u2581curl": 28306, "\u0434": 28799, "\u2581harder": 11783, "-------------": 22843, "aty": 20721, "\u2581chicken": 13088, "\u103c": 31887, "\"].": 15254, "pgfpath": 11370, "NY": 24743, "ron": 1689, "\u2581AV": 13190, "\u2581nach": 4856, "liche": 8518, "ucks": 18352, "eth": 761, "erialize": 12145, "\u2581Sleep": 24027, "\u2581frustrated": 25511, "hadoop": 28158, "\u2581blanket": 21434, "\u2581\u0441\u0438": 5294, "\u2581mathemat": 16872, "\u2581\u043e\u0434": 5524, "\u2581mim": 26302, "pler": 14932, "eni": 17914, "\u2581galaxy": 20539, "American": 12188, "\u25bc": 30088, "\u95f4": 29117, "\u2581retire": 26033, "cticut": 23188, "\u043c\u0435\u0440\u0438\u043a\u0430\u043d": 16503, "\u2581studio": 9659, "\u2581handsome": 22215, "\u2581Political": 21684, "\u4e9a": 31103, "yk": 27816, "\u00fat": 24043, "\u2581Sev": 26728, "\u2581makeup": 19781, "\u2581stride": 23623, "ancies": 28481, "\u2581\u201e": 3018, "\u2581comedy": 18987, "nov": 20920, "ample": 1662, "\u2581wx": 14830, "acc": 4373, "\u2581Dy": 25685, "*-": 13725, "\u2581Town": 8897, "\u2581symmet": 10003, "cod": 19114, "olo": 5053, "_{": 787, "loor": 9527, "\u2581Door": 26519, "schedule": 20913, "\u2581diff\u00e9": 18406, "\u2581\u0441\u0442\u0430\u043d\u043e\u0432\u0438": 21206, "idel": 8891, "\u2581dz": 14732, "Fields": 7815, "UINT": 13215, "\u2581determin": 16710, "\u2581lan": 26573, "oves": 8803, "construct": 15607, "br": 1473, "\u2581scholar": 14566, "\u2581Kor": 17872, "\u2581craw": 16217, "\u2581Eld": 22810, "\u2581featured": 12526, "\u4e91": 30121, "\u2581margin": 9829, "\u201e": 28887, "\u2581dt": 16599, "ielle": 20857, "\u9928": 31595, "\u0441\u0442\u0432": 5050, "\u0905": 30766, "\u0142y": 11085, "\u2581bigger": 9942, "\u2581\u0431\u0443": 5213, "\u2581license": 6801, "mente": 4379, "bal": 6323, "\u6d3b": 29785, "\u2581Bart": 14603, "\u5199": 29503, "\u2581opportunity": 5701, "\u2581Tamb": 17432, "\u2581versch": 12545, "\u2581beard": 25293, "\u2581themes": 18978, "\u2581consistent": 10652, "\u2581nut": 9246, "\u2581Staff": 13594, "\u2581Rank": 15938, "\u2581per\u00ed": 27601, "\u2581cut": 3119, "\u0436\u0434\u0443": 13273, "}-\\": 14038, "\u2581amely": 27894, "ndef": 15680, "Old": 16237, "\u0493": 31023, "\u2581seit": 13959, "aj": 1150, "aries": 4838, "\u2581stair": 20519, "spl": 15213, "\u2581hex": 19703, "\u2581Weight": 19785, "iki": 7137, "gly": 13127, "\u2581\u0430\u0432": 8664, "\u2581CP": 16571, "\u2581referred": 11449, "ituted": 28346, "\u2581Sorry": 19385, "ocy": 26720, "\ud83d\ude4c": 31326, "\u2581shaking": 17030, "\u2581disgu": 27409, "\u4ec1": 31257, "\u2581geld": 17704, "j\u0105": 12004, "\u2581accompany": 17039, "\u2581election": 7537, "odge": 13167, "\u2581fam\u00edlia": 25338, "Mvc": 18261, "quad": 3613, "\u5c3d": 31430, "\u2581interesting": 5853, "Ap": 4750, "\u2581Batt": 17546, "ln": 4778, "\u2581king": 6779, "\u043d\u0438\u043a\u043e\u043c": 20957, "\u2581regulations": 15885, "getElement": 13122, "\u2581spreading": 22244, "\u2581collabor": 8248, "\u2581Focus": 24408, "nic": 6374, "\u2581garbage": 20170, "\uaca0": 31810, "\u2581s": 268, "cnt": 10144, "\u2581Frances": 15093, "upp": 13213, "\u0446\u044b": 17851, "\uc740": 29538, "bau": 16855, "\u2581deleted": 15185, "\u2581relieved": 23564, "scale": 5705, "\u6ca1": 29444, "ifik": 19758, "mx": 19737, "\u2581highest": 7881, "\u2581putting": 8190, "\u2581Progress": 19310, "\u2581increased": 7483, "\u2581SO": 6646, "getC": 25170, "\u2581utilize": 22535, "\u2581memcpy": 27398, "arg": 926, "endl": 15858, "\u2581Eastern": 13827, "\u2581\u0432\u043e\u0441": 26957, "\u2581Fut": 27280, "emet": 18726, "\u00e9es": 4473, "rets": 18716, "\u2581Rec": 3523, "States": 25096, "\u2581specialists": 28375, "\u2581Scotland": 14322, "\u2581Maryland": 20261, "aky": 20996, "\u0441\u0442\u043e\u044f": 10185, "\u2581entstand": 26537, "\u2581shed": 19851, "sort": 7653, "redit": 10709, "\u2581employers": 22271, "agner": 23862, "MMMM": 27509, "\u2581chose": 10008, "(\",": 23431, "ounge": 24346, "\u2581Census": 27938, "\u2581Stein": 18810, "icals": 25079, "vart": 27377, "\u2581defined": 4057, "\u2581Blood": 17143, "\u2581,": 1200, "lisher": 14970, "Right": 7552, "\u2581dying": 13074, "ussy": 23215, "\u2581nominated": 27242, "anie": 8768, "\u2581revealing": 24593, "ori": 6519, "\u2581\u0432\u044b": 4627, "orts": 15587, "mercial": 19828, "Limit": 13063, "UNKNOWN": 24652, "\u2581Publish": 19675, "\u2581OFF": 22615, "\u2581Label": 15437, "\u2581elaborate": 24340, "auch": 21300, "});": 3498, "\u2581gegen": 12039, "^{": 984, "pages": 9929, "onda": 13946, "\u2581cit": 5963, "apor": 19845, "\u0100": 29940, "\u6b22": 30920, "\u7e3d": 31936, "ff": 496, "\u0445\u0438": 8009, "v\u00e9": 15221, "!\"": 2781, "\u2581attribute": 6836, "\u2581underlying": 14164, "portun": 3766, "\u2581gallery": 18805, "__.": 21149, "gets": 26176, "\u2013": 28816, "\u2581Ir": 4747, "\u0437\u0435\u0440": 20450, "\u2581less": 2108, "\u2581Gra": 19095, "\u2581importante": 19538, "\ub798": 29889, "LEVEL": 18224, "\u2581mess": 4687, "\u2581faced": 12565, "\u571f": 30790, "\u2581\u0421\u0442\u0430\u043d\u043e\u0432": 20896, "\u2581imper": 10078, "time": 1536, "marker": 19169, "\u013d": 30833, "\u2581Mont": 5684, "ulated": 6432, "-------": 25702, "\u00e8tres": 21412, "\u2581Cycl": 27548, "\u043c\u0435\u0440\u0438": 11883, "\u2581and": 304, "\u2581thereby": 21290, "\u0441\u0442\u0440\u043e": 9571, "Mad": 22762, "it\u00e4": 25038, "\u2581Pedro": 18444, "INSTANCE": 25956, ",$": 13948, "\u2581subsequent": 14235, "\u2581confused": 13803, "\u2581thesis": 23412, "ocation": 10001, "BAD": 23787, "\u2581communications": 16300, "\u2581care": 1656, "\u2581per\u00f2": 19005, "ientos": 19883, "\u00e4l": 8146, "\u2581affordable": 16662, "\u2581ships": 11296, "BUF": 17206, "\u2581spark": 14123, "\u2581Kunst": 19280, "\u2581migration": 18579, "\u2581Danny": 18709, "\u2581Caroline": 23217, "\u5206": 29062, "fo": 902, "\u2581issues": 4382, "\u2581grandfather": 19300, "\u2581rebel": 28020, "\u2581embedded": 20007, "\u2581Qt": 20975, "\u015b": 28884, "inese": 5965, "\u2581casual": 13316, "\u2581Hunter": 18476, "\u2581beliefs": 16415, "\u2581Benjamin": 18258, "userId": 23490, "\u2581#####": 5609, "\u2581seated": 24732, "\u2581losing": 10121, "ually": 1323, "\u043a\u043e\u0439": 13108, "\u00ac": 29873, "helm": 15980, "\u2581brace": 27856, "hd": 8385, "cussion": 18637, "\u0434\u0438\u0438": 24844, "\u2581Friend": 13109, "EDIT": 27495, "\u2581quant": 4664, "adel": 11156, "printStackTrace": 23831, "\u2581Jonathan": 16656, "\u2581centro": 19905, "isco": 23364, "\u2581limiting": 27931, "\u2581Met": 5522, "type": 1123, "\u2581autor": 13254, "\u2581Nathan": 20514, "\u2705": 30129, "Mapper": 15760, "\u043a\u0442\u043e": 13483, "load": 1768, "you": 7020, "olen": 12115, "\u2581releases": 21446, "placeholder": 24553, "\u2581low": 2859, "\u2581elabor": 16252, "\u2581satell": 17345, "iances": 20904, "\u0441\u0442\u0443\u043f\u0430": 19651, "\u2581Above": 28301, "\u8fc7": 29202, "\u2581Jag": 18672, "\u2581Bass": 19730, "\u2581llev": 22290, "\u2581lead": 1736, "scribe": 11666, "\u2581Police": 12338, "hell": 13436, "\ub864": 31953, "ood": 1004, "\u83dc": 30038, "\u2581Human": 10649, "\u2581carried": 7158, "Exp": 8003, "\u2581PS": 12993, "ering": 2131, "\u2581concert": 14560, "\u2581distribut": 2886, "\u2581Cambridge": 14751, "\u2581tomorrow": 10759, "\u2581door": 2251, "\u2581Alexander": 11055, "\u2581tong": 12166, "enter": 7262, "\u2581slept": 18283, "\u2581\u010c": 13525, "\u2581Robert": 5606, "stead": 28277, "\u2581sighed": 16331, "\u2581Sc": 2522, "ngth": 24575, ":{": 26856, "\u2581lap": 14348, "\u2581temperature": 7641, "\u2581http": 3550, "\u52a9": 30278, "<0xDC>": 223, "\u2581sub": 1083, "\u2581Dave": 13613, "\u2581substr": 22745, "\u202c": 30587, "\u6865": 31539, "\u2581tous": 16065, "\u2581steel": 9445, "\u2581Papers": 24697, "\u2581Pent": 21619, "\u2581aged": 17859, "ev": 828, "\u04cf": 31469, "MenuItem": 16675, "[[": 15537, "agement": 3012, "tv": 9791, "\u008f": 29658, "\u2581Tre": 9485, "\u2581construct": 5122, "\u2581maggio": 24080, "\u2581wird": 7534, "weak": 25668, "eing": 21458, "Lin": 14112, "Dep": 7091, "ilde": 7894, "\u2581According": 6586, "sep": 21571, "\u2581agricultural": 22815, "Configuration": 6365, "TextField": 25781, "\u97f3": 29838, "\u2581Abs": 12709, "\u0bbf": 29983, "\u2581African": 8623, "\u043a\u0443\u043f": 26414, "\u2581fun": 746, "alous": 14990, "\u30e9": 29281, "\u2581AUTH": 25270, "\u2581encryption": 27591, "\u2581sage": 26640, "\u2581Pan": 7687, "\u2581polynomial": 22879, "<0x3C>": 63, "igg": 24706, "\ud83d\ude1b": 31754, "\u2581thats": 26748, "\u2581Build": 8245, "\u2581assets": 12858, "\u2581legacy": 17424, "\u2581worden": 13348, "\u2581churches": 20764, "CAL": 22591, "\u2581phrases": 27512, "\r": 28801, "Vec": 12790, "\u2581Mo": 6885, "\u6d4f": 30796, "enen": 12224, "\u2581barg": 22077, "<0xA5>": 168, "\u2581Sol": 6849, "rat": 5308, "\u4e5d": 30807, "Input": 3104, "\u2581either": 2477, "\u2581voy": 15545, "\u2581gepublice": 17779, "\u2581expose": 26411, "\u2581waiting": 5345, "\u2581\u0440\u0435\u0437\u0443\u043b\u044c\u0442\u0430": 20959, "\u00fch": 11472, "alu": 5107, "\u2581investigation": 11597, "\u2581Liver": 18432, "\u2581fires": 21600, "Filters": 24261, "\u2581One": 2387, "\u2581redu": 3230, "mers": 14448, "\u0436\u0435\u043d\u0438\u044f": 17373, "\u6b8b": 31649, "ploy": 2193, "\u2581mas": 6769, "Priv": 22548, "\u2581cough": 26245, "\u03c6": 29307, "Tab": 7560, "oka": 18377, "\ub9ad": 31318, "ELL": 25035, "\u2581jump": 6483, "\u2581estar": 27497, "\u2581thinks": 10896, "omer": 16245, "\u2581political": 4355, "\u2581titles": 15773, "\u2581boost": 10974, "\u2581Andrea": 24009, "i\u00e8re": 8110, "IEW": 19212, "\u2581Studios": 24545, "\u0261": 30105, "\u2581fp": 16108, "\u2581overs": 13775, "\u2581eller": 17994, "uerte": 25395, "\u2581Ring": 18705, "\u2581strange": 8708, "Partition": 20435, "\u00e8le": 24265, "\u2581activation": 25159, "\u2581fid": 28492, "\u043e\u0433\u0440\u0430\u0444\u0438": 14784, "apers": 6410, "rived": 27643, "Memory": 9820, "subset": 9501, "\u2581Mississippi": 20455, "\u0432\u0448\u0438\u0439": 27386, "hing": 2299, "izo": 19692, "arator": 22813, "\u2581regular": 4392, "\u2581matrices": 21512, "\u7537": 30353, "VEL": 16414, "utils": 7284, "\u2581kingdom": 17782, "\u2581Ali": 15284, "leep": 3109, "\u2581nuevo": 23609, "Sign": 7384, "\u2019,": 17906, "HOW": 24001, "_)": 14479, "\u300a": 30095, "++)": 3073, "\u2764": 29673, "\uc9c8": 31959, "\u2581\u0440\u0430\u0439\u043e": 14159, "\u2581extract": 9131, "\u2581d\u00e9partement": 22625, "unknown": 16047, "\u2581staring": 13144, "cro": 22171, "array": 2165, "\u2581law": 2309, "\u2581keys": 8148, "jel": 24457, "aches": 5131, "\u8868": 29024, "phys": 13432, "\u4f50": 31594, "apshot": 8674, "rais": 26305, "protected": 11384, "\u2581convex": 26970, "\u2581necessarily": 11867, "gress": 2736, "\u2581RET": 28620, "\u5df2": 29235, "max": 2416, "\u2581auth": 7565, "\u2581Philippe": 26637, "\u2581bas": 2388, "Role": 10047, "\u2581finance": 15978, "\u043d\u043e\u043c\u0443": 13878, "\u2581ev": 683, "iated": 27267, "Alignment": 18307, "\u2581d\u00e5": 19774, "ited": 1345, "iesa": 22133, "\u2581__(": 25185, "\u2581d\u00e9c": 8738, "\u2581Peru": 28230, "\u2581\u043e\u0441\u043e": 14512, "\u043b\u0435\u043d\u043d\u044f": 10507, "\"><?": 26109, "##": 1064, "\u2581Tensor": 24716, "hus": 9710, "\u4ec5": 30472, "tri": 13862, "\u2581ignored": 11389, "Att": 2517, "\u2581Laura": 16145, "\u2581Eine": 21144, "\u0392": 30431, "elij": 6796, "\u2581Eval": 24223, "nodes": 12333, "\u2581equally": 13387, "\u2581recovered": 19471, "Rep": 4781, "\u2581Esp": 10576, "multicolumn": 18474, "\u2581Through": 10091, "\u2581eternal": 25391, "ancia": 17322, "\uc0ad": 30512, "\u2581individuals": 6992, "Text": 1874, "reci": 6506, "\u2581Long": 6428, "ify": 1575, "\u00f1a": 8842, "Api": 7119, ":**": 4049, "\u2581coast": 9437, "ccess": 1518, "\u2581Kl": 7211, "\u2581breast": 13886, "\u043b\u043e\u043a": 23135, "pg": 3386, "\u2581\u041e\u0434\u043d\u0430": 28491, "\u2581\u043e\u0442\u043d\u043e": 18616, "\u2581ex": 439, "\u2581ours": 22911, "\u5339": 30290, "\u2581stud": 1362, "\u2581Fernando": 24302, "gos": 20359, "MG": 26860, "\u0441\u043a\u043e\u0439": 4683, "\u2581eight": 5435, "ethod": 1301, "\u2581consumers": 13776, "ye": 7187, "\u2581star": 4580, "\u2581warranty": 12864, "mbox": 7602, "\u2581foundation": 13865, "\u2581DEBUG": 15383, "\u800c": 29746, "============": 22568, "\u2581/***/": 15320, "\u2581mountains": 13691, "\u2581wordt": 9930, "ick": 681, "\u30ad": 29753, "\u756a": 30815, "six": 20410, "uve": 22322, "\u2581gent": 8888, "brit": 24508, "AC": 1645, "PRIV": 26341, "ielte": 22360, "!\\": 8263, "\u2581bet": 924, "have": 15378, "scal": 19040, "\ub78c": 31390, "component": 7451, "ctrl": 8022, "hou": 11331, "uli": 11815, "\u0442\u0430\u043d": 12680, "ikan": 13579, "\u2581administer": 22928, "\u2581renamed": 25581, "\u2581geb": 10560, "\u2581revealed": 10924, "aye": 24195, "\u2581Bond": 20008, "\u2581junio": 25942, "set": 673, "\u2581Walt": 27558, "acker": 21172, "TF": 12352, "nick": 22554, "\u057d": 30506, "chestra": 18357, "\u00a2": 29656, "\u65e2": 31643, "\u2581fixing": 28341, "\u0440\u044f": 3911, "\u0459\u0430": 21284, "kins": 8298, "\u2581Dad": 11641, "ag": 357, "Bul": 18775, "\u2581banks": 13283, "\u2581sel": 7530, "\u2581talked": 9409, "n\u011b": 9176, "\u2581DR": 22437, "\u2581meaningful": 19258, "sample": 11493, "\u05b9": 30600, "\u2581automatic": 16337, "bs": 1816, "\u2581goto": 10510, "\u2581CRC": 20731, "\u2581PG": 27793, "rezent": 24662, "\u2581la": 543, "\u2581Gab": 10849, "\u5341": 29927, "hed": 887, "ask": 1152, "<0x4B>": 78, "orney": 10899, "io": 691, "\u2581preview": 25203, "\u00e9t": 2959, "\u2581gratitude": 26485, "is": 278, "\u2581victim": 12354, "\u2581chips": 21968, "\u2581Our": 3489, "quin": 26611, "\u2581July": 4398, "\u021bi": 14846, "diff": 11836, "ebook": 16376, "\u0459": 28918, "\u878d": 31970, "cie": 9041, "\u2581became": 3246, "\u2581neighbour": 18583, "\u2581overseas": 24102, "users": 10247, "\u2581\u043f\u0456\u0434": 11103, "\u2581chapter": 10661, "\u2581dall": 16563, "\u2581symmetric": 21030, "\u2581\u0434\u0438\u0432\u0438\u0437\u0438": 27728, "\u2581min": 1187, "boys": 27589, "}_": 2427, "\u00d7": 28946, "\u2581travers": 19483, "bio": 20699, "\u2581Cost": 9319, "\u0440\u0443\u043f": 20864, "ara": 2923, "cdot": 5468, "Thank": 15896, "change": 4078, "\ud1b5": 30700, "\u2581cleaned": 23003, "wp": 9359, "icles": 4992, "\u2581crowd": 8954, "\u2581battery": 12609, "\u2581(((": 15785, "\u2581COL": 20101, "aration": 9477, "Timestamp": 15948, "ket": 10304, "ki": 3430, "\u2581reprezent": 28188, "rio": 7189, "(%": 16256, "\u2581handy": 26568, "\u2581discussed": 9951, "Signal": 21643, "*": 28736, "\u2581\u0425\u0430": 15741, "IDS": 19954, "\u0eb2": 31616, "known": 4717, "\u043f\u0438\u0441": 13014, "};\r": 26407, "Prop": 10155, "\u2581cleanup": 22005, "\u2581hurry": 24387, "\u2581planets": 28312, "()).": 9079, "\u2581immedi": 4207, "Host": 7287, "\u2581shorter": 19367, "?'": 3725, "der": 826, "\u2581environ": 14453, "\u2581Rangers": 28371, "liver": 16342, "\u2581Sex": 14213, "\u2581regulatory": 25251, "\u2581\u0440\u0435\u0433\u0438": 24514, "\u2581&\\": 9223, "\u2581primitive": 22739, "pal": 11920, "\u2581Heaven": 22830, "\u2581tri": 2629, "mals": 26449, "\u682a": 31724, "\u306e": 28993, "\u2581presents": 15890, "\u2581anth": 20019, "isure": 24094, "backs": 19076, "\u2581Ott": 14982, "yd": 3389, "(?:": 26733, "\u6c47": 31768, "ReadOnly": 25700, "illes": 11619, "\u2581Refer": 25958, "\u91c7": 30398, "arth": 3616, "\u2581ty": 13936, "\u2581David": 4417, "\u2581mean": 2072, "\u2581United": 2969, "\u2581Staats": 28560, "Found": 8127, "\u00dd": 31113, "\u2581\u041f\u043e": 3787, "\u2581Jul": 5376, "awn": 11646, "Identity": 12330, "\u2581vessels": 22831, "\u2581Conference": 13115, "How": 5660, "\u2581r\u00e9al": 26286, "\u2581peint": 27520, "\u2581La": 1700, "\u2581article": 5447, "\u2581cooling": 22565, "\u2581Ins": 9513, "\u1004": 31284, "\u6e96": 31646, "\u2581Ces": 17097, "\u2581show": 1347, "\u2581consumer": 12077, "\u0105": 28866, "\u0aa8": 31946, "\u9648": 31258, "\u2581engl": 24670, "\u2581baking": 22411, "\u0440": 28785, "\u09be": 29496, "\u2581haven": 6253, "\u2581oil": 5503, "\uc8fc": 29557, "age": 465, "\u2581JO": 20216, "\u2581|": 342, "\u0430\u043b\u044c": 8067, "\u2581\u0433\u043e\u0434\u0438\u043d\u0430": 18614, "\u2581slowed": 28636, "\u2581seasons": 15238, "\u2581Controller": 25677, "\u2581progress": 5097, "Graphics": 20634, "Foot": 22043, "Release": 17327, "\u8499": 31631, "fc": 6837, "\u2581piece": 5511, "\u2581queen": 18204, "inated": 5499, "\u00ad": 28927, "\u2581\u00falt": 15201, "\u043a\u0440\u0430\u0457": 11292, "Names": 5686, "\u2581From": 3672, "\u2581educational": 14165, "area": 7458, "\u9577": 30531, "\u2581academic": 11860, "\u2581forward": 3814, "xl": 22406, "\u2581Burn": 13708, "\u2581Round": 15042, "\u043a\u0440\u0430": 5954, "\u2581lets": 16143, "\u2581ik": 22885, "techn": 23207, "ible": 1070, "\u1eaf": 30429, "it\u00e0": 7327, "mouse": 13778, "shal": 10006, "emic": 10771, "\u2581accident": 8318, "osc": 17815, "\u2581French": 4949, "\u2581compos": 5890, "\u2581Consider": 11772, "\u2581meille": 24515, "\u2581Hol": 4170, "_*": 22291, "erial": 16299, "\u2581cognitive": 25746, "\u2581generated": 7138, "\u2581shots": 14487, "\u2581Fo": 27020, "\u2581runs": 7825, "\u2581Dragon": 19444, "org": 1909, "soft": 4179, "\u2581\u0422\u043e": 10378, "}}$.": 25362, "\u2581interested": 6348, "posing": 22935, "###": 27332, "owy": 13344, "ification": 2500, "\u2581Report": 7431, "ifferent": 15791, "\u266f": 30905, "\u2581Dans": 14527, "\u5e76": 29457, "\u2581causing": 13098, "\u2581HTTP": 13844, "\u064a": 28972, "\u2581hunting": 16268, "acion": 13995, "slash": 25779, "NI": 16457, "\u2581Francis": 6617, "<0x5A>": 93, "\uf0b7": 30659, "\u2581suite": 10978, "\u2581encore": 16921, "\u2581immigr": 15502, "\u2581\u043e\u043d\u0438": 26150, "\u2581provision": 18381, "direct": 9423, "ulin": 24726, "\u2581Administr": 11790, "\ud83d\ude2d": 29985, "\u2581surpr": 4181, "\u2581medieval": 23223, "\uccb4": 29823, "\u2581peut": 12122, "\u0446\u0443": 15357, "\u0430\u0442": 17108, "DECL": 24826, "\u2581computers": 18518, "\u2581drew": 11547, "\u043a\u043e\u043d\u043e\u043c\u0438": 28189, "city": 18373, "ob": 598, "\u2581patrol": 22294, "dom": 2920, "raf": 3976, "\u2581scratch": 15147, "\u2581wave": 8333, "\u2581actual": 4695, "ometer": 11598, "\u2581circulation": 27307, "\u2581Website": 17697, "\u2581rush": 16002, "\u2581financial": 5593, "oard": 20446, "week": 14049, "iggers": 21102, "\u2581Info": 19790, "\u200e": 29207, "\u2581Ep": 14710, "\u2581Harm": 26988, "\u09b9": 31245, "\u2581R": 399, "\u2581\u2018": 3475, "esota": 17231, "username": 10671, "\u2581where": 970, "\u2581Third": 14671, "Until": 25072, "\u0441\u043a\u0438\u0435": 15795, "go": 1644, "\u2581Kur": 15740, "HAND": 15592, "At": 3167, "\u2581toutes": 25386, "BY": 9732, "\u7740": 30163, "\u2581Stan": 9034, "<0x83>": 134, "bras": 21420, "\u2581Pere": 25229, "\u2581accessible": 14494, "\u2581Man": 2213, "\u2581anten": 25940, "AK": 13715, "\u2581dut": 7756, "\u2581Ta": 14247, "\u5220": 29327, "\u2581Use": 5938, "\u2581Iz": 21552, "\u2581\u043d\u043e\u044f\u0431\u0440\u044f": 27251, "ver": 343, "\u2581connected": 7391, "wikipedia": 23954, "imil": 25568, "riculum": 21582, "astern": 10230, "zoom": 23915, "reflect": 24904, "\uc2dd": 30355, "\u2581breath": 5276, "Height": 5814, "ript": 6473, "\u2581Rein": 24541, "\u10e7": 31287, "Global": 8985, "ZZ": 26212, "\u2581mong": 28011, "\u9002": 30640, "\u2581Hell": 15244, "=_": 27745, "\u2581\u043e\u043d": 10640, "spieler": 25591, "\u2581Challenge": 21931, "\u2581./": 17449, "=${": 22765, "\u2581dialect": 26228, "}$)": 28511, "zem": 14737, "\u2581calling": 6852, "\u2581Floren": 21659, "rier": 5118, "\u2581Attribute": 24216, "apps": 23464, "orden": 19220, "\u2581up": 582, "\u2581Details": 16329, "\u2581overwhelming": 18894, "\u2581love": 2016, "\u2581sexual": 6965, "chor": 10951, "\u2581civil": 6259, "\u2581Going": 25659, "quote": 14307, "\u2581hack": 14413, "\u2581Movement": 25361, "\u2581random": 5509, "\u2581Oper": 6692, "scape": 8951, "gew": 16539, "nit": 28023, "\u30bc": 31998, "defined": 11498, "ju": 8948, "\u2581definitely": 6304, "ure": 482, "encia": 5983, "\u8d34": 30022, "abol": 21530, "nor": 18651, "\u2299": 30669, "War": 24378, "atherine": 14468, "\u2581Nou": 23150, "\u2581Bev": 23344, "\u2581Last": 7690, "\u2581Beautiful": 26547, "estone": 18557, "\u2581immer": 23030, "sky": 10919, "elles": 8668, "}$-": 22298, "\u6839": 29521, "\u8a72": 31688, "\u2581Order": 9006, "\u2581E": 413, ">&": 8591, "\u2581ebenfalls": 27836, ")>": 27364, "hat": 3617, "band": 3785, "breaking": 25924, "<0x89>": 140, "\u2581nations": 14913, "\u2581deven": 24999, "TERN": 26503, "\u0563": 31305, "cope": 6865, "\u2581instant": 10990, "\u2581disg": 18026, "\u2581virtually": 17626, "\u2581Neb": 21365, "\u2581ratio": 10554, "\u00e9t\u00e9": 12329, "tls": 21908, "\u7840": 30811, "\u2581carbon": 13654, "\u2581learned": 5996, ")+": 10528, "Condition": 12862, "empl": 2713, "\u2581insisted": 16222, "\u2581sofa": 23117, "\u3048": 30145, "\u2581d\u00e9": 2306, "uh": 8884, "i\u00e9n": 8603, "\u2581{{": 13949, "\ub3d9": 29714, "\u0433\u0430": 2618, "<0xB7>": 186, "mon": 2640, "\u2581Aud": 14421, "\u2581\u0443\u043d\u0438\u0432\u0435\u0440\u0441\u0438\u0442\u0435": 24884, "Times": 17473, "\u2581representations": 23384, "\u2581Apr": 3513, "helper": 11937, "\u2581true": 1132, "Low": 21397, "ieler": 11963, "\u2581collapse": 17347, "\u2581gardens": 22461, "\"%": 28413, "\u5148": 29596, "enci": 24086, "\u2581presidential": 19268, "Console": 19638, "\u2581december": 22155, "\u5fe0": 31615, "\u6388": 30822, "\u17b7": 30845, "\u2581Jes": 5215, "\u2581Inst": 3133, "\u2581over": 754, "\u6c34": 29692, "\u53d1": 29099, "\u1787": 31543, "\u2581felt": 2770, "scribed": 27676, ".$": 5910, "\u2581Looks": 27684, "EventHandler": 23273, "\u093c": 31609, "anda": 5904, "_\\": 2801, "\u2581museum": 13041, ":</": 11423, "Pers": 13603, "LO": 1763, "\u2581loving": 16276, "\u2581hotels": 21739, "::<": 23015, "\u2581sowie": 11298, "\u2581judges": 23233, "acter": 2441, "\u5185": 29188, "\u2581sweet": 7221, "\u2581Bat": 13003, "\u2581dialogue": 19198, "\u2581viewed": 16861, "iedad": 26446, "\u6790": 30007, "')": 1481, "books": 17297, "\u2581vain": 23204, "\u2581prosper": 20814, "\u501f": 31626, "Resolve": 28487, "Bean": 12366, "ade": 770, "It": 1313, "lar": 15027, "\u2581Ry": 15971, "\u2581wheel": 10297, "Clock": 24041, "\u66f2": 30580, "lem": 2933, "formation": 1517, "\u2581Freder": 15411, "idad": 4526, "loading": 16792, "active": 4140, "\u2581\u041f\u0435\u0440": 14353, "\u2581intern": 3875, "ized": 1332, "\u2581angle": 10417, "=\"#": 15532, "\u2581siglo": 22017, "yn": 1035, "\u2581Fed": 22377, "\u2581sl\u00e4": 11158, "Previous": 28284, "\u2581Steph": 27316, "\u2581nerves": 28686, "Switch": 16354, "\u2581Logan": 27072, "components": 9048, "\u043d\u0435\u043d\u0438\u0435": 23480, "region": 8164, "\u2581Key": 7388, "\u2581tropical": 21257, "lace": 22918, "\u2581fiscal": 24937, "\u4eba": 29086, "\u0433\u043e\u0432\u043e": 27726, "migr": 22267, "\u2581CIA": 22721, "\u2581Quality": 20612, "\u2581back": 852, "\u2581compared": 6731, "\u2581Garc": 26541, "\u8a9e": 30321, "tok": 11178, "ict": 848, "pci": 18929, "\u2581shocked": 18809, "KEY": 6478, "asci": 25436, "\u2581\u043b\u044e": 12566, "uan": 6882, "\u2581ruling": 21955, "\u2581Chicago": 8449, "eree": 14447, "<0xDE>": 225, "\u2581slowly": 7160, "Play": 10045, "\u043c\u0430\u0442\u0438": 15481, "\u2581furniture": 12389, "\u0e29": 31135, "xd": 10044, "craft": 6006, "NOT": 7536, "\u2581lig": 18985, "harm": 24418, "\u2581theft": 27119, "\u8d44": 29542, "enders": 14930, "$).": 23073, "posite": 18439, "achers": 26120, "Utils": 5896, "rich": 6408, "itory": 4560, "\u2581Princess": 21408, "My": 5183, "FRAME": 20593, "\u2581perform": 2225, "Features": 22227, "\u2581}));": 25968, "\u2581daily": 6790, "STO": 24833, "\u2581historia": 23394, "\u2581hated": 16282, "\u2581mig": 16089, "rah": 21174, "\u2581convenience": 20185, "estro": 21843, "\u2581principle": 12814, "\u2581Iraq": 12627, "\u2581Brian": 12569, "\u2581balls": 16852, "\u2581hacia": 21675, "\u91ce": 30337, "\u2581\u0434\u0456": 15754, "arter": 4136, "\u2581rejo": 26351, "\u2581wondering": 12785, "\u2581connections": 12284, "\uac11": 31090, "################": 6668, "MD": 4915, "\u2581realistic": 19595, "asis": 22315, "uming": 21542, "zeichnung": 27448, "owe": 7443, "\u2581closest": 16424, "rotate": 26139, "};": 2604, "\u02dc": 30742, "\u2581gear": 13133, "\u043b\u0435\u043a\u0441\u0430\u043d\u0434": 16109, "\ub9c1": 31689, "\u2581living": 3687, "\u0442\u0440\u0430": 9745, "\u2581draws": 25587, "\u2581prof": 1957, "}-": 8767, "\u043e\u043b\u043e\u0432\u0456": 27496, "\u2581Titel": 23358, "\u2581\u0441\u0435\u0437\u043e": 21394, "\u2581vista": 28263, "\u8056": 31700, "aco": 11536, "\u2581brilliant": 14424, "\u2581Margaret": 17197, "izont": 8927, "ishes": 8137, "orph": 7591, "\u5b8f": 31934, "(-": 6422, "<0xD1>": 212, "cs": 3141, "\u2581Local": 9553, "ensis": 14320, "ACC": 26749, "\u2581impact": 5088, "\u2581pecul": 23908, "\u0304": 30778, "Window": 3899, "BG": 25015, "\u2581Low": 13091, "xFE": 19601, "\u2581cm": 8372, "aret": 8644, "\u2581\u043a\u043e\u043c\u043f\u0430": 20776, "\u2581sufficiently": 20554, "\u504f": 30719, "\u2581reality": 6940, "\u2581segu": 9879, "\u2581medi": 17286, "\u2581bored": 19739, "\u2581cached": 19970, "scriber": 22941, "\u2581three": 1712, "\u2581IS": 3396, "PR": 4402, "\u2581personality": 13355, "Notification": 13756, "Namespace": 13292, "romag": 26804, "\u2581Berkeley": 28042, "\uc77d": 31815, "\u2581holidays": 20973, "\u2581inde": 3511, "onia": 9578, "riers": 14189, "ivals": 24363, "\u6848": 30002, "\u2581specified": 6140, "\u2581solid": 6861, "\u2581crying": 15671, "\u76ca": 30914, "\u2044": 29484, "\u2581bol": 16361, "Ready": 18818, "\u2581wished": 15534, "\u2581ki": 12883, "makers": 22016, "\u2581Golf": 22932, "\u2581renew": 13293, "igible": 13538, "\u2581sentence": 12271, "retval": 15063, "<0x4C>": 79, "ients": 2785, "\f": 29683, "ensuremath": 9104, "\u2581Trace": 28626, "\u2581TIME": 25720, "cido": 20234, "nesday": 10912, "ioc": 22038, "}}(\\": 20960, "\u2581ms": 14362, "\u2581unsigned": 5479, "\u2581commitment": 13106, "\u2581harsh": 18138, "itable": 5379, "rate": 6036, "\u2581domains": 25998, "\u2581Jug": 18243, "\u2581Niger": 15501, "\u2581masses": 17536, "\u2581suppliers": 24295, "un\u00e4chst": 24490, "EqualTo": 24680, "\u2581inhib": 22358, "threshold": 21286, "\u6bd5": 31347, "\u2581Wo": 20093, "oph": 3126, "irteen": 22490, "Ste": 6732, "\u2581hallway": 23655, "Man": 2356, "Fixed": 16126, "\u2581Esc": 13731, "ropol": 13339, "\u2581Doug": 27256, "\u17cb": 30890, "\")": 1243, "iac": 14480, "chte": 24176, "\u0434\u0435\u043d": 6775, "\u2581whis": 8037, "IDE": 15087, "GIN": 20856, "\u2581Against": 27506, "\u2581benefit": 7949, "\u2581inspect": 16279, "BUILD": 23972, "\ub294": 29175, "\u5f03": 31755, "hado": 25194, "Nav": 8989, "\u2581Canadian": 10435, "ata": 563, "\u2581respected": 23425, "\u2581degli": 13810, "dbg": 14962, "\u2581entering": 15435, "ails": 2014, "itten": 3149, "augh": 3740, "\u2581penal": 15572, "\u2581Minister": 8241, "\u2581Jefferson": 18513, "BA": 4844, "<0x93>": 150, "\u2581lleg": 15546, "\u2581tant": 16110, "\u2581bunch": 11763, "\u2581identifier": 16375, "\u2581wenn": 24718, ")=\\": 11148, "\u2581They": 1306, "\u2581Gest": 25417, "\u2581Edinburgh": 25970, "\u2581Optim": 27268, "\u2581Fail": 28278, "\u0432\u043b\u044f": 10646, "\u2581PART": 11355, "\u2581SP": 14600, "\u2581questo": 16709, "\u2581waar": 14995, "\u2581preparation": 16744, "\u2581Matrix": 22711, "\u2581Hist": 4044, "LEAN": 26925, "imately": 9807, "\u2581alias": 18960, "controls": 23664, "TT": 16235, "\u9c81": 31924, "\u2581Daw": 26334, "\u2581Bobby": 20507, "\u50cf": 29663, "\u2581sy": 5747, "party": 14999, "det": 4701, "fort": 2878, "inking": 10593, "andon": 7256, "method": 4350, "\u2581\u043c\u0435\u0436\u0434\u0443": 16360, "oine": 21265, "Admin": 11744, "axy": 22720, "bre": 2152, "\u2581parse": 6846, "\u2581CHAPTER": 16399, "\u2581justify": 16205, "ego": 6221, "\u2581recipe": 13405, "\u88c5": 29722, "GetString": 26331, "\u2581Probably": 19969, "\u0431\u0440\u0438": 20940, "\u2581significant": 5864, "ior": 1782, "\u00cc": 30359, "deck": 23986, "\uc744": 29189, "\u2581vol": 2208, "\u2581mist": 5710, "reated": 10322, "\u2581circular": 20439, "\u2581compute": 12881, "icos": 8368, "ello": 4508, "\u0448": 28841, "\u2581franz\u00f6s": 24869, "\u2581genuine": 16968, "\u2581t\u00e4t": 28428, "ick\u00e9": 26169, "\u0431\u0443": 5512, "sat": 23258, "\u2581///": 1954, "\u2581discovery": 15043, "\u2581recon": 9220, "''": 5437, "\u2581gonna": 9575, "\u2581consultant": 28459, "\u2581operating": 10513, "ibly": 4912, "\u2581Pul": 26134, "Design": 18479, "\u2581stead": 10445, "Matrix": 10701, "Prefix": 11330, "Toggle": 20464, "Super": 15503, "Typed": 22646, "\u2581MERCHANTABILITY": 14105, "\u6536": 29507, "configuration": 13925, "\u0436\u043d\u043e": 16288, "\u2581\u00e2": 22506, "rific": 16878, "\u2581tym": 20853, "acci": 28127, "\u2581Seth": 28407, "\u2581EM": 22679, "\u042d": 28921, "\u2581storm": 9735, "\u2581Sk": 3891, "\u2581deutsch": 14387, "\u2581Category": 18327, "peonato": 19687, "\\[": 16927, "\u2581Target": 15255, "\u2581embargo": 20883, "\u2581peripher": 27707, "ung": 969, "Render": 7139, "\u2581restaur": 6438, "ials": 11974, "paragraph": 24926, "Var": 6745, "\u2581pr\u00e9sent": 23428, "\u025b": 29328, "\u2581corpor": 7807, "erase": 28295, "i\u0119": 14528, "e": 28706, "\u2581compile": 25584, "halten": 17397, "\u79cb": 31467, "\u2581November": 4349, "\u2581OTHER": 16897, "\u2581within": 2373, "CG": 19354, "\u2581Mock": 16093, "\u2581dressing": 21993, "Ne": 6947, "comments": 16238, "\u2581Do": 2378, "\u2581hes": 10816, "\u8bef": 29515, "\u2581bel": 1273, "\u2581gen": 2652, "\u2581juice": 18342, "isms": 10821, "\u0647": 29004, "\u042a": 31045, "\u2581Brew": 23280, "\u2581\u043d\u0430\u0441\u0435": 7599, "\u2581Hern": 28521, "\u2581pending": 15466, "\u2581Mathemat": 26698, "\u2581Ul": 12063, "heap": 22937, "atever": 4651, "\u2581Sing": 7572, "\u2581relatively": 10102, "\u2581lease": 23741, "XFF": 19881, "\u2581\u0456\u043d": 12109, "\u2581held": 3336, "\u9322": 31266, "aph": 2366, "\u2581zw": 9098, "\u2581assumption": 14776, "\u304a": 30089, "\u00e4hrend": 14934, "<0xDD>": 224, "\u045c": 30904, "quarters": 14446, "\u2581optimal": 15399, "\u2581genre": 15926, "\u2581\u0420\u043e\u0441\u0441\u0438": 13325, "\u2581edition": 12065, "\u10e1": 29407, "\u2581AL": 10461, "hedral": 19749, "Modifier": 25266, "\u7f6e": 29021, "\u2581Storage": 18857, "\u2581differential": 21813, "\u2581parked": 23643, "\u2581\u2581\u2581\u2581\u2581\u2581": 428, "\u2581modern": 4638, "\u2581appreciated": 22359, "\u2581privilege": 23037, "\u2581parts": 5099, "\u2581distance": 5328, "\u0444\u0456": 11206, "\u77e5": 29661, "\u2581advised": 21020, "ffic": 21533, "ibrary": 4129, "\u2581wedding": 9200, "\u2581preferred": 11719, "ances": 2233, "\u2581\u0410\u043b\u0435\u043a\u0441\u0430\u043d\u0434": 20217, "\u2581Ch": 689, "\u2581c\u0103": 17586, "\u2581Copyright": 5259, "\u2581Poland": 17812, "\u2581rushed": 19408, "\u02c7": 31721, "\u2581reconc": 25349, "ah": 912, "\u8bf7": 29067, "\u2581precise": 17008, "\u2581project": 2488, "\u2581Baltimore": 23349, "\u2581Ex": 1529, "\u2581Follow": 9822, "\u2581puede": 16523, "seen": 18226, "Users": 14308, "nik": 8491, "execut": 15873, "\u2581beating": 18801, "\u2581Circ": 20861, "\u2581giv": 1498, "essage": 899, "\u2581Geoff": 25136, "\u2581Officer": 16797, "\u05dc": 29077, "\u043a\u0430\u0445": 15274, "trag": 18820, "\u2581tamb\u00e9": 27144, "\u2581shine": 27882, "<0x5D>": 96, "\u2581Microsoft": 7902, "itung": 24422, "letter": 15867, "\u2581lucky": 11977, "\u2581compl": 3852, "\u009e": 30924, "\u2581blo": 3449, "?!": 18023, "assy": 21957, "\u2581radar": 24951, "\u2581<!--": 12828, "\u2581pc": 16883, "\u0441\u0442\u043e\u0432": 27321, "\u2581reasonable": 11301, "\u2581vague": 25285, "\u5e45": 31861, "\u5149": 29762, "cluster": 12027, "\u2581missed": 10012, "oxy": 22428, "\u2581ther": 7454, "\u2581statement": 6251, "Supp": 15653, "\u2581hierarchy": 25846, "\u2581reader": 8847, "iful": 3982, "ank": 978, "\u2581Fue": 21407, "dh": 22410, "onal": 13921, "pat": 3612, "\u2581introduce": 13097, "also": 18033, "\ub610": 31292, "DataSet": 26456, "\u2581volt": 9921, "!\");": 22896, "porte": 24095, "sty": 22958, "Le": 3514, "\u2581Za": 25819, "ospher": 27552, "every": 19662, "\u2581begin": 2839, "\u2581#{": 22465, "\u2581someone": 2493, "\u2581amplitude": 24157, "\u4f59": 30248, "sigma": 3630, "\u2581proced": 6803, "tags": 12586, "\u2581gli": 9973, "oga": 10491, "\u2581ret": 1699, "\u2581Bo": 3268, "\u2581Ban": 14859, "\u2581lands": 15909, "pse": 19229, "\u2581cin": 7132, "\u2581^{": 10292, "\u2581ridiculous": 16706, "\u2581nederb\u00f6rd": 28373, "Validator": 16738, "\u2581retriev": 17913, "Serializer": 20422, "\u7edf": 29531, "sdk": 17287, "Management": 17997, "\u2581Wu": 28660, "unda": 12664, "ToString": 10152, "\u2581-->": 6998, "iew": 825, "\u2581Chapter": 7513, "\u2581_,": 11006, "\u2581namely": 19902, "POL": 21411, "TARGET": 23187, "*;": 13732, "\u2581Verein": 20017, "\u805a": 31897, "\u8d64": 31398, "agen": 5786, "good": 12684, "Now": 8479, "\u4ea7": 29818, "\u62fc": 31214, "\u2581School": 4228, "ENABLED": 23788, "riteria": 12223, "sig": 13743, "\u00e9vrier": 20158, "(&": 1735, "rif": 10786, "\u2581eleg": 12999, "\u2581partie": 13861, "\u2581lapt": 16925, "\u7d44": 31043, "\u2581obtain": 5375, "\u2581impress": 7895, "BD": 9533, "\u2581Loren": 23658, "Fl": 3188, "\u2581Popular": 22864, "aurus": 24308, "<0x01>": 4, "\u2581ski": 21916, "Hard": 23226, "\u2581thing": 1970, "\u2581secured": 21667, "\ud45c": 30191, "\u2581\u00e9s": 4275, "\u2581transition": 8265, "\u9898": 29264, "listener": 21904, "\ubc31": 31250, "\u2581caps": 17294, "\u2581territory": 14293, "\u2581hade": 14996, "rep": 9157, "gling": 18700, "\u2581Grad": 17252, "\u2581Compar": 21963, "\u2581eighteen": 24196, "\u2581Whe": 6738, "\u2581painted": 14641, "oso": 13880, "Autom": 23556, "\u2581fresh": 6138, "\u89aa": 31661, "\u05e1": 29469, "\u2581ages": 14506, "\u2581Cash": 23439, "hens": 7533, "\u2581eye": 5421, "ahl": 7010, "\u2581by\u0142": 18389, "Public": 14140, "\u2581Members": 17131, "\u2581give": 2111, "\u2581Sou": 9171, "osex": 17777, "\u2581expression": 5782, "\u2581a\u00f1os": 11048, "ether": 8962, "MM": 4962, "ista": 3581, "scription": 6811, "mask": 5274, "uing": 10523, "\u2581props": 11177, "\u2581underground": 21059, "\u2581Appe": 24876, "\u2581temporary": 13415, "ioso": 28328, "\u0440\u0435\u0439": 16874, "\u2581gew": 9514, "forEach": 14182, "ilton": 9398, "\u2581logger": 11813, "Parallel": 26549, "\u65e0": 29375, "\u2581metres": 18751, "\u2581slot": 10544, "\u2581invest": 2631, "\u2581invas": 28606, "\u2581ord": 4574, "\u2581stuff": 4705, "\u2581hover": 18848, "\u2581dol": 13824, "\u2581transferred": 16266, "MARK": 27466, "\u2581united": 27434, "\u2581HA": 16450, "\u2581Office": 8650, "\u2581\u043a\u0440\u0438": 18819, "mand": 20478, "\u2581essence": 21213, "Pref": 18108, "yll": 19530, "eless": 6199, "platform": 10470, "\u2581Ide": 14017, "\u2581\u0414\u0436": 16046, "\u2581wreck": 22293, "\u0907": 31391, "\ufb01": 30160, "\u2581bland": 23494, "revs": 12468, "ugar": 18195, "\u2581prow": 23920, "UI": 5057, "meta": 8301, "\u2581img": 16001, "Up": 2738, "rick": 9450, "month": 10976, "\u2581syst": 18874, "\u2581Joh": 8870, "\u2581Loc": 5232, "\u2581ranking": 21620, "\u2581worn": 15903, "Credentials": 25847, "icism": 26163, "\u2581Real": 7960, "\u9633": 30230, "\u2581sort": 3127, "\u2581sous": 9886, "uits": 23843, ",\\": 2142, "\u7f3a": 31040, "\u2581notion": 14086, "\u2581Ten": 11819, "`);": 28682, "\u0f44": 31558, "shall": 12126, "\u2581spett": 27681, "comment": 9318, "\u6389": 30527, "\u2581politics": 9800, "\u2581Ray": 8952, "\u2581check": 1877, "\u2581said": 773, "edish": 21113, "and": 391, "\u2581railway": 18051, "\u2581SU": 13319, "nc": 14770, "\u76ee": 29222, "\u2581Lol": 23118, "\u2581\u041a\u043e": 5779, "\u2581sold": 3910, "priv": 6214, "tokens": 20228, "\u2581Around": 22166, "ifa": 25622, "\u2581dataset": 13466, "\u2581Convention": 23717, "\u00c8": 29029, "\u03b7": 29049, "umes": 9743, "alt": 2304, "\u2581\u041f\u0440\u043e": 12119, "ram": 3212, "PREFIX": 21321, "arten": 12125, "\u2581module": 4597, "tagon": 17346, "\u2581write": 3324, "ish": 789, "\u2581checked": 9681, "\u2581\u0441\u0442\u0430": 3553, "BC": 4738, "quant": 13896, "\u2581programa": 25698, "Combo": 25141, "\u05c1": 31039, "\u2581vary": 11204, "imo": 6872, "Pos": 3529, "\u2581thous": 5003, "index": 2033, "\u2581WHERE": 15803, "\u0964": 31151, "\u2581permanent": 13089, "\u2581jsou": 25954, "\uc6d4": 30839, "rium": 16988, "\u2581Seattle": 18083, "\u99ac": 30831, "icl": 26127, "\u2581safe": 5023, "asi": 8608, "\u9686": 31302, "\u2581});": 2776, "\u00e9ration": 17908, "\u0e1b": 29718, "neath": 20316, "MAIL": 28297, "\u0447\u043d\u043e\u0433\u043e": 19957, "reno": 24968, "\u043a\u0456\u0432": 10180, "\u2581um": 3205, "\u2581byte": 7500, "\u2581sake": 14408, "\u2581Site": 15156, ">\\": 11266, "\u2581Sen": 5355, "iens": 12306, "\u2581Assistant": 21631, "\u2197": 29299, "\u2581pol\u00edtica": 26854, "\u2581descriptor": 17387, "elen": 10687, "\u2581Muslim": 11258, "\u2581Used": 17477, "Box": 4114, "\u2581bom": 12793, "\u2581accounting": 20595, "\u2581Bureau": 18052, "wij": 24231, "\u984d": 31086, "\u2581Grab": 23924, "\u00f8": 28911, "handler": 8762, "\u00e8se": 26289, "aro": 10281, "\u0437\u0430": 2978, "\u2581tags": 12944, "\u043a\u043e\u043c": 7830, "\u2581behavior": 6174, "xml": 6459, "ci\u00f3n": 7909, "astr": 7225, "\u2581fs": 14731, "members": 20672, "\ub839": 31514, "\u043f\u0435\u0440\u0430": 11687, "sync": 8959, "\u2581s\u00e3o": 19947, "pipeline": 22365, "\u2581tm": 25476, "cery": 20322, "\u2581ng": 16937, "\u2581\u0441\u0435\u0440\u0435\u0434": 28200, "\u2581yeah": 12176, "CI": 5726, "\u2581serial": 10627, "\u2581ball": 4374, "\u2581indicate": 11634, "\u2581cp": 14173, "\u2581Agency": 18498, "\u2581Stewart": 20681, "\u2581U": 500, "\u2581Viv": 23849, "ascade": 28134, "\u2581leaned": 12663, "/$": 23530, "\u2581dark": 3199, "Events": 11208, "\u2581raid": 21962, "\u2581Silva": 28655, "\u6574": 29681, "\ud83d\ude14": 31303, "\u2581interior": 11154, "BO": 5759, "scalar": 27114, "\u2581administration": 10298, "\u2581responsible": 7332, "\u2581modify": 9239, "company": 17998, "\u2581ces": 11844, "\u2581prv": 24949, "\u2581worked": 4198, "\u2581comparing": 21400, "\u2581compelling": 26295, "rating": 28599, "\u2581demonstrated": 17793, "\u2581acquired": 14178, "_**": 28703, "\u0087": 29924, "READ": 8172, "\u2581suoi": 22452, "}^{-": 17592, "\u02bc": 29846, "isons": 16149, "\"}": 17395, "<0xAB>": 174, "\u2581versions": 11031, "\u00eame": 7882, "\u7eaa": 31466, "\u2581Archives": 28477, "\u2581constant": 5957, "GROUP": 17597, "actions": 5286, "\u2581mt": 23261, "url": 2179, "),\r": 23486, "\u5e86": 31301, "Jo": 22387, "\u2581dignity": 27182, "\u2581insurance": 6919, "configure": 19425, "div": 1538, "\u5176": 29450, "\u2581Girl": 10850, "\u2581Se": 1091, "akes": 1593, "\u25cb": 31269, "isEmpty": 13331, "\u2581took": 2056, "\u2581barely": 10175, "clam": 21453, "\u2581eyeb": 17659, "\u2581embar": 12261, "MODULE": 10820, "ocol": 3873, "values": 5667, "DM": 9286, "SE": 1151, "\u2581Moore": 16616, "\u2581Kr": 7787, "\u2581partners": 11796, "\u2581jun": 6362, "\u043b\u0430\u0441\u044c": 12147, "Executor": 21382, "\u2581Verify": 24544, "\u0019": 30969, "\u2581settlement": 13694, "road": 8584, "\u2581Overall": 21013, "\u2581url": 6855, "ds": 3673, "igung": 19089, "\u2581analys": 21974, "nem": 22890, "Bound": 13100, "\u2581spell": 13050, "ega": 4770, "\u7ee7": 30471, "parsed": 25218, "gue": 19302, "ViewById": 21374, "\u0431\u0443\u0440\u0433": 21439, "\u2581logo": 16388, "page": 3005, "\u2581bail": 21010, "\u2581Games": 12339, "rgb": 14226, "\u2581steady": 14889, "pas": 22328, "\u2581Buen": 22666, "arium": 26207, "\u2581k\u00f6": 8392, "\u2581refused": 11390, "\u8d26": 29918, "\u03a7": 30438, "\u865a": 31415, "\u012d": 31567, "Allowed": 23278, "hex": 17524, "\u2581rust": 14912, "\u2581clearing": 22639, "\u2581Professional": 16081, "mero": 18056, "},\\": 7472, "\u2581collar": 24018, "\u2581IL": 10428, "\u2581DM": 19884, "mt": 2630, "\u2581Did": 7164, "\u2581Dir": 19926, "\u2581options": 2877, "\u5bb9": 29329, "\u2581kw": 11038, "\u2581const": 779, "lines": 8063, "ink": 655, "istribution": 12074, "routing": 17975, "fre": 19575, "\u2581intersection": 19837, "people": 21721, "\ub958": 30810, "sha": 15564, "\u2581vendors": 27852, "\u2581alpha": 15927, "\u12a0": 31942, "EEE": 20381, "\u2581foreach": 11927, "\u2581applied": 7589, "\u2581Student": 15965, "\u2581compound": 18300, "\u2581achieved": 12011, "\u2581comme": 6702, "glas": 15611, "cls": 16723, "\u043d\u0443\u0442": 27452, "referto": 28557, "\u2581appreci": 7415, "edo": 24436, "\u2581ett": 9947, "\u2581observ": 3977, "\u2581seva": 16931, "\u2581Front": 13794, "nx": 19736, "\u2581insect": 16918, "\u2581activated": 27024, "\ud2bc": 31285, "am": 314, "\u2581Anti": 23331, "\u2581writ": 2281, "ije": 11119, "ULT": 4874, "\u2581born": 5381, "\u2581assumptions": 19573, "\u2581foster": 27560, "\u2581loading": 14617, "\u2581enorm": 12151, "\u2581pom": 13296, "\u2581trash": 17466, "\u2581EXPRESS": 27711, "\u2581Ap": 4002, "\u2581eing": 13262, "\u2581Someone": 16124, "\u2581septembre": 18599, "\u00fcber": 20173, "\u2581welfare": 21607, "\u2581catching": 23729, "\u2581implementing": 27068, "\u2581harm": 6241, "\u2581carb": 24167, "\u2581\u00bb": 3488, "\u2581defe": 8464, "oslav": 21734, "ifest": 7541, "Hi": 23809, "rq": 11916, "\u2581Sher": 10511, "\u0cb5": 31802, "\u2581obj": 4584, "\u2581urged": 24560, "\u2581Keep": 10339, "\u2581treatment": 5827, ":%.*": 16772, "gif": 27223, "\u2581patent": 23445, "\u2581collected": 12469, "rav": 20524, "\u2581tricks": 25556, "\u2581center": 4982, "\u2581Sv": 20810, "aaaaaaaa": 25332, "\u2581Den": 4745, "onymous": 12928, "\u2581Easy": 18945, "bucket": 19599, "\u2581Band": 10521, "iu": 7509, "\u04af": 30186, "\u2581orange": 14545, "hythm": 16321, "\u65cb": 31027, "\u2581exec": 19626, "lights": 12918, "\u2581\u0445\u0438": 27220, "istic": 3320, "\u2581Clay": 19230, "_-": 26428, "Built": 28002, "anean": 23554, "\u2581freeze": 26927, "wright": 27528, "\u2581prefix": 11398, "ribed": 13284, "\u2581yellow": 9684, "\u2581Sky": 14852, "\u2581Lie": 9020, "unter": 16442, "\u2581brothers": 12646, "\u2581than": 821, "\u2581imperial": 20118, "\u2581Pand": 24802, "yect": 23132, "\u2581maintenance": 12364, "usive": 6657, "\u00f6tt": 14521, "\u2581beskrevs": 12755, "\u2581Send": 12710, "istributed": 25625, "\u2581costume": 27239, "\u2581ethnic": 18433, "\u2581przy": 13986, "\u2581meantime": 26762, "\u0e13": 30526, "\u2581seu": 7987, "\u2581mistake": 11990, "\u0640": 29791, "ulf": 12981, "\u2581take": 1388, "\u2581yards": 11107, "tern": 974, "========": 1647, "\u2581salary": 19158, "lj": 23140, "Blob": 22388, "imeq": 21876, "pk": 16270, "Pars": 26412, "sql": 5929, "wc": 20894, "\u2581inevitable": 21924, "\u2581incredible": 13978, "\u56db": 29882, "\u6b8a": 31267, "ought": 1322, "ix": 833, "\u2581fict": 24138, "\u4ea4": 29471, "\u2581alignment": 19492, "\u2581Chi": 17792, "\u2581equilibrium": 24699, "idx": 5251, "ivamente": 18277, "\u2581stagger": 25132, "uri": 6395, "\u30a4": 29157, "CC": 4020, "\u2584": 30213, "blocks": 14965, "\u0bc1": 29981, "Modal": 14025, "\u2581problems": 4418, "Generator": 11453, "\u043d\u043e\u0432\u0435": 23791, "\u2581controlling": 24148, "\u2581SPD": 24151, "\u0438\u043b": 24962, "\u2581nob": 7169, "\u2581reducing": 17032, "\u2581Multi": 18317, "\u7cca": 31984, "\u2581\u043f\u0440\u0435\u0437": 15855, "\u2581equipment": 7108, "\u5c55": 29947, "\u4f17": 31092, "\u2581Soon": 17232, "\u2581acquisition": 23011, "\u2581guidelines": 18392, "\u2581\u00dcber": 19265, "\u2581\"../../": 21047, "\u2581convention": 18698, "brand": 20111, "\u2581\u0441\u0442\u0440\u0430": 13488, "\u2581Platz": 14822, "castle": 25305, "refer": 16769, "filter": 4650, "\u2581AMD": 27837, "?.": 11030, "woman": 24132, "CHAR": 12064, "\u2581component": 5641, "\u2581Sof": 21918, "\u2581YO": 10834, "\u2581Vlad": 20551, "commons": 26527, "\u2581bird": 7727, "}}$": 8112, "\ud83e\udd37": 29905, "ger": 1097, "MEDI": 24249, "\u2581subst": 11381, "\u2581nerv": 9434, "pret": 5520, "forms": 14367, "Exec": 20002, "event": 2883, "\u2581Lesser": 19570, "embed": 18320, "\u2581properties": 5508, "owany": 19035, "PRI": 22785, "\u2581done": 2203, "\u2581occasional": 20636, "ements": 4485, "\u2581Being": 12960, "Destroy": 17520, "otted": 9752, "\u2581comparison": 10367, "\u2581purple": 19435, "\u2581session": 5313, "\u2581energies": 22972, "(\".": 15560, "\u2581but": 562, "antine": 24120, "\u6c38": 30507, "deprecated": 27083, "\u2581scattered": 20995, "\u5747": 30637, "itis": 17428, "zu": 13581, "\u2581convergence": 23662, "\u2581Platform": 21018, "\u2581fus": 26400, "\u2581**\"": 24079, "around": 20886, "aling": 4726, "\u2581communicate": 16287, "\u2581miem": 26884, "\u0094": 29191, "\u2581mouth": 5108, "\u2581US": 2223, "igh": 956, "uggest": 16939, "inet": 7752, "\u1791": 30973, "\u2581Sale": 19338, "\u2581sympathy": 26453, "\u2581Point": 8571, "Cfg": 27096, "RV": 19578, "ync": 2122, "\u2581gri": 15854, "\u2581bub": 22723, "\u05d9": 29005, "\u1e93": 31905, "\u2581Mom": 9870, "Pack": 5932, "\u2581Ron": 9975, "vr": 11277, "halb": 19273, "\ub4f1": 30390, "anya": 19791, "generate": 15001, "\u2581recru": 17372, "<0xCF>": 210, "awk": 22527, "SF": 23710, "\u2581treated": 9852, "\u2581Twenty": 23263, "\u2581worse": 6871, "\u2581pas": 3557, "\u2581Bring": 24786, "Lock": 9192, "\u2581Quant": 22655, "afi": 27312, "\u2581Day": 5399, "\u2581gambling": 20696, "\u2581Reyn": 25883, "\u2581TF": 23260, "naissance": 24944, "ovan": 13704, "\u2581very": 1215, "Foreign": 23314, "\u2581unters": 24760, "\u2581Aur": 25935, "__(/*!": 25351, "isArray": 28000, "\u17a2": 31379, "gg": 1576, "print": 2031, "CLUDING": 16634, "\u2581tray": 22517, "TR": 2050, "width": 2617, "\u2581rele": 4444, "elt": 1807, "\u0445\u0430": 5327, "\u2581Ted": 15268, "itsch": 22158, "ibile": 24109, "route": 11833, "\u2581secur": 22214, "\u2581mism": 25279, "\u2510": 31175, "\u2581\",": 7717, "Are": 5985, "\u2581cz\u0119": 22375, "\u2581Prom": 12948, "\u2581knock": 13476, "\u2581Published": 22837, "\u10d6": 30862, "ylan": 21605, "\u2581Files": 27435, "\u6025": 31653, "('#": 10457, "\u2581deeper": 13551, "\u2581\u0434\u0435\u0440\u0435\u0432\u043d\u044f": 28398, "\u2581fot": 16111, "\u2581ud": 18493, "fa": 6024, "\u2581fundamental": 11854, "Import": 11944, "uar": 11042, "\u2581colonial": 20150, "\u2581Element": 11490, "QU": 7855, "\u0440\u043e\u0434\u0438": 21145, "<0x91>": 148, "uki": 17299, "\u2581cooperation": 21732, "\u2581Criteria": 26496, "includes": 19459, "screen": 8555, "Pass": 6263, "eted": 14610, "anqu": 20668, "rief": 4667, "plier": 10724, "\u2581Stre": 4589, "\u2581gel": 12694, "\u2581month": 2102, "\uce58": 30159, "\u2581M\u00e9": 16786, "gnu": 19588, "\u2581improve": 4916, "\u2581Serv": 15541, "equ": 958, "\u2581Arab": 9111, "alg": 12394, "\u00f5": 28925, "tt": 781, "\u0441\u0441\u0438": 6993, "PARAMETER": 26242, "i\u0105": 18424, "esser": 25711, "\u10dd": 29627, "\u2581Lub": 25115, "flu": 17262, "\u2581cart": 7548, "iddleware": 16952, "\u2581vehicles": 11999, "\u2581\"\");": 22053, "\u2581dollar": 16996, "lio": 11126, "\u2581compass": 16444, "\u2581Yes": 5592, "\u2581disappointment": 26820, "double": 6324, "\u2581wyst": 23196, "\u2581memo": 27667, "idan": 27966, "\u2581witness": 9149, "\u2581pa": 5881, "\u2581gown": 26736, "\u2581nutrition": 25986, "Mir": 23925, "\u0629": 29141, "\u2581hope": 3317, "\u2581seriously": 10160, "atts": 24341, "emen": 15295, "\u98db": 31765, "\u2581Hil": 17577, "\u2581say": 1315, "\u2581expect": 1675, "icip": 4363, "ious": 925, "\u2581satellite": 22046, "STATUS": 8186, "usters": 12855, "xpected": 9456, "\u2581collapsed": 22431, "\u2581insight": 16164, "\u2581Making": 19387, "\u2581dealt": 21759, "boot": 9446, "\u2581slaughter": 28623, "\u2581hills": 18553, "\u2581rape": 21170, "ork": 580, "<0xF2>": 245, "bers": 1891, "\u2581almost": 2779, "frame": 3413, "\u2581rates": 7978, "\u2581shelter": 18596, "riet": 13769, "pace": 2644, "claimer": 20032, "gmail": 23769, "\u2581\u043f\u043e\u0441\u043b\u0435": 10444, "\u62e9": 29608, "\u0935": 29862, "GG": 22422, "kl": 4784, "\u6731": 31947, "hw": 6118, "\u2581temps": 12974, "\u2581what": 767, "ployment": 9129, "Edit": 8470, "\u2581Whether": 9989, "\u6c14": 30627, "Gate": 16485, "\u2581zam": 23884, "\u2581bald": 26128, "\u043d\u0430\u0440": 28019, "core": 2291, "\u0441\u0442\u0430\u043d": 12073, "\u2581headquarters": 18484, "\u2581saves": 28507, "\u0163": 29360, "\u2581Setting": 23433, "\u5947": 30786, "\u2581opened": 4923, "inden": 20440, "\u2581nv": 25962, "\u3084": 30696, "\uc218": 29151, "\u56fa": 30657, "\u2581worldwide": 15245, "uary": 4084, "\u2581raises": 26721, "\u2581keeping": 7603, "\u2581terms": 3471, "Large": 27408, "\u2581(**": 20714, "\u2581pkt": 28568, "\u9646": 30941, "\u2581renov": 19103, "Structure": 20897, "\u2581departments": 25626, "Component": 3621, "gent": 6188, "\u2581Kill": 25262, "\u2581\u0442\u043e\u0439": 28653, "<0x72>": 117, "\u2581warned": 16808, "ACE": 6116, "ARY": 10713, "\u2581Fro": 18760, "\u2581\u043e\u0431\u0435": 26949, "setValue": 26532, "transaction": 14556, "atile": 13491, "\u2581Kelly": 15282, "\u2581wiped": 23410, "izia": 24536, "\u2581leurs": 17951, "\u2581fitting": 20068, "fe": 1512, "Items": 7816, "\u0441\u0442\u0440\u0430\u0442\u0438\u0432": 21636, "printf": 4631, "GLOBAL": 21742, "He": 2428, "\u2581attr": 7527, "struct": 1356, "\u2581Ernest": 27915, "\u2581Food": 11435, "END": 5000, "\u2581Pin": 17929, "\u2581dynamic": 10616, "\u2581Gall": 14225, "iao": 23985, "\u2581Android": 12654, "eks": 23810, "\u2581Isn": 28026, "eking": 25447, "\u2581cig": 11595, "\u8863": 31524, "zk": 14109, "(),": 1648, "\u2581COMP": 22093, "Network": 8653, "\u2581blast": 23096, "\u2581ASSERT": 9196, "\u2581misunder": 26670, "aude": 18188, "atique": 24476, "ored": 2455, "MetaData": 26620, "\u2581search": 3472, "\u2581September": 4074, "cit": 21990, "\u2581cheaper": 20326, "\u2581unlikely": 15764, "\u2581power": 1982, "\u2581remembered": 10216, "src": 3478, "\ud83e\udd7a": 31816, "rael": 5815, "strong": 9849, "\u2581help": 1316, "amaz": 13676, "\u2581Builder": 14942, "\u671b": 30606, "UE": 3027, "\u2581Among": 13927, "\u2581tips": 10636, "\u2581ME": 13835, "Loaded": 24368, "indust": 25366, "\u2581json": 7611, "\u2581gleich": 27362, "agma": 18102, "\u2581saint": 27361, "\u2581Mist": 25200, "\u2581coach": 7786, "\u2581gaps": 27612, "\u2581climbed": 17070, "ativa": 15618, "\ub9c8": 30103, "\u2581Burg": 17646, "\u00dc": 28961, "\u2581Bro": 4168, "Yeah": 12204, "\u2581\u043c\u0443\u0437\u044b": 27277, "\u2581demon": 5762, "\u2581Stud": 4906, "\u0410": 28858, "Tags": 14283, "\u2581prize": 17848, "wd": 9747, "\u2581key": 1945, "etzt": 17982, "LD": 12093, "Display": 7524, "\u2581lung": 14966, "\u671d": 30746, "\u2581laid": 10535, "\u2581achieve": 6619, "<0xA8>": 171, "\u2581customers": 5688, "\u2581nahm": 28196, "\u00fcng": 22572, "\u2581ride": 9015, "\u2581Battle": 13711, "?,": 24542, "\u2581urban": 12270, "\u3075": 31896, "\u043f\u043e\u0440": 27593, "wards": 2686, "\u2581motor": 8609, "Available": 18949, "\u2581colored": 22157, "ool": 796, "\u2581conve": 18301, "\u2581cens": 19983, "\u0bcd": 29431, "}))": 21999, "mathrm": 3943, "\u2581headers": 12489, "\u0432\u0438\u0434": 27190, "Feed": 20967, "isle": 24468, "\u30ba": 30238, "\u2580": 30374, "ascular": 28140, "\u2581pret": 9525, "\u2581colleges": 26819, "onial": 23621, "\u026f": 31678, "Flags": 7651, "\u2581\u043f\u0440\u043e\u0433\u0440\u0430": 23462, "\ub2f9": 30287, "\u2581Sn": 10881, "\u2581\u0447\u0435\u043c\u043f\u0438": 18961, "\u2581de": 340, "\u2581Arch": 6573, "\u2581travel": 4530, "\u2581brief": 6817, "\u2581Price": 11589, "\u95ed": 29890, "vc": 8904, "\u2581dragged": 20212, "\u2581ongoing": 15260, "matches": 17990, "\u2581Tit": 9495, "\u2581anger": 11217, "\u52a0": 29058, "\u2581een": 2817, "\u2581invited": 12313, "\u2581Anc": 23952, "accur": 25318, "Private": 12455, "\u2581Leonard": 25298, "\u2581Wales": 14831, "\u2581decide": 7964, "\u2581Output": 15985, "\u2581Louisiana": 24269, "\u2581tract": 25180, "\u2581Development": 10340, "\u2581captured": 13382, "\u2581belt": 14857, "\u2581Span": 8299, "acer": 9172, "\u2581vacc": 10980, "\u2581concept": 5935, "Vari": 6840, "nals": 25813, "\u2581ca": 7913, "itches": 15868, "\u2581condition": 4644, "\u2581Stage": 22532, "\u2581various": 4118, "\u2581enters": 27033, "\u9632": 30338, "\u2581Norman": 22545, "others": 15869, "\u2581damp": 19151, "\u2581fade": 26530, "ven": 1434, "\u2581modes": 14855, "\u2581Sa": 7506, "\u52b9": 31075, "\u30e4": 31234, "\u2581sensitive": 13509, "\u2581lad": 9776, "\u2581shel": 8816, "\u2581evaluate": 15627, "\u008e": 29637, "court": 28129, "\u2581below": 3624, "\u2581sav": 8639, "\u2581grud": 24332, "\u2581corre": 7952, "\u2581assistance": 11611, "\u0916": 31230, "\u0447\u0430": 1956, "\u2581accused": 16380, "\u2581Legisl": 26216, "}|": 12311, "plic": 1256, "\u2581Hal": 10262, "\u2581wouldn": 4048, "\u2581soldier": 15232, "\u2581sprint": 15409, "rest": 3290, "\u2581ritual": 21078, "CCESS": 9476, "andom": 3318, "\u2581Fun": 6785, "uv": 5388, "Balance": 24317, "<0x6F>": 114, "two": 10861, "xC": 9075, "\u0bc8": 30576, "UA": 25099, "\u0442\u043e": 914, "\u2581SOFTWARE": 14891, ":\\": 9941, "\u2581specialist": 19899, "\u500d": 31070, "\u2581garlic": 25795, "\u2581Vik": 20820, "\u901f": 30029, "\u2581Kam": 15346, "'_": 16314, "\u2581online": 3270, "\u2581lub": 20157, "\u2581przed": 22749, "\u2581season": 3302, "IGHT": 7614, "thlet": 10016, "MIN": 9904, "\u2581nebo": 28494, "ULL": 1625, "\u2581bund": 22978, "selected": 9300, "\u2581convinced": 13746, "iop": 19072, "atem": 24359, "\u2581t\u00e9l\u00e9": 27961, "\u2581\u0446": 6033, "<0xA7>": 170, "\u2581dur": 5598, "\u043c\u044b": 9379, "\u2581\u00ed": 23684, "ucture": 8187, "\u4eca": 30316, "\u2581unpre": 26641, "OPTION": 18180, "\u2581lie": 4852, "ically": 1944, "orse": 14202, "\u2581Kol": 15018, "Med": 15774, "ord": 556, "\u2581Rate": 27773, "\u2581cap": 2058, "amer": 6962, "\u2581fluct": 19363, "\u2581shouting": 23861, "hl": 7529, "library": 16228, "\u2581\u043f\u0440\u043e\u0444\u0435": 21818, "n\u00fd": 24160, "gon": 28684, "sey": 7353, "\u3081": 30110, "\u2581tiene": 16262, "\u2581establishment": 18413, "Range": 6289, "plugins": 16142, "\u00f0": 29092, "opyright": 4477, "\u2581photograph": 9180, "\u2581bos": 16158, "night": 6988, "\u043f\u043b\u043e": 23563, "\u2581Craft": 27310, "\u2581Limited": 19637, "\u2581cheap": 9650, "\u2581Panel": 27968, "oney": 2011, "\u2581Score": 18528, "whel": 12291, "Have": 12341, "cean": 8983, "\u2581radio": 6480, "\u2581protest": 8287, "\u2581ocean": 13993, "\u2581nearly": 5597, "\u2581Currently": 21520, "ensor": 4037, "\u2581dyn": 16150, "uch": 903, "\u2581\u043d\u0430\u0439": 15977, "\u2581wishes": 18907, "\u2581datasets": 26882, "connector": 23995, "\u2581gym": 14310, "\u2581deny": 19685, "\u2581hundreds": 10524, "\u2581continues": 10352, "\u2581\u00d7": 15770, "ense": 1058, "\u2581resist": 14905, "dsi": 26416, "\u2581highlighted": 27666, "\u2581jul": 17521, "\u0161": 28873, "\u2581accidentally": 27630, "\u0219": 28903, "\u2581jog": 18903, "\u2581considered": 4525, "\u2581Guerra": 21913, "Common": 12081, "\u2581respective": 17376, "capacity": 26353, "\u2581Comment": 19479, "\u2581next": 1679, "\u2581Mel": 6522, "\u2581lift": 7818, "details": 13856, "\u0d9a": 31910, "\u30ae": 31307, "uated": 25473, "\u2581OPT": 28406, "\u30a2": 29322, "\u2581adults": 12111, "aille": 14286, "\u2581nella": 8360, "LEASE": 25634, "\u2581ave": 14257, "profile": 9247, "abb": 13277, "\u3058": 30692, "\u2581Indeed": 12876, "\u2581Crow": 19543, "\u2581Nacional": 14659, "\u2581believing": 23935, "lle": 20703, "\u00da": 29070, "\u63db": 30970, "\u2581existence": 9025, "\u79d8": 31544, "\u2581defend": 11754, "\u0440\u0438\u0442\u043e": 13545, "\u2581industry": 4779, "\u2581duplicate": 27071, "osed": 2352, "free": 3669, "\u2581Ross": 12124, "\u2581rav": 25782, "\ubcf8": 30535, "Est": 14644, "umble": 19083, "js": 2777, "BR": 11145, "\u2581\u0434\u043e\u043c\u0430": 21807, ">?": 23911, "\u21a9": 30954, "\u2581together": 2553, "iate": 13713, "Sizes": 25735, "\u00e1j": 25187, "\u2581\u0430\u043f\u0440\u0435": 23242, "\u89a7": 31722, "\u2581hidden": 7918, "\u2581Constant": 15120, "och": 4042, "\u2581peace": 6405, "\u2581signature": 12561, "\u2581approval": 15000, "ueva": 22400, "\u2581relev": 26340, "tha": 15716, "student": 22523, "\u2581''": 9842, "\u2581fingers": 7856, "\u2581conduct": 9086, "\u0456\u0432": 2813, "athers": 13877, "isha": 22674, "<0x85>": 136, "\u2581updating": 26187, "\u2581Nina": 27664, "istr": 2174, "vare": 5869, "\u0153": 28952, "\u2581franch": 16838, "agnostics": 14127, "\u0159": 28883, "\uc18c": 29566, "\ud83d\udc80": 30785, "\u2581trouble": 7598, "enes": 25864, "amd": 27874, "ED": 1906, "nie": 4255, "\u0142a": 6905, "pf": 10018, "\u021bie": 19217, "\u2581proves": 25832, "tenance": 9944, "Method": 3942, "\u2581secolo": 24748, "ef": 797, "\u0463": 30350, "\u2581cars": 8300, "\u2581nails": 26539, "\u2581Ve": 13343, "substr": 23341, "ENSE": 7592, "\u30bb": 29932, "null": 3576, "\u2581\u0434\u0435\u044f": 20720, "Seconds": 20852, "\u2581responses": 14915, "\u2581aside": 10276, "\u2581Products": 21061, "fee": 26652, "\u6d4b": 29584, "\u0436\u0435\u043d\u043d\u044f": 19195, "ead": 1109, "\ub9bd": 31751, "rect": 3123, "\u2581Ven": 10178, "\u2581:)": 15108, "\u2581ay": 15250, "entre": 23718, "\u2581jaw": 16223, "\u2581Quebec": 27798, "\u804a": 31600, "mc": 12961, "\u2581chunk": 11077, "\u0458\u0435": 3129, "\u2581NT": 26577, "Profile": 8721, "\u2581documented": 26624, "\u2581ate": 15732, "\u307f": 29921, "\u2581ges": 10665, "\u2581chop": 16811, "\u2581unfortunately": 22014, "\u2581febbraio": 26833, "\u2581Trade": 17684, "\u2581Kar": 7775, "\u2581sensation": 23413, "PEND": 25902, "\u76ae": 31279, "\u2581walked": 5610, "\u2581inline": 12901, "\u2581sug": 28670, "many": 24081, "NL": 16717, "Material": 12976, "\u2581Mill": 6274, "ERS": 10291, "\u2581barrel": 18566, "\u2581cruel": 18965, ")$-": 25878, "ward": 1050, "\u00f3t": 22912, "\u2581\u0433\u043b\u0430": 25046, "byte": 5301, "\u2581price": 4144, "oded": 6546, "\u2581Tes": 25687, "\u2581Ober": 13119, "chema": 3963, "\u2581space": 2764, "kn": 13223, "\u2581Grant": 14301, "\u2581\u0440\u0430\u0439\u043e\u043d\u0430": 22243, "contact": 16570, "\u2581thy": 23165, "\u2581>": 876, "Running": 23802, "\u2581javax": 7385, "\u2581Survey": 24004, "Do": 4957, "\u0161\u00ed": 12490, "VENDOR": 24762, "idi": 10064, "PK": 15234, "\u0cc6": 31421, "parameters": 11438, "\u2581last": 1432, "\u2581magazine": 11059, "\u2581California": 6247, "\u2581RT": 17059, "invalid": 10702, "\u010f": 29365, "\u2581nah": 20330, "\u2581your": 574, "theta": 4280, "velope": 17173, "Bro": 21404, "uffled": 26545, "jours": 22200, "erie": 15519, "\u2581eas": 1897, "cher": 6113, "\u2581donc": 19477, "'(": 22382, "\u0cbe": 31026, "indow": 1511, "occ": 21450, "\u2581the": 272, "\u2581scary": 23957, "\u2581Michigan": 13642, "\u2581extraord": 14577, "\u2581drawings": 27763, "\u2581Though": 10080, "\u4e61": 29971, "\u7ef4": 30185, "Core": 5908, "\u2581\"'": 13006, "\u30cf": 30483, "\u2581them": 706, "\u2581experienced": 8304, "itations": 25964, "ple": 792, "\u2581Ludwig": 24628, "ipher": 10447, "\u2581Academy": 10819, "aint": 1690, "\u2581Canada": 6082, "\u043d\u0435\u0440": 16146, "\u2581redirect": 16219, "SN": 15024, "\u2581M\u00e9xico": 24602, "\u2581Democr": 7005, "integr": 16273, "\u8ba1": 29382, "kers": 21003, "habil": 23005, "\u540e": 29120, "\u2581Mike": 9360, "\u2581Erik": 25367, "\u5e38": 29408, "Application": 7951, "olut": 1420, "Serialization": 21046, "\u028a": 30257, "\u4fe1": 29080, "\u2581curt": 22372, "umps": 10575, "doors": 25261, "\uae40": 30869, "\u2581html": 12383, "\u2581nice": 5171, "COLOR": 20266, "in": 262, "\u2581Rest": 9576, "End": 3861, "\u2581permet": 14632, "\u2581Zur": 25571, "\u2581dealing": 12292, "\u2581travelling": 25007, "\u2581fell": 5970, "\u2581\u044f\u0432\u043b\u044f": 16207, "\u2103": 31438, "USE": 7943, "\u2581intellectual": 15984, "\u0437\u043e": 3965, "\u2581Direct": 6055, "$}": 15489, "\u2581Canal": 25772, "\u2581entr": 7142, "\u2581febrero": 27906, "umbled": 12802, "mathbb": 2916, "\u2581capture": 11319, "ga": 2504, "\u2581conne": 2334, "bres": 13243, "\u00ef": 28920, "unately": 21944, "bit": 2581, "\u043d\u0456\u0439": 13238, "\u2581\u0441\u0435": 2310, "\u2581Dest": 14466, "essen": 21951, "J": 28798, "\u0432\u043e": 1175, "\u2581Back": 6795, "ountry": 12612, "\u2581\u0447\u0435\u043c\u043f\u0438\u043e\u043d\u0430": 24230, "ben": 3173, "\u2581~": 5913, "Fatalf": 28423, "\u522a": 31668, "\ud589": 30094, "\u5e73": 29549, "\u0e99": 31904, "\u2581specialized": 23427, "TIMEOUT": 21911, "Effect": 8460, "\u2581workshops": 26329, "\u2581hay": 16664, "\u2581Dod": 22790, "\u0436\u0438\u0432\u0430": 24676, "azzo": 24611, "\u2581Annie": 21780, "\u2581soccer": 22642, "Msg": 7519, "\u6280": 30021, "\u2581ger": 16447, "\u1e25": 29624, "\u2581resid": 12899, "\u2581realised": 24425, "entes": 11829, "disk": 17460, "\u2581diagnosis": 21967, "\u2581HIV": 25401, "\u5317": 29799, "\u2581pers": 3708, "\u665a": 31671, "\u2581toe": 11329, "cia": 5011, "\u2581j\u00e1": 24774, "(/": 16552, "\u2581myst": 11947, "get": 527, "\u0117": 29325, "\u2581ost": 19862, "running": 17316, "\u2581blond": 28506, "UV": 21326, "Modified": 19288, "\u2581\u041d\u0430\u0441\u0435\u043b\u0435\u043d\u043d\u044f": 25975, "\u2581available": 2632, "\u2581\u00c5": 15744, "\u2581Bru": 8944, "ilities": 3780, "\u2581username": 14412, "orne": 13528, "\u2581breakdown": 26987, "\u2581resources": 5823, "\u2581master": 5968, "\u2581manufacturing": 15186, "\u2581regards": 22573, "encing": 10695, "\u7b2c": 29353, "\u2581must": 1580, "->": 471, "psilon": 6000, "iones": 4639, "dims": 25056, "\ud83d\ude4f": 30768, "\u2581britann": 25206, "\u2581r\u00e9g": 10551, "\u821e": 31622, "\u62f3": 31588, "\u00e1sa": 21767, "rm": 1737, "history": 15205, "\u0165": 29114, "\u2581Ac": 4868, "\u2581Military": 19844, "\u2581subject": 3817, "\u2581Exp": 16790, "head": 1811, "\u2581CR": 12007, "storage": 11105, "\u2581phrase": 14804, "\u2581filed": 16691, "\u2581Exchange": 21162, "\u2581Tools": 26258, "\u2581\u0414": 2375, "client": 3305, "\u2581Null": 21238, "\u2581genu": 11624, "\u2581Cert": 12089, "imm": 8645, "game": 8835, "DEF": 11550, "\u2581budget": 8326, "cards": 24073, "\u2581Michelle": 24970, "\u2581stepping": 25719, "FUNC": 18412, "\u0917": 30167, "\u043d\u0438\u0447\u0435": 17856, "eping": 11734, "\u2581wool": 25943, "ASK": 16804, "\u04e9": 30340, "\u2581taxi": 24550, "\u2581relate": 21506, "\u2581compression": 25242, "ons": 1053, "\u8a2d": 29768, "\u2581gave": 3395, "local": 3959, "<0xA2>": 165, "\u2581adjacent": 20480, "moment": 26471, "getOperand": 27862, "\u0caf": 31826, "\u2581\u0441\u0432\u043e": 6278, "FC": 5417, "\u099c": 31220, "\u2581router": 15736, "istry": 4535, "\u2581Zone": 20312, "\u2581majority": 7757, "ATE": 3148, "space": 3603, "General": 15348, "fy": 26253, "ologie": 7851, "jQuery": 15442, "\u2581aff": 2211, "\u2581gang": 13071, "\u2581Myst": 22737, "inski": 27387, "\u30cb": 30297, "enty": 3743, "\u1ecb": 29765, "\u2581comes": 3435, "\u2581composer": 24983, "\u2581weed": 27151, "\u2581pier": 10833, "\u2581disappointed": 18913, "\u2581clear": 3081, "\u2581normalized": 24814, "\u672c": 29119, "\u1ef3": 31540, "elines": 25465, "\u2581trial": 9070, "fig": 885, "\u2581Ridge": 25440, "appe": 6553, "\u2581trick": 10777, ":": 28747, "\u2581Change": 13204, "\u2301": 30413, "\u2581cultural": 8932, "\u2581N": 418, "\u2581Nev": 16206, "\u2581beaten": 22771, "\u2581RF": 27063, "){\r": 18055, "\u2581compromise": 25479, "\u2581GFP": 23577, "MAG": 16271, "\u2581frequency": 11010, "\u2581fonction": 23473, "DP": 10485, "ittest": 27632, "Getter": 26270, "\u2581humor": 17276, "arel": 24104, "switch": 7252, "aglia": 25413, "ainers": 23606, "Tensor": 15705, "\u2581Pil": 16025, "\u2581dream": 4999, "ospel": 19432, "CODE": 8233, "\u2581spo": 14444, "<0x73>": 118, "aba": 5544, "sal": 15459, "Add": 1991, "\u2581Hof": 24557, "\u2581Lor": 28009, "$": 28776, "\u2581Reading": 19118, "Send": 8363, "'=>": 14186, "Parts": 26908, "<0x76>": 121, "\u2581solving": 22100, "bounds": 22048, "our": 423, "prototype": 6633, "\u2581snake": 24342, "\u2581connecting": 19135, "\uc11c": 29305, "\u2581nej": 25699, "\u2581USE": 13467, "inners": 12190, "\u2581scholarship": 25620, "omp": 23947, "ners": 5949, "\u2581Barn": 15002, "\u09a8": 29811, "\u2581sea": 6163, "\u2581wetenschapp": 16909, "\u2581arrest": 8431, "\u0442\u0435\u0439": 22635, "pet": 6193, "\u2581assert": 2177, "\u2581citt": 17540, "\u6761": 29391, "ist": 392, "\u2581\u0412\u0430": 10678, "\u2581tom": 6679, "\u2581Won": 27611, "\u2581purchase": 7725, "\u2581sprintf": 22804, "\u00e1z": 8905, "\u2581vest": 16568, "Sec": 6291, "avier": 18695, "\uc900": 30723, "\u200c": 29611, "AspNet": 13205, "Ir": 25112, "\u2581Nie": 27805, "\u2581programme": 14441, "ersion": 3240, "\u2581jel": 21776, "\u2581horse": 7947, "\u120d": 31741, "\u2581monde": 15004, "\u2581golf": 15485, "\u2581retr": 17895, "\u6b7b": 30435, "\u2581Wien": 26935, "\u2581conversation": 7114, "\u2581remote": 9308, "\u2581NBC": 28316, "\u2581Fol": 12543, "\u2581origin": 5016, "\u2581independ": 5060, "learning": 27936, "Verify": 20847, "ensional": 9723, "\u2581warrant": 9775, "\u2581conserv": 6961, "notes": 18787, "\u2581profess": 3778, "FEATURE": 23578, "Models": 13736, "\u2581affection": 21147, ")\r": 3174, "\u2581trap": 16452, "enda": 9279, "\uc788": 29604, "<0x70>": 115, "itative": 16462, "\u2581operated": 16985, "Cal": 7618, "\u00ed": 28827, "\u045b\u0438": 25213, "rings": 26661, "\u2581stronger": 12774, "\u307b": 31529, "aram": 762, "CASE": 24152, "\u0395": 29563, "IP": 2665, "\u0441\u0442\u0435\u0440": 16487, "<0x4F>": 82, "Will": 12695, "\u043a\u0430\u0437\u0430": 13258, "\u2581Handle": 16736, "uss": 1349, "\u2581listen": 7105, "\u2581Bey": 16015, "\u2581implements": 10538, "\u2581Down": 8560, "backup": 27078, "Express": 24637, "\u2581Yan": 18421, "sized": 20838, "\u2581Construct": 23821, "toEqual": 18665, "\u2581Mitglied": 20977, "Fore": 13275, "EOF": 23745, "\u2581determines": 25374, "::~": 27893, "\u2581trainer": 28333, "\u031e": 31327, "\u2581reflects": 24345, "\u2581ports": 21148, "\u2581Maria": 8866, "-%": 23962, "\u2581mayor": 11471, "\u2581driver": 6303, "changes": 17330, "SPI": 23483, "\u2581Fly": 20049, "\u2581Mis": 21297, "\u2581PAGE": 23509, "\u2581param": 2095, "\u043b\u043b\u0435": 16832, "\u2581sull": 14974, "\u2581Peace": 18864, "itemize": 14287, "\u2581$": 429, "\u2581winner": 13842, "at\u00f3": 23095, "\u2581NA": 20258, "IC": 1604, "staff": 27943, "6": 28784, "ellig": 6095, "3": 28770, "Be": 3574, "\";": 1599, "Vis": 5198, "\u011b": 28871, "bridge": 15401, "\u2581SPI": 28500, "\u2581NOTICE": 27199, "\u0446\u0438\u0458\u0430": 26895, "equation": 2160, "lan": 7411, "\u2581fat": 6370, "\u2581Luke": 15425, "\u2581gebru": 23257, "LET": 25870, "CKET": 26474, "\u25e6": 31583, "\u2581\u00f6ver": 14509, "\u2581palm": 17919, "\u2581favourite": 16020, "le": 291, "\u2581As": 1136, "\u0144": 28908, "\u2581Row": 14392, "autre": 25538, "\u2581mont": 11895, "Value": 1462, "high": 9301, "\u2581\u0432\u0456\u043d": 23290, "\u2581lik": 2583, "\u03b3": 29101, "\u2581Sab": 11527, "\u2581Sony": 21360, "\u2581organization": 6666, "omr\u00e5": 24287, "american": 22071, "og": 476, "aring": 2302, "\u2581Ti": 24881, "\u2581Azure": 24769, "orters": 12283, ")-\\": 26338, "\u2581hunt": 20021, "\u2581Herz": 22026, "mf": 19263, "\u6625": 30643, "\u2581exper": 1469, "\u2581protect": 5321, "\u2581porte": 25509, "\u2581realization": 27565, "\u2581a\u00f1o": 13680, "SEQU": 28148, "\u2581incorporated": 23799, "\u2581maybe": 4357, "\u2581odds": 18585, "\u0447\u0435\u043d\u0438\u044f": 19476, "\u2581russ": 25044, "\u7b26": 29252, "\u2581tre": 2655, "\u2581Bu": 10944, "icit": 18374, "\ud83c\udf0d": 31057, "\uc704": 29744, "\u2581operators": 12765, "annotations": 20378, "erek": 21499, "\"],": 8883, "\u4ed8": 29628, "\u2581strongly": 12287, "\u2581thunder": 25752, "\u2581downstairs": 26686, "\ub0a8": 31183, "linux": 8502, "Black": 15060, "Quest": 14929, "\u2581Bag": 17699, "\u2581compet": 3440, "RM": 14715, "\u2581findings": 18147, "Photo": 25379, "all": 455, "\uba85": 29955, "mul": 18176, "nail": 21418, "bler": 22413, "\u2018": 28894, "Marker": 19854, "\u2581GNU": 7171, "\u2581secret": 5169, "\u2581gall": 15724, "sm": 2762, "\u2581Stockholm": 25529, "\u1ea9": 30677, "\u2581criteria": 15117, "\u2581religion": 10048, "\u2581mark": 1716, "}_\\": 12225, "issa": 13723, "\u2014\u2014": 12789, "\u2581Contact": 12603, "\u2581compr": 14333, "\u2581poker": 25346, "\u6cf0": 31361, "export": 12707, "padding": 13712, "\u2581vul": 10320, "\u2581dried": 20283, "\u2581Cr": 4603, "\u2581ensemble": 22936, "\u0acd": 31486, "M": 28755, "\u2581pulling": 13672, "\u2581Sever": 12120, "WT": 25971, "\u1ec1": 30139, "\u9023": 30592, "\u2581[],": 10945, "}\\": 1137, "\u2581authorities": 12503, "app": 763, "ske": 26254, "\u043c\u0456": 5482, "\u2581\u043f\u0440\u043e\u0438\u0437": 15393, "\u8303": 30135, "\u2581naar": 12547, "apse": 9772, "\u2581chill": 21332, "\u2581Web": 6353, "ards": 2178, "\u2581gift": 7875, "ancer": 9754, "<0x71>": 116, "\u91cd": 29249, "\u2581medical": 5714, "cut": 7886, "\u2581contre": 13791, "\u2581downt": 15129, "\u2581Results": 17412, "ima": 4250, "\u2581recall": 8596, "\u2581\u0431\u0456\u043b\u044c": 28502, "\u2581academ": 8853, "school": 19185, "<0x57>": 90, "een": 9995, "\u2581pronounced": 28232, "\u2581sample": 7324, "\u2581fue": 5631, "open": 4124, "\u2581tail": 8675, "\u0434\u043e\u0432": 10410, "\u2581coat": 12620, "()]": 21183, "mine": 16350, "omorphism": 19906, "\u2581Learning": 17504, "oki": 23778, "close": 5336, "ostream": 27762, "\u2581\u0441\u0442\u0432\u043e": 28490, "\ud6a8": 31481, "\u2581Marshal": 27602, "\u2581supporters": 18909, "\u2581seventh": 25650, "\ub808": 30514, "\u2581paper": 3830, "\u2581s\u00ed": 18002, "iej": 6250, "\u2581Lamb": 26247, "\ub974": 31091, "SC": 3315, "yer": 8293, "\u2581intel": 9568, "\u00edtulo": 18440, "ic": 294, "When": 7477, "REQ": 8728, "\u2264": 30035, "plugin": 10416, "\u00edses": 27075, "\u2581minute": 7117, "\u2581knees": 13431, "\u2581O": 451, "\u2581Hein": 19162, "\u2581innovative": 16827, "\u2581Wald": 24050, "\u2581dropped": 7679, "\u2581Austral": 4351, "\u2581Associ": 6097, "Dr": 9587, "\u2581&": 567, "\u0442\u0443\u0440\u0430": 15337, "FORM": 9357, "bros": 25851, "\u2581inwon": 27692, "\u5d4c": 31977, "\u2581\"\";": 11993, "\u2581shrugged": 15264, "\u2581\u0438\u0441\u043f\u043e": 13783, "second": 6562, "\u2581AI": 16107, "Created": 18598, "\u2581mur": 4834, "\u2581enough": 2066, "\u2581caf\u00e9": 28345, "LOT": 24198, "\u2581grim": 17837, "\u2581controversy": 27959, "\u2581lug": 9506, "\u6620": 30877, "assert": 2891, "\u2581Mes": 21758, "\"))": 4948, "@{": 24140, "\u53c8": 30744, "addEventListener": 20907, "\u2581reception": 16844, "\u2581imm": 4493, "\u2581expans": 28235, "reb": 15518, "ighth": 16190, "Security": 11017, "\u2581Iter": 20436, "omitempty": 15509, "\u2581sk": 1321, "\u2581log": 2085, "\u2581Unless": 9954, "\u2581Politics": 25894, "\u2581Heat": 24191, "urg": 2821, "\u0014": 30721, "\u2581enormous": 15322, "ARD": 11101, "\u2581changing": 8634, "\u2581Sohn": 25364, "\u2581mor": 2544, "engono": 26964, "heck": 2543, "\u2581obtained": 7365, "esso": 10284, "stud": 13082, "\u2581peas": 27649, "\u2581asset": 13458, "\u2581contrad": 15235, "\u2581\u0627\u0644": 19078, "uman": 6366, "\u2581lawyer": 12668, "\u014d": 28934, "\u2581Ari": 25513, "\u2581down": 1060, "\u2581\u0423\u043a\u0440\u0430": 26226, "\u2581folded": 20631, "\u2581restriction": 21724, "\u2581arbitrary": 16711, "inois": 13240, "arl": 1977, "works": 17107, "course": 11987, "\u2581much": 1188, "\u2581monument": 17772, "\u2581destac": 27900, "\u0439": 28819, "issue": 11681, "Walk": 25228, "blo": 15190, "\u2581incor": 7376, "\u2581Watch": 11933, "\u2581grin": 17924, "netdev": 25583, "\u2581\u0410\u043b\u044c": 27436, "cept": 1358, "\u7559": 30210, "\u2581teachers": 10880, "\u2581altri": 22861, "\u2581phys": 3256, "<0x6A>": 109, "\u2581physical": 5277, "\u2581nation": 5878, "\u2581temporada": 20030, "\u2581libro": 28066, "\u2581ranch": 26678, "\u2581durant": 21105, "\u2581post": 1704, "\u2581photography": 19824, "\u2581SB": 28520, "position": 3640, "Come": 14724, "terior": 11476, "\u516b": 30440, "\u2581fighter": 23865, "suspend": 21836, "\u2581Votes": 23405, "================": 3047, "\u2581Pic": 17321, "\u2581'\\": 8846, "\u2581precip": 27640, "\u2581cancer": 8875, "\u2581artwork": 27261, "\u2581forg": 12706, "\u5934": 29640, "\u95ee": 29562, "\u5ef6": 30648, "si": 4043, "\u2581\"\"\"": 3504, "Can": 6325, "{$": 13637, "\u2581\u0440\u0430\u0439": 12770, "\u2581orth": 17396, "\u2581cruise": 26869, "\u2581actors": 16760, "Dependency": 25816, "\u0446\u044c": 10105, "ourses": 26401, "\u0121": 31173, "\u2581prevent": 5297, "HTML": 9986, "\u2581sliding": 25152, "\u4eec": 29550, "kom": 9902, "MODE": 7227, "nis": 11765, "``": 13940, "Mart": 21787, "icia": 17708, "\u2581t": 261, "\u2581vault": 26850, "\u2581Question": 22478, "\u2581Jay": 14407, "\u0440\u044e": 23434, "\u8bae": 30361, "ary": 628, "\u00e3o": 2069, "urance": 4935, "Art": 10363, "ep": 615, "\u2581Para": 19562, "\u2581dece": 23009, "onio": 23571, "\u2581rack": 24942, ")</": 10900, "BS": 8340, "sym": 11001, ")}_{": 26585, "XML": 13047, "\u2581observer": 21854, "ancel": 8046, "\u2581contributor": 23040, "\u2581alley": 28539, "bin": 5721, "\u2581\u0433\u043e\u0434": 16994, "oft": 24485, "\u2581volume": 7531, "mas": 4876, "\u2581\u0441\u0442\u0430\u043d": 21479, "\u2581Atlantic": 16343, "ITY": 4966, "\u2581context": 2758, "kar": 13600, "expression": 15848, "\u2581based": 2818, "\u2581tested": 13143, "Fac": 20286, "\u2581Connect": 21873, "\u2581\u041a\u0430\u0440": 16746, "\u2581leaving": 6285, "\u2581aspects": 10936, "\u2581eng": 2536, "\u2581Leg": 5993, "Never": 22855, "\u2581Wrest": 28444, "\u2581accomp": 14231, "\u2581sevent": 11130, "\u2581hood": 21224, "Enable": 13202, "\u2581insights": 20715, "\u2581pseud": 22787, "\u2581rac": 6567, "\u2581};": 2337, "\u2113": 31442, "ysis": 4088, "urop": 6917, "Result": 2716, "\u2581SF": 21890, "Share": 24520, "\u2581Without": 11528, "\u2581fed": 15441, "\u2581ou": 3466, "\u2581AU": 27963, "\uc5c5": 30279, "\u2581counted": 21504, "\u9192": 31224, "\u2581channels": 11671, "\u1f10": 30414, "\u2581exact": 3459, "\u2581mix": 6750, "\u2581surrounding": 12028, "\u2581already": 2141, "Guid": 17893, "keeping": 26840, "\ud398": 30446, "URL": 5343, "\u2581Oktober": 17721, "bil": 26702, "\u2581tastes": 26918, "\u4e3a": 29003, "\uaddc": 31982, "\u2581o\u00f9": 11109, "ncia": 9529, "popup": 21519, "\u2581pri": 3061, "\u2581IO": 8795, "option": 4694, "\u2581ac": 1183, "\u2581conservation": 21088, "\u2581ops": 23002, "\u2581load": 3442, "iversary": 17250, "\u2581\u043f\u043b\u043e": 17223, "\u2581DJ": 18767, "\u2581Byte": 20376, "txt": 7088, "\u2581Ord": 22404, "\u2581farming": 25209, "arch": 1161, "To": 1551, "\u2581slower": 25642, "\u2581\u0433\u043e\u0434\u0443": 5521, "&": 28800, "com": 675, "\u2581pleasure": 10736, "form": 674, "());": 1657, "ong": 566, "\u2581Julian": 23566, "\u2581groupe": 17559, "\u2714": 29772, "\u8be2": 29348, "DO": 5170, "\u2581weit": 17642, "\u2581Aleks": 27877, "&&": 6630, "\u2581represent": 2904, "\u2581obs": 14848, "\u96c6": 29451, "<0x1F>": 34, "OUT": 7217, "\u2581Soph": 15303, "\u2581implied": 7668, "\u2581\u0445\u0430\u0440\u0430\u043a": 26209, "\u2581hacer": 21581, "\u2581unfair": 25340, "\u039c": 29812, "\u2581gotten": 10930, "\u2581condem": 19048, "\u2581uid": 26975, "\u2581August": 3628, "\u2581Kh": 11729, "TIES": 8741, "\u2581d\u00e9j\u00e0": 28320, "ationToken": 17324, "PHY": 21852, "\u2581stuck": 10231, "\u2581\u0434\u0435\u0440\u0435": 15902, "\u5ea6": 29184, "\u2581album": 4708, "\u05d0": 29127, "Net": 4428, "\u2581Sem": 9897, "\u2581VM": 18803, "\u304c": 29309, "ill": 425, "\u547c": 31008, "\u2581awkward": 17450, "\u2581PAR": 19055, "\uac8c": 29833, "\u2581breakfast": 11814, "thers": 2199, "reck": 16136, "romise": 6187, "KE": 4457, "property": 6558, "\u2581Education": 9352, "\u2581eg": 14486, "\u044f\u043d": 15247, "\u2581Enter": 9810, "\u2581Cry": 20254, "\u2581thigh": 21745, "\u2581supers": 25666, "MAX": 5578, "\uff0e": 31181, "}^{": 3041, "\u2581wax": 26627, "<0x2A>": 45, "Eq": 14564, "\u1d1c": 31892, "service": 5134, "\u2581suspected": 18648, "zw": 12912, "\u5f8c": 30134, "\u2581Nel": 10985, "ics": 1063, "\u2581shell": 10043, "\u2581maker": 27065, "\u2581cast": 4815, "\u2581automated": 27761, "\u8853": 31488, "IMPORT": 15101, "\u2581OR": 3994, "btn": 8226, "\u2581swallow": 25993, "obi": 16204, "models": 8676, "\u2581Lim": 10609, "\u2581confusing": 26744, "\u2581occasions": 18323, "\u2581weak": 6334, "\u2581pandemic": 15749, "agr": 13947, "\u2581earned": 12839, "\u2581equivalent": 9844, "lish": 2295, "\u3082": 29778, "\u2581handled": 15570, "Alt": 19980, "\u2581ears": 12446, "Join": 14136, "\u2581Haus": 21209, "tee": 6267, "\u0441\u044c\u043a\u043e\u0433\u043e": 10120, "\u2581clusters": 20501, "interval": 15344, "andal": 19216, "\u6d41": 29642, "\u2581gest": 7165, "THOD": 15106, ":_": 19746, "\u2581voyage": 21982, "\uc54c": 30976, "\u4e34": 30793, "\u2581tight": 6975, "pred": 10477, "itet": 8606, "\u3010": 29506, "\u8c03": 29231, "\u2581CONFIG": 12198, "\u2581thrown": 12046, "PATH": 9759, "\u2581Plan": 9116, "Usage": 16200, "\u2581surge": 24048, "\ud83d\udc40": 31232, "dentry": 28513, "\u2581instinct": 16823, "Graph": 8380, "\u2581Or": 1667, "\u2581opposed": 13970, "EC": 8619, "\u2581Lake": 8703, "Password": 9414, "\u2581tok": 12666, "ex": 720, "\u2581Eff": 24584, "\u2581llam": 17620, "User": 730, "WEBPACK": 16524, "\u2581mass": 3042, "\u00dfe": 9526, "\u2581These": 2957, "\u2581cette": 8821, "\u2581meer": 24691, "\u85e4": 30864, "Dictionary": 17798, "\u2581Mos": 7292, "ignore": 14860, "Tom": 22923, "limits": 14347, "\u2581expl": 1949, "\u2581Dub": 11037, "\u0432\u0443": 6725, "\u0432\u0430\u043b": 16122, "getInstance": 16413, "annot": 5886, "-->": 26345, "\u2581checking": 12779, "pher": 23370, "\u2581servant": 22075, "\u0440\u043e\u0434": 6063, "\u2581unple": 28331, "\u2581arrog": 28327, "\u9001": 29434, "\u2581camb": 15700, "ipe": 3985, "\u0445\u0440\u0430": 23163, "\u2581hero": 10725, "sam": 15084, "error": 1958, "ising": 2979, "\u2581reports": 7959, "\u745e": 31893, "typeof": 9436, "\u2581action": 2992, "cd": 2732, "TypeInfo": 28567, "\u01a1": 29734, "\u2581RO": 13807, "\u2581layer": 7487, "\u2581Market": 11643, "\u2581Brand": 14135, "lon": 15161, "\u2581ER": 21346, "\u2581Which": 9595, "\u2581Norm": 11098, "\u2581sees": 12477, "ikk": 28169, "\u2581Flor": 7958, "\u2581dp": 21492, "\u2581Too": 16601, "conn": 8407, "\u2581overview": 23094, "\u9014": 31787, "Exists": 15862, "\u00ff": 30281, "\u2581mathematical": 27240, "\u2581push": 5696, "String": 1154, "\u0431\u043b\u0438": 8334, "\u00e1k": 9001, "\u2581ceremon": 24840, "\u2581tek": 27107, "\u2581peaks": 28672, "\u5d0e": 31686, "\u0441\u043a\u0435": 17486, "\u2581Bear": 21425, "\u2581entity": 9040, "aped": 7279, "steps": 16005, "\u2581populations": 19439, "predict": 23077, "irection": 7819, "ashing": 4245, "\u00e8me": 8158, "\u2581engineering": 13320, "\u2581fancy": 19602, "MBER": 26172, "nels": 20408, "icate": 5749, "\uc608": 30542, "\u2581Vice": 17224, "\u2581provinc": 12605, "hp": 18634, "\u2581Error": 7419, "\u0449\u0443": 23904, "\u2581battles": 20469, "\u2581incon": 17910, "\u2581exh": 26112, "irling": 26692, "\u00e9m": 4854, "ancial": 14497, "ACTIVE": 17740, "\u2581distribute": 22536, "\u2581languages": 14028, "his": 16355, "\u2581Rules": 24759, "\u2581souvent": 28120, "\u0440\u0430\u043c\u0438": 27142, "\u2581magazines": 22916, "owing": 15675, "Sun": 28524, "\u2581resident": 11468, "irm": 2780, "\u2581traders": 28226, "\u2581abc": 18641, "jas": 20490, "avirus": 22397, "\u2581crime": 9311, "\u2581\u0406": 9341, "\u2581negoti": 12060, "Abs": 15521, "\u2581craft": 9949, "\u2581tissue": 18983, "abulary": 24000, "\u2581Bew": 27459, "\u7269": 29535, "orent": 21958, "\ube14": 30502, "\u2581Position": 17361, "Pl": 2249, "\u2581nun": 17043, "ENTIAL": 26567, "top": 3746, "\u2581improving": 16752, "\u2581Pick": 17662, "ansk": 18269, "\u0440\u044f\u0434": 18554, "\u2581forum": 21516, "\u2581gra": 18216, "expand": 20994, "\u2581triple": 22212, "\u53f2": 30214, "ennessee": 18895, "\u2581pelo": 16432, "\u2581Quarter": 24391, "\u09cd": 29686, "\u2581Six": 13934, ",\\,": 21946, "\u2502": 29032, "\u2581readonly": 10257, "\u2581blog": 6073, "\u2581durch": 6331, "\u2581Net": 5269, "unque": 14733, "MR": 16226, "\u2581lb": 23441, "BUTTON": 25852, "\u0431\u043e\u043c": 26367, "\u2581occurring": 28265, "\u9032": 30801, "\u0137": 31511, "\u2581aus": 3642, "v": 28728, "\u00e7\u00e3o": 3709, "term": 6590, "\u2581mineral": 25837, "\u2581LED": 19937, "etry": 27533, ")^{-": 22816, "\u2581parents": 4386, "\u5e55": 30911, "\u043a\u043b\u044e": 12702, "DATA": 7954, "nte": 15111, "ore": 431, "\u2581Activity": 24066, "ieri": 20048, "apan": 4209, "\"];": 20652, "\u2581poison": 15842, "\u2581geldig": 19088, "isecond": 20086, ":`": 21502, "\u2581\u0430\u0431\u043e": 22860, "\u2581opponents": 23293, "Fun": 3369, "EMPTY": 28138, "\u2581officer": 8119, "indices": 20390, "\u2581\u015bwi": 21200, "\u2581texts": 19337, "aque": 13768, "AU": 18228, "\u2581scenario": 13406, "\u6469": 31978, "eh": 10069, "\u0448\u0443": 16672, "ular": 1098, "\u2581literally": 8350, "random": 9121, "\u2581finish": 7446, "=\"${": 28144, "elseif": 27636, "obe": 8898, "OutputStream": 20667, "amber": 9649, "\u2581protected": 4443, "\u2581comune": 25845, "\u2581Member": 15178, "\u2581Hill": 7442, "\u2581states": 4605, "take": 20985, "\u2581nod": 5460, "\u2581retired": 15451, "\u2581Between": 18046, "\u0cc1": 31143, "ischen": 3096, "\u2581attacked": 15198, "\u2581Product": 9068, "\u2581fel": 11316, "\u2581ingredients": 13506, "\u2581\u0442\u0430": 2937, "\u2581singing": 14493, "\u2581\u0433\u0434\u0435": 17912, "\u2581resolution": 10948, "\u2581Giovanni": 21114, "okes": 9486, "\u5141": 30253, "\u6258": 30955, "\u2581Kennedy": 15288, "logo": 17506, "\u2581hips": 25760, "iento": 7652, "\u2581candle": 26000, "hid": 26096, "\u2581ten": 3095, "arently": 20728, "\u793e": 30115, "leg": 1946, "\u2581di": 890, "\u2581tiles": 24903, "arante": 7203, "down": 3254, "\u2581Hard": 9708, "\u2581Tut": 25048, "\u949f": 30612, "\u2581f\u00f6": 14000, "\u2581conference": 9887, "\u305d": 30292, "CHANT": 12853, "\u001f": 31217, "\u2581compact": 12424, "bet": 10200, "\u2581mod": 968, "\u663e": 29446, "\u89c2": 30740, "?\u201d": 10584, "\u2581Marco": 21069, "\ub098": 29695, "\u2581Als": 13599, "\u2581Lu": 4960, "\u00e9ri": 8909, "thur": 10380, "\u2581mk": 25145, "\u2581Einwohner": 21991, "ished": 1497, "\u2581r": 408, "\u2581\u0441\u044b": 22395, "\u2581Tar": 14740, "\u2581\u0444\u0456": 26204, "rowning": 28496, "\u2581Brown": 8364, "\u2581audio": 10466, "Tables": 22776, "\u2581esp": 7581, "live": 17064, "s": 28713, "ULAR": 12103, "Transfer": 20708, "\u2581Child": 8183, "specially": 18647, "\u2581countr": 24526, "include": 1631, "\u2581architecture": 13811, "));": 1090, "\u2581chief": 9209, "Shop": 22775, "\u2581president": 4951, "\u0106": 29724, "kreis": 22717, "\u2581Belgium": 25129, "\u2581Area": 14488, "\u9519": 29403, "<0x1A>": 29, "ilon": 3451, "oples": 19619, "\u0442\u0432\u0435\u0440": 24153, "\u2581Wal": 6418, "\u2581Bruno": 24274, "\u043c\u0438\u043d\u0438": 17804, "gre": 13052, "\u2581ignore": 9303, "\u2581Dise": 26782, ",\"": 862, "\u2581sei": 18578, "\u2581measuring": 24580, "\u00e1ct": 28062, "imum": 3485, "\u2581vertices": 17794, "\u5de5": 29487, "\u2581Payment": 27294, "\u2581venture": 21106, "\u2581Alaska": 23956, "\u2581tra": 5455, ";\\": 8511, "ows": 3611, "\u2581null": 1241, "\u2581kont": 21674, "\u2581legis": 14864, "\u2581stadium": 24096, "\u0432\u0430\u043d\u043e": 26170, "\u30c1": 29973, "\u2581Char": 4348, "agi": 22657, ",&": 17610, "ClickListener": 24623, "aning": 25388, "conde": 26506, "\u2581fin": 854, "\u2581Very": 13649, "\u2581inst": 1140, "\u2581elementary": 24267, "reduce": 21334, "glich": 21379, "Hash": 6455, "\u2581trou": 7414, "\u2581$(\\": 13049, "itors": 9058, "\u2581path": 2439, "\u2581Foot": 10372, "SPE": 13607, "\u2581releasing": 28364, "iven": 5067, "Ah": 17114, "\u2581cr": 1439, "]->": 11379, "\u2581nav": 5697, "EO": 7438, "\u2581Stra": 12360, "\u62bd": 30885, "\u2581priv": 5136, "\ucf54": 30293, "ler": 1523, "PER": 6512, "\u2581/**\r": 20418, "Mouse": 12237, "\u2581Native": 16024, "PTR": 17551, "\u2581den": 1457, "iliar": 7036, "urs": 1726, "heid": 16731, "resources": 15448, "\u2581chaos": 21007, "\u2581manifold": 28130, "\u00e7o": 15309, "\u2581band": 4028, "\u2581typically": 9566, "FFFF": 14260, "UAL": 14821, "Expression": 8055, "Weight": 16310, "\u2581accompanying": 23761, "\u2581wings": 15615, "\u2581pattern": 5340, "\u2581wise": 16446, "\u092d": 30893, "ibil": 14820, "\u987b": 30037, "Bitmap": 20623, "\u2581caution": 26769, "\u2581Hou": 14180, "NULL": 5992, "\ud83d\udfe2": 30832, "words": 10366, "\u2581Bug": 27431, "\u7a2e": 31209, "\u2581mar": 1829, "\u6218": 30272, "\u2581SIG": 27061, "\u2581defeat": 15286, "\u2581ties": 20748, "\u2581propri": 25681, "it\u00e9": 3974, "ALLOC": 23513, "\u2581ah": 27069, "ructions": 8373, "\u2581Seit": 21761, "ison": 2350, "\u2581lag": 16369, "\u2581\u043f\u0440\u043e\u0446\u0435": 23146, "\u2581Ar": 1010, "\u2581cos": 6841, "ON": 832, "\u2581tensor": 12327, "\u2581du": 1415, "ali": 4827, "mob": 28483, "background": 11563, "Live": 18119, "\u2581Equipment": 26025, "\u2581fire": 3339, "\u2581pause": 17026, "\u201c.": 14771, "ENDOR": 23669, "\u56e2": 30756, "\u2581gram": 18756, "\u049b": 30417, "}^{(": 13025, "vel": 959, "\u10ea": 30991, "\u2581birth": 5950, "\u2581algun": 14673, "\u2581Class": 4950, "\u2581brush": 16284, "dm": 10855, "datetime": 16058, "Bits": 14721, "unate": 26655, "ovi": 17694, "\u1d1b": 31083, "im": 321, "total": 6828, "\u2581swimming": 16862, "AUTH": 18038, "\u2581$(\"#": 27549, "\u2581Pierre": 13639, "bes": 10354, "\u044a\u043b": 11134, "\u2581pistol": 24184, "\u2581\u017c": 24579, "orter": 7046, "\u2581Brigade": 27861, "\u043b\u043e": 1120, "Preview": 22398, "AF": 8116, "\u2581everyone": 3376, "\u2581couples": 18576, "\u2581Manuel": 20761, "issenschaft": 16440, "\u2581opportun": 4047, "\u2581military": 5469, "\u2581Singh": 24442, "\u00e7a": 10456, "cember": 4354, "\u2581governed": 22175, "\u7b11": 31364, "\u2581Emb": 18065, "Parameter": 6038, "rer": 17749, "\u2581cargo": 16666, "\u5b9e": 29247, "\u2581ging": 21534, "wind": 14401, "\u2581comprehensive": 15313, "\u2581reviewed": 23282, "\u2581Tour": 7113, "Assign": 23572, "\u2581medications": 28050, "\u2581flowing": 25757, "\u2581Testament": 26870, "\u2581sop": 16766, "Integer": 7396, "ues": 1139, "aceae": 19789, "match": 5644, "\u2581stata": 20879, "klass": 24660, "On": 2486, "<0xDB>": 222, "\u2581soph": 16500, "IGH": 18145, "n\u0105": 21077, "\u2581outlined": 28637, "\u2581(@": 23968, "ley": 2047, "\u2581wis": 14729, "ICAL": 21497, "\u2581Charlotte": 16461, "urchase": 20569, "\u677e": 30617, "\u0437\u0456": 13566, "\u0440\u0435\u043c\u0435\u043d": 20546, "\u2581Harvey": 26101, "\u0017": 30841, "\u2581Nieder": 26468, "\u2581*\u00ab": 26811, "recated": 26376, "\u2581failures": 25394, "\u0432\u0448\u0438": 10697, "\u2581sat": 2495, "\u2581swear": 23409, "\u2581ultra": 26600, "\u304f": 29666, "footer": 18743, "\u2581sales": 6292, "\ud569": 29770, "\u2581spr": 7378, "plaatst": 14801, "\u2581Frankfurt": 26858, "center": 5316, "asted": 13072, "alen": 16777, "\u2581Health": 6377, "esian": 17754, "\u1ead": 29667, "les": 867, "\u2581receiver": 15720, "wo": 809, "\u2581abstract": 11576, "dagger": 17648, "\u2581scheduled": 13873, "shape": 7015, "\u2581alike": 21892, "LEN": 8880, "unfinished": 6921, "\u2581creator": 25365, "Stack": 6793, "\u2581Lux": 18194, "\u2581Qu": 2332, "<0xC6>": 201, "\u043d\u043d\u044f": 14704, "\u05e0": 29246, "\u2581Parent": 18712, "orous": 15138, "SHIFT": 18508, "ournal": 7116, "apt": 1459, "nung": 15065, "\u2581Gru": 15296, "\u2581fly": 8547, "PROC": 15812, "\u2581fi": 6407, "\u2581Les": 4573, "\u5ff5": 31329, "\u2581Dennis": 24047, "\u2581To": 1791, "IFT": 15688, "\u2581difficulties": 19316, "\u2581les": 1514, "\u2581Brig": 15114, "\u2581stopping": 17203, "\u2581beautiful": 4672, "\u2581femme": 25040, "\u272d": 31776, "\u2581canon": 28585, "\u2581\u041b": 3218, "\u2581god": 5525, "xy": 4263, "ribu": 15149, "\u8d27": 30227, "\u5e1d": 30607, "\u2581plusieurs": 17071, "\u4e24": 29745, "\u2581experiment": 6878, "ATTR": 10096, "gie": 10955, "\u2581\u2116": 15778, "FL": 4001, "Rate": 12218, "\u2581Hann": 14390, "\u2581Geschichte": 16088, "\u2581Feb": 18198, "box": 2858, "\u2581Architect": 19608, "\u2581towel": 27138, "\u0646": 28955, "Vers": 25423, "\u2581mole": 12160, "\u2581visited": 11542, "\u2581Authority": 20653, "\u2581Viet": 11224, "\u30e0": 29808, "Review": 25861, "\u2581acknow": 10062, "\u2581cub": 13563, "\u2581fait": 8159, "\u2581M\u00e4r": 16851, "The": 1014, "\u0434\u044c": 14599, "<0xB2>": 181, "services": 12451, "\u00e4tt": 13013, "\u2581Syria": 23216, "driven": 27369, "ensure": 7828, "Children": 13868, "\u2581induced": 21327, "\u2581twe": 9394, "\u2581\u0447\u0435\u043c": 23345, "\u2581CNN": 26656, "\u2581teeth": 9033, "\u2581winds": 22838, "\u2581indicating": 17888, "\u2581shelves": 28201, "\u2581local": 1862, "Pointer": 8638, "\u2581cryst": 26148, "\u2581cond": 2076, "abstract": 15474, "bery": 26666, "\u2581pueden": 27791, "\u2581competition": 8995, "\u2581curves": 18469, "kfree": 20492, "\u2581\u044d\u0442\u043e": 10514, "how": 5845, "\u2581simpler": 27013, "\u2581mayo": 23714, "\u2581amazing": 6821, "\u2581occup": 6958, "\u8bc4": 30252, "\u6e29": 30971, "\u2581compens": 12613, "\u2581th": 306, "\u0440\u0430\u044f": 26487, "(){": 8881, "\uccad": 30594, "\u2581exercises": 20858, "\u2581system": 1587, "fony": 22480, "\u2581Line": 9127, "chen": 1839, "ban": 3627, "Factory": 4990, "\u2581helped": 6481, "\u2581properly": 9222, "\u2581Patrick": 13687, "\u2581Lay": 26271, "ally": 578, "\u2581los": 1515, "iciency": 9375, "\u2581hab": 3019, "lect": 844, "\u2581BB": 19942, "\u2581celebr": 5903, "\u2581Conse": 26300, "ubern": 16940, "\u2581sacrifice": 19480, "ACHE": 15597, "edi": 14548, "tick": 17755, "\u2581tobacco": 26865, "scheme": 28338, "\u2581qual": 4109, "\u2581carrier": 20320, "illy": 7915, "\u2581\u043b\u0456": 15299, "\u2581L\u00e9": 25084, "berries": 28363, "connected": 14346, "uel": 3009, "\u2581wh": 388, "\u7403": 30211, "\u79d2": 30009, "\u2581demands": 15047, "\u2581\u0412\u0456": 23870, "\u043b\u044c\u043a\u043e": 14451, "\u0436\u0435\u043d\u0438\u0435": 16525, "\u2581cities": 9245, "\u2581worrying": 27453, "\u017c": 28882, "\u2581cried": 13714, "\u2581accum": 14341, "\u0442\u043e\u043c": 7852, "\u2581criticism": 17584, "\u2581paintings": 19572, "\u045d": 29498, "tooltip": 23866, "\u2581Forces": 25408, "\u89c1": 30237, "ilarly": 12367, "\u2581structural": 21431, "\u2084": 31598, "Invalid": 6976, "atted": 11985, "lected": 2344, "\u0698": 31114, "\u0c24": 31679, "Content": 3929, "utton": 26028, "Res": 1146, "ABLE": 4327, "\u2581phone": 4126, "\u2581vagy": 28666, "\u0430\u043d": 2239, "ensors": 28598, "\u00edcula": 19858, "\u05e7": 29347, "\u0441\u0435": 2313, "\u00e1s": 2507, "\u2581skb": 22076, "html": 3391, "ief": 3417, "\u2581reach": 4563, "cing": 4669, "\ubc14": 30140, "\u043b\u044c\u043d\u043e": 17921, "\u5bbd": 30236, "METHOD": 16398, "\u2581CONDITIONS": 12231, "\u2581was": 403, "\u2581skull": 21181, "\u2581order": 1745, "\u06af": 29461, "\u2581Better": 18862, "profit": 17940, "talk": 25995, "otherapy": 27843, "\u2581invite": 19411, "\u0442\u0438": 1224, "static": 5616, "\u2581responding": 26167, "})\\": 11972, "\u2581ARISING": 28580, "Control": 5452, "ault": 1118, "\u2581adjusted": 21875, "\u2581been": 750, "\u95a2": 30783, "\u2581XXX": 21027, "\u2581sip": 28581, "\u2581hist": 2008, "\u4f1d": 31884, "\u0443\u0442": 13730, "\u2581Florida": 9500, "WER": 15684, "\u2581'';": 13235, "\u2581Interest": 20059, "\u2581Bryan": 27919, "\u51e0": 30523, "\u2581everyday": 15048, "\u5fb7": 30371, "\u2581inspiration": 16463, "\u6781": 31260, "\u2581Dezember": 19314, "getMessage": 18219, "haust": 10288, "\u2581rolled": 12183, "\u2581pan": 3961, "Padding": 18273, "iration": 8679, "\u2581websites": 13486, "\u2581governor": 17116, "\u0433\u0440\u0430\u0434": 21947, "\u82e5": 30233, "\u2581restrictions": 17204, "tab": 4252, "\u00e7": 28857, "\u2581returns": 5723, "\u2581Mens": 20562, "\u2581genius": 22027, "asp": 10124, "\u2581Either": 19551, "\u8239": 31828, "phone": 6690, "\u17c2": 31692, "\u2581internet": 7865, "\u2581Vegas": 18233, "\u2581msg": 7070, "Fact": 19558, "\u2581Restaur": 23657, "\u2581losses": 16275, "\u2581Wy": 13178, "\u2581\u0445\u043e": 10140, "\u2581seguito": 21613, "\u2581parliament": 20848, "\u2581Dr": 2985, "\u2581My": 1984, "\u2581Hud": 20247, "r\u00e1": 12210, "\u2581Fra": 12699, "\u2581pdf": 26562, "etime": 6244, "shadow": 19458, "ured": 2330, "'": 28742, "\u2581Stat": 9248, "CONTROL": 22826, "\u0441\u043f\u0443\u0431\u043b\u0438": 26352, "\u2581Wonder": 21950, "Util": 3609, "Sm": 10259, "\u73b0": 29419, "glied": 17283, ".<": 26364, "ieck": 27578, "\u2581pictures": 8310, "\u2581tr\u00e8s": 15053, "\u2581ent": 936, "\u2581comb": 3006, "\u00e8res": 9603, "\u2581alone": 4411, "\u2581xml": 14502, "\u2581\u043d\u0430\u0441\u0435\u043b\u0435\u043d\u0438\u044f": 23031, "\u2581Research": 7982, "\u2581Community": 11027, "yers": 15624, "Sam": 19777, "Front": 20802, "Variables": 27192, "\u2581lu": 16899, "\u2581suscept": 27595, "querySelector": 17238, "\u2581italien": 27709, "<0xBA>": 189, "\u0c32": 31848, "\u00e5ng": 13733, "\u2581Template": 23469, "\u2581am\u00e9ric": 19981, "\u2581styled": 23138, "\u2581secondary": 13461, "\u2581Press": 6127, "CS": 6158, "\u2581river": 7782, "\u2581Dies": 11403, "\u2581Guy": 16520, "ickets": 25655, "\u2581whisk": 26898, "\u2581\u044e": 11531, "\u2581Referee": 17641, "grade": 7844, "Entries": 21222, "\u2581scenarios": 22141, "aju": 24072, "\u2581wonder": 3383, "IMIT": 12315, "\u2581salv": 18292, "\u2581organizations": 9909, "tat": 17469, "\u043a\u043e\u0457": 26962, "\u2581blade": 17743, "\u4ee4": 29752, "\u2581soul": 7237, "\u2581matched": 16933, "\u2581Patri": 22755, "\u2581Bachelor": 28404, "parts": 14565, "\u2581mirror": 12142, "into": 9635, "\u2581Modern": 13950, "para": 16175, "\u2063": 31212, "\u2581glasses": 16014, "f\u00fchr": 15491, "VD": 10293, "\u2581\u0438\u044e": 14137, "\u2581dup": 22669, "ading": 7836, "\u2581ele": 5939, "ci": 1189, "\u2581como": 3118, "\u2581earn": 6384, "\u2581zwe": 8047, "codes": 22019, "\u2581kick": 7604, "usement": 24862, "\u2581logging": 15703, "<0x82>": 133, "\u2581Script": 15548, "\u2581categories": 13187, "omo": 14016, "\u2581fascinating": 23069, "password": 7349, "\u2581PT": 22612, "\u2581torture": 26026, "\u2581consequ": 7872, "getItem": 26303, "\u2581toda": 26323, "\u2581came": 1988, "Fat": 24076, "comes": 5254, "\u2581favorites": 28651, "pos": 1065, "\u2581Living": 16303, "\u2581Cell": 20355, "\u2581fits": 16395, "anny": 9036, "tw": 7307, "pixel": 22078, "\u2581Austria": 19219, "\u2581kilom": 22230, "\u0f60": 31989, "peat": 15882, "mixer": 17728, ".\u201c": 24033, "\u2581forests": 25770, "Load": 4391, "\u00eancia": 16194, "\u2581Dis": 3433, "\u2581beings": 16905, "EB": 14608, "\u2581Eins": 24055, "\u2581Vent": 22524, "\u2581understanding": 6399, "\u2581ordinary": 13207, "seed": 17498, "************": 17328, "urity": 5608, "\u2581Dutch": 14738, "\u2581community": 3618, "\u2581fra": 6388, "isterschaft": 17651, "\u2581racial": 18450, "\u2581moist": 17261, "\u2581angles": 22289, "ahr": 8775, "\u2581Bez": 22627, "\u2581\u0441\u043b\u0443\u0436": 26683, "drive": 26725, "\u2581Phillips": 27703, "\u0449\u0451": 27859, "\u4e92": 30989, "\u2581transl": 7254, "\u2581doctor": 6676, "rivial": 14805, "plus": 11269, "ushes": 17625, "\u2581ranges": 19441, "What": 3195, "\u2581deren": 25283, "\u2581Left": 18365, "lambda": 3266, "\u2581conversations": 17256, "\u043c\u0435": 2084, "\u2581complexity": 17599, "\u2581gate": 9862, "\u2581thirteen": 26584, "\u2581daughter": 5690, "support": 6658, "\u2581duration": 11964, "dap": 24260, "\u7aef": 29594, "\u2581corners": 19897, "\u2581sober": 26903, "\u2581consistency": 23074, "\u2581helps": 7263, "RET": 12388, "\u53ea": 29405, "\u2581folder": 14249, "\u2581opera": 18859, "\u2581\u00e5r": 19430, "\u2581Wood": 8010, "\u2581interface": 4971, "\u2581bras": 20493, "ollen": 21867, "rename": 22778, "rud": 16950, "Comb": 22865, "\u2581changes": 4435, "\u2581cannab": 25761, "\u2581Sea": 11759, "undial": 18507, "\u2581Jess": 14216, "\u2581targeted": 20279, "\u2581Luther": 22370, "\u2581Hit": 11288, "training": 25714, "\u2581mach": 8505, "\u2581stepped": 9593, "\u2581Squad": 16756, "\u2581Context": 14268, "\u2581Gard": 15070, "grow": 20621, "\u2581discovered": 8324, "\u2581OK": 12206, ",*": 17205, "\u2581Array": 6137, "\u2581task": 3638, "\u2581SE": 5820, "\u2581hun": 8275, "rise": 24035, "Ent": 3989, "\u2581PROVID": 25118, "\u2581traff": 7676, "\u2581entered": 8426, "\u2581requirements": 8296, "\u2581\u0447\u0442\u043e": 7061, "Your": 11159, "theless": 13054, "\u2581interpretation": 16716, "\u2581\u2022": 3700, "wa": 4985, "specific": 15590, "inst": 4138, "\u2581chance": 4676, "\u2581potatoes": 24753, "\u00fe": 29767, "\ud06c": 30056, "\u2581error": 2118, "\u2581t\u00f6": 23272, "ograf\u00eda": 18687, "\u2581Cou": 12376, "\u2581oxygen": 21058, "uo": 27736, "\u043f\u0443": 4873, "WAR": 9272, "irmingham": 24467, "\u03c2": 29013, "\u2581deux": 6935, "operatorname": 12614, "\u2581torn": 9390, "\u2581Mau": 27804, "\u2581interview": 5927, "\u2581\u041a\u0443": 11467, "\u2581increases": 12095, "\u2581inte": 3113, "\u2581direct": 1863, "\u0433\u0430\u043d": 16466, "\u2581jeans": 21576, "\u2581Malays": 21050, "\u2581grid": 10541, "orm": 552, "round": 888, "\u2581situ\u00e9e": 27250, "<0x9C>": 159, "Format": 5056, "quer": 10376, "comed": 25004, "\u2581Catholic": 11377, "\u2581Villa": 21192, "<0xAD>": 176, "\u2581clos": 3377, "())": 1904, "color": 3456, "\u2581PER": 22015, "\u00f6l": 9958, "u": 28718, "hour": 13785, "\u8bb0": 29442, "\u4f4f": 30705, "endor": 9598, "\u2581resur": 28308, "async": 10869, "Fetch": 18527, "OG": 21112, "\u2581controlled": 12888, "\u2581u": 332, "\u2581scores": 14428, "\u653e": 29441, "ING": 2043, "<0x55>": 88, "<0x3F>": 66, "\u2581pid": 21654, "\u2581terrorist": 25891, "r": 28712, "\u72b6": 29334, "After": 9169, "\u2581outside": 3536, "unlikely": 21956, "\u2581Widget": 27226, "\u2581Guard": 12391, "Lines": 21837, "\u2581principale": 25147, "\u2581conc": 3078, "ussen": 18682, "\u2581circles": 18100, "\u2581adapt": 8018, "auc": 14158, "\u2581commission": 10418, "HA": 13307, "\u00e9rc": 23219, "\u2581\u043b\u043e": 18812, "\u2581s\u0103": 14377, "\u2581affirm": 25758, "\u2581Together": 21583, "\u2581designs": 13580, "distance": 18122, "\u062f": 28968, "to": 532, "impse": 26612, "\u2581tile": 16741, "\u2581discrim": 14256, "\u043a\u043e\u0442\u043e": 24236, "\u2581pract": 2844, "\u2581gewann": 26778, "\u0441\u043a\u043e\u0432": 20060, "\u2581early": 2935, "\u53d8": 29389, "\u2581chin": 17418, "\u2581Pf": 17458, "Pi": 14240, "show": 4888, "ICATION": 17389, "\u2581chains": 20496, "\u2581\u0436": 8937, "\u2581byl": 15722, "\u179a": 29995, "Bl": 4919, "\u2581scared": 14541, "\u043d\u0435\u0435": 21083, "\u2581educ": 3600, "\u2581overlook": 24890, "\u2581described": 5397, "\u30a6": 29736, "IVER": 27169, "swing": 11064, "\u2581rout": 6356, "\ubabb": 31408, "\u2581mobil": 24622, "\u0437\u044b": 7763, "riev": 10212, "Hen": 26116, "Force": 19714, "\u2581Crime": 25126, "\u2581und": 640, "Big": 6173, "\u2581Bau": 16095, "\u0c4d": 30865, "\u2581joy": 10186, "\u2581torch": 12441, "Dest": 9277, "mb": 1757, "ies": 497, "elijk": 11667, "iju": 17411, "ultur": 18604, "Param": 2133, "\u2581joint": 9353, "\u2581compare": 9584, "nil": 9454, "\u2581pred": 7871, "\u2581aid": 11092, "\u2581jer": 22752, "localhost": 20816, "accept": 12678, "\u2581pr\u00e9sident": 25446, "\u2581reviews": 10237, "ero": 2036, "View": 2086, "\u2581Maur": 14728, "\u0002": 30551, "Push": 19086, "zten": 24021, "uf": 1194, "\u2581(\u201c": 27156, "pow": 15625, "\u2581rate": 4338, "\u2581das": 2846, "Process": 6007, "\u2581dise": 6091, "MP": 2059, "\u2581bekannt": 24239, "<0x28>": 43, "\u2581trigger": 8366, "\u2039": 29922, "\u56ed": 31180, "\u2581talent": 9234, "\u2581narrow": 8484, "\u2581sur": 1147, "\u2581acknowledged": 23253, "\u2581],": 12052, "\u2581pain": 3358, "\u2581happiness": 15079, "Scale": 10398, "\u2581Author": 9216, "\u2581permitted": 15463, "ayout": 2633, "ardless": 26343, "shared": 9622, "\u2581bio": 17004, "\u5bf9": 29051, "\u2581Don": 3189, "\u2581households": 23755, "adt": 25916, "ST": 920, "\u628a": 29855, "ann": 830, "rug": 10909, "TABLE": 16459, "hood": 5079, "\u2581morte": 24116, "Level": 6268, "\u2581Symbol": 19775, "Xml": 9911, "\ucde8": 31725, "\u2581February": 5353, "\u2581vin": 18146, "\u2581stages": 15360, "eyed": 20732, "ith": 372, "\u2581hash": 7135, "\u2581athletes": 23403, "\u2581sixteen": 24453, "\u306f": 29277, "ecause": 4383, "\u2581covered": 6823, "\u2581marijuana": 28192, "lique": 19438, "ierno": 20122, "\u2581Roma": 17246, "\u2581defence": 22763, "\ud83d\udc96": 31912, "aqu": 19424, "\u2581\u00dc": 13156, "ke": 405, "stock": 16471, "iga": 7233, "\u2581desired": 11785, "coord": 17213, "\u2581selon": 23851, "Read": 3390, "\u2581Menu": 19615, "\u2581designing": 26989, "four": 14171, "richt": 16598, "ch": 338, "\u7259": 31300, "\u2581overwhelmed": 28186, "\u2581aument": 27479, "\u2581\":": 20299, "SEE": 27670, "\u2581reliable": 13227, "WS": 7965, "chester": 11841, "\u2581Pod": 11928, "\u2581gard": 13837, "\u2581congress": 22692, "\u2581grinding": 23847, "rowned": 14335, "engers": 13899, "\u2581genetic": 19869, "\u2581assure": 25510, "\u529e": 31298, "\u2581K": 524, "Strip": 18629, "\u2581INCLUDING": 26565, "\u2581Lav": 26469, "\u5c1a": 31291, "\u2581doubt": 6217, "\u2581Kinder": 23786, "\u2581ved": 16986, "GF": 24390, "\u5e93": 29581, "eu": 15810, "urent": 17178, "iper": 14797, "\u2581Stadium": 8993, "\u17b6": 29847, "\u2581relation": 9378, "hes": 2053, "Depend": 17716, "Argument": 8949, "\u2581province": 14707, "archive": 23682, "\u0148": 29026, "\u2581Adv": 10822, "Span": 13116, "\\'": 12919, "phase": 19525, "\u2581prohib": 16128, "\u200a": 29149, "\u0e01": 29256, "SV": 11607, "??": 8908, "\u2581pages": 6718, "\u2581Sir": 8351, "\u2581Albert": 12560, "encode": 12079, "\ufe19": 30813, "\u067e": 29483, "aging": 4054, "hello": 21558, "\u2581Late": 23948, "\u2581needle": 25710, "\u2581moved": 4142, "ugins": 10324, "\u2581Ho": 10488, "anse": 14788, "\u2581shooting": 11743, "akers": 8774, "\u2581decid": 26208, "\u2581sog": 26255, "vscale": 24713, "cart": 14040, "\u2581Government": 9714, "\u2581increasingly": 13107, "\u2581F\u00fcr": 18034, "\u2581Reagan": 26294, "\u2026.": 20541, "\u2581Keith": 22759, "\u2581rx": 21451, "\u2581medication": 20859, "\u7535": 29742, "\u2581Bark": 27542, "\u2581pig": 18958, "Small": 22349, "IF": 4066, "was": 9380, "\u2581Library": 10812, "\u2581romance": 21695, "bt": 2695, "\u2581lies": 10427, "Bal": 13450, "\u2581truth": 5307, "fic": 15906, "\u2581dry": 6964, "\u2581landed": 16787, "TYPE": 3657, "achen": 23517, "\u2581composite": 24117, "angled": 21086, "\u0e37": 30008, "uations": 22190, "\u00aa": 28956, "\u2581comparable": 21973, "\u2581Gener": 2766, "\u2581discount": 12711, "\u2581merely": 10783, "\u2581Fif": 16296, "ono": 5875, ";;": 19406, "\u2581describe": 6685, "useum": 5858, "Amer": 8820, "\ud37c": 31902, "UNK": 18571, "\u2581approaches": 13945, "\u2581garden": 8759, "\u30e6": 30775, "Ids": 11307, "<0x38>": 59, "\u043d\u043e\u0439": 3596, "\u2581grave": 14272, "\u2581employee": 12234, "\u2581Ne": 3147, "ype": 571, "().": 1546, "orld": 2534, "iction": 3033, "bot": 10093, "\u2581Marine": 16155, "\u043a\u0441": 7351, "sg": 3322, "rum": 6295, "\u2581octobre": 19171, "\u2581newspapers": 19466, "\u2581enem": 13595, "\u2581traits": 24214, "\u2581phase": 6896, "\u2581worries": 28420, "\u2581proposition": 26201, "deserialize": 25689, "\u2581Link": 9351, "\u2581Observ": 15951, "\u2581bunk": 27194, "\u2581recognised": 28549, "\u2581complement": 16696, "\u2581hen": 8755, "Scheme": 23171, "\u2581override": 8013, "\u2581juli": 22273, "valueOf": 19822, "por": 2006, "\u2581litt": 26261, "\u0437\u044b\u0432\u0430": 18084, "\u2581Caribbean": 27093, "desc": 5916, "record": 9724, "jack": 19181, "ARE": 6394, "\u2581Abraham": 22384, "\u2581Gabriel": 18804, "\u2581read": 1220, "XY": 18884, "existing": 24049, "chip": 10168, "\u2581disaster": 17273, "brace": 24256, "}}_": 14340, "\u2581apparent": 7566, "sc": 824, "\u2581halfway": 23169, "</s>": 2, "\u2581href": 5501, "\u2581trab": 11968, "Construct": 26799, "\u2581pol": 1160, "itage": 13979, "\u044f": 28811, "\u0432\u043e\u0434\u0438": 14807, "\u2581assertTrue": 21923, "\u2581Stack": 25319, "\u2581opens": 15706, "\u2581\u043b\u0443": 24641, "\u2581particip": 4105, "\u2581puts": 12345, "FOR": 6551, "\u1e28": 31949, "\u2581pow": 5323, "\u2581ro": 712, "is\u00e9": 17218, "Detail": 14525, "\u2581liberal": 14987, "\u2581orientation": 18159, "\u2581\u0434\u0435\u043a\u0430": 21871, "ultan": 24263, "\u2581archae": 28426, "\u2581produ": 1219, "\u2581miss": 3178, "otal": 5834, "?_": 13900, "\u2581remarkable": 16959, "\u2581PL": 17980, "\u2581important": 2278, "\ud0dc": 30533, "\u9280": 31890, "sidebar": 27669, "\u2581Ke": 4702, "\u2581attorney": 15085, "\u2581){": 22931, "\u1edf": 30849, "\u2581ric": 14037, "ajax": 14686, "ermo": 27252, "<>(": 27315, "\u2581Lieutenant": 18510, "\u2581contracts": 19178, "\u0432\u0430\u043d\u043d\u044f": 12267, "\u2581elle": 8273, "\u2581has": 659, "\u2581matching": 11623, "\u2581nei": 18986, "ola": 4362, "\u2581broker": 22670, "\u0baa": 30074, "\u2581unsafe": 15426, "EF": 16327, "\ud83c\udf89": 31862, "FT": 5550, "sten": 6062, "7": 28787, "\u2581spoken": 14382, "fmt": 8920, "\u2581decorated": 24616, "\u2581Ver": 2927, "Div": 12739, "robe": 26151, "\u2581draw": 3924, "\u0434\u0456": 5777, "\u2581whoever": 24793, "\u2581nodes": 9249, "aux": 4601, "ifornia": 5999, "irst": 777, "Mr": 18590, "_.": 2769, "\u2581epis": 6030, "\u2581\u043f\u0440\u043e": 2127, "\u2581revenue": 14008, "ipt": 14345, "ulative": 20851, "Array": 2712, "CONNECT": 27482, "tail": 11557, "<0x05>": 8, "=\"": 735, "rage": 18955, "\u2581Sar": 7663, "Multiple": 26905, "\u2581Div": 5812, "bear": 25114, "\u2581\u043e\u0440\u0433\u0430\u043d\u0438\u0437\u0430": 26266, "\u2581SI": 22777, "})$.": 23012, "of": 1009, "\u2581nor": 4678, "\u2581\u043e\u0431\u0440\u0430": 11061, "\u043d\u0435\u0439": 12756, "Sym": 17065, "\u2581Eng": 2317, "\u2581toggle": 23635, "indo": 22641, "\u0447": 28826, "called": 11565, "\u00fcll": 19165, "\u2581fram": 23426, "log": 1582, "\u2581Sid": 20315, "OBJECT": 17879, "\u2581Governor": 16658, "\u2581trois": 14956, "Count": 3072, "rition": 17791, "\u2581},": 1630, "\u2581Campbell": 20760, "IAL": 11104, "MAP": 10999, "\u2581tart": 19373, "\u00e8rent": 24087, "\u2581whom": 6105, "msm": 14289, "\u51cf": 30608, "<0xA0>": 163, "println": 7561, "\u2581Cot": 25025, "ppo": 17652, "HT": 3671, "esen": 23668, "\u2581encode": 20887, "WA": 12245, "\u2581Nov": 8515, "\u2606": 29839, "oose": 12470, "\u2581barr": 20427, "program": 13329, "\u0432\u0435\u0440\u043e": 27489, "\u2581ext": 1568, "\u2581Commander": 22690, "\u2581Bed": 12266, "nod": 26177, "\u2581oper": 1764, "shaller": 21771, "\u2581possibility": 10065, "criptions": 17135, "kernel": 11694, "eder": 2865, "usta": 26770, "\u2581Glad": 28692, "\u2581Pun": 22495, "\u2581TD": 26516, "\u2581stones": 17388, "\u2581brother": 5510, "\u2581Var": 12760, "weights": 26911, "ceptor": 18933, "\u2581ES": 28151, "\u2581Jane": 10805, "\u2581collision": 23322, "alis": 11556, "beit": 10943, "\u2581area": 2698, "\u2581[[": 8070, "args": 3087, "citep": 10371, "\u2581Dale": 25300, "\u2581intu": 21141, "\u2581grades": 25897, "\u2581edific": 23680, "\u8111": 31753, "\u2581std": 2829, "\u2581Mat": 5702, "\u2581he": 400, "\u2581vulner": 12985, "\u2581pb": 27933, "\u2581Cant": 21216, "\u2581scar": 13356, "\u2581lavor": 21785, "\u2581giornata": 23362, "\u2581medic": 7861, "acles": 14395, "\u2581menu": 8514, "abort": 28209, "Screen": 11705, "\u2581Ph": 1972, "\u09c7": 29914, "\u2581\u0446\u0435\u0440": 21276, "\u89c4": 29946, "constant": 16974, "\u0153uv": 20914, "\u0441\u043b\u043e": 12309, "\u03c8": 30341, "Fr": 2642, "\u7389": 30927, "\u2581himself": 2722, "8": 28783, "atal": 3196, "\u53ca": 29965, "\u4f86": 30425, "\u2581Kath": 14940, "\u2581Mur": 7423, "\u2581Op": 6389, "\u2581(%": 14959, "\u043c\u0438\u0440": 20549, "\ub3cc": 31597, "\u2581'.": 14067, "External": 17756, "Delta": 4773, "\u2581elite": 20278, "\u2581Pop": 7259, "\u2581Hart": 13796, "\u2581north": 6120, "\u2581answered": 10239, "\u2581jur": 12310, "\u2581signed": 7995, "\u2581Eli": 17177, "Vector": 6162, "\u2581\u041f\u0443": 25636, "\u2581Au": 9779, "\u0442\u0435\u0440\u0430": 15252, "ow": 336, "consum": 17125, "\u2581deutschen": 25996, "\u2581}": 443, "\u2581Right": 9554, "\u2581Run": 6320, "\u2581sor": 5279, "browser": 13612, "RG": 17814, "\u98a8": 30803, "\u2581Liber": 8592, "\u2581magn": 9027, "\u2581Fisher": 22174, "\u2581Neil": 23467, "\u2581concentrated": 25088, "\\}$": 17006, "\u2581defining": 22629, "\u2581Sak": 24586, "ashboard": 13569, "\u2581Safety": 19412, "\u2581unh": 20581, "Nothing": 20649, "\u2581Fen": 24950, "\u2581sib": 18866, "\u30d2": 31311, "\u2581desde": 11545, "\u2581viv": 13686, "ipp": 15953, "\u00e2te": 17748, "\u2581Time": 5329, "\u2581Churchill": 23142, "Collect": 27991, "\u015a": 29009, "\u5370": 30169, "falls": 16768, "roups": 3515, "onden": 27353, "ClassName": 19452, "\u2193": 30036, "\u2581confusion": 16630, "\u2581Louise": 23928, "section": 3007, "\u2581Jeff": 8678, "\u2581marg": 15003, "Prom": 19967, "\u2581Williams": 10606, "\u2581\u00e9gal": 12951, "try": 1553, "\u2581motivation": 21594, "\u0259": 29108, "\u2581mapped": 25058, "\u00e6r": 26384, "\u25fc": 30806, "\u2581updated": 8457, "\u2581rap": 5017, "\u2581referring": 18723, "LOCK": 7588, "\u2581mechanical": 18832, "rp": 16638, "\u2581summer": 5561, "\u043b\u0438\u043d": 14274, "\u2581nature": 4735, "\u2581meaning": 5746, "\u53f7": 29170, "normal": 8027, "\u0153ur": 24627, "\u28ff": 29934, "\u2581GL": 8537, "icide": 12414, "PM": 8597, "\u2581warrior": 25838, "Figure": 25665, "\u2581ejempl": 28324, "\u2581jours": 25662, "\u534f": 30781, "\u2581apro": 18883, "payload": 13643, "stream": 3888, "ainted": 21169, "\u2581invitation": 22504, "\u2581cl": 533, "\u2581ag": 717, "\u2581toilet": 19580, "onen": 25893, "\u2581innoc": 12686, "\u2581proxy": 15723, "\u2581advise": 25937, "\u0159ed": 27962, "\u2581pun": 5704, "\u2581Marshall": 18049, "ib": 593, "'''": 25135, "\u2581Kiss": 27658, "\u2581faster": 9556, "\u2581movies": 10615, "\u2581diary": 25284, "Statistics": 27478, "<0xCD>": 208, "\u2581bare": 13034, "\u0440\u0435": 800, "pen": 2748, "']))": 16433, "vertex": 19251, "compiler": 19874, "scriptstyle": 26715, "\u056f": 30476, "\u2581escal": 19491, "\u179f": 30326, "\u2581\u017e": 9884, "________": 8320, "bg": 11689, "fer": 642, "\u2581Naz": 10283, "\u043a\u0442\u0443": 19456, "vy": 12246, "\u2581dimensional": 25369, "\u2581Techn": 6772, "\u2581domestic": 12866, "\u2581CBS": 28233, "\u2581Olymp": 8562, "\u2581manif": 19924, "Union": 20981, "abs": 4737, "\u2581highlights": 23089, "\u043f\u0440\u0435\u0434\u0435": 23569, "eps": 2671, "\u2581hammer": 20712, "\u2581fru": 15925, "dbc": 24369, "ADC": 27787, "relative": 19814, "\u00e1r": 5856, "\u2581Oliver": 17979, "\u2581huvud": 19295, "\u06ce": 30690, "\u2581figure": 5248, "<0xAA>": 173, "Cursor": 14058, "\u2581Status": 10965, "ailability": 13011, "\u59cb": 29197, "\u2581tour": 3884, "\u2581approached": 14709, "\u2581visitor": 19446, "\u2581letting": 12815, "aw": 1067, "[$": 7326, "\u2581cort": 16779, "\ucc38": 31459, "jor": 9577, "\u2581combining": 27698, "\u2581pregnant": 15446, "\u9673": 31908, "\u263a": 30601, "\u2581orient": 9093, "\u2581Merc": 27934, "\u2581touched": 12527, "eau": 23524, "frastructure": 11932, "\u2581Irish": 11340, "metry": 16641, "}>": 8699, "___": 8485, "\u2581patients": 6883, "\u6b63": 29302, "\u2581Wire": 26375, "\u2581disagree": 18189, "izaci\u00f3n": 24469, "OT": 2185, "ific": 921, "Snapshot": 16587, "\u2581Accept": 26953, "Layer": 10153, "\u2581bless": 14389, "\u2581ser": 1201, "esh": 9366, "\u2581stan": 17920, "\u2581\u043f\u043e\u043b": 13577, "\u2022": 28899, "raph": 1875, "Period": 18749, "\u2581tragic": 28449, "\u2581female": 7742, "\u2581Film": 7425, "\u2581Perm": 17627, "\u5dee": 30397, "do": 2432, "Analysis": 22039, "\u2581components": 8076, "\u2581Conf": 10007, "Life": 21329, "\u2581Leon": 11615, "gn": 4206, "\u2581seemingly": 20143, "\u2581instance": 3335, "\u2581gray": 11870, "\u2581liegt": 18610, "\u2581detective": 25646, "\u2581Oxford": 13434, "\u2581development": 4099, "\u96c4": 30875, "\u2581playing": 4543, "prises": 19797, "list": 1703, "\u2581Instagram": 18351, "\u2581augment": 20836, "entric": 27053, "\u2581function": 908, "\u62df": 31005, "\u2581Universe": 27131, "\u2581volunte": 10917, "\u2581aggress": 12788, "kes": 10774, "\u2581involve": 17516, "interrupt": 23801, "\u2581TL": 24783, "zi": 4295, "\u2581DMA": 23173, "\u2581Mono": 27464, "\u2581reserves": 26863, "MX": 26534, "Po": 6850, "\u2581stim": 12556, "proposition": 26904, "\u2581bear": 9135, "Student": 28514, "\u2581Think": 15403, "yout": 16478, "OFF": 9770, "\u793c": 31195, "className": 17220, "ytics": 18717, "izes": 5004, "utat": 27426, "\u0437\u043e\u043d": 24973, "ric": 1491, "\u2581median": 16825, "\u2581placing": 20632, "\u2581earnings": 24431, "\u2581tucked": 26391, "\u2581listed": 9206, "\u2581Week": 10433, "\u2581Fab": 12055, "\u2581lum": 17709, "Er": 17900, "\u2581most": 1080, "\u2581IE": 20244, "\u0447\u0435\u0441\u043a\u0438\u0439": 22681, "perf": 24663, "\u044f\u0432": 24548, "\u2581Mama": 25579, "estr": 25926, "NC": 9419, "\u2581Federal": 11652, "\u2581translation": 13846, "\u2581Aut": 3745, "\u2581delegate": 21063, "\u6267": 29556, "\u092a": 29794, "seg": 8111, "iges": 21598, "\u2661": 31104, "\u2581jaar": 22714, "\u8fed": 31820, "Loading": 16031, "rom": 436, "reate": 2730, "WD": 23460, "\u2581syndrome": 27481, "\u2581mundo": 18654, "\u2581Falls": 24538, "\u2581Hawaii": 26434, "Native": 12557, "\u2581Union": 7085, "Managed": 26215, "\u0441\u0442\u0443": 6777, "\u0e14": 29488, "\u2581\u0445": 6457, "utenant": 12610, "\u2581Du": 6335, "\u2581Boot": 20775, "asion": 5797, "\u043c\u043e\u0432": 19264, "\u2581\u0408": 22892, "\u2581Liga": 19547, "redirect": 19123, "\u8cc7": 30232, "istrzost": 25000, "\u2581repair": 11701, "\u2581devast": 19358, "\u2581Pray": 27881, "\u2581THAT": 28083, ">.": 13902, "!\\!\\": 18378, "\u2581wish": 5138, "\u2581theory": 5742, "\u2581nuts": 21204, "\u2581ownership": 13965, "lord": 22112, "\u7279": 29631, "updated": 18169, "\u2581nur": 7475, "\u2581lips": 8852, "\u2581arguing": 21440, "\u5831": 30544, "name": 861, "Script": 6786, "\u2581copies": 12221, "\u2581jed": 6294, "\u2581to": 298, "\u2581pr\u00e9s": 9671, "\u2581Truth": 23981, "\u2581on": 356, "\u0440\u0430\u0442": 22325, "\u2581Govern": 6696, "\u2581exem": 19997, "CSS": 19633, "\u2581Before": 7337, "\u2581contain": 7001, "ators": 3117, "\u2581confess": 26920, "Interval": 14484, "\u2581Kansas": 17778, "ens": 596, "\u00e1tica": 26410, "Neg": 21436, "\u2581vir": 7692, "\u2581Cann": 25535, "minister": 26085, "destination": 20333, "\u2581pale": 12805, "\u2581source": 2832, "\u2581cerca": 24615, "rics": 6720, "adio": 24745, "\u2581f": 285, "lin": 2294, "\u27a4": 31695, "\u4e8b": 29339, "\u2581Lat": 7402, "transl": 21175, "\u2581meetings": 13251, "interest": 20835, "\u2581Reserved": 23182, "\u2581\u0441\u0443": 5652, "ARM": 18105, "\u2581realized": 7185, "\u2581systematic": 26224, "ised": 2458, "\u2581involved": 5290, "\u2581cas": 3274, "Card": 9139, "\u2581EVENT": 18693, "tom": 28154, "\u00d8": 29287, "\u2581great": 1598, "\uc2e0": 30126, "\u252c": 30884, "\u2581\u00fcber": 5431, "\u2581possession": 18149, "\u2581satisfied": 13671, "kh": 15887, "\u2581breaking": 11313, "ica": 1286, "\u2581prepar": 7892, "\u2581occurred": 9894, "\u2581\u0435\u0433\u043e": 9333, "\u2581\u00e8": 3473, "\u2581\u0441\u043e\u0441\u0442\u0430\u0432": 12281, "\u2581https": 4449, "\u2581mentioned": 7083, "Driver": 14582, "charge": 14978, "\u2581iv": 19900, "opol": 13376, "Default": 4158, "hero": 28241, "\u2581internal": 5757, "recogn": 28007, "z\u00e1": 16845, "\u2581Database": 19534, "`.": 9429, "\u2581Helen": 18504, "\u2581Text": 7379, "\u2581\u00eatre": 11983, "\u2581Sver": 28238, "\u2581showing": 8102, "\u6c92": 30931, "\u2581lied": 26984, "\u05b6": 30780, "\u2581cele": 5207, "\u2581target": 2718, "\u2581More": 3764, "mode": 4046, "rection": 19445, "\u2581adoption": 24056, "\u2581tens": 19391, "icator": 17573, "psy": 23687, "\u2581novels": 20302, "\u0442\u043e\u0439": 22939, "\ud0a4": 30649, "\u2581guard": 6980, "\u2581disgust": 21536, "\u8bad": 31154, "Connector": 27563, "\u0110": 29260, "diag": 26551, "\u2581between": 1444, "\u0442\u0435\u043c": 18988, "\u2581FROM": 10657, "aughters": 17350, "\u028c": 31313, "\u2581Aaron": 20486, "plit": 3255, "parse": 5071, "\u2581Success": 16557, "\u2581failing": 19923, "\u2581Properties": 23774, "validator": 27201, "ablo": 22866, "\u2581ju": 5666, "\u2581indeed": 8166, "\u4fa7": 30994, "cas": 11768, "\u2581similarly": 21922, "\u2581Conservative": 21753, "\u2581excluded": 25751, "\u201d,": 9350, "\u2581Spain": 12567, "Manifest": 27980, "\u2581aj": 23371, "=": 28746, "EXEC": 28121, "ado": 1452, "\u2581soldiers": 8996, "tta": 19016, "\u2581ordering": 19815, "errno": 17818, "CTL": 13504, "\u2581listened": 15112, "\u2581opposite": 9089, "\u2581Chart": 16923, "\u2581anime": 25708, "\u2581prediction": 19386, "\u2581education": 5362, "Pay": 9602, "\u2581deals": 14685, "\u2581autumn": 24818, "\u3001": 29041, "ensity": 5454, "\u2581run": 1482, "ardi": 22999, "izontal": 9727, "st": 303, "\u2581class": 875, "\u2581knowledge": 4788, "\ubc18": 30192, "\u6ee4": 30489, "\u2581empt": 28534, "\u2581arriving": 24212, "missing": 22324, "\u2581worlds": 20742, "\u2581performs": 25597, "C": 28743, "\u2581intimid": 26157, "oding": 5195, "\u767e": 30421, "\u0442\u0435\u043b\u044f": 17371, "\u2581Yet": 8516, "(\"#": 11082, "\u2581Bach": 24158, "\u2581forcing": 20504, "cont": 1399, "tegr": 8489, "\u2581gruppo": 28163, "<0xC4>": 199, "anga": 14836, "\u2581companies": 4799, "(\"/": 9933, "\u2581appointment": 14351, "onical": 15566, "\u0290": 31702, "\u2581working": 2739, "\u0435\u0439": 5649, "\u2581English": 4300, "\u6cb9": 31315, "dump": 12927, "\u2581Arbitro": 26607, "ders": 10802, "\u0397": 30339, "\u5f81": 30977, "]);\r": 28171, "\u2581absence": 13841, "\u8c37": 30894, "\u2581indic": 4073, "\u2581diet": 9751, "adj": 26143, "Append": 13028, "gather": 24136, "face": 1797, "patient": 27792, "/#": 27581, "exper": 17245, "ften": 14073, "lap": 15578, "uk": 2950, "amment": 16602, "amous": 22226, "\ufb02": 31473, "ros": 2737, "category": 8684, "Auth": 9083, "\u2581Murray": 19973, "\u80b2": 31350, "\u2581Royal": 8413, "arden": 5699, "ities": 1218, "\u9664": 29153, "ested": 7848, "\uae38": 31270, "\u2581uncertain": 12518, "\u2581minutes": 3486, "\u0e4c": 29923, "\u2581Parameter": 26059, "\u2581s\u0105": 23435, "gray": 17645, "\u2581fueron": 18482, "zas": 26613, "\u2581seam": 23878, "\u2581Conne": 8771, "OO": 17409, "\u2581deliber": 14903, "\u2581independently": 22973, "ruption": 12992, "\u0429": 29124, "\u2581anchor": 19042, "\u2581Validate": 26768, "\u2581haar": 23753, "ze": 1374, "ijing": 25168, "\u1f70": 31235, "vens": 14081, "\u2581HE": 14904, "\u2581COVID": 11747, "GPU": 25804, "shine": 22121, "\u2581safely": 16367, "\u2581submar": 26680, "\u2581niveau": 26706, "\u2581determine": 7655, "\u2581Cath": 8746, "LA": 8423, "hand": 2625, "(@": 10680, "\u2581brands": 15638, "LIED": 19829, "\u1038": 30773, "\ubc30": 30403, "\u2581recip": 14273, "\u2581Fellow": 23783, "II": 2559, "riv": 814, ")]": 4753, "\u2581Coupe": 28650, "art": 444, "\u2581surviv": 18106, "rade": 23992, "\u2581turno": 27200, "\u2581Racing": 22024, "/'": 25415, "\u2581illegal": 12701, "\u975e": 29764, "Pre": 4277, "\u2581Using": 9616, "\u2581taxes": 13027, "\u045f": 28989, "\u2581infer": 13701, "\u2581temperatures": 17991, "\ud559": 30711, "eso": 28485, "\u7edc": 30229, "\u2581executive": 12212, "Ro": 23909, "\u0452\u0435": 27214, "\u2581strat": 27857, "\u2581integrate": 28618, "\u2581Single": 16096, "\u2581Getting": 19896, "multi": 13102, "\u2581Fer": 15172, "\u2581---": 11940, "\u0440\u043e\u0435": 28544, "element": 4172, "equiv": 13220, "\u00f3j": 25830, "\u2581Learn": 16694, "\u2581long": 1043, "\u2581Aber": 25601, "\u2581Song": 11509, "ogether": 11553, "gas": 20404, "\u2581computer": 6074, "Bit": 8443, "\u2581runner": 22125, "\u092c": 30188, "polit": 20424, "\u2581stri": 4216, "\u2581params": 6150, "including": 14682, "lane": 25124, "\u2581Songs": 28647, "\u0635": 29308, "ced": 1354, "\u2581haul": 20743, "Date": 3465, "\u0927": 31080, "\u2581Claire": 20817, "amb": 1379, "ross": 1556, "@": 28818, "\u2581Musik": 20348, "\u2581charges": 11040, "shell": 21678, "samples": 23977, "plug": 24960, ">\")": 26461, "\u2581startup": 25325, "isted": 7134, "\u2581found": 1419, ".\u2019": 18526, "hof": 14193, "\u2581dent": 12156, "\u2581olive": 24403, "\u8fb9": 29860, "\u3070": 30653, "\u2581remind": 8305, "gr": 820, "\u2581grows": 20382, "adelph": 14255, "mapsto": 24719, "Sw": 8117, "Local": 6154, "Center": 15917, "\u2581policy": 4920, "\u2581potential": 4628, "burg": 5467, "buttons": 27269, "\u2581incl": 1171, "\u2581embedding": 28643, "\uba54": 29828, "sson": 14542, "azar": 21364, "Vi": 27147, "\u2581furn": 8556, "metric": 13997, "\u2581Jan": 2997, "utsch": 7732, "\u2581Perry": 24150, "\u2581Agricult": 23837, "MIT": 24791, "legt": 28661, "elli": 8763, "isi": 10867, "\u2581credits": 21762, ")\\\\": 23527, "\u2581Mer": 5625, "\u2581loose": 12945, "vention": 6254, "\u2581Disney": 14665, "\u2581Convert": 16186, "agonal": 16901, "\u2581away": 1753, "\u2581tempor": 6613, "rive": 6016, "chet": 24388, "gor": 4553, "\u2581gal": 7514, "\u2581Em": 2929, "\u2581gentle": 10434, "\u2581pass": 1455, "\u2581ruin": 21878, "\u2581completed": 7368, "<0xB0>": 179, "\u2581tear": 16497, "\u2581Magazine": 18238, "mir": 14911, "\u0441\u043b\u0435\u0434\u043e\u0432\u0430": 23050, "outh": 1881, "\u6233": 31448, "\u2581Client": 13522, "Record": 7079, "\ud83c\udffd": 31007, "bar": 1822, "Apr": 27754, "nm": 14946, "\u2581aliment": 27863, "dead": 23303, "\u043b\u0438\u0437\u0430": 26594, "initions": 22909, "\u2581Number": 8978, "\u2581ji": 28589, "\u2581\u043f\u0440\u0438": 2683, "\u2581Jour": 26074, "\u2581FIXME": 26842, "\u2581},\r": 20692, "chie": 3960, "lauf": 27997, "?)": 15009, "insi": 11738, "akten": 21305, "\u2581donne": 28207, "\u7406": 29093, "\u0688": 31489, "\u2581alert": 10977, "\u2581\u044f\u043a\u0456": 23008, "\u2581inode": 18177, "roduction": 13632, "ard": 488, "\u2581Turkey": 17915, "}(": 2292, "itating": 23251, "\u77f3": 29942, "Split": 16990, "oice": 9634, "\u2581Cross": 10464, "\u2581sul": 10577, "Before": 11273, "orge": 3816, "\u2581grab": 7290, "\u2581Nam": 16908, "pdata": 19890, "temp": 7123, "\u0159e": 21611, "\u2581toy": 21372, "Pair": 14064, "\u2581late": 3909, "tons": 8901, "ographer": 15318, "\u2581m\u011b": 18076, "reply": 16054, "Une": 18813, "orable": 26274, "outing": 8892, "\u2581\u0440\u043e": 2527, "\u2581stub": 14601, "\u2581Spr": 15946, "\u0435\u0434\u0438": 22197, "\u2581showed": 6642, "\u2581Thailand": 23561, "\u2581Owen": 24352, "\u2581Ple": 23436, "\u4f8b": 29362, "\u2581because": 1096, "Basic": 15580, "father": 13385, "\u2581philos": 28039, "))\r": 14668, "\u2581resp": 10840, "commit": 14118, "\u2581mater": 17613, "\u5099": 31410, "\u2581worker": 12933, "\u2581mic": 15644, "\u2581captain": 13565, "\u2581mejor": 23209, "\u2581visits": 17217, "\u2581distinct": 9494, "\",\r": 10939, "\u2581donde": 12943, "!(\"": 19228, "SUPPORT": 17343, "Sk": 9150, "\u2581compt": 27821, "\u2581client": 3698, "$.": 1715, "\u2581organize": 25425, "\u2581exhausted": 20890, "UBLE": 22873, "custom": 6628, "\u2581managing": 16097, "\u00f9": 28912, "\u00f3wn": 16213, "\u2581Gust": 18662, "\u2581years": 1267, "\u2581anci": 21267, "\u2581Release": 19864, "int": 501, "\u2581mx": 26800, "heim": 9733, "\u2581basement": 21466, "\u2581Carolina": 11434, "\u0102": 30148, "\u0490": 29559, "\u10e4": 30880, "\u2581Mitchell": 21072, "LM": 27149, "\u2581Capital": 17053, "\u2581Chile": 17406, "intendo": 25467, "\u2581chamber": 16115, "Ben": 18113, ")$,": 7927, "\u043f\u0430\u043d": 23839, "\u2581Deg": 24866, "c\u00f3w": 24325, "\u2581recognition": 13828, "\u04c0": 31731, "\u2581Schwe": 18295, "\u043b\u0430": 1000, "\u30b9": 29109, "\u592a": 29975, "\u2581slip": 13070, "as": 293, "\u2581simply": 3768, "iforn": 5507, "GEN": 12835, "\u2581caracter": 23574, "pson": 12353, "\u2581ausge": 26227, "ks": 2285, "\u7b56": 30777, "\u2581Application": 12482, "omena": 26504, "\u2581Head": 9655, "FIL": 17168, "len": 2004, "\u2581revol": 14251, "\u05be": 31663, "UD": 8115, "\u2581excessive": 24213, "INS": 12522, "gency": 9588, "\\{\\": 25951, "\u2581divis": 21707, "joint": 16858, "\u2581ring": 6791, "\u2581sectors": 23014, "\u2581\\\\": 2987, "\u2581filters": 17123, "skip": 7671, "Place": 18962, "\u0442\u0456\u0432": 27062, "\u2581flav": 15637, "\uff0c": 28924, "\u2581Bulgar": 22390, "\u05df": 29618, "\u2581aston": 21011, "\ubcf4": 29477, "\uf0d8": 31261, "\u00f6n": 5438, "\u2581Train": 27035, "\u2581liter": 3937, "******": 9329, "\u8fdb": 29258, "ismiss": 28177, "\u300e": 31176, "\u0f7a": 31858, "\u622a": 30572, "Marshal": 24374, "\u2581Pr": 1921, "removed": 28292, "\u2581count": 2113, "\u2581Subject": 25558, "ypes": 4453, "\u2581demonstrate": 16499, "\u2581categor": 20577, "\u2581HT": 7260, "\u00be": 29867, "\u2581PDF": 18520, "\u2581\u0421\u0428\u0410": 17195, "old": 738, "\u2581cutting": 12164, "\u00f3w": 3872, "\u2581default": 2369, "err": 694, "\u2581bru": 16575, "\u2581unemployment": 28634, "arc": 6527, "<0xE9>": 236, "\u2581cogn": 17464, "\u0437\u0430\u043d": 17478, "\u2581wallet": 12837, "\u2581\u0439": 22092, "\u2581(!$": 23942, "Total": 10240, "\u2581curse": 27960, "ceived": 9110, "\u0440\u043e\u0433\u043e": 21826, "Email": 10995, "\u2581Clark": 15006, "\uad50": 31012, "emporary": 9376, "RI": 8671, "\u2581selbst": 22347, "\u0171": 28931, "ski": 5253, "Layout": 4359, "\u2581posts": 10005, "asper": 25177, "\u0565": 29849, "\u2581Step": 7268, "\u2581Uncle": 20189, "\u0441\u0442\u0443\u043f\u0438": 21008, "\u2581Lond": 17681, "----------------": 1177, "GD": 25730, "glise": 19622, "\u2265": 29902, "\u2581roz": 9335, "mber": 2343, "'])": 8757, "++]": 21371, "\u2581standard": 4787, "Syntax": 19529, "between": 24829, "eras": 11234, "\u2581payment": 8850, "\u2581trop": 12090, "\u2581bew": 20039, "()[": 19482, "elem": 12034, "\u2581bree": 18321, "\u2581git": 19163, "\u2581tamb": 6922, "MY": 20801, "\u2581inner": 7450, "\u2581alternate": 24597, "\u043c\u0438\u0440\u0430": 23797, "nek": 11593, "weise": 14647, "\u2581Mario": 20564, "\u2581pent": 15094, "roid": 2938, "\u2581dreams": 12232, "\u2581Room": 14463, "\u2581\u041c": 1894, "major": 20065, "power": 6468, "\u2581phenomenon": 20757, "arry": 12255, "\u2581blend": 20521, "FROM": 21335, "\u00e9r": 3160, "\u2581}\\": 16076, "\u2581celebrated": 20177, "\u2581Punk": 24413, "gar": 4749, "HTTP": 12528, "/,": 25574, "\u2581arms": 5574, "ereg": 27740, "\u2581Al": 976, "\u2581meet": 2647, "razy": 7853, "\u2581Game": 8279, "\u2581p\u0159\u00ed": 23582, "ifier": 3591, "\u2581preg": 25882, "\u0408": 29033, "INCLUDING": 27446, "\u2581pieces": 7769, "\u2581tired": 10272, "\u2581fing": 6634, "Claim": 27154, "\u2581Commerce": 27535, "editor": 10692, "\u2581distributions": 20779, "\u2581probably": 3049, "\u2581Jackie": 28057, "\u2581vl": 14397, "\u2581appet": 22145, "enu": 4265, "iles": 3429, "\u2581\u00e9taient": 24572, "oline": 20252, "<0x59>": 92, "efe": 25922, "factor": 18360, "exception": 7703, "\u8bf4": 29616, "\u2581\u043f\u043e\u0434": 6008, "we": 769, "\u2581vast": 9555, "\u2581excellent": 8099, "\u0622": 29748, "\u2581implies": 12150, "ittel": 14538, "\u2581l\u00e0": 26941, "\u102d": 31321, "Results": 12220, "\u2581widely": 12575, "othy": 18478, "\u2581Altern": 16677, "\u2581ore": 14712, "\u2581violent": 14643, "\u2581attrs": 20793, "<0x2D>": 48, "\u2581Films": 28243, "\u2581character": 3233, "\u2581admit": 11617, "isl": 8069, "\u0e09": 31338, "\u2581knows": 5960, "\u0130": 29336, "\u0e22": 29448, "aria": 6463, "\u2581difficult": 3796, "\u2581chemical": 10845, "\u2581employer": 18646, "card": 5538, "\u2581bags": 14616, "phones": 18624, "\u2581Zealand": 12696, "\u4e4c": 31854, "en\u00ed": 16640, "bey": 23815, "\u2581designer": 15914, "\u2581mail": 9636, "\u2581Hug": 13287, "ellers": 21877, "\u00e0": 28839, "dirname": 21336, "\u2581\u0419": 20100, "created": 13574, "Direct": 7746,
[...]
